{"version": "1.0", "truncation": null, "padding": null, "added_tokens": [{"id": 0, "content": "<|begin_of_text|>", "single_word": false, "lstrip": false, "rstrip": false, "normalized": false, "special": true}, {"id": 1, "content": "<|end_of_text|>", "single_word": false, "lstrip": false, "rstrip": false, "normalized": false, "special": true}, {"id": 2, "content": "<|pad|>", "single_word": false, "lstrip": false, "rstrip": false, "normalized": false, "special": true}, {"id": 3, "content": "<|unk|>", "single_word": false, "lstrip": false, "rstrip": false, "normalized": false, "special": true}, {"id": 4, "content": "<|sep|>", "single_word": false, "lstrip": false, "rstrip": false, "normalized": false, "special": true}, {"id": 5, "content": "<|cls|>", "single_word": false, "lstrip": false, "rstrip": false, "normalized": false, "special": true}, {"id": 6, "content": "<|mask|>", "single_word": false, "lstrip": false, "rstrip": false, "normalized": false, "special": true}, {"id": 7, "content": "<|newline|>", "single_word": false, "lstrip": false, "rstrip": false, "normalized": false, "special": true}, {"id": 8, "content": "<|paragraph|>", "single_word": false, "lstrip": false, "rstrip": false, "normalized": false, "special": true}, {"id": 9, "content": "<|document|>", "single_word": false, "lstrip": false, "rstrip": false, "normalized": false, "special": true}, {"id": 10, "content": "<|system|>", "single_word": false, "lstrip": false, "rstrip": false, "normalized": false, "special": true}, {"id": 11, "content": "<|user|>", "single_word": false, "lstrip": false, "rstrip": false, "normalized": false, "special": true}, {"id": 12, "content": "<|assistant|>", "single_word": false, "lstrip": false, "rstrip": false, "normalized": false, "special": true}, {"id": 13, "content": "<|tool|>", "single_word": false, "lstrip": false, "rstrip": false, "normalized": false, "special": true}, {"id": 14, "content": "<|function|>", "single_word": false, "lstrip": false, "rstrip": false, "normalized": false, "special": true}, {"id": 15, "content": "<|context|>", "single_word": false, "lstrip": false, "rstrip": false, "normalized": false, "special": true}, {"id": 16, "content": "<|instruction|>", "single_word": false, "lstrip": false, "rstrip": false, "normalized": false, "special": true}, {"id": 17, "content": "<|response|>", "single_word": false, "lstrip": false, "rstrip": false, "normalized": false, "special": true}, {"id": 18, "content": "<|turn|>", "single_word": false, "lstrip": false, "rstrip": false, "normalized": false, "special": true}, {"id": 19, "content": "<|end_turn|>", "single_word": false, "lstrip": false, "rstrip": false, "normalized": false, "special": true}, {"id": 20, "content": "<|code_begin|>", "single_word": false, "lstrip": false, "rstrip": false, "normalized": false, "special": true}, {"id": 21, "content": "<|code_end|>", "single_word": false, "lstrip": false, "rstrip": false, "normalized": false, "special": true}, {"id": 22, "content": "<|output_begin|>", "single_word": false, "lstrip": false, "rstrip": false, "normalized": false, "special": true}, {"id": 23, "content": "<|output_end|>", "single_word": false, "lstrip": false, "rstrip": false, "normalized": false, "special": true}, {"id": 24, "content": "<|error|>", "single_word": false, "lstrip": false, "rstrip": false, "normalized": false, "special": true}, {"id": 25, "content": "<|stdin|>", "single_word": false, "lstrip": false, "rstrip": false, "normalized": false, "special": true}, {"id": 26, "content": "<|stdout|>", "single_word": false, "lstrip": false, "rstrip": false, "normalized": false, "special": true}, {"id": 27, "content": "<|stderr|>", "single_word": false, "lstrip": false, "rstrip": false, "normalized": false, "special": true}, {"id": 28, "content": "<|file_begin|>", "single_word": false, "lstrip": false, "rstrip": false, "normalized": false, "special": true}, {"id": 29, "content": "<|file_end|>", "single_word": false, "lstrip": false, "rstrip": false, "normalized": false, "special": true}, {"id": 30, "content": "<|lang:python|>", "single_word": false, "lstrip": false, "rstrip": false, "normalized": false, "special": true}, {"id": 31, "content": "<|lang:javascript|>", "single_word": false, "lstrip": false, "rstrip": false, "normalized": false, "special": true}, {"id": 32, "content": "<|lang:typescript|>", "single_word": false, "lstrip": false, "rstrip": false, "normalized": false, "special": true}, {"id": 33, "content": "<|lang:java|>", "single_word": false, "lstrip": false, "rstrip": false, "normalized": false, "special": true}, {"id": 34, "content": "<|lang:cpp|>", "single_word": false, "lstrip": false, "rstrip": false, "normalized": false, "special": true}, {"id": 35, "content": "<|lang:c|>", "single_word": false, "lstrip": false, "rstrip": false, "normalized": false, "special": true}, {"id": 36, "content": "<|lang:rust|>", "single_word": false, "lstrip": false, "rstrip": false, "normalized": false, "special": true}, {"id": 37, "content": "<|lang:go|>", "single_word": false, "lstrip": false, "rstrip": false, "normalized": false, "special": true}, {"id": 38, "content": "<|lang:ruby|>", "single_word": false, "lstrip": false, "rstrip": false, "normalized": false, "special": true}, {"id": 39, "content": "<|lang:php|>", "single_word": false, "lstrip": false, "rstrip": false, "normalized": false, "special": true}, {"id": 40, "content": "<|lang:swift|>", "single_word": false, "lstrip": false, "rstrip": false, "normalized": false, "special": true}, {"id": 41, "content": "<|lang:kotlin|>", "single_word": false, "lstrip": false, "rstrip": false, "normalized": false, "special": true}, {"id": 42, "content": "<|lang:scala|>", "single_word": false, "lstrip": false, "rstrip": false, "normalized": false, "special": true}, {"id": 43, "content": "<|lang:r|>", "single_word": false, "lstrip": false, "rstrip": false, "normalized": false, "special": true}, {"id": 44, "content": "<|lang:julia|>", "single_word": false, "lstrip": false, "rstrip": false, "normalized": false, "special": true}, {"id": 45, "content": "<|lang:sql|>", "single_word": false, "lstrip": false, "rstrip": false, "normalized": false, "special": true}, {"id": 46, "content": "<|lang:html|>", "single_word": false, "lstrip": false, "rstrip": false, "normalized": false, "special": true}, {"id": 47, "content": "<|lang:css|>", "single_word": false, "lstrip": false, "rstrip": false, "normalized": false, "special": true}, {"id": 48, "content": "<|lang:bash|>", "single_word": false, "lstrip": false, "rstrip": false, "normalized": false, "special": true}, {"id": 49, "content": "<|lang:shell|>", "single_word": false, "lstrip": false, "rstrip": false, "normalized": false, "special": true}, {"id": 50, "content": "<|json_begin|>", "single_word": false, "lstrip": false, "rstrip": false, "normalized": false, "special": true}, {"id": 51, "content": "<|json_end|>", "single_word": false, "lstrip": false, "rstrip": false, "normalized": false, "special": true}, {"id": 52, "content": "<|tool_call|>", "single_word": false, "lstrip": false, "rstrip": false, "normalized": false, "special": true}, {"id": 53, "content": "<|tool_result|>", "single_word": false, "lstrip": false, "rstrip": false, "normalized": false, "special": true}, {"id": 54, "content": "<|function_call|>", "single_word": false, "lstrip": false, "rstrip": false, "normalized": false, "special": true}, {"id": 55, "content": "<|function_result|>", "single_word": false, "lstrip": false, "rstrip": false, "normalized": false, "special": true}, {"id": 56, "content": "<|api_request|>", "single_word": false, "lstrip": false, "rstrip": false, "normalized": false, "special": true}, {"id": 57, "content": "<|api_response|>", "single_word": false, "lstrip": false, "rstrip": false, "normalized": false, "special": true}, {"id": 58, "content": "<|schema|>", "single_word": false, "lstrip": false, "rstrip": false, "normalized": false, "special": true}, {"id": 59, "content": "<|arguments|>", "single_word": false, "lstrip": false, "rstrip": false, "normalized": false, "special": true}, {"id": 60, "content": "<|source:wikipedia|>", "single_word": false, "lstrip": false, "rstrip": false, "normalized": false, "special": true}, {"id": 61, "content": "<|source:github|>", "single_word": false, "lstrip": false, "rstrip": false, "normalized": false, "special": true}, {"id": 62, "content": "<|source:arxiv|>", "single_word": false, "lstrip": false, "rstrip": false, "normalized": false, "special": true}, {"id": 63, "content": "<|source:web|>", "single_word": false, "lstrip": false, "rstrip": false, "normalized": false, "special": true}, {"id": 64, "content": "<|source:book|>", "single_word": false, "lstrip": false, "rstrip": false, "normalized": false, "special": true}, {"id": 65, "content": "<|source:code|>", "single_word": false, "lstrip": false, "rstrip": false, "normalized": false, "special": true}, {"id": 66, "content": "<|source:docs|>", "single_word": false, "lstrip": false, "rstrip": false, "normalized": false, "special": true}, {"id": 67, "content": "<|source:news|>", "single_word": false, "lstrip": false, "rstrip": false, "normalized": false, "special": true}, {"id": 68, "content": "<|source:social|>", "single_word": false, "lstrip": false, "rstrip": false, "normalized": false, "special": true}, {"id": 69, "content": "<|source:other|>", "single_word": false, "lstrip": false, "rstrip": false, "normalized": false, "special": true}, {"id": 70, "content": "<|think_begin|>", "single_word": false, "lstrip": false, "rstrip": false, "normalized": false, "special": true}, {"id": 71, "content": "<|think_end|>", "single_word": false, "lstrip": false, "rstrip": false, "normalized": false, "special": true}, {"id": 72, "content": "<|step|>", "single_word": false, "lstrip": false, "rstrip": false, "normalized": false, "special": true}, {"id": 73, "content": "<|plan|>", "single_word": false, "lstrip": false, "rstrip": false, "normalized": false, "special": true}, {"id": 74, "content": "<|reflect|>", "single_word": false, "lstrip": false, "rstrip": false, "normalized": false, "special": true}, {"id": 75, "content": "<|verify|>", "single_word": false, "lstrip": false, "rstrip": false, "normalized": false, "special": true}, {"id": 76, "content": "<|conclude|>", "single_word": false, "lstrip": false, "rstrip": false, "normalized": false, "special": true}, {"id": 77, "content": "<|reason|>", "single_word": false, "lstrip": false, "rstrip": false, "normalized": false, "special": true}, {"id": 78, "content": "<|analyze|>", "single_word": false, "lstrip": false, "rstrip": false, "normalized": false, "special": true}, {"id": 79, "content": "<|synthesize|>", "single_word": false, "lstrip": false, "rstrip": false, "normalized": false, "special": true}, {"id": 80, "content": "<|markdown|>", "single_word": false, "lstrip": false, "rstrip": false, "normalized": false, "special": true}, {"id": 81, "content": "<|latex|>", "single_word": false, "lstrip": false, "rstrip": false, "normalized": false, "special": true}, {"id": 82, "content": "<|table|>", "single_word": false, "lstrip": false, "rstrip": false, "normalized": false, "special": true}, {"id": 83, "content": "<|list|>", "single_word": false, "lstrip": false, "rstrip": false, "normalized": false, "special": true}, {"id": 84, "content": "<|heading|>", "single_word": false, "lstrip": false, "rstrip": false, "normalized": false, "special": true}, {"id": 85, "content": "<|quote|>", "single_word": false, "lstrip": false, "rstrip": false, "normalized": false, "special": true}, {"id": 86, "content": "<|link|>", "single_word": false, "lstrip": false, "rstrip": false, "normalized": false, "special": true}, {"id": 87, "content": "<|image|>", "single_word": false, "lstrip": false, "rstrip": false, "normalized": false, "special": true}, {"id": 88, "content": "<|math|>", "single_word": false, "lstrip": false, "rstrip": false, "normalized": false, "special": true}, {"id": 89, "content": "<|diagram|>", "single_word": false, "lstrip": false, "rstrip": false, "normalized": false, "special": true}, {"id": 90, "content": "<|chart|>", "single_word": false, "lstrip": false, "rstrip": false, "normalized": false, "special": true}, {"id": 91, "content": "<|formula|>", "single_word": false, "lstrip": false, "rstrip": false, "normalized": false, "special": true}, {"id": 92, "content": "<|footnote|>", "single_word": false, "lstrip": false, "rstrip": false, "normalized": false, "special": true}, {"id": 93, "content": "<|citation|>", "single_word": false, "lstrip": false, "rstrip": false, "normalized": false, "special": true}, {"id": 94, "content": "<|reference|>", "single_word": false, "lstrip": false, "rstrip": false, "normalized": false, "special": true}, {"id": 95, "content": "<|caption|>", "single_word": false, "lstrip": false, "rstrip": false, "normalized": false, "special": true}, {"id": 96, "content": "<|bullet|>", "single_word": false, "lstrip": false, "rstrip": false, "normalized": false, "special": true}, {"id": 97, "content": "<|numbered|>", "single_word": false, "lstrip": false, "rstrip": false, "normalized": false, "special": true}, {"id": 98, "content": "<|checkbox|>", "single_word": false, "lstrip": false, "rstrip": false, "normalized": false, "special": true}, {"id": 99, "content": "<|definition|>", "single_word": false, "lstrip": false, "rstrip": false, "normalized": false, "special": true}, {"id": 100, "content": "<|reserved_100|>", "single_word": false, "lstrip": false, "rstrip": false, "normalized": false, "special": true}, {"id": 101, "content": "<|reserved_101|>", "single_word": false, "lstrip": false, "rstrip": false, "normalized": false, "special": true}, {"id": 102, "content": "<|reserved_102|>", "single_word": false, "lstrip": false, "rstrip": false, "normalized": false, "special": true}, {"id": 103, "content": "<|reserved_103|>", "single_word": false, "lstrip": false, "rstrip": false, "normalized": false, "special": true}, {"id": 104, "content": "<|reserved_104|>", "single_word": false, "lstrip": false, "rstrip": false, "normalized": false, "special": true}, {"id": 105, "content": "<|reserved_105|>", "single_word": false, "lstrip": false, "rstrip": false, "normalized": false, "special": true}, {"id": 106, "content": "<|reserved_106|>", "single_word": false, "lstrip": false, "rstrip": false, "normalized": false, "special": true}, {"id": 107, "content": "<|reserved_107|>", "single_word": false, "lstrip": false, "rstrip": false, "normalized": false, "special": true}, {"id": 108, "content": "<|reserved_108|>", "single_word": false, "lstrip": false, "rstrip": false, "normalized": false, "special": true}, {"id": 109, "content": "<|reserved_109|>", "single_word": false, "lstrip": false, "rstrip": false, "normalized": false, "special": true}, {"id": 110, "content": "<|reserved_110|>", "single_word": false, "lstrip": false, "rstrip": false, "normalized": false, "special": true}, {"id": 111, "content": "<|reserved_111|>", "single_word": false, "lstrip": false, "rstrip": false, "normalized": false, "special": true}, {"id": 112, "content": "<|reserved_112|>", "single_word": false, "lstrip": false, "rstrip": false, "normalized": false, "special": true}, {"id": 113, "content": "<|reserved_113|>", "single_word": false, "lstrip": false, "rstrip": false, "normalized": false, "special": true}, {"id": 114, "content": "<|reserved_114|>", "single_word": false, "lstrip": false, "rstrip": false, "normalized": false, "special": true}, {"id": 115, "content": "<|reserved_115|>", "single_word": false, "lstrip": false, "rstrip": false, "normalized": false, "special": true}, {"id": 116, "content": "<|reserved_116|>", "single_word": false, "lstrip": false, "rstrip": false, "normalized": false, "special": true}, {"id": 117, "content": "<|reserved_117|>", "single_word": false, "lstrip": false, "rstrip": false, "normalized": false, "special": true}, {"id": 118, "content": "<|reserved_118|>", "single_word": false, "lstrip": false, "rstrip": false, "normalized": false, "special": true}, {"id": 119, "content": "<|reserved_119|>", "single_word": false, "lstrip": false, "rstrip": false, "normalized": false, "special": true}, {"id": 120, "content": "<|reserved_120|>", "single_word": false, "lstrip": false, "rstrip": false, "normalized": false, "special": true}, {"id": 121, "content": "<|reserved_121|>", "single_word": false, "lstrip": false, "rstrip": false, "normalized": false, "special": true}, {"id": 122, "content": "<|reserved_122|>", "single_word": false, "lstrip": false, "rstrip": false, "normalized": false, "special": true}, {"id": 123, "content": "<|reserved_123|>", "single_word": false, "lstrip": false, "rstrip": false, "normalized": false, "special": true}, {"id": 124, "content": "<|reserved_124|>", "single_word": false, "lstrip": false, "rstrip": false, "normalized": false, "special": true}, {"id": 125, "content": "<|reserved_125|>", "single_word": false, "lstrip": false, "rstrip": false, "normalized": false, "special": true}, {"id": 126, "content": "<|reserved_126|>", "single_word": false, "lstrip": false, "rstrip": false, "normalized": false, "special": true}, {"id": 127, "content": "<|reserved_127|>", "single_word": false, "lstrip": false, "rstrip": false, "normalized": false, "special": true}, {"id": 128, "content": "<|reserved_128|>", "single_word": false, "lstrip": false, "rstrip": false, "normalized": false, "special": true}, {"id": 129, "content": "<|reserved_129|>", "single_word": false, "lstrip": false, "rstrip": false, "normalized": false, "special": true}, {"id": 130, "content": "<|reserved_130|>", "single_word": false, "lstrip": false, "rstrip": false, "normalized": false, "special": true}, {"id": 131, "content": "<|reserved_131|>", "single_word": false, "lstrip": false, "rstrip": false, "normalized": false, "special": true}, {"id": 132, "content": "<|reserved_132|>", "single_word": false, "lstrip": false, "rstrip": false, "normalized": false, "special": true}, {"id": 133, "content": "<|reserved_133|>", "single_word": false, "lstrip": false, "rstrip": false, "normalized": false, "special": true}, {"id": 134, "content": "<|reserved_134|>", "single_word": false, "lstrip": false, "rstrip": false, "normalized": false, "special": true}, {"id": 135, "content": "<|reserved_135|>", "single_word": false, "lstrip": false, "rstrip": false, "normalized": false, "special": true}, {"id": 136, "content": "<|reserved_136|>", "single_word": false, "lstrip": false, "rstrip": false, "normalized": false, "special": true}, {"id": 137, "content": "<|reserved_137|>", "single_word": false, "lstrip": false, "rstrip": false, "normalized": false, "special": true}, {"id": 138, "content": "<|reserved_138|>", "single_word": false, "lstrip": false, "rstrip": false, "normalized": false, "special": true}, {"id": 139, "content": "<|reserved_139|>", "single_word": false, "lstrip": false, "rstrip": false, "normalized": false, "special": true}, {"id": 140, "content": "<|reserved_140|>", "single_word": false, "lstrip": false, "rstrip": false, "normalized": false, "special": true}, {"id": 141, "content": "<|reserved_141|>", "single_word": false, "lstrip": false, "rstrip": false, "normalized": false, "special": true}, {"id": 142, "content": "<|reserved_142|>", "single_word": false, "lstrip": false, "rstrip": false, "normalized": false, "special": true}, {"id": 143, "content": "<|reserved_143|>", "single_word": false, "lstrip": false, "rstrip": false, "normalized": false, "special": true}, {"id": 144, "content": "<|reserved_144|>", "single_word": false, "lstrip": false, "rstrip": false, "normalized": false, "special": true}, {"id": 145, "content": "<|reserved_145|>", "single_word": false, "lstrip": false, "rstrip": false, "normalized": false, "special": true}, {"id": 146, "content": "<|reserved_146|>", "single_word": false, "lstrip": false, "rstrip": false, "normalized": false, "special": true}, {"id": 147, "content": "<|reserved_147|>", "single_word": false, "lstrip": false, "rstrip": false, "normalized": false, "special": true}, {"id": 148, "content": "<|reserved_148|>", "single_word": false, "lstrip": false, "rstrip": false, "normalized": false, "special": true}, {"id": 149, "content": "<|reserved_149|>", "single_word": false, "lstrip": false, "rstrip": false, "normalized": false, "special": true}, {"id": 150, "content": "<|reserved_150|>", "single_word": false, "lstrip": false, "rstrip": false, "normalized": false, "special": true}, {"id": 151, "content": "<|reserved_151|>", "single_word": false, "lstrip": false, "rstrip": false, "normalized": false, "special": true}, {"id": 152, "content": "<|reserved_152|>", "single_word": false, "lstrip": false, "rstrip": false, "normalized": false, "special": true}, {"id": 153, "content": "<|reserved_153|>", "single_word": false, "lstrip": false, "rstrip": false, "normalized": false, "special": true}, {"id": 154, "content": "<|reserved_154|>", "single_word": false, "lstrip": false, "rstrip": false, "normalized": false, "special": true}, {"id": 155, "content": "<|reserved_155|>", "single_word": false, "lstrip": false, "rstrip": false, "normalized": false, "special": true}, {"id": 156, "content": "<|reserved_156|>", "single_word": false, "lstrip": false, "rstrip": false, "normalized": false, "special": true}, {"id": 157, "content": "<|reserved_157|>", "single_word": false, "lstrip": false, "rstrip": false, "normalized": false, "special": true}, {"id": 158, "content": "<|reserved_158|>", "single_word": false, "lstrip": false, "rstrip": false, "normalized": false, "special": true}, {"id": 159, "content": "<|reserved_159|>", "single_word": false, "lstrip": false, "rstrip": false, "normalized": false, "special": true}, {"id": 160, "content": "<|reserved_160|>", "single_word": false, "lstrip": false, "rstrip": false, "normalized": false, "special": true}, {"id": 161, "content": "<|reserved_161|>", "single_word": false, "lstrip": false, "rstrip": false, "normalized": false, "special": true}, {"id": 162, "content": "<|reserved_162|>", "single_word": false, "lstrip": false, "rstrip": false, "normalized": false, "special": true}, {"id": 163, "content": "<|reserved_163|>", "single_word": false, "lstrip": false, "rstrip": false, "normalized": false, "special": true}, {"id": 164, "content": "<|reserved_164|>", "single_word": false, "lstrip": false, "rstrip": false, "normalized": false, "special": true}, {"id": 165, "content": "<|reserved_165|>", "single_word": false, "lstrip": false, "rstrip": false, "normalized": false, "special": true}, {"id": 166, "content": "<|reserved_166|>", "single_word": false, "lstrip": false, "rstrip": false, "normalized": false, "special": true}, {"id": 167, "content": "<|reserved_167|>", "single_word": false, "lstrip": false, "rstrip": false, "normalized": false, "special": true}, {"id": 168, "content": "<|reserved_168|>", "single_word": false, "lstrip": false, "rstrip": false, "normalized": false, "special": true}, {"id": 169, "content": "<|reserved_169|>", "single_word": false, "lstrip": false, "rstrip": false, "normalized": false, "special": true}, {"id": 170, "content": "<|reserved_170|>", "single_word": false, "lstrip": false, "rstrip": false, "normalized": false, "special": true}, {"id": 171, "content": "<|reserved_171|>", "single_word": false, "lstrip": false, "rstrip": false, "normalized": false, "special": true}, {"id": 172, "content": "<|reserved_172|>", "single_word": false, "lstrip": false, "rstrip": false, "normalized": false, "special": true}, {"id": 173, "content": "<|reserved_173|>", "single_word": false, "lstrip": false, "rstrip": false, "normalized": false, "special": true}, {"id": 174, "content": "<|reserved_174|>", "single_word": false, "lstrip": false, "rstrip": false, "normalized": false, "special": true}, {"id": 175, "content": "<|reserved_175|>", "single_word": false, "lstrip": false, "rstrip": false, "normalized": false, "special": true}, {"id": 176, "content": "<|reserved_176|>", "single_word": false, "lstrip": false, "rstrip": false, "normalized": false, "special": true}, {"id": 177, "content": "<|reserved_177|>", "single_word": false, "lstrip": false, "rstrip": false, "normalized": false, "special": true}, {"id": 178, "content": "<|reserved_178|>", "single_word": false, "lstrip": false, "rstrip": false, "normalized": false, "special": true}, {"id": 179, "content": "<|reserved_179|>", "single_word": false, "lstrip": false, "rstrip": false, "normalized": false, "special": true}, {"id": 180, "content": "<|reserved_180|>", "single_word": false, "lstrip": false, "rstrip": false, "normalized": false, "special": true}, {"id": 181, "content": "<|reserved_181|>", "single_word": false, "lstrip": false, "rstrip": false, "normalized": false, "special": true}, {"id": 182, "content": "<|reserved_182|>", "single_word": false, "lstrip": false, "rstrip": false, "normalized": false, "special": true}, {"id": 183, "content": "<|reserved_183|>", "single_word": false, "lstrip": false, "rstrip": false, "normalized": false, "special": true}, {"id": 184, "content": "<|reserved_184|>", "single_word": false, "lstrip": false, "rstrip": false, "normalized": false, "special": true}, {"id": 185, "content": "<|reserved_185|>", "single_word": false, "lstrip": false, "rstrip": false, "normalized": false, "special": true}, {"id": 186, "content": "<|reserved_186|>", "single_word": false, "lstrip": false, "rstrip": false, "normalized": false, "special": true}, {"id": 187, "content": "<|reserved_187|>", "single_word": false, "lstrip": false, "rstrip": false, "normalized": false, "special": true}, {"id": 188, "content": "<|reserved_188|>", "single_word": false, "lstrip": false, "rstrip": false, "normalized": false, "special": true}, {"id": 189, "content": "<|reserved_189|>", "single_word": false, "lstrip": false, "rstrip": false, "normalized": false, "special": true}, {"id": 190, "content": "<|reserved_190|>", "single_word": false, "lstrip": false, "rstrip": false, "normalized": false, "special": true}, {"id": 191, "content": "<|reserved_191|>", "single_word": false, "lstrip": false, "rstrip": false, "normalized": false, "special": true}, {"id": 192, "content": "<|reserved_192|>", "single_word": false, "lstrip": false, "rstrip": false, "normalized": false, "special": true}, {"id": 193, "content": "<|reserved_193|>", "single_word": false, "lstrip": false, "rstrip": false, "normalized": false, "special": true}, {"id": 194, "content": "<|reserved_194|>", "single_word": false, "lstrip": false, "rstrip": false, "normalized": false, "special": true}, {"id": 195, "content": "<|reserved_195|>", "single_word": false, "lstrip": false, "rstrip": false, "normalized": false, "special": true}, {"id": 196, "content": "<|reserved_196|>", "single_word": false, "lstrip": false, "rstrip": false, "normalized": false, "special": true}, {"id": 197, "content": "<|reserved_197|>", "single_word": false, "lstrip": false, "rstrip": false, "normalized": false, "special": true}, {"id": 198, "content": "<|reserved_198|>", "single_word": false, "lstrip": false, "rstrip": false, "normalized": false, "special": true}, {"id": 199, "content": "<|reserved_199|>", "single_word": false, "lstrip": false, "rstrip": false, "normalized": false, "special": true}, {"id": 200, "content": "<|reserved_200|>", "single_word": false, "lstrip": false, "rstrip": false, "normalized": false, "special": true}, {"id": 201, "content": "<|reserved_201|>", "single_word": false, "lstrip": false, "rstrip": false, "normalized": false, "special": true}, {"id": 202, "content": "<|reserved_202|>", "single_word": false, "lstrip": false, "rstrip": false, "normalized": false, "special": true}, {"id": 203, "content": "<|reserved_203|>", "single_word": false, "lstrip": false, "rstrip": false, "normalized": false, "special": true}, {"id": 204, "content": "<|reserved_204|>", "single_word": false, "lstrip": false, "rstrip": false, "normalized": false, "special": true}, {"id": 205, "content": "<|reserved_205|>", "single_word": false, "lstrip": false, "rstrip": false, "normalized": false, "special": true}, {"id": 206, "content": "<|reserved_206|>", "single_word": false, "lstrip": false, "rstrip": false, "normalized": false, "special": true}, {"id": 207, "content": "<|reserved_207|>", "single_word": false, "lstrip": false, "rstrip": false, "normalized": false, "special": true}, {"id": 208, "content": "<|reserved_208|>", "single_word": false, "lstrip": false, "rstrip": false, "normalized": false, "special": true}, {"id": 209, "content": "<|reserved_209|>", "single_word": false, "lstrip": false, "rstrip": false, "normalized": false, "special": true}, {"id": 210, "content": "<|reserved_210|>", "single_word": false, "lstrip": false, "rstrip": false, "normalized": false, "special": true}, {"id": 211, "content": "<|reserved_211|>", "single_word": false, "lstrip": false, "rstrip": false, "normalized": false, "special": true}, {"id": 212, "content": "<|reserved_212|>", "single_word": false, "lstrip": false, "rstrip": false, "normalized": false, "special": true}, {"id": 213, "content": "<|reserved_213|>", "single_word": false, "lstrip": false, "rstrip": false, "normalized": false, "special": true}, {"id": 214, "content": "<|reserved_214|>", "single_word": false, "lstrip": false, "rstrip": false, "normalized": false, "special": true}, {"id": 215, "content": "<|reserved_215|>", "single_word": false, "lstrip": false, "rstrip": false, "normalized": false, "special": true}, {"id": 216, "content": "<|reserved_216|>", "single_word": false, "lstrip": false, "rstrip": false, "normalized": false, "special": true}, {"id": 217, "content": "<|reserved_217|>", "single_word": false, "lstrip": false, "rstrip": false, "normalized": false, "special": true}, {"id": 218, "content": "<|reserved_218|>", "single_word": false, "lstrip": false, "rstrip": false, "normalized": false, "special": true}, {"id": 219, "content": "<|reserved_219|>", "single_word": false, "lstrip": false, "rstrip": false, "normalized": false, "special": true}, {"id": 220, "content": "<|reserved_220|>", "single_word": false, "lstrip": false, "rstrip": false, "normalized": false, "special": true}, {"id": 221, "content": "<|reserved_221|>", "single_word": false, "lstrip": false, "rstrip": false, "normalized": false, "special": true}, {"id": 222, "content": "<|reserved_222|>", "single_word": false, "lstrip": false, "rstrip": false, "normalized": false, "special": true}, {"id": 223, "content": "<|reserved_223|>", "single_word": false, "lstrip": false, "rstrip": false, "normalized": false, "special": true}, {"id": 224, "content": "<|reserved_224|>", "single_word": false, "lstrip": false, "rstrip": false, "normalized": false, "special": true}, {"id": 225, "content": "<|reserved_225|>", "single_word": false, "lstrip": false, "rstrip": false, "normalized": false, "special": true}, {"id": 226, "content": "<|reserved_226|>", "single_word": false, "lstrip": false, "rstrip": false, "normalized": false, "special": true}, {"id": 227, "content": "<|reserved_227|>", "single_word": false, "lstrip": false, "rstrip": false, "normalized": false, "special": true}, {"id": 228, "content": "<|reserved_228|>", "single_word": false, "lstrip": false, "rstrip": false, "normalized": false, "special": true}, {"id": 229, "content": "<|reserved_229|>", "single_word": false, "lstrip": false, "rstrip": false, "normalized": false, "special": true}, {"id": 230, "content": "<|reserved_230|>", "single_word": false, "lstrip": false, "rstrip": false, "normalized": false, "special": true}, {"id": 231, "content": "<|reserved_231|>", "single_word": false, "lstrip": false, "rstrip": false, "normalized": false, "special": true}, {"id": 232, "content": "<|reserved_232|>", "single_word": false, "lstrip": false, "rstrip": false, "normalized": false, "special": true}, {"id": 233, "content": "<|reserved_233|>", "single_word": false, "lstrip": false, "rstrip": false, "normalized": false, "special": true}, {"id": 234, "content": "<|reserved_234|>", "single_word": false, "lstrip": false, "rstrip": false, "normalized": false, "special": true}, {"id": 235, "content": "<|reserved_235|>", "single_word": false, "lstrip": false, "rstrip": false, "normalized": false, "special": true}, {"id": 236, "content": "<|reserved_236|>", "single_word": false, "lstrip": false, "rstrip": false, "normalized": false, "special": true}, {"id": 237, "content": "<|reserved_237|>", "single_word": false, "lstrip": false, "rstrip": false, "normalized": false, "special": true}, {"id": 238, "content": "<|reserved_238|>", "single_word": false, "lstrip": false, "rstrip": false, "normalized": false, "special": true}, {"id": 239, "content": "<|reserved_239|>", "single_word": false, "lstrip": false, "rstrip": false, "normalized": false, "special": true}, {"id": 240, "content": "<|reserved_240|>", "single_word": false, "lstrip": false, "rstrip": false, "normalized": false, "special": true}, {"id": 241, "content": "<|reserved_241|>", "single_word": false, "lstrip": false, "rstrip": false, "normalized": false, "special": true}, {"id": 242, "content": "<|reserved_242|>", "single_word": false, "lstrip": false, "rstrip": false, "normalized": false, "special": true}, {"id": 243, "content": "<|reserved_243|>", "single_word": false, "lstrip": false, "rstrip": false, "normalized": false, "special": true}, {"id": 244, "content": "<|reserved_244|>", "single_word": false, "lstrip": false, "rstrip": false, "normalized": false, "special": true}, {"id": 245, "content": "<|reserved_245|>", "single_word": false, "lstrip": false, "rstrip": false, "normalized": false, "special": true}, {"id": 246, "content": "<|reserved_246|>", "single_word": false, "lstrip": false, "rstrip": false, "normalized": false, "special": true}, {"id": 247, "content": "<|reserved_247|>", "single_word": false, "lstrip": false, "rstrip": false, "normalized": false, "special": true}, {"id": 248, "content": "<|reserved_248|>", "single_word": false, "lstrip": false, "rstrip": false, "normalized": false, "special": true}, {"id": 249, "content": "<|reserved_249|>", "single_word": false, "lstrip": false, "rstrip": false, "normalized": false, "special": true}, {"id": 250, "content": "<|reserved_250|>", "single_word": false, "lstrip": false, "rstrip": false, "normalized": false, "special": true}, {"id": 251, "content": "<|reserved_251|>", "single_word": false, "lstrip": false, "rstrip": false, "normalized": false, "special": true}, {"id": 252, "content": "<|reserved_252|>", "single_word": false, "lstrip": false, "rstrip": false, "normalized": false, "special": true}, {"id": 253, "content": "<|reserved_253|>", "single_word": false, "lstrip": false, "rstrip": false, "normalized": false, "special": true}, {"id": 254, "content": "<|reserved_254|>", "single_word": false, "lstrip": false, "rstrip": false, "normalized": false, "special": true}, {"id": 255, "content": "<|reserved_255|>", "single_word": false, "lstrip": false, "rstrip": false, "normalized": false, "special": true}, {"id": 256, "content": "<|reserved_256|>", "single_word": false, "lstrip": false, "rstrip": false, "normalized": false, "special": true}, {"id": 257, "content": "<|reserved_257|>", "single_word": false, "lstrip": false, "rstrip": false, "normalized": false, "special": true}, {"id": 258, "content": "<|reserved_258|>", "single_word": false, "lstrip": false, "rstrip": false, "normalized": false, "special": true}, {"id": 259, "content": "<|reserved_259|>", "single_word": false, "lstrip": false, "rstrip": false, "normalized": false, "special": true}, {"id": 260, "content": "<|reserved_260|>", "single_word": false, "lstrip": false, "rstrip": false, "normalized": false, "special": true}, {"id": 261, "content": "<|reserved_261|>", "single_word": false, "lstrip": false, "rstrip": false, "normalized": false, "special": true}, {"id": 262, "content": "<|reserved_262|>", "single_word": false, "lstrip": false, "rstrip": false, "normalized": false, "special": true}, {"id": 263, "content": "<|reserved_263|>", "single_word": false, "lstrip": false, "rstrip": false, "normalized": false, "special": true}, {"id": 264, "content": "<|reserved_264|>", "single_word": false, "lstrip": false, "rstrip": false, "normalized": false, "special": true}, {"id": 265, "content": "<|reserved_265|>", "single_word": false, "lstrip": false, "rstrip": false, "normalized": false, "special": true}, {"id": 266, "content": "<|reserved_266|>", "single_word": false, "lstrip": false, "rstrip": false, "normalized": false, "special": true}, {"id": 267, "content": "<|reserved_267|>", "single_word": false, "lstrip": false, "rstrip": false, "normalized": false, "special": true}, {"id": 268, "content": "<|reserved_268|>", "single_word": false, "lstrip": false, "rstrip": false, "normalized": false, "special": true}, {"id": 269, "content": "<|reserved_269|>", "single_word": false, "lstrip": false, "rstrip": false, "normalized": false, "special": true}, {"id": 270, "content": "<|reserved_270|>", "single_word": false, "lstrip": false, "rstrip": false, "normalized": false, "special": true}, {"id": 271, "content": "<|reserved_271|>", "single_word": false, "lstrip": false, "rstrip": false, "normalized": false, "special": true}, {"id": 272, "content": "<|reserved_272|>", "single_word": false, "lstrip": false, "rstrip": false, "normalized": false, "special": true}, {"id": 273, "content": "<|reserved_273|>", "single_word": false, "lstrip": false, "rstrip": false, "normalized": false, "special": true}, {"id": 274, "content": "<|reserved_274|>", "single_word": false, "lstrip": false, "rstrip": false, "normalized": false, "special": true}, {"id": 275, "content": "<|reserved_275|>", "single_word": false, "lstrip": false, "rstrip": false, "normalized": false, "special": true}, {"id": 276, "content": "<|reserved_276|>", "single_word": false, "lstrip": false, "rstrip": false, "normalized": false, "special": true}, {"id": 277, "content": "<|reserved_277|>", "single_word": false, "lstrip": false, "rstrip": false, "normalized": false, "special": true}, {"id": 278, "content": "<|reserved_278|>", "single_word": false, "lstrip": false, "rstrip": false, "normalized": false, "special": true}, {"id": 279, "content": "<|reserved_279|>", "single_word": false, "lstrip": false, "rstrip": false, "normalized": false, "special": true}, {"id": 280, "content": "<|reserved_280|>", "single_word": false, "lstrip": false, "rstrip": false, "normalized": false, "special": true}, {"id": 281, "content": "<|reserved_281|>", "single_word": false, "lstrip": false, "rstrip": false, "normalized": false, "special": true}, {"id": 282, "content": "<|reserved_282|>", "single_word": false, "lstrip": false, "rstrip": false, "normalized": false, "special": true}, {"id": 283, "content": "<|reserved_283|>", "single_word": false, "lstrip": false, "rstrip": false, "normalized": false, "special": true}, {"id": 284, "content": "<|reserved_284|>", "single_word": false, "lstrip": false, "rstrip": false, "normalized": false, "special": true}, {"id": 285, "content": "<|reserved_285|>", "single_word": false, "lstrip": false, "rstrip": false, "normalized": false, "special": true}, {"id": 286, "content": "<|reserved_286|>", "single_word": false, "lstrip": false, "rstrip": false, "normalized": false, "special": true}, {"id": 287, "content": "<|reserved_287|>", "single_word": false, "lstrip": false, "rstrip": false, "normalized": false, "special": true}, {"id": 288, "content": "<|reserved_288|>", "single_word": false, "lstrip": false, "rstrip": false, "normalized": false, "special": true}, {"id": 289, "content": "<|reserved_289|>", "single_word": false, "lstrip": false, "rstrip": false, "normalized": false, "special": true}, {"id": 290, "content": "<|reserved_290|>", "single_word": false, "lstrip": false, "rstrip": false, "normalized": false, "special": true}, {"id": 291, "content": "<|reserved_291|>", "single_word": false, "lstrip": false, "rstrip": false, "normalized": false, "special": true}, {"id": 292, "content": "<|reserved_292|>", "single_word": false, "lstrip": false, "rstrip": false, "normalized": false, "special": true}, {"id": 293, "content": "<|reserved_293|>", "single_word": false, "lstrip": false, "rstrip": false, "normalized": false, "special": true}, {"id": 294, "content": "<|reserved_294|>", "single_word": false, "lstrip": false, "rstrip": false, "normalized": false, "special": true}, {"id": 295, "content": "<|reserved_295|>", "single_word": false, "lstrip": false, "rstrip": false, "normalized": false, "special": true}, {"id": 296, "content": "<|reserved_296|>", "single_word": false, "lstrip": false, "rstrip": false, "normalized": false, "special": true}, {"id": 297, "content": "<|reserved_297|>", "single_word": false, "lstrip": false, "rstrip": false, "normalized": false, "special": true}, {"id": 298, "content": "<|reserved_298|>", "single_word": false, "lstrip": false, "rstrip": false, "normalized": false, "special": true}, {"id": 299, "content": "<|reserved_299|>", "single_word": false, "lstrip": false, "rstrip": false, "normalized": false, "special": true}, {"id": 300, "content": "<|reserved_300|>", "single_word": false, "lstrip": false, "rstrip": false, "normalized": false, "special": true}, {"id": 301, "content": "<|reserved_301|>", "single_word": false, "lstrip": false, "rstrip": false, "normalized": false, "special": true}, {"id": 302, "content": "<|reserved_302|>", "single_word": false, "lstrip": false, "rstrip": false, "normalized": false, "special": true}, {"id": 303, "content": "<|reserved_303|>", "single_word": false, "lstrip": false, "rstrip": false, "normalized": false, "special": true}, {"id": 304, "content": "<|reserved_304|>", "single_word": false, "lstrip": false, "rstrip": false, "normalized": false, "special": true}, {"id": 305, "content": "<|reserved_305|>", "single_word": false, "lstrip": false, "rstrip": false, "normalized": false, "special": true}, {"id": 306, "content": "<|reserved_306|>", "single_word": false, "lstrip": false, "rstrip": false, "normalized": false, "special": true}, {"id": 307, "content": "<|reserved_307|>", "single_word": false, "lstrip": false, "rstrip": false, "normalized": false, "special": true}, {"id": 308, "content": "<|reserved_308|>", "single_word": false, "lstrip": false, "rstrip": false, "normalized": false, "special": true}, {"id": 309, "content": "<|reserved_309|>", "single_word": false, "lstrip": false, "rstrip": false, "normalized": false, "special": true}, {"id": 310, "content": "<|reserved_310|>", "single_word": false, "lstrip": false, "rstrip": false, "normalized": false, "special": true}, {"id": 311, "content": "<|reserved_311|>", "single_word": false, "lstrip": false, "rstrip": false, "normalized": false, "special": true}, {"id": 312, "content": "<|reserved_312|>", "single_word": false, "lstrip": false, "rstrip": false, "normalized": false, "special": true}, {"id": 313, "content": "<|reserved_313|>", "single_word": false, "lstrip": false, "rstrip": false, "normalized": false, "special": true}, {"id": 314, "content": "<|reserved_314|>", "single_word": false, "lstrip": false, "rstrip": false, "normalized": false, "special": true}, {"id": 315, "content": "<|reserved_315|>", "single_word": false, "lstrip": false, "rstrip": false, "normalized": false, "special": true}, {"id": 316, "content": "<|reserved_316|>", "single_word": false, "lstrip": false, "rstrip": false, "normalized": false, "special": true}, {"id": 317, "content": "<|reserved_317|>", "single_word": false, "lstrip": false, "rstrip": false, "normalized": false, "special": true}, {"id": 318, "content": "<|reserved_318|>", "single_word": false, "lstrip": false, "rstrip": false, "normalized": false, "special": true}, {"id": 319, "content": "<|reserved_319|>", "single_word": false, "lstrip": false, "rstrip": false, "normalized": false, "special": true}, {"id": 320, "content": "<|reserved_320|>", "single_word": false, "lstrip": false, "rstrip": false, "normalized": false, "special": true}, {"id": 321, "content": "<|reserved_321|>", "single_word": false, "lstrip": false, "rstrip": false, "normalized": false, "special": true}, {"id": 322, "content": "<|reserved_322|>", "single_word": false, "lstrip": false, "rstrip": false, "normalized": false, "special": true}, {"id": 323, "content": "<|reserved_323|>", "single_word": false, "lstrip": false, "rstrip": false, "normalized": false, "special": true}, {"id": 324, "content": "<|reserved_324|>", "single_word": false, "lstrip": false, "rstrip": false, "normalized": false, "special": true}, {"id": 325, "content": "<|reserved_325|>", "single_word": false, "lstrip": false, "rstrip": false, "normalized": false, "special": true}, {"id": 326, "content": "<|reserved_326|>", "single_word": false, "lstrip": false, "rstrip": false, "normalized": false, "special": true}, {"id": 327, "content": "<|reserved_327|>", "single_word": false, "lstrip": false, "rstrip": false, "normalized": false, "special": true}, {"id": 328, "content": "<|reserved_328|>", "single_word": false, "lstrip": false, "rstrip": false, "normalized": false, "special": true}, {"id": 329, "content": "<|reserved_329|>", "single_word": false, "lstrip": false, "rstrip": false, "normalized": false, "special": true}, {"id": 330, "content": "<|reserved_330|>", "single_word": false, "lstrip": false, "rstrip": false, "normalized": false, "special": true}, {"id": 331, "content": "<|reserved_331|>", "single_word": false, "lstrip": false, "rstrip": false, "normalized": false, "special": true}, {"id": 332, "content": "<|reserved_332|>", "single_word": false, "lstrip": false, "rstrip": false, "normalized": false, "special": true}, {"id": 333, "content": "<|reserved_333|>", "single_word": false, "lstrip": false, "rstrip": false, "normalized": false, "special": true}, {"id": 334, "content": "<|reserved_334|>", "single_word": false, "lstrip": false, "rstrip": false, "normalized": false, "special": true}, {"id": 335, "content": "<|reserved_335|>", "single_word": false, "lstrip": false, "rstrip": false, "normalized": false, "special": true}, {"id": 336, "content": "<|reserved_336|>", "single_word": false, "lstrip": false, "rstrip": false, "normalized": false, "special": true}, {"id": 337, "content": "<|reserved_337|>", "single_word": false, "lstrip": false, "rstrip": false, "normalized": false, "special": true}, {"id": 338, "content": "<|reserved_338|>", "single_word": false, "lstrip": false, "rstrip": false, "normalized": false, "special": true}, {"id": 339, "content": "<|reserved_339|>", "single_word": false, "lstrip": false, "rstrip": false, "normalized": false, "special": true}, {"id": 340, "content": "<|reserved_340|>", "single_word": false, "lstrip": false, "rstrip": false, "normalized": false, "special": true}, {"id": 341, "content": "<|reserved_341|>", "single_word": false, "lstrip": false, "rstrip": false, "normalized": false, "special": true}, {"id": 342, "content": "<|reserved_342|>", "single_word": false, "lstrip": false, "rstrip": false, "normalized": false, "special": true}, {"id": 343, "content": "<|reserved_343|>", "single_word": false, "lstrip": false, "rstrip": false, "normalized": false, "special": true}, {"id": 344, "content": "<|reserved_344|>", "single_word": false, "lstrip": false, "rstrip": false, "normalized": false, "special": true}, {"id": 345, "content": "<|reserved_345|>", "single_word": false, "lstrip": false, "rstrip": false, "normalized": false, "special": true}, {"id": 346, "content": "<|reserved_346|>", "single_word": false, "lstrip": false, "rstrip": false, "normalized": false, "special": true}, {"id": 347, "content": "<|reserved_347|>", "single_word": false, "lstrip": false, "rstrip": false, "normalized": false, "special": true}, {"id": 348, "content": "<|reserved_348|>", "single_word": false, "lstrip": false, "rstrip": false, "normalized": false, "special": true}, {"id": 349, "content": "<|reserved_349|>", "single_word": false, "lstrip": false, "rstrip": false, "normalized": false, "special": true}, {"id": 350, "content": "<|reserved_350|>", "single_word": false, "lstrip": false, "rstrip": false, "normalized": false, "special": true}, {"id": 351, "content": "<|reserved_351|>", "single_word": false, "lstrip": false, "rstrip": false, "normalized": false, "special": true}, {"id": 352, "content": "<|reserved_352|>", "single_word": false, "lstrip": false, "rstrip": false, "normalized": false, "special": true}, {"id": 353, "content": "<|reserved_353|>", "single_word": false, "lstrip": false, "rstrip": false, "normalized": false, "special": true}, {"id": 354, "content": "<|reserved_354|>", "single_word": false, "lstrip": false, "rstrip": false, "normalized": false, "special": true}, {"id": 355, "content": "<|reserved_355|>", "single_word": false, "lstrip": false, "rstrip": false, "normalized": false, "special": true}, {"id": 356, "content": "<|reserved_356|>", "single_word": false, "lstrip": false, "rstrip": false, "normalized": false, "special": true}, {"id": 357, "content": "<|reserved_357|>", "single_word": false, "lstrip": false, "rstrip": false, "normalized": false, "special": true}, {"id": 358, "content": "<|reserved_358|>", "single_word": false, "lstrip": false, "rstrip": false, "normalized": false, "special": true}, {"id": 359, "content": "<|reserved_359|>", "single_word": false, "lstrip": false, "rstrip": false, "normalized": false, "special": true}, {"id": 360, "content": "<|reserved_360|>", "single_word": false, "lstrip": false, "rstrip": false, "normalized": false, "special": true}, {"id": 361, "content": "<|reserved_361|>", "single_word": false, "lstrip": false, "rstrip": false, "normalized": false, "special": true}, {"id": 362, "content": "<|reserved_362|>", "single_word": false, "lstrip": false, "rstrip": false, "normalized": false, "special": true}, {"id": 363, "content": "<|reserved_363|>", "single_word": false, "lstrip": false, "rstrip": false, "normalized": false, "special": true}, {"id": 364, "content": "<|reserved_364|>", "single_word": false, "lstrip": false, "rstrip": false, "normalized": false, "special": true}, {"id": 365, "content": "<|reserved_365|>", "single_word": false, "lstrip": false, "rstrip": false, "normalized": false, "special": true}, {"id": 366, "content": "<|reserved_366|>", "single_word": false, "lstrip": false, "rstrip": false, "normalized": false, "special": true}, {"id": 367, "content": "<|reserved_367|>", "single_word": false, "lstrip": false, "rstrip": false, "normalized": false, "special": true}, {"id": 368, "content": "<|reserved_368|>", "single_word": false, "lstrip": false, "rstrip": false, "normalized": false, "special": true}, {"id": 369, "content": "<|reserved_369|>", "single_word": false, "lstrip": false, "rstrip": false, "normalized": false, "special": true}, {"id": 370, "content": "<|reserved_370|>", "single_word": false, "lstrip": false, "rstrip": false, "normalized": false, "special": true}, {"id": 371, "content": "<|reserved_371|>", "single_word": false, "lstrip": false, "rstrip": false, "normalized": false, "special": true}, {"id": 372, "content": "<|reserved_372|>", "single_word": false, "lstrip": false, "rstrip": false, "normalized": false, "special": true}, {"id": 373, "content": "<|reserved_373|>", "single_word": false, "lstrip": false, "rstrip": false, "normalized": false, "special": true}, {"id": 374, "content": "<|reserved_374|>", "single_word": false, "lstrip": false, "rstrip": false, "normalized": false, "special": true}, {"id": 375, "content": "<|reserved_375|>", "single_word": false, "lstrip": false, "rstrip": false, "normalized": false, "special": true}, {"id": 376, "content": "<|reserved_376|>", "single_word": false, "lstrip": false, "rstrip": false, "normalized": false, "special": true}, {"id": 377, "content": "<|reserved_377|>", "single_word": false, "lstrip": false, "rstrip": false, "normalized": false, "special": true}, {"id": 378, "content": "<|reserved_378|>", "single_word": false, "lstrip": false, "rstrip": false, "normalized": false, "special": true}, {"id": 379, "content": "<|reserved_379|>", "single_word": false, "lstrip": false, "rstrip": false, "normalized": false, "special": true}, {"id": 380, "content": "<|reserved_380|>", "single_word": false, "lstrip": false, "rstrip": false, "normalized": false, "special": true}, {"id": 381, "content": "<|reserved_381|>", "single_word": false, "lstrip": false, "rstrip": false, "normalized": false, "special": true}, {"id": 382, "content": "<|reserved_382|>", "single_word": false, "lstrip": false, "rstrip": false, "normalized": false, "special": true}, {"id": 383, "content": "<|reserved_383|>", "single_word": false, "lstrip": false, "rstrip": false, "normalized": false, "special": true}, {"id": 384, "content": "<|reserved_384|>", "single_word": false, "lstrip": false, "rstrip": false, "normalized": false, "special": true}, {"id": 385, "content": "<|reserved_385|>", "single_word": false, "lstrip": false, "rstrip": false, "normalized": false, "special": true}, {"id": 386, "content": "<|reserved_386|>", "single_word": false, "lstrip": false, "rstrip": false, "normalized": false, "special": true}, {"id": 387, "content": "<|reserved_387|>", "single_word": false, "lstrip": false, "rstrip": false, "normalized": false, "special": true}, {"id": 388, "content": "<|reserved_388|>", "single_word": false, "lstrip": false, "rstrip": false, "normalized": false, "special": true}, {"id": 389, "content": "<|reserved_389|>", "single_word": false, "lstrip": false, "rstrip": false, "normalized": false, "special": true}, {"id": 390, "content": "<|reserved_390|>", "single_word": false, "lstrip": false, "rstrip": false, "normalized": false, "special": true}, {"id": 391, "content": "<|reserved_391|>", "single_word": false, "lstrip": false, "rstrip": false, "normalized": false, "special": true}, {"id": 392, "content": "<|reserved_392|>", "single_word": false, "lstrip": false, "rstrip": false, "normalized": false, "special": true}, {"id": 393, "content": "<|reserved_393|>", "single_word": false, "lstrip": false, "rstrip": false, "normalized": false, "special": true}, {"id": 394, "content": "<|reserved_394|>", "single_word": false, "lstrip": false, "rstrip": false, "normalized": false, "special": true}, {"id": 395, "content": "<|reserved_395|>", "single_word": false, "lstrip": false, "rstrip": false, "normalized": false, "special": true}, {"id": 396, "content": "<|reserved_396|>", "single_word": false, "lstrip": false, "rstrip": false, "normalized": false, "special": true}, {"id": 397, "content": "<|reserved_397|>", "single_word": false, "lstrip": false, "rstrip": false, "normalized": false, "special": true}, {"id": 398, "content": "<|reserved_398|>", "single_word": false, "lstrip": false, "rstrip": false, "normalized": false, "special": true}, {"id": 399, "content": "<|reserved_399|>", "single_word": false, "lstrip": false, "rstrip": false, "normalized": false, "special": true}, {"id": 400, "content": "<|reserved_400|>", "single_word": false, "lstrip": false, "rstrip": false, "normalized": false, "special": true}, {"id": 401, "content": "<|reserved_401|>", "single_word": false, "lstrip": false, "rstrip": false, "normalized": false, "special": true}, {"id": 402, "content": "<|reserved_402|>", "single_word": false, "lstrip": false, "rstrip": false, "normalized": false, "special": true}, {"id": 403, "content": "<|reserved_403|>", "single_word": false, "lstrip": false, "rstrip": false, "normalized": false, "special": true}, {"id": 404, "content": "<|reserved_404|>", "single_word": false, "lstrip": false, "rstrip": false, "normalized": false, "special": true}, {"id": 405, "content": "<|reserved_405|>", "single_word": false, "lstrip": false, "rstrip": false, "normalized": false, "special": true}, {"id": 406, "content": "<|reserved_406|>", "single_word": false, "lstrip": false, "rstrip": false, "normalized": false, "special": true}, {"id": 407, "content": "<|reserved_407|>", "single_word": false, "lstrip": false, "rstrip": false, "normalized": false, "special": true}, {"id": 408, "content": "<|reserved_408|>", "single_word": false, "lstrip": false, "rstrip": false, "normalized": false, "special": true}, {"id": 409, "content": "<|reserved_409|>", "single_word": false, "lstrip": false, "rstrip": false, "normalized": false, "special": true}, {"id": 410, "content": "<|reserved_410|>", "single_word": false, "lstrip": false, "rstrip": false, "normalized": false, "special": true}, {"id": 411, "content": "<|reserved_411|>", "single_word": false, "lstrip": false, "rstrip": false, "normalized": false, "special": true}, {"id": 412, "content": "<|reserved_412|>", "single_word": false, "lstrip": false, "rstrip": false, "normalized": false, "special": true}, {"id": 413, "content": "<|reserved_413|>", "single_word": false, "lstrip": false, "rstrip": false, "normalized": false, "special": true}, {"id": 414, "content": "<|reserved_414|>", "single_word": false, "lstrip": false, "rstrip": false, "normalized": false, "special": true}, {"id": 415, "content": "<|reserved_415|>", "single_word": false, "lstrip": false, "rstrip": false, "normalized": false, "special": true}, {"id": 416, "content": "<|reserved_416|>", "single_word": false, "lstrip": false, "rstrip": false, "normalized": false, "special": true}, {"id": 417, "content": "<|reserved_417|>", "single_word": false, "lstrip": false, "rstrip": false, "normalized": false, "special": true}, {"id": 418, "content": "<|reserved_418|>", "single_word": false, "lstrip": false, "rstrip": false, "normalized": false, "special": true}, {"id": 419, "content": "<|reserved_419|>", "single_word": false, "lstrip": false, "rstrip": false, "normalized": false, "special": true}, {"id": 420, "content": "<|reserved_420|>", "single_word": false, "lstrip": false, "rstrip": false, "normalized": false, "special": true}, {"id": 421, "content": "<|reserved_421|>", "single_word": false, "lstrip": false, "rstrip": false, "normalized": false, "special": true}, {"id": 422, "content": "<|reserved_422|>", "single_word": false, "lstrip": false, "rstrip": false, "normalized": false, "special": true}, {"id": 423, "content": "<|reserved_423|>", "single_word": false, "lstrip": false, "rstrip": false, "normalized": false, "special": true}, {"id": 424, "content": "<|reserved_424|>", "single_word": false, "lstrip": false, "rstrip": false, "normalized": false, "special": true}, {"id": 425, "content": "<|reserved_425|>", "single_word": false, "lstrip": false, "rstrip": false, "normalized": false, "special": true}, {"id": 426, "content": "<|reserved_426|>", "single_word": false, "lstrip": false, "rstrip": false, "normalized": false, "special": true}, {"id": 427, "content": "<|reserved_427|>", "single_word": false, "lstrip": false, "rstrip": false, "normalized": false, "special": true}, {"id": 428, "content": "<|reserved_428|>", "single_word": false, "lstrip": false, "rstrip": false, "normalized": false, "special": true}, {"id": 429, "content": "<|reserved_429|>", "single_word": false, "lstrip": false, "rstrip": false, "normalized": false, "special": true}, {"id": 430, "content": "<|reserved_430|>", "single_word": false, "lstrip": false, "rstrip": false, "normalized": false, "special": true}, {"id": 431, "content": "<|reserved_431|>", "single_word": false, "lstrip": false, "rstrip": false, "normalized": false, "special": true}, {"id": 432, "content": "<|reserved_432|>", "single_word": false, "lstrip": false, "rstrip": false, "normalized": false, "special": true}, {"id": 433, "content": "<|reserved_433|>", "single_word": false, "lstrip": false, "rstrip": false, "normalized": false, "special": true}, {"id": 434, "content": "<|reserved_434|>", "single_word": false, "lstrip": false, "rstrip": false, "normalized": false, "special": true}, {"id": 435, "content": "<|reserved_435|>", "single_word": false, "lstrip": false, "rstrip": false, "normalized": false, "special": true}, {"id": 436, "content": "<|reserved_436|>", "single_word": false, "lstrip": false, "rstrip": false, "normalized": false, "special": true}, {"id": 437, "content": "<|reserved_437|>", "single_word": false, "lstrip": false, "rstrip": false, "normalized": false, "special": true}, {"id": 438, "content": "<|reserved_438|>", "single_word": false, "lstrip": false, "rstrip": false, "normalized": false, "special": true}, {"id": 439, "content": "<|reserved_439|>", "single_word": false, "lstrip": false, "rstrip": false, "normalized": false, "special": true}, {"id": 440, "content": "<|reserved_440|>", "single_word": false, "lstrip": false, "rstrip": false, "normalized": false, "special": true}, {"id": 441, "content": "<|reserved_441|>", "single_word": false, "lstrip": false, "rstrip": false, "normalized": false, "special": true}, {"id": 442, "content": "<|reserved_442|>", "single_word": false, "lstrip": false, "rstrip": false, "normalized": false, "special": true}, {"id": 443, "content": "<|reserved_443|>", "single_word": false, "lstrip": false, "rstrip": false, "normalized": false, "special": true}, {"id": 444, "content": "<|reserved_444|>", "single_word": false, "lstrip": false, "rstrip": false, "normalized": false, "special": true}, {"id": 445, "content": "<|reserved_445|>", "single_word": false, "lstrip": false, "rstrip": false, "normalized": false, "special": true}, {"id": 446, "content": "<|reserved_446|>", "single_word": false, "lstrip": false, "rstrip": false, "normalized": false, "special": true}, {"id": 447, "content": "<|reserved_447|>", "single_word": false, "lstrip": false, "rstrip": false, "normalized": false, "special": true}, {"id": 448, "content": "<|reserved_448|>", "single_word": false, "lstrip": false, "rstrip": false, "normalized": false, "special": true}, {"id": 449, "content": "<|reserved_449|>", "single_word": false, "lstrip": false, "rstrip": false, "normalized": false, "special": true}, {"id": 450, "content": "<|reserved_450|>", "single_word": false, "lstrip": false, "rstrip": false, "normalized": false, "special": true}, {"id": 451, "content": "<|reserved_451|>", "single_word": false, "lstrip": false, "rstrip": false, "normalized": false, "special": true}, {"id": 452, "content": "<|reserved_452|>", "single_word": false, "lstrip": false, "rstrip": false, "normalized": false, "special": true}, {"id": 453, "content": "<|reserved_453|>", "single_word": false, "lstrip": false, "rstrip": false, "normalized": false, "special": true}, {"id": 454, "content": "<|reserved_454|>", "single_word": false, "lstrip": false, "rstrip": false, "normalized": false, "special": true}, {"id": 455, "content": "<|reserved_455|>", "single_word": false, "lstrip": false, "rstrip": false, "normalized": false, "special": true}, {"id": 456, "content": "<|reserved_456|>", "single_word": false, "lstrip": false, "rstrip": false, "normalized": false, "special": true}, {"id": 457, "content": "<|reserved_457|>", "single_word": false, "lstrip": false, "rstrip": false, "normalized": false, "special": true}, {"id": 458, "content": "<|reserved_458|>", "single_word": false, "lstrip": false, "rstrip": false, "normalized": false, "special": true}, {"id": 459, "content": "<|reserved_459|>", "single_word": false, "lstrip": false, "rstrip": false, "normalized": false, "special": true}, {"id": 460, "content": "<|reserved_460|>", "single_word": false, "lstrip": false, "rstrip": false, "normalized": false, "special": true}, {"id": 461, "content": "<|reserved_461|>", "single_word": false, "lstrip": false, "rstrip": false, "normalized": false, "special": true}, {"id": 462, "content": "<|reserved_462|>", "single_word": false, "lstrip": false, "rstrip": false, "normalized": false, "special": true}, {"id": 463, "content": "<|reserved_463|>", "single_word": false, "lstrip": false, "rstrip": false, "normalized": false, "special": true}, {"id": 464, "content": "<|reserved_464|>", "single_word": false, "lstrip": false, "rstrip": false, "normalized": false, "special": true}, {"id": 465, "content": "<|reserved_465|>", "single_word": false, "lstrip": false, "rstrip": false, "normalized": false, "special": true}, {"id": 466, "content": "<|reserved_466|>", "single_word": false, "lstrip": false, "rstrip": false, "normalized": false, "special": true}, {"id": 467, "content": "<|reserved_467|>", "single_word": false, "lstrip": false, "rstrip": false, "normalized": false, "special": true}, {"id": 468, "content": "<|reserved_468|>", "single_word": false, "lstrip": false, "rstrip": false, "normalized": false, "special": true}, {"id": 469, "content": "<|reserved_469|>", "single_word": false, "lstrip": false, "rstrip": false, "normalized": false, "special": true}, {"id": 470, "content": "<|reserved_470|>", "single_word": false, "lstrip": false, "rstrip": false, "normalized": false, "special": true}, {"id": 471, "content": "<|reserved_471|>", "single_word": false, "lstrip": false, "rstrip": false, "normalized": false, "special": true}, {"id": 472, "content": "<|reserved_472|>", "single_word": false, "lstrip": false, "rstrip": false, "normalized": false, "special": true}, {"id": 473, "content": "<|reserved_473|>", "single_word": false, "lstrip": false, "rstrip": false, "normalized": false, "special": true}, {"id": 474, "content": "<|reserved_474|>", "single_word": false, "lstrip": false, "rstrip": false, "normalized": false, "special": true}, {"id": 475, "content": "<|reserved_475|>", "single_word": false, "lstrip": false, "rstrip": false, "normalized": false, "special": true}, {"id": 476, "content": "<|reserved_476|>", "single_word": false, "lstrip": false, "rstrip": false, "normalized": false, "special": true}, {"id": 477, "content": "<|reserved_477|>", "single_word": false, "lstrip": false, "rstrip": false, "normalized": false, "special": true}, {"id": 478, "content": "<|reserved_478|>", "single_word": false, "lstrip": false, "rstrip": false, "normalized": false, "special": true}, {"id": 479, "content": "<|reserved_479|>", "single_word": false, "lstrip": false, "rstrip": false, "normalized": false, "special": true}, {"id": 480, "content": "<|reserved_480|>", "single_word": false, "lstrip": false, "rstrip": false, "normalized": false, "special": true}, {"id": 481, "content": "<|reserved_481|>", "single_word": false, "lstrip": false, "rstrip": false, "normalized": false, "special": true}, {"id": 482, "content": "<|reserved_482|>", "single_word": false, "lstrip": false, "rstrip": false, "normalized": false, "special": true}, {"id": 483, "content": "<|reserved_483|>", "single_word": false, "lstrip": false, "rstrip": false, "normalized": false, "special": true}, {"id": 484, "content": "<|reserved_484|>", "single_word": false, "lstrip": false, "rstrip": false, "normalized": false, "special": true}, {"id": 485, "content": "<|reserved_485|>", "single_word": false, "lstrip": false, "rstrip": false, "normalized": false, "special": true}, {"id": 486, "content": "<|reserved_486|>", "single_word": false, "lstrip": false, "rstrip": false, "normalized": false, "special": true}, {"id": 487, "content": "<|reserved_487|>", "single_word": false, "lstrip": false, "rstrip": false, "normalized": false, "special": true}, {"id": 488, "content": "<|reserved_488|>", "single_word": false, "lstrip": false, "rstrip": false, "normalized": false, "special": true}, {"id": 489, "content": "<|reserved_489|>", "single_word": false, "lstrip": false, "rstrip": false, "normalized": false, "special": true}, {"id": 490, "content": "<|reserved_490|>", "single_word": false, "lstrip": false, "rstrip": false, "normalized": false, "special": true}, {"id": 491, "content": "<|reserved_491|>", "single_word": false, "lstrip": false, "rstrip": false, "normalized": false, "special": true}, {"id": 492, "content": "<|reserved_492|>", "single_word": false, "lstrip": false, "rstrip": false, "normalized": false, "special": true}, {"id": 493, "content": "<|reserved_493|>", "single_word": false, "lstrip": false, "rstrip": false, "normalized": false, "special": true}, {"id": 494, "content": "<|reserved_494|>", "single_word": false, "lstrip": false, "rstrip": false, "normalized": false, "special": true}, {"id": 495, "content": "<|reserved_495|>", "single_word": false, "lstrip": false, "rstrip": false, "normalized": false, "special": true}, {"id": 496, "content": "<|reserved_496|>", "single_word": false, "lstrip": false, "rstrip": false, "normalized": false, "special": true}, {"id": 497, "content": "<|reserved_497|>", "single_word": false, "lstrip": false, "rstrip": false, "normalized": false, "special": true}, {"id": 498, "content": "<|reserved_498|>", "single_word": false, "lstrip": false, "rstrip": false, "normalized": false, "special": true}, {"id": 499, "content": "<|reserved_499|>", "single_word": false, "lstrip": false, "rstrip": false, "normalized": false, "special": true}, {"id": 500, "content": "<|reserved_500|>", "single_word": false, "lstrip": false, "rstrip": false, "normalized": false, "special": true}, {"id": 501, "content": "<|reserved_501|>", "single_word": false, "lstrip": false, "rstrip": false, "normalized": false, "special": true}, {"id": 502, "content": "<|reserved_502|>", "single_word": false, "lstrip": false, "rstrip": false, "normalized": false, "special": true}, {"id": 503, "content": "<|reserved_503|>", "single_word": false, "lstrip": false, "rstrip": false, "normalized": false, "special": true}, {"id": 504, "content": "<|reserved_504|>", "single_word": false, "lstrip": false, "rstrip": false, "normalized": false, "special": true}, {"id": 505, "content": "<|reserved_505|>", "single_word": false, "lstrip": false, "rstrip": false, "normalized": false, "special": true}, {"id": 506, "content": "<|reserved_506|>", "single_word": false, "lstrip": false, "rstrip": false, "normalized": false, "special": true}, {"id": 507, "content": "<|reserved_507|>", "single_word": false, "lstrip": false, "rstrip": false, "normalized": false, "special": true}, {"id": 508, "content": "<|reserved_508|>", "single_word": false, "lstrip": false, "rstrip": false, "normalized": false, "special": true}, {"id": 509, "content": "<|reserved_509|>", "single_word": false, "lstrip": false, "rstrip": false, "normalized": false, "special": true}, {"id": 510, "content": "<|reserved_510|>", "single_word": false, "lstrip": false, "rstrip": false, "normalized": false, "special": true}, {"id": 511, "content": "<|reserved_511|>", "single_word": false, "lstrip": false, "rstrip": false, "normalized": false, "special": true}], "normalizer": null, "pre_tokenizer": {"type": "Sequence", "pretokenizers": [{"type": "Split", "pattern": {"Regex": "[^\\r\\n\\p{L}\\p{N}]?[\\p{Lu}\\p{Lt}\\p{Lm}\\p{Lo}\\p{M}]*[\\p{Ll}\\p{Lm}\\p{Lo}\\p{M}]+(?i:'s|'t|'re|'ve|'m|'ll|'d)?|[^\\r\\n\\p{L}\\p{N}]?[\\p{Lu}\\p{Lt}\\p{Lm}\\p{Lo}\\p{M}]+[\\p{Ll}\\p{Lm}\\p{Lo}\\p{M}]*(?i:'s|'t|'re|'ve|'m|'ll|'d)?|\\p{N}{1,3}| ?[^\\s\\p{L}\\p{N}]+[\\r\\n/]*|\\s*[\\r\\n]+|\\s+(?!\\S)|\\s+"}, "behavior": "Isolated", "invert": false}, {"type": "ByteLevel", "add_prefix_space": false, "trim_offsets": true, "use_regex": false}]}, "post_processor": {"type": "ByteLevel", "add_prefix_space": true, "trim_offsets": false, "use_regex": true}, "decoder": {"type": "ByteLevel", "add_prefix_space": true, "trim_offsets": true, "use_regex": true}, "model": {"type": "BPE", "dropout": null, "unk_token": null, "continuing_subword_prefix": null, "end_of_word_suffix": null, "fuse_unk": false, "byte_fallback": false, "ignore_merges": true, "vocab": {"<|begin_of_text|>": 0, "<|end_of_text|>": 1, "<|pad|>": 2, "<|unk|>": 3, "<|sep|>": 4, "<|cls|>": 5, "<|mask|>": 6, "<|newline|>": 7, "<|paragraph|>": 8, "<|document|>": 9, "<|system|>": 10, "<|user|>": 11, "<|assistant|>": 12, "<|tool|>": 13, "<|function|>": 14, "<|context|>": 15, "<|instruction|>": 16, "<|response|>": 17, "<|turn|>": 18, "<|end_turn|>": 19, "<|code_begin|>": 20, "<|code_end|>": 21, "<|output_begin|>": 22, "<|output_end|>": 23, "<|error|>": 24, "<|stdin|>": 25, "<|stdout|>": 26, "<|stderr|>": 27, "<|file_begin|>": 28, "<|file_end|>": 29, "<|lang:python|>": 30, "<|lang:javascript|>": 31, "<|lang:typescript|>": 32, "<|lang:java|>": 33, "<|lang:cpp|>": 34, "<|lang:c|>": 35, "<|lang:rust|>": 36, "<|lang:go|>": 37, "<|lang:ruby|>": 38, "<|lang:php|>": 39, "<|lang:swift|>": 40, "<|lang:kotlin|>": 41, "<|lang:scala|>": 42, "<|lang:r|>": 43, "<|lang:julia|>": 44, "<|lang:sql|>": 45, "<|lang:html|>": 46, "<|lang:css|>": 47, "<|lang:bash|>": 48, "<|lang:shell|>": 49, "<|json_begin|>": 50, "<|json_end|>": 51, "<|tool_call|>": 52, "<|tool_result|>": 53, "<|function_call|>": 54, "<|function_result|>": 55, "<|api_request|>": 56, "<|api_response|>": 57, "<|schema|>": 58, "<|arguments|>": 59, "<|source:wikipedia|>": 60, "<|source:github|>": 61, "<|source:arxiv|>": 62, "<|source:web|>": 63, "<|source:book|>": 64, "<|source:code|>": 65, "<|source:docs|>": 66, "<|source:news|>": 67, "<|source:social|>": 68, "<|source:other|>": 69, "<|think_begin|>": 70, "<|think_end|>": 71, "<|step|>": 72, "<|plan|>": 73, "<|reflect|>": 74, "<|verify|>": 75, "<|conclude|>": 76, "<|reason|>": 77, "<|analyze|>": 78, "<|synthesize|>": 79, "<|markdown|>": 80, "<|latex|>": 81, "<|table|>": 82, "<|list|>": 83, "<|heading|>": 84, "<|quote|>": 85, "<|link|>": 86, "<|image|>": 87, "<|math|>": 88, "<|diagram|>": 89, "<|chart|>": 90, "<|formula|>": 91, "<|footnote|>": 92, "<|citation|>": 93, "<|reference|>": 94, "<|caption|>": 95, "<|bullet|>": 96, "<|numbered|>": 97, "<|checkbox|>": 98, "<|definition|>": 99, "<|reserved_100|>": 100, "<|reserved_101|>": 101, "<|reserved_102|>": 102, "<|reserved_103|>": 103, "<|reserved_104|>": 104, "<|reserved_105|>": 105, "<|reserved_106|>": 106, "<|reserved_107|>": 107, "<|reserved_108|>": 108, "<|reserved_109|>": 109, "<|reserved_110|>": 110, "<|reserved_111|>": 111, "<|reserved_112|>": 112, "<|reserved_113|>": 113, "<|reserved_114|>": 114, "<|reserved_115|>": 115, "<|reserved_116|>": 116, "<|reserved_117|>": 117, "<|reserved_118|>": 118, "<|reserved_119|>": 119, "<|reserved_120|>": 120, "<|reserved_121|>": 121, "<|reserved_122|>": 122, "<|reserved_123|>": 123, "<|reserved_124|>": 124, "<|reserved_125|>": 125, "<|reserved_126|>": 126, "<|reserved_127|>": 127, "<|reserved_128|>": 128, "<|reserved_129|>": 129, "<|reserved_130|>": 130, "<|reserved_131|>": 131, "<|reserved_132|>": 132, "<|reserved_133|>": 133, "<|reserved_134|>": 134, "<|reserved_135|>": 135, "<|reserved_136|>": 136, "<|reserved_137|>": 137, "<|reserved_138|>": 138, "<|reserved_139|>": 139, "<|reserved_140|>": 140, "<|reserved_141|>": 141, "<|reserved_142|>": 142, "<|reserved_143|>": 143, "<|reserved_144|>": 144, "<|reserved_145|>": 145, "<|reserved_146|>": 146, "<|reserved_147|>": 147, "<|reserved_148|>": 148, "<|reserved_149|>": 149, "<|reserved_150|>": 150, "<|reserved_151|>": 151, "<|reserved_152|>": 152, "<|reserved_153|>": 153, "<|reserved_154|>": 154, "<|reserved_155|>": 155, "<|reserved_156|>": 156, "<|reserved_157|>": 157, "<|reserved_158|>": 158, "<|reserved_159|>": 159, "<|reserved_160|>": 160, "<|reserved_161|>": 161, "<|reserved_162|>": 162, "<|reserved_163|>": 163, "<|reserved_164|>": 164, "<|reserved_165|>": 165, "<|reserved_166|>": 166, "<|reserved_167|>": 167, "<|reserved_168|>": 168, "<|reserved_169|>": 169, "<|reserved_170|>": 170, "<|reserved_171|>": 171, "<|reserved_172|>": 172, "<|reserved_173|>": 173, "<|reserved_174|>": 174, "<|reserved_175|>": 175, "<|reserved_176|>": 176, "<|reserved_177|>": 177, "<|reserved_178|>": 178, "<|reserved_179|>": 179, "<|reserved_180|>": 180, "<|reserved_181|>": 181, "<|reserved_182|>": 182, "<|reserved_183|>": 183, "<|reserved_184|>": 184, "<|reserved_185|>": 185, "<|reserved_186|>": 186, "<|reserved_187|>": 187, "<|reserved_188|>": 188, "<|reserved_189|>": 189, "<|reserved_190|>": 190, "<|reserved_191|>": 191, "<|reserved_192|>": 192, "<|reserved_193|>": 193, "<|reserved_194|>": 194, "<|reserved_195|>": 195, "<|reserved_196|>": 196, "<|reserved_197|>": 197, "<|reserved_198|>": 198, "<|reserved_199|>": 199, "<|reserved_200|>": 200, "<|reserved_201|>": 201, "<|reserved_202|>": 202, "<|reserved_203|>": 203, "<|reserved_204|>": 204, "<|reserved_205|>": 205, "<|reserved_206|>": 206, "<|reserved_207|>": 207, "<|reserved_208|>": 208, "<|reserved_209|>": 209, "<|reserved_210|>": 210, "<|reserved_211|>": 211, "<|reserved_212|>": 212, "<|reserved_213|>": 213, "<|reserved_214|>": 214, "<|reserved_215|>": 215, "<|reserved_216|>": 216, "<|reserved_217|>": 217, "<|reserved_218|>": 218, "<|reserved_219|>": 219, "<|reserved_220|>": 220, "<|reserved_221|>": 221, "<|reserved_222|>": 222, "<|reserved_223|>": 223, "<|reserved_224|>": 224, "<|reserved_225|>": 225, "<|reserved_226|>": 226, "<|reserved_227|>": 227, "<|reserved_228|>": 228, "<|reserved_229|>": 229, "<|reserved_230|>": 230, "<|reserved_231|>": 231, "<|reserved_232|>": 232, "<|reserved_233|>": 233, "<|reserved_234|>": 234, "<|reserved_235|>": 235, "<|reserved_236|>": 236, "<|reserved_237|>": 237, "<|reserved_238|>": 238, "<|reserved_239|>": 239, "<|reserved_240|>": 240, "<|reserved_241|>": 241, "<|reserved_242|>": 242, "<|reserved_243|>": 243, "<|reserved_244|>": 244, "<|reserved_245|>": 245, "<|reserved_246|>": 246, "<|reserved_247|>": 247, "<|reserved_248|>": 248, "<|reserved_249|>": 249, "<|reserved_250|>": 250, "<|reserved_251|>": 251, "<|reserved_252|>": 252, "<|reserved_253|>": 253, "<|reserved_254|>": 254, "<|reserved_255|>": 255, "<|reserved_256|>": 256, "<|reserved_257|>": 257, "<|reserved_258|>": 258, "<|reserved_259|>": 259, "<|reserved_260|>": 260, "<|reserved_261|>": 261, "<|reserved_262|>": 262, "<|reserved_263|>": 263, "<|reserved_264|>": 264, "<|reserved_265|>": 265, "<|reserved_266|>": 266, "<|reserved_267|>": 267, "<|reserved_268|>": 268, "<|reserved_269|>": 269, "<|reserved_270|>": 270, "<|reserved_271|>": 271, "<|reserved_272|>": 272, "<|reserved_273|>": 273, "<|reserved_274|>": 274, "<|reserved_275|>": 275, "<|reserved_276|>": 276, "<|reserved_277|>": 277, "<|reserved_278|>": 278, "<|reserved_279|>": 279, "<|reserved_280|>": 280, "<|reserved_281|>": 281, "<|reserved_282|>": 282, "<|reserved_283|>": 283, "<|reserved_284|>": 284, "<|reserved_285|>": 285, "<|reserved_286|>": 286, "<|reserved_287|>": 287, "<|reserved_288|>": 288, "<|reserved_289|>": 289, "<|reserved_290|>": 290, "<|reserved_291|>": 291, "<|reserved_292|>": 292, "<|reserved_293|>": 293, "<|reserved_294|>": 294, "<|reserved_295|>": 295, "<|reserved_296|>": 296, "<|reserved_297|>": 297, "<|reserved_298|>": 298, "<|reserved_299|>": 299, "<|reserved_300|>": 300, "<|reserved_301|>": 301, "<|reserved_302|>": 302, "<|reserved_303|>": 303, "<|reserved_304|>": 304, "<|reserved_305|>": 305, "<|reserved_306|>": 306, "<|reserved_307|>": 307, "<|reserved_308|>": 308, "<|reserved_309|>": 309, "<|reserved_310|>": 310, "<|reserved_311|>": 311, "<|reserved_312|>": 312, "<|reserved_313|>": 313, "<|reserved_314|>": 314, "<|reserved_315|>": 315, "<|reserved_316|>": 316, "<|reserved_317|>": 317, "<|reserved_318|>": 318, "<|reserved_319|>": 319, "<|reserved_320|>": 320, "<|reserved_321|>": 321, "<|reserved_322|>": 322, "<|reserved_323|>": 323, "<|reserved_324|>": 324, "<|reserved_325|>": 325, "<|reserved_326|>": 326, "<|reserved_327|>": 327, "<|reserved_328|>": 328, "<|reserved_329|>": 329, "<|reserved_330|>": 330, "<|reserved_331|>": 331, "<|reserved_332|>": 332, "<|reserved_333|>": 333, "<|reserved_334|>": 334, "<|reserved_335|>": 335, "<|reserved_336|>": 336, "<|reserved_337|>": 337, "<|reserved_338|>": 338, "<|reserved_339|>": 339, "<|reserved_340|>": 340, "<|reserved_341|>": 341, "<|reserved_342|>": 342, "<|reserved_343|>": 343, "<|reserved_344|>": 344, "<|reserved_345|>": 345, "<|reserved_346|>": 346, "<|reserved_347|>": 347, "<|reserved_348|>": 348, "<|reserved_349|>": 349, "<|reserved_350|>": 350, "<|reserved_351|>": 351, "<|reserved_352|>": 352, "<|reserved_353|>": 353, "<|reserved_354|>": 354, "<|reserved_355|>": 355, "<|reserved_356|>": 356, "<|reserved_357|>": 357, "<|reserved_358|>": 358, "<|reserved_359|>": 359, "<|reserved_360|>": 360, "<|reserved_361|>": 361, "<|reserved_362|>": 362, "<|reserved_363|>": 363, "<|reserved_364|>": 364, "<|reserved_365|>": 365, "<|reserved_366|>": 366, "<|reserved_367|>": 367, "<|reserved_368|>": 368, "<|reserved_369|>": 369, "<|reserved_370|>": 370, "<|reserved_371|>": 371, "<|reserved_372|>": 372, "<|reserved_373|>": 373, "<|reserved_374|>": 374, "<|reserved_375|>": 375, "<|reserved_376|>": 376, "<|reserved_377|>": 377, "<|reserved_378|>": 378, "<|reserved_379|>": 379, "<|reserved_380|>": 380, "<|reserved_381|>": 381, "<|reserved_382|>": 382, "<|reserved_383|>": 383, "<|reserved_384|>": 384, "<|reserved_385|>": 385, "<|reserved_386|>": 386, "<|reserved_387|>": 387, "<|reserved_388|>": 388, "<|reserved_389|>": 389, "<|reserved_390|>": 390, "<|reserved_391|>": 391, "<|reserved_392|>": 392, "<|reserved_393|>": 393, "<|reserved_394|>": 394, "<|reserved_395|>": 395, "<|reserved_396|>": 396, "<|reserved_397|>": 397, "<|reserved_398|>": 398, "<|reserved_399|>": 399, "<|reserved_400|>": 400, "<|reserved_401|>": 401, "<|reserved_402|>": 402, "<|reserved_403|>": 403, "<|reserved_404|>": 404, "<|reserved_405|>": 405, "<|reserved_406|>": 406, "<|reserved_407|>": 407, "<|reserved_408|>": 408, "<|reserved_409|>": 409, "<|reserved_410|>": 410, "<|reserved_411|>": 411, "<|reserved_412|>": 412, "<|reserved_413|>": 413, "<|reserved_414|>": 414, "<|reserved_415|>": 415, "<|reserved_416|>": 416, "<|reserved_417|>": 417, "<|reserved_418|>": 418, "<|reserved_419|>": 419, "<|reserved_420|>": 420, "<|reserved_421|>": 421, "<|reserved_422|>": 422, "<|reserved_423|>": 423, "<|reserved_424|>": 424, "<|reserved_425|>": 425, "<|reserved_426|>": 426, "<|reserved_427|>": 427, "<|reserved_428|>": 428, "<|reserved_429|>": 429, "<|reserved_430|>": 430, "<|reserved_431|>": 431, "<|reserved_432|>": 432, "<|reserved_433|>": 433, "<|reserved_434|>": 434, "<|reserved_435|>": 435, "<|reserved_436|>": 436, "<|reserved_437|>": 437, "<|reserved_438|>": 438, "<|reserved_439|>": 439, "<|reserved_440|>": 440, "<|reserved_441|>": 441, "<|reserved_442|>": 442, "<|reserved_443|>": 443, "<|reserved_444|>": 444, "<|reserved_445|>": 445, "<|reserved_446|>": 446, "<|reserved_447|>": 447, "<|reserved_448|>": 448, "<|reserved_449|>": 449, "<|reserved_450|>": 450, "<|reserved_451|>": 451, "<|reserved_452|>": 452, "<|reserved_453|>": 453, "<|reserved_454|>": 454, "<|reserved_455|>": 455, "<|reserved_456|>": 456, "<|reserved_457|>": 457, "<|reserved_458|>": 458, "<|reserved_459|>": 459, "<|reserved_460|>": 460, "<|reserved_461|>": 461, "<|reserved_462|>": 462, "<|reserved_463|>": 463, "<|reserved_464|>": 464, "<|reserved_465|>": 465, "<|reserved_466|>": 466, "<|reserved_467|>": 467, "<|reserved_468|>": 468, "<|reserved_469|>": 469, "<|reserved_470|>": 470, "<|reserved_471|>": 471, "<|reserved_472|>": 472, "<|reserved_473|>": 473, "<|reserved_474|>": 474, "<|reserved_475|>": 475, "<|reserved_476|>": 476, "<|reserved_477|>": 477, "<|reserved_478|>": 478, "<|reserved_479|>": 479, "<|reserved_480|>": 480, "<|reserved_481|>": 481, "<|reserved_482|>": 482, "<|reserved_483|>": 483, "<|reserved_484|>": 484, "<|reserved_485|>": 485, "<|reserved_486|>": 486, "<|reserved_487|>": 487, "<|reserved_488|>": 488, "<|reserved_489|>": 489, "<|reserved_490|>": 490, "<|reserved_491|>": 491, "<|reserved_492|>": 492, "<|reserved_493|>": 493, "<|reserved_494|>": 494, "<|reserved_495|>": 495, "<|reserved_496|>": 496, "<|reserved_497|>": 497, "<|reserved_498|>": 498, "<|reserved_499|>": 499, "<|reserved_500|>": 500, "<|reserved_501|>": 501, "<|reserved_502|>": 502, "<|reserved_503|>": 503, "<|reserved_504|>": 504, "<|reserved_505|>": 505, "<|reserved_506|>": 506, "<|reserved_507|>": 507, "<|reserved_508|>": 508, "<|reserved_509|>": 509, "<|reserved_510|>": 510, "<|reserved_511|>": 511, "!": 512, "\"": 513, "#": 514, "$": 515, "%": 516, "&": 517, "'": 518, "(": 519, ")": 520, "*": 521, "+": 522, ",": 523, "-": 524, ".": 525, "/": 526, "0": 527, "1": 528, "2": 529, "3": 530, "4": 531, "5": 532, "6": 533, "7": 534, "8": 535, "9": 536, ":": 537, ";": 538, "<": 539, "=": 540, ">": 541, "?": 542, "@": 543, "A": 544, "B": 545, "C": 546, "D": 547, "E": 548, "F": 549, "G": 550, "H": 551, "I": 552, "J": 553, "K": 554, "L": 555, "M": 556, "N": 557, "O": 558, "P": 559, "Q": 560, "R": 561, "S": 562, "T": 563, "U": 564, "V": 565, "W": 566, "X": 567, "Y": 568, "Z": 569, "[": 570, "\\": 571, "]": 572, "^": 573, "_": 574, "`": 575, "a": 576, "b": 577, "c": 578, "d": 579, "e": 580, "f": 581, "g": 582, "h": 583, "i": 584, "j": 585, "k": 586, "l": 587, "m": 588, "n": 589, "o": 590, "p": 591, "q": 592, "r": 593, "s": 594, "t": 595, "u": 596, "v": 597, "w": 598, "x": 599, "y": 600, "z": 601, "{": 602, "|": 603, "}": 604, "~": 605, "¡": 606, "¢": 607, "£": 608, "¤": 609, "¥": 610, "¦": 611, "§": 612, "¨": 613, "©": 614, "ª": 615, "«": 616, "¬": 617, "®": 618, "¯": 619, "°": 620, "±": 621, "²": 622, "³": 623, "´": 624, "µ": 625, "¶": 626, "·": 627, "¸": 628, "¹": 629, "º": 630, "»": 631, "¼": 632, "½": 633, "¾": 634, "¿": 635, "À": 636, "Á": 637, "Â": 638, "Ã": 639, "Ä": 640, "Å": 641, "Æ": 642, "Ç": 643, "È": 644, "É": 645, "Ê": 646, "Ë": 647, "Ì": 648, "Í": 649, "Î": 650, "Ï": 651, "Ð": 652, "Ñ": 653, "Ò": 654, "Ó": 655, "Ô": 656, "Õ": 657, "Ö": 658, "×": 659, "Ø": 660, "Ù": 661, "Ú": 662, "Û": 663, "Ü": 664, "Ý": 665, "Þ": 666, "ß": 667, "à": 668, "á": 669, "â": 670, "ã": 671, "ä": 672, "å": 673, "æ": 674, "ç": 675, "è": 676, "é": 677, "ê": 678, "ë": 679, "ì": 680, "í": 681, "î": 682, "ï": 683, "ð": 684, "ñ": 685, "ò": 686, "ó": 687, "ô": 688, "õ": 689, "ö": 690, "÷": 691, "ø": 692, "ù": 693, "ú": 694, "û": 695, "ü": 696, "ý": 697, "þ": 698, "ÿ": 699, "Ā": 700, "ā": 701, "Ă": 702, "ă": 703, "Ą": 704, "ą": 705, "Ć": 706, "ć": 707, "Ĉ": 708, "ĉ": 709, "Ċ": 710, "ċ": 711, "Č": 712, "č": 713, "Ď": 714, "ď": 715, "Đ": 716, "đ": 717, "Ē": 718, "ē": 719, "Ĕ": 720, "ĕ": 721, "Ė": 722, "ė": 723, "Ę": 724, "ę": 725, "Ě": 726, "ě": 727, "Ĝ": 728, "ĝ": 729, "Ğ": 730, "ğ": 731, "Ġ": 732, "ġ": 733, "Ģ": 734, "ģ": 735, "Ĥ": 736, "ĥ": 737, "Ħ": 738, "ħ": 739, "Ĩ": 740, "ĩ": 741, "Ī": 742, "ī": 743, "Ĭ": 744, "ĭ": 745, "Į": 746, "į": 747, "İ": 748, "ı": 749, "Ĳ": 750, "ĳ": 751, "Ĵ": 752, "ĵ": 753, "Ķ": 754, "ķ": 755, "ĸ": 756, "Ĺ": 757, "ĺ": 758, "Ļ": 759, "ļ": 760, "Ľ": 761, "ľ": 762, "Ŀ": 763, "ŀ": 764, "Ł": 765, "ł": 766, "Ń": 767, "ĠĠ": 768, "ĠĠĠĠ": 769, "in": 770, "er": 771, "Ġt": 772, "Ġa": 773, "en": 774, "on": 775, "re": 776, "Ġs": 777, "at": 778, "or": 779, "es": 780, "ĠĠĠĠĠĠĠĠ": 781, "an": 782, "ĠĠĠ": 783, "Ġd": 784, "he": 785, "Ġc": 786, "Ġp": 787, "is": 788, "ar": 789, "it": 790, "ĊĊ": 791, "al": 792, "à¤": 793, "le": 794, "ou": 795, "Ġm": 796, "Ġf": 797, "Ġw": 798, "Ġb": 799, "as": 800, "ing": 801, "Ġthe": 802, "ic": 803, "et": 804, "Ġo": 805, "ion": 806, "ed": 807, "el": 808, "Ġn": 809, "ro": 810, "ent": 811, "ĠÐ": 812, "nd": 813, "st": 814, "áĥ": 815, "Ġl": 816, "Ġin": 817, ";Ċ": 818, "ct": 819, "ĠĠĠĠĠĠĠ": 820, "om": 821, "il": 822, "Ġh": 823, "am": 824, "Ġ=": 825, "id": 826, "Ġto": 827, "âĢ": 828, "Ġe": 829, "im": 830, "Ġre": 831, "Ġv": 832, "ad": 833, "Ġth": 834, "Ġand": 835, "Ġof": 836, "Ġg": 837, "ur": 838, "ch": 839, "Ġà": 840, "Ġde": 841, "ĉĉ": 842, "ĠS": 843, "Ġu": 844, "ut": 845, "ol": 846, "Ġy": 847, "ig": 848, "se": 849, "ot": 850, "em": 851, "ag": 852, "iv": 853, "Ġ(": 854, "qu": 855, "ĠĠĠĠĠĠĠĠĠĠĠ": 856, "ĠT": 857, "Ġ{": 858, "ĠA": 859, "ay": 860, "ĠI": 861, "à¥": 862, "ac": 863, "à¦": 864, "ul": 865, ");Ċ": 866, "ĠC": 867, ".ĊĊ": 868, "os": 869, "if": 870, "Ġà¤": 871, "od": 872, "čĊ": 873, "tr": 874, "Ġk": 875, "un": 876, "--": 877, "est": 878, "Ã©": 879, "ab": 880, "ate": 881, "ir": 882, "à¸": 883, "Ġis": 884, "ow": 885, "us": 886, "à´": 887, "ation": 888, "Ġ}": 889, "ĠØ": 890, "ort": 891, "ĠM": 892, "Ġ\"": 893, "//": 894, "um": 895, "Ġfor": 896, "ie": 897, "àª": 898, "ĠP": 899, "ter": 900, "ce": 901, "our": 902, "Ġon": 903, "ap": 904, "th": 905, "Ġ{Ċ": 906, "Ġcon": 907, "av": 908, "ĠĠĠĠĠĠĠĠĠĠĠĠĠĠĠĠ": 909, "ers": 910, "**": 911, "te": 912, ",Ċ": 913, "Ġbe": 914, "ĠD": 915, "()": 916, "ĠB": 917, "end": 918, "Ġst": 919, "ist": 920, "ak": 921, "ly": 922, "pe": 923, "Ġ*": 924, "and": 925, "Ġr": 926, "à²": 927, "res": 928, "ub": 929, "oc": 930, "Ġal": 931, "à°": 932, "ess": 933, "ith": 934, "âĢĻ": 935, "Ġpro": 936, "Ġj": 937, "ame": 938, "ver": 939, ")Ċ": 940, "port": 941, "Ġan": 942, "Ã¡": 943, "Ã¤": 944, "ĠL": 945, "Ġcom": 946, "Ġne": 947, "ĠF": 948, "20": 949, "ass": 950, "ĠE": 951, "Ġse": 952, "lic": 953, "ĠR": 954, "Ġ'": 955, "Ġ×": 956, "Ġ<": 957, "ue": 958, "op": 959, "out": 960, "Ġen": 961, "ht": 962, "Ġwh": 963, "Ġas": 964, "à®": 965, "Ġqu": 966, "ction": 967, "ãĢ": 968, "age": 969, "ĠN": 970, "og": 971, "Ġit": 972, "Ġyou": 973, "iz": 974, "Ġwith": 975, "Ġthat": 976, "..": 977, "ĠW": 978, "ĠH": 979, "ip": 980, "ex": 981, "int": 982, "ill": 983, "ant": 984, "urn": 985, "Ġthis": 986, "art": 987, "Ġtr": 988, "ĠG": 989, "Ġhe": 990, ";ĊĊ": 991, "Ġor": 992, "00": 993, "Ġle": 994, "ĠĠĠĠĠĠĠĠĠĠĠĠĠĠĠ": 995, "ik": 996, "ment": 997, "à§": 998, "ore": 999, "rom": 1000, "ere": 1001, "Ġex": 1002, "ine": 1003, "àµ": 1004, "ang": 1005, "----": 1006, "ind": 1007, "get": 1008, ">Ċ": 1009, "ain": 1010, "ok": 1011, "ib": 1012, "ud": 1013, "pl": 1014, "turn": 1015, "ĠĠĠĠĠ": 1016, "Ã³": 1017, "ĠO": 1018, "Ġ-": 1019, "ect": 1020, "ia": 1021, "ity": 1022, "Ġun": 1023, "Ġif": 1024, "Ġat": 1025, "con": 1026, "per": 1027, "á»": 1028, "ata": 1029, "Ġ$": 1030, "Ġch": 1031, "Ġpr": 1032, "orm": 1033, "ack": 1034, "Ġare": 1035, "ile": 1036, "pt": 1037, "ÃŃ": 1038, "Ġla": 1039, ".Ċ": 1040, "ĠâĢ": 1041, "==": 1042, "import": 1043, "able": 1044, "ial": 1045, "ost": 1046, "cl": 1047, "ies": 1048, "Ġcl": 1049, "(\"": 1050, "ov": 1051, "ust": 1052, "Ġà¦": 1053, "Ã¼": 1054, "Ã¶": 1055, "à«": 1056, "Ġi": 1057, "ult": 1058, "ave": 1059, "nt": 1060, "Ġz": 1061, "=\"": 1062, "Ġwe": 1063, "ld": 1064, "ight": 1065, "ublic": 1066, "ive": 1067, "all": 1068, "act": 1069, "ï¼": 1070, "Ġfrom": 1071, "Ã¥": 1072, "Ġsu": 1073, "ire": 1074, "****": 1075, "ell": 1076, "ard": 1077, "ser": 1078, "tring": 1079, "ĠU": 1080, "Ġ//": 1081, "ice": 1082, "ord": 1083, "ãģ": 1084, "Ġ}Ċ": 1085, "Ġàª": 1086, "ff": 1087, "->": 1088, ";čĊ": 1089, "ne": 1090, "Ä±": 1091, "de": 1092, "ra": 1093, "ans": 1094, "ide": 1095, "ase": 1096, "Ġnew": 1097, "Ġdo": 1098, "Ġreturn": 1099, "ĠThe": 1100, "ä¸": 1101, "Ġnot": 1102, "ĉĉĉĉ": 1103, "ure": 1104, "ast": 1105, "ob": 1106, "ĠV": 1107, "Ġpl": 1108, "Ġyour": 1109, "Ġáĥ": 1110, "In": 1111, "pr": 1112, "com": 1113, ".s": 1114, "Ġsh": 1115, "ime": 1116, "ĠJ": 1117, "are": 1118, "ont": 1119, "Ġar": 1120, "à¯": 1121, "ype": 1122, "Ġel": 1123, "ite": 1124, "pp": 1125, "å¤": 1126, "Ġby": 1127, "ĠK": 1128, "Ġ+": 1129, "à±": 1130, "Ġque": 1131, "iew": 1132, "ail": 1133, "Ġcan": 1134, "201": 1135, "Ġme": 1136, "à³": 1137, "\",": 1138, "Ġwas": 1139, "ace": 1140, "ode": 1141, "Ġint": 1142, "ach": 1143, "Ġhave": 1144, "ll": 1145, "ij": 1146, "ge": 1147, "elf": 1148, "Ġpar": 1149, "Ġad": 1150, "str": 1151, "one": 1152, "rou": 1153, "Ġab": 1154, "âĢĿ": 1155, "Ġres": 1156, "St": 1157, "ens": 1158, "du": 1159, "ĠĠĠĠĠĠĠĠĠĠĠĠĠĠĠĠĠĠĠ": 1160, "form": 1161, "ĠÕ": 1162, "10": 1163, "ich": 1164, "Ã§": 1165, "ong": 1166, "('": 1167, "Ã°": 1168, "Ãł": 1169, "cc": 1170, "xt": 1171, "Ġ:": 1172, "pon": 1173, "Ġget": 1174, "ber": 1175, "Re": 1176, "Ġall": 1177, "Ġ[": 1178, "ath": 1179, "io": 1180, "ject": 1181, "Ġte": 1182, "ĠIn": 1183, "Ġdes": 1184, "ign": 1185, ":Ċ": 1186, "alue": 1187, "ork": 1188, "ve": 1189, "Ġwill": 1190, "}Ċ": 1191, "();Ċ": 1192, ").": 1193, "::": 1194, "Ġclass": 1195, "{Ċ": 1196, "lo": 1197, "ome": 1198, "ĠTh": 1199, "ize": 1200, "Ġpublic": 1201, "au": 1202, "ull": 1203, "å½": 1204, "ions": 1205, "Ġ}ĊĊ": 1206, "Ġ@": 1207, "der": 1208, "ook": 1209, "--------": 1210, "Ġus": 1211, "ance": 1212, "ould": 1213, "ãĥ": 1214, "Ġim": 1215, "__": 1216, "put": 1217, "ient": 1218, "äº": 1219, ".get": 1220, "Ġper": 1221, "Ġvo": 1222, "ext": 1223, "ated": 1224, "Äį": 1225, "yst": 1226, "ous": 1227, "so": 1228, "',": 1229, "ple": 1230, "erv": 1231, "ĠĊ": 1232, "à¹": 1233, "par": 1234, "cr": 1235, "ress": 1236, "Ġà´": 1237, "ck": 1238, "âĢĻs": 1239, "áº": 1240, "Ġì": 1241, "ert": 1242, "ey": 1243, "ount": 1244, "</": 1245, "ma": 1246, "Ġgo": 1247, "Å¡": 1248, "Ġso": 1249, "ake": 1250, "ary": 1251, "up": 1252, "vent": 1253, "ory": 1254, "Ġ/": 1255, "pro": 1256, "Ã£": 1257, "ft": 1258, "Ġ&": 1259, "Ġdis": 1260, "ear": 1261, "Ġma": 1262, "ĉĉĉ": 1263, "unction": 1264, "Ġcont": 1265, "err": 1266, "_t": 1267, "ystem": 1268, "Ġout": 1269, "row": 1270, "Ġund": 1271, "ãĤ": 1272, "ug": 1273, "ien": 1274, "ah": 1275, "ual": 1276, "this": 1277, "ock": 1278, "Ġhas": 1279, "we": 1280, "fer": 1281, "áĢ": 1282, "19": 1283, "Ġet": 1284, "Ġno": 1285, ");ĊĊ": 1286, "div": 1287, "Ġem": 1288, "Name": 1289, "ĠY": 1290, "ER": 1291, "ition": 1292, "Ġup": 1293, "Ġ=>": 1294, "ri": 1295, "Ġman": 1296, "ery": 1297, "Ġpre": 1298, "##": 1299, "Ġes": 1300, "Ġsa": 1301, "ink": 1302, "eng": 1303, "'s": 1304, "ek": 1305, "Ġ.": 1306, "Ġbut": 1307, "Ġà°": 1308, "ng": 1309, "Ġest": 1310, "cre": 1311, "ound": 1312, "gr": 1313, "name": 1314, "Ġna": 1315, "12": 1316, "Ġà²": 1317, "ĠSt": 1318, "app": 1319, "====": 1320, "ier": 1321, "Id": 1322, "ĠRe": 1323, "ree": 1324, "Con": 1325, "********": 1326, "ors": 1327, "))": 1328, "String": 1329, "ose": 1330, "text": 1331, "Ġset": 1332, "lect": 1333, "Ġmy": 1334, "ild": 1335, "Ã¸": 1336, "che": 1337, "ations": 1338, "iel": 1339, "Ġ*/": 1340, "ical": 1341, "ann": 1342, "to": 1343, "),": 1344, "ew": 1345, "Ġam": 1346, "own": 1347, "ark": 1348, "ther": 1349, "}ĊĊ": 1350, "ener": 1351, "Ġmore": 1352, "ps": 1353, "åı": 1354, "List": 1355, "Ġ==": 1356, "cept": 1357, "ìĿ": 1358, "gh": 1359, "Ã¨": 1360, "Pro": 1361, "odel": 1362, "ph": 1363, "ement": 1364, "ings": 1365, "add": 1366, "IN": 1367, "ĠâĢľ": 1368, "ĠĠĠĠĠĠĠĠĠĠĠĠĠĠĠĠĠĠĠĠĠĠĠ": 1369, "ike": 1370, "ool": 1371, "Ġvar": 1372, "ade": 1373, "Ġro": 1374, "ON": 1375, "The": 1376, "set": 1377, "ivate": 1378, "ï¼Į": 1379, "und": 1380, "ÅŁ": 1381, "áŀ": 1382, "ĠĠĠĠĠĠĠĠĠ": 1383, "Ġgr": 1384, "æľ": 1385, "Ã£o": 1386, "atch": 1387, "ung": 1388, "Ġstr": 1389, "clud": 1390, "Ġop": 1391, "Ex": 1392, "Ġinter": 1393, "11": 1394, "ç¥": 1395, "Ġcol": 1396, "Ġpart": 1397, "her": 1398, ".l": 1399, "Ġone": 1400, "vel": 1401, "ick": 1402, "ater": 1403, "rr": 1404, "ec": 1405, "...": 1406, "iss": 1407, "Ġvoid": 1408, "ton": 1409, "Ġsp": 1410, "Ġag": 1411, "Å¾": 1412, "Ã¦": 1413, ".m": 1414, "Ġ|": 1415, "Ġthey": 1416, "æĹ": 1417, "Ġconst": 1418, "ep": 1419, "inal": 1420, ")ĊĊ": 1421, "les": 1422, "Ġda": 1423, "return": 1424, "ĠCh": 1425, "tt": 1426, "enc": 1427, "Ġour": 1428, "Ġ</": 1429, "Ãº": 1430, "Ġtheir": 1431, "ays": 1432, "Ġpe": 1433, "me": 1434, "ove": 1435, "Ġcomp": 1436, "Ġself": 1437, "ange": 1438, "Ġapp": 1439, "anc": 1440, "15": 1441, "Ġdef": 1442, "urr": 1443, "Ġtime": 1444, "Com": 1445, "Ġà®": 1446, "quest": 1447, "Ġany": 1448, "Äĥ": 1449, "ado": 1450, "ven": 1451, "Ġob": 1452, "eth": 1453, "Ġ#": 1454, "fo": 1455, "az": 1456, "Ġover": 1457, "Ġ!": 1458, "data": 1459, "Ġdie": 1460, "Ġabout": 1461, "ef": 1462, ".c": 1463, "ence": 1464, "Ġdel": 1465, "led": 1466, "Ġstat": 1467, "ss": 1468, "alse": 1469, "']": 1470, "ĠÎ": 1471, "\"Ċ": 1472, "ava": 1473, "ents": 1474, "ise": 1475, "View": 1476, ");čĊ": 1477, "RE": 1478, "âĢľ": 1479, "Ġwork": 1480, "ry": 1481, "pos": 1482, "ank": 1483, "val": 1484, "åħ": 1485, "oy": 1486, "ish": 1487, "Ġer": 1488, "Ġë": 1489, "eb": 1490, "Ġfunction": 1491, "sh": 1492, "ST": 1493, "Ġwhich": 1494, "pec": 1495, "oint": 1496, "Ġent": 1497, "à¨": 1498, "reat": 1499, "ble": 1500, "16": 1501, "que": 1502, "ĠâĢĵ": 1503, "ix": 1504, "30": 1505, "âĢ¦": 1506, "duct": 1507, "tem": 1508, "aw": 1509, "Ġ*/Ċ": 1510, ".com": 1511, "line": 1512, "Th": 1513, "ä¹": 1514, "tion": 1515, "abel": 1516, "Cont": 1517, "Ġadd": 1518, "sp": 1519, "\",Ċ": 1520, "ely": 1521, "irst": 1522, "iÃ³": 1523, "public": 1524, "self": 1525, "18": 1526, "mer": 1527, "uk": 1528, "25": 1529, "Ġbl": 1530, "Type": 1531, "Ġvan": 1532, "ied": 1533, "rit": 1534, "ale": 1535, "essage": 1536, "arg": 1537, "\");Ċ": 1538, "Ãª": 1539, "ific": 1540, "ield": 1541, "Ġ_": 1542, "oll": 1543, "Ãµ": 1544, "200": 1545, "erm": 1546, "['": 1547, "uch": 1548, "dd": 1549, "cess": 1550, "Data": 1551, "Äĩ": 1552, "Ġbu": 1553, "ĠString": 1554, "vo": 1555, "co": 1556, "Ġfe": 1557, "ada": 1558, ".f": 1559, "crip": 1560, "Ġuse": 1561, "ian": 1562, ".p": 1563, "ĠĊĊ": 1564, "Ġelse": 1565, "Res": 1566, "Ch": 1567, "ty": 1568, "eg": 1569, "Ġpara": 1570, "Ġà¸": 1571, "Ġid": 1572, "ĠÃ©": 1573, "ĠĠĠĠĠĠĠĠĠĠĠĠĠĠĠĠĠĠĠĠĠĠĠĠĠĠĠĠĠĠĠĠ": 1574, "',Ċ": 1575, "Ġx": 1576, "Ġalso": 1577, "Ġwho": 1578, "ĠSystem": 1579, "ese": 1580, "ĠÃł": 1581, "Ġå": 1582, "ervice": 1583, "ĉif": 1584, "ĠIt": 1585, "Ġder": 1586, "AT": 1587, "ash": 1588, ".set": 1589, "Ġhis": 1590, "ox": 1591, "()Ċ": 1592, "Ġsome": 1593, "umber": 1594, "Ġdata": 1595, "uth": 1596, "ID": 1597, "Col": 1598, ".S": 1599, "\":": 1600, "Ġver": 1601, "ator": 1602, "ner": 1603, "pect": 1604, "Ġprivate": 1605, "igh": 1606, "any": 1607, "Ġpos": 1608, "lement": 1609, "aj": 1610, "Ġnull": 1611, "ĠPro": 1612, "Ġacc": 1613, "Ġwhen": 1614, "EN": 1615, "Ġje": 1616, "14": 1617, "Ġend": 1618, "fig": 1619, "($": 1620, "ait": 1621, "ke": 1622, "Ġother": 1623, "yn": 1624, "Ġoff": 1625, "_s": 1626, "Text": 1627, "old": 1628, "ger": 1629, "view": 1630, "Ġaf": 1631, "Ġyear": 1632, "_m": 1633, "erson": 1634, "als": 1635, "\">": 1636, "Äĳ": 1637, "red": 1638, ".b": 1639, "read": 1640, "Ġbr": 1641, "----------------": 1642, "tern": 1643, "Ġlike": 1644, "OR": 1645, "000": 1646, "_c": 1647, "iÃ³n": 1648, "ten": 1649, "li": 1650, "Ġname": 1651, "Ġneed": 1652, "ource": 1653, "13": 1654, "AR": 1655, "Ġkn": 1656, "def": 1657, "urrent": 1658, "roup": 1659, "ception": 1660, "ÅĤ": 1661, "date": 1662, "Ġdi": 1663, "ĠÂ": 1664, "202": 1665, "Ġreg": 1666, "Ġjust": 1667, "ĠThis": 1668, "Ġact": 1669, "ute": 1670, "Ġorg": 1671, "Ġser": 1672, "Ġher": 1673, ".A": 1674, "_f": 1675, "wo": 1676, "Ġbeen": 1677, "Ġmay": 1678, "Ġles": 1679, "Ġtrue": 1680, "quire": 1681, "ÉĻ": 1682, "let": 1683, "its": 1684, "Ġmin": 1685, "uct": 1686, "Ġeen": 1687, "100": 1688, "Ġthere": 1689, "param": 1690, "son": 1691, "_p": 1692, "ict": 1693, "ai": 1694, "ax": 1695, "à·": 1696, "íķ": 1697, "ating": 1698, "Ġ,": 1699, "ĠUn": 1700, "Ġrec": 1701, ".t": 1702, "ys": 1703, "ader": 1704, "Ġthem": 1705, "Ġreal": 1706, "Ġac": 1707, "å®": 1708, "cont": 1709, "Ġche": 1710, "oun": 1711, ".d": 1712, "ates": 1713, "Ġpor": 1714, "Ġind": 1715, "To": 1716, "ices": 1717, "itt": 1718, "Cl": 1719, "new": 1720, "ĠCom": 1721, "Ġph": 1722, "Ġhel": 1723, "ĉreturn": 1724, "Ġcomm": 1725, "32": 1726, "utton": 1727, "LE": 1728, "ning": 1729, ":ĊĊ": 1730, "Ġlos": 1731, "\")": 1732, "ues": 1733, "Ġco": 1734, "Tr": 1735, "åĪ": 1736, "Ġwhat": 1737, "Ġbet": 1738, "čĊčĊ": 1739, "ond": 1740, "ĠWe": 1741, "arch": 1742, "Ġap": 1743, "trib": 1744, "Ġmet": 1745, "17": 1746, "Ġ?": 1747, "Ġ>": 1748, "////": 1749, "uf": 1750, "user": 1751, "vid": 1752, "ible": 1753, "yle": 1754, "Ġvalue": 1755, "50": 1756, "ength": 1757, "very": 1758, "ponse": 1759, "of": 1760, "Ġfr": 1761, "iet": 1762, "class": 1763, "Ġlo": 1764, "ault": 1765, "ask": 1766, "Ġhet": 1767, "\";Ċ": 1768, "Ob": 1769, "Ġav": 1770, "().": 1771, "à¶": 1772, "Ġhad": 1773, "Ġval": 1774, "Ġsc": 1775, "ages": 1776, "Ġdu": 1777, "ames": 1778, "be": 1779, "var": 1780, "ä»": 1781, "IT": 1782, "åĲ": 1783, "clude": 1784, "Ġcons": 1785, "ĠÃ": 1786, "Ġmed": 1787, "Ġdet": 1788, "ument": 1789, "_l": 1790, "ana": 1791, "Ġwould": 1792, "AL": 1793, "roll": 1794, "Ġfalse": 1795, "ĠQ": 1796, "ĠZ": 1797, "Ġtype": 1798, "ole": 1799, "ular": 1800, "min": 1801, "24": 1802, "Ġhow": 1803, "Ġdr": 1804, "AN": 1805, "ful": 1806, "Ġdif": 1807, "til": 1808, "na": 1809, "Ġwere": 1810, "'t": 1811, ".h": 1812, "####": 1813, "ople": 1814, "Ġinto": 1815, "Ġsur": 1816, "ows": 1817, "ĠTr": 1818, "amp": 1819, "ĠDe": 1820, "air": 1821, "Ġ{čĊ": 1822, "Ġcre": 1823, "Ġmake": 1824, "rol": 1825, "ina": 1826, "ta": 1827, "(f": 1828, "ëĭ": 1829, "SE": 1830, "ĠCon": 1831, "Ġresult": 1832, "_b": 1833, "Ġrel": 1834, "_id": 1835, "Ġloc": 1836, "\">Ċ": 1837, "ics": 1838, "')": 1839, "Ġsub": 1840, "error": 1841, "ethod": 1842, "Ġ)": 1843, "ze": 1844, "Ġfl": 1845, "ĠSe": 1846, "========": 1847, "af": 1848, "ho": 1849, "åľ": 1850, "Ġjava": 1851, "ody": 1852, "ml": 1853, "ts": 1854, "Ġlist": 1855, "çļ": 1856, "ins": 1857, "_d": 1858, "ww": 1859, "En": 1860, "å¹": 1861, "Ġthan": 1862, "âĢĻt": 1863, "itle": 1864, "ente": 1865, "Ġfirst": 1866, "ica": 1867, "Ġaw": 1868, "ÄĻ": 1869, "Ġbo": 1870, "By": 1871, "Se": 1872, "âĢĵ": 1873, "Par": 1874, "je": 1875, "Ġimport": 1876, "Ġtem": 1877, "Item": 1878, "]Ċ": 1879, "value": 1880, "ious": 1881, "work": 1882, "ause": 1883, "print": 1884, "lick": 1885, "ule": 1886, "Ġback": 1887, "ense": 1888, "Ġstart": 1889, "Ġein": 1890, "Ġonly": 1891, "(Ċ": 1892, "ĠYou": 1893, "ures": 1894, "Ġke": 1895, "ower": 1896, "**Ċ": 1897, "****************": 1898, "arr": 1899, "æĸ": 1900, "Ġits": 1901, "raw": 1902, "Ġfil": 1903, "Ġstring": 1904, "ces": 1905, "Ġinform": 1906, "Äħ": 1907, "Ġform": 1908, "ments": 1909, "urs": 1910, "ities": 1911, "ayer": 1912, "Ġlook": 1913, "Ġlet": 1914, "Ġstatic": 1915, "ember": 1916, "day": 1917, "Ġbest": 1918, "Value": 1919, "ler": 1920, "Ġunder": 1921, "Ġtrans": 1922, "ender": 1923, "Ġmost": 1924, "Ġfind": 1925, "Ġperson": 1926, "Ġed": 1927, "ustom": 1928, "].": 1929, "Ġhelp": 1930, "olog": 1931, "string": 1932, "ĠWh": 1933, "Ġng": 1934, "ateg": 1935, "lection": 1936, "den": 1937, "oth": 1938, "Ġrem": 1939, "Ġpeople": 1940, "Ġ!=": 1941, "ĠAl": 1942, "Ġcar": 1943, "const": 1944, "á»į": 1945, "la": 1946, "ÄŁ": 1947, "ĠHe": 1948, "Ġass": 1949, "irect": 1950, "Ġwant": 1951, "ari": 1952, "://": 1953, "ession": 1954, "ĠĠĠĠĠĠĠĠĠĠĠĠĠĠĠĠĠĠĠĠĠĠĠĠĠĠĠ": 1955, "ren": 1956, "ĠAn": 1957, "bo": 1958, "={": 1959, "gram": 1960, ".D": 1961, "br": 1962, "ĠĠĠĠĠĠĠĠĠĠĠĠĠ": 1963, "ĠĠĠĠĠĠ": 1964, "Ġdon": 1965, "Ġlong": 1966, "!ĊĊ": 1967, "Ġgu": 1968, "Ġsk": 1969, "ern": 1970, "Im": 1971, "wa": 1972, "22": 1973, "Ġinst": 1974, "load": 1975, "rough": 1976, "Ġum": 1977, "ç½": 1978, "?ĊĊ": 1979, "ha": 1980, "ets": 1981, "_C": 1982, "Ġfinal": 1983, "40": 1984, "Ġarr": 1985, "Ġ&&": 1986, "Ġread": 1987, "Ã«": 1988, "orld": 1989, "uc": 1990, "];Ċ": 1991, "hed": 1992, ".F": 1993, "reak": 1994, "fr": 1995, "atus": 1996, "Ġge": 1997, "Ġve": 1998, "ting": 1999, "';Ċ": 2000, "Ġtest": 2001, "Ã§Ã£o": 2002, "++": 2003, "åĽ": 2004, "no": 2005, "bl": 2006, "Object": 2007, "Ġevery": 2008, "ĠAr": 2009, "Ġspec": 2010, "Ã©s": 2011, "Ġshould": 2012, "ponent": 2013, "ES": 2014, ".j": 2015, "Ġknow": 2016, "ood": 2017, "ility": 2018, "Exception": 2019, "Ġsm": 2020, "Ġmon": 2021, "[i": 2022, "Ġcr": 2023, "Ġshe": 2024, "ĠEx": 2025, "wn": 2026, "ĉpublic": 2027, "Ġê": 2028, "Ġwell": 2029, "ush": 2030, "Å¼": 2031, "ux": 2032, "ĠÚ": 2033, "Ġpres": 2034, "Ġsch": 2035, "ms": 2036, "Ġsi": 2037, "yp": 2038, "Ġden": 2039, "tra": 2040, "iver": 2041, "ager": 2042, "Ġil": 2043, "Ġexper": 2044, "Ġsom": 2045, "Ġæ": 2046, "col": 2047, "ative": 2048, "word": 2049, "reg": 2050, "Ġhand": 2051, "url": 2052, "try": 2053, "rap": 2054, "ons": 2055, "ream": 2056, "ily": 2057, "iness": 2058, "Ġmod": 2059, "Ġdat": 2060, "Ġthen": 2061, "Get": 2062, "ï¼ļ": 2063, "ym": 2064, "Ġthrough": 2065, "));Ċ": 2066, "use": 2067, "ccess": 2068, "Ġpol": 2069, "uss": 2070, "Ġuser": 2071, "Ġchar": 2072, "Ġinv": 2073, "aut": 2074, "fore": 2075, "idth": 2076, "Ġopt": 2077, ".n": 2078, "fl": 2079, "icht": 2080, "ats": 2081, "Ã½": 2082, "Ġrequire": 2083, "Ã¢": 2084, "ĠIf": 2085, "User": 2086, "Ġsim": 2087, "using": 2088, "ends": 2089, "Ġright": 2090, "serv": 2091, "Ġ%": 2092, "è§": 2093, "Ġpass": 2094, "ka": 2095, "amb": 2096, "£áĥ": 2097, "(s": 2098, "23": 2099, "Ã¾": 2100, "Ġ},Ċ": 2101, "Ġstud": 2102, "ui": 2103, "sert": 2104, "Ġvery": 2105, "ough": 2106, "Ã±": 2107, "ife": 2108, "ais": 2109, "ref": 2110, "_S": 2111, "void": 2112, "ĠAs": 2113, "ior": 2114, "Ġthese": 2115, "Ġweb": 2116, "State": 2117, "ased": 2118, "):Ċ": 2119, "Ġdec": 2120, "Ġsol": 2121, "Ġproduct": 2122, "Ġcase": 2123, "cond": 2124, "CT": 2125, "\")Ċ": 2126, "èµ": 2127, "key": 2128, "Ġgood": 2129, "ene": 2130, "Ġmak": 2131, "ars": 2132, "çĶ": 2133, "ni": 2134, "Ġcor": 2135, "Ġka": 2136, "Ġvis": 2137, "60": 2138, "Ġbel": 2139, "rray": 2140, "Ġprof": 2141, "Ġdur": 2142, "Ġdown": 2143, "Ġbus": 2144, "Ġwhere": 2145, "Ġtwo": 2146, "Ġsee": 2147, "unc": 2148, "De": 2149, "Â»": 2150, "Ġsl": 2151, "Ġpost": 2152, "Ġatt": 2153, "perty": 2154, "Time": 2155, "Ġpour": 2156, "Ġaut": 2157, "Ġhigh": 2158, "Ġafter": 2159, "rem": 2160, "Ġext": 2161, "php": 2162, "for": 2163, "cent": 2164, ".g": 2165, "ouse": 2166, "ru": 2167, "ackage": 2168, "ĠĠĠĠĊ": 2169, "ature": 2170, "ister": 2171, "Ã¼r": 2172, "UL": 2173, ".add": 2174, "[]": 2175, "Ġeven": 2176, "ational": 2177, "Ġnow": 2178, "ĠSh": 2179, "ara": 2180, "Ġart": 2181, "ĠAnd": 2182, "Ġeff": 2183, "ouble": 2184, "ote": 2185, "ience": 2186, "round": 2187, "Ģà¸": 2188, "Ġmen": 2189, "Ġuna": 2190, "ider": 2191, "rror": 2192, "uff": 2193, "ivers": 2194, "Ġfile": 2195, "ando": 2196, "action": 2197, "ersion": 2198, "arn": 2199, "oin": 2200, ".st": 2201, "include": 2202, "Ġsup": 2203, "Ġmark": 2204, "Set": 2205, "ify": 2206, "ane": 2207, "rite": 2208, "umn": 2209, "els": 2210, "Ġmany": 2211, "arget": 2212, "Ind": 2213, "Ġos": 2214, "Ġlas": 2215, "htt": 2216, "ĉĉĉĉĉ": 2217, "Ġgl": 2218, "leg": 2219, "att": 2220, "play": 2221, "è½": 2222, "Ġcal": 2223, "Ġway": 2224, ".P": 2225, "_P": 2226, "Ġmuch": 2227, ".C": 2228, "-s": 2229, "hr": 2230, "RO": 2231, ".M": 2232, "ayout": 2233, "Ġbec": 2234, "ĠLe": 2235, "Ġdem": 2236, "press": 2237, "Ġho": 2238, "IC": 2239, "Ġcould": 2240, ".L": 2241, "(t": 2242, "ants": 2243, "ines": 2244, "28": 2245, "Ġom": 2246, "Ġou": 2247, "lease": 2248, "Key": 2249, "ĠNew": 2250, "ride": 2251, "Service": 2252, "ìĹ": 2253, "21": 2254, "ution": 2255, "ION": 2256, "æĪ": 2257, "roid": 2258, "Ġwhile": 2259, "ced": 2260, "za": 2261, "DE": 2262, "='": 2263, "((": 2264, "util": 2265, "item": 2266, "99": 2267, "Ġsaid": 2268, "era": 2269, "Ġused": 2270, "velop": 2271, "ĠPl": 2272, "He": 2273, "ja": 2274, "org": 2275, "çº": 2276, "../": 2277, "emb": 2278, "Wh": 2279, "opy": 2280, "Ġtry": 2281, "ward": 2282, "å¥": 2283, "wh": 2284, "Ġfam": 2285, "');Ċ": 2286, "ino": 2287, "alk": 2288, "vis": 2289, "Ġog": 2290, "Ġnumber": 2291, "cription": 2292, "ya": 2293, "Event": 2294, "27": 2295, "Ġmo": 2296, "çī": 2297, "Ġserv": 2298, "Ġ*Ċ": 2299, "ä½": 2300, "Ġyears": 2301, "ocument": 2302, "Ġevent": 2303, "Ġhere": 2304, "ited": 2305, "Ġplay": 2306, "Ġcas": 2307, "26": 2308, "ized": 2309, "Ã´": 2310, "Ĥà°": 2311, "cript": 2312, "ci": 2313, "ante": 2314, "land": 2315, "-b": 2316, "aciÃ³n": 2317, "idad": 2318, "łáĥ": 2319, "Ġprint": 2320, "Ġ///": 2321, "aar": 2322, "-m": 2323, "ĠX": 2324, "ĠEn": 2325, "Ġfin": 2326, "log": 2327, "Info": 2328, "uit": 2329, "){Ċ": 2330, "Ġkey": 2331, "other": 2332, "Ġlog": 2333, "order": 2334, "ken": 2335, "(m": 2336, "ally": 2337, "());Ċ": 2338, "AM": 2339, "Ġcomple": 2340, "Æ°": 2341, "ama": 2342, "cho": 2343, "_T": 2344, "],": 2345, "Ã©r": 2346, "kt": 2347, "AS": 2348, "å¼": 2349, "ĠOn": 2350, "...ĊĊ": 2351, "Ġday": 2352, "Ġinformation": 2353, "#include": 2354, "åį": 2355, "We": 2356, "Ġitem": 2357, "_n": 2358, "Ġdiffer": 2359, "ttp": 2360, "Ġpas": 2361, "Ġlast": 2362, "ET": 2363, "Button": 2364, "umm": 2365, "Sh": 2366, "dit": 2367, "æĺ": 2368, "alth": 2369, "áŁ": 2370, "UR": 2371, "Åĳ": 2372, "Ġsin": 2373, "Ġtak": 2374, "à©": 2375, "ĠCl": 2376, "Ġà¨": 2377, "Ġprogram": 2378, "ollow": 2379, "Ġword": 2380, "ails": 2381, "Pl": 2382, "ros": 2383, "Ġinclud": 2384, "Ġtext": 2385, "unt": 2386, "Ĥ¬": 2387, "struct": 2388, "back": 2389, "è¿": 2390, "'Ċ": 2391, "Ġcurrent": 2392, "))Ċ": 2393, "mp": 2394, "Ġgreat": 2395, "éĩ": 2396, "ĠFor": 2397, "Ġins": 2398, "Ġgener": 2399, "arm": 2400, "On": 2401, "64": 2402, "ique": 2403, "An": 2404, "ga": 2405, "Ġdoes": 2406, "roller": 2407, "atur": 2408, "Ġfa": 2409, "Ġ--": 2410, "Qu": 2411, "Ġsign": 2412, ".w": 2413, "pre": 2414, "Ġbecause": 2415, "Ġhome": 2416, "Ġsuch": 2417, "Model": 2418, "Ġfree": 2419, "80": 2420, "Ġdid": 2421, "At": 2422, ");": 2423, "Man": 2424, "ams": 2425, ".in": 2426, "Or": 2427, "ED": 2428, "tn": 2429, "Ġbefore": 2430, "Error": 2431, "Ġ<<": 2432, "index": 2433, "ital": 2434, "ÅĽ": 2435, "UT": 2436, "ida": 2437, "ample": 2438, "è¯": 2439, "ives": 2440, "Un": 2441, "ware": 2442, "_in": 2443, "Ġnum": 2444, "29": 2445, "[\"": 2446, "Ġprocess": 2447, "],Ċ": 2448, "uthor": 2449, "ste": 2450, ")čĊ": 2451, "File": 2452, "comm": 2453, "Ġprovid": 2454, "ç»": 2455, "rop": 2456, "ĠPr": 2457, "ache": 2458, "ector": 2459, "loat": 2460, "Ġya": 2461, "01": 2462, "IS": 2463, "Ã¡s": 2464, "ido": 2465, "Ġonline": 2466, "Ġvoor": 2467, "Over": 2468, "oad": 2469, "face": 2470, "ĠÒ": 2471, "fe": 2472, "Request": 2473, "Ġtake": 2474, "As": 2475, "ional": 2476, "Map": 2477, "oh": 2478, "man": 2479, "Ġste": 2480, "chn": 2481, "ĠFr": 2482, "),Ċ": 2483, "Ġown": 2484, "ĠRes": 2485, "file": 2486, "go": 2487, "Ġchild": 2488, "âĢĶ": 2489, "enu": 2490, "Color": 2491, "Ġview": 2492, "Ar": 2493, "ours": 2494, "Ġcap": 2495, "Ġdas": 2496, "imes": 2497, "è®": 2498, "Ġq": 2499, "td": 2500, "':": 2501, "Ġbreak": 2502, "vert": 2503, "iter": 2504, "Ġarg": 2505, ".W": 2506, "ared": 2507, "Ġtop": 2508, "by": 2509, "ually": 2510, "erg": 2511, "Al": 2512, "Ġsize": 2513, "ason": 2514, "atic": 2515, "ains": 2516, "Ġsit": 2517, "ailable": 2518, "ocation": 2519, "Ġshow": 2520, "Ġce": 2521, "....": 2522, "Ġmodel": 2523, "Ġusing": 2524, "enn": 2525, "ini": 2526, "Ġdesign": 2527, "rc": 2528, "ism": 2529, "Index": 2530, "Ġsal": 2531, "Ġcheck": 2532, "_M": 2533, "Ġ{ĊĊ": 2534, "Ġworld": 2535, "eter": 2536, "-t": 2537, "ijn": 2538, "Ġ\\": 2539, "ament": 2540, "Ġweek": 2541, "å¿": 2542, "lication": 2543, "Ġson": 2544, "Ġbook": 2545, "ĠdÃ©": 2546, "Element": 2547, "Ġhim": 2548, "itch": 2549, "lete": 2550, "Ġ||": 2551, "Form": 2552, "(self": 2553, "Ġmit": 2554, "ght": 2555, "(n": 2556, "(p": 2557, "do": 2558, "ivity": 2559, "(c": 2560, "Ġthink": 2561, "Ġbusiness": 2562, "Test": 2563, "ĠÂ«": 2564, "AD": 2565, "Ġtot": 2566, "Ġagain": 2567, "ĠĠĠĠĠĠĠĠĠĠĠĠĠĠĠĠĠĠĠĠĠĠĠĠĠĠĠĠĠĠĠ": 2568, "Ġsystem": 2569, "Ġcall": 2570, "ye": 2571, "Ġprote": 2572, "ico": 2573, "ua": 2574, "ados": 2575, "Ġcent": 2576, "Ġpa": 2577, "(this": 2578, "ih": 2579, "Ġzu": 2580, "ìŀ": 2581, "AC": 2582, "package": 2583, "Ġpoint": 2584, "ĠBe": 2585, "ott": 2586, "Ġprodu": 2587, "ĠCol": 2588, "Ġbeing": 2589, "oto": 2590, "Ġrep": 2591, "Ġmat": 2592, "ideo": 2593, "Ġmade": 2594, "ios": 2595, "Ġeach": 2596, "oot": 2597, "Ġposs": 2598, "();ĊĊ": 2599, "åĬ": 2600, "right": 2601, "Ġrun": 2602, "Ġà¹": 2603, "Ġune": 2604, "ero": 2605, "âĢĮ": 2606, "è´": 2607, "35": 2608, "gen": 2609, "-d": 2610, "aterial": 2611, "Int": 2612, "Ġha": 2613, "export": 2614, "Ġplace": 2615, "ĠâĢĺ": 2616, "ident": 2617, "Ġqual": 2618, "ape": 2619, "Ġpo": 2620, "_name": 2621, "ks": 2622, "Äģ": 2623, "Le": 2624, "oken": 2625, "Ġcle": 2626, "Ġsoc": 2627, "Ġfound": 2628, "type": 2629, "Ġopen": 2630, "Ġist": 2631, "Ġsupport": 2632, "ĊĊĊ": 2633, "This": 2634, "Ġcreate": 2635, "ĠGr": 2636, "á»¥": 2637, "hip": 2638, "ora": 2639, "Ġpat": 2640, "Date": 2641, "ather": 2642, "////////": 2643, "ê³": 2644, "come": 2645, "å°": 2646, "ĠTo": 2647, "')Ċ": 2648, "Ġ__": 2649, ".âĢĿ": 2650, "_st": 2651, "po": 2652, "result": 2653, "Context": 2654, "ìł": 2655, "âĢį": 2656, "Ġcomo": 2657, "ala": 2658, "da": 2659, "ined": 2660, "ëĬ": 2661, "Box": 2662, "istr": 2663, "ql": 2664, "olean": 2665, "create": 2666, "Ġsuper": 2667, "ters": 2668, "ende": 2669, "nen": 2670, "Ġline": 2671, "ween": 2672, "ĠAll": 2673, "33": 2674, "(),": 2675, "45": 2676, "ists": 2677, "Ġ...": 2678, "Size": 2679, "Ġcho": 2680, "sole": 2681, "vice": 2682, "Ġku": 2683, "Ġpartic": 2684, "orn": 2685, ".e": 2686, "une": 2687, "é¢": 2688, "App": 2689, "icense": 2690, "Ġni": 2691, "Of": 2692, "ocal": 2693, "Ġorder": 2694, "Ġservice": 2695, "ê°": 2696, "(d": 2697, "ainer": 2698, "Ġdevelop": 2699, "lected": 2700, "Add": 2701, "Class": 2702, "ita": 2703, "iment": 2704, "ĠApp": 2705, "ync": 2706, "Em": 2707, "input": 2708, "ÃŃa": 2709, "Ġcontin": 2710, ".util": 2711, "Ġ/**Ċ": 2712, "lich": 2713, "All": 2714, "Ġmethod": 2715, "Ġ);Ċ": 2716, "indow": 2717, "itor": 2718, ".T": 2719, "\"]": 2720, "Ġcustom": 2721, "ĠOr": 2722, "åº": 2723, "Ġquest": 2724, "Ġstate": 2725, "ige": 2726, "Field": 2727, ".B": 2728, "pace": 2729, "Ġnext": 2730, "ploy": 2731, "Ġlife": 2732, "Ġrequest": 2733, "Ġthose": 2734, "!!": 2735, "Path": 2736, "ctions": 2737, "Ġeas": 2738, "Ġfollow": 2739, "trans": 2740, "search": 2741, "itial": 2742, "çľ": 2743, "indows": 2744, "á»ĭ": 2745, "Ġcare": 2746, "ĠSo": 2747, "ira": 2748, "36": 2749, "Ġmu": 2750, "Ġvol": 2751, "Ġvi": 2752, "list": 2753, "tract": 2754, "ump": 2755, "Ġarray": 2756, "icle": 2757, "Ad": 2758, "Ġdifferent": 2759, "(new": 2760, "aining": 2761, "Ġoper": 2762, "ÂŃ": 2763, "For": 2764, "IL": 2765, "ĠList": 2766, "Ġprov": 2767, "æĢ": 2768, "Up": 2769, ".log": 2770, "Ġbeg": 2771, "<?": 2772, "Ġexpect": 2773, "raph": 2774, "Ġmov": 2775, "rows": 2776, "ìĦ": 2777, "wer": 2778, "Ġdans": 2779, "ĠSch": 2780, "ĠTe": 2781, "Ġmar": 2782, "ots": 2783, "\"ĊĊ": 2784, "Ġorgan": 2785, "ias": 2786, "Ġsame": 2787, "AP": 2788, "ĠAd": 2789, "Ã®": 2790, "define": 2791, ".app": 2792, "iving": 2793, "########": 2794, "Ġcoun": 2795, "Ġintern": 2796, "ING": 2797, "less": 2798, "][": 2799, "._": 2800, "Ġlocal": 2801, "LO": 2802, "Ġ`": 2803, "Node": 2804, "Ġsite": 2805, "nect": 2806, "åĮ": 2807, "ura": 2808, "function": 2809, "Ġrece": 2810, "stance": 2811, "Ġ});Ċ": 2812, "Ġproble": 2813, "men": 2814, "Ġstyle": 2815, "Ġref": 2816, "Ġreally": 2817, "ird": 2818, "ela": 2819, "Log": 2820, "ified": 2821, "____": 2822, "omb": 2823, "},Ċ": 2824, "åĨ": 2825, "Array": 2826, "uil": 2827, "ission": 2828, "_F": 2829, "Ġik": 2830, "span": 2831, "ĠâĢĶ": 2832, "Ġpop": 2833, "ĉc": 2834, "--------------------------------": 2835, "Ġwrit": 2836, "Message": 2837, "ric": 2838, "tribut": 2839, "(int": 2840, "Ġsem": 2841, "90": 2842, "Component": 2843, "Ġ->": 2844, "Group": 2845, "Ġide": 2846, "ili": 2847, "éĢ": 2848, "ished": 2849, "ato": 2850, "æ³": 2851, "Ġ+=": 2852, "Ġmain": 2853, "site": 2854, "OM": 2855, "ĠInd": 2856, "ĠIs": 2857, "ever": 2858, "mit": 2859, "Ġsw": 2860, "inc": 2861, "Result": 2862, "ways": 2863, "urch": 2864, "Manager": 2865, "ĉĊ": 2866, "Ġnet": 2867, "Ġpay": 2868, "ĠÄĳ": 2869, "Ġqui": 2870, "Ġ/*": 2871, "sc": 2872, "Ġdefault": 2873, "70": 2874, "Image": 2875, "Ġau": 2876, "Ġexp": 2877, "Ġcommun": 2878, "Ġ(!": 2879, "ency": 2880, "Override": 2881, "Ġequ": 2882, "lock": 2883, "Ġí": 2884, "Ġmust": 2885, "Ġdan": 2886, "else": 2887, "pty": 2888, "ä¼": 2889, "Config": 2890, "Ġvon": 2891, "Ġgame": 2892, "Ġconf": 2893, "ness": 2894, "Ġobject": 2895, "Act": 2896, "ÃŁ": 2897, "tes": 2898, "Ġdirect": 2899, "OT": 2900, "();čĊ": 2901, "Ġfun": 2902, "ï¿": 2903, "ENT": 2904, "erc": 2905, "ti": 2906, "IM": 2907, "Ġdep": 2908, "irm": 2909, "Code": 2910, "heck": 2911, "ross": 2912, "Ġavailable": 2913, "Ġfact": 2914, "88": 2915, "Ġhab": 2916, "from": 2917, "Ġaround": 2918, "Ã¤r": 2919, "Des": 2920, "uck": 2921, "ijk": 2922, ".print": 2923, "html": 2924, "ĠSp": 2925, "aff": 2926, ".id": 2927, ".re": 2928, "ization": 2929, "stand": 2930, "Ġcu": 2931, "Val": 2932, "off": 2933, "ĠBr": 2934, "Ġrest": 2935, "Ġta": 2936, "Ġ()": 2937, "Ġbetween": 2938, "Ġcour": 2939, "va": 2940, "Not": 2941, ">čĊ": 2942, "Ã¶r": 2943, "not": 2944, "Ġret": 2945, "ee": 2946, "ium": 2947, "uro": 2948, "cul": 2949, "With": 2950, "-l": 2951, "ì§": 2952, "Ġwer": 2953, "Ġold": 2954, "Ġsay": 2955, "iles": 2956, "Ġnon": 2957, "Ã©e": 2958, "HE": 2959, "ĠMe": 2960, "plate": 2961, "over": 2962, "Ġmais": 2963, "================": 2964, "por": 2965, "ĠĠĠĠĠĠĠĠĠĠĠĠĠĠĠĠĠ": 2966, "http": 2967, "posit": 2968, "ically": 2969, "oss": 2970, "orth": 2971, "Ġmarket": 2972, "31": 2973, "AB": 2974, "omen": 2975, "Ġterm": 2976, "Ġerror": 2977, "ags": 2978, "odule": 2979, "Ġcert": 2980, "Ġti": 2981, "vir": 2982, "åŃ": 2983, "05": 2984, "Ġpu": 2985, "Ġandroid": 2986, "UN": 2987, "Ġmus": 2988, "Ġstill": 2989, "Ġang": 2990, "(String": 2991, "pen": 2992, "Ġplus": 2993, "Ġauf": 2994, "Ġwithout": 2995, "Pr": 2996, "crib": 2997, "obal": 2998, "Hand": 2999, "ĠGet": 3000, "ln": 3001, "Ġmonth": 3002, "Ġak": 3003, "Controller": 3004, "Ġmas": 3005, "ubl": 3006, ".r": 3007, "ĠUS": 3008, "aan": 3009, "ito": 3010, "./": 3011, "_D": 3012, "ilter": 3013, "Ġdisc": 3014, "Ġoffer": 3015, "Ġerr": 3016, "ron": 3017, "æī": 3018, "/*": 3019, "Ġgoing": 3020, "Ġâ": 3021, "iven": 3022, "AG": 3023, "ential": 3024, "Ġboth": 3025, "Ġben": 3026, "query": 3027, "ift": 3028, "vol": 3029, "çİ": 3030, "nection": 3031, "ading": 3032, "ULL": 3033, "Sc": 3034, "pons": 3035, "anel": 3036, "bar": 3037, "37": 3038, "older": 3039, "Ġproject": 3040, "ena": 3041, "reate": 3042, "tribute": 3043, "teger": 3044, "Ġmax": 3045, "04": 3046, "met": 3047, "-f": 3048, "></": 3049, "ĠNo": 3050, "ategory": 3051, "Ġput": 3052, "ny": 3053, "ati": 3054, "ali": 3055, "Ġpage": 3056, "ipp": 3057, "Ġ}čĊ": 3058, "}čĊ": 3059, "ftware": 3060, "Ġreport": 3061, "34": 3062, "oney": 3063, "n't": 3064, "Ġbuild": 3065, "aving": 3066, "ingle": 3067, "Fr": 3068, "ummary": 3069, "Ġuma": 3070, "Is": 3071, "Ġincre": 3072, "ground": 3073, "Ġhapp": 3074, "ology": 3075, ">ĊĊ": 3076, "ĠLa": 3077, "adi": 3078, "Ġann": 3079, "US": 3080, "ved": 3081, "ittle": 3082, "Ġlove": 3083, "ani": 3084, "Ġleg": 3085, "oud": 3086, "Ġclient": 3087, "Ġseg": 3088, "code": 3089, "ĠOb": 3090, "08": 3091, "Ġcome": 3092, "www": 3093, "áº¿": 3094, "çĽ": 3095, "_re": 3096, "ypes": 3097, "Ġter": 3098, "thing": 3099, "#define": 3100, "ĠBut": 3101, "ustr": 3102, "Ġals": 3103, "Ġba": 3104, "_N": 3105, "Ġstd": 3106, "inter": 3107, "ĉĉĉĉĉĉ": 3108, "sg": 3109, "the": 3110, "lar": 3111, "Ã²": 3112, "Ġcolor": 3113, "áº¡": 3114, "book": 3115, "Ġfri": 3116, "api": 3117, "ume": 3118, "private": 3119, "Ġcost": 3120, "ards": 3121, "Ġsecond": 3122, "Ġcontent": 3123, "Ġtoo": 3124, "rist": 3125, "ba": 3126, "Ġpath": 3127, "ĠQu": 3128, "ogle": 3129, ".is": 3130, "PE": 3131, "ika": 3132, "09": 3133, "Ġeng": 3134, ".length": 3135, "ĠCont": 3136, "Ġfew": 3137, "zi": 3138, "Ġwa": 3139, "Ġhist": 3140, "ĠfÃ¼r": 3141, "creen": 3142, "):": 3143, "ben": 3144, "ki": 3145, "ĠBl": 3146, "ference": 3147, "ĠIm": 3148, "åĵ": 3149, "Ġport": 3150, "Ġaan": 3151, "ano": 3152, "resent": 3153, "pring": 3154, "{čĊ": 3155, "Layout": 3156, "]ĊĊ": 3157, "ĠMar": 3158, "ĠrÃ©": 3159, "Ġlim": 3160, "inn": 3161, "Ġfull": 3162, "38": 3163, "å¸": 3164, "55": 3165, "Ġappro": 3166, "config": 3167, "Ġpod": 3168, "ief": 3169, "Ġaccess": 3170, "Ġeffect": 3171, "No": 3172, "-p": 3173, "OL": 3174, "Ġkan": 3175, "ĠThey": 3176, "Ġja": 3177, "ification": 3178, "Param": 3179, "ĠPh": 3180, "cle": 3181, "eld": 3182, "\").": 3183, "07": 3184, "ë¡": 3185, "Ġcompany": 3186, "Ġmessage": 3187, "lex": 3188, "ona": 3189, "Ġstand": 3190, "chen": 3191, "assword": 3192, "Response": 3193, "Ġspe": 3194, "Ġhead": 3195, "test": 3196, "Ê»": 3197, "vec": 3198, "Gr": 3199, "Ġko": 3200, "Ġfeel": 3201, "ĠDes": 3202, "valid": 3203, "label": 3204, "lt": 3205, "ips": 3206, "_B": 3207, "Ġkom": 3208, "ĠIN": 3209, "199": 3210, "IG": 3211, "It": 3212, "px": 3213, "Ġpot": 3214, "Ġzijn": 3215, "Ġlevel": 3216, "oci": 3217, "Ġdocument": 3218, "Ġteam": 3219, "Ġmill": 3220, "Ġ\"\"": 3221, "med": 3222, "06": 3223, "Ġenc": 3224, "pert": 3225, "Ġbas": 3226, "Opt": 3227, "Ġmem": 3228, "ima": 3229, "Out": 3230, "max": 3231, "(b": 3232, "Ġhealth": 3233, ".pro": 3234, "ables": 3235, "Status": 3236, "500": 3237, "æĿ": 3238, "iones": 3239, "Be": 3240, "Ġsure": 3241, "Ġexperience": 3242, "ĠEl": 3243, "place": 3244, "zen": 3245, "Ġinvest": 3246, "ÈĽ": 3247, "aces": 3248, "Trans": 3249, "gg": 3250, "éľ": 3251, "ï¿½": 3252, "content": 3253, "ĠHow": 3254, "FF": 3255, "39": 3256, "char": 3257, "ending": 3258, "Ġfield": 3259, "idget": 3260, "Ġlot": 3261, "ìĭ": 3262, "Ent": 3263, "cur": 3264, "ĠMan": 3265, "fect": 3266, "Ġca": 3267, "Ġ)Ċ": 3268, "alt": 3269, "ething": 3270, "ination": 3271, "ĠThere": 3272, "Input": 3273, "ived": 3274, "ories": 3275, "pecial": 3276, "Ġimp": 3277, "Ġthings": 3278, "Ġmag": 3279, "ê¸": 3280, "02": 3281, "init": 3282, "Ġir": 3283, "Ã©n": 3284, "Ġsmall": 3285, "elt": 3286, "Ġtable": 3287, "mb": 3288, "isk": 3289, "Ġiss": 3290, "uffer": 3291, "Ġà¶": 3292, "ille": 3293, "len": 3294, "tings": 3295, "uration": 3296, "cer": 3297, "true": 3298, "âĢĭ": 3299, "ìļ": 3300, "ĠLicense": 3301, "Ġwon": 3302, "Ġki": 3303, "Ġsex": 3304, "Ġmom": 3305, "ĠÃ¼": 3306, "Ġprotect": 3307, "System": 3308, "ling": 3309, "Ġresponse": 3310, "angu": 3311, "Ġalways": 3312, "Page": 3313, "ç«": 3314, "ĠAmer": 3315, "OD": 3316, "Ġconsider": 3317, "room": 3318, "Ġpresent": 3319, "Ġtu": 3320, "If": 3321, "44": 3322, ".out": 3323, "Util": 3324, "æĬ": 3325, "Ġchange": 3326, "acter": 3327, "Ġans": 3328, "ĠĠĠĠĠĠĠĠĠĠĠĠ": 3329, "Ġperform": 3330, "Ġé": 3331, "Ġjob": 3332, "ves": 3333, "atures": 3334, "Ġrange": 3335, "Ġduring": 3336, "Ġkeep": 3337, "Ġreview": 3338, "OS": 3339, "array": 3340, "Ġprom": 3341, "igen": 3342, "å·": 3343, "image": 3344, "ĉthis": 3345, "********************************": 3346, "object": 3347, ";čĊčĊ": 3348, "ĠPar": 3349, "opt": 3350, "ids": 3351, "Ġdays": 3352, "Ġimportant": 3353, "ĠSc": 3354, "ought": 3355, "75": 3356, "Ġaff": 3357, "Equ": 3358, "Ġlittle": 3359, "áº£": 3360, "\\n": 3361, "ï¼ģ": 3362, "æ¸": 3363, ".R": 3364, "Inter": 3365, "Ġtechn": 3366, "rl": 3367, "irt": 3368, "Ġhum": 3369, "iy": 3370, "Ġ:=": 3371, "Ġdos": 3372, "Ġthree": 3373, "stru": 3374, "Ġwater": 3375, "oi": 3376, "ĠI'": 3377, "check": 3378, "Count": 3379, "ialog": 3380, "ula": 3381, "Ġexpl": 3382, "Ġinput": 3383, "Ġva": 3384, "Ġinterest": 3385, "').": 3386, "Ġè": 3387, "Table": 3388, "earch": 3389, "ret": 3390, "Ġbetter": 3391, "uild": 3392, "_h": 3393, "Ġroom": 3394, "And": 3395, "Ġwebsite": 3396, "çł": 3397, "Label": 3398, "_r": 3399, "New": 3400, "amente": 3401, "amespace": 3402, "å¨": 3403, "Ġess": 3404, "Reg": 3405, "-c": 3406, "Ġtil": 3407, "(e": 3408, "pi": 3409, "ao": 3410, "ales": 3411, "ands": 3412, "Ġlink": 3413, "âĢĻre": 3414, "Ġincluding": 3415, "Ġbig": 3416, "Ġol": 3417, "Listener": 3418, ",čĊ": 3419, "Ġmult": 3420, "Ġpower": 3421, "ources": 3422, "Ġindex": 3423, "ĠAN": 3424, "Ġschool": 3425, "Ġli": 3426, "Def": 3427, "Ġhard": 3428, ".ex": 3429, "ĠAb": 3430, "resh": 3431, "elle": 3432, "cht": 3433, "cord": 3434, "arly": 3435, "Ġcode": 3436, "umb": 3437, "ativ": 3438, "iled": 3439, "Ġcatch": 3440, "ï¼ī": 3441, "Ġplan": 3442, "isa": 3443, "mon": 3444, "way": 3445, "Ġvous": 3446, "Pos": 3447, "Ġfamily": 3448, "Ġdouble": 3449, "Str": 3450, "Ġsuccess": 3451, "aps": 3452, "Ġgot": 3453, "oute": 3454, "Client": 3455, "ä¿": 3456, "Ġfac": 3457, "img": 3458, "å¾": 3459, "())": 3460, "á»ĩ": 3461, "Ġwithin": 3462, "48": 3463, "ĉs": 3464, "Ġdate": 3465, "eder": 3466, "Click": 3467, "ude": 3468, "rawing": 3469, "Ġaccount": 3470, "ances": 3471, "Ġexc": 3472, "Ġ===": 3473, "ques": 3474, ",\"": 3475, "áº¹": 3476, "uilder": 3477, "Ġsam": 3478, "Ġ((": 3479, "_data": 3480, "Dis": 3481, "Ġstruct": 3482, "Action": 3483, "Ġsomething": 3484, "ario": 3485, "aa": 3486, "Ġbit": 3487, "enter": 3488, "ede": 3489, "ĠĠĠĠĠĠĠĠĠĠ": 3490, "uid": 3491, ".to": 3492, "abase": 3493, "otal": 3494, "Ġbeh": 3495, "Ġnicht": 3496, "ibr": 3497, "Ġleft": 3498, "agement": 3499, "ability": 3500, "ĠĠĠĠĠĠĠĠĊ": 3501, "cia": 3502, "Ġgroup": 3503, "_w": 3504, "ormal": 3505, "ĠÃ¡": 3506, "Ġmight": 3507, "ii": 3508, "You": 3509, "Ġelement": 3510, "aka": 3511, "éĻ": 3512, "Ġcontrol": 3513, "Ġservices": 3514, "Ġspecial": 3515, "CH": 3516, "amework": 3517, "mt": 3518, "Ġprovide": 3519, "aster": 3520, "eta": 3521, "åİ": 3522, "ÈĻ": 3523, "Ġred": 3524, "ko": 3525, "idade": 3526, "Ġmot": 3527, "ores": 3528, "iginal": 3529, "Ġdist": 3530, "ï¼Ī": 3531, "ĠAt": 3532, "Ġcount": 3533, "gl": 3534, "Ġbar": 3535, "Ġtotal": 3536, "Ġbase": 3537, "Ġchang": 3538, "Ġanother": 3539, "Content": 3540, "itional": 3541, "ones": 3542, "66": 3543, "idd": 3544, "ìķ": 3545, "Ġimage": 3546, "viron": 3547, "Ġarea": 3548, "ision": 3549, "igned": 3550, "ĠShe": 3551, "riter": 3552, "Ġsince": 3553, "andom": 3554, "ĠFl": 3555, "avor": 3556, "ights": 3557, "head": 3558, "Ġç": 3559, "Sub": 3560, "Det": 3561, "Ġvers": 3562, "Ġbody": 3563, "SS": 3564, "yl": 3565, "Ġgive": 3566, "Ġgen": 3567, "EM": 3568, "Ġhot": 3569, "(i": 3570, "EL": 3571, "Ġtrav": 3572, "Ġ($": 3573, "atis": 3574, "Ġwar": 3575, "fter": 3576, "Ġextends": 3577, "03": 3578, "Ġsich": 3579, "ready": 3580, "ĠpÃ¥": 3581, "Ġhar": 3582, "Line": 3583, "Ġutil": 3584, "arge": 3585, "åĩ": 3586, "ĠnÃ£o": 3587, "ĠMy": 3588, "vers": 3589, "Ġkind": 3590, "ills": 3591, "icon": 3592, "*/": 3593, "Ä±n": 3594, "Ġsearch": 3595, "hi": 3596, "db": 3597, "mo": 3598, ".\"": 3599, "Ġair": 3600, "Number": 3601, "Ġassert": 3602, "comp": 3603, "Ġsocial": 3604, "oogle": 3605, ".x": 3606, "Ġcontact": 3607, "Ã¹": 3608, "ieve": 3609, "Ġrecord": 3610, "zy": 3611, "ched": 3612, "ÄĽ": 3613, ".append": 3614, "Ã¡n": 3615, "Ġecho": 3616, "Ġbro": 3617, "Ġturn": 3618, "acc": 3619, "Ġemail": 3620, "ately": 3621, "ĉb": 3622, "ador": 3623, "ocus": 3624, "ĉprivate": 3625, "map": 3626, "Ġgre": 3627, "Ġfore": 3628, "Ġhref": 3629, "uy": 3630, "77": 3631, "ired": 3632, "Ġaction": 3633, "Ġbed": 3634, "Ãµes": 3635, "Ġable": 3636, "Ġbir": 3637, "ca": 3638, "Ġniet": 3639, "imer": 3640, "ìĬ": 3641, ".println": 3642, "orage": 3643, "jor": 3644, "Ġdest": 3645, "ĠDo": 3646, "ici": 3647, "Ġanal": 3648, "Ġrequired": 3649, "Ġless": 3650, "itÃ©": 3651, "ĠâĢ¦": 3652, "Ġallow": 3653, "Ser": 3654, "gress": 3655, "actory": 3656, "ette": 3657, "Column": 3658, "Ġaddress": 3659, ".G": 3660, "Ġjavax": 3661, "Ġlooking": 3662, "Ġnever": 3663, "Ph": 3664, "oo": 3665, "Ġtarget": 3666, "><": 3667, "Ġmaterial": 3668, "post": 3669, "ules": 3670, "Ġsus": 3671, "Ã¬": 3672, "Ġbool": 3673, "uto": 3674, "49": 3675, "è¡": 3676, "IP": 3677, "Ġmil": 3678, "Ġparam": 3679, "æ´": 3680, "_type": 3681, "acy": 3682, "joy": 3683, "Ġdig": 3684, "ĠDr": 3685, "Ġtitle": 3686, "Ġask": 3687, "ë¥": 3688, "ĠWith": 3689, "Ġcontext": 3690, "apt": 3691, "sk": 3692, "endo": 3693, "odes": 3694, "context": 3695, "Ġvideo": 3696, "my": 3697, "UE": 3698, "ë¦": 3699, "iversity": 3700, "aper": 3701, "Ġpersonal": 3702, "Ġconfig": 3703, "sub": 3704, "cha": 3705, "aph": 3706, "Instance": 3707, "Ġgrow": 3708, "Ġcou": 3709, "vious": 3710, "mand": 3711, "open": 3712, "fic": 3713, "Ġmal": 3714, "request": 3715, "ences": 3716, "ĠVer": 3717, "Ġentre": 3718, "á»ĳ": 3719, "pository": 3720, "ista": 3721, "yd": 3722, "Ġsent": 3723, "summary": 3724, "Ġindiv": 3725, "èī": 3726, "Entity": 3727, "yr": 3728, "ican": 3729, "abled": 3730, "icy": 3731, "Ġboolean": 3732, "Ġprofession": 3733, "ently": 3734, "iod": 3735, "çĲ": 3736, "Ġbuy": 3737, "Ġdom": 3738, "From": 3739, "Ġoptions": 3740, ",âĢĿ": 3741, "imal": 3742, "ained": 3743, "apter": 3744, ".data": 3745, "Ġmes": 3746, "Ġconsole": 3747, "iti": 3748, "aÃ§Ã£o": 3749, "Ġproducts": 3750, "UI": 3751, "ĠSu": 3752, "Property": 3753, "PO": 3754, "Control": 3755, "65": 3756, "pa": 3757, "mi": 3758, "?Ċ": 3759, "ension": 3760, "ĉfor": 3761, "ç¾": 3762, "Ġmoney": 3763, ".de": 3764, "Ġadv": 3765, "Ġprice": 3766, "Ã©t": 3767, "Ċ//": 3768, "ites": 3769, ".create": 3770, "Ãªn": 3771, "èĢ": 3772, "perties": 3773, ">>": 3774, "adas": 3775, "EX": 3776, "Ġversion": 3777, "Ġindivid": 3778, "embers": 3779, "annel": 3780, "Ġinclude": 3781, "ĠmÃ¡s": 3782, "ended": 3783, "board": 3784, "ering": 3785, "Ġavec": 3786, "message": 3787, "assert": 3788, "option": 3789, "link": 3790, "ĠNULL": 3791, "lev": 3792, "æķ": 3793, "ĠDis": 3794, "Ġdev": 3795, "ĠEng": 3796, "Ġident": 3797, "box": 3798, "Ġchildren": 3799, "Ġlaw": 3800, "ĠReg": 3801, "ĠSet": 3802, "Ġhttp": 3803, ".Get": 3804, "({Ċ": 3805, "Query": 3806, "Ġfre": 3807, "wing": 3808, "akt": 3809, "Ġsn": 3810, "ster": 3811, "Ã¶n": 3812, "({": 3813, "ls": 3814, "Ġnov": 3815, "Ġuns": 3816, "Ġaus": 3817, "Style": 3818, "md": 3819, "fort": 3820, "Ġmatch": 3821, "IO": 3822, "ĠMed": 3823, "Ġza": 3824, "umer": 3825, "Ġbes": 3826, "ither": 3827, ").ĊĊ": 3828, "Ġfollowing": 3829, "áº¥": 3830, "agen": 3831, "Ġgover": 3832, "Ġmi": 3833, "åĿ": 3834, "Ġnos": 3835, "ĠCar": 3836, "ention": 3837, "ĠSie": 3838, "select": 3839, "Ġposition": 3840, "ĉĉĉĉĉĉĉĉ": 3841, "Ġing": 3842, "opp": 3843, "Ġmap": 3844, "éĹ": 3845, "\\\"": 3846, "ĠåĮ": 3847, ".Drawing": 3848, "Ġawait": 3849, "Ġshort": 3850, "ename": 3851, "una": 3852, "Ġupdate": 3853, "Ġlat": 3854, "Ġvisit": 3855, "icro": 3856, "ĠIntern": 3857, "Ġuit": 3858, "ĠNot": 3859, "Ġnil": 3860, "Ġhal": 3861, ".Form": 3862, "Ã§a": 3863, "button": 3864, "Ġtoday": 3865, "Ġeine": 3866, "Ġsob": 3867, "obile": 3868, "\".": 3869, ".Add": 3870, ".cl": 3871, "raft": 3872, "Ġmach": 3873, "Ġcreat": 3874, "ouch": 3875, "plit": 3876, "unk": 3877, "(x": 3878, "ê²": 3879, "ĠAdd": 3880, "amos": 3881, "(st": 3882, "ĠĠĊ": 3883, "Ġìŀ": 3884, "Ġsou": 3885, "Ġdire": 3886, "å±": 3887, "Ġfut": 3888, "','": 3889, "update": 3890, "format": 3891, "Ġbij": 3892, "maz": 3893, "uz": 3894, "ĉint": 3895, "clus": 3896, "tre": 3897, "anguage": 3898, "iction": 3899, "di": 3900, "(R": 3901, "æŃ": 3902, "${": 3903, "300": 3904, "anks": 3905, "ìľ": 3906, "upport": 3907, "Ġobj": 3908, "eturn": 3909, "ĠCan": 3910, "ande": 3911, "ðŁ": 3912, "rect": 3913, "ides": 3914, "ĠìĿ": 3915, "json": 3916, "Ġblog": 3917, "Ġ(Ċ": 3918, "Ġworking": 3919, "aring": 3920, "web": 3921, "des": 3922, "'re": 3923, "Ã¨s": 3924, "Ġnu": 3925, "Ġdoor": 3926, "Ġbased": 3927, "ML": 3928, "Ġlead": 3929, "opyright": 3930, "Ġappe": 3931, "Ġdon't": 3932, "95": 3933, "Ġlik": 3934, "eters": 3935, "yles": 3936, "ji": 3937, "Ġcomb": 3938, "Ã©m": 3939, "Ġmaking": 3940, "Ġocc": 3941, "Handler": 3942, "ĠGener": 3943, "Ġze": 3944, "ored": 3945, "bol": 3946, "conom": 3947, "HT": 3948, "47": 3949, "Ġpossible": 3950, "Ġfar": 3951, "zo": 3952, "æĶ": 3953, "Ġactiv": 3954, "Ġkun": 3955, "Ġmeet": 3956, "ku": 3957, "Collection": 3958, "hel": 3959, "_list": 3960, "Ġsever": 3961, "OP": 3962, "Ġcourse": 3963, "Ġcam": 3964, "Ġdone": 3965, "abil": 3966, "Ġquality": 3967, "ĠID": 3968, "itive": 3969, "https": 3970, "Ġauch": 3971, "!Ċ": 3972, "Ġresearch": 3973, "();": 3974, "aur": 3975, "(l": 3976, "},": 3977, "abor": 3978, "Ġ/>Ċ": 3979, "\"></": 3980, "ĠInt": 3981, "mente": 3982, "cope": 3983, ".Text": 3984, "path": 3985, "Edit": 3986, "Ġur": 3987, "Ġyang": 3988, "Stream": 3989, "Ġaway": 3990, "rix": 3991, "ATE": 3992, "Ġalle": 3993, "Ġay": 3994, "-in": 3995, "utes": 3996, "table": 3997, "js": 3998, "Ã¤n": 3999, "Ġmoment": 4000, "Ġcell": 4001, "Ġlight": 4002, "Ġlabel": 4003, "ĉĉĊ": 4004, "Ġimple": 4005, "default": 4006, "ëı": 4007, ".,": 4008, "SON": 4009, "Ġsum": 4010, "aba": 4011, "46": 4012, "Ġunderstand": 4013, "Point": 4014, "dis": 4015, "ply": 4016, "ĉf": 4017, "Ġdiv": 4018, "Ġeasy": 4019, "ĠEr": 4020, "Arg": 4021, "mas": 4022, "Ġvot": 4023, "eren": 4024, ".find": 4025, "Ġfood": 4026, "Ġvari": 4027, "Ġwel": 4028, "ably": 4029, "udio": 4030, "Ġtimes": 4031, "Url": 4032, "Ġ[Ċ": 4033, "Ġpast": 4034, "Ġfour": 4035, "vironment": 4036, "Â«": 4037, "Fl": 4038, "Ġmind": 4039, "lation": 4040, "ury": 4041, ".âĢĿĊĊ": 4042, "ades": 4043, "Ġalong": 4044, "Ġbegin": 4045, "Ġsource": 4046, "ograph": 4047, "_L": 4048, "ÅĪ": 4049, "email": 4050, "Ġod": 4051, "á»ģ": 4052, "obj": 4053, "Ġseem": 4054, "Ġens": 4055, "static": 4056, "Ġthrow": 4057, "âĢ¢": 4058, "response": 4059, "Ġenjoy": 4060, "thers": 4061, "ĠMay": 4062, "ëĵ": 4063, "Ġit's": 4064, "Ġhouse": 4065, ".sh": 4066, "Ġalready": 4067, "Vis": 4068, "aat": 4069, "args": 4070, "ients": 4071, "uns": 4072, "Ab": 4073, "ĠUser": 4074, "\",\"": 4075, "ibility": 4076, "ĠWhen": 4077, "Ġiz": 4078, "å¯": 4079, "elo": 4080, "net": 4081, "icial": 4082, "Ġsoftware": 4083, "Ġside": 4084, "/c": 4085, "ĠLog": 4086, "Ġexist": 4087, "ĠPol": 4088, "âĢĻve": 4089, "TR": 4090, "Ġdeb": 4091, "avig": 4092, ".Windows": 4093, "Pre": 4094, "};ĊĊ": 4095, "Ġcover": 4096, "Ġproperty": 4097, "group": 4098, "ases": 4099, "Ġten": 4100, "Ġwhe": 4101, "Å£": 4102, "ivo": 4103, "ponents": 4104, "ĠÂ»": 4105, "Ġgiven": 4106, "ral": 4107, "Menu": 4108, "Ġimpro": 4109, "ĠEm": 4110, "Ġdownload": 4111, "side": 4112, "Select": 4113, "iety": 4114, "Ġwidth": 4115, "Ã¨re": 4116, "æĭ": 4117, "Ġprotected": 4118, "Ġemploy": 4119, ".class": 4120, "++)": 4121, "Ġblock": 4122, "ley": 4123, "Ġpract": 4124, "Ġcalled": 4125, "á»Ļ": 4126, "Ġtre": 4127, "Ġmer": 4128, "atform": 4129, "Ġkw": 4130, "(&": 4131, "ured": 4132, "IR": 4133, "âĢ¦ĊĊ": 4134, "uh": 4135, "Ġagainst": 4136, "_RE": 4137, "Ġresults": 4138, "jo": 4139, "ĠChrist": 4140, "ĠBo": 4141, "nes": 4142, "Check": 4143, "ĠDE": 4144, "Ġperfect": 4145, "78": 4146, "ports": 4147, "Ġredu": 4148, "_H": 4149, "á»Ľ": 4150, "Ġcur": 4151, "pose": 4152, "æ°": 4153, "sol": 4154, "ë§": 4155, "asi": 4156, "Ġprim": 4157, "ĠDate": 4158, "Per": 4159, "ohn": 4160, "Ġra": 4161, "Ġlarge": 4162, "';ĊĊ": 4163, "portun": 4164, "Ġneeds": 4165, "_IN": 4166, "Ġbenef": 4167, "Token": 4168, "El": 4169, "Ġny": 4170, "Ġbi": 4171, "ëĤ": 4172, "Ġfloat": 4173, "ney": 4174, "sel": 4175, "ges": 4176, "Ġpag": 4177, "CC": 4178, "Ġthing": 4179, "Ġwhy": 4180, "ĠMin": 4181, ".N": 4182, "Ġdin": 4183, "aim": 4184, "ĠĠĠĠĠĠĠĠĠĠĠĠĠĠ": 4185, "iff": 4186, "æİ": 4187, "Ġindividual": 4188, "unch": 4189, "ottom": 4190, "Ġwin": 4191, "-w": 4192, "ĠĠĠĠĠĠĠĠĠĠĠĠĠĠĠĠĠĠĠĠĠ": 4193, "ĠCal": 4194, "Ġcertain": 4195, "Read": 4196, "Ġeste": 4197, "Start": 4198, "ĉm": 4199, "size": 4200, "æł": 4201, ".size": 4202, ",ĊĊ": 4203, "Ġlow": 4204, "Ġcamp": 4205, "Ġconc": 4206, "éĿ": 4207, "Ġelect": 4208, "ĠNe": 4209, "Ġrespons": 4210, "Ġinte": 4211, "IV": 4212, "ĠView": 4213, "elling": 4214, "kan": 4215, "Ġfund": 4216, "Ġlearn": 4217, "Ġalg": 4218, ".y": 4219, "Ġdies": 4220, "ony": 4221, "incip": 4222, "izer": 4223, "Ġvia": 4224, "Ġstatus": 4225, "isi": 4226, "Ġenerg": 4227, "sl": 4228, "Ġstudents": 4229, "ube": 4230, "mission": 4231, "position": 4232, "Ġsort": 4233, "ements": 4234, "oon": 4235, "iro": 4236, "á»ķ": 4237, "ging": 4238, ">(": 4239, "Ã¼n": 4240, "};Ċ": 4241, "Us": 4242, "Ġut": 4243, ".org": 4244, "elijk": 4245, "pression": 4246, "where": 4247, "cy": 4248, "ples": 4249, "Ġthought": 4250, "Ġtrad": 4251, "Ġamount": 4252, "Ġneg": 4253, "Ġvalid": 4254, "left": 4255, "Product": 4256, "ĠBy": 4257, "imo": 4258, "Ġsrc": 4259, "mm": 4260, "ete": 4261, "UM": 4262, "dr": 4263, "Builder": 4264, "ternal": 4265, "gy": 4266, "Ġhat": 4267, "artment": 4268, "cover": 4269, "æŀ": 4270, "ifier": 4271, ".Forms": 4272, "ival": 4273, "_V": 4274, "ĠEst": 4275, "imum": 4276, "ĠSer": 4277, "ctor": 4278, "-h": 4279, "uis": 4280, "Ġlive": 4281, "Ġ}čĊčĊ": 4282, "ĠText": 4283, "Ġhaving": 4284, "uments": 4285, "ĠčĊ": 4286, "ĠThat": 4287, "Ġinc": 4288, "num": 4289, "âĢĻm": 4290, "Ġook": 4291, "())Ċ": 4292, "Ġesc": 4293, "title": 4294, "sa": 4295, "La": 4296, "time": 4297, "Ġsitu": 4298, "lish": 4299, "Ġland": 4300, "Ġtool": 4301, "CE": 4302, "kl": 4303, ".html": 4304, "Ġdisplay": 4305, "Ġsingle": 4306, "ĠSte": 4307, "Ġtalk": 4308, "Ġnode": 4309, "ĠDie": 4310, "ication": 4311, "Ä°": 4312, "ella": 4313, "ema": 4314, "Ġ;": 4315, "Post": 4316, "Ġuntil": 4317, "cel": 4318, "aga": 4319, "atter": 4320, "mes": 4321, "ĠWhat": 4322, "uer": 4323, "uccess": 4324, "_pro": 4325, "_e": 4326, "uel": 4327, "59": 4328, "Bar": 4329, "ĉvar": 4330, "Ġant": 4331, "68": 4332, "amento": 4333, "vi": 4334, "ç§": 4335, "Ġich": 4336, "Ġlen": 4337, "ĠMore": 4338, "Ref": 4339, "58": 4340, "])": 4341, "react": 4342, "Ġkon": 4343, "uts": 4344, "]);Ċ": 4345, "ĠCo": 4346, "ungen": 4347, "ops": 4348, "////////////////": 4349, "IF": 4350, "aint": 4351, "ĠPer": 4352, "arning": 4353, "down": 4354, "ione": 4355, "outh": 4356, "Ġmor": 4357, "ĠPre": 4358, "Ġfunc": 4359, "Ġgovern": 4360, "ĠNone": 4361, "Ġcond": 4362, "Ġtreat": 4363, "Ġurl": 4364, "Comp": 4365, "Ġeduc": 4366, "ulation": 4367, "Ġpubl": 4368, "ĠTest": 4369, "Ġgro": 4370, "âĢĺ": 4371, "ĠObject": 4372, "ĠJe": 4373, "Ġheight": 4374, "Ã¡r": 4375, "body": 4376, "Http": 4377, ".value": 4378, "âĢŀ": 4379, "Ġcult": 4380, "ĠUp": 4381, "Ġclean": 4382, "lege": 4383, "42": 4384, "formation": 4385, "}čĊčĊ": 4386, "ince": 4387, "Ã§Ãµes": 4388, "Ġmis": 4389, "ìĸ": 4390, "Ġoch": 4391, "Ġload": 4392, "Call": 4393, "Ġpurch": 4394, "Ġsimple": 4395, "ĊĊĊĊ": 4396, "Ġtoget": 4397, "Link": 4398, "True": 4399, "anda": 4400, "\");čĊ": 4401, "ocket": 4402, "ÅĻ": 4403, "=>": 4404, "á»£": 4405, "Ġtogether": 4406, "oke": 4407, "âĢĻll": 4408, "Mod": 4409, "atal": 4410, "Method": 4411, "lin": 4412, "Ġnie": 4413, "ipe": 4414, "ourn": 4415, "(r": 4416, "Ġonce": 4417, "ë°": 4418, "Ġitems": 4419, "Ġoutput": 4420, "ju": 4421, "field": 4422, "Ġselect": 4423, "Ġwat": 4424, "itter": 4425, ".spring": 4426, "etch": 4427, "aged": 4428, "ĠAss": 4429, "198": 4430, "Activity": 4431, "Ġmeans": 4432, "df": 4433, "AY": 4434, "Ġ};Ċ": 4435, "uly": 4436, "Ġoriginal": 4437, "Ġdit": 4438, "Ġ})Ċ": 4439, "arl": 4440, "orr": 4441, "oom": 4442, "Ġok": 4443, "End": 4444, "ĥ½": 4445, "Ġcard": 4446, "ilt": 4447, "ANT": 4448, "Ġcir": 4449, "Ġactually": 4450, "Ġmean": 4451, "ker": 4452, "si": 4453, "rij": 4454, "Ġbeaut": 4455, "çĪ": 4456, "Ġoften": 4457, "Ġeither": 4458, "Ġmakes": 4459, "uring": 4460, "ĠÃº": 4461, "Ġbad": 4462, "Ġtod": 4463, "Ġproblem": 4464, "Ġcomput": 4465, "IZ": 4466, "ounds": 4467, "iga": 4468, "namespace": 4469, "mun": 4470, "Null": 4471, "Ġhom": 4472, "ï¼Ł": 4473, "Ġsupp": 4474, "eller": 4475, "vider": 4476, "ĠGod": 4477, "Ġgetting": 4478, "400": 4479, "annot": 4480, "Īĺ": 4481, "erd": 4482, "Ġdam": 4483, "(data": 4484, "ĠAm": 4485, "script": 4486, "Source": 4487, "Ġvalues": 4488, "ĠArray": 4489, "framework": 4490, "What": 4491, "Ġdeal": 4492, "ram": 4493, "Ġcommunity": 4494, "ĠData": 4495, ".name": 4496, "Change": 4497, "Ġconnect": 4498, "Ġcred": 4499, "æµ": 4500, "ators": 4501, "parse": 4502, "Ġmass": 4503, "Ġplease": 4504, "Ġsobre": 4505, "Ġamb": 4506, "Ġbon": 4507, "mod": 4508, "Ġlater": 4509, "ĠMon": 4510, "Ġgeb": 4511, "Ġquick": 4512, "Ġao": 4513, "Ġnight": 4514, "Ġspecific": 4515, "Ġtal": 4516, "point": 4517, "Order": 4518, "Ġever": 4519, "../../": 4520, "params": 4521, "TH": 4522, "Ġstory": 4523, "Factory": 4524, "Ġinitial": 4525, "iste": 4526, "cret": 4527, "Ġfeatures": 4528, "Ġdetails": 4529, "Ġnatur": 4530, "Base": 4531, "Ġparticip": 4532, ".push": 4533, "ĠYour": 4534, "Ġele": 4535, "Ġìł": 4536, "«ĺ": 4537, "Ġauthor": 4538, "agn": 4539, "Ġbelow": 4540, "ĠâĢŀ": 4541, "Ġstore": 4542, ")(": 4543, "ĠWeb": 4544, "ural": 4545, "Ġcontinue": 4546, "parent": 4547, "abe": 4548, "ĠPart": 4549, "Æ¡": 4550, "...Ċ": 4551, "anto": 4552, "service": 4553, ".php": 4554, "Sp": 4555, "ĠOR": 4556, "Ġspace": 4557, "Ġseveral": 4558, "<String": 4559, "Ġprob": 4560, "Ġrecomm": 4561, "ĠUniversity": 4562, "yo": 4563, "Ġemp": 4564, "Ġquestion": 4565, "Ġont": 4566, "Ġcountry": 4567, "atabase": 4568, "Back": 4569, "Ġinstance": 4570, "source": 4571, "imate": 4572, "ami": 4573, "change": 4574, "pond": 4575, "remove": 4576, "used": 4577, "Acc": 4578, "std": 4579, "Ġcook": 4580, "Ġface": 4581, "Ġenough": 4582, "Ġsend": 4583, "anch": 4584, "Ġ),Ċ": 4585, "Update": 4586, "ĠGl": 4587, "æ¬": 4588, "oved": 4589, "Ġphot": 4590, "Ġpur": 4591, "(_": 4592, "aging": 4593, "Ġargs": 4594, ".swing": 4595, "fa": 4596, "Repository": 4597, "_ST": 4598, "ĠÃ©t": 4599, "ila": 4600, "éģ": 4601, "Ġuint": 4602, "cribe": 4603, "ording": 4604, "ĠÔ": 4605, "Ġclos": 4606, "41": 4607, "Ġpress": 4608, "oper": 4609, "color": 4610, "ĠGu": 4611, "Ġexample": 4612, "èĩ": 4613, "(j": 4614, "uri": 4615, "Ġà¥": 4616, "Ġmembers": 4617, "Ġalt": 4618, "iday": 4619, "Ġsays": 4620, "uint": 4621, ".J": 4622, "ĠThese": 4623, "56": 4624, "Ġbal": 4625, "Ġber": 4626, "ĠOff": 4627, "Ġstudy": 4628, "Ġgar": 4629, "Ġhost": 4630, "dated": 4631, "aking": 4632, "Ġ<=": 4633, "Ġextra": 4634, "ĠáĢ": 4635, "Ġheb": 4636, "Ġfinanc": 4637, "Ġach": 4638, "Ġparticular": 4639, "Ġbecome": 4640, "çĻ": 4641, "idden": 4642, "stit": 4643, "Ġsind": 4644, "Ġcity": 4645, "/s": 4646, "Ġplayer": 4647, "Ġmajor": 4648, "Ġothers": 4649, "mark": 4650, "!--": 4651, "active": 4652, ".springframework": 4653, "apping": 4654, "_size": 4655, "One": 4656, "_de": 4657, "Ġgames": 4658, "Ġmedia": 4659, "Ġsens": 4660, "ilar": 4661, "ball": 4662, "ĠGe": 4663, "Ġespecial": 4664, "Ġbutton": 4665, "Ġhold": 4666, "ĠEuro": 4667, "\"))": 4668, "Ġ>=": 4669, "ising": 4670, "Ġwrite": 4671, "kn": 4672, "Ġnecess": 4673, "ĠMark": 4674, "ison": 4675, "Ġyet": 4676, "Ġprec": 4677, "TE": 4678, "Mode": 4679, "iento": 4680, "Ġkl": 4681, "model": 4682, "98": 4683, "iri": 4684, "UP": 4685, "ged": 4686, "57": 4687, "Ġpolit": 4688, "âĤ¬": 4689, "ustry": 4690, "_to": 4691, "Ġlib": 4692, "Ġstay": 4693, "Ġsave": 4694, "aya": 4695, "ental": 4696, "Ġ'./": 4697, "height": 4698, "URL": 4699, "Ġautom": 4700, "Ġlocation": 4701, "Ġfavor": 4702, "Ġnews": 4703, "Ġpers": 4704, "Create": 4705, "AME": 4706, "ĉelse": 4707, "ĠOne": 4708, "Ġfont": 4709, "Ġnga": 4710, "pu": 4711, "Ġteach": 4712, "Ġthrows": 4713, "gt": 4714, "edd": 4715, "Ġsche": 4716, "ester": 4717, "NS": 4718, "Ġhours": 4719, "Ġcomes": 4720, "anu": 4721, "Ġoder": 4722, "Ġcomplet": 4723, "inding": 4724, "zer": 4725, "gu": 4726, "Ġê°": 4727, ".put": 4728, "ĠTHE": 4729, "atu": 4730, "ministr": 4731, "Ġsav": 4732, "Ġ['": 4733, "Ġmiss": 4734, "Ġwomen": 4735, "Ġshare": 4736, "Off": 4737, "ĠÃ¾": 4738, "Ġpie": 4739, "osp": 4740, "Ġcopy": 4741, "Ġabove": 4742, "################": 4743, "Ġleast": 4744, "Width": 4745, "Ġlarg": 4746, ".on": 4747, "ORT": 4748, "Ã©es": 4749, ".con": 4750, "ecut": 4751, "ĠVal": 4752, "Ġnam": 4753, "iful": 4754, "Ġfriend": 4755, "])Ċ": 4756, "97": 4757, "hand": 4758, "PL": 4759, "encia": 4760, "OK": 4761, "quired": 4762, "Ġetc": 4763, "ë³": 4764, "inate": 4765, "Ġprovided": 4766, "Ġfocus": 4767, "å¦": 4768, "æĥ": 4769, "ĠAct": 4770, "Ġrepresent": 4771, "Tem": 4772, "_R": 4773, "zt": 4774, "Ġdue": 4775, "antes": 4776, "([": 4777, "YPE": 4778, "Ġapplication": 4779, "ESS": 4780, "AX": 4781, "fully": 4782, "ola": 4783, "ensive": 4784, "Ġreason": 4785, "elen": 4786, "endif": 4787, "ipo": 4788, "ĠComp": 4789, ".model": 4790, "igr": 4791, "150": 4792, "ĉĉĉĉĉĉĉ": 4793, "Ġseason": 4794, "Ġbre": 4795, "-n": 4796, "DB": 4797, "ogn": 4798, "cast": 4799, "Ġrow": 4800, "á»Ŀ": 4801, "pload": 4802, "icles": 4803, "Ġwalk": 4804, "Ġpick": 4805, "Ġ...ĊĊ": 4806, ".text": 4807, "Ã¤t": 4808, "start": 4809, "ingen": 4810, "Ġwait": 4811, "ĠNov": 4812, "yt": 4813, "Ġpou": 4814, "Ġsont": 4815, "ĠDec": 4816, "argin": 4817, "ìĽ": 4818, "á¹": 4819, "anger": 4820, "Ġacross": 4821, "Ã³n": 4822, "ires": 4823, "ï½": 4824, "Valid": 4825, "Ġcompan": 4826, "product": 4827, "ĠFile": 4828, "Ġclose": 4829, "inary": 4830, "Ġperiod": 4831, "Command": 4832, "________": 4833, "ĠUs": 4834, "Ġdevelopment": 4835, "Ġauto": 4836, "/**Ċ": 4837, "Ġhu": 4838, "Ġmove": 4839, "eft": 4840, "Ġfuture": 4841, "Ġtamb": 4842, "Ġwriting": 4843, "server": 4844, "just": 4845, "Ġwerden": 4846, "ĠForm": 4847, "Ġago": 4848, "Ġtrack": 4849, "Ġclick": 4850, "pend": 4851, "state": 4852, "istance": 4853, "Ġtask": 4854, "Ġoffers": 4855, "How": 4856, "Module": 4857, "Ġsie": 4858, "åĴ": 4859, "Ġdating": 4860, "âĢĿ,": 4861, "Ġdoing": 4862, "ĠOF": 4863, "Hel": 4864, "most": 4865, "Âł": 4866, "Ġopportun": 4867, "Const": 4868, "Ġinn": 4869, "struction": 4870, "Ġoption": 4871, "Ġhandle": 4872, "43": 4873, "iddle": 4874, "Ġprincip": 4875, "wards": 4876, "structor": 4877, "Ġgir": 4878, "adio": 4879, "ĠIl": 4880, "req": 4881, "Ġev": 4882, "lear": 4883, "Ġá»į": 4884, "iple": 4885, "rea": 4886, "Ġpal": 4887, "ĠOur": 4888, "Ġbien": 4889, "anz": 4890, "page": 4891, "ĮĢ": 4892, "AV": 4893, "Cell": 4894, "ÃŃt": 4895, "Grid": 4896, "Address": 4897, "åĳ": 4898, "<<": 4899, "Ġcommon": 4900, "Ġpack": 4901, "Ġsym": 4902, "ĠFree": 4903, "Ġquestions": 4904, "Options": 4905, "Default": 4906, "Ġ});ĊĊ": 4907, "Ġclear": 4908, "ixed": 4909, "Â·": 4910, "ijd": 4911, "iki": 4912, "Ġah": 4913, "Ġcreated": 4914, "Ġzo": 4915, "iate": 4916, "Ġnp": 4917, "Ġcomment": 4918, "Ġinfo": 4919, "Ġtyp": 4920, "urther": 4921, "nh": 4922, "Ġdiscuss": 4923, "Ġmusic": 4924, "áºŃ": 4925, "Ġusers": 4926, "Ġmga": 4927, "ĠState": 4928, "_v": 4929, ".js": 4930, "ERR": 4931, "leep": 4932, "Ġpict": 4933, "iten": 4934, "Ġhuman": 4935, "ĠBar": 4936, "null": 4937, "adding": 4938, "unit": 4939, "Ġsubject": 4940, "Ġnetwork": 4941, "Ġsignific": 4942, "ĠRead": 4943, "lim": 4944, "Attribute": 4945, "reet": 4946, "åģ": 4947, "lu": 4948, "aha": 4949, "ecute": 4950, "Title": 4951, "ï»": 4952, "OV": 4953, "Ġdeterm": 4954, "agment": 4955, "count": 4956, "Child": 4957, "base": 4958, "Ġstarted": 4959, "Ġmaint": 4960, "êµ": 4961, "Ġren": 4962, "\");ĊĊ": 4963, "has": 4964, "Ġrole": 4965, "ĠArt": 4966, "Ġtw": 4967, "header": 4968, "edia": 4969, "ĠIS": 4970, "Integer": 4971, "Ġminutes": 4972, "_g": 4973, "æı": 4974, "ART": 4975, "Ġtele": 4976, "My": 4977, "valu": 4978, "hen": 4979, "Ġbil": 4980, "ele": 4981, "asure": 4982, "_set": 4983, "Ġcompet": 4984, "Ġpred": 4985, "aux": 4986, "curity": 4987, "Ã¥r": 4988, "_G": 4989, "-se": 4990, "67": 4991, "center": 4992, "Block": 4993, "Ġglobal": 4994, "Ġnh": 4995, "imple": 4996, "ĠÃ¼ber": 4997, "Ġeconom": 4998, "ĠÃŃ": 4999, "ĠPublic": 5000, "è¦": 5001, "ĠI'm": 5002, "itted": 5003, "PI": 5004, "ÄĲ": 5005, "Panel": 5006, "Ġtemp": 5007, "Ġtell": 5008, "oman": 5009, "root": 5010, "});Ċ": 5011, "_W": 5012, "loor": 5013, "Ġthough": 5014, "atie": 5015, "Icon": 5016, "Ġhope": 5017, "ignment": 5018, "itions": 5019, "Ġtout": 5020, "Ġapplic": 5021, "Ġmonths": 5022, "Ġcy": 5023, "etr": 5024, "Ġbox": 5025, "Me": 5026, "inder": 5027, "itar": 5028, "åķ": 5029, "ĠPost": 5030, "hal": 5031, "Row": 5032, "Load": 5033, "ĠTrans": 5034, "Ġassoci": 5035, "Ġlength": 5036, "amm": 5037, "Ġeverything": 5038, ".v": 5039, "pli": 5040, "idades": 5041, "Ġrelations": 5042, "author": 5043, "show": 5044, "ĠEs": 5045, "(function": 5046, "quals": 5047, "ĉĠĠĠ": 5048, "Ġstrong": 5049, "Ġcomplete": 5050, "oma": 5051, "ĠDet": 5052, "Ġbei": 5053, "icas": 5054, "olo": 5055, "ĉcase": 5056, "ĠestÃ¡": 5057, "Ġknown": 5058, "Ġges": 5059, "éĽ": 5060, "Ġnach": 5061, "QL": 5062, "ĠHowever": 5063, "ĠUnited": 5064, "ises": 5065, "lig": 5066, "_path": 5067, "(C": 5068, "hing": 5069, "illa": 5070, "Fe": 5071, "Ġobt": 5072, "IB": 5073, "Ġfront": 5074, "Ġ},": 5075, "isch": 5076, "Ġpoints": 5077, "eni": 5078, "child": 5079, "eds": 5080, "Ġtax": 5081, "oe": 5082, "ĠCor": 5083, "ving": 5084, "ĠAg": 5085, "Ġasync": 5086, "Ġfilm": 5087, "(name": 5088, "Ġwhether": 5089, "Ġple": 5090, "ische": 5091, "OW": 5092, "Ġseries": 5093, "urg": 5094, ".Size": 5095, "Ġdeg": 5096, "FA": 5097, "Ġmaar": 5098, "ĠSee": 5099, "(){Ċ": 5100, "Ġinf": 5101, "Ġheart": 5102, "ĠInter": 5103, "printf": 5104, "ĠRE": 5105, "ett": 5106, "Ġdir": 5107, "Ã¡t": 5108, "sy": 5109, "Ġyoung": 5110, "asy": 5111, "ffect": 5112, "Ġfall": 5113, "Ġrespect": 5114, "typ": 5115, "astic": 5116, "Ġwatch": 5117, "Stack": 5118, "ibrary": 5119, "Ġbring": 5120, "Container": 5121, "control": 5122, "usiness": 5123, "There": 5124, "Ġ*/ĊĊ": 5125, "sm": 5126, "Ġdb": 5127, "iva": 5128, "ĠStr": 5129, "urt": 5130, "asa": 5131, "ĠClass": 5132, "Position": 5133, "plied": 5134, "entes": 5135, "func": 5136, "Ġdar": 5137, "ìĥ": 5138, "Ġchoose": 5139, "CL": 5140, "Ġinstall": 5141, "Ġeu": 5142, "Ġhappen": 5143, "Ġfast": 5144, ".čĊ": 5145, "Ġfriends": 5146, "áº¯": 5147, "Ġstop": 5148, "Ġinvol": 5149, "æ¯": 5150, "uma": 5151, "ëł": 5152, "event": 5153, "urance": 5154, "Ã©c": 5155, "Equal": 5156, "á»§": 5157, "Ġhistory": 5158, "á»±": 5159, "Serv": 5160, "Part": 5161, "year": 5162, "Ġhor": 5163, "TO": 5164, "ĠCity": 5165, "Utils": 5166, "é¡": 5167, "Empty": 5168, "Ġsomeone": 5169, "ĠGeneral": 5170, "197": 5171, "á»ĥ": 5172, "ynam": 5173, ":čĊ": 5174, "Ġwie": 5175, "Ġjson": 5176, "Num": 5177, "Ġquery": 5178, "ugin": 5179, "iente": 5180, "ĠDep": 5181, "èĤ": 5182, "ATION": 5183, "/m": 5184, "%%": 5185, "Ġphone": 5186, "ODE": 5187, "Ġpet": 5188, "anged": 5189, "acebook": 5190, "asing": 5191, "ledge": 5192, "Buffer": 5193, "auth": 5194, "_ex": 5195, "ufact": 5196, "Ġanim": 5197, "åī": 5198, "è¾": 5199, ":\"": 5200, "Ġinfl": 5201, "Ġpopular": 5202, "Ġwindow": 5203, "Ġindustry": 5204, "Ġbtn": 5205, "Header": 5206, "\";ĊĊ": 5207, "æ²": 5208, "Char": 5209, "atrix": 5210, "Ġage": 5211, "ç²": 5212, "Ġunique": 5213, "Ġenter": 5214, "ustomer": 5215, "Ġmillion": 5216, "ocol": 5217, "Ġkh": 5218, "//Ċ//": 5219, "ombre": 5220, "(),Ċ": 5221, "soft": 5222, "69": 5223, "ised": 5224, "Ä§": 5225, "admin": 5226, "ĠAmerican": 5227, "anta": 5228, "Ġadded": 5229, "Ġfit": 5230, "unn": 5231, "verage": 5232, "utions": 5233, "Ġvor": 5234, "ĠAng": 5235, "Ġstrateg": 5236, "ĠÖ": 5237, "256": 5238, "ky": 5239, ".annot": 5240, "Dialog": 5241, "het": 5242, "Ġsil": 5243, "Ġarticle": 5244, "asse": 5245, "info": 5246, "ĠCr": 5247, "ipping": 5248, "undle": 5249, "Ġwir": 5250, "egin": 5251, "ĠGoogle": 5252, "Ġcollection": 5253, "ĠCON": 5254, "current": 5255, "options": 5256, "Ġot": 5257, "Ġë°": 5258, "So": 5259, "Ġuk": 5260, "Ã³r": 5261, "ĠÃ§": 5262, "entity": 5263, "uper": 5264, "part": 5265, "ttps": 5266, "Height": 5267, "local": 5268, "aten": 5269, "Dr": 5270, "py": 5271, "Ġvirt": 5272, "eme": 5273, "ysis": 5274, "ued": 5275, "''": 5276, "Ġcame": 5277, "<T": 5278, "Ä«": 5279, "ìĺ": 5280, "Ġih": 5281, "outer": 5282, "Ġyn": 5283, "Ġfig": 5284, "cal": 5285, "Ġexperien": 5286, "iert": 5287, "Ġexam": 5288, "Ġphys": 5289, "uj": 5290, "Ġaux": 5291, "á»įn": 5292, "ota": 5293, "este": 5294, "ĠFe": 5295, "Ġcharacter": 5296, "Ġaddition": 5297, "Ġìķ": 5298, "OUT": 5299, "Ãī": 5300, "ively": 5301, "Ġnear": 5302, "Ġjoin": 5303, "stract": 5304, "iam": 5305, "andid": 5306, "Ġtim": 5307, "ĠOf": 5308, "Ġenvironment": 5309, "patch": 5310, "ĠÃ¶": 5311, "iger": 5312, "()ĊĊ": 5313, "Format": 5314, "roups": 5315, ".se": 5316, "<div": 5317, "ils": 5318, "Ġprevious": 5319, "Ġworks": 5320, "Ġhon": 5321, "Ġtrab": 5322, "Ġconse": 5323, "Ġoverride": 5324, "Ġvarious": 5325, "Ġprop": 5326, "ivery": 5327, "PS": 5328, "Player": 5329, "Ġdevice": 5330, "Ġrender": 5331, "Ġwr": 5332, "gn": 5333, "aily": 5334, "Connection": 5335, "Bl": 5336, "CK": 5337, "aciones": 5338, "ditions": 5339, "ached": 5340, "vas": 5341, "Ġhi": 5342, "iden": 5343, "etwork": 5344, "Ġnd": 5345, "áº§": 5346, "Ġhttps": 5347, "rodu": 5348, "ÉĻr": 5349, "ĠWorld": 5350, "Ġaccept": 5351, "Gener": 5352, "Task": 5353, "ĠJohn": 5354, "Ġregister": 5355, "Ġexpected": 5356, "oor": 5357, "_file": 5358, "ĠSub": 5359, "Resource": 5360, "phone": 5361, "Ġprofessional": 5362, "ako": 5363, "ë©": 5364, "Ġterms": 5365, "essages": 5366, "Filter": 5367, "lood": 5368, ".user": 5369, "IZE": 5370, "ĠRed": 5371, "ulo": 5372, "Ġenergy": 5373, "ald": 5374, "When": 5375, "Ġblack": 5376, "Ġperm": 5377, "itude": 5378, "ption": 5379, "idos": 5380, "Ġep": 5381, "Ġlimit": 5382, "enda": 5383, "ĠSm": 5384, ".V": 5385, "ĉd": 5386, "roy": 5387, "{{": 5388, "Ġnaar": 5389, "Search": 5390, "gan": 5391, "uses": 5392, "Ġparent": 5393, "Ġwent": 5394, "Ġstep": 5395, "ĠNews": 5396, "Ġgeneral": 5397, "wner": 5398, "Ġcustomer": 5399, "///": 5400, "ĠaÃ°": 5401, "\\\\": 5402, "Ġchall": 5403, "Eng": 5404, "lib": 5405, "Location": 5406, "Provider": 5407, "Ġcolumn": 5408, "ĠCent": 5409, "æ±": 5410, "KE": 5411, "rel": 5412, "Ġcompanies": 5413, "ç¬": 5414, ");čĊčĊ": 5415, "Ġprovides": 5416, "Ġtypes": 5417, "iner": 5418, "Ġformat": 5419, "jet": 5420, "II": 5421, "Ġsugg": 5422, "width": 5423, "Ġserver": 5424, "Ġengine": 5425, "sv": 5426, "Ġdass": 5427, "Ġpen": 5428, "Ġsel": 5429, "gle": 5430, "ĠAug": 5431, "Ġmember": 5432, "Ġcustomers": 5433, "ĠWest": 5434, "Ġcontr": 5435, "acity": 5436, "Ġek": 5437, "attr": 5438, "client": 5439, "light": 5440, "eli": 5441, "Ġdiffic": 5442, "ĠPa": 5443, "ĠOut": 5444, "udi": 5445, "ç®": 5446, "Ġ]": 5447, "Top": 5448, "Ġearly": 5449, "ĠPlease": 5450, "Ġweight": 5451, "tributed": 5452, "Ġdim": 5453, "Ġanswer": 5454, "ello": 5455, "Ġidea": 5456, "Ġterr": 5457, "Ġhier": 5458, "Ġgovernment": 5459, "ĠApr": 5460, "ĉp": 5461, "Ġwhole": 5462, "status": 5463, "Down": 5464, "undo": 5465, "Ġtook": 5466, "iler": 5467, "#if": 5468, "ĠDon": 5469, "abs": 5470, "åĢ": 5471, "env": 5472, "ĠCopyright": 5473, "xy": 5474, "Ġnormal": 5475, "Ġindic": 5476, "plac": 5477, "#endif": 5478, "ĠSome": 5479, "Ġ*)": 5480, "Ġreading": 5481, "Ġissues": 5482, "Ġpassword": 5483, "ried": 5484, "'ll": 5485, "Ġcut": 5486, "Ġapply": 5487, "ns": 5488, "(const": 5489, "Ġreceived": 5490, "Ġexpress": 5491, "(M": 5492, "address": 5493, "120": 5494, "Ġbeautiful": 5495, "Ġsuggest": 5496, "inen": 5497, "Ġcoll": 5498, "orte": 5499, "oria": 5500, "aker": 5501, "views": 5502, "Ġmel": 5503, "ĠEd": 5504, "Ġneeded": 5505, "Ġ+Ċ": 5506, "'.": 5507, "tributes": 5508, "Ġevents": 5509, "Types": 5510, "Ġ[]": 5511, "Ġ],Ċ": 5512, "qual": 5513, "output": 5514, "()->": 5515, "omain": 5516, "Ġfi": 5517, "Description": 5518, "ĠHome": 5519, "Ġanything": 5520, "........": 5521, "255": 5522, "icip": 5523, "Ġcorrect": 5524, "TER": 5525, "Ġonder": 5526, "Ġtraining": 5527, "Tag": 5528, "Ġ[âĢ¦": 5529, "Ġsy": 5530, "áģ": 5531, "ĠCre": 5532, "Ġswitch": 5533, "ITY": 5534, "ums": 5535, "Ġregard": 5536, "level": 5537, "tty": 5538, "ffer": 5539, "Ġtaking": 5540, "Ġdelete": 5541, "é¦": 5542, "Ġcenter": 5543, "Ġgi": 5544, "ĠPe": 5545, "Ġdraw": 5546, "ĠYork": 5547, "Ġnous": 5548, "Ġseen": 5549, "ĠAND": 5550, "Ġinternet": 5551, "ë¶": 5552, "(S": 5553, "_str": 5554, "ĠReact": 5555, "ĠTV": 5556, "Case": 5557, "Ġscreen": 5558, "-M": 5559, "emos": 5560, "acht": 5561, "rowser": 5562, "Frame": 5563, "rt": 5564, "Ġperformance": 5565, "Ġamong": 5566, "now": 5567, "ieren": 5568, "anced": 5569, "Dec": 5570, "istic": 5571, "ĠCheck": 5572, "Ġsing": 5573, "Ġlang": 5574, "Ġwonder": 5575, "ĠJust": 5576, "(false": 5577, "Ġprior": 5578, "éĺ": 5579, "ipment": 5580, "Ġtag": 5581, "riend": 5582, "Ġsession": 5583, "Ġinterface": 5584, "ILE": 5585, "Ġ*/čĊ": 5586, "ibil": 5587, "bs": 5588, "block": 5589, "51": 5590, "Ġimpact": 5591, "Ġwww": 5592, "Ġremove": 5593, "igo": 5594, "_url": 5595, "anner": 5596, "Äĵ": 5597, "Ġ**": 5598, "untime": 5599, "Items": 5600, "msg": 5601, "Ġauth": 5602, "Ġnatural": 5603, "gi": 5604, ".io": 5605, "Ġkann": 5606, "Ġrate": 5607, "åŁ": 5608, "DA": 5609, "Ġpriv": 5610, ".H": 5611, "Ġrap": 5612, "IST": 5613, "aven": 5614, "æĻ": 5615, "ĉt": 5616, "ounter": 5617, "Ġloss": 5618, "ĠEurope": 5619, "á»Ł": 5620, "Oper": 5621, "bor": 5622, "(a": 5623, "ĠÃ¨": 5624, "then": 5625, "Am": 5626, "oj": 5627, "ĠAcc": 5628, "Ġvotre": 5629, "Ġbuilding": 5630, "52": 5631, "Ġcannot": 5632, "ras": 5633, "Ġfeature": 5634, "Ġintegr": 5635, "================================": 5636, "Ġactual": 5637, "Ġfiles": 5638, "ë¬": 5639, ").Ċ": 5640, "issions": 5641, "adu": 5642, ".label": 5643, "hl": 5644, "Ġrelationship": 5645, "icos": 5646, "asta": 5647, "Output": 5648, "ĠAfter": 5649, "Ġsec": 5650, "chema": 5651, "imento": 5652, "ULT": 5653, "ÅĦ": 5654, "adem": 5655, "ĠReturn": 5656, "-st": 5657, "Ġopp": 5658, "ëĿ": 5659, "Ġinit": 5660, "host": 5661, "with": 5662, "(value": 5663, "ago": 5664, "-r": 5665, "Ġtro": 5666, "(true": 5667, "Ġtechnology": 5668, "Ġbrand": 5669, "kin": 5670, "âĢĿĊĊ": 5671, "pc": 5672, "Ġê²": 5673, "Ġcommand": 5674, "UG": 5675, "ided": 5676, "Te": 5677, "Ġvoc": 5678, "Ġexact": 5679, "Ġcomfort": 5680, "Ġbackground": 5681, "ober": 5682, "MS": 5683, "edit": 5684, "Ġplatform": 5685, "Rel": 5686, "Ġgrand": 5687, "ellen": 5688, "Ġimplement": 5689, "heet": 5690, "Ġworden": 5691, "Ġpercent": 5692, "alle": 5693, "izes": 5694, "\"\"": 5695, "Ġhotel": 5696, "Ġhalf": 5697, "Card": 5698, "Ġsig": 5699, "\"/": 5700, "ÃŃs": 5701, "kom": 5702, "Ã©d": 5703, "Ġexcept": 5704, "Ġsen": 5705, "Ġselected": 5706, "ĠHot": 5707, "Auth": 5708, "Ġpan": 5709, "Ġwords": 5710, "Ġcomponent": 5711, "Ġrights": 5712, "Ġresol": 5713, "ĠPres": 5714, "izing": 5715, "odo": 5716, "ĠEvent": 5717, "Ver": 5718, "Ġpi": 5719, "Ġliving": 5720, "acion": 5721, "Ġconditions": 5722, "Ġtravel": 5723, "Ġmanagement": 5724, "ĠPark": 5725, "ä¾": 5726, "POST": 5727, "Ġseu": 5728, "vision": 5729, "Br": 5730, "Ġbelieve": 5731, "_time": 5732, "Ġsites": 5733, "Ġfoot": 5734, ".assert": 5735, "ĠTrue": 5736, "ĠST": 5737, "rs": 5738, "ĠEnd": 5739, "Ġlanguage": 5740, "ership": 5741, "Ġreceive": 5742, "ROM": 5743, "Server": 5744, "Ġclaim": 5745, "Ġdog": 5746, "Open": 5747, "Window": 5748, "Do": 5749, "player": 5750, "Ġpotential": 5751, "Ġfire": 5752, "ĠĠĠĠĠĠĠĠĠĠĠĠĠĠĠĠĠĠĠĠĠĠĠĠĠ": 5753, "ĠGre": 5754, "Ġstaff": 5755, "dir": 5756, "Ġnog": 5757, "though": 5758, "Ġwhite": 5759, "Ġsimply": 5760, "Ġ${": 5761, "Stat": 5762, "Ġveh": 5763, "Ġfive": 5764, "fs": 5765, "section": 5766, "tries": 5767, "á¹£": 5768, "Ã±o": 5769, "Ġesta": 5770, "aria": 5771, "}}": 5772, "ismo": 5773, "Thread": 5774, "enta": 5775, "inner": 5776, "efore": 5777, "Ġill": 5778, "-to": 5779, "gest": 5780, "igin": 5781, "Ġkar": 5782, "translation": 5783, "ĠService": 5784, "ety": 5785, "ERT": 5786, "Ġdescription": 5787, "airs": 5788, "Max": 5789, "uni": 5790, "ĠOct": 5791, "oph": 5792, "tex": 5793, "ĠPort": 5794, "Ġmut": 5795, "esta": 5796, "Ġentire": 5797, "Ġhol": 5798, "ori": 5799, "Ġ\"\\": 5800, "Level": 5801, "196": 5802, "bit": 5803, "Ġdro": 5804, "Ġ.ĊĊ": 5805, "ursor": 5806, "Ġtodo": 5807, "Ġcasino": 5808, "Ġju": 5809, "Ġeveryone": 5810, "ĠHer": 5811, "alo": 5812, "ĠSw": 5813, "ptember": 5814, "iso": 5815, "_get": 5816, "Ġconv": 5817, "ĠDef": 5818, "ĠAp": 5819, "Ġbud": 5820, "alls": 5821, "Ġnou": 5822, "Ġdifficult": 5823, "ĠSE": 5824, "Ġfurther": 5825, "omet": 5826, "Ġstock": 5827, "ĠNow": 5828, "izar": 5829, "find": 5830, "Ġger": 5831, "Ġwird": 5832, "icrosoft": 5833, "-g": 5834, "ĠStud": 5835, "Length": 5836, "Ġdeze": 5837, "Ġ'@": 5838, "Ġdecl": 5839, "Ã¡l": 5840, "istry": 5841, "Ġ~": 5842, "Ġnas": 5843, "Current": 5844, "Ġroot": 5845, "Ġgam": 5846, "click": 5847, "Bo": 5848, "AGE": 5849, "_E": 5850, "ĠCreate": 5851, "ĠSchool": 5852, "coming": 5853, "Ġemb": 5854, "(id": 5855, "Ġsaf": 5856, "igt": 5857, "Ġvir": 5858, "ellent": 5859, "ham": 5860, "lem": 5861, "ĠHigh": 5862, "Params": 5863, "ĠZe": 5864, "uw": 5865, "Ġts": 5866, "Ġtoken": 5867, "itting": 5868, "aste": 5869, "ABLE": 5870, "Ġord": 5871, "istory": 5872, "ĠSan": 5873, "ĠInteger": 5874, "à¬": 5875, "ĠSol": 5876, "'est": 5877, "('/": 5878, "ĠMus": 5879, ",'": 5880, "ĠMa": 5881, "Email": 5882, "Ġadditional": 5883, "DF": 5884, "ĠAir": 5885, "Ġissue": 5886, "Game": 5887, "iene": 5888, "Ġchanges": 5889, ".annotation": 5890, "Web": 5891, "Ã©g": 5892, ".\"ĊĊ": 5893, "ije": 5894, "Ä±r": 5895, "\"));Ċ": 5896, ";ĊĊ/": 5897, "Adapter": 5898, "_ID": 5899, "oder": 5900, "·¸": 5901, "_DE": 5902, "aren": 5903, ">();Ċ": 5904, "Ġhan": 5905, "imm": 5906, "Ġpaper": 5907, "Ġcele": 5908, "æĦ": 5909, "SP": 5910, "*Ċ": 5911, "/d": 5912, "Ġincludes": 5913, "cher": 5914, "Ġga": 5915, "see": 5916, "sem": 5917, "weet": 5918, ".ap": 5919, "ERS": 5920, "anning": 5921, "Ġyourself": 5922, "Ġsua": 5923, "ĠPat": 5924, "offset": 5925, "Lo": 5926, "last": 5927, "800": 5928, "Ġmarketing": 5929, "Ġforward": 5930, "ĠTime": 5931, ".next": 5932, "Ġfilter": 5933, "pg": 5934, "Ġmir": 5935, "enses": 5936, "æĮ": 5937, ".state": 5938, "Ġtaken": 5939, "Ġcontract": 5940, "Ġ\"/": 5941, "Ġtrying": 5942, "idge": 5943, "Json": 5944, "Ġconnection": 5945, "Ġtech": 5946, "Ġbab": 5947, "Ġses": 5948, "igher": 5949, "Ġcrit": 5950, "actions": 5951, "Min": 5952, "Ġbill": 5953, "osed": 5954, "Ġrefer": 5955, "Ġaz": 5956, "600": 5957, "lose": 5958, "lik": 5959, "Record": 5960, "sten": 5961, "Ġareas": 5962, "_key": 5963, "Ġactive": 5964, "Ġhowever": 5965, "Unit": 5966, "Ã¸r": 5967, "Ã¤nd": 5968, "ĠfÃ¶r": 5969, "54": 5970, "_value": 5971, "ĠÅ¡": 5972, "ĠStates": 5973, "bi": 5974, "Equals": 5975, "ointer": 5976, "Ġinde": 5977, ".Name": 5978, "ĠNational": 5979, "_info": 5980, "Password": 5981, "éĴ": 5982, "dev": 5983, "Ġquite": 5984, "Ġreserv": 5985, "Ġ};ĊĊ": 5986, "ĠÄį": 5987, "Ġensure": 5988, "AND": 5989, "ĠServ": 5990, "Ġstudent": 5991, "Ġborder": 5992, "âĸ": 5993, "yes": 5994, ".write": 5995, "Ġmode": 5996, "96": 5997, "Ġsimilar": 5998, "Ġinside": 5999, "Ãªtre": 6000, "Ġeinen": 6001, "cing": 6002, "\"><": 6003, "Ã©l": 6004, "Ġsoon": 6005, "CA": 6006, "Ġdal": 6007, "(\"#": 6008, "Ġtom": 6009, "Ġwor": 6010, "Ġalmost": 6011, "Ġrunning": 6012, "ĠCount": 6013, "Ġfinancial": 6014, "Ġsepar": 6015, "Â°": 6016, "ĠTH": 6017, "})Ċ": 6018, "Ġboard": 6019, "lam": 6020, "53": 6021, "ĠSouth": 6022, "('#": 6023, "gar": 6024, "pected": 6025, "Ġplant": 6026, "Ġdoc": 6027, "Ġax": 6028, "aves": 6029, "Ġmodern": 6030, "ç¨": 6031, "udo": 6032, "Ġ\",": 6033, "Ġ\\Ċ": 6034, "ĠEnt": 6035, "Entry": 6036, "Application": 6037, "87": 6038, ".png": 6039, "Ġcurrently": 6040, "ĠColor": 6041, "ĠWork": 6042, "uli": 6043, "endar": 6044, "ç¤": 6045, "_A": 6046, "car": 6047, "Ġfan": 6048, "Ġ>>": 6049, "Ġwaar": 6050, "oz": 6051, "ĠWill": 6052, "Ġsv": 6053, "Ġera": 6054, "âĢĻest": 6055, "æĴ": 6056, "Ġproblems": 6057, "CTION": 6058, "Ġtab": 6059, "opping": 6060, "anga": 6061, "ëŀ": 6062, "£¼": 6063, "ĠException": 6064, "Ġflex": 6065, "Ġ<!--": 6066, "Ġstream": 6067, "Ġful": 6068, "empty": 6069, "íĻ": 6070, "ç±": 6071, ".Data": 6072, "akes": 6073, "Ġë§": 6074, "hem": 6075, "bon": 6076, "Ġnur": 6077, "(\"/": 6078, "vest": 6079, "Ġprem": 6080, "Ġcredit": 6081, "ĠÅ¾": 6082, "Ġmuit": 6083, "tx": 6084, "}>Ċ": 6085, "Ġjed": 6086, "ERE": 6087, "Ġded": 6088, ".view": 6089, "Ã¡c": 6090, "Rem": 6091, "Ġdesigned": 6092, "Ġoffice": 6093, "hib": 6094, "ĠNa": 6095, "uda": 6096, "ĠRem": 6097, "æĽ": 6098, "Function": 6099, "ban": 6100, "Ġtemplate": 6101, "igger": 6102, "container": 6103, "ifi": 6104, "Ġlatest": 6105, "ĠBest": 6106, "pare": 6107, "adius": 6108, "afe": 6109, "Book": 6110, "ĠUI": 6111, "iting": 6112, "ahr": 6113, "Work": 6114, "tml": 6115, "ĠOnline": 6116, "250": 6117, "Ġthird": 6118, "çĤ": 6119, "hu": 6120, "items": 6121, "peed": 6122, "Ġfamil": 6123, "Ġinsp": 6124, "Ġbank": 6125, "ev": 6126, "Ġtodos": 6127, "Ġaqu": 6128, "Ġfem": 6129, "Ġsab": 6130, "can": 6131, "Ġlower": 6132, "(v": 6133, "Ġsignificant": 6134, "selves": 6135, "osa": 6136, "Init": 6137, "otype": 6138, "èģ": 6139, "Ġnothing": 6140, "Session": 6141, "Ġeffort": 6142, "ĠHet": 6143, "Ġtakes": 6144, "Last": 6145, "ĠNS": 6146, "ĠBook": 6147, "Ġregular": 6148, "Ġfill": 6149, "rapper": 6150, "Ġheeft": 6151, "Ġcompr": 6152, "Ġbin": 6153, "Ġmid": 6154, "Ġlikely": 6155, "??": 6156, "king": 6157, "Ġfra": 6158, "Ãªncia": 6159, "Parameter": 6160, "Ġtold": 6161, "-S": 6162, "isse": 6163, "Ġtour": 6164, "Ġusually": 6165, "ĠìĹ": 6166, "quence": 6167, "++;Ċ": 6168, "Ġready": 6169, "core": 6170, "Ġhac": 6171, "Ġespecially": 6172, "Ġmsg": 6173, "Ġgew": 6174, "çĦ": 6175, "Ġways": 6176, "cry": 6177, "ĠAc": 6178, "Ġáŀ": 6179, "och": 6180, "pm": 6181, "uv": 6182, "isation": 6183, "fin": 6184, "icient": 6185, "Ġorganiz": 6186, "eler": 6187, "Args": 6188, "Ġdeliver": 6189, ".net": 6190, "Ġib": 6191, "ĠType": 6192, "çŃ": 6193, "node": 6194, "ĠFacebook": 6195, "bers": 6196, "fil": 6197, "uta": 6198, "ALL": 6199, "Ġrestaur": 6200, "Ġrecommend": 6201, "(T": 6202, "Ġmodels": 6203, "Av": 6204, "ĠAnt": 6205, "Collections": 6206, "ĠGame": 6207, "Ġstandard": 6208, "adata": 6209, "CR": 6210, "Ġrequ": 6211, "ĠLes": 6212, "register": 6213, "Ġrisk": 6214, "while": 6215, "ithub": 6216, "awa": 6217, "Ġ\"\"\"Ċ": 6218, "Ġprobably": 6219, "Ġparams": 6220, "pha": 6221, "Ġ'/": 6222, "Ġreviews": 6223, "íĬ": 6224, "images": 6225, "ĠkÃ¶n": 6226, "ĠĠĠĠĠĠĠĠĠĠĠĠĊ": 6227, "Ġmanufact": 6228, "ischen": 6229, "(!": 6230, "Ġagre": 6231, "_x": 6232, "Ġtar": 6233, "Ġdigital": 6234, "Ġcondition": 6235, "efined": 6236, "ĠSoc": 6237, "apa": 6238, "Ġincrease": 6239, "Ġaccording": 6240, "ĉString": 6241, "nÃŃ": 6242, "IA": 6243, "iding": 6244, "*/Ċ": 6245, "Ġentr": 6246, "Ġcause": 6247, "ĠTw": 6248, "Interface": 6249, "ĠInc": 6250, "Phone": 6251, "atas": 6252, "ĠÃ¥": 6253, "arth": 6254, "Mon": 6255, "tribution": 6256, "amily": 6257, "(pro": 6258, "verse": 6259, "Ġvez": 6260, "Ġtut": 6261, "Version": 6262, "Ġplac": 6263, "avigation": 6264, "ĠDel": 6265, "ĠDay": 6266, "Ġsection": 6267, "Ġhit": 6268, "ctx": 6269, "Ġlov": 6270, "mos": 6271, "Ġ(\"": 6272, "ĠHand": 6273, "Ġfail": 6274, "Api": 6275, "Ġìĭ": 6276, "FT": 6277, "ĠNOT": 6278, "Ġsong": 6279, "Ġtransform": 6280, "(get": 6281, "mbly": 6282, "Obj": 6283, "_se": 6284, "Ġknowledge": 6285, "iny": 6286, "ĉbreak": 6287, "First": 6288, "alar": 6289, "ourse": 6290, "enge": 6291, "aki": 6292, "Ã±os": 6293, "rest": 6294, "Ġapproach": 6295, "angle": 6296, "Ġmobile": 6297, "Ġproduction": 6298, "Ġbag": 6299, "\";čĊ": 6300, "_user": 6301, "oding": 6302, "Ġlie": 6303, "Ġhappy": 6304, "adores": 6305, "Details": 6306, ".To": 6307, "INT": 6308, "Ġsales": 6309, "heid": 6310, "Ġchoice": 6311, "merc": 6312, "Ġfab": 6313, "Å±": 6314, "Ġyou're": 6315, "Ġconsum": 6316, "Ġmatter": 6317, "holder": 6318, "Ġcouple": 6319, "Ġrelated": 6320, "ĠRob": 6321, "dule": 6322, "Reader": 6323, "ĠÅŁ": 6324, "Helper": 6325, "emp": 6326, "Ġfo": 6327, "Ġrecent": 6328, "ĠNorth": 6329, "Ġdefinit": 6330, "avi": 6331, "âĢĭáŀ": 6332, ".txt": 6333, "Ġbooks": 6334, "ĠPM": 6335, "86": 6336, "ĠMod": 6337, "ikk": 6338, "(user": 6339, "emo": 6340, "tras": 6341, "apan": 6342, "Tool": 6343, "Ġwanted": 6344, "btn": 6345, "Ġsecurity": 6346, "Ġbis": 6347, "src": 6348, "ĠWindows": 6349, "è¶": 6350, ".read": 6351, "Process": 6352, "iko": 6353, "imi": 6354, "byte": 6355, "ĠFrom": 6356, "Ġestab": 6357, "ĠAM": 6358, "values": 6359, "Ġsubs": 6360, "Ġru": 6361, "ĠSl": 6362, "ĠMet": 6363, "Ġdise": 6364, "Ġfoi": 6365, "Ġdrug": 6366, "UB": 6367, "sets": 6368, "ches": 6369, "Body": 6370, "Ġplayers": 6371, "'),Ċ": 6372, "Ġimm": 6373, "Ġ<?": 6374, "atar": 6375, "Ġyo": 6376, "Ġcoming": 6377, "Sl": 6378, "Ġamaz": 6379, "ĠCenter": 6380, "eline": 6381, "Ġentry": 6382, "sch": 6383, "auto": 6384, "_col": 6385, "Ġreq": 6386, ".parse": 6387, "Ġaj": 6388, "(err": 6389, "Ġpretty": 6390, "Ġdesc": 6391, "Ġhigher": 6392, "Ġmeer": 6393, "ĠMath": 6394, "Ġpublished": 6395, "irit": 6396, "Ġbol": 6397, "ì²": 6398, "ospital": 6399, "ĠFeb": 6400, "ining": 6401, "Ste": 6402, "ishing": 6403, "uster": 6404, "ĠFound": 6405, "Ġpero": 6406, "raint": 6407, "Engine": 6408, "-up": 6409, "bum": 6410, "echo": 6411, "nb": 6412, "atory": 6413, "PT": 6414, "Ġframe": 6415, "ening": 6416, "chan": 6417, "ëª": 6418, "Account": 6419, "ĠHere": 6420, "');ĊĊ": 6421, "Ġaltern": 6422, "next": 6423, "Ġofficial": 6424, "Ġpurchase": 6425, "kr": 6426, "ĠName": 6427, "Store": 6428, ".col": 6429, "lice": 6430, "Ġgas": 6431, "ekt": 6432, "Access": 6433, "Ġvel": 6434, "ÃŃn": 6435, "Ġig": 6436, "aling": 6437, "ead": 6438, "Ġprevent": 6439, "empl": 6440, "Ġsun": 6441, "ĠProgram": 6442, "Ġris": 6443, "temp": 6444, "'ve": 6445, "Ġmachine": 6446, "ĠMap": 6447, "Ġvirtual": 6448, "_SIZE": 6449, "orge": 6450, "PC": 6451, "Ġsound": 6452, "rown": 6453, "Ġround": 6454, "ĠWH": 6455, "Widget": 6456, "Ġsale": 6457, "etime": 6458, "Ġincluded": 6459, ".status": 6460, "Ġparty": 6461, "Ġprefer": 6462, "Ġnoch": 6463, "ITH": 6464, "acks": 6465, "()čĊ": 6466, "Ġtur": 6467, "ads": 6468, "Ġconcern": 6469, "Ġabsol": 6470, "idas": 6471, "ACK": 6472, "Ġreturns": 6473, "ASS": 6474, "Ġeiner": 6475, "ĠInternet": 6476, "Ġtouch": 6477, "ensor": 6478, "));ĊĊ": 6479, "Ext": 6480, "dom": 6481, "Ġarch": 6482, "ÄĹ": 6483, "arter": 6484, "}</": 6485, "Ġinvestig": 6486, "only": 6487, "tag": 6488, "Ġoil": 6489, "ideos": 6490, "Ġshows": 6491, "inition": 6492, "asc": 6493, "ensions": 6494, "Ġpel": 6495, "Ġnice": 6496, "Ġzum": 6497, "Ġci": 6498, "Ġprogress": 6499, "Ġtemper": 6500, "_tr": 6501, "Ġlonger": 6502, "Ġmai": 6503, "-Ċ": 6504, "quare": 6505, "oni": 6506, "Ġresources": 6507, "Price": 6508, "enden": 6509, "(w": 6510, "ìĨ": 6511, "adh": 6512, "=$": 6513, "geb": 6514, "Ġ/**": 6515, "ĠEX": 6516, "Ġsix": 6517, "Ġkr": 6518, "BA": 6519, "Ġpain": 6520, "ptr": 6521, "oko": 6522, "Ġsell": 6523, "styles": 6524, "é»": 6525, "ournal": 6526, "Ġparte": 6527, "ĠÃ®": 6528, "oring": 6529, "Ġfol": 6530, "ague": 6531, "Ġtreatment": 6532, "Ġweeks": 6533, "`Ċ": 6534, "ĠProduct": 6535, "duc": 6536, "LL": 6537, "ares": 6538, "ë²": 6539, "Category": 6540, "Ġesp": 6541, "ĠsÃ©": 6542, "prise": 6543, "alia": 6544, "Ġgraph": 6545, "iser": 6546, "ictionary": 6547, "otion": 6548, "Ġeinem": 6549, "Left": 6550, "Ġfait": 6551, "Ġ-->Ċ": 6552, "ailed": 6553, "Ġnote": 6554, "ARR": 6555, "89": 6556, "wise": 6557, "fol": 6558, "acional": 6559, "auf": 6560, "esc": 6561, "Ġclients": 6562, ".core": 6563, "Åł": 6564, "wi": 6565, "Ġmenu": 6566, "Ġimages": 6567, "yy": 6568, "'ĊĊ": 6569, "Selected": 6570, "area": 6571, "Ġheld": 6572, "Ġannoun": 6573, "bug": 6574, "Ġhaben": 6575, "iche": 6576, "Ġsystems": 6577, "Ġdrive": 6578, "Ġtor": 6579, "ango": 6580, "Ġ);ĊĊ": 6581, "180": 6582, "Ġhun": 6583, "Ġlearning": 6584, "Ġrandom": 6585, "ĠUR": 6586, "Ġgest": 6587, "_con": 6588, "Ġcontinu": 6589, "ilo": 6590, "\":\"": 6591, "_count": 6592, "Ġhy": 6593, "Ġviol": 6594, "Ġoutside": 6595, "ĠAv": 6596, "Ġrather": 6597, "Ġinternational": 6598, "Ġanyone": 6599, "esso": 6600, "inst": 6601, "Ġforma": 6602, "Ġworth": 6603, "BC": 6604, "éĥ": 6605, "enz": 6606, "aks": 6607, "eto": 6608, "false": 6609, "Ġupon": 6610, "ests": 6611, "Ġcalcul": 6612, "ĠMarch": 6613, "Ġpolicy": 6614, "ĠSoftware": 6615, "Ġlocated": 6616, "anuary": 6617, "Ġintrodu": 6618, "\\u": 6619, "flow": 6620, "Press": 6621, "Ġãĥ": 6622, "Ġaud": 6623, "Ġsolution": 6624, "Ġfaz": 6625, "Vector": 6626, "Ġdistributed": 6627, "Ġwritten": 6628, "Ġvert": 6629, "Ġ?>": 6630, "lang": 6631, "Ġfacil": 6632, "ography": 6633, "onder": 6634, "ì¹": 6635, "jes": 6636, "ĠHar": 6637, "istics": 6638, "dy": 6639, "bed": 6640, "Ġcomputer": 6641, "Ġmultiple": 6642, "Ġ++": 6643, "aman": 6644, "Ġ^": 6645, "vector": 6646, "amera": 6647, "xx": 6648, "aly": 6649, "INE": 6650, ".query": 6651, "ady": 6652, "/b": 6653, "password": 6654, "ĠBlack": 6655, "imary": 6656, "ynamic": 6657, "hol": 6658, ".sub": 6659, "Ġconfirm": 6660, ".Ċ//": 6661, "++)Ċ": 6662, "ĠFOR": 6663, "nav": 6664, "Ġreach": 6665, "price": 6666, "Ġhij": 6667, "agram": 6668, "123": 6669, "Ġmens": 6670, "íĺ": 6671, "Å«": 6672, "Ã§o": 6673, "atisf": 6674, "nie": 6675, "Ġnem": 6676, "itu": 6677, "ĠInst": 6678, "á»©": 6679, "\"),": 6680, "Ġnt": 6681, "ĠUse": 6682, "Configuration": 6683, "Pol": 6684, "IE": 6685, "ĠApril": 6686, "Route": 6687, "ĠâĢ¢": 6688, "001": 6689, "ungs": 6690, "ĠEN": 6691, "Ġinstead": 6692, "raf": 6693, "Ġleave": 6694, "':Ċ": 6695, "Ġunit": 6696, "END": 6697, "102": 6698, ".Set": 6699, "Que": 6700, "Ġei": 6701, "?.": 6702, ".json": 6703, "ees": 6704, "Ġappear": 6705, "TP": 6706, "Ã¤l": 6707, "Ġfeed": 6708, "riteria": 6709, "card": 6710, "Ġpropos": 6711, "OST": 6712, "Ġsan": 6713, "ountry": 6714, "ĠĠĠĠĠĠĠĠĠĠĠĠĠĠĠĠĠĠĠĠ": 6715, "location": 6716, "ĠcÃ³": 6717, "Next": 6718, "Ġcette": 6719, "Ġrele": 6720, "Ġwordt": 6721, "Local": 6722, "Ġdia": 6723, "eno": 6724, "Ġsafe": 6725, "Ġtransport": 6726, "ĠÃ¤r": 6727, ".apache": 6728, "ĉčĊ": 6729, "ayment": 6730, "Ãģ": 6731, "Cal": 6732, "eh": 6733, "Ã¢n": 6734, "inar": 6735, "cu": 6736, "NU": 6737, "ĠEnglish": 6738, "FO": 6739, "itchen": 6740, "XX": 6741, "main": 6742, "Ġ=Ċ": 6743, "Ġspeed": 6744, "å§": 6745, "rupt": 6746, "Ġ$_": 6747, "~~": 6748, "Ġground": 6749, "first": 6750, "ĠIt's": 6751, "Ġkids": 6752, "irection": 6753, "Ġasked": 6754, "_index": 6755, "Ġlegal": 6756, "Ġbul": 6757, "ERROR": 6758, ".Collections": 6759, "adr": 6760, "Ġul": 6761, "Ġadministr": 6762, "Ġassist": 6763, "Ġvac": 6764, "ĉĠ": 6765, "akan": 6766, "ĠAfr": 6767, "Ãºn": 6768, "login": 6769, "Op": 6770, "79": 6771, "Ġnational": 6772, "Ġcelebr": 6773, "ĠÃ½": 6774, "ĠFin": 6775, "ellow": 6776, "Ġmedical": 6777, "ederal": 6778, "mercial": 6779, "arden": 6780, "ĠÄ": 6781, "ĠDesign": 6782, "ĠAustr": 6783, "pack": 6784, "ĠOpen": 6785, "urrency": 6786, "ĠLong": 6787, "(g": 6788, "ĠHis": 6789, "tocol": 6790, "Ġapr": 6791, "oub": 6792, "Settings": 6793, "Ä±nd": 6794, "Å³": 6795, "GET": 6796, "ĠThen": 6797, "esch": 6798, "æį": 6799, "Red": 6800, "Ġbehind": 6801, "[:": 6802, "Ġrom": 6803, "âĢĿ.": 6804, "âĻ": 6805, "hood": 6806, "nder": 6807, "ĉSystem": 6808, ".*": 6809, "plete": 6810, "Found": 6811, "Ġrecogn": 6812, "icha": 6813, "Ġà·": 6814, "CP": 6815, "ĠMal": 6816, "ĠHouse": 6817, "=True": 6818, "float": 6819, "Ġtit": 6820, "ĠSi": 6821, "GL": 6822, "Storage": 6823, "Ġeasily": 6824, "ĠFre": 6825, "è¨": 6826, "ipl": 6827, "Ġproced": 6828, "hold": 6829, "ĠJune": 6830, "Ġlate": 6831, "Ġflow": 6832, "zu": 6833, "ajo": 6834, "Ġaverage": 6835, "ĠGroup": 6836, "Ġeducation": 6837, "ĠSal": 6838, "LECT": 6839, "è°": 6840, "ĠGo": 6841, "ĠDirect": 6842, "edi": 6843, "Ãŀ": 6844, ")ĊĊĊ": 6845, "Ġdatabase": 6846, "-e": 6847, "ĠBro": 6848, "Ġideas": 6849, "195": 6850, "Ġnature": 6851, "Ġopportunity": 6852, "ifest": 6853, "Ġskills": 6854, "cm": 6855, "Rect": 6856, "ĠMag": 6857, "Ġspr": 6858, "Ġmaterials": 6859, "Ġthroughout": 6860, "Ã¼ck": 6861, "inda": 6862, "ecur": 6863, "Ġball": 6864, "Ġparts": 6865, "Ġnorm": 6866, "Ġimag": 6867, "Ġcha": 6868, "iza": 6869, "grid": 6870, "Ġcomments": 6871, "ĠvocÃª": 6872, "Target": 6873, "Ġseems": 6874, "ono": 6875, "Ġtill": 6876, "amin": 6877, "ĠANY": 6878, "[j": 6879, "RA": 6880, "Sign": 6881, "Ġaffect": 6882, "ilder": 6883, "illed": 6884, "Ġicon": 6885, "Ġpaint": 6886, "Ł¥": 6887, "ĠSk": 6888, "Ġcases": 6889, "blic": 6890, "length": 6891, "oday": 6892, "Ġcollect": 6893, "ĠTO": 6894, "Each": 6895, "110": 6896, "ĠHol": 6897, "imation": 6898, "ĠHealth": 6899, "That": 6900, "('.": 6901, "ĠKey": 6902, "Ġallows": 6903, "Ġstorage": 6904, "Long": 6905, "ĠOver": 6906, "Ġmethods": 6907, "ĠMc": 6908, "Ġcharg": 6909, "Ġproper": 6910, "Ġcandid": 6911, "æº": 6912, "ĠAugust": 6913, "icket": 6914, "Our": 6915, "But": 6916, "icker": 6917, "ceed": 6918, "(str": 6919, "76": 6920, "itation": 6921, "ĠâĤ¬": 6922, "avy": 6923, "vey": 6924, "ĠMain": 6925, "aje": 6926, "101": 6927, "Project": 6928, "Ãªme": 6929, "entry": 6930, "anya": 6931, "Ġzur": 6932, "UD": 6933, "Ġsein": 6934, "Ġregion": 6935, "Ġvariety": 6936, "inger": 6937, "Ġcomme": 6938, "ĠStart": 6939, "ĠSim": 6940, "'))": 6941, ".map": 6942, "sql": 6943, "graph": 6944, "ĠImage": 6945, "Ġ;Ċ": 6946, "band": 6947, "ĠFalse": 6948, ".remove": 6949, "Ġskin": 6950, "Ġpun": 6951, ":(": 6952, "Changed": 6953, "Ġip": 6954, "Ġexcellent": 6955, "ëħ": 6956, "acing": 6957, "Ġchat": 6958, "Dep": 6959, "emory": 6960, "(string": 6961, "ORD": 6962, "van": 6963, "íĸ": 6964, "ĠìĦ": 6965, "âĢ¦âĢ¦": 6966, "Selector": 6967, "Ġcomplex": 6968, "zz": 6969, "atives": 6970, "85": 6971, "Ġexception": 6972, "ĠTop": 6973, "_of": 6974, "Ġfort": 6975, "BO": 6976, "ocr": 6977, "Ġdeath": 6978, "ç´": 6979, "Ġ[âĢ¦]ĊĊ": 6980, "Ġ!==": 6981, "ĠAS": 6982, "194": 6983, "Ġhebben": 6984, "Co": 6985, "Ġcop": 6986, "ancel": 6987, "eneric": 6988, "èį": 6989, "_SE": 6990, "term": 6991, "ODO": 6992, "ĠSeptember": 6993, "ĠlÃł": 6994, "ëĲ": 6995, "quer": 6996, "aign": 6997, "module": 6998, "Ġchance": 6999, "ugu": 7000, "Tree": 7001, "Ġgel": 7002, ".Group": 7003, "Ġquickly": 7004, "ĠCas": 7005, "exp": 7006, "lan": 7007, "vez": 7008, "region": 7009, "-F": 7010, "128": 7011, "¡Õ": 7012, "Ġnom": 7013, "imit": 7014, "ijke": 7015, "ĠBusiness": 7016, "(-": 7017, "Ġcross": 7018, "jen": 7019, "icate": 7020, "Option": 7021, "Ġprograms": 7022, "number": 7023, "EXT": 7024, "lat": 7025, "Ġsist": 7026, "cs": 7027, "Ġdeep": 7028, "Ġones": 7029, "Var": 7030, "Ġhair": 7031, "ĠAmerica": 7032, "Ġlock": 7033, "Ġactivity": 7034, "(result": 7035, "Ġinsurance": 7036, "Ġbuilt": 7037, "ĠChina": 7038, "Ġwish": 7039, "ayers": 7040, "Ġleading": 7041, "Ġfaire": 7042, "(h": 7043, "}ĊĊ//": 7044, "/or": 7045, "engan": 7046, "qq": 7047, "MA": 7048, "\"),Ċ": 7049, "Login": 7050, "ĠDav": 7051, "ëį": 7052, "/p": 7053, "eting": 7054, "Impl": 7055, "URE": 7056, "Ġseek": 7057, "Ġ'<": 7058, "192": 7059, "Mapping": 7060, "imb": 7061, "Ġpatients": 7062, "Ġcart": 7063, "rot": 7064, "éŁ": 7065, ".path": 7066, "attle": 7067, "Ġnecessary": 7068, "ĠDan": 7069, "Ġcool": 7070, "Ġ}ĊĊĊ": 7071, "witch": 7072, "ĠCons": 7073, "ç¦": 7074, "*)": 7075, "Ġtree": 7076, "});ĊĊ": 7077, "False": 7078, "top": 7079, "ĠJuly": 7080, "ahl": 7081, "wood": 7082, "Ġactivities": 7083, "Ġwide": 7084, "tempt": 7085, "Ġband": 7086, "(re": 7087, "Ne": 7088, "API": 7089, "font": 7090, ".aw": 7091, ".close": 7092, "mar": 7093, "ĠModel": 7094, "After": 7095, "aire": 7096, "Ġnan": 7097, "Return": 7098, ".List": 7099, "ipped": 7100, "Ġresid": 7101, "Ġmemory": 7102, "Ġinstit": 7103, "Ġconsult": 7104, "inos": 7105, "Ġwrong": 7106, ",-": 7107, "Ġremember": 7108, "-year": 7109, "ĠJSON": 7110, "users": 7111, "style": 7112, "ï½ŀ": 7113, "ĠId": 7114, "Ġheader": 7115, "[$": 7116, "Ġempty": 7117, "_by": 7118, "Ġslot": 7119, "account": 7120, "ĠSuper": 7121, "Ġunt": 7122, "Delete": 7123, "Ġlooks": 7124, "Port": 7125, "Ġimplements": 7126, "more": 7127, "tect": 7128, "Ġrelease": 7129, "Ġcirc": 7130, "Ġtown": 7131, "-based": 7132, "ĠBer": 7133, "Ġquant": 7134, "ship": 7135, "Active": 7136, "__(": 7137, "}/": 7138, "zie": 7139, "sen": 7140, "Ġfant": 7141, "Ġfilename": 7142, "Ġpractice": 7143, "Ġmovie": 7144, "weight": 7145, "ikt": 7146, "Ġplaying": 7147, "Ġstar": 7148, "_at": 7149, "Please": 7150, "CD": 7151, "upp": 7152, "JSON": 7153, "jer": 7154, "ĠPerson": 7155, "ĠMac": 7156, "Ġgan": 7157, "Ġgrowth": 7158, "Ġaber": 7159, "ordin": 7160, "ĠCounty": 7161, "Total": 7162, "Ġcada": 7163, "anges": 7164, "Ġsaw": 7165, "Ġdiscover": 7166, "Ġkas": 7167, "Values": 7168, ".res": 7169, "ĠKe": 7170, "ĠAny": 7171, "Ġmeng": 7172, "Ġimmed": 7173, "Ġability": 7174, "oker": 7175, "-B": 7176, "âĢĶâĢĶ": 7177, "EST": 7178, "but": 7179, "atan": 7180, "Dir": 7181, "ĠDer": 7182, "Ġpap": 7183, "gal": 7184, "cd": 7185, "Ġpattern": 7186, "ington": 7187, "(@": 7188, "Ġresource": 7189, "ĠÙ": 7190, "èĭ": 7191, "Ġphotos": 7192, "CO": 7193, "lÄ±": 7194, "Ġhay": 7195, "Show": 7196, "template": 7197, "ymbol": 7198, "Ġuseful": 7199, "Controls": 7200, "ouw": 7201, "ĠMicrosoft": 7202, "ATA": 7203, "Ġtan": 7204, "cz": 7205, "Ġì§": 7206, "Å¯": 7207, "_code": 7208, "(res": 7209, "ï¼¿": 7210, "Ġexpert": 7211, "ategories": 7212, "ĠFirst": 7213, "ological": 7214, "Ġfavorite": 7215, "ëŁ": 7216, "Ġcompar": 7217, "avel": 7218, "ĠLink": 7219, "Ġton": 7220, "Ġfloor": 7221, "ĠHttp": 7222, "Ġlives": 7223, ".current": 7224, "Ġmargin": 7225, "Ġproperties": 7226, "@Override": 7227, "Ġcharge": 7228, ".In": 7229, "ĠJes": 7230, "Ġtend": 7231, "arios": 7232, "ĠPRO": 7233, "ĠUK": 7234, "aken": 7235, "Art": 7236, "Ġlevels": 7237, "itable": 7238, "ongo": 7239, "Ġjour": 7240, "ARE": 7241, "Ġwur": 7242, "esh": 7243, "sta": 7244, ".cont": 7245, "acters": 7246, "amed": 7247, "Ġpool": 7248, "_add": 7249, "ulu": 7250, "ĠPal": 7251, "Gl": 7252, "components": 7253, "Template": 7254, "Ġavoid": 7255, "mazon": 7256, "Ġimprove": 7257, "Vari": 7258, "Ġevalu": 7259, "Del": 7260, "ĠIndia": 7261, "ĠWhile": 7262, "Enabled": 7263, "yg": 7264, "(B": 7265, "lag": 7266, "xim": 7267, "ecurity": 7268, "iring": 7269, "Ġgod": 7270, "Ġfrequ": 7271, "Ġvida": 7272, "scope": 7273, "olf": 7274, "Ġparse": 7275, "aro": 7276, "Ġrecently": 7277, "Ġdaily": 7278, "Ġmehr": 7279, "onday": 7280, "actor": 7281, "Ġscore": 7282, "Ġempres": 7283, "long": 7284, "Ġcompl": 7285, "âĺ": 7286, "Ġequipment": 7287, "exports": 7288, "Ġtools": 7289, "Il": 7290, "Ġfirm": 7291, "Ġai": 7292, "Ġselection": 7293, "Properties": 7294, "Ġabs": 7295, "Ġcapt": 7296, "truct": 7297, "Main": 7298, "=\\\"": 7299, "Ġliter": 7300, "Ġanalysis": 7301, "Ġprices": 7302, "Ġconvert": 7303, ".dis": 7304, "ĠSa": 7305, "Font": 7306, "ova": 7307, "encies": 7308, "eden": 7309, "Ġcareer": 7310, "ĠBen": 7311, "Ãį": 7312, "ĠÂ·": 7313, "Ġroll": 7314, ".string": 7315, "Ġamazing": 7316, "oms": 7317, "Use": 7318, "âĢĻd": 7319, "Ġboy": 7320, "Can": 7321, ".)": 7322, "(null": 7323, "acket": 7324, ".css": 7325, "Ġjo": 7326, "çķ": 7327, "Ġverd": 7328, "Ġfinally": 7329, "fit": 7330, "Ġeffective": 7331, "Ġupdated": 7332, "Ġinflu": 7333, "Ġdemand": 7334, "Ġconcept": 7335, "è·": 7336, "ĠdÃ©c": 7337, "iÃ©n": 7338, "elles": 7339, "Ġtrust": 7340, "nu": 7341, "Ġbath": 7342, "utt": 7343, "None": 7344, "ersist": 7345, "aires": 7346, "Ġpros": 7347, "delete": 7348, "Ġfer": 7349, "Ġkle": 7350, "Ġsense": 7351, "Ġtrain": 7352, "unday": 7353, "Ġsz": 7354, "Ġdirectly": 7355, "ĠAut": 7356, ".$": 7357, "ĠFROM": 7358, "known": 7359, "Ġclub": 7360, "Ġdh": 7361, "Ġalert": 7362, ".ĊĊĊ": 7363, "aries": 7364, "oro": 7365, "?:": 7366, "ĠTechn": 7367, "Ġliv": 7368, "Ġfields": 7369, "otes": 7370, "Ġcan't": 7371, "Ġdidn": 7372, "Ġpages": 7373, "Ã¡rio": 7374, "72": 7375, "Ag": 7376, "Detail": 7377, "About": 7378, "ĠWar": 7379, "Ġ..": 7380, "ĠCommun": 7381, "agem": 7382, "ondon": 7383, "NE": 7384, "Ġprojects": 7385, "ĠProm": 7386, "yth": 7387, "ĠsÃ¥": 7388, "ds": 7389, "éĶ": 7390, "inde": 7391, "urer": 7392, ".new": 7393, "Ġaspect": 7394, "Ġëĭ": 7395, "Ġgold": 7396, "ĠÛ": 7397, "Ġåį": 7398, "Ġkm": 7399, "Ġbuffer": 7400, "-a": 7401, "Props": 7402, "(()": 7403, "Hash": 7404, "firm": 7405, "Ã´ng": 7406, ".</": 7407, "Ġgoal": 7408, "ĠPC": 7409, "Ġvie": 7410, "ĠtÃ«": 7411, ".ch": 7412, "Ġthread": 7413, "Ã¤h": 7414, "Msg": 7415, "():Ċ": 7416, "Ã»": 7417, "dat": 7418, "stream": 7419, "Ġstarting": 7420, "eda": 7421, "Ã¶g": 7422, "pat": 7423, "isc": 7424, "arante": 7425, "ĠBel": 7426, "cciÃ³n": 7427, "_string": 7428, "ĠBrit": 7429, "Ġnotice": 7430, "Range": 7431, "Ġmoet": 7432, "ĠĠĠĠĠĠĠĠĠĠĠĠĠĠĠĠĠĠĠĠĠĠĠĠĠĠĠĠĠ": 7433, "Ġexerc": 7434, "-re": 7435, "ugar": 7436, "Ġlu": 7437, "PR": 7438, "ners": 7439, "ĠInformation": 7440, "ussi": 7441, "Ġgets": 7442, "+\"": 7443, "Right": 7444, ".error": 7445, "Ġtechni": 7446, "Ġelements": 7447, "Ġmention": 7448, "Ġkam": 7449, "lay": 7450, "IGHT": 7451, "Ġblood": 7452, "Mark": 7453, "$this": 7454, "rame": 7455, ".web": 7456, "iana": 7457, "Ġ::": 7458, ".min": 7459, "asons": 7460, "ija": 7461, "ĠError": 7462, "Ġviews": 7463, "ez": 7464, "Ġdecision": 7465, "arts": 7466, "Ġnumbers": 7467, "Ġobserv": 7468, "har": 7469, "ĠNovember": 7470, "Ġowner": 7471, "Ġassociated": 7472, "eur": 7473, "lean": 7474, "aus": 7475, "ĠSen": 7476, "Ġdelivery": 7477, "contr": 7478, "ivil": 7479, "Ġadult": 7480, "Ġhistor": 7481, "ĠkÃ¶nnen": 7482, "Ġattention": 7483, "ĠJanuary": 7484, "Ġ''": 7485, "Ġrob": 7486, "ĠInternational": 7487, ".update": 7488, "Ġrais": 7489, "Display": 7490, "Ġtid": 7491, "åł": 7492, "OC": 7493, "chaft": 7494, "method": 7495, "Ġlines": 7496, "\\x": 7497, "kk": 7498, "ĠReal": 7499, "cil": 7500, "Ġattempt": 7501, "Ã¤Ã¤": 7502, "onom": 7503, "Ġrock": 7504, "oter": 7505, "Ġmorning": 7506, "oggle": 7507, "Ġcategory": 7508, "Ġshall": 7509, "ĠEin": 7510, "_back": 7511, "role": 7512, "Ġoh": 7513, "ran": 7514, "ĠWITH": 7515, "Ġê³": 7516, "close": 7517, "Ġpicture": 7518, "Ġdag": 7519, "Ġbottom": 7520, "ĠSam": 7521, "Ġverb": 7522, "Ġkwa": 7523, "ĠBase": 7524, "Ġcollege": 7525, "Ġessential": 7526, "Ġroad": 7527, "ĠIT": 7528, "icks": 7529, "Ġcommit": 7530, "Serial": 7531, "Ġdoesn't": 7532, "unsigned": 7533, "'];Ċ": 7534, "Ġsettings": 7535, "Ġinnov": 7536, "Ġsleep": 7537, "Ġnames": 7538, "Ġearn": 7539, "ĠOctober": 7540, "}ĊĊĊ": 7541, "sych": 7542, "Ġsold": 7543, "ĠDown": 7544, "reci": 7545, "ims": 7546, "Ġcin": 7547, "ĠProject": 7548, "ĠVector": 7549, "_array": 7550, "Ġphoto": 7551, "ĠKing": 7552, "Ġign": 7553, "Ġextrem": 7554, ".a": 7555, "Ġwoman": 7556, "Ġunsigned": 7557, "space": 7558, "Ġawá»įn": 7559, "Ġpul": 7560, "BUG": 7561, "111": 7562, "iller": 7563, "Ġparents": 7564, ")).": 7565, "Ġsolid": 7566, "ĠLo": 7567, "Ġdurch": 7568, "Ġsituation": 7569, "aturday": 7570, "ç³": 7571, "Render": 7572, "Trace": 7573, "oles": 7574, "Die": 7575, "-de": 7576, "_TYPE": 7577, "ĠmÃ¡": 7578, "ibly": 7579, "éķ": 7580, "angular": 7581, "Ġlost": 7582, "DS": 7583, "Ġgoes": 7584, "Ġadvert": 7585, "Ġitself": 7586, "Ġbenefits": 7587, "OG": 7588, "ws": 7589, "Ġinternal": 7590, "property": 7591, "Ġ\"<": 7592, "Ġenh": 7593, "Ġevid": 7594, "ĠAlso": 7595, "istration": 7596, "_sh": 7597, "Ġsatisf": 7598, "Ġhour": 7599, "ĉĉĉĊ": 7600, "Ġmodule": 7601, "Ġmuy": 7602, "ancy": 7603, "Ġtrip": 7604, "Ã³s": 7605, "ĠGNU": 7606, "_date": 7607, "fg": 7608, "cat": 7609, ".key": 7610, "Ġregul": 7611, "Ġpositive": 7612, "Ġuses": 7613, "Ġrot": 7614, "oriz": 7615, "Ġsmart": 7616, ".widget": 7617, "Ġcab": 7618, "Ġgreen": 7619, "ĠĠĠĠĠĠĠĠĠĠĠĠĠĠĠĠĠĠ": 7620, "Ġprofile": 7621, ".'": 7622, "AA": 7623, "Ãľ": 7624, "Ġdesde": 7625, "Ġchalleng": 7626, "store": 7627, "Ptr": 7628, "aja": 7629, "Cache": 7630, "Ġstructure": 7631, "éĤ": 7632, "Ġdiff": 7633, ".X": 7634, ".show": 7635, "mat": 7636, ".body": 7637, "craft": 7638, "63": 7639, "_CON": 7640, "ruary": 7641, "Ġdrink": 7642, "lichen": 7643, "Ġgirl": 7644, "Ġdark": 7645, "Home": 7646, "Ġcov": 7647, "ĠMost": 7648, "ĠBig": 7649, "Ġtransfer": 7650, ".Point": 7651, ".info": 7652, "asic": 7653, "Ġdoesn": 7654, "Ġcontains": 7655, "Ġgroups": 7656, "Ġconsist": 7657, "iu": 7658, ".google": 7659, "Ġopin": 7660, "refix": 7661, "eles": 7662, "Database": 7663, "Ġpes": 7664, "Ġrat": 7665, "Device": 7666, "Ġkut": 7667, "Ġ[]Ċ": 7668, "ĠCreated": 7669, "_ch": 7670, "Ġhighly": 7671, ".send": 7672, "Ġê¸": 7673, "Ġtmp": 7674, "Ġled": 7675, "Ġ?>Ċ": 7676, "Ġraz": 7677, "how": 7678, "version": 7679, "ASE": 7680, "imiento": 7681, "]]": 7682, "Ġdriver": 7683, "(key": 7684, "udent": 7685, "Ġplans": 7686, "alled": 7687, "Offset": 7688, "legate": 7689, "otos": 7690, "62": 7691, "{ĊĊ": 7692, "Ġhands": 7693, "Callback": 7694, "(P": 7695, "61": 7696, "usher": 7697, "91": 7698, "Ġmm": 7699, "ovie": 7700, "Ġcosts": 7701, "/*Ċ": 7702, "Ġnue": 7703, "ĠLos": 7704, "Ġscr": 7705, "iqu": 7706, "Ġgives": 7707, "vari": 7708, "Ġìĺ": 7709, "uga": 7710, "Ġindepend": 7711, "Ġcos": 7712, "Ġfine": 7713, "ĠHel": 7714, "Arr": 7715, "Visible": 7716, "Ġnj": 7717, "Â®": 7718, "Ġcountries": 7719, "Ġfresh": 7720, "outes": 7721, "Ġoffset": 7722, ".Log": 7723, "enty": 7724, "ĠÂ£": 7725, "æģ": 7726, "voir": 7727, ".tr": 7728, "'=>": 7729, "ĠOpt": 7730, "IX": 7731, "rypt": 7732, "Ġcit": 7733, "(*": 7734, "look": 7735, "imest": 7736, "á»ĵ": 7737, ".Is": 7738, "ebug": 7739, "Ġmyself": 7740, "grade": 7741, "ĠUN": 7742, "Ġkat": 7743, "akk": 7744, "uario": 7745, "Direct": 7746, ".event": 7747, "ĠLet": 7748, "Ġlic": 7749, "ORM": 7750, "á»¯": 7751, "Ġcapital": 7752, "Ġnut": 7753, "oga": 7754, ".E": 7755, "Report": 7756, "apped": 7757, "augh": 7758, "bool": 7759, ".k": 7760, "Ġsyn": 7761, "totype": 7762, "Ġinj": 7763, "ĠëĤ": 7764, "Ġpiece": 7765, "Run": 7766, "Spec": 7767, "ĠCollege": 7768, "Ġjud": 7769, "Ġven": 7770, "ĠsÃ£o": 7771, "ANG": 7772, "ĨĴ": 7773, "Ġcat": 7774, "crypt": 7775, "Exp": 7776, "Transaction": 7777, "oration": 7778, "Ġideal": 7779, ".Write": 7780, "icio": 7781, "GB": 7782, "ĠVol": 7783, "Ġproviding": 7784, "âĢĻun": 7785, "ĠIh": 7786, "Ġnumer": 7787, "Ġmedic": 7788, "iber": 7789, ")->": 7790, "uen": 7791, "avior": 7792, "covery": 7793, "uu": 7794, "ĠProf": 7795, "Ġini": 7796, "Ġfat": 7797, "Ġmog": 7798, "IES": 7799, "<int": 7800, "));čĊ": 7801, "Ass": 7802, "Ġindustr": 7803, "}`": 7804, "Ġshop": 7805, "ĠvÃł": 7806, "aron": 7807, "ĠPlay": 7808, "ĠÃªtre": 7809, "Ġuntuk": 7810, "Ġprimary": 7811, "(request": 7812, "Ġneigh": 7813, "ifications": 7814, "nik": 7815, "ĠResult": 7816, "Ġdefined": 7817, "Ġfinish": 7818, "edef": 7819, "_text": 7820, "andle": 7821, "Profile": 7822, "ĠFoundation": 7823, "OB": 7824, "ĠâĢ¦ĊĊ": 7825, "Ġpelo": 7826, "MP": 7827, "war": 7828, "_NAME": 7829, "Ġ[\"": 7830, "999": 7831, "append": 7832, "Contact": 7833, ".I": 7834, "ĠPor": 7835, ".equals": 7836, "Ġë³": 7837, "Ġsizeof": 7838, "process": 7839, "Ġrequirements": 7840, "Ġcompletely": 7841, "ords": 7842, "Ġwarm": 7843, "del": 7844, "Ãĸ": 7845, "ONE": 7846, "KEY": 7847, "Ġdaar": 7848, "'],": 7849, "ĠUpdate": 7850, "Ġoc": 7851, "Ġbak": 7852, "LOG": 7853, "éĵ": 7854, "ĠTR": 7855, "Ġpare": 7856, ".z": 7857, "router": 7858, "Ġagus": 7859, "Ġguide": 7860, ".type": 7861, "IND": 7862, ".content": 7863, "SD": 7864, "ĠFil": 7865, "Ġban": 7866, "());ĊĊ": 7867, "gre": 7868, "idi": 7869, "Ġmeeting": 7870, "ĠMessage": 7871, "Ġchanged": 7872, "\",čĊ": 7873, "Ġworked": 7874, "ĠNumber": 7875, "description": 7876, "ĠPage": 7877, "ming": 7878, "ĠPresident": 7879, "returns": 7880, "BD": 7881, "Ġmol": 7882, "Ġ'../": 7883, "angan": 7884, "Ġindividuals": 7885, "ĠDi": 7886, "Ġprime": 7887, "Ġserious": 7888, ".trans": 7889, "ford": 7890, "ĠãĤ": 7891, "Ġedit": 7892, "Ã³w": 7893, "ĠURL": 7894, "ĠDecember": 7895, "uka": 7896, "ĠInitial": 7897, "plot": 7898, "VER": 7899, "\":Ċ": 7900, "dates": 7901, "Ġpeut": 7902, "Ġoo": 7903, "iek": 7904, "Ġconstructor": 7905, "ĠRuss": 7906, "atz": 7907, "utter": 7908, "Ġdead": 7909, "Ġye": 7910, "Met": 7911, "ĠHT": 7912, "imp": 7913, "Parser": 7914, "ĠAR": 7915, "gs": 7916, "Ġpeu": 7917, "edding": 7918, "Ġ[[": 7919, "ĠCall": 7920, "Ġbyte": 7921, "Ġversch": 7922, "More": 7923, "build": 7924, "Core": 7925, "193": 7926, "rome": 7927, "Ġsafety": 7928, "Ġthemselves": 7929, "Ġmount": 7930, "Bean": 7931, "Ġformer": 7932, "(:": 7933, "Ġcm": 7934, "uba": 7935, "Ġsetting": 7936, "Ġexecut": 7937, "Ġstress": 7938, "Ġdirection": 7939, "})": 7940, "Ġpub": 7941, "-control": 7942, "ĠItem": 7943, "Async": 7944, "estion": 7945, "adow": 7946, "ieder": 7947, "Ġlig": 7948, "uman": 7949, "Ġpayment": 7950, "Ġcreating": 7951, "Ġallowed": 7952, "Ġ\"\"\"": 7953, "Ġvit": 7954, "Ġcontainer": 7955, "application": 7956, "Ġ*/Ċ/": 7957, "rec": 7958, "ĠDas": 7959, "Ġdidn't": 7960, "rd": 7961, "connect": 7962, "(ex": 7963, "ĠÃ®n": 7964, "ìĻ": 7965, "Ġfix": 7966, "embre": 7967, "Ġwood": 7968, "130": 7969, "Ġdescrib": 7970, "oco": 7971, "ÉĻn": 7972, "comes": 7973, "erman": 7974, "Ãºblic": 7975, "Ġ-->": 7976, "mail": 7977, "CS": 7978, ":'": 7979, "ĠEvery": 7980, ".service": 7981, "ĠDu": 7982, "íĥ": 7983, "ĠAus": 7984, "Ġscale": 7985, "ĠNO": 7986, "gb": 7987, "icated": 7988, ".Font": 7989, "Ġdistance": 7990, "Ġmb": 7991, "Ġeffects": 7992, "inue": 7993, "ander": 7994, "ĠChar": 7995, "anna": 7996, "Ġsummer": 7997, "Ġchannel": 7998, "Ġhelps": 7999, "(\"%": 8000, "ARRANT": 8001, "Ġraise": 8002, "Author": 8003, ".api": 8004, "Ġcash": 8005, "console": 8006, "Document": 8007, "ĠIll": 8008, "Ġprepar": 8009, "Ġpush": 8010, "Ġstuff": 8011, "Ġkunnen": 8012, "ĠNet": 8013, "nap": 8014, "Ġped": 8015, "Ġbur": 8016, "ĠQue": 8017, "Ġsuccessful": 8018, "itos": 8019, "Ġlinks": 8020, "Ġfailed": 8021, "-md": 8022, "Ġandere": 8023, "ATH": 8024, "Ġoptim": 8025, "Ġsolutions": 8026, "Match": 8027, "Ġhem": 8028, ";i": 8029, "Ġsport": 8030, "ĠChe": 8031, "REE": 8032, "iforn": 8033, "ĠFriday": 8034, "ĠOp": 8035, "column": 8036, "ĠWARRANT": 8037, ".load": 8038, "aku": 8039, "Ġstrength": 8040, "ĠAssoci": 8041, "itect": 8042, "Ġapplications": 8043, "ĠMake": 8044, "alian": 8045, "(context": 8046, "sembly": 8047, "Ġexclus": 8048, "illing": 8049, "android": 8050, "Ġstage": 8051, ".awt": 8052, "Ġvict": 8053, "-A": 8054, "Ġstates": 8055, "Enter": 8056, "queue": 8057, "_y": 8058, ".sc": 8059, "ĠtrÃ¨s": 8060, ".jpg": 8061, ".as": 8062, "¹Ħ": 8063, "Screen": 8064, "Ġconduct": 8065, "Ġpuede": 8066, "Ġprintf": 8067, "ĠBit": 8068, "ĠprÃ©": 8069, "Ġaccur": 8070, "Ġcamera": 8071, "iture": 8072, "Rec": 8073, "nbsp": 8074, "iately": 8075, "Ġmun": 8076, "istas": 8077, "Ġconvers": 8078, "ĠAndroid": 8079, "Ġbasic": 8080, "Ġdrop": 8081, "ĠCode": 8082, "():": 8083, "ality": 8084, "160": 8085, "Ġinterested": 8086, "Ġcounter": 8087, "assen": 8088, "ÄĮ": 8089, "/j": 8090, "azi": 8091, "loc": 8092, "erry": 8093, "pet": 8094, "gel": 8095, "ĠDem": 8096, "late": 8097, "Ġdengan": 8098, "Ġrent": 8099, "extern": 8100, "Ġlogin": 8101, "ibt": 8102, "orial": 8103, "hs": 8104, "ICE": 8105, "ĠVis": 8106, "UID": 8107, "Ġconsidered": 8108, "($_": 8109, "volution": 8110, "uan": 8111, "_state": 8112, "wers": 8113, "Ġentity": 8114, "ĠÃ©s": 8115, "'],Ċ": 8116, "Ġ{@": 8117, "amer": 8118, "double": 8119, "Ġsuff": 8120, "Servlet": 8121, "ĠResponse": 8122, "Ġmuito": 8123, "-group": 8124, "Ġelif": 8125, "kw": 8126, "Ġcallback": 8127, "()).": 8128, "Ġdefinitely": 8129, "Ġoperation": 8130, "emy": 8131, ".Generic": 8132, "Ġfair": 8133, "HTML": 8134, "Ġimg": 8135, "Ġpartner": 8136, "aden": 8137, "Ġencour": 8138, "(file": 8139, "asks": 8140, "raz": 8141, "onn": 8142, "_dir": 8143, "ville": 8144, "avo": 8145, "ĠAmazon": 8146, "700": 8147, "aled": 8148, "ĠåĽ": 8149, "Ġalign": 8150, "]=": 8151, "Ġvehicle": 8152, "Ġforeach": 8153, "lying": 8154, "ĉconst": 8155, "_log": 8156, "Ġez": 8157, "lor": 8158, "othing": 8159, "Ã¡ri": 8160, "ĠðŁ": 8161, "Ġemerg": 8162, "NA": 8163, "ĠâĢĻ": 8164, "Ġinteresting": 8165, "Ġhuge": 8166, "Writer": 8167, ";ĊĊĊ": 8168, ".props": 8169, "Att": 8170, "write": 8171, "Ġcertainly": 8172, "ĠSur": 8173, "ĠUSA": 8174, "Ġrespond": 8175, "Ġbasis": 8176, "(in": 8177, "endre": 8178, "-sm": 8179, "Tab": 8180, "total": 8181, "Ġforce": 8182, "Ġobtain": 8183, "FAULT": 8184, "ployee": 8185, "éĸ": 8186, "Ġpadding": 8187, "vention": 8188, "aver": 8189, "\"+": 8190, "onstr": 8191, "anti": 8192, "Ġshape": 8193, "çĭ": 8194, "Ġconstant": 8195, "Ġexisting": 8196, "Ġbirth": 8197, "Aut": 8198, "Ġhear": 8199, "Ġshared": 8200, "Effect": 8201, "Ġfest": 8202, "home": 8203, "aca": 8204, "venue": 8205, "Ġrules": 8206, "fi": 8207, "ĠReturns": 8208, "Ġplaces": 8209, "Ġveel": 8210, "\">čĊ": 8211, "nost": 8212, "mal": 8213, "liche": 8214, "Head": 8215, "']['": 8216, "Ġparameters": 8217, "ĠDen": 8218, "Ġeyes": 8219, "Ġsea": 8220, "ikan": 8221, "ÃŃas": 8222, "uten": 8223, "Ed": 8224, "ĠmÃ¼": 8225, "Ġdepend": 8226, "Ġ\"./": 8227, "ĠHotel": 8228, "Ġessay": 8229, "Ġrelig": 8230, "Ġfully": 8231, "MENT": 8232, "Ġflag": 8233, "Ġstra": 8234, "\"/>Ċ": 8235, "erve": 8236, "Ġgebru": 8237, "Ġakt": 8238, "(`": 8239, "osten": 8240, "Handle": 8241, "ĠMr": 8242, "Ġroute": 8243, "Ġappropr": 8244, "ĠRel": 8245, "190": 8246, "Ġtheme": 8247, "DD": 8248, "Ġcommercial": 8249, "ĉg": 8250, "-L": 8251, "-pro": 8252, "berg": 8253, "haps": 8254, "ĠTem": 8255, "Ä±ÅŁ": 8256, "cons": 8257, "Ġculture": 8258, "Ġpurpose": 8259, "ivos": 8260, "ĠmÃªme": 8261, "Car": 8262, "Ġreference": 8263, "unda": 8264, "Ġpode": 8265, "é£": 8266, "access": 8267, "Ġwall": 8268, "ĠtambÃ©m": 8269, "ĠTODO": 8270, "Ġporque": 8271, "Ġpens": 8272, "èª": 8273, "Ġ>Ċ": 8274, "ĠGood": 8275, "ĠCap": 8276, ".open": 8277, "ells": 8278, "ĠServices": 8279, "ĉvoid": 8280, "Ġexactly": 8281, "ĠMer": 8282, "ĠCompany": 8283, "Ġstatement": 8284, "ifornia": 8285, "inu": 8286, ");Ċ//": 8287, "Ġmeasure": 8288, "ĠDepartment": 8289, "Ġorganization": 8290, "Ġdifer": 8291, "Your": 8292, "Ġunter": 8293, "ĠsiÄĻ": 8294, "é©": 8295, "Ġgran": 8296, "vement": 8297, "Ġpackage": 8298, "Ġvector": 8299, "obs": 8300, ".bind": 8301, "(\"\\": 8302, "////////////////////////////////": 8303, ".config": 8304, "Ġnombre": 8305, "uru": 8306, "')ĊĊ": 8307, ".index": 8308, "han": 8309, "oda": 8310, "ĠLaw": 8311, "ĠLondon": 8312, "Ġdeveloped": 8313, "çĥ": 8314, "Ġenv": 8315, "Ġlicense": 8316, "))ĊĊ": 8317, "Ġtra": 8318, "ursday": 8319, "arrant": 8320, "(object": 8321, "Ġadvant": 8322, "900": 8323, "Ġsurface": 8324, "respond": 8325, "']Ċ": 8326, "aved": 8327, "centr": 8328, "Ġpoder": 8329, "EC": 8330, "Ġmix": 8331, "ĠFind": 8332, "Ġsoll": 8333, "assets": 8334, "Ã¨me": 8335, "Ġeg": 8336, "Ġconstruction": 8337, "Ġmotor": 8338, "bet": 8339, "plies": 8340, "ris": 8341, "Ġclasses": 8342, "Ġpow": 8343, "hes": 8344, "PA": 8345, "aÃ±": 8346, "Ġfn": 8347, "ontal": 8348, "ĠFire": 8349, "'un": 8350, "ĠI've": 8351, "Ġthinking": 8352, "ĠPhil": 8353, "ĠBack": 8354, "Register": 8355, "Ġlag": 8356, "ĠlÃ¤": 8357, "ĠÃ©tÃ©": 8358, "Ġslow": 8359, "Queue": 8360, "Ġmeas": 8361, "hor": 8362, "cut": 8363, "Ġdecided": 8364, "Ġdream": 8365, "Ġinvolved": 8366, "Ġdifference": 8367, "Ġphysical": 8368, "amo": 8369, "Ġrelev": 8370, "uesday": 8371, ".App": 8372, "thread": 8373, "Ġio": 8374, "Ġnamespace": 8375, "Float": 8376, "Ġjaar": 8377, "Ġreported": 8378, "Ġvill": 8379, "itz": 8380, "oul": 8381, "-v": 8382, "Ġsans": 8383, "Ġpela": 8384, "Ġcast": 8385, "ĠGold": 8386, "_num": 8387, "\");": 8388, "Ġeditor": 8389, "Ġrates": 8390, "ĠII": 8391, "Ġintent": 8392, "Ġsomet": 8393, "DC": 8394, "was": 8395, "ednes": 8396, "=\"#": 8397, "Fragment": 8398, "Ġfight": 8399, "Ġcookies": 8400, "strong": 8401, "Ġcarry": 8402, "Ġleur": 8403, "\\/": 8404, "Ġdiagn": 8405, "ashion": 8406, "Ġtips": 8407, ".test": 8408, "Ġblue": 8409, "Ġcharacters": 8410, "agon": 8411, "iced": 8412, "QU": 8413, "quis": 8414, "Est": 8415, "Ġvent": 8416, "360": 8417, "ï¼Ľ": 8418, "aught": 8419, "Ġgiving": 8420, "filter": 8421, "74": 8422, "Ġfelt": 8423, "bel": 8424, "_.": 8425, "Ġdegree": 8426, "Ġ$(": 8427, "Ġlab": 8428, "igration": 8429, "Ġpressure": 8430, "Ġconven": 8431, "tected": 8432, "=(": 8433, "Ġaussi": 8434, "PORT": 8435, "Statement": 8436, "Ġ{}": 8437, "ĠStreet": 8438, ".btn": 8439, "ĠAction": 8440, "Ġ('": 8441, "allet": 8442, "(D": 8443, "Success": 8444, "Ġsecret": 8445, "73": 8446, "Ġlimited": 8447, "Ġtun": 8448, "Ġreleased": 8449, "Ġlan": 8450, "Ġrad": 8451, "=\"<?": 8452, "Graph": 8453, "ĠsÃ³": 8454, "Ġreserved": 8455, "call": 8456, "ĠMat": 8457, "Ġpaid": 8458, "84": 8459, "alla": 8460, "rier": 8461, "Rece": 8462, "Ġkal": 8463, "iar": 8464, "RED": 8465, "bu": 8466, ")));Ċ": 8467, "ĠShow": 8468, "Ġmaster": 8469, "Admin": 8470, "Net": 8471, "bre": 8472, "Ġbudget": 8473, "Ġsolo": 8474, "pass": 8475, "ĠON": 8476, "ĠBank": 8477, "Ġdry": 8478, "Non": 8479, "Ã¯": 8480, "usi": 8481, "pared": 8482, "ĠCard": 8483, "Es": 8484, "ĠValue": 8485, "Ġfunctions": 8486, "lie": 8487, "oli": 8488, "iverse": 8489, "_test": 8490, "Ġstories": 8491, "ĠPoint": 8492, "_error": 8493, "ixel": 8494, "SELECT": 8495, "Ġmul": 8496, "Names": 8497, "ventory": 8498, "Ġtowards": 8499, "ĠVi": 8500, "Ġviel": 8501, "house": 8502, "esome": 8503, "Ġgem": 8504, "Ġsust": 8505, "white": 8506, "81": 8507, "achine": 8508, "Script": 8509, "display": 8510, "organ": 8511, "case": 8512, "like": 8513, "orith": 8514, "åĭ": 8515, "ĠInstit": 8516, "oup": 8517, "Modal": 8518, "RES": 8519, "ĠVersion": 8520, "Ġmother": 8521, "Ġmiddle": 8522, "ĠEt": 8523, ".pre": 8524, "esse": 8525, ".Tab": 8526, "require": 8527, "(item": 8528, ".save": 8529, "71": 8530, ".Controls": 8531, "words": 8532, "Ġspot": 8533, "Ġunivers": 8534, "Ġcum": 8535, "fÃ¼": 8536, "los": 8537, "amil": 8538, "Ġvideos": 8539, "bb": 8540, "ednesday": 8541, "Ġwenn": 8542, "yon": 8543, "ĠHo": 8544, "191": 8545, "Ġsymbol": 8546, "Ġ:Ċ": 8547, "doc": 8548, "Ġposts": 8549, "jar": 8550, "essa": 8551, "'),": 8552, "ecause": 8553, "ĠCH": 8554, "-C": 8555, "aza": 8556, "_on": 8557, "(input": 8558, "ĠÃī": 8559, "èĪ": 8560, "ĠMo": 8561, "izz": 8562, "REF": 8563, "Reference": 8564, "vr": 8565, "Ġdoll": 8566, "ĠUm": 8567, "rought": 8568, "Ġmoving": 8569, "Ġsometimes": 8570, "Ġsender": 8571, "osition": 8572, "ĠLeg": 8573, "ï¼ģĊĊ": 8574, "Ġpm": 8575, "Ġspend": 8576, "Ġkur": 8577, "ĠPower": 8578, "strap": 8579, "Ġreplac": 8580, "Loc": 8581, "Ġkitchen": 8582, "nel": 8583, "Ġett": 8584, "ĠDevelop": 8585, "92": 8586, "Ġcore": 8587, "ĠInput": 8588, "wan": 8589, "ĠMax": 8590, "Ġgrande": 8591, "Ġkont": 8592, "ĠClick": 8593, "ĠLand": 8594, "/**": 8595, "Ġgoed": 8596, "âĦ": 8597, "lines": 8598, "alert": 8599, "ĠIP": 8600, "Ġmail": 8601, "ulate": 8602, "Ġmaybe": 8603, "ipes": 8604, "Ġdump": 8605, "\")]Ċ": 8606, "82": 8607, "_ptr": 8608, "Ġundefined": 8609, "ĠCour": 8610, "Ġbaby": 8611, "ï¿½ï¿½": 8612, "ĠApple": 8613, "coin": 8614, "83": 8615, "ĠFrance": 8616, "å»": 8617, "ferences": 8618, "Ġdecis": 8619, "yan": 8620, "Channel": 8621, "det": 8622, "Ġcours": 8623, "Ġsat": 8624, "ĠMart": 8625, "AST": 8626, "alloc": 8627, "Ġsoft": 8628, "Ġgratis": 8629, "ellig": 8630, "Ġmort": 8631, "Ġshown": 8632, "ĠTask": 8633, "nÃ©": 8634, "éª": 8635, "rote": 8636, "Pat": 8637, "Ġons": 8638, "Like": 8639, "-time": 8640, "atalog": 8641, "ç©": 8642, "estroy": 8643, "Åŀ": 8644, "Ġpesso": 8645, "140": 8646, ".junit": 8647, "Parameters": 8648, "Ġ{Ċ//": 8649, "ech": 8650, "LS": 8651, "Initial": 8652, "Ġhund": 8653, "Ġgave": 8654, "Ġsample": 8655, "amiento": 8656, "allow": 8657, ".start": 8658, "ĠEdit": 8659, "Ġguarante": 8660, "Ġspecified": 8661, "lands": 8662, "esis": 8663, "Ġgeen": 8664, "ĠĠĠĊ": 8665, "tu": 8666, "Ġattack": 8667, "ĠRequest": 8668, "Ã©rie": 8669, "());čĊ": 8670, "ted": 8671, "xis": 8672, "ĠJapan": 8673, "Ġreve": 8674, "wy": 8675, "ae": 8676, "ĠFebruary": 8677, "Ġprod": 8678, "abet": 8679, ".__": 8680, "ĠTable": 8681, "ieved": 8682, "Ġ]Ċ": 8683, "erap": 8684, "shot": 8685, "Ġvs": 8686, "(void": 8687, "ë¯": 8688, "Ġdevices": 8689, "\"čĊ": 8690, "Ġëª": 8691, "Ġassess": 8692, "Ġmundo": 8693, "Ãĩ": 8694, "TA": 8695, "\\t": 8696, "Ġstraight": 8697, "SC": 8698, "Ġcontain": 8699,
[...]
