{
  "</s>": 0,
  "<pad>": 1,
  "<s>": 2,
  "<unk>": 3,
  "<|endoftext|>": 4,
  "<|im_end|>": 5,
  "<|im_start|>": 6,
  "[/INST]": 7,
  "[INST]": 8,
  "[TOOL_CALLS]": 9,
  "<|system|>": 10,
  "<|user|>": 11,
  "<|assistant|>": 12,
  "[/TOOL_CALLS]": 13,
  "<|function|>": 14,
  "<|doc_start|>": 20,
  "<|doc_end|>": 21,
  "<|chunk_start|>": 22,
  "<|chunk_end|>": 23,
  "<|section|>": 24,
  "<|code_start|>": 30,
  "<|code_end|>": 31,
  "<|python|>": 32,
  "<|javascript|>": 33,
  "<|typescript|>": 34,
  "<|json_start|>": 40,
  "<|json_end|>": 41,
  "<|tool_call|>": 42,
  "<|tool_response|>": 43,
  "<|parameters|>": 44,
  "A": 45,
  "B": 46,
  "C": 47,
  "D": 48,
  "E": 49,
  "F": 50,
  "G": 51,
  "H": 52,
  "I": 53,
  "J": 54,
  "K": 55,
  "L": 56,
  "M": 57,
  "N": 58,
  "O": 59,
  "P": 60,
  "Q": 61,
  "R": 62,
  "!important": 63,
  "S": 64,
  "T": 65,
  "U": 66,
  "V": 67,
  "W": 68,
  "X": 69,
  "Y": 70,
  "Z": 71,
  "a": 72,
  "b": 73,
  "c": 74,
  "d": 75,
  "e": 76,
  "f": 77,
  "g": 78,
  "h": 79,
  "i": 80,
  "j": 81,
  "k": 82,
  "l": 83,
  "\"A": 84,
  "m": 85,
  "\"AT": 86,
  "n": 87,
  "o": 88,
  "p": 89,
  "\"And": 90,
  "q": 91,
  "\"As": 92,
  "r": 93,
  "s": 94,
  "t": 95,
  "\"B": 96,
  "u": 97,
  "\"But": 98,
  "v": 99,
  "\"C": 100,
  "w": 101,
  "\"D": 102,
  "x": 103,
  "y": 104,
  "z": 105,
  "\"E": 106,
  "in": 107,
  "er": 108,
  "\"For": 109,
  "on": 110,
  "en": 111,
  "\"G": 112,
  "re": 113,
  "\"H": 114,
  "he": 115,
  "\"He": 116,
  "at": 117,
  "or": 118,
  "an": 119,
  "\"I": 120,
  "!": 121,
  "es": 122,
  "!I": 123,
  "\"I'm": 124,
  "is": 125,
  "!!": 126,
  "\"If": 127,
  "it": 128,
  "\"In": 129,
  "al": 130,
  "!!!": 131,
  "ar": 132,
  "ou": 133,
  "\"It": 134,
  "!!!!": 135,
  "le": 136,
  "\"It's": 137,
  "ed": 138,
  "\"K": 139,
  "as": 140,
  "!!!!!": 141,
  "\"All": 142,
  "\"L": 143,
  "nd": 144,
  "ic": 145,
  "\"La": 146,
  "!!!!!!!!": 147,
  "el": 148,
  "\"M": 149,
  "et": 150,
  "!!!!Ċ": 151,
  "\"My": 152,
  "om": 153,
  "\"N": 154,
  "st": 155,
  "!!!Ċ": 156,
  "\"At": 157,
  "\"No": 158,
  "ro": 159,
  "!!!ĊĊ": 160,
  "il": 161,
  "ct": 162,
  "!!.": 163,
  "\"O": 164,
  "id": 165,
  "\"Oh": 166,
  "am": 167,
  "!!Ċ": 168,
  "ad": 169,
  "!!ĊĊ": 170,
  "im": 171,
  "\"Our": 172,
  "!\"": 173,
  "ut": 174,
  "\"P": 175,
  "\"Do": 176,
  "ol": 177,
  "\"S": 178,
  "ch": 179,
  "!\")": 180,
  "ur": 181,
  "\"So": 182,
  "ot": 183,
  "!\");Ċ": 184,
  "\"F": 185,
  "\"T": 186,
  "ig": 187,
  "!\")Ċ": 188,
  "\"The": 189,
  "us": 190,
  "\"There": 191,
  "!\",": 192,
  "un": 193,
  "\"They": 194,
  "ay": 195,
  "\"This": 196,
  "!\"Ċ": 197,
  "ow": 198,
  "os": 199,
  "\"W": 200,
  "!\"ĊĊ": 201,
  "ing": 202,
  "!'": 203,
  "\"We": 204,
  "ul": 205,
  "\"How": 206,
  "\"What": 207,
  "em": 208,
  "!',": 209,
  "\"When": 210,
  "ce": 211,
  "!(": 212,
  "od": 213,
  "ion": 214,
  "!(\"": 215,
  "ag": 216,
  "\"You": 217,
  "!)": 218,
  "ir": 219,
  "if": 220,
  "ly": 221,
  "!),": 222,
  "\"Is": 223,
  "qu": 224,
  "!).": 225,
  "ent": 226,
  "\"a": 227,
  "ac": 228,
  "th": 229,
  "!)Ċ": 230,
  "se": 231,
  "ab": 232,
  "\"class": 233,
  "\"d": 234,
  "!)ĊĊ": 235,
  "um": 236,
  "!*": 237,
  "\"encoding": 238,
  "ie": 239,
  "ve": 240,
  "!,": 241,
  "\"fmt": 242,
  "iv": 243,
  "ra": 244,
  "!--": 245,
  "ak": 246,
  "!-": 247,
  "\"github": 248,
  "\"go": 249,
  "ht": 250,
  "\"group": 251,
  "!.": 252,
  "\"h": 253,
  "oc": 254,
  "op": 255,
  "\"id": 256,
  "te": 257,
  "\"in": 258,
  "!.Ċ": 259,
  "pe": 260,
  "\"io": 261,
  "!/": 262,
  "ap": 263,
  "\"Not": 264,
  "\"is": 265,
  "\"k": 266,
  "!:": 267,
  "\"Now": 268,
  "\"log": 269,
  "ri": 270,
  "!</": 271,
  "pp": 272,
  "\"name": 273,
  "\"net": 274,
  "og": 275,
  "!=": 276,
  "ik": 277,
  "\"os": 278,
  "ation": 279,
  "\"On": 280,
  "!=\"": 281,
  "\"profile": 282,
  "ld": 283,
  "\"s": 284,
  "iz": 285,
  "\"One": 286,
  "!='": 287,
  "\"strings": 288,
  "ub": 289,
  "\"testing": 290,
  "![": 291,
  "ud": 292,
  "!?": 293,
  "\"time": 294,
  "ter": 295,
  "!\\": 296,
  "ue": 297,
  "\"type": 298,
  "av": 299,
  "\"url": 300,
  "ia": 301,
  "\"use": 302,
  "est": 303,
  "ok": 304,
  "\"x": 305,
  "\"She": 306,
  "!]": 307,
  "tr": 308,
  "pl": 309,
  "pt": 310,
  "!Â»": 311,
  "ver": 312,
  "\"That": 313,
  "!âĢĻ": 314,
  "ith": 315,
  "ate": 316,
  "!âĢĿ": 317,
  "ers": 318,
  "ip": 319,
  "and": 320,
  "!âĢĿĊ": 321,
  "ist": 322,
  "#a": 323,
  "!âĢĿĊĊ": 324,
  "#aa": 325,
  "ib": 326,
  "#ab": 327,
  "!Ċ": 328,
  "ort": 329,
  "#ac": 330,
  "\"": 331,
  "ff": 332,
  "!ĊĊ": 333,
  "\"To": 334,
  "#ad": 335,
  "ne": 336,
  "#ae": 337,
  "res": 338,
  "#af": 339,
  "nt": 340,
  "\"\"": 341,
  "ex": 342,
  "\"!": 343,
  "#define": 344,
  "ess": 345,
  "\"\"\"": 346,
  "#do": 347,
  "end": 348,
  "\"Well": 349,
  "cl": 350,
  "#elif": 351,
  "#else": 352,
  "ill": 353,
  "#endif": 354,
  "\"\"\"Ċ": 355,
  "ere": 356,
  "#endregion": 357,
  "ov": 358,
  "\"Why": 359,
  "\"\"\"ĊĊ": 360,
  "#g": 361,
  "#ga": 362,
  "ant": 363,
  "\"Yeah": 364,
  "\"\",": 365,
  "#get": 366,
  "#if": 367,
  "ge": 368,
  "\"Yes": 369,
  "\"\":": 370,
  "ass": 371,
  "#ifdef": 372,
  "#ifndef": 373,
  "\"#": 374,
  "#import": 375,
  "our": 376,
  "#include": 377,
  "\"$": 378,
  "ore": 379,
  "\"%": 380,
  "art": 381,
  "#line": 382,
  "\"and": 383,
  "\"'": 384,
  "to": 385,
  "#m": 386,
  "cc": 387,
  "\"c": 388,
  "\"&": 389,
  "#pragma": 390,
  "rom": 391,
  "ame": 392,
  "#print": 393,
  "\"(": 394,
  "ment": 395,
  "#region": 396,
  "ain": 397,
  "\"',": 398,
  "\")": 399,
  "#set": 400,
  "ob": 401,
  "du": 402,
  "\"data": 403,
  "\"))": 404,
  "#undef": 405,
  "ll": 406,
  "#w": 407,
  "ction": 408,
  "de": 409,
  "\"f": 410,
  "ity": 411,
  "ine": 412,
  "ang": 413,
  "\")));Ċ": 414,
  "$I": 415,
  "out": 416,
  "\")),": 417,
  "\"g": 418,
  "ck": 419,
  "$IFn": 420,
  "age": 421,
  "\")).": 422,
  "ng": 423,
  "$MESS": 424,
  "ep": 425,
  "\"));": 426,
  "$a": 427,
  "so": 428,
  "$app": 429,
  "\"));Ċ": 430,
  "ust": 431,
  "$ar": 432,
  "io": 433,
  "\"));ĊĊ": 434,
  "$arity": 435,
  "ies": 436,
  "ell": 437,
  "$arr": 438,
  "Ġt": 439,
  "gh": 440,
  "\"));čĊ": 441,
  "$b": 442,
  "ind": 443,
  "In": 444,
  "$c": 445,
  "\")){Ċ": 446,
  "ost": 447,
  "$config": 448,
  "$conn": 449,
  "\"),": 450,
  "\"))Ċ": 451,
  "lo": 452,
  "all": 453,
  "$core": 454,
  "Ġa": 455,
  "$d": 456,
  "\"))ĊĊ": 457,
  "ry": 458,
  "$data": 459,
  "ight": 460,
  "$db": 461,
  "ru": 462,
  "$f": 463,
  "ive": 464,
  "\"),Ċ": 465,
  "$file": 466,
  "ial": 467,
  "\").": 468,
  "$form": 469,
  "ah": 470,
  "per": 471,
  "\"),čĊ": 472,
  "$get": 473,
  "Ġs": 474,
  "\")->": 475,
  "xt": 476,
  "$html": 477,
  "ft": 478,
  "ard": 479,
  "$i": 480,
  "\"nil": 481,
  "$id": 482,
  "ack": 483,
  "we": 484,
  "\").Ċ": 485,
  "int": 486,
  "\");": 487,
  "$is": 488,
  "ure": 489,
  "\"):": 490,
  "$item": 491,
  "lic": 492,
  "ect": 493,
  "$j": 494,
  "\"):Ċ": 495,
  "$key": 496,
  "orm": 497,
  "Ġc": 498,
  "$l": 499,
  "ph": 500,
  "ast": 501,
  "$lang": 502,
  "\");Ċ": 503,
  "ug": 504,
  "$m": 505,
  "\");ĊĊ": 506,
  "Ġd": 507,
  "li": 508,
  "$mail": 509,
  "sp": 510,
  "ek": 511,
  "\");čĊ": 512,
  "$msg": 513,
  "pr": 514,
  "$n": 515,
  "\");čĊčĊ": 516,
  "Ġp": 517,
  "$name": 518,
  "ult": 519,
  "con": 520,
  "\")[": 521,
  "$new": 522,
  "ans": 523,
  "$num": 524,
  "\")]": 525,
  "\"w": 526,
  "$o": 527,
  "$obj": 528,
  "urn": 529,
  "\")]Ċ": 530,
  "ide": 531,
  "Ġw": 532,
  "$out": 533,
  "ile": 534,
  "able": 535,
  "$output": 536,
  "#End": 537,
  "\"){": 538,
  "$p": 539,
  "ire": 540,
  "$page": 541,
  "\"){Ċ": 542,
  "#L": 543,
  "ord": 544,
  "$pdf": 545,
  "td": 546,
  "\")}": 547,
  "#SPJ": 548,
  "are": 549,
  "ps": 550,
  "$post": 551,
  "$q": 552,
  "\")Ċ": 553,
  "ice": 554,
  "$query": 555,
  "ich": 556,
  "Ġf": 557,
  "\")ĊĊ": 558,
  "$r": 559,
  "$res": 560,
  "up": 561,
  "\")ĊĊĊ": 562,
  "$result": 563,
  "ty": 564,
  "gr": 565,
  "$ret": 566,
  "Ġo": 567,
  "\")čĊ": 568,
  "rou": 569,
  "$row": 570,
  "$rs": 571,
  "ome": 572,
  "Ġm": 573,
  "\")čĊčĊ": 574,
  "$s": 575,
  "az": 576,
  "ss": 577,
  "Ġb": 578,
  "$scope": 579,
  "\",": 580,
  "\"*": 581,
  "$sql": 582,
  "\"+": 583,
  "ci": 584,
  "ys": 585,
  "\",\"": 586,
  "$stmt": 587,
  "au": 588,
  "act": 589,
  "$str": 590,
  "$string": 591,
  "\"+Ċ": 592,
  "#c": 593,
  "eg": 594,
  "$t": 595,
  "ould": 596,
  "$table": 597,
  "ec": 598,
  "$text": 599,
  "$this": 600,
  "ime": 601,
  "St": 602,
  "get": 603,
  "$total": 604,
  "\",$": 605,
  "ata": 606,
  "\",&": 607,
  "$url": 608,
  "ase": 609,
  "one": 610,
  "$user": 611,
  "\"-": 612,
  "\",Ċ": 613,
  "$v": 614,
  "ong": 615,
  "ef": 616,
  "$wp": 617,
  "ij": 618,
  "\",ĊĊ": 619,
  "$x": 620,
  "\".": 621,
  "ew": 622,
  "#for": 623,
  "\",čĊ": 624,
  "wo": 625,
  "ach": 626,
  "ER": 627,
  "ber": 628,
  "\"--": 629,
  "oy": 630,
  "ite": 631,
  "aj": 632,
  "Th": 633,
  "\".\"": 634,
  "%A": 635,
  "\".$": 636,
  "ork": 637,
  "\"...": 638,
  "sh": 639,
  "ens": 640,
  "Ġh": 641,
  "\"/": 642,
  "%B": 643,
  "ke": 644,
  "Ġn": 645,
  "\"./": 646,
  "ace": 647,
  "tt": 648,
  "\".Ċ": 649,
  "Ġl": 650,
  "ax": 651,
  "com": 652,
  "\".ĊĊ": 653,
  "#l": 654,
  "%C": 655,
  "ated": 656,
  "\"/>": 657,
  "%D": 658,
  "ix": 659,
  "\":": 660,
  "%E": 661,
  "port": 662,
  "ign": 663,
  "\"/></": 664,
  "\":\"": 665,
  "#plt": 666,
  "ook": 667,
  "ear": 668,
  "ail": 669,
  "\"/>Ċ": 670,
  "IN": 671,
  "Ġe": 672,
  "me": 673,
  "\"/>čĊ": 674,
  "ous": 675,
  "%b": 676,
  "Ġg": 677,
  "turn": 678,
  "%c": 679,
  "ont": 680,
  "%d": 681,
  "%e": 682,
  "\":[": 683,
  "ĠS": 684,
  "of": 685,
  "%i": 686,
  "ni": 687,
  "aw": 688,
  "#u": 689,
  "ance": 690,
  "ON": 691,
  "%m": 692,
  "ai": 693,
  "\":[\"": 694,
  "%n": 695,
  "\":{\"": 696,
  "%s": 697,
  "ake": 698,
  "%x": 699,
  "\";": 700,
  "eb": 701,
  "\":{Ċ": 702,
  "$DW": 703,
  "her": 704,
  "\":Ċ": 705,
  "&A": 706,
  "Ġv": 707,
  "ox": 708,
  "form": 709,
  "&B": 710,
  "\":ĊĊ": 711,
  "fer": 712,
  "&C": 713,
  "&D": 714,
  "ary": 715,
  "ĠI": 716,
  "$L": 717,
  "\":čĊ": 718,
  "&E": 719,
  "wn": 720,
  "be": 721,
  "ĠT": 722,
  "hen": 723,
  "&G": 724,
  "The": 725,
  "\";Ċ": 726,
  "&H": 727,
  "Re": 728,
  "Ġy": 729,
  "&M": 730,
  "ts": 731,
  "&I": 732,
  "ma": 733,
  "\";ĊĊ": 734,
  "&P": 735,
  "&O": 736,
  "\";čĊ": 737,
  "&R": 738,
  "co": 739,
  "ress": 740,
  "ĠA": 741,
  "&S": 742,
  "\";čĊčĊ": 743,
  "&T": 744,
  "erv": 745,
  "\"<": 746,
  "&W": 747,
  "ĠC": 748,
  "uk": 749,
  "&a": 750,
  "ition": 751,
  "elf": 752,
  "\"</": 753,
  "&amp": 754,
  "ath": 755,
  "&apos": 756,
  "\"<<": 757,
  "ert": 758,
  "\"=>": 759,
  "&e": 760,
  "&eacute": 761,
  "&gt": 762,
  "yn": 763,
  "ther": 764,
  "\"=>\"": 765,
  "\">": 766,
  "&i": 767,
  "iew": 768,
  "ublic": 769,
  "dd": 770,
  "&id": 771,
  "ode": 772,
  "ions": 773,
  "\">$": 774,
  "\">&": 775,
  "&lt": 776,
  "ink": 777,
  "RE": 778,
  "&m": 779,
  "ose": 780,
  "&nbsp": 781,
  "ev": 782,
  "ym": 783,
  "\">&#": 784,
  "&o": 785,
  "ence": 786,
  "&oacute": 787,
  "\">'": 788,
  "&p": 789,
  "imp": 790,
  "AT": 791,
  "&q": 792,
  "&quot": 793,
  "\">(": 794,
  "\"><": 795,
  "ount": 796,
  "ical": 797,
  "&r": 798,
  "\"></": 799,
  "&rs": 800,
  "na": 801,
  "ally": 802,
  "&rsquo": 803,
  "ory": 804,
  "&s": 805,
  "ST": 806,
  "\"><?": 807,
  "ike": 808,
  "&t": 809,
  "$h": 810,
  "che": 811,
  "&utm": 812,
  "ĠM": 813,
  "&w": 814,
  "\">\\": 815,
  "\">{": 816,
  "\">{{": 817,
  "Ġk": 818,
  "own": 819,
  "\"?": 820,
  "ze": 821,
  "ark": 822,
  "ations": 823,
  "sc": 824,
  "\">Ċ": 825,
  "$img": 826,
  "Ġthe": 827,
  "\">ĊĊ": 828,
  "$info": 829,
  "ree": 830,
  "ors": 831,
  "\">čĊ": 832,
  "ho": 833,
  "uc": 834,
  "ĠP": 835,
  "ick": 836,
  "\">čĊčĊ": 837,
  "Ex": 838,
  "ta": 839,
  "ents": 840,
  "ock": 841,
  "ey": 842,
  "\"?ĊĊ": 843,
  "$k": 844,
  "ms": 845,
  "ild": 846,
  "Id": 847,
  "ject": 848,
  "vel": 849,
  "'A": 850,
  "ww": 851,
  "ĠB": 852,
  "br": 853,
  "yst": 854,
  "$log": 855,
  "AR": 856,
  "ery": 857,
  "ĠD": 858,
  "cre": 859,
  "'Al": 860,
  "ml": 861,
  "Ġu": 862,
  "div": 863,
  "'Am": 864,
  "Ch": 865,
  "$max": 866,
  "uf": 867,
  "ull": 868,
  "EN": 869,
  "ely": 870,
  "row": 871,
  "'Ar": 872,
  "fl": 873,
  "ual": 874,
  "It": 875,
  "ays": 876,
  "'Brien": 877,
  "ype": 878,
  "fo": 879,
  "'C": 880,
  "Ġin": 881,
  "ings": 882,
  "ize": 883,
  "'D": 884,
  "'E": 885,
  "ID": 886,
  "ave": 887,
  "import": 888,
  "ade": 889,
  "ound": 890,
  "OR": 891,
  "'Est": 892,
  "px": 893,
  "'Europe": 894,
  "Ġto": 895,
  "bl": 896,
  "iss": 897,
  "AL": 898,
  "'H": 899,
  "'GC": 900,
  "AN": 901,
  "$path": 902,
  "'I": 903,
  "ĠL": 904,
  "enc": 905,
  "Ġr": 906,
  "yp": 907,
  "ny": 908,
  "eng": 909,
  "ove": 910,
  "ier": 911,
  "reat": 912,
  "ĠF": 913,
  "oh": 914,
  "ĠR": 915,
  "af": 916,
  "'L": 917,
  "ian": 918,
  "ĠH": 919,
  "'M": 920,
  "ater": 921,
  "'N": 922,
  "Ġof": 923,
  "ann": 924,
  "'O": 925,
  "LE": 926,
  "ĠE": 927,
  "eth": 928,
  "'Or": 929,
  "Ġj": 930,
  "'Re": 931,
  "je": 932,
  "'S": 933,
  "ung": 934,
  "anc": 935,
  "'T": 936,
  "put": 937,
  "go": 938,
  "'U": 939,
  "old": 940,
  "Ġand": 941,
  "'US": 942,
  "ish": 943,
  "'Union": 944,
  "lect": 945,
  "Ġth": 946,
  "ĠW": 947,
  "gy": 948,
  "sk": 949,
  "IT": 950,
  "der": 951,
  "by": 952,
  "oll": 953,
  "Ġre": 954,
  "iel": 955,
  "erm": 956,
  "ĠN": 957,
  "\"]": 958,
  "pro": 959,
  "ka": 960,
  "ank": 961,
  "no": 962,
  "'a": 963,
  "'ab": 964,
  "str": 965,
  "les": 966,
  "'abord": 967,
  "$tpl": 968,
  "'acc": 969,
  "'ac": 970,
  "und": 971,
  "par": 972,
  "kt": 973,
  "$txt": 974,
  "bo": 975,
  "\"\\": 976,
  "ĠG": 977,
  "\"],": 978,
  "itt": 979,
  "'act": 980,
  "\"[": 981,
  "'action": 982,
  "ystem": 983,
  "SE": 984,
  "'ad": 985,
  "ale": 986,
  "ond": 987,
  "'aff": 988,
  "ient": 989,
  "\"].": 990,
  "pec": 991,
  "'af": 992,
  "'ag": 993,
  "'ai": 994,
  "\"]').": 995,
  "ener": 996,
  "'agit": 997,
  "\"])": 998,
  "\"](": 999,
  "'aide": 1000,
  "gg": 1001,
  "'ailleurs": 1002,
  "ux": 1003,
  "irst": 1004,
  "'aime": 1005,
  "'air": 1006,
  "\"]);Ċ": 1007,
  "mer": 1008,
  "%AA": 1009,
  "ise": 1010,
  "'aj": 1011,
  "\"])Ċ": 1012,
  "To": 1013,
  "'al": 1014,
  "%AC": 1015,
  "'ak": 1016,
  "'all": 1017,
  "wh": 1018,
  "%AD": 1019,
  "ui": 1020,
  "\"],Ċ": 1021,
  "la": 1022,
  "amp": 1023,
  "'alt": 1024,
  "yl": 1025,
  "%AF": 1026,
  "'am": 1027,
  "'altra": 1028,
  "Ġde": 1029,
  "ext": 1030,
  "uch": 1031,
  "'amb": 1032,
  "\"]:": 1033,
  "'an": 1034,
  "igh": 1035,
  "clud": 1036,
  "%BA": 1037,
  "ari": 1038,
  "'amour": 1039,
  "ES": 1040,
  "\"];": 1041,
  "%BB": 1042,
  "\"];Ċ": 1043,
  "We": 1044,
  "'ancien": 1045,
  "%BC": 1046,
  "ific": 1047,
  "IC": 1048,
  "'ann": 1049,
  "ti": 1050,
  "\"]=": 1051,
  "\"][\"": 1052,
  "%BD": 1053,
  "rit": 1054,
  "\"][": 1055,
  "'annÃ©e": 1056,
  "'ant": 1057,
  "%BE": 1058,
  "ser": 1059,
  "'any": 1060,
  "'app": 1061,
  "%BF": 1062,
  "pon": 1063,
  "'ap": 1064,
  "ĠO": 1065,
  "\"]Ċ": 1066,
  "za": 1067,
  "\"_": 1068,
  "ks": 1069,
  "'aprÃ¨s": 1070,
  "\"]ĊĊ": 1071,
  "'aquest": 1072,
  "bs": 1073,
  "%CI": 1074,
  "'ar": 1075,
  "app": 1076,
  "ool": 1077,
  "Cl": 1078,
  "AC": 1079,
  "\"`": 1080,
  "'argent": 1081,
  "ble": 1082,
  "ja": 1083,
  "\"`Ċ": 1084,
  "aus": 1085,
  "fe": 1086,
  "'arr": 1087,
  "He": 1088,
  "'article": 1089,
  "%EB": 1090,
  "'art": 1091,
  "Ar": 1092,
  "%EC": 1093,
  "ha": 1094,
  "'as": 1095,
  "ons": 1096,
  "%H": 1097,
  "hr": 1098,
  "'ass": 1099,
  "'at": 1100,
  "let": 1101,
  "%M": 1102,
  "'att": 1103,
  "AM": 1104,
  "'au": 1105,
  "%S": 1106,
  "ange": 1107,
  "'aut": 1108,
  "zy": 1109,
  "very": 1110,
  "'aur": 1111,
  "%X": 1112,
  "arg": 1113,
  "'auteur": 1114,
  "En": 1115,
  "AS": 1116,
  "ee": 1117,
  "'autor": 1118,
  "'autres": 1119,
  "'autre": 1120,
  "'av": 1121,
  "mp": 1122,
  "Ġis": 1123,
  "cess": 1124,
  "'avais": 1125,
  "'avait": 1126,
  "ien": 1127,
  "ement": 1128,
  "'b": 1129,
  "'avoir": 1130,
  "%f": 1131,
  "'clock": 1132,
  "'d": 1133,
  "'ch": 1134,
  "pect": 1135,
  "any": 1136,
  "ied": 1137,
  "ates": 1138,
  "Al": 1139,
  "als": 1140,
  "'e": 1141,
  "rc": 1142,
  "'eau": 1143,
  "%p": 1144,
  "Tr": 1145,
  "CT": 1146,
  "'eb": 1147,
  "'ed": 1148,
  "red": 1149,
  "'eff": 1150,
  "que": 1151,
  "'elle": 1152,
  "atch": 1153,
  "Ob": 1154,
  "ating": 1155,
  "'el": 1156,
  "'em": 1157,
  "yd": 1158,
  "'emb": 1159,
  "DE": 1160,
  "\"}": 1161,
  "'en": 1162,
  "'emp": 1163,
  "ople": 1164,
  "Se": 1165,
  "RO": 1166,
  "its": 1167,
  "'end": 1168,
  "the": 1169,
  "'eng": 1170,
  "'ensemble": 1171,
  "\"},": 1172,
  "Ġfor": 1173,
  "'ent": 1174,
  "'entre": 1175,
  "Ġon": 1176,
  "ton": 1177,
  "oss": 1178,
  "'entreprise": 1179,
  "'entrÃ©e": 1180,
  "fter": 1181,
  "IS": 1182,
  "'env": 1183,
  "'environ": 1184,
  "'er": 1185,
  "Ġbe": 1186,
  "As": 1187,
  "vent": 1188,
  "ĠJ": 1189,
  "\"{": 1190,
  "'es": 1191,
  "ric": 1192,
  "ning": 1193,
  "ause": 1194,
  "'esp": 1195,
  "val": 1196,
  "'est": 1197,
  "pos": 1198,
  "'ess": 1199,
  "text": 1200,
  "'ex": 1201,
  "\"|": 1202,
  "'et": 1203,
  "line": 1204,
  "do": 1205,
  "vo": 1206,
  "#": 1207,
  "FF": 1208,
  "'exp": 1209,
  "ET": 1210,
  "By": 1211,
  "\"})": 1212,
  "tern": 1213,
  "olog": 1214,
  "'f": 1215,
  "\"})Ċ": 1216,
  "ood": 1217,
  "'h": 1218,
  "'fh": 1219,
  "ins": 1220,
  "'g": 1221,
  "#!/": 1222,
  "ki": 1223,
  "ca": 1224,
  "Ġst": 1225,
  "AP": 1226,
  "\"},Ċ": 1227,
  "'ha": 1228,
  "###": 1229,
  "ga": 1230,
  "'hab": 1231,
  "AD": 1232,
  "If": 1233,
  "\"};Ċ": 1234,
  "####": 1235,
  "ern": 1236,
  "'histoire": 1237,
  "\"}}": 1238,
  "Ġi": 1239,
  "ten": 1240,
  "'hui": 1241,
  "\"}Ċ": 1242,
  "'ho": 1243,
  "'homme": 1244,
  "ner": 1245,
  "ĠU": 1246,
  "'i": 1247,
  "\"Ċ": 1248,
  "ict": 1249,
  "erson": 1250,
  "ash": 1251,
  "add": 1252,
  "########": 1253,
  "'hum": 1254,
  "\"ĊĊ": 1255,
  "Ġz": 1256,
  "'id": 1257,
  "&icon": 1258,
  "\"ĊĊĊ": 1259,
  "ĠK": 1260,
  "'il": 1261,
  "'ici": 1262,
  "################": 1263,
  "'ils": 1264,
  "'ihi": 1265,
  "ED": 1266,
  "'im": 1267,
  "\"čĊ": 1268,
  "ada": 1269,
  "&img": 1270,
  "round": 1271,
  "'image": 1272,
  "oth": 1273,
  "\"čĊčĊ": 1274,
  "led": 1275,
  "&k": 1276,
  "Pro": 1277,
  "'ime": 1278,
  "'imm": 1279,
  "&l": 1280,
  "uy": 1281,
  "'imp": 1282,
  "#!": 1283,
  "'in": 1284,
  "On": 1285,
  "mm": 1286,
  "'import": 1287,
  "Con": 1288,
  "ics": 1289,
  "'inc": 1290,
  "#\"": 1291,
  "'ind": 1292,
  "ven": 1293,
  "#####": 1294,
  "ower": 1295,
  "'int": 1296,
  "'ing": 1297,
  "######": 1298,
  "'ins": 1299,
  "vers": 1300,
  "ular": 1301,
  "'inter": 1302,
  "ĠV": 1303,
  "fr": 1304,
  "'intÃ©rieur": 1305,
  "'l": 1306,
  "'is": 1307,
  "LL": 1308,
  "'ll": 1309,
  "'iz": 1310,
  "ful": 1311,
  "################################": 1312,
  "'label": 1313,
  "va": 1314,
  "############": 1315,
  "'m": 1316,
  "oj": 1317,
  "An": 1318,
  "'n": 1319,
  "'name": 1320,
  "Im": 1321,
  "ya": 1322,
  "Ġcon": 1323,
  "###Ċ": 1324,
  "sw": 1325,
  "ado": 1326,
  "rib": 1327,
  "ody": 1328,
  "#$": 1329,
  "'ng": 1330,
  "'nin": 1331,
  "#,": 1332,
  "wa": 1333,
  "ily": 1334,
  "#+": 1335,
  "'o": 1336,
  "'ny": 1337,
  "'nÄ±n": 1338,
  "ih": 1339,
  "ible": 1340,
  "#+#+": 1341,
  "Ġal": 1342,
  "'ob": 1343,
  "OT": 1344,
  "'objet": 1345,
  "ield": 1346,
  "'oc": 1347,
  "#.": 1348,
  "ues": 1349,
  "#[": 1350,
  "'occ": 1351,
  "'Ac": 1352,
  "'occasion": 1353,
  "#/": 1354,
  "arch": 1355,
  "'Ad": 1356,
  "da": 1357,
  "this": 1358,
  "#:": 1359,
  "'Af": 1360,
  "'oe": 1361,
  "'off": 1362,
  "ute": 1363,
  "ife": 1364,
  "'Ag": 1365,
  "'oge": 1366,
  "ba": 1367,
  "'on": 1368,
  "'ok": 1369,
  "#__": 1370,
  "'ol": 1371,
  "'om": 1372,
  "Ġan": 1373,
  "ough": 1374,
  "AB": 1375,
  "hed": 1376,
  "'An": 1377,
  "'ono": 1378,
  "'ont": 1379,
  "ments": 1380,
  "Wh": 1381,
  "'op": 1382,
  "Le": 1383,
  "name": 1384,
  "'or": 1385,
  "'And": 1386,
  "'Ang": 1387,
  "'ordre": 1388,
  "ku": 1389,
  "ii": 1390,
  "'organ": 1391,
  "read": 1392,
  "IG": 1393,
  "'origine": 1394,
  "'Ant": 1395,
  "UT": 1396,
  "'ou": 1397,
  "bd": 1398,
  "'r": 1399,
  "ua": 1400,
  "'re": 1401,
  "'Arc": 1402,
  "lt": 1403,
  "'p": 1404,
  "rough": 1405,
  "'s": 1406,
  "Name": 1407,
  "'q": 1408,
  "'t": 1409,
  "'Art": 1410,
  "Sh": 1411,
  "ren": 1412,
  "ko": 1413,
  "cept": 1414,
  "'As": 1415,
  "ator": 1416,
  "'Ass": 1417,
  "'u": 1418,
  "UR": 1419,
  "'Aut": 1420,
  "'type": 1421,
  "Ġyou": 1422,
  "gu": 1423,
  "Pl": 1424,
  "'un": 1425,
  "'B": 1426,
  "'Av": 1427,
  "'une": 1428,
  "day": 1429,
  "air": 1430,
  "'um": 1431,
  "'una": 1432,
  "Un": 1433,
  "'univers": 1434,
  "$": 1435,
  "'Connor": 1436,
  "'Con": 1437,
  "'ur": 1438,
  "'use": 1439,
  "$$": 1440,
  "'us": 1441,
  "'util": 1442,
  "po": 1443,
  "'ve": 1444,
  "Ġpro": 1445,
  "'utilisation": 1446,
  "Ġit": 1447,
  "ices": 1448,
  "my": 1449,
  "'w": 1450,
  "'y": 1451,
  "'El": 1452,
  "'wana": 1453,
  "els": 1454,
  "CO": 1455,
  "'wi": 1456,
  "'En": 1457,
  "ows": 1458,
  "Ġas": 1459,
  "ures": 1460,
  "'x": 1461,
  "ina": 1462,
  "'Es": 1463,
  "set": 1464,
  "ger": 1465,
  "'Esp": 1466,
  "II": 1467,
  "'z": 1468,
  "De": 1469,
  "CH": 1470,
  "Ġwh": 1471,
  "Com": 1472,
  "min": 1473,
  "'Ã¢ge": 1474,
  "mi": 1475,
  "'Ã©c": 1476,
  "self": 1477,
  "zi": 1478,
  "Ġse": 1479,
  "ities": 1480,
  "iet": 1481,
  "'Ex": 1482,
  "'Ã©cole": 1483,
  "#{": 1484,
  "gl": 1485,
  "fore": 1486,
  "Ġthat": 1487,
  "Qu": 1488,
  "'Ã©l": 1489,
  "ption": 1490,
  "'Ã©m": 1491,
  "ious": 1492,
  "IM": 1493,
  "ased": 1494,
  "'Ã©p": 1495,
  "Or": 1496,
  "lement": 1497,
  "ages": 1498,
  "#Ċ": 1499,
  "'Ã©poque": 1500,
  "ility": 1501,
  "'IGN": 1502,
  "'Ã©qu": 1503,
  "'Ã©t": 1504,
  "riv": 1505,
  "'Ã©quipe": 1506,
  "'Im": 1507,
  "#ĊĊ": 1508,
  "'Ã©tait": 1509,
  "'In": 1510,
  "Ġcom": 1511,
  "Ġwith": 1512,
  "HE": 1513,
  "'Ind": 1514,
  "US": 1515,
  "'Ã©tat": 1516,
  "ative": 1517,
  "$(": 1518,
  "'Ã©tÃ©": 1519,
  "'Ãªtre": 1520,
  "'Ã©v": 1521,
  "'Insee": 1522,
  "$$$$": 1523,
  "Ġne": 1524,
  "'Ã®le": 1525,
  "'Ir": 1526,
  "OS": 1527,
  "'Ãītat": 1528,
  "'Is": 1529,
  "$',": 1530,
  "'It": 1531,
  "'Ä±n": 1532,
  "ait": 1533,
  "alk": 1534,
  "$(\"": 1535,
  "$(\"#": 1536,
  "ting": 1537,
  "'Ital": 1538,
  "'Italia": 1539,
  "$(\".": 1540,
  "rol": 1541,
  "'Italie": 1542,
  "roup": 1543,
  "$,": 1544,
  "$('": 1545,
  "inal": 1546,
  "$('#": 1547,
  "$.": 1548,
  "IP": 1549,
  "ces": 1550,
  "'LBL": 1551,
  "At": 1552,
  "Is": 1553,
  "$/": 1554,
  "$('.": 1555,
  "ars": 1556,
  "IL": 1557,
  "uz": 1558,
  "ji": 1559,
  "ational": 1560,
  "col": 1561,
  "gs": 1562,
  "'Neill": 1563,
  "ets": 1564,
  "'Ne": 1565,
  "No": 1566,
  "ĠY": 1567,
  "ao": 1568,
  "view": 1569,
  "List": 1570,
  "$/,": 1571,
  "ident": 1572,
  "$:": 1573,
  "cr": 1574,
  "Ġen": 1575,
  "$\\": 1576,
  "'R": 1577,
  "AG": 1578,
  "aut": 1579,
  "String": 1580,
  "$_": 1581,
  "ole": 1582,
  "'RE": 1583,
  "Ġhe": 1584,
  "UN": 1585,
  "AA": 1586,
  "ask": 1587,
  "son": 1588,
  "Er": 1589,
  "ple": 1590,
  "bt": 1591,
  "'The": 1592,
  "oun": 1593,
  "Ġor": 1594,
  "ames": 1595,
  "hat": 1596,
  "'Un": 1597,
  "LO": 1598,
  "ica": 1599,
  "cont": 1600,
  "'Univers": 1601,
  "uss": 1602,
  "ava": 1603,
  "ref": 1604,
  "'W": 1605,
  "'We": 1606,
  "urs": 1607,
  "EM": 1608,
  "other": 1609,
  "ider": 1610,
  "(A": 1611,
  "SS": 1612,
  "Ad": 1613,
  "(AF": 1614,
  "Ġex": 1615,
  "'abb": 1616,
  "(AL": 1617,
  "ced": 1618,
  "urrent": 1619,
  "(AP": 1620,
  "oint": 1621,
  "att": 1622,
  "(API": 1623,
  "iy": 1624,
  "(APP": 1625,
  "(ARG": 1626,
  "cond": 1627,
  "ward": 1628,
  "(Abstract": 1629,
  "(Action": 1630,
  "htt": 1631,
  "'ach": 1632,
  "(Activity": 1633,
  "Ph": 1634,
  "(Adapter": 1635,
  "(App": 1636,
  "Ġqu": 1637,
  "(Api": 1638,
  "ines": 1639,
  "(Add": 1640,
  "(Application": 1641,
  "Ġle": 1642,
  "uj": 1643,
  "cz": 1644,
  "span": 1645,
  "(Array": 1646,
  "kl": 1647,
  "Ġat": 1648,
  "oid": 1649,
  "(Arrays": 1650,
  "PE": 1651,
  "man": 1652,
  "(B": 1653,
  "ene": 1654,
  "abel": 1655,
  "(Auth": 1656,
  "(Base": 1657,
  "(BASE": 1658,
  "(Be": 1659,
  "yle": 1660,
  "atic": 1661,
  "La": 1662,
  "ky": 1663,
  "Em": 1664,
  "(Big": 1665,
  "ution": 1666,
  "(Bit": 1667,
  "ane": 1668,
  "(Bitmap": 1669,
  "land": 1670,
  "gan": 1671,
  "(Block": 1672,
  "Ġthis": 1673,
  "for": 1674,
  "work": 1675,
  "(Book": 1676,
  "(Build": 1677,
  "(Boolean": 1678,
  "'aire": 1679,
  "(Box": 1680,
  "(By": 1681,
  "(Bundle": 1682,
  "gram": 1683,
  "(C": 1684,
  "UL": 1685,
  "Be": 1686,
  "(Byte": 1687,
  "irect": 1688,
  "arm": 1689,
  "ited": 1690,
  "ana": 1691,
  "oz": 1692,
  "(CC": 1693,
  "'album": 1694,
  "velop": 1695,
  "(CH": 1696,
  "(CG": 1697,
  "Res": 1698,
  "(CL": 1699,
  "return": 1700,
  "ature": 1701,
  "ource": 1702,
  "(COM": 1703,
  "Of": 1704,
  "(CON": 1705,
  "rs": 1706,
  "(CONFIG": 1707,
  "jo": 1708,
  "(CType": 1709,
  "(Calendar": 1710,
  "arn": 1711,
  "ctions": 1712,
  "(Call": 1713,
  "alse": 1714,
  "(Card": 1715,
  "den": 1716,
  "(Char": 1717,
  "(Car": 1718,
  "(Chat": 1719,
  "oo": 1720,
  "(Class": 1721,
  "Ġare": 1722,
  "uh": 1723,
  "new": 1724,
  "(Client": 1725,
  "'anc": 1726,
  "Ġch": 1727,
  "(Color": 1728,
  "(Code": 1729,
  "'anci": 1730,
  "So": 1731,
  "(Collection": 1732,
  "(Co": 1733,
  "iness": 1734,
  "(Collectors": 1735,
  "oi": 1736,
  "%": 1737,
  "(Command": 1738,
  "Ġtr": 1739,
  "(Common": 1740,
  "'anno": 1741,
  "OD": 1742,
  "(Component": 1743,
  "(Config": 1744,
  "CC": 1745,
  "rop": 1746,
  "(Configuration": 1747,
  "PS": 1748,
  "(Console": 1749,
  "ler": 1750,
  "%\"": 1751,
  "(Connection": 1752,
  "ats": 1753,
  "ument": 1754,
  "nb": 1755,
  "(Context": 1756,
  "(Const": 1757,
  "xx": 1758,
  "(Constants": 1759,
  "(Constant": 1760,
  "alth": 1761,
  "(D": 1762,
  "(Create": 1763,
  "si": 1764,
  "def": 1765,
  "ght": 1766,
  "ye": 1767,
  "(Cs": 1768,
  "ism": 1769,
  "%%": 1770,
  "(Current": 1771,
  "way": 1772,
  "Cont": 1773,
  "OL": 1774,
  "(DATA": 1775,
  "(DB": 1776,
  "%%%%": 1777,
  "(DE": 1778,
  "Ġsu": 1779,
  "(DEFAULT": 1780,
  "(Data": 1781,
  "bb": 1782,
  "vi": 1783,
  "(Date": 1784,
  "ense": 1785,
  "Ġun": 1786,
  "IV": 1787,
  "'arc": 1788,
  "'arch": 1789,
  "(Database": 1790,
  "yr": 1791,
  "cent": 1792,
  "err": 1793,
  "ween": 1794,
  "(Db": 1795,
  "'arm": 1796,
  "EL": 1797,
  "(Debug": 1798,
  "(Default": 1799,
  "'armÃ©e": 1800,
  "(E": 1801,
  "(Dialog": 1802,
  "gt": 1803,
  "El": 1804,
  "(Double": 1805,
  "%)": 1806,
  "essage": 1807,
  "Sc": 1808,
  "js": 1809,
  "NA": 1810,
  "(EIF": 1811,
  "My": 1812,
  "(ERR": 1813,
  "Type": 1814,
  "${": 1815,
  "(ERROR": 1816,
  "(EX": 1817,
  "ql": 1818,
  "(EXIT": 1819,
  "duct": 1820,
  "(Edit": 1821,
  "ized": 1822,
  "pi": 1823,
  "(Element": 1824,
  "OM": 1825,
  "(Entity": 1826,
  "pa": 1827,
  "(Enum": 1828,
  "%,": 1829,
  "aa": 1830,
  "(Error": 1831,
  "(Exception": 1832,
  "(F": 1833,
  "ouse": 1834,
  "(Event": 1835,
  "ott": 1836,
  "$Ċ": 1837,
  "%.": 1838,
  "'aug": 1839,
  "(False": 1840,
  "orn": 1841,
  "(FILE": 1842,
  "$ĊĊ": 1843,
  "ior": 1844,
  "(File": 1845,
  "(Field": 1846,
  "%;": 1847,
  "(G": 1848,
  "%!": 1849,
  "Up": 1850,
  "Ġcl": 1851,
  "aking": 1852,
  "(Float": 1853,
  "(Font": 1854,
  "(GL": 1855,
  "(Form": 1856,
  "%\",": 1857,
  "CE": 1858,
  "(GET": 1859,
  "%\",Ċ": 1860,
  "(GPIO": 1861,
  "%\">": 1862,
  "ength": 1863,
  "(GTK": 1864,
  "(Game": 1865,
  "zo": 1866,
  "(Get": 1867,
  "%\">Ċ": 1868,
  "ule": 1869,
  "ants": 1870,
  "(H": 1871,
  "(Global": 1872,
  "OP": 1873,
  "(Http": 1874,
  "(Graphics": 1875,
  "(Guid": 1876,
  "ror": 1877,
  "%%%": 1878,
  "(I": 1879,
  "itle": 1880,
  "%%%%%%%%": 1881,
  "rem": 1882,
  "ais": 1883,
  "ually": 1884,
  "IR": 1885,
  "%(": 1886,
  "%%%%%%%%%%%%%%%%": 1887,
  "(ID": 1888,
  "iu": 1889,
  "ote": 1890,
  "Ġwe": 1891,
  "(IC": 1892,
  "%),": 1893,
  "imes": 1894,
  "%%%%%%%%%%%%%%%%%%%%%%%%%%%%%%%%": 1895,
  "df": 1896,
  "(IF": 1897,
  "quest": 1898,
  "%'": 1899,
  "%).": 1900,
  "'da": 1901,
  "Fr": 1902,
  "raw": 1903,
  "chn": 1904,
  "%',": 1905,
  "roll": 1906,
  "'daki": 1907,
  "fig": 1908,
  "Data": 1909,
  "(IM": 1910,
  "(IN": 1911,
  "ason": 1912,
  "'dan": 1913,
  "Ġla": 1914,
  "(INT": 1915,
  "rt": 1916,
  "hip": 1917,
  "uring": 1918,
  "(IO": 1919,
  "'de": 1920,
  "hi": 1921,
  "(IP": 1922,
  "(IR": 1923,
  "'den": 1924,
  "sl": 1925,
  "atur": 1926,
  "(IS": 1927,
  "(Icons": 1928,
  "ional": 1929,
  "%-": 1930,
  "(Id": 1931,
  "%).ĊĊ": 1932,
  "(Il": 1933,
  "%);Ċ": 1934,
  "(Image": 1935,
  "(In": 1936,
  "ams": 1937,
  "(Im": 1938,
  "ault": 1939,
  "(Integer": 1940,
  "(Index": 1941,
  "cm": 1942,
  "til": 1943,
  "(Input": 1944,
  "(Int": 1945,
  "ify": 1946,
  "MP": 1947,
  "tic": 1948,
  "%)Ċ": 1949,
  "%)ĊĊ": 1950,
  "Col": 1951,
  "&": 1952,
  "ĠThe": 1953,
  "(Intent": 1954,
  "(J": 1955,
  "&#": 1956,
  "cy": 1957,
  "(Is": 1958,
  "(Item": 1959,
  "(It": 1960,
  "IF": 1961,
  "&&": 1962,
  "ML": 1963,
  "(JSON": 1964,
  "ush": 1965,
  "(JS": 1966,
  "(K": 1967,
  "%.ĊĊ": 1968,
  "ns": 1969,
  "%.Ċ": 1970,
  "kn": 1971,
  "(Job": 1972,
  "(Json": 1973,
  "%;Ċ": 1974,
  "'empl": 1975,
  "Do": 1976,
  "ather": 1977,
  "(KERN": 1978,
  "BC": 1979,
  "(Key": 1980,
  "(KEY": 1981,
  "ined": 1982,
  "(L": 1983,
  "%</": 1984,
  "lex": 1985,
  "%;čĊ": 1986,
  "reg": 1987,
  "ever": 1988,
  "%=": 1989,
  "'enf": 1990,
  "(Keys": 1991,
  "TR": 1992,
  "bi": 1993,
  "(LOG": 1994,
  "%@": 1995,
  "ustom": 1996,
  "%\\": 1997,
  "tn": 1998,
  "ives": 1999,
  "(List": 2000,
  "(Label": 2001,
  "(Layout": 2002,
  "(Level": 2003,
  "gn": 2004,
  "(Local": 2005,
  "BA": 2006,
  "ara": 2007,
  "(Long": 2008,
  "(M": 2009,
  "(Log": 2010,
  "(Locale": 2011,
  "load": 2012,
  "HT": 2013,
  "ron": 2014,
  "(Login": 2015,
  "Ġif": 2016,
  "ato": 2017,
  "ared": 2018,
  "ital": 2019,
  "ament": 2020,
  "'ep": 2021,
  "(MAX": 2022,
  "(Map": 2023,
  "(Main": 2024,
  "%^": 2025,
  "(MSG": 2026,
  "vis": 2027,
  "'equ": 2028,
  "(Math": 2029,
  "ception": 2030,
  "(Mat": 2031,
  "(Material": 2032,
  "'era": 2033,
  "(Me": 2034,
  "(Max": 2035,
  "Ġfrom": 2036,
  "'esc": 2037,
  "Ġwas": 2038,
  "(Media": 2039,
  "org": 2040,
  "ccess": 2041,
  "(Menu": 2042,
  "oe": 2043,
  "Ġdo": 2044,
  "Ġsh": 2045,
  "(Message": 2046,
  "ember": 2047,
  "ino": 2048,
  "(Method": 2049,
  "Ġnot": 2050,
  "Ġby": 2051,
  "MS": 2052,
  "(Mock": 2053,
  "(Model": 2054,
  "Ed": 2055,
  "(Mod": 2056,
  "(N": 2057,
  "uv": 2058,
  "(Mouse": 2059,
  "View": 2060,
  "(My": 2061,
  "data": 2062,
  "(NULL": 2063,
  "%ï¼Į": 2064,
  "%Ċ": 2065,
  "ln": 2066,
  "(NO": 2067,
  "raph": 2068,
  "(Name": 2069,
  "'ext": 2070,
  "%ãĢĤ": 2071,
  "mo": 2072,
  "(NS": 2073,
  "amb": 2074,
  "PC": 2075,
  "(Node": 2076,
  "%ĊĊ": 2077,
  "use": 2078,
  "(New": 2079,
  "ervice": 2080,
  "PI": 2081,
  "Pr": 2082,
  "pm": 2083,
  "(O": 2084,
  "'gc": 2085,
  "(None": 2086,
  "ample": 2087,
  "ters": 2088,
  "(Number": 2089,
  "(No": 2090,
  "fa": 2091,
  "(Object": 2092,
  "ium": 2093,
  "sm": 2094,
  "play": 2095,
  "(OP": 2096,
  "&(": 2097,
  "This": 2098,
  "umm": 2099,
  "(OS": 2100,
  "TE": 2101,
  "&)": 2102,
  "(P": 2103,
  "ponse": 2104,
  "(Of": 2105,
  "Ġpl": 2106,
  "&,": 2107,
  "(Op": 2108,
  "idth": 2109,
  "date": 2110,
  "(Order": 2111,
  "ateg": 2112,
  "'habitants": 2113,
  "'hi": 2114,
  "EC": 2115,
  "(On": 2116,
  "rd": 2117,
  "(PDO": 2118,
  "gi": 2119,
  "(PORT": 2120,
  "ince": 2121,
  "(PR": 2122,
  "'": 2123,
  "EX": 2124,
  "(PRO": 2125,
  "(Page": 2126,
  "(Path": 2127,
  "'honneur": 2128,
  "(Player": 2129,
  "uff": 2130,
  "(Person": 2131,
  "'\"": 2132,
  "(Point": 2133,
  "era": 2134,
  "ju": 2135,
  "(Pos": 2136,
  "(Q": 2137,
  "CD": 2138,
  "(Post": 2139,
  "(Product": 2140,
  "Us": 2141,
  "atus": 2142,
  "ae": 2143,
  "(Property": 2144,
  "ĠZ": 2145,
  "(Py": 2146,
  "ience": 2147,
  "''": 2148,
  "(QString": 2149,
  "(Qt": 2150,
  "(R": 2151,
  "pre": 2152,
  "XX": 2153,
  "Ġpr": 2154,
  "ral": 2155,
  "(Query": 2156,
  "MA": 2157,
  "ired": 2158,
  "ness": 2159,
  "(RE": 2160,
  "DA": 2161,
  "(Request": 2162,
  "UE": 2163,
  "(REG": 2164,
  "var": 2165,
  "TH": 2166,
  "')": 2167,
  "(Rect": 2168,
  "class": 2169,
  "'(": 2170,
  "sa": 2171,
  "(Resource": 2172,
  "&_": 2173,
  "(Re": 2174,
  "(S": 2175,
  "lease": 2176,
  "ray": 2177,
  "(Response": 2178,
  "Am": 2179,
  "(Rem": 2180,
  "med": 2181,
  "(Result": 2182,
  "lu": 2183,
  "uck": 2184,
  "(Role": 2185,
  "'))": 2186,
  "(Runtime": 2187,
  "Ab": 2188,
  "ved": 2189,
  "ister": 2190,
  "ird": 2191,
  "dy": 2192,
  "(SDL": 2193,
  "(SE": 2194,
  "ross": 2195,
  "(SIG": 2196,
  "'importance": 2197,
  "ama": 2198,
  "(SK": 2199,
  "(SQL": 2200,
  "db": 2201,
  "(ST": 2202,
  "public": 2203,
  "xy": 2204,
  "Ġme": 2205,
  "net": 2206,
  "(Search": 2207,
  "CL": 2208,
  "(Sender": 2209,
  "'inf": 2210,
  "'),": 2211,
  "(Server": 2212,
  "ittle": 2213,
  "SP": 2214,
  "(Session": 2215,
  "(Service": 2216,
  "TO": 2217,
  "hes": 2218,
  "Ġcan": 2219,
  "PO": 2220,
  "(Set": 2221,
  "(Spring": 2222,
  "').": 2223,
  "TD": 2224,
  "(String": 2225,
  "(Sql": 2226,
  "'interno": 2227,
  "leg": 2228,
  "(Status": 2229,
  "(State": 2230,
  "(System": 2231,
  "(T": 2232,
  "Ġab": 2233,
  "(Str": 2234,
  "(St": 2235,
  "ology": 2236,
  "mt": 2237,
  "ender": 2238,
  "(Sub": 2239,
  "BD": 2240,
  "(TAG": 2241,
  "OW": 2242,
  "di": 2243,
  "');": 2244,
  "une": 2245,
  "CP": 2246,
  "UM": 2247,
  "inc": 2248,
  "Ġhave": 2249,
  "not": 2250,
  "less": 2251,
  "(TEST": 2252,
  "ste": 2253,
  "(TEXT": 2254,
  "(TM": 2255,
  "(TR": 2256,
  "cd": 2257,
  "ency": 2258,
  "(Table": 2259,
  "Ġus": 2260,
  "(Test": 2261,
  "(Tag": 2262,
  "(Task": 2263,
  "DF": 2264,
  "(The": 2265,
  "(Text": 2266,
  "PP": 2267,
  "_t": 2268,
  "ways": 2269,
  "(This": 2270,
  "'na": 2271,
  "(Thread": 2272,
  "(Time": 2273,
  "gen": 2274,
  "&Ċ": 2275,
  "(Type": 2276,
  "(Token": 2277,
  "(U": 2278,
  "'nd": 2279,
  "(Tree": 2280,
  "Fl": 2281,
  "'nde": 2282,
  "(True": 2283,
  "'\",": 2284,
  "AY": 2285,
  "CR": 2286,
  "FA": 2287,
  "(To": 2288,
  "rist": 2289,
  "'ne": 2290,
  "PL": 2291,
  "'',": 2292,
  "RA": 2293,
  "(UI": 2294,
  "Ġyour": 2295,
  "'#": 2296,
  "'$": 2297,
  "(URL": 2298,
  "(UINT": 2299,
  "uro": 2300,
  "Text": 2301,
  "por": 2302,
  "',": 2303,
  "'%": 2304,
  "oot": 2305,
  "(USER": 2306,
  "'nun": 2307,
  "(UUID": 2308,
  "'''": 2309,
  "(User": 2310,
  "(Un": 2311,
  "Ġad": 2312,
  "ida": 2313,
  "(Unit": 2314,
  "(V": 2315,
  "'''Ċ": 2316,
  "','": 2317,
  "ili": 2318,
  "(Uri": 2319,
  "CA": 2320,
  "word": 2321,
  "ills": 2322,
  "urch": 2323,
  "ream": 2324,
  "ele": 2325,
  "(Utils": 2326,
  "(Unity": 2327,
  "Me": 2328,
  "(Value": 2329,
  "(View": 2330,
  "GB": 2331,
  "'''ĊĊ": 2332,
  "hn": 2333,
  "')).": 2334,
  "bu": 2335,
  "EE": 2336,
  "(Vector": 2337,
  "(W": 2338,
  "rr": 2339,
  "lection": 2340,
  "(Vec": 2341,
  "(VAR": 2342,
  "(X": 2343,
  "')\"": 2344,
  "(Web": 2345,
  "'occupation": 2346,
  "')(": 2347,
  "(Y": 2348,
  "(Window": 2349,
  "'.": 2350,
  "'-": 2351,
  "'oct": 2352,
  "')),Ċ": 2353,
  "Ġx": 2354,
  "(World": 2355,
  "(Vue": 2356,
  "ĠQ": 2357,
  "(Z": 2358,
  "rl": 2359,
  "eter": 2360,
  "(XML": 2361,
  "stand": 2362,
  "(Xml": 2363,
  "Ġar": 2364,
  "thing": 2365,
  "'));": 2366,
  "ought": 2367,
  "(Yii": 2368,
  "unction": 2369,
  "'));Ċ": 2370,
  "hl": 2371,
  "')->": 2372,
  "(a": 2373,
  "enn": 2374,
  "sg": 2375,
  "'/": 2376,
  "':": 2377,
  "'))Ċ": 2378,
  "ese": 2379,
  "'));ĊĊ": 2380,
  "(abs": 2381,
  "oci": 2382,
  "'))ĊĊ": 2383,
  "(ab": 2384,
  "icht": 2385,
  "'),Ċ": 2386,
  "IA": 2387,
  "hu": 2388,
  "(ac": 2389,
  "(action": 2390,
  "(account": 2391,
  "akes": 2392,
  "';": 2393,
  "(acc": 2394,
  "Val": 2395,
  "(access": 2396,
  "IZ": 2397,
  "(act": 2398,
  "'),čĊ": 2399,
  "ems": 2400,
  "Bl": 2401,
  "ĠIn": 2402,
  "isk": 2403,
  "OK": 2404,
  "(actions": 2405,
  "ves": 2406,
  "'opp": 2407,
  "(activity": 2408,
  "(add": 2409,
  "(active": 2410,
  "')[": 2411,
  "(actual": 2412,
  "(address": 2413,
  "(ad": 2414,
  "').Ċ": 2415,
  "'):Ċ": 2416,
  "order": 2417,
  "DS": 2418,
  "(adapter": 2419,
  "uth": 2420,
  "(addr": 2421,
  "'):": 2422,
  "iver": 2423,
  "cul": 2424,
  "Ag": 2425,
  "');Ċ": 2426,
  "(admin": 2427,
  "(adj": 2428,
  "unt": 2429,
  "');ĊĊ": 2430,
  "'oro": 2431,
  "Sp": 2432,
  "(all": 2433,
  "BS": 2434,
  "(age": 2435,
  "'ouest": 2436,
  "Par": 2437,
  "umber": 2438,
  "(agent": 2439,
  "bre": 2440,
  "(al": 2441,
  "(ai": 2442,
  "omen": 2443,
  "AV": 2444,
  "Ġall": 2445,
  "Ġel": 2446,
  "');čĊ": 2447,
  "chen": 2448,
  "'ouv": 2449,
  "(alert": 2450,
  "OC": 2451,
  "pg": 2452,
  "(alpha": 2453,
  "ĠTh": 2454,
  "IB": 2455,
  "(always": 2456,
  "ini": 2457,
  "')]": 2458,
  "'){Ċ": 2459,
  "(am": 2460,
  "(amount": 2461,
  "user": 2462,
  "ists": 2463,
  "(an": 2464,
  "'){": 2465,
  "'+": 2466,
  "(and": 2467,
  "(ans": 2468,
  "iter": 2469,
  "')}}": 2470,
  "QL": 2471,
  "over": 2472,
  "(angle": 2473,
  "(android": 2474,
  "')}": 2475,
  "TS": 2476,
  "(answer": 2477,
  "ware": 2478,
  "(app": 2479,
  "')Ċ": 2480,
  "DB": 2481,
  "face": 2482,
  "ides": 2483,
  "(any": 2484,
  "(api": 2485,
  "')ĊĊ": 2486,
  "CS": 2487,
  "',$": 2488,
  "(ap": 2489,
  "')ĊĊĊ": 2490,
  "'ta": 2491,
  "NS": 2492,
  "(arg": 2493,
  "ization": 2494,
  "'te": 2495,
  "(args": 2496,
  "(application": 2497,
  "(ar": 2498,
  "rm": 2499,
  "'th": 2500,
  "(argv": 2501,
  "(area": 2502,
  "(arr": 2503,
  "BN": 2504,
  "')čĊ": 2505,
  "ION": 2506,
  "(array": 2507,
  "'*": 2508,
  "Fe": 2509,
  "(argc": 2510,
  "mb": 2511,
  "'ult": 2512,
  "html": 2513,
  "(as": 2514,
  "const": 2515,
  "(arguments": 2516,
  "'ultimo": 2517,
  "cs": 2518,
  "(async": 2519,
  "men": 2520,
  "ving": 2521,
  "TP": 2522,
  "ique": 2523,
  "(at": 2524,
  "(article": 2525,
  "',\"": 2526,
  "back": 2527,
  "ros": 2528,
  "(asset": 2529,
  "(ast": 2530,
  "'.$": 2531,
  "','$": 2532,
  "arget": 2533,
  "(att": 2534,
  "hor": 2535,
  "Ġnew": 2536,
  "',[": 2537,
  "(attr": 2538,
  "(auto": 2539,
  "',Ċ": 2540,
  "(attribute": 2541,
  "'universitÃ©": 2542,
  "',['": 2543,
  "Ġres": 2544,
  "(attrs": 2545,
  "(auth": 2546,
  "',ĊĊ": 2547,
  "elt": 2548,
  "(audio": 2549,
  "ump": 2550,
  "Il": 2551,
  "comm": 2552,
  "ases": 2553,
  "UI": 2554,
  "Ġwill": 2555,
  "(author": 2556,
  "ita": 2557,
  "'uomo": 2558,
  "'url": 2559,
  "Ġgo": 2560,
  "(b": 2561,
  "(aux": 2562,
  "(av": 2563,
  "':'": 2564,
  "',čĊ": 2565,
  "(await": 2566,
  "UP": 2567,
  "(axis": 2568,
  "(avg": 2569,
  "(base": 2570,
  "(ax": 2571,
  "param": 2572,
  "Ġso": 2573,
  "'.Ċ": 2574,
  "(back": 2575,
  "IO": 2576,
  "ential": 2577,
  "']": 2578,
  "(bar": 2579,
  "(batch": 2580,
  "'\\": 2581,
  "ift": 2582,
  "'.ĊĊ": 2583,
  "opy": 2584,
  "(bb": 2585,
  "ished": 2586,
  "(be": 2587,
  "'])": 2588,
  "erg": 2589,
  "(bean": 2590,
  "(begin": 2591,
  "'/>Ċ": 2592,
  "(best": 2593,
  "(bg": 2594,
  "cle": 2595,
  "':Ċ": 2596,
  "(big": 2597,
  "ĠX": 2598,
  "(bin": 2599,
  "KE": 2600,
  "(board": 2601,
  "(binding": 2602,
  "(body": 2603,
  "(bit": 2604,
  "'ya": 2605,
  "(block": 2606,
  "right": 2607,
  "(bitmap": 2608,
  "'=>": 2609,
  "Get": 2610,
  "(bl": 2611,
  "';Ċ": 2612,
  "(blank": 2613,
  "':čĊ": 2614,
  "(bool": 2615,
  "'ye": 2616,
  "'=>$": 2617,
  "';ĊĊ": 2618,
  "ours": 2619,
  "'],": 2620,
  "'=>'": 2621,
  "';ĊĊĊ": 2622,
  "(book": 2623,
  "aterial": 2624,
  "(boolean": 2625,
  "wi": 2626,
  "'>": 2627,
  "ici": 2628,
  "'<": 2629,
  "'].": 2630,
  "(boost": 2631,
  "ains": 2632,
  "(bot": 2633,
  "'</": 2634,
  "';čĊ": 2635,
  "(buf": 2636,
  "(box": 2637,
  "ico": 2638,
  "iment": 2639,
  "'Ã©ch": 2640,
  "'></": 2641,
  "(br": 2642,
  "adi": 2643,
  "(bp": 2644,
  "(buffer": 2645,
  "Go": 2646,
  "(bs": 2647,
  "type": 2648,
  "(btn": 2649,
  "(bt": 2650,
  "'Ã©d": 2651,
  "ality": 2652,
  "su": 2653,
  "'=": 2654,
  "'Ã©glise": 2655,
  "ified": 2656,
  "'Ã©g": 2657,
  "(buff": 2658,
  "(builder": 2659,
  "action": 2660,
  "'];": 2661,
  "(build": 2662,
  "ayer": 2663,
  "ession": 2664,
  "(c": 2665,
  "(bytes": 2666,
  "rag": 2667,
  "(bundle": 2668,
  "(button": 2669,
  "(byte": 2670,
  "'Ã©lection": 2671,
  "umn": 2672,
  "(bus": 2673,
  "(by": 2674,
  "'><": 2675,
  "ls": 2676,
  "You": 2677,
  "lete": 2678,
  "'>\"": 2679,
  "'Ã©mission": 2680,
  "ots": 2681,
  "'>Ċ": 2682,
  "(cache": 2683,
  "(callback": 2684,
  "Ġte": 2685,
  "Ġha": 2686,
  "(call": 2687,
  "']['": 2688,
  "(cal": 2689,
  "iving": 2690,
  "ano": 2691,
  "'?": 2692,
  "(cam": 2693,
  "(camera": 2694,
  "Ġper": 2695,
  "Ġdes": 2696,
  "(canvas": 2697,
  "(can": 2698,
  "kg": 2699,
  "ero": 2700,
  "ando": 2701,
  "(cap": 2702,
  "(card": 2703,
  "(car": 2704,
  "'Ã©tabl": 2705,
  "kk": 2706,
  "iven": 2707,
  "Te": 2708,
  "cer": 2709,
  "(category": 2710,
  "(cart": 2711,
  "(case": 2712,
  "(cat": 2713,
  "ken": 2714,
  "search": 2715,
  "zz": 2716,
  "DR": 2717,
  "(cb": 2718,
  "MM": 2719,
  "(cell": 2720,
  "(ch": 2721,
  "(cc": 2722,
  "key": 2723,
  "itor": 2724,
  "(cd": 2725,
  "rap": 2726,
  "ante": 2727,
  "(char": 2728,
  "(center": 2729,
  "(cfg": 2730,
  "(cf": 2731,
  "py": 2732,
  "For": 2733,
  "TA": 2734,
  "ences": 2735,
  "CI": 2736,
  "ds": 2737,
  "(check": 2738,
  "(child": 2739,
  "(chan": 2740,
  "(channel": 2741,
  "(change": 2742,
  "ends": 2743,
  "PA": 2744,
  "(chat": 2745,
  "IE": 2746,
  "ope": 2747,
  "Ne": 2748,
  "(children": 2749,
  "Co": 2750,
  "(cl": 2751,
  "ission": 2752,
  "(chr": 2753,
  "(class": 2754,
  "FO": 2755,
  "(chunk": 2756,
  "www": 2757,
  "(ci": 2758,
  "HO": 2759,
  "ido": 2760,
  "sv": 2761,
  "(cid": 2762,
  "ente": 2763,
  "(client": 2764,
  "PR": 2765,
  "(cin": 2766,
  "dz": 2767,
  "acter": 2768,
  "(AT": 2769,
  "(city": 2770,
  "value": 2771,
  "(cls": 2772,
  "ention": 2773,
  "inn": 2774,
  "opt": 2775,
  "']))": 2776,
  "(cli": 2777,
  "ez": 2778,
  "dt": 2779,
  "(click": 2780,
  "(ActionEvent": 2781,
  "ouble": 2782,
  "(co": 2783,
  "(cmd": 2784,
  "(code": 2785,
  "Ġclass": 2786,
  "(cm": 2787,
  "(col": 2788,
  "(cluster": 2789,
  "ader": 2790,
  "(color": 2791,
  "(cnt": 2792,
  "inter": 2793,
  "ids": 2794,
  "ately": 2795,
  "(clk": 2796,
  "alt": 2797,
  "AX": 2798,
  "mg": 2799,
  "tain": 2800,
  "(command": 2801,
  "(column": 2802,
  "(collection": 2803,
  "Ġbut": 2804,
  "'[": 2805,
  "(com": 2806,
  "arge": 2807,
  "(columns": 2808,
  "(Arg": 2809,
  "ically": 2810,
  "md": 2811,
  "(comment": 2812,
  "cu": 2813,
  "(comp": 2814,
  "(component": 2815,
  "(config": 2816,
  "(con": 2817,
  "(ArrayList": 2818,
  "oad": 2819,
  "Ind": 2820,
  "'])->": 2821,
  "aster": 2822,
  "(company": 2823,
  "Ġup": 2824,
  "']);": 2825,
  "ume": 2826,
  "']).": 2827,
  "(const": 2828,
  "']);Ċ": 2829,
  "(conf": 2830,
  "(Art": 2831,
  "(condition": 2832,
  "(conn": 2833,
  "ocument": 2834,
  "'])Ċ": 2835,
  "(connection": 2836,
  "FT": 2837,
  "string": 2838,
  "(configuration": 2839,
  "Ġget": 2840,
  "Ġout": 2841,
  "(content": 2842,
  "(context": 2843,
  "bers": 2844,
  "(console": 2845,
  "ager": 2846,
  "BO": 2847,
  "'])ĊĊ": 2848,
  "'],Ċ": 2849,
  "aff": 2850,
  "FL": 2851,
  "UB": 2852,
  "(cont": 2853,
  "(container": 2854,
  "print": 2855,
  "(contact": 2856,
  "erc": 2857,
  "Ġmy": 2858,
  "met": 2859,
  "']->": 2860,
  "(control": 2861,
  "(BigDecimal": 2862,
  "Ġpar": 2863,
  "(count": 2864,
  "(controller": 2865,
  "(convert": 2866,
  "'][": 2867,
  "FC": 2868,
  "fun": 2869,
  "(copy": 2870,
  "'].\"": 2871,
  "ws": 2872,
  "oney": 2873,
  "ining": 2874,
  "(core": 2875,
  "(cors": 2876,
  "'].'": 2877,
  "']/": 2878,
  "(cost": 2879,
  "(counter": 2880,
  "(course": 2881,
  "']:": 2882,
  "(cp": 2883,
  "']:Ċ": 2884,
  "'];Ċ": 2885,
  "orld": 2886,
  "Ġhas": 2887,
  "(BuildContext": 2888,
  "(cpu": 2889,
  "ati": 2890,
  "(create": 2891,
  "(cr": 2892,
  "'];ĊĊ": 2893,
  "(ctx": 2894,
  "fs": 2895,
  "(crate": 2896,
  "ients": 2897,
  "(cur": 2898,
  "Value": 2899,
  "ape": 2900,
  "(current": 2901,
  "(cs": 2902,
  "(css": 2903,
  "ali": 2904,
  "'_": 2905,
  "(csv": 2906,
  "(curr": 2907,
  "And": 2908,
  "(ct": 2909,
  "'];čĊ": 2910,
  "TC": 2911,
  "ley": 2912,
  "']=": 2913,
  "(ByVal": 2914,
  "(cre": 2915,
  "(d": 2916,
  "ME": 2917,
  "uit": 2918,
  "(cursor": 2919,
  "'][$": 2920,
  "PT": 2921,
  "ohn": 2922,
  "DD": 2923,
  "(data": 2924,
  "head": 2925,
  "ling": 2926,
  "Ġcont": 2927,
  "(customer": 2928,
  "ura": 2929,
  "(custom": 2930,
  "ett": 2931,
  "ella": 2932,
  "(cv": 2933,
  "']Ċ": 2934,
  "pc": 2935,
  "NO": 2936,
  "CM": 2937,
  "ideo": 2938,
  "Ġsa": 2939,
  "(date": 2940,
  "Su": 2941,
  "(cx": 2942,
  "']]": 2943,
  "']ĊĊ": 2944,
  "(dat": 2945,
  "mu": 2946,
  "']}": 2947,
  "(db": 2948,
  "aps": 2949,
  "off": 2950,
  "DP": 2951,
  "(dataset": 2952,
  "ently": 2953,
  "IX": 2954,
  "(database": 2955,
  "(de": 2956,
  "bar": 2957,
  "PM": 2958,
  "(day": 2959,
  "xi": 2960,
  "'^": 2961,
  "']čĊ": 2962,
  "(def": 2963,
  "Br": 2964,
  "(days": 2965,
  "but": 2966,
  "(default": 2967,
  "(dc": 2968,
  "(dd": 2969,
  "SA": 2970,
  "Ġreturn": 2971,
  "_s": 2972,
  "ination": 2973,
  "(dec": 2974,
  "(debug": 2975,
  "CN": 2976,
  "ards": 2977,
  "log": 2978,
  "But": 2979,
  "ips": 2980,
  "pu": 2981,
  "(defun": 2982,
  "(del": 2983,
  "SD": 2984,
  "zen": 2985,
  "ground": 2986,
  "(delete": 2987,
  "(delta": 2988,
  "ably": 2989,
  "vs": 2990,
  "(dep": 2991,
  "_d": 2992,
  "Bo": 2993,
  "(depth": 2994,
  "(Cl": 2995,
  "(des": 2996,
  "(df": 2997,
  "(description": 2998,
  "(desc": 2999,
  "(dest": 3000,
  "(dev": 3001,
  "Item": 3002,
  "(device": 3003,
  "https": 3004,
  "(destination": 3005,
  "Ġque": 3006,
  "(det": 3007,
  "ability": 3008,
  "ĠSt": 3009,
  "(dir": 3010,
  "LC": 3011,
  "(di": 3012,
  "ided": 3013,
  "(dict": 3014,
  "ING": 3015,
  "vert": 3016,
  "(dic": 3017,
  "Ġdis": 3018,
  "(dim": 3019,
  "(diff": 3020,
  "aim": 3021,
  "lar": 3022,
  "(direction": 3023,
  "wy": 3024,
  "(directory": 3025,
  "ala": 3026,
  "(dis": 3027,
  "(dirname": 3028,
  "(dist": 3029,
  "(display": 3030,
  "nu": 3031,
  "(dispatch": 3032,
  "Gr": 3033,
  "dr": 3034,
  "(disposing": 3035,
  "(document": 3036,
  "(div": 3037,
  "HA": 3038,
  "_m": 3039,
  "(dl": 3040,
  "(distance": 3041,
  "(doc": 3042,
  "Object": 3043,
  "Sl": 3044,
  "MT": 3045,
  "RL": 3046,
  "(double": 3047,
  "(dm": 3048,
  "Ġund": 3049,
  "ched": 3050,
  "(do": 3051,
  "ury": 3052,
  "All": 3053,
  "Gl": 3054,
  "ione": 3055,
  "(dom": 3056,
  "ret": 3057,
  "DC": 3058,
  "(dp": 3059,
  "Ġet": 3060,
  "(domain": 3061,
  "(done": 3062,
  "ived": 3063,
  "Na": 3064,
  "(dot": 3065,
  "emb": 3066,
  "arr": 3067,
  "(dr": 3068,
  "Oh": 3069,
  "(driver": 3070,
  "yg": 3071,
  "(draw": 3072,
  "(dt": 3073,
  "(ds": 3074,
  "(e": 3075,
  "irl": 3076,
  "(dst": 3077,
  "(drop": 3078,
  "ude": 3079,
  "Ġno": 3080,
  "ering": 3081,
  "(dto": 3082,
  "ben": 3083,
  "km": 3084,
  "iod": 3085,
  "_c": 3086,
  "ige": 3087,
  "(duration": 3088,
  "CK": 3089,
  "(dw": 3090,
  "(dx": 3091,
  "(el": 3092,
  "(ec": 3093,
  "irt": 3094,
  "(element": 3095,
  "Ġcomp": 3096,
  "(ed": 3097,
  "irm": 3098,
  "(edge": 3099,
  "(edit": 3100,
  "(email": 3101,
  "(DIR": 3102,
  "(editor": 3103,
  "(elem": 3104,
  "(ele": 3105,
  "(en": 3106,
  "▁t": 3107,
  "ios": 3108,
  "SC": 3109,
  "âĢĻs": 3110,
  "Ġman": 3111,
  "(end": 3112,
  "fect": 3113,
  "(em": 3114,
  "VD": 3115,
  "Man": 3116,
  "(DateTime": 3117,
  "Ge": 3118,
  "(entity": 3119,
  "(emp": 3120,
  "(empty": 3121,
  "Ġim": 3122,
  "Ġsp": 3123,
  "(employee": 3124,
  "ision": 3125,
  "Ġam": 3126,
  "(enc": 3127,
  "(entry": 3128,
  "itions": 3129,
  "ena": 3130,
  "▁a": 3131,
  "(env": 3132,
  "(err": 3133,
  "(engine": 3134,
  "ieve": 3135,
  "(ent": 3136,
  "eh": 3137,
  "(error": 3138,
  "(DialogInterface": 3139,
  "(ep": 3140,
  "(equal": 3141,
  "(eq": 3142,
  "SO": 3143,
  "TV": 3144,
  "Ġpre": 3145,
  "kan": 3146,
  "(er": 3147,
  "(EC": 3148,
  "GE": 3149,
  "(event": 3150,
  "hy": 3151,
  "Key": 3152,
  "ances": 3153,
  "(errno": 3154,
  "_p": 3155,
  "(es": 3156,
  "cn": 3157,
  "(ex": 3158,
  "(errors": 3159,
  "(END": 3160,
  "Ġro": 3161,
  "How": 3162,
  "(ev": 3163,
  "(est": 3164,
  "(et": 3165,
  "tring": 3166,
  "(evt": 3167,
  "App": 3168,
  "(expected": 3169,
  "What": 3170,
  "(eval": 3171,
  "idd": 3172,
  "ories": 3173,
  "fic": 3174,
  "(events": 3175,
  "(exp": 3176,
  "Exception": 3177,
  "(f": 3178,
  "(exc": 3179,
  "(exception": 3180,
  "(false": 3181,
  "(exports": 3182,
  "(expr": 3183,
  "mit": 3184,
  "(express": 3185,
  "vious": 3186,
  "ora": 3187,
  "(ext": 3188,
  "Ġem": 3189,
  "UD": 3190,
  "(fd": 3191,
  "DO": 3192,
  "ille": 3193,
  "(face": 3194,
  "Gu": 3195,
  "(ErrorMessage": 3196,
  "(fake": 3197,
  "(feature": 3198,
  "(fc": 3199,
  "QU": 3200,
  "Ġint": 3201,
  "(fe": 3202,
  "hel": 3203,
  "(fetch": 3204,
  "itch": 3205,
  "item": 3206,
  "(file": 3207,
  "(field": 3208,
  "GL": 3209,
  "Pe": 3210,
  "cho": 3211,
  "(ff": 3212,
  "PD": 3213,
  "(filename": 3214,
  "(fi": 3215,
  "yy": 3216,
  "itive": 3217,
  "(fid": 3218,
  "outh": 3219,
  "ending": 3220,
  "gb": 3221,
  "(fig": 3222,
  "RI": 3223,
  "(fields": 3224,
  "(filter": 3225,
  "url": 3226,
  "(figsize": 3227,
  "Ke": 3228,
  "Hz": 3229,
  "(final": 3230,
  "Op": 3231,
  "AF": 3232,
  "(first": 3233,
  "(Fl": 3234,
  "yo": 3235,
  "iron": 3236,
  "oa": 3237,
  "(files": 3238,
  "(Fig": 3239,
  "(float": 3240,
  "(filepath": 3241,
  "(find": 3242,
  "vy": 3243,
  "apt": 3244,
  "ira": 3245,
  "php": 3246,
  "aper": 3247,
  "(fin": 3248,
  "ands": 3249,
  "Set": 3250,
  "LA": 3251,
  "(flag": 3252,
  "(fmt": 3253,
  "(fl": 3254,
  "(fn": 3255,
  "(for": 3256,
  "SM": 3257,
  "MB": 3258,
  "(form": 3259,
  "(font": 3260,
  "(format": 3261,
  "oud": 3262,
  "(folder": 3263,
  "ones": 3264,
  "▁s": 3265,
  "Ac": 3266,
  "(fname": 3267,
  "(fp": 3268,
  "Dr": 3269,
  "(frame": 3270,
  "(from": 3271,
  "orth": 3272,
  "(foo": 3273,
  "joy": 3274,
  "bf": 3275,
  "(GameObject": 3276,
  "ris": 3277,
  "(function": 3278,
  "(func": 3279,
  "(found": 3280,
  "(g": 3281,
  "ches": 3282,
  "ready": 3283,
  "_l": 3284,
  "(fr": 3285,
  "_f": 3286,
  "ĠCh": 3287,
  "(fs": 3288,
  "(game": 3289,
  "vol": 3290,
  "MD": 3291,
  "(full": 3292,
  "uct": 3293,
  "(ft": 3294,
  "Ġmore": 3295,
  "(get": 3296,
  "ENT": 3297,
  "(fun": 3298,
  "ani": 3299,
  "(HttpServletRequest": 3300,
  "AI": 3301,
  "BR": 3302,
  "ags": 3303,
  "ney": 3304,
  "Ġone": 3305,
  "(HttpStatus": 3306,
  "utes": 3307,
  "(gc": 3308,
  "xe": 3309,
  "(gen": 3310,
  "(HttpStatusCode": 3311,
  "(gca": 3312,
  "RS": 3313,
  "error": 3314,
  "tu": 3315,
  "(gl": 3316,
  "Ġag": 3317,
  "(IB": 3318,
  "(graph": 3319,
  "umb": 3320,
  "(grid": 3321,
  "(group": 3322,
  "Ġthey": 3323,
  "OH": 3324,
  "(global": 3325,
  "(glm": 3326,
  "anks": 3327,
  "(h": 3328,
  "(go": 3329,
  "SL": 3330,
  "(gr": 3331,
  "(II": 3332,
  "rac": 3333,
  "SH": 3334,
  "(III": 3335,
  "(IL": 3336,
  "cript": 3337,
  "(gs": 3338,
  "ief": 3339,
  "(gt": 3340,
  "ican": 3341,
  "'}": 3342,
  "(gui": 3343,
  "(gulp": 3344,
  "▁o": 3345,
  "(handle": 3346,
  "OB": 3347,
  "(height": 3348,
  "img": 3349,
  "ording": 3350,
  "ured": 3351,
  "(head": 3352,
  "acy": 3353,
  "(handler": 3354,
  "MC": 3355,
  "(hash": 3356,
  "(header": 3357,
  "Ġapp": 3358,
  "(handles": 3359,
  "(has": 3360,
  "sel": 3361,
  "cf": 3362,
  "BI": 3363,
  "conom": 3364,
  "(http": 3365,
  "(hex": 3366,
  "(IT": 3367,
  "(host": 3368,
  "(i": 3369,
  "http": 3370,
  "(high": 3371,
  "(hit": 3372,
  "(html": 3373,
  "(holder": 3374,
  "(home": 3375,
  "(hr": 3376,
  "ification": 3377,
  "(id": 3378,
  "(ht": 3379,
  "State": 3380,
  "PG": 3381,
  "Box": 3382,
  "Ġpe": 3383,
  "(idx": 3384,
  "(hw": 3385,
  "xf": 3386,
  "(ii": 3387,
  "ika": 3388,
  "(hwnd": 3389,
  "PH": 3390,
  "icy": 3391,
  "NT": 3392,
  "▁i": 3393,
  "(image": 3394,
  "(ic": 3395,
  "code": 3396,
  "(icon": 3397,
  "(img": 3398,
  "(in": 3399,
  "(ids": 3400,
  "(index": 3401,
  "PU": 3402,
  "ito": 3403,
  "(if": 3404,
  "(IntPtr": 3405,
  "Int": 3406,
  "Add": 3407,
  "(info": 3408,
  "ulation": 3409,
  "(im": 3410,
  "Time": 3411,
  "(il": 3412,
  "ster": 3413,
  "file": 3414,
  "(input": 3415,
  "(ind": 3416,
  "rel": 3417,
  "ea": 3418,
  "pen": 3419,
  "(images": 3420,
  "ctor": 3421,
  "User": 3422,
  "(int": 3423,
  "ache": 3424,
  "HS": 3425,
  "ona": 3426,
  "(initial": 3427,
  "(init": 3428,
  "ety": 3429,
  "book": 3430,
  "▁c": 3431,
  "(instance": 3432,
  "Ġfe": 3433,
  "(inputs": 3434,
  "(": 3435,
  "Sm": 3436,
  "(inp": 3437,
  "RC": 3438,
  "ocus": 3439,
  "tx": 3440,
  "(intent": 3441,
  "roid": 3442,
  "OU": 3443,
  "(is": 3444,
  "(ins": 3445,
  "ades": 3446,
  "BB": 3447,
  "(inst": 3448,
  "LS": 3449,
  "AK": 3450,
  "(it": 3451,
  "(!": 3452,
  "ither": 3453,
  "body": 3454,
  "(item": 3455,
  "ony": 3456,
  "(ip": 3457,
  "(\"": 3458,
  "(inter": 3459,
  "FR": 3460,
  "void": 3461,
  "ados": 3462,
  "(items": 3463,
  "Pa": 3464,
  "osp": 3465,
  "ej": 3466,
  "(isset": 3467,
  "(interval": 3468,
  "(inv": 3469,
  "(io": 3470,
  "Ġdi": 3471,
  "RT": 3472,
  "(j": 3473,
  "index": 3474,
  "(ir": 3475,
  "init": 3476,
  "(KP": 3477,
  "Ġes": 3478,
  "Ġtheir": 3479,
  "now": 3480,
  "mod": 3481,
  "(iter": 3482,
  "(KeyCode": 3483,
  "eld": 3484,
  "(iv": 3485,
  "ivers": 3486,
  "▁d": 3487,
  "(java": 3488,
  "(json": 3489,
  "(k": 3490,
  "(\"#": 3491,
  "using": 3492,
  "(key": 3493,
  "(ix": 3494,
  "hd": 3495,
  "ende": 3496,
  "(job": 3497,
  "(javax": 3498,
  "ula": 3499,
  "(LED": 3500,
  "Ġpart": 3501,
  "(LL": 3502,
  "▁p": 3503,
  "(l": 3504,
  "MI": 3505,
  "GA": 3506,
  "(\"%": 3507,
  "angu": 3508,
  "(label": 3509,
  "(LP": 3510,
  "(join": 3511,
  "Ġhis": 3512,
  "(js": 3513,
  "Hi": 3514,
  "(lambda": 3515,
  "(last": 3516,
  "ges": 3517,
  "FS": 3518,
  "(kind": 3519,
  "(keys": 3520,
  "place": 3521,
  "(LayoutInflater": 3522,
  "ilt": 3523,
  "Des": 3524,
  "(labels": 3525,
  "DI": 3526,
  "Ġinter": 3527,
  "Not": 3528,
  "(left": 3529,
  "(layout": 3530,
  "(len": 3531,
  "Ġest": 3532,
  "(lat": 3533,
  "'à¦²": 3534,
  "(lang": 3535,
  "(length": 3536,
  "ended": 3537,
  "(layer": 3538,
  "(\".": 3539,
  "(let": 3540,
  "cp": 3541,
  "(kn": 3542,
  "rite": 3543,
  "Ġabout": 3544,
  "aces": 3545,
  "(lbl": 3546,
  "ULL": 3547,
  "(\"/": 3548,
  "(line": 3549,
  "(ld": 3550,
  "function": 3551,
  "(le": 3552,
  "eder": 3553,
  "HP": 3554,
  "ration": 3555,
  "(list": 3556,
  "ocal": 3557,
  "(level": 3558,
  "MO": 3559,
  "ormal": 3560,
  "(MPI": 3561,
  "lev": 3562,
  "(lines": 3563,
  "(lb": 3564,
  "(lhs": 3565,
  "(li": 3566,
  "ograph": 3567,
  "(lib": 3568,
  "acc": 3569,
  "(link": 3570,
  "(limit": 3571,
  "(MainActivity": 3572,
  "aring": 3573,
  "(log": 3574,
  "(ll": 3575,
  "(\"\\": 3576,
  "BE": 3577,
  "(lista": 3578,
  "(local": 3579,
  "xa": 3580,
  "(listener": 3581,
  "include": 3582,
  "WE": 3583,
  "ially": 3584,
  "ables": 3585,
  "(long": 3586,
  "ales": 3587,
  "Si": 3588,
  "(location": 3589,
  "(loc": 3590,
  "SU": 3591,
  "(lo": 3592,
  "▁w": 3593,
  "(load": 3594,
  "dl": 3595,
  "Ps": 3596,
  "Ġwhich": 3597,
  "File": 3598,
  "sch": 3599,
  "ivity": 3600,
  "ram": 3601,
  "Ġtime": 3602,
  "Av": 3603,
  "(m": 3604,
  "(lock": 3605,
  "(login": 3606,
  "atures": 3607,
  "Lo": 3608,
  "(logger": 3609,
  "(MediaType": 3610,
  "gar": 3611,
  "enu": 3612,
  "ela": 3613,
  "iff": 3614,
  "(loss": 3615,
  "(&": 3616,
  "(low": 3617,
  "(MenuItem": 3618,
  "(lp": 3619,
  "Ġany": 3620,
  "(lst": 3621,
  "(map": 3622,
  "('": 3623,
  "ync": 3624,
  "'{": 3625,
  "(ls": 3626,
  "▁f": 3627,
  "api": 3628,
  "Es": 3629,
  "PN": 3630,
  "(lua": 3631,
  "(main": 3632,
  "Error": 3633,
  "ques": 3634,
  "room": 3635,
  "(make": 3636,
  "▁b": 3637,
  "(MigrationBuilder": 3638,
  "LI": 3639,
  "GR": 3640,
  "'},": 3641,
  "uly": 3642,
  "Ġer": 3643,
  "(max": 3644,
  "(mac": 3645,
  "('#": 3646,
  "oto": 3647,
  "LY": 3648,
  "(mail": 3649,
  "▁m": 3650,
  "(mat": 3651,
  "(man": 3652,
  "ued": 3653,
  "VC": 3654,
  "ĠIt": 3655,
  "(math": 3656,
  "(matrix": 3657,
  "(mark": 3658,
  "(match": 3659,
  "(MouseEvent": 3660,
  "(mask": 3661,
  "Ok": 3662,
  "(ma": 3663,
  "ima": 3664,
  "HD": 3665,
  "(message": 3666,
  "fi": 3667,
  "(mc": 3668,
  "(md": 3669,
  "ponent": 3670,
  "(me": 3671,
  "('.": 3672,
  "NC": 3673,
  "Ġob": 3674,
  "(min": 3675,
  "(mean": 3676,
  "(member": 3677,
  "elle": 3678,
  "(menu": 3679,
  "(media": 3680,
  "(mem": 3681,
  "(method": 3682,
  "ural": 3683,
  "dk": 3684,
  "('/": 3685,
  "(model": 3686,
  "rain": 3687,
  "(mesh": 3688,
  "oph": 3689,
  "Po": 3690,
  "(models": 3691,
  "ised": 3692,
  "(meta": 3693,
  "(mock": 3694,
  "CF": 3695,
  "(mod": 3696,
  "ries": 3697,
  "creen": 3698,
  "(mi": 3699,
  "Mr": 3700,
  "bc": 3701,
  "(mm": 3702,
  "EP": 3703,
  "(mid": 3704,
  "▁e": 3705,
  "'},Ċ": 3706,
  "ources": 3707,
  "HR": 3708,
  "side": 3709,
  "Ġpublic": 3710,
  "(module": 3711,
  "'}}": 3712,
  "(mode": 3713,
  "(msg": 3714,
  "((": 3715,
  "'}Ċ": 3716,
  "'})": 3717,
  "uel": 3718,
  "Service": 3719,
  "New": 3720,
  "(OH": 3721,
  "ored": 3722,
  "abor": 3723,
  "(my": 3724,
  "WS": 3725,
  "(mon": 3726,
  "(move": 3727,
  "(n": 3728,
  "BL": 3729,
  "(month": 3730,
  "(movie": 3731,
  "(name": 3732,
  "AE": 3733,
  "Sw": 3734,
  "hs": 3735,
  "(mouse": 3736,
  "▁h": 3737,
  "iam": 3738,
  "(mp": 3739,
  "(ms": 3740,
  "unk": 3741,
  "'Ã©": 3742,
  "(()": 3743,
  "()": 3744,
  "▁l": 3745,
  "avor": 3746,
  "(mt": 3747,
  "(mu": 3748,
  "tw": 3749,
  "eta": 3750,
  "(mut": 3751,
  "(mx": 3752,
  "(nameof": 3753,
  "Ġwork": 3754,
  "Info": 3755,
  "(new": 3756,
  "mon": 3757,
  "(names": 3758,
  "DL": 3759,
  "(PC": 3760,
  "(mysql": 3761,
  "'Ã¨": 3762,
  "urg": 3763,
  "ried": 3764,
  "idad": 3765,
  "Fi": 3766,
  "(next": 3767,
  "ald": 3768,
  "(named": 3769,
  "Ev": 3770,
  "())": 3771,
  "(PHP": 3772,
  "(node": 3773,
  "Ġour": 3774,
  "ete": 3775,
  "CG": 3776,
  "(nav": 3777,
  "(nb": 3778,
  "oman": 3779,
  "Event": 3780,
  "come": 3781,
  "input": 3782,
  "DT": 3783,
  "(nd": 3784,
  "ops": 3785,
  "(ne": 3786,
  "Map": 3787,
  "(net": 3788,
  "ysis": 3789,
  "()))": 3790,
  "(network": 3791,
  "SR": 3792,
  "Ent": 3793,
  "(nil": 3794,
  "ores": 3795,
  "from": 3796,
  "(nn": 3797,
  "kw": 3798,
  "BT": 3799,
  "(no": 3800,
  "(np": 3801,
  "NG": 3802,
  "nh": 3803,
  "(null": 3804,
  "()),": 3805,
  "(not": 3806,
  "()).": 3807,
  "yt": 3808,
  "(nodes": 3809,
  "With": 3810,
  "ista": 3811,
  "(num": 3812,
  "(non": 3813,
  "iles": 3814,
  "(nome": 3815,
  "TT": 3816,
  "(number": 3817,
  "());": 3818,
  "(nonatomic": 3819,
  "agn": 3820,
  "(now": 3821,
  "(normal": 3822,
  "mas": 3823,
  "(o": 3824,
  "(note": 3825,
  "(nullptr": 3826,
  "atter": 3827,
  "(obj": 3828,
  "Ġover": 3829,
  "ged": 3830,
  "Di": 3831,
  "(ns": 3832,
  "'Ċ": 3833,
  "'Ãł": 3834,
  "(object": 3835,
  "cha": 3836,
  "vec": 3837,
  "GS": 3838,
  "(nt": 3839,
  "'ĊĊ": 3840,
  "(nums": 3841,
  "amm": 3842,
  "MR": 3843,
  "(nullable": 3844,
  "(),": 3845,
  "(numbers": 3846,
  "(QL": 3847,
  "vironment": 3848,
  "'Ãī": 3849,
  "igen": 3850,
  "(old": 3851,
  "(on": 3852,
  "(nx": 3853,
  "(of": 3854,
  "'ĊĊĊ": 3855,
  "(op": 3856,
  "(ob": 3857,
  "().": 3858,
  "(QtCore": 3859,
  "(offset": 3860,
  "(options": 3861,
  "'čĊ": 3862,
  "(obs": 3863,
  "(\",": 3864,
  "▁r": 3865,
  "()-": 3866,
  "(!$": 3867,
  "(order": 3868,
  "(off": 3869,
  "xc": 3870,
  "test": 3871,
  "(ok": 3872,
  "(opt": 3873,
  "(\"-": 3874,
  "ride": 3875,
  "earch": 3876,
  "(open": 3877,
  "(os": 3878,
  "(one": 3879,
  "box": 3880,
  "():": 3881,
  "(!(": 3882,
  "(other": 3883,
  "BM": 3884,
  "(option": 3885,
  "(\"\");Ċ": 3886,
  "(out": 3887,
  "(org": 3888,
  "(\"../": 3889,
  "();": 3890,
  "(output": 3891,
  "(\"\",": 3892,
  "(p": 3893,
  "(or": 3894,
  "Log": 3895,
  "ules": 3896,
  "DM": 3897,
  "Ġkn": 3898,
  "(\"\"": 3899,
  "BP": 3900,
  "(opts": 3901,
  "Ġwho": 3902,
  "(\"./": 3903,
  "Ġgr": 3904,
  "Ġbl": 3905,
  "(\"\")": 3906,
  "atal": 3907,
  "ils": 3908,
  "(\"$": 3909,
  "Cr": 3910,
  "(\"\"))": 3911,
  "(page": 3912,
  "(original": 3913,
  "roller": 3914,
  "(orig": 3915,
  "lin": 3916,
  "(origin": 3917,
  "bol": 3918,
  "wd": 3919,
  "vern": 3920,
  "(param": 3921,
  "(\"${": 3922,
  "(\"<": 3923,
  "(params": 3924,
  "(owner": 3925,
  "(parent": 3926,
  "ban": 3927,
  "lish": 3928,
  "(SC": 3929,
  "(pa": 3930,
  "(\"*": 3931,
  "list": 3932,
  "(package": 3933,
  "Ġset": 3934,
  "(\"'\"": 3935,
  "(\"@": 3936,
  "(packet": 3937,
  "urther": 3938,
  "(par": 3939,
  "(\"&": 3940,
  "(\"[": 3941,
  "(\"(": 3942,
  "(pair": 3943,
  "WA": 3944,
  "(panel": 3945,
  "oke": 3946,
  "(path": 3947,
  "(parse": 3948,
  "▁n": 3949,
  "(password": 3950,
  "raft": 3951,
  "indows": 3952,
  "GT": 3953,
  "(parameter": 3954,
  "most": 3955,
  "(parameters": 3956,
  "(SP": 3957,
  "oken": 3958,
  "(\"--": 3959,
  "Form": 3960,
  "(\"+": 3961,
  "icle": 3962,
  "CB": 3963,
  "(\",\"": 3964,
  "(){": 3965,
  "(part": 3966,
  "color": 3967,
  "(SS": 3968,
  "(\"{": 3969,
  "len": 3970,
  "(parsed": 3971,
  "(pattern": 3972,
  "(parser": 3973,
  "imal": 3974,
  "Ġna": 3975,
  "isc": 3976,
  "GO": 3977,
  "(payload": 3978,
  "(#": 3979,
  "hh": 3980,
  "(parts": 3981,
  "(STD": 3982,
  "trans": 3983,
  "(pass": 3984,
  "($": 3985,
  "ette": 3986,
  "Ġher": 3987,
  "omb": 3988,
  "($\"": 3989,
  "(\"../../": 3990,
  "cb": 3991,
  "(person": 3992,
  "(pb": 3993,
  "icon": 3994,
  "(pc": 3995,
  "(\"//": 3996,
  "(*": 3997,
  "(pd": 3998,
  "($_": 3999,
  "Az": 4000,
  "(\":": 4001,
  "Ġcol": 4002,
  "(Seq": 4003,
  "(pe": 4004,
  "(pdf": 4005,
  "Sk": 4006,
  "(per": 4007,
  "(\"/\",": 4008,
  "(%": 4009,
  "Over": 4010,
  "xd": 4011,
  "(player": 4012,
  "HL": 4013,
  "(See": 4014,
  "OO": 4015,
  "(pg": 4016,
  "ei": 4017,
  "ocation": 4018,
  "(-": 4019,
  "(ph": 4020,
  "GF": 4021,
  "(phi": 4022,
  "Act": 4023,
  "(point": 4024,
  "(phone": 4025,
  "_S": 4026,
  "(pi": 4027,
  "(\"</": 4028,
  "nes": 4029,
  "Ġop": 4030,
  "(pid": 4031,
  "ites": 4032,
  "(pic": 4033,
  "des": 4034,
  "_b": 4035,
  "(.": 4036,
  "(--": 4037,
  "(pin": 4038,
  "(pk": 4039,
  "VE": 4040,
  "(pos": 4041,
  "Test": 4042,
  "(position": 4043,
  "(pl": 4044,
  "ension": 4045,
  "(pkg": 4046,
  "NN": 4047,
  "(/": 4048,
  "(\">": 4049,
  "nie": 4050,
  "(post": 4051,
  "Model": 4052,
  "(:": 4053,
  "artment": 4054,
  "('%": 4055,
  "(play": 4056,
  "(\"_": 4057,
  "oin": 4058,
  "(plugin": 4059,
  "(pm": 4060,
  "Ġsome": 4061,
  "(port": 4062,
  "(points": 4063,
  "Ġdel": 4064,
  "(\"\\\\": 4065,
  "(po": 4066,
  "clus": 4067,
  "ĠRe": 4068,
  "(pol": 4069,
  "(',": 4070,
  "(pool": 4071,
  "(pop": 4072,
  "ball": 4073,
  "(\"^": 4074,
  "(@": 4075,
  "('-": 4076,
  "comp": 4077,
  "(pre": 4078,
  "fd": 4079,
  "(pred": 4080,
  "(private": 4081,
  "ilar": 4082,
  "Ġq": 4083,
  "(pp": 4084,
  "(pow": 4085,
  "(pr": 4086,
  "(\"|": 4087,
  "('../": 4088,
  "(product": 4089,
  "(prefix": 4090,
  "Color": 4091,
  "(${": 4092,
  "ols": 4093,
  "FE": 4094,
  "(prev": 4095,
  "(pro": 4096,
  "Ġstr": 4097,
  "('./": 4098,
  "($(": 4099,
  "(TIM": 4100,
  "vr": 4101,
  "(price": 4102,
  "ube": 4103,
  "ison": 4104,
  "util": 4105,
  "(process": 4106,
  "(props": 4107,
  "idual": 4108,
  "abil": 4109,
  "asi": 4110,
  "('/',": 4111,
  "(print": 4112,
  "(priv": 4113,
  "tes": 4114,
  "(':": 4115,
  "(project": 4116,
  "fc": 4117,
  "Ġalso": 4118,
  "Button": 4119,
  "('<": 4120,
  "▁S": 4121,
  "FP": 4122,
  "Out": 4123,
  "(property": 4124,
  "(prod": 4125,
  "(&(": 4126,
  "(prop": 4127,
  "(profile": 4128,
  "('[": 4129,
  "(program": 4130,
  "(q": 4131,
  "wr": 4132,
  "('\\": 4133,
  "Cu": 4134,
  "(ptr": 4135,
  "dc": 4136,
  "(query": 4137,
  "(properties": 4138,
  "('');Ċ": 4139,
  "(ps": 4140,
  "LD": 4141,
  "SI": 4142,
  "TF": 4143,
  "(pt": 4144,
  "(r": 4145,
  "ND": 4146,
  "wards": 4147,
  "('',": 4148,
  "('\"": 4149,
  "VA": 4150,
  "('$": 4151,
  "qq": 4152,
  "(provider": 4153,
  "bn": 4154,
  "(public": 4155,
  "VP": 4156,
  "Def": 4157,
  "(random": 4158,
  "(pub": 4159,
  "(range": 4160,
  "(((": 4161,
  "uu": 4162,
  "(raw": 4163,
  "Ah": 4164,
  "ami": 4165,
  "Class": 4166,
  "dn": 4167,
  "('--": 4168,
  "(queue": 4169,
  "fg": 4170,
  "(push": 4171,
  "lig": 4172,
  "(px": 4173,
  "(py": 4174,
  "Request": 4175,
  "(TreeNode": 4176,
  "left": 4177,
  "(re": 4178,
  "(qu": 4179,
  "('*": 4180,
  "(read": 4181,
  "(question": 4182,
  "('../../": 4183,
  "Index": 4184,
  "ector": 4185,
  "ober": 4186,
  "(rad": 4187,
  "(rand": 4188,
  "(ref": 4189,
  "()\"": 4190,
  "vc": 4191,
  "(reader": 4192,
  "_C": 4193,
  "ario": 4194,
  "sq": 4195,
  "(rb": 4196,
  "cia": 4197,
  "There": 4198,
  "(ray": 4199,
  "(rc": 4200,
  "wer": 4201,
  "FD": 4202,
  "(rd": 4203,
  "(record": 4204,
  "ring": 4205,
  "GC": 4206,
  "(rec": 4207,
  "ias": 4208,
  "WR": 4209,
  "(real": 4210,
  "Ca": 4211,
  "(rect": 4212,
  "(req": 4213,
  "Ap": 4214,
  "('_": 4215,
  "(request": 4216,
  "('@": 4217,
  "Ġthere": 4218,
  "(reg": 4219,
  "hib": 4220,
  "Li": 4221,
  "content": 4222,
  "(red": 4223,
  "(res": 4224,
  "(UnityEngine": 4225,
  "zer": 4226,
  "(region": 4227,
  "KS": 4228,
  "(rel": 4229,
  "(response": 4230,
  "Ġbu": 4231,
  "LP": 4232,
  "Ġwhen": 4233,
  "(result": 4234,
  "tk": 4235,
  "(require": 4236,
  "(remove": 4237,
  "(render": 4238,
  "argin": 4239,
  "vm": 4240,
  "(rep": 4241,
  "(results": 4242,
  "rect": 4243,
  "(rece": 4244,
  "(ret": 4245,
  "('{": 4246,
  "(reply": 4247,
  "(repo": 4248,
  "(resource": 4249,
  "(report": 4250,
  "(resp": 4251,
  "UV": 4252,
  "sub": 4253,
  "((\"": 4254,
  "_P": 4255,
  "(required": 4256,
  "(($": 4257,
  "(root": 4258,
  "((*": 4259,
  "(resolve": 4260,
  "VM": 4261,
  "(rem": 4262,
  "ibility": 4263,
  "Ġlike": 4264,
  "((-": 4265,
  "VR": 4266,
  "ising": 4267,
  "(right": 4268,
  "Element": 4269,
  "(({": 4270,
  "(rest": 4271,
  "(row": 4272,
  "(return": 4273,
  "()\">": 4274,
  "Ġother": 4275,
  "()+": 4276,
  "uan": 4277,
  "(rgb": 4278,
  "rat": 4279,
  "(role": 4280,
  "(rhs": 4281,
  "lock": 4282,
  "(room": 4283,
  "()!=": 4284,
  "reen": 4285,
  "(ro": 4286,
  "Context": 4287,
  "MW": 4288,
  "(s": 4289,
  "()(": 4290,
  "hold": 4291,
  "()));Ċ": 4292,
  "(round": 4293,
  "ival": 4294,
  "Ġhad": 4295,
  "(route": 4296,
  "(rs": 4297,
  "amente": 4298,
  "eq": 4299,
  "()))Ċ": 4300,
  "()->": 4301,
  "(rot": 4302,
  "aving": 4303,
  "UC": 4304,
  "(rows": 4305,
  "(saved": 4306,
  "())).": 4307,
  "(routes": 4308,
  "gress": 4309,
  "()),Ċ": 4310,
  "(sc": 4311,
  "().__": 4312,
  "anguage": 4313,
  "(rr": 4314,
  "Jo": 4315,
  "(rt": 4316,
  "alu": 4317,
  "Ġco": 4318,
  "());Ċ": 4319,
  "(rule": 4320,
  "Ġwere": 4321,
  "▁g": 4322,
  "(run": 4323,
  "(aa": 4324,
  "Field": 4325,
  "(rv": 4326,
  "Ġvo": 4327,
  "());ĊĊ": 4328,
  "Date": 4329,
  "(rx": 4330,
  "(sample": 4331,
  "(save": 4332,
  "(sa": 4333,
  "()){Ċ": 4334,
  "(search": 4335,
  "▁T": 4336,
  "())Ċ": 4337,
  "Os": 4338,
  "Ġbeen": 4339,
  "(sb": 4340,
  "FI": 4341,
  "())ĊĊ": 4342,
  "unch": 4343,
  "▁C": 4344,
  "(scale": 4345,
  "PY": 4346,
  "(scope": 4347,
  "(scan": 4348,
  "(score": 4349,
  "(scene": 4350,
  "(screen": 4351,
  "());čĊ": 4352,
  "(schema": 4353,
  "where": 4354,
  "(self": 4355,
  "uid": 4356,
  "(se": 4357,
  "eds": 4358,
  "sole": 4359,
  "ivo": 4360,
  "YS": 4361,
  "rix": 4362,
  "NE": 4363,
  "(sd": 4364,
  "(script": 4365,
  "Ġder": 4366,
  "ights": 4367,
  "can": 4368,
  "Ġph": 4369,
  "uration": 4370,
  "(second": 4371,
  "()*": 4372,
  "(),Ċ": 4373,
  "cret": 4374,
  "())čĊ": 4375,
  "(selected": 4376,
  "(sec": 4377,
  "ires": 4378,
  "ola": 4379,
  "()+\"": 4380,
  "▁A": 4381,
  "(set": 4382,
  "(seconds": 4383,
  "Bi": 4384,
  "(section": 4385,
  "Ġacc": 4386,
  "(select": 4387,
  "pty": 4388,
  "(seed": 4389,
  "()[": 4390,
  "(sender": 4391,
  "though": 4392,
  "(seg": 4393,
  "(sh": 4394,
  "(sel": 4395,
  "_T": 4396,
  "(server": 4397,
  "nc": 4398,
  "Size": 4399,
  "cht": 4400,
  "(service": 4401,
  "(session": 4402,
  "(selector": 4403,
  "()`": 4404,
  "Ma": 4405,
  "wt": 4406,
  "(serial": 4407,
  "(send": 4408,
  "(settings": 4409,
  "(),čĊ": 4410,
  "ady": 4411,
  "(seq": 4412,
  "ered": 4413,
  "Ġjust": 4414,
  "urt": 4415,
  "(size": 4416,
  "Equ": 4417,
  "():Ċ": 4418,
  "bor": 4419,
  "oved": 4420,
  "fort": 4421,
  "(ag": 4422,
  "().Ċ": 4423,
  "una": 4424,
  "(sizeof": 4425,
  "with": 4426,
  "idence": 4427,
  "(shape": 4428,
  "()}": 4429,
  "(sf": 4430,
  "()/": 4431,
  "▁I": 4432,
  "ATE": 4433,
  "np": 4434,
  "(short": 4435,
  "();Ċ": 4436,
  "WW": 4437,
  "(show": 4438,
  "(sig": 4439,
  "(si": 4440,
  "(side": 4441,
  "create": 4442,
  "();ĊĊ": 4443,
  "(sign": 4444,
  "():čĊ": 4445,
  "();//": 4446,
  "Ġthem": 4447,
  "(sim": 4448,
  "Config": 4449,
  "();ĊĊĊ": 4450,
  "uer": 4451,
  "(source": 4452,
  "(sp": 4453,
  "(site": 4454,
  "Ġent": 4455,
  "(sk": 4456,
  "result": 4457,
  "lim": 4458,
  "(sl": 4459,
  "(sql": 4460,
  "(*)": 4461,
  "JS": 4462,
  "(slot": 4463,
  "ĠWe": 4464,
  "(sm": 4465,
  "(src": 4466,
  "()==": 4467,
  "Ġdef": 4468,
  "(st": 4469,
  "(socket": 4470,
  "(**": 4471,
  "(sn": 4472,
  "ker": 4473,
  "()>": 4474,
  "arl": 4475,
  "DU": 4476,
  "(sock": 4477,
  "odes": 4478,
  "(solution": 4479,
  "zt": 4480,
  "(start": 4481,
  "Da": 4482,
  "cel": 4483,
  "(stack": 4484,
  "GM": 4485,
  "();čĊ": 4486,
  "(state": 4487,
  "BU": 4488,
  "(sorted": 4489,
  "()]": 4490,
  "(sol": 4491,
  "lege": 4492,
  "Path": 4493,
  "Ġyear": 4494,
  "vid": 4495,
  "();čĊčĊ": 4496,
  "(song": 4497,
  "Mo": 4498,
  "(sort": 4499,
  "Reg": 4500,
  "Ġdie": 4501,
  "(std": 4502,
  "(status": 4503,
  "▁v": 4504,
  "()</": 4505,
  "(split": 4506,
  "(...": 4507,
  "ened": 4508,
  "();Ċ//": 4509,
  "One": 4510,
  "AH": 4511,
  "(spec": 4512,
  "Db": 4513,
  "iding": 4514,
  "ori": 4515,
  "Node": 4516,
  "(){Ċ": 4517,
  "(ss": 4518,
  "()]Ċ": 4519,
  "(sr": 4520,
  "(){ĊĊ": 4521,
  "(static": 4522,
  "eli": 4523,
  "(str": 4524,
  "Ġadd": 4525,
  "When": 4526,
  "(:,": 4527,
  "asc": 4528,
  "(stderr": 4529,
  "sy": 4530,
  "vd": 4531,
  "▁M": 4532,
  "(string": 4533,
  "(stat": 4534,
  "SW": 4535,
  "(<": 4536,
  "sd": 4537,
  "()Ċ": 4538,
  "(struct": 4539,
  "HC": 4540,
  "pf": 4541,
  "(?": 4542,
  "()ĊĊ": 4543,
  "(stats": 4544,
  "(stdout": 4545,
  "(sub": 4546,
  "Ġwhat": 4547,
  "()ĊĊĊ": 4548,
  "TM": 4549,
  "export": 4550,
  "VI": 4551,
  "table": 4552,
  "(@\"": 4553,
  "()}Ċ": 4554,
  "(){čĊ": 4555,
  "(stream": 4556,
  "ran": 4557,
  "(step": 4558,
  "(store": 4559,
  "(sum": 4560,
  "(stmt": 4561,
  "oma": 4562,
  "mat": 4563,
  "KB": 4564,
  "nn": 4565,
  "fb": 4566,
  "(strategy": 4567,
  "(stop": 4568,
  "(aq": 4569,
  "VO": 4570,
  "iem": 4571,
  "(storage": 4572,
  "(student": 4573,
  "tion": 4574,
  "▁P": 4575,
  "(sys": 4576,
  "(strcmp": 4577,
  "(t": 4578,
  "mes": 4579,
  "(strict": 4580,
  "(+": 4581,
  "()čĊ": 4582,
  "(subject": 4583,
  "(table": 4584,
  "obile": 4585,
  "(style": 4586,
  "()čĊčĊ": 4587,
  "(target": 4588,
  "imum": 4589,
  "struct": 4590,
  "ham": 4591,
  "Mod": 4592,
  "(task": 4593,
  "(success": 4594,
  "rodu": 4595,
  "Tw": 4596,
  "(*(": 4597,
  "Code": 4598,
  "(super": 4599,
  "▁y": 4600,
  "(sw": 4601,
  "Mc": 4602,
  "reet": 4603,
  "(svg": 4604,
  "(tag": 4605,
  "(sz": 4606,
  "ategory": 4607,
  "(temp": 4608,
  "(sym": 4609,
  "(symbol": 4610,
  "elling": 4611,
  "(tab": 4612,
  "asing": 4613,
  "(test": 4614,
  "(system": 4615,
  "ila": 4616,
  "UK": 4617,
  "ria": 4618,
  "(text": 4619,
  "oul": 4620,
  "▁B": 4621,
  "arning": 4622,
  "PK": 4623,
  "rb": 4624,
  "(/\\": 4625,
  "link": 4626,
  "ffic": 4627,
  "(the": 4628,
  "(tags": 4629,
  "Ms": 4630,
  "Ġoff": 4631,
  "(this": 4632,
  "Array": 4633,
  "(tb": 4634,
  "Ġda": 4635,
  "(tc": 4636,
  "(tbl": 4637,
  "(td": 4638,
  "(::": 4639,
  "Ġwould": 4640,
  "Ġsc": 4641,
  "(tf": 4642,
  "(template": 4643,
  "(te": 4644,
  "(time": 4645,
  "iva": 4646,
  "(team": 4647,
  "lg": 4648,
  "andom": 4649,
  "(title": 4650,
  "XT": 4651,
  "_n": 4652,
  "(term": 4653,
  "(th": 4654,
  "label": 4655,
  "(;": 4656,
  "(theta": 4657,
  "nav": 4658,
  "(tmp": 4659,
  "(to": 4660,
  "isi": 4661,
  "(tex": 4662,
  "iction": 4663,
  "YY": 4664,
  "(token": 4665,
  "pace": 4666,
  "(that": 4667,
  "nm": 4668,
  "fn": 4669,
  "(thread": 4670,
  "(top": 4671,
  "(theme": 4672,
  "NY": 4673,
  "illed": 4674,
  "ledge": 4675,
  "ttp": 4676,
  "(total": 4677,
  "CV": 4678,
  "oper": 4679,
  "Ġconst": 4680,
  "define": 4681,
  "try": 4682,
  "(tile": 4683,
  "NP": 4684,
  "(timeout": 4685,
  "(train": 4686,
  "(timer": 4687,
  "(tm": 4688,
  "bg": 4689,
  "Ha": 4690,
  "(tree": 4691,
  "(true": 4692,
  "(tokens": 4693,
  "(tr": 4694,
  "(bc": 4695,
  "(todo": 4696,
  "Ser": 4697,
  "(tok": 4698,
  "dx": 4699,
  "ained": 4700,
  "(torch": 4701,
  "ras": 4702,
  "(type": 4703,
  "else": 4704,
  "(topic": 4705,
  "kh": 4706,
  "sb": 4707,
  "(tp": 4708,
  "(typeof": 4709,
  "(u": 4710,
  "clude": 4711,
  "(trans": 4712,
  "▁u": 4713,
  "(track": 4714,
  "(transform": 4715,
  "TI": 4716,
  "Sub": 4717,
  "(uint": 4718,
  "orts": 4719,
  "(un": 4720,
  "(transaction": 4721,
  "(txt": 4722,
  "▁D": 4723,
  "rv": 4724,
  "LR": 4725,
  "(trim": 4726,
  "(tx": 4727,
  "(ts": 4728,
  "TL": 4729,
  "(unsigned": 4730,
  "(tt": 4731,
  "fil": 4732,
  "(tv": 4733,
  "ators": 4734,
  "(url": 4735,
  "Ġbet": 4736,
  "(ui": 4737,
  "Ġmay": 4738,
  "empl": 4739,
  "(unit": 4740,
  "GP": 4741,
  "(user": 4742,
  "bon": 4743,
  "emp": 4744,
  "Bu": 4745,
  "(types": 4746,
  "Det": 4747,
  "cover": 4748,
  "(uid": 4749,
  "tre": 4750,
  "(update": 4751,
  "ĠHe": 4752,
  "(username": 4753,
  "Ġact": 4754,
  "(v": 4755,
  "iki": 4756,
  "Rep": 4757,
  "just": 4758,
  "(bodyParser": 4759,
  "(trg": 4760,
  "ixed": 4761,
  "(undefined": 4762,
  "(val": 4763,
  "OF": 4764,
  "Message": 4765,
  "(value": 4766,
  "(unique": 4767,
  "ental": 4768,
  "sn": 4769,
  "(updated": 4770,
  "(unittest": 4771,
  "(up": 4772,
  "web": 4773,
  "BF": 4774,
  "(var": 4775,
  "_M": 4776,
  "Ġneed": 4777,
  "(uri": 4778,
  "Ġac": 4779,
  "chan": 4780,
  "(values": 4781,
  "ede": 4782,
  "dis": 4783,
  "rew": 4784,
  "FM": 4785,
  "(vec": 4786,
  "(upload": 4787,
  "Py": 4788,
  "(vector": 4789,
  "(us": 4790,
  "unc": 4791,
  "(use": 4792,
  "(users": 4793,
  "(view": 4794,
  "Ġav": 4795,
  "(void": 4796,
  "resh": 4797,
  "you": 4798,
  "Hand": 4799,
  "(valid": 4800,
  "(uuid": 4801,
  "orage": 4802,
  "(w": 4803,
  "endo": 4804,
  "GG": 4805,
  "inary": 4806,
  "ota": 4807,
  "Ã£o": 4808,
  "board": 4809,
  "astic": 4810,
  "quire": 4811,
  "(width": 4812,
  "(vc": 4813,
  "ead": 4814,
  "NF": 4815,
  "och": 4816,
  "(window": 4817,
  "(video": 4818,
  "(with": 4819,
  "(version": 4820,
  "(ver": 4821,
  "(word": 4822,
  "Result": 4823,
  "script": 4824,
  "(vertex": 4825,
  "Acc": 4826,
  "Ġma": 4827,
  "ako": 4828,
  "(vm": 4829,
  "Ġbr": 4830,
  "(vis": 4831,
  "(vo": 4832,
  "aks": 4833,
  "(x": 4834,
  "ago": 4835,
  "uto": 4836,
  "(vol": 4837,
  "SK": 4838,
  "(widget": 4839,
  "istic": 4840,
  "button": 4841,
  "▁in": 4842,
  "EF": 4843,
  "(words": 4844,
  "(web": 4845,
  "Ep": 4846,
  "(wait": 4847,
  "aka": 4848,
  "aining": 4849,
  "apter": 4850,
  "▁R": 4851,
  "(y": 4852,
  "(win": 4853,
  "ological": 4854,
  "ises": 4855,
  "(ca": 4856,
  "vt": 4857,
  "(z": 4858,
  "(world": 4859,
  "(year": 4860,
  "annel": 4861,
  "(work": 4862,
  "imm": 4863,
  "iti": 4864,
  "Ġcomm": 4865,
  "(wx": 4866,
  "agement": 4867,
  "(wrapper": 4868,
  "Ġke": 4869,
  "leep": 4870,
  "▁of": 4871,
  "▁L": 4872,
  "(write": 4873,
  "(ws": 4874,
  "(writer": 4875,
  "image": 4876,
  "(xml": 4877,
  "ĠThis": 4878,
  "oms": 4879,
  "Af": 4880,
  "Ġuse": 4881,
  "(xpath": 4882,
  "Ġev": 4883,
  "(xhr": 4884,
  "Ġhow": 4885,
  "(xs": 4886,
  "het": 4887,
  "Ġreg": 4888,
  "(xx": 4889,
  "(zip": 4890,
  "Ġval": 4891,
  "▁to": 4892,
  "SB": 4893,
  "igned": 4894,
  "onder": 4895,
  "config": 4896,
  "rown": 4897,
  "bit": 4898,
  "imo": 4899,
  "ema": 4900,
  "omet": 4901,
  "SN": 4902,
  "WH": 4903,
  "Str": 4904,
  "adem": 4905,
  "Ġfl": 4906,
  "Per": 4907,
  "iro": 4908,
  "Ġrec": 4909,
  "Ġinto": 4910,
  "aya": 4911,
  "▁F": 4912,
  "kin": 4913,
  "▁the": 4914,
  "isch": 4915,
  "eme": 4916,
  "ening": 4917,
  "ĠPro": 4918,
  "Dis": 4919,
  "Ġdif": 4920,
  "Hy": 4921,
  "Image": 4922,
  "ging": 4923,
  "Ġpo": 4924,
  "lem": 4925,
  "urr": 4926,
  "tra": 4927,
  "dom": 4928,
  "Ġche": 4929,
  "▁th": 4930,
  "(chip": 4931,
  "hal": 4932,
  "anz": 4933,
  "From": 4934,
  "see": 4935,
  "▁E": 4936,
  "check": 4937,
  "Manager": 4938,
  "package": 4939,
  "Inter": 4940,
  "ador": 4941,
  "formation": 4942,
  "ĉc": 4943,
  "RF": 4944,
  "pb": 4945,
  "abet": 4946,
  "iddle": 4947,
  "anced": 4948,
  "▁de": 4949,
  "rie": 4950,
  "uns": 4951,
  "eto": 4952,
  "NI": 4953,
  "eu": 4954,
  "max": 4955,
  "jd": 4956,
  ")L": 4957,
  "mente": 4958,
  "Ġend": 4959,
  "(className": 4960,
  "Att": 4961,
  "▁k": 4962,
  "WD": 4963,
  "HH": 4964,
  "Param": 4965,
  "BY": 4966,
  ")V": 4967,
  ")Math": 4968,
  "Et": 4969,
  ")arg": 4970,
  "oon": 4971,
  "rf": 4972,
  "Pre": 4973,
  "Group": 4974,
  ")d": 4975,
  "▁H": 4976,
  ")a": 4977,
  "urity": 4978,
  "Trans": 4979,
  "UX": 4980,
  "▁re": 4981,
  ")e": 4982,
  ")b": 4983,
  ")c": 4984,
  "ester": 4985,
  "(cn": 4986,
  "pose": 4987,
  ")p": 4988,
  "Ġthan": 4989,
  "rh": 4990,
  "part": 4991,
  "hol": 4992,
  ")s": 4993,
  "Component": 4994,
  ")did": 4995,
  "ournal": 4996,
  ")i": 4997,
  "ached": 4998,
  "iny": 4999,
  ")m": 5000,
  "Ġcons": 5001,
  "mark": 5002,
  ")n": 5003,
  "dev": 5004,
  "HI": 5005,
  ")get": 5006,
  "atory": 5007,
  "Ġshe": 5008,
  "▁and": 5009,
  "adding": 5010,
  "([": 5011,
  ")init": 5012,
  "dp": 5013,
  "tex": 5014,
  ")find": 5015,
  "down": 5016,
  ")o": 5017,
  "Ġind": 5018,
  ")new": 5019,
  "time": 5020,
  "olo": 5021,
  "Ġits": 5022,
  "isa": 5023,
  ")obj": 5024,
  ")t": 5025,
  "(\\": 5026,
  "fully": 5027,
  "idge": 5028,
  "tl": 5029,
  ")is": 5030,
  ")x": 5031,
  "cing": 5032,
  ")return": 5033,
  "(['": 5034,
  ")this": 5035,
  "▁N": 5036,
  ")sender": 5037,
  ")set": 5038,
  "DK": 5039,
  "(_": 5040,
  "anger": 5041,
  "_F": 5042,
  "asy": 5043,
  "aux": 5044,
  ")il": 5045,
  "Ġhel": 5046,
  "mc": 5047,
  "empt": 5048,
  ")v": 5049,
  "tp": 5050,
  ")y": 5051,
  "Ġrel": 5052,
  "urope": 5053,
  "aby": 5054,
  "ensive": 5055,
  ")view": 5056,
  "Mi": 5057,
  "rest": 5058,
  ")value": 5059,
  ")local": 5060,
  "Ġimp": 5061,
  "lam": 5062,
  "UA": 5063,
  "Table": 5064,
  "▁W": 5065,
  "WI": 5066,
  "(__": 5067,
  "roups": 5068,
  "iting": 5069,
  "aging": 5070,
  "Count": 5071,
  "She": 5072,
  "iat": 5073,
  "Ġmed": 5074,
  "▁G": 5075,
  "rg": 5076,
  "verage": 5077,
  "medi": 5078,
  "uments": 5079,
  "Post": 5080,
  "Ġfr": 5081,
  "*A": 5082,
  "map": 5083,
  "fx": 5084,
  "ĠSe": 5085,
  "NR": 5086,
  "_D": 5087,
  "Ġback": 5088,
  "Ġass": 5089,
  "zh": 5090,
  "pat": 5091,
  "(cor": 5092,
  "Ġdata": 5093,
  "*C": 5094,
  "eller": 5095,
  "*N": 5096,
  "izing": 5097,
  "unn": 5098,
  "*K": 5099,
  "*a": 5100,
  "*i": 5101,
  "*S": 5102,
  "dm": 5103,
  "Controller": 5104,
  "query": 5105,
  "rim": 5106,
  "*M": 5107,
  "*b": 5108,
  "duc": 5109,
  "(cos": 5110,
  "*d": 5111,
  "*m": 5112,
  "mn": 5113,
  "*T": 5114,
  "*c": 5115,
  "char": 5116,
  "year": 5117,
  "WM": 5118,
  "has": 5119,
  "itting": 5120,
  "*f": 5121,
  "*k": 5122,
  "press": 5123,
  "(cps": 5124,
  "Ġself": 5125,
  "WO": 5126,
  "*g": 5127,
  "*cos": 5128,
  "*h": 5129,
  "abs": 5130,
  "field": 5131,
  "*n": 5132,
  "*j": 5133,
  "Ġonly": 5134,
  "ĠAl": 5135,
  "*ft": 5136,
  "*t": 5137,
  "*l": 5138,
  "rec": 5139,
  "*p": 5140,
  "uts": 5141,
  "ĠAn": 5142,
  "*x": 5143,
  "vey": 5144,
  "itter": 5145,
  "Ro": 5146,
  "*s": 5147,
  "ading": 5148,
  "Input": 5149,
  "hem": 5150,
  "LT": 5151,
  "mission": 5152,
  "ĠCom": 5153,
  "aker": 5154,
  "*np": 5155,
  "SF": 5156,
  "*q": 5157,
  "*r": 5158,
  "*num": 5159,
  "Ass": 5160,
  "*pi": 5161,
  "*out": 5162,
  "tc": 5163,
  "fy": 5164,
  "cast": 5165,
  "*y": 5166,
  "*u": 5167,
  "*v": 5168,
  "Ġmin": 5169,
  "true": 5170,
  "Ġdet": 5171,
  "Ġfirst": 5172,
  "*self": 5173,
  "*w": 5174,
  "Bar": 5175,
  "*sin": 5176,
  "LM": 5177,
  "Response": 5178,
  "*sizeof": 5179,
  "Sn": 5180,
  "Ġsm": 5181,
  "Ġser": 5182,
  "*z": 5183,
  "TB": 5184,
  "+B": 5185,
  "+C": 5186,
  "abe": 5187,
  "(dAtA": 5188,
  "Ġvar": 5189,
  "illa": 5190,
  "oute": 5191,
  "anch": 5192,
  "iber": 5193,
  "ische": 5194,
  "(da": 5195,
  "aba": 5196,
  "Fig": 5197,
  "ART": 5198,
  "lor": 5199,
  "XY": 5200,
  "+a": 5201,
  "+b": 5202,
  "array": 5203,
  "Ġgu": 5204,
  "verse": 5205,
  "+A": 5206,
  "+c": 5207,
  "+d": 5208,
  "pn": 5209,
  "irit": 5210,
  "+i": 5211,
  "asa": 5212,
  "+j": 5213,
  "+k": 5214,
  "+l": 5215,
  "odel": 5216,
  "SY": 5217,
  "+m": 5218,
  "ANT": 5219,
  "+n": 5220,
  "itz": 5221,
  "aves": 5222,
  "iga": 5223,
  "+p": 5224,
  "ties": 5225,
  "otal": 5226,
  "+r": 5227,
  "+s": 5228,
  "ternal": 5229,
  "+h": 5230,
  "+t": 5231,
  "Pi": 5232,
  "issue": 5233,
  "+D": 5234,
  "+x": 5235,
  "wp": 5236,
  "+y": 5237,
  "Ġknow": 5238,
  "GN": 5239,
  "ufact": 5240,
  "ĠUn": 5241,
  "xs": 5242,
  "Can": 5243,
  "Ġlook": 5244,
  "SON": 5245,
  "indow": 5246,
  "ova": 5247,
  "GD": 5248,
  "ounds": 5249,
  "uri": 5250,
  "(deg": 5251,
  "ello": 5252,
  "Override": 5253,
  "▁j": 5254,
  "Comp": 5255,
  "change": 5256,
  "olf": 5257,
  "End": 5258,
  "▁is": 5259,
  "RR": 5260,
  "Ġsur": 5261,
  "itar": 5262,
  "MY": 5263,
  ",A": 5264,
  "+w": 5265,
  "used": 5266,
  "abled": 5267,
  ",B": 5268,
  "ipp": 5269,
  ",C": 5270,
  "ithub": 5271,
  ",D": 5272,
  "ums": 5273,
  "light": 5274,
  ",E": 5275,
  "nbsp": 5276,
  ",F": 5277,
  "ees": 5278,
  ",G": 5279,
  ",H": 5280,
  ",I": 5281,
  "+xml": 5282,
  "tv": 5283,
  "Ġdu": 5284,
  ",J": 5285,
  ",K": 5286,
  ",L": 5287,
  ",M": 5288,
  "Ref": 5289,
  "Ġsub": 5290,
  ",N": 5291,
  "pd": 5292,
  "Ġmod": 5293,
  "Line": 5294,
  "object": 5295,
  "edia": 5296,
  "arter": 5297,
  ",P": 5298,
  "fol": 5299,
  ",R": 5300,
  "airs": 5301,
  "agen": 5302,
  ",S": 5303,
  "rows": 5304,
  "lp": 5305,
  "adas": 5306,
  "JO": 5307,
  "TER": 5308,
  ",T": 5309,
  "roy": 5310,
  "itu": 5311,
  "FW": 5312,
  ",String": 5313,
  "idget": 5314,
  "Ġid": 5315,
  ",V": 5316,
  ",NULL": 5317,
  "ĠDe": 5318,
  ",O": 5319,
  "fp": 5320,
  ",X": 5321,
  "Ġpeople": 5322,
  ",Y": 5323,
  "ĠAr": 5324,
  "System": 5325,
  "Ġje": 5326,
  "lv": 5327,
  ",a": 5328,
  "Aut": 5329,
  ",and": 5330,
  "itten": 5331,
  ",Integer": 5332,
  "Ġmake": 5333,
  "lib": 5334,
  "aga": 5335,
  ",Object": 5336,
  ",Q": 5337,
  "cv": 5338,
  "GH": 5339,
  ",U": 5340,
  ",b": 5341,
  "iner": 5342,
  ",W": 5343,
  "Che": 5344,
  "Ġunder": 5345,
  "aced": 5346,
  ",c": 5347,
  ",System": 5348,
  "osa": 5349,
  ",Z": 5350,
  "That": 5351,
  "iger": 5352,
  "rn": 5353,
  ",d": 5354,
  "Page": 5355,
  "more": 5356,
  "Fn": 5357,
  "▁on": 5358,
  "rip": 5359,
  ",but": 5360,
  "Status": 5361,
  ",e": 5362,
  "aged": 5363,
  "iled": 5364,
  "sen": 5365,
  "Ġed": 5366,
  "aste": 5367,
  "exp": 5368,
  "aren": 5369,
  ",f": 5370,
  "▁O": 5371,
  ",arg": 5372,
  "title": 5373,
  "lm": 5374,
  "Ġsk": 5375,
  "active": 5376,
  "▁wi": 5377,
  "sf": 5378,
  ",col": 5379,
  "Action": 5380,
  ",g": 5381,
  "ialog": 5382,
  "cial": 5383,
  "ements": 5384,
  ",h": 5385,
  ",ch": 5386,
  "AND": 5387,
  ",i": 5388,
  ",char": 5389,
  ",data": 5390,
  "bx": 5391,
  ",color": 5392,
  ",const": 5393,
  "lb": 5394,
  "nder": 5395,
  "ĉp": 5396,
  ",false": 5397,
  "raf": 5398,
  "ancial": 5399,
  ",end": 5400,
  "Ġlo": 5401,
  ",int": 5402,
  "Ve": 5403,
  "post": 5404,
  "▁be": 5405,
  "ech": 5406,
  ",double": 5407,
  ",j": 5408,
  "Tx": 5409,
  ",en": 5410,
  "Ġatt": 5411,
  ",k": 5412,
  "urance": 5413,
  "ALL": 5414,
  "bm": 5415,
  "dh": 5416,
  ",l": 5417,
  "itude": 5418,
  "iden": 5419,
  ",av": 5420,
  "AU": 5421,
  "▁for": 5422,
  "oria": 5423,
  ",m": 5424,
  ",in": 5425,
  "erved": 5426,
  "(dy": 5427,
  "IST": 5428,
  "tm": 5429,
  ",file": 5430,
  "bed": 5431,
  "open": 5432,
  ",float": 5433,
  ",height": 5434,
  ",id": 5435,
  ",function": 5436,
  "pan": 5437,
  "vv": 5438,
  ",n": 5439,
  "option": 5440,
  "Content": 5441,
  ",get": 5442,
  ",name": 5443,
  ",etc": 5444,
  ",index": 5445,
  "jet": 5446,
  ",input": 5447,
  ",is": 5448,
  ",de": 5449,
  "resp": 5450,
  ",it": 5451,
  "equ": 5452,
  ",len": 5453,
  "_N": 5454,
  "Ir": 5455,
  ",img": 5456,
  "Ci": 5457,
  "VT": 5458,
  "(egt": 5459,
  "kb": 5460,
  ",null": 5461,
  ",max": 5462,
  "bp": 5463,
  "Ġfunction": 5464,
  "ads": 5465,
  "ERT": 5466,
  ",item": 5467,
  "valid": 5468,
  "Rec": 5469,
  ",key": 5470,
  "Client": 5471,
  ",p": 5472,
  "position": 5473,
  "Ur": 5474,
  "Ġwant": 5475,
  "NL": 5476,
  "MF": 5477,
  "(elm": 5478,
  ",ll": 5479,
  "amily": 5480,
  ",r": 5481,
  ",q": 5482,
  ",map": 5483,
  ",new": 5484,
  ",num": 5485,
  "car": 5486,
  ",min": 5487,
  ",s": 5488,
  ",no": 5489,
  ",msg": 5490,
  "cti": 5491,
  ",omitempty": 5492,
  "Bs": 5493,
  "Ġmost": 5494,
  "that": 5495,
  "std": 5496,
  "After": 5497,
  "bal": 5498,
  ",o": 5499,
  "lik": 5500,
  "VER": 5501,
  "anda": 5502,
  "Eng": 5503,
  "acity": 5504,
  ",nil": 5505,
  "was": 5506,
  ",next": 5507,
  "Off": 5508,
  "Ġpos": 5509,
  ",np": 5510,
  "Ġform": 5511,
  ",on": 5512,
  "sec": 5513,
  "ffect": 5514,
  ",opt": 5515,
  ",t": 5516,
  ",res": 5517,
  ",obj": 5518,
  "Layout": 5519,
  ",the": 5520,
  "coming": 5521,
  "Ġdon": 5522,
  ",self": 5523,
  ",re": 5524,
  "mk": 5525,
  ",out": 5526,
  ",pos": 5527,
  ",sizeof": 5528,
  "idden": 5529,
  ",my": 5530,
  "aha": 5531,
  "fm": 5532,
  "Ġtrans": 5533,
  "(equalTo": 5534,
  ",u": 5535,
  "iq": 5536,
  "Eq": 5537,
  ",row": 5538,
  ",v": 5539,
  "rp": 5540,
  "([\"": 5541,
  "pha": 5542,
  "gp": 5543,
  ",set": 5544,
  ",this": 5545,
  ",w": 5546,
  ",size": 5547,
  "_B": 5548,
  "aling": 5549,
  "([]": 5550,
  "band": 5551,
  "rab": 5552,
  ",str": 5553,
  ",start": 5554,
  "tz": 5555,
  ",text": 5556,
  ",x": 5557,
  "isp": 5558,
  ",std": 5559,
  ",y": 5560,
  "Ġvan": 5561,
  ",string": 5562,
  ",to": 5563,
  "pert": 5564,
  "YPE": 5565,
  ",sum": 5566,
  ",z": 5567,
  "yles": 5568,
  ",temp": 5569,
  ",true": 5570,
  "ceed": 5571,
  "▁J": 5572,
  "anta": 5573,
  "hand": 5574,
  ",time": 5575,
  ",tp": 5576,
  "Ġcar": 5577,
  "TY": 5578,
  ",tr": 5579,
  "olution": 5580,
  "how": 5581,
  ",user": 5582,
  "Click": 5583,
  "Ste": 5584,
  "Don": 5585,
  "(`": 5586,
  ",se": 5587,
  "Ġfin": 5588,
  ",type": 5589,
  "aten": 5590,
  ",value": 5591,
  "NV": 5592,
  "Ġver": 5593,
  ",uint": 5594,
  "ania": 5595,
  "AGE": 5596,
  "(`${": 5597,
  "cal": 5598,
  "Ġrem": 5599,
  ",url": 5600,
  "iri": 5601,
  ",val": 5602,
  "uni": 5603,
  "Hel": 5604,
  "ZZ": 5605,
  "udi": 5606,
  "EQ": 5607,
  ",var": 5608,
  "pk": 5609,
  "rid": 5610,
  "plit": 5611,
  "ĉm": 5612,
  ",www": 5613,
  "inding": 5614,
  "oring": 5615,
  ",width": 5616,
  "-A": 5617,
  "han": 5618,
  "orge": 5619,
  "ague": 5620,
  "Vis": 5621,
  "efore": 5622,
  "umer": 5623,
  "obj": 5624,
  "btn": 5625,
  ",we": 5626,
  "ogy": 5627,
  "ORT": 5628,
  "Ra": 5629,
  "ishing": 5630,
  "-Al": 5631,
  "EO": 5632,
  "(fb": 5633,
  "itation": 5634,
  "Ġinv": 5635,
  ",you": 5636,
  "-Am": 5637,
  "-American": 5638,
  "Number": 5639,
  "Ġsl": 5640,
  "-An": 5641,
  "lc": 5642,
  "actory": 5643,
  "Label": 5644,
  "Our": 5645,
  "alle": 5646,
  "ĠYou": 5647,
  "Ġvoid": 5648,
  "(fh": 5649,
  "-B": 5650,
  "berg": 5651,
  "-Ass": 5652,
  "-Aug": 5653,
  "Ġtwo": 5654,
  "ford": 5655,
  "([[": 5656,
  "-AA": 5657,
  "Now": 5658,
  "ully": 5659,
  "mx": 5660,
  "ospital": 5661,
  "Ġra": 5662,
  "Url": 5663,
  "Ġname": 5664,
  "([Ċ": 5665,
  "-Agent": 5666,
  "-Based": 5667,
  "-Americans": 5668,
  "-Allow": 5669,
  "iler": 5670,
  "tf": 5671,
  "-C": 5672,
  "-Benz": 5673,
  "Kn": 5674,
  "cons": 5675,
  "▁con": 5676,
  "-Ad": 5677,
  "(fil": 5678,
  "afe": 5679,
  "soft": 5680,
  "(fileName": 5681,
  "(filePath": 5682,
  "qt": 5683,
  "Pos": 5684,
  "wise": 5685,
  "-Ch": 5686,
  "-Ab": 5687,
  "-Afrika": 5688,
  "ius": 5689,
  "([-": 5690,
  "Aj": 5691,
  "request": 5692,
  "inder": 5693,
  "hp": 5694,
  "nl": 5695,
  "-Apr": 5696,
  "-Alpes": 5697,
  "-Amer": 5698,
  "-Co": 5699,
  "Ġstud": 5700,
  "-AM": 5701,
  "sr": 5702,
  "-Ar": 5703,
  "point": 5704,
  "-Col": 5705,
  "-AS": 5706,
  "-And": 5707,
  "ATION": 5708,
  "(\\\"": 5709,
  "-BEGIN": 5710,
  "-Cola": 5711,
  "Are": 5712,
  "(^": 5713,
  "-Compatible": 5714,
  "Ye": 5715,
  "-D": 5716,
  "-Afr": 5717,
  "(_.": 5718,
  "rum": 5719,
  "-Bar": 5720,
  "-Con": 5721,
  "-Control": 5722,
  "Ġloc": 5723,
  "inate": 5724,
  "-App": 5725,
  "izer": 5726,
  "(_)": 5727,
  "cor": 5728,
  "FN": 5729,
  "Ġevery": 5730,
  "istics": 5731,
  "(_,": 5732,
  "-As": 5733,
  "Ġthen": 5734,
  "Ġbo": 5735,
  "-Be": 5736,
  "(fm": 5737,
  "Ã©s": 5738,
  "fin": 5739,
  "-Class": 5740,
  "(`/": 5741,
  "-Cal": 5742,
  "-Day": 5743,
  "-E": 5744,
  "num": 5745,
  "path": 5746,
  "-Aus": 5747,
  "vas": 5748,
  "Call": 5749,
  "-CS": 5750,
  "cos": 5751,
  "ERR": 5752,
  "-Christian": 5753,
  "ifier": 5754,
  "-CD": 5755,
  "attle": 5756,
  "Util": 5757,
  "-Bl": 5758,
  "-F": 5759,
  "arp": 5760,
  "aki": 5761,
  "-Bo": 5762,
  "-Br": 5763,
  "(fontSize": 5764,
  "top": 5765,
  "Ġmet": 5766,
  "vest": 5767,
  "-Fi": 5768,
  "gest": 5769,
  "-Cl": 5770,
  "center": 5771,
  "ĠTr": 5772,
  "(forKey": 5773,
  "ĉif": 5774,
  "-DD": 5775,
  "-G": 5776,
  "URL": 5777,
  "oni": 5778,
  "istry": 5779,
  "-Core": 5780,
  "-Cs": 5781,
  "-Com": 5782,
  "uma": 5783,
  "ellow": 5784,
  "-Dec": 5785,
  "Ġpres": 5786,
  "-H": 5787,
  "amento": 5788,
  "UG": 5789,
  "-General": 5790,
  "awa": 5791,
  "-European": 5792,
  "-East": 5793,
  "alo": 5794,
  "oli": 5795,
  "mr": 5796,
  "enz": 5797,
  "-I": 5798,
  "-Car": 5799,
  "usiness": 5800,
  "gle": 5801,
  "-END": 5802,
  "sta": 5803,
  "▁V": 5804,
  "Ġshould": 5805,
  "iÃ³n": 5806,
  "actions": 5807,
  "-II": 5808,
  "-ID": 5809,
  "-Free": 5810,
  "zn": 5811,
  "-Dame": 5812,
  "Ġsom": 5813,
  "-IN": 5814,
  "-De": 5815,
  "inger": 5816,
  "Ġles": 5817,
  "-Feb": 5818,
  "atz": 5819,
  "Web": 5820,
  "-FIRST": 5821,
  "-In": 5822,
  "izz": 5823,
  "username": 5824,
  "Qt": 5825,
  "-El": 5826,
  "-J": 5827,
  "▁K": 5828,
  "Listener": 5829,
  "-End": 5830,
  "-Er": 5831,
  "(gameObject": 5832,
  "event": 5833,
  "ypes": 5834,
  "ogen": 5835,
  "izes": 5836,
  "sz": 5837,
  "ROM": 5838,
  "default": 5839,
  "riter": 5840,
  "-DE": 5841,
  "-K": 5842,
  "Ġil": 5843,
  "-Europe": 5844,
  "ITY": 5845,
  "utt": 5846,
  "ĠIf": 5847,
  "-L": 5848,
  "(gcf": 5849,
  "Check": 5850,
  "-Ge": 5851,
  "(getActivity": 5852,
  "-La": 5853,
  "-Le": 5854,
  "Ġafter": 5855,
  "-France": 5856,
  "ACK": 5857,
  "(getApplicationContext": 5858,
  "apa": 5859,
  "rx": 5860,
  "-En": 5861,
  "Ġhelp": 5862,
  "(getClass": 5863,
  "-M": 5864,
  "-INF": 5865,
  "ethod": 5866,
  "(getContext": 5867,
  "-He": 5868,
  "ancy": 5869,
  "lie": 5870,
  "-Jan": 5871,
  "(getResources": 5872,
  "ares": 5873,
  "Ġelse": 5874,
  "-MM": 5875,
  "Ġsaid": 5876,
  "(getString": 5877,
  "enge": 5878,
  "Control": 5879,
  "-Man": 5880,
  "Read": 5881,
  "-Fl": 5882,
  "-Identifier": 5883,
  "-Mar": 5884,
  "-Fr": 5885,
  "-Hol": 5886,
  "_r": 5887,
  "gin": 5888,
  "Ġreal": 5889,
  "ondon": 5890,
  "block": 5891,
  "▁U": 5892,
  "isl": 5893,
  "encia": 5894,
  "lying": 5895,
  "-IV": 5896,
  "-Jun": 5897,
  "Ġcould": 5898,
  "anged": 5899,
  "uary": 5900,
  "(gp": 5901,
  "▁en": 5902,
  "Query": 5903,
  "assert": 5904,
  "-N": 5905,
  "-Go": 5906,
  "-Gr": 5907,
  "Entity": 5908,
  "-Ind": 5909,
  "Va": 5910,
  "Ġwell": 5911,
  "-Javadoc": 5912,
  "section": 5913,
  "Ġvery": 5914,
  "rey": 5915,
  "-HD": 5916,
  "-Mail": 5917,
  "Ġthese": 5918,
  "-Level": 5919,
  "-Is": 5920,
  "-LAST": 5921,
  "pid": 5922,
  "comes": 5923,
  "-Life": 5924,
  "-O": 5925,
  "-Mart": 5926,
  "ĠSh": 5927,
  "-License": 5928,
  "-May": 5929,
  "Ġlong": 5930,
  "-Men": 5931,
  "Ġinst": 5932,
  "-P": 5933,
  "-IP": 5934,
  "ipe": 5935,
  "-Line": 5936,
  "(hObject": 5937,
  "mar": 5938,
  "Ġgood": 5939,
  "-Im": 5940,
  "-Kom": 5941,
  "(hWnd": 5942,
  "▁ha": 5943,
  "rik": 5944,
  "-Louis": 5945,
  "-It": 5946,
  "args": 5947,
  "-MS": 5948,
  "Ġpol": 5949,
  "-Mobile": 5950,
  "bel": 5951,
  "ULT": 5952,
  "-Q": 5953,
  "rad": 5954,
  "Arg": 5955,
  "sequ": 5956,
  "-On": 5957,
  "-Pro": 5958,
  "-Marie": 5959,
  "uta": 5960,
  "-R": 5961,
  "imb": 5962,
  "-New": 5963,
  "-Me": 5964,
  "wood": 5965,
  "-No": 5966,
  "(hdr": 5967,
  "asta": 5968,
  "-Nov": 5969,
  "-NLS": 5970,
  "-S": 5971,
  "-Re": 5972,
  "amin": 5973,
  "-ROM": 5974,
  "height": 5975,
  "mal": 5976,
  "-Ray": 5977,
  "wing": 5978,
  "este": 5979,
  "-Pacific": 5980,
  "-One": 5981,
  "-Lo": 5982,
  "TX": 5983,
  "Ġhim": 5984,
  "Point": 5985,
  "Ġbest": 5986,
  "-Mod": 5987,
  "func": 5988,
  "Ġthrough": 5989,
  "Link": 5990,
  "ILE": 5991,
  "Ġdid": 5992,
  "Back": 5993,
  "-Min": 5994,
  "nam": 5995,
  "-Oct": 5996,
  "-Ne": 5997,
  "width": 5998,
  "erve": 5999,
  "Top": 6000,
  "lier": 6001,
  "Ext": 6002,
  "-Mus": 6003,
  "-Se": 6004,
  "-Sh": 6005,
  "static": 6006,
  "-Out": 6007,
  "oro": 6008,
  "Ġstart": 6009,
  "ses": 6010,
  "-St": 6011,
  "▁it": 6012,
  "edy": 6013,
  "ography": 6014,
  "-President": 6015,
  "doc": 6016,
  "rot": 6017,
  "-T": 6018,
  "Property": 6019,
  "-Or": 6020,
  "Ġcre": 6021,
  "-PCR": 6022,
  "-Star": 6023,
  "eren": 6024,
  "Pol": 6025,
  "Ġeff": 6026,
  "-Off": 6027,
  "gal": 6028,
  "-Paul": 6029,
  "-TV": 6030,
  "format": 6031,
  "ecause": 6032,
  "-Pl": 6033,
  "-Pierre": 6034,
  "-SA": 6035,
  "-Pr": 6036,
  "-Net": 6037,
  "-Th": 6038,
  "Ty": 6039,
  "(iOS": 6040,
  "▁an": 6041,
  "Rem": 6042,
  "-The": 6043,
  "Why": 6044,
  "INE": 6045,
  "(iParam": 6046,
  "header": 6047,
  "-ST": 6048,
  "-Time": 6049,
  "tb": 6050,
  "VID": 6051,
  "(ib": 6052,
  "-U": 6053,
  "ander": 6054,
  "-Tr": 6055,
  "-Type": 6056,
  "-Par": 6057,
  "-UA": 6058,
  "Exp": 6059,
  "-Un": 6060,
  "-US": 6061,
  "-Reg": 6062,
  "Ġve": 6063,
  "-State": 6064,
  "ename": 6065,
  "-V": 6066,
  "-Shirt": 6067,
  "-PC": 6068,
  "Base": 6069,
  "iste": 6070,
  "-Qa": 6071,
  "-Up": 6072,
  "Any": 6073,
  "-W": 6074,
  "dir": 6075,
  "Ġspec": 6076,
  "aries": 6077,
  "font": 6078,
  "Dec": 6079,
  "Ġfind": 6080,
  "-To": 6081,
  "Ġsee": 6082,
  "ulf": 6083,
  "-Sch": 6084,
  "-X": 6085,
  "Ġprov": 6086,
  "-Saint": 6087,
  "esch": 6088,
  "-Y": 6089,
  "erk": 6090,
  "enced": 6091,
  "-Z": 6092,
  "-West": 6093,
  "Ġresult": 6094,
  "asons": 6095,
  "igo": 6096,
  "-a": 6097,
  "▁pro": 6098,
  "mem": 6099,
  "-Ta": 6100,
  "olar": 6101,
  "Ġfun": 6102,
  "-ab": 6103,
  "-ac": 6104,
  "-SE": 6105,
  "-SP": 6106,
  "-Sp": 6107,
  "Ġprodu": 6108,
  "respond": 6109,
  "Ġaut": 6110,
  "Ġnow": 6111,
  "osis": 6112,
  "-access": 6113,
  "(iii": 6114,
  "Ġsi": 6115,
  "-Step": 6116,
  "-Year": 6117,
  "-action": 6118,
  "Ġfil": 6119,
  "-Term": 6120,
  "-acre": 6121,
  "Ġmon": 6122,
  "-ad": 6123,
  "ocr": 6124,
  "Ġap": 6125,
  "lan": 6126,
  "-active": 6127,
  "Max": 6128,
  "-Version": 6129,
  "-add": 6130,
  "-Sm": 6131,
  "Instance": 6132,
  "ABLE": 6133,
  "enty": 6134,
  "-Unis": 6135,
  "True": 6136,
  "aph": 6137,
  "-Za": 6138,
  "ATA": 6139,
  "-admin": 6140,
  "_w": 6141,
  "-Ver": 6142,
  "-aff": 6143,
  "-Val": 6144,
  "-ag": 6145,
  "aria": 6146,
  "-Uni": 6147,
  "-after": 6148,
  "Ġperson": 6149,
  "ĠLe": 6150,
  "-We": 6151,
  "-age": 6152,
  "haps": 6153,
  "host": 6154,
  "-aged": 6155,
  "aches": 6156,
  "oor": 6157,
  "-al": 6158,
  "-about": 6159,
  "-agent": 6160,
  "Column": 6161,
  "las": 6162,
  "-air": 6163,
  "-align": 6164,
  "ivil": 6165,
  "OV": 6166,
  "context": 6167,
  "âĢĻt": 6168,
  "-all": 6169,
  "-account": 6170,
  "-address": 6171,
  "level": 6172,
  "-am": 6173,
  "-UP": 6174,
  "got": 6175,
  "INT": 6176,
  "nia": 6177,
  "fw": 6178,
  "eler": 6179,
  "-alone": 6180,
  "-alt": 6181,
  "-an": 6182,
  "-alpha": 6183,
  "-actions": 6184,
  "aled": 6185,
  "size": 6186,
  "pes": 6187,
  "Vs": 6188,
  "Handler": 6189,
  "Ġpara": 6190,
  "-and": 6191,
  "Ġwhere": 6192,
  "ONT": 6193,
  "-added": 6194,
  "det": 6195,
  "enter": 6196,
  "-adjust": 6197,
  "-analysis": 6198,
  "ĠEx": 6199,
  "(itemView": 6200,
  "illing": 6201,
  "API": 6202,
  "-angle": 6203,
  "Ġread": 6204,
  "-Web": 6205,
  "Ġlist": 6206,
  "Yes": 6207,
  "-able": 6208,
  "-addon": 6209,
  "▁ne": 6210,
  "-ap": 6211,
  "(itr": 6212,
  "-app": 6213,
  "hood": 6214,
  "ois": 6215,
  "-act": 6216,
  "-api": 6217,
  "(jPanel": 6218,
  "-ar": 6219,
  "Ret": 6220,
  "-area": 6221,
  "imer": 6222,
  "ship": 6223,
  "-aa": 6224,
  "ifi": 6225,
  "wx": 6226,
  "war": 6227,
  "(jButton": 6228,
  "Ġgl": 6229,
  "-aar": 6230,
  "-arm": 6231,
  "ptr": 6232,
  "ught": 6233,
  "-around": 6234,
  "-art": 6235,
  "-as": 6236,
  "iÃ³": 6237,
  "-af": 6238,
  "ĠAnd": 6239,
  "Ġeven": 6240,
  "-ass": 6241,
  "email": 6242,
  "▁st": 6243,
  "(jj": 6244,
  "-at": 6245,
  "Ġdown": 6246,
  "Mon": 6247,
  "-ach": 6248,
  "-associated": 6249,
  "bet": 6250,
  "-au": 6251,
  "pol": 6252,
  "(jq": 6253,
  "ERS": 6254,
  "-aut": 6255,
  "Builder": 6256,
  "-approved": 6257,
  "Tag": 6258,
  "select": 6259,
  "-animation": 6260,
  "jk": 6261,
  "-auto": 6262,
  "-auth": 6263,
  "EST": 6264,
  "del": 6265,
  "-author": 6266,
  "-any": 6267,
  "msg": 6268,
  "-aos": 6269,
  "flow": 6270,
  "van": 6271,
  "Start": 6272,
  "-arrow": 6273,
  "▁me": 6274,
  "-b": 6275,
  "iring": 6276,
  "Row": 6277,
  "pet": 6278,
  "Cal": 6279,
  "-amer": 6280,
  "Ġinform": 6281,
  "-axis": 6282,
  "-back": 6283,
  "-aga": 6284,
  "itable": 6285,
  "APP": 6286,
  "ZE": 6287,
  "Min": 6288,
  "(kv": 6289,
  "Stream": 6290,
  "-anak": 6291,
  "-ah": 6292,
  "▁la": 6293,
  "-ant": 6294,
  "-ai": 6295,
  "-backed": 6296,
  "Ġway": 6297,
  "-array": 6298,
  "uda": 6299,
  "-bar": 6300,
  "-ak": 6301,
  "-aj": 6302,
  "-based": 6303,
  "-ball": 6304,
  "kit": 6305,
  "-band": 6306,
  "yan": 6307,
  "-be": 6308,
  "-ang": 6309,
  "-base": 6310,
  "Ġnum": 6311,
  "comment": 6312,
  "-aware": 6313,
  "-awesome": 6314,
  "-bed": 6315,
  "-being": 6316,
  "parent": 6317,
  "-bearing": 6318,
  "ords": 6319,
  "They": 6320,
  "etch": 6321,
  "uli": 6322,
  "state": 6323,
  "ĠAs": 6324,
  "cher": 6325,
  "-average": 6326,
  "-background": 6327,
  "Ġtem": 6328,
  "-between": 6329,
  "iana": 6330,
  "-bal": 6331,
  "-best": 6332,
  "-beta": 6333,
  "-assisted": 6334,
  "Ġimport": 6335,
  "Num": 6336,
  "rial": 6337,
  "-att": 6338,
  "-arr": 6339,
  "-ann": 6340,
  "last": 6341,
  "-bit": 6342,
  "-bl": 6343,
  "icial": 6344,
  "-bin": 6345,
  "Ġhand": 6346,
  "fit": 6347,
  "▁that": 6348,
  "-block": 6349,
  "-binding": 6350,
  "▁as": 6351,
  "ORD": 6352,
  "EG": 6353,
  "Dep": 6354,
  "Let": 6355,
  "-black": 6356,
  "-away": 6357,
  "obs": 6358,
  "Net": 6359,
  "-ath": 6360,
  "lag": 6361,
  "-blue": 6362,
  "alls": 6363,
  "-body": 6364,
  "-bo": 6365,
  "-bel": 6366,
  "ously": 6367,
  "Ġexper": 6368,
  "-board": 6369,
  "aja": 6370,
  "-bold": 6371,
  "-bg": 6372,
  "-book": 6373,
  "elo": 6374,
  "-av": 6375,
  "-basic": 6376,
  "Car": 6377,
  "Ġden": 6378,
  "-aw": 6379,
  "rote": 6380,
  "▁with": 6381,
  "-border": 6382,
  "ĠCon": 6383,
  "-bedroom": 6384,
  "hw": 6385,
  "ECT": 6386,
  "-bottom": 6387,
  "Ġhigh": 6388,
  "encies": 6389,
  "Token": 6390,
  "Ġpor": 6391,
  "-ban": 6392,
  "-box": 6393,
  "apping": 6394,
  "-born": 6395,
  "-bound": 6396,
  "ports": 6397,
  "Gener": 6398,
  "odd": 6399,
  "env": 6400,
  "rio": 6401,
  "antes": 6402,
  "arden": 6403,
  "json": 6404,
  "-brand": 6405,
  "Ġright": 6406,
  "-btn": 6407,
  "iene": 6408,
  "child": 6409,
  "-bind": 6410,
  "Select": 6411,
  "_h": 6412,
  "END": 6413,
  "ibly": 6414,
  "-breaking": 6415,
  "▁or": 6416,
  "-ben": 6417,
  "ronic": 6418,
  "isation": 6419,
  "nik": 6420,
  "_L": 6421,
  "(ln": 6422,
  "-build": 6423,
  "-bas": 6424,
  "Ġbel": 6425,
  "-blog": 6426,
  "-bootstrap": 6427,
  "Char": 6428,
  "-big": 6429,
  "-ay": 6430,
  "iche": 6431,
  "-button": 6432,
  "Xi": 6433,
  "rought": 6434,
  "-building": 6435,
  "next": 6436,
  "-ba": 6437,
  "ĠWh": 6438,
  "-built": 6439,
  "ACT": 6440,
  "-by": 6441,
  "-bordered": 6442,
  "vision": 6443,
  "-but": 6444,
  "-c": 6445,
  "-bodied": 6446,
  "win": 6447,
  "(localStorage": 6448,
  "eline": 6449,
  "-bi": 6450,
  "-books": 6451,
  "summary": 6452,
  "asure": 6453,
  "IGN": 6454,
  "Ġinclud": 6455,
  "-called": 6456,
  "Ġvalue": 6457,
  "-bs": 6458,
  "-browser": 6459,
  "Ġext": 6460,
  "oom": 6461,
  "amos": 6462,
  "-br": 6463,
  "-cap": 6464,
  "-car": 6465,
  "-can": 6466,
  "ests": 6467,
  "oles": 6468,
  "-card": 6469,
  "vin": 6470,
  "Ġaf": 6471,
  "bin": 6472,
  "-break": 6473,
  "(lon": 6474,
  "uen": 6475,
  "-business": 6476,
  "Ġcor": 6477,
  "-care": 6478,
  "Api": 6479,
  "area": 6480,
  "-case": 6481,
  "VG": 6482,
  "Menu": 6483,
  "-boy": 6484,
  "udio": 6485,
  "Ġdiffer": 6486,
  "-ce": 6487,
  "-cent": 6488,
  "-buffer": 6489,
  "▁com": 6490,
  "-center": 6491,
  "-cell": 6492,
  "(lr": 6493,
  "-cal": 6494,
  "iller": 6495,
  "-cache": 6496,
  "Ġtype": 6497,
  "irk": 6498,
  "-call": 6499,
  "Del": 6500,
  "May": 6501,
  "-buy": 6502,
  "-ch": 6503,
  "aro": 6504,
  "-centered": 6505,
  "Ġcr": 6506,
  "ims": 6507,
  "like": 6508,
  "-century": 6509,
  "ederal": 6510,
  "▁he": 6511,
  "bro": 6512,
  "Method": 6513,
  "-byte": 6514,
  "Ġserv": 6515,
  "Style": 6516,
  "(mContext": 6517,
  "-cert": 6518,
  "Ġum": 6519,
  "Mat": 6520,
  "version": 6521,
  "-chain": 6522,
  "Var": 6523,
  "req": 6524,
  "-cart": 6525,
  "lements": 6526,
  "-change": 6527,
  "-ca": 6528,
  "-channel": 6529,
  "-campus": 6530,
  "Source": 6531,
  "-check": 6532,
  "Ġlet": 6533,
  "onom": 6534,
  "-catching": 6535,
  "-category": 6536,
  "-che": 6537,
  "-caption": 6538,
  "ĉf": 6539,
  "ilities": 6540,
  "idi": 6541,
  "ĠCl": 6542,
  "-child": 6543,
  "yz": 6544,
  "Ġtra": 6545,
  "Ġplay": 6546,
  "ashing": 6547,
  "-ci": 6548,
  "arily": 6549,
  "acing": 6550,
  "(mapStateToProps": 6551,
  "-centric": 6552,
  "Ġsol": 6553,
  "obe": 6554,
  "math": 6555,
  "▁at": 6556,
  "-cl": 6557,
  "-choice": 6558,
  "-circle": 6559,
  "vet": 6560,
  "-class": 6561,
  "arc": 6562,
  "uman": 6563,
  "-changing": 6564,
  "chi": 6565,
  "mv": 6566,
  "oir": 6567,
  "-city": 6568,
  "_g": 6569,
  "arth": 6570,
  "-central": 6571,
  "bur": 6572,
  "-click": 6573,
  "Ġstat": 6574,
  "-cat": 6575,
  "Ġlos": 6576,
  "-carbon": 6577,
  "-character": 6578,
  "ACE": 6579,
  "-client": 6580,
  "Part": 6581,
  "▁ex": 6582,
  "(mb": 6583,
  "-co": 6584,
  "-checkbox": 6585,
  "-chair": 6586,
  "-col": 6587,
  "-chief": 6588,
  "Der": 6589,
  "-cloud": 6590,
  "-color": 6591,
  "-code": 6592,
  "-carb": 6593,
  "-char": 6594,
  "Red": 6595,
  "atives": 6596,
  "Ġdr": 6597,
  "Ġmany": 6598,
  "Ġdec": 6599,
  "-chart": 6600,
  "▁se": 6601,
  "-com": 6602,
  "BUG": 6603,
  "-column": 6604,
  "-colored": 6605,
  "Ġmuch": 6606,
  "EW": 6607,
  "usion": 6608,
  "cur": 6609,
  "ĠPl": 6610,
  "azz": 6611,
  "-cli": 6612,
  "-commerce": 6613,
  "Med": 6614,
  "-chat": 6615,
  "alue": 6616,
  "ĠSystem": 6617,
  "-comp": 6618,
  "term": 6619,
  "-close": 6620,
  "Ver": 6621,
  "-clock": 6622,
  "-con": 6623,
  "Mar": 6624,
  "▁qu": 6625,
  "eur": 6626,
  "esta": 6627,
  "-component": 6628,
  "-components": 6629,
  "First": 6630,
  "-clean": 6631,
  "▁li": 6632,
  "-condition": 6633,
  "aven": 6634,
  "ĉs": 6635,
  "-collapse": 6636,
  "-conf": 6637,
  "Ġused": 6638,
  "base": 6639,
  "-cont": 6640,
  "-config": 6641,
  "Comm": 6642,
  "odo": 6643,
  "uses": 6644,
  "-chip": 6645,
  "requ": 6646,
  "-connected": 6647,
  "(ml": 6648,
  "then": 6649,
  "-container": 6650,
  "oday": 6651,
  "Ġbec": 6652,
  "-conscious": 6653,
  "ategy": 6654,
  "-content": 6655,
  "Ġfam": 6656,
  "-consuming": 6657,
  "Ġprivate": 6658,
  "ervices": 6659,
  "-control": 6660,
  "-contact": 6661,
  "rier": 6662,
  "-containing": 6663,
  "-cn": 6664,
  "owa": 6665,
  "alla": 6666,
  "Art": 6667,
  "-columns": 6668,
  "-controlled": 6669,
  "-cols": 6670,
  "Fin": 6671,
  "-compose": 6672,
  "-cig": 6673,
  "▁mo": 6674,
  "-core": 6675,
  "-cor": 6676,
  "-comment": 6677,
  "-cost": 6678,
  "ville": 6679,
  "-count": 6680,
  "icles": 6681,
  "-confidence": 6682,
  "Create": 6683,
  "-cons": 6684,
  "client": 6685,
  "-cle": 6686,
  "atively": 6687,
  "alf": 6688,
  "Cell": 6689,
  "-common": 6690,
  "-coated": 6691,
  "Opt": 6692,
  "ket": 6693,
  "agram": 6694,
  "rea": 6695,
  "-country": 6696,
  "Ġtrue": 6697,
  "acters": 6698,
  "-course": 6699,
  "ians": 6700,
  "▁you": 6701,
  "-covered": 6702,
  "github": 6703,
  "ulo": 6704,
  "group": 6705,
  "-commercial": 6706,
  "iers": 6707,
  "-create": 6708,
  "URE": 6709,
  "update": 6710,
  "product": 6711,
  "-cross": 6712,
  "Ġdoes": 6713,
  "-d": 6714,
  "phone": 6715,
  "REF": 6716,
  "-cultural": 6717,
  "asp": 6718,
  "-controls": 6719,
  "-cut": 6720,
  "▁le": 6721,
  "-current": 6722,
  "-copy": 6723,
  "omas": 6724,
  "Met": 6725,
  "-danger": 6726,
  "rupt": 6727,
  "-cycle": 6728,
  "bag": 6729,
  "-da": 6730,
  "ugh": 6731,
  "-dark": 6732,
  "rw": 6733,
  "-contained": 6734,
  "itory": 6735,
  "-day": 6736,
  "ĠString": 6737,
  "mercial": 6738,
  "-data": 6739,
  "aca": 6740,
  "Attribute": 6741,
  "-counter": 6742,
  "-date": 6743,
  "icks": 6744,
  "Child": 6745,
  "Ã¼r": 6746,
  "-de": 6747,
  "-context": 6748,
  "Change": 6749,
  "-dd": 6750,
  "page": 6751,
  "-decoration": 6752,
  "Ġsuch": 6753,
  "Last": 6754,
  "-def": 6755,
  "-default": 6756,
  "ĠFr": 6757,
  "idos": 6758,
  "ajo": 6759,
  "wl": 6760,
  "-custom": 6761,
  "III": 6762,
  "Ġtest": 6763,
  "-cr": 6764,
  "-defined": 6765,
  "rz": 6766,
  "-conditioned": 6767,
  "anti": 6768,
  "-degree": 6769,
  "-del": 6770,
  "iced": 6771,
  "Rel": 6772,
  "weight": 6773,
  "(nc": 6774,
  "-dem": 6775,
  "nis": 6776,
  "itect": 6777,
  "-demand": 6778,
  "_R": 6779,
  "-cur": 6780,
  "-dependent": 6781,
  "Block": 6782,
  "Ġsch": 6783,
  "-depth": 6784,
  "-des": 6785,
  "-density": 6786,
  "Dev": 6787,
  "stract": 6788,
  "ismo": 6789,
  "-derived": 6790,
  "-css": 6791,
  "response": 6792,
  "▁so": 6793,
  "aje": 6794,
  "aine": 6795,
  "-described": 6796,
  "enses": 6797,
  "burg": 6798,
  "Load": 6799,
  "Ġbecause": 6800,
  "LOG": 6801,
  "-design": 6802,
  "(newValue": 6803,
  "gz": 6804,
  "-dess": 6805,
  "ICE": 6806,
  "-designed": 6807,
  "-db": 6808,
  "enda": 6809,
  "Ġnull": 6810,
  "-delay": 6811,
  "lia": 6812,
  "iento": 6813,
  "-dev": 6814,
  "-cu": 6815,
  "lad": 6816,
  "-di": 6817,
  "-cre": 6818,
  "cles": 6819,
  "-dimensional": 6820,
  "-defense": 6821,
  "Null": 6822,
  "Address": 6823,
  "Factory": 6824,
  "ilo": 6825,
  "-digit": 6826,
  "-cÃ¼": 6827,
  "-direction": 6828,
  "-dis": 6829,
  "-delete": 6830,
  "-direct": 6831,
  "anya": 6832,
  "-description": 6833,
  "grad": 6834,
  "-den": 6835,
  "initely": 6836,
  "-demo": 6837,
  "-directed": 6838,
  "osc": 6839,
  "-disable": 6840,
  "-disc": 6841,
  "Ã³n": 6842,
  "-detail": 6843,
  "Ġthink": 6844,
  "-details": 6845,
  "-do": 6846,
  "-dist": 6847,
  "▁al": 6848,
  "-div": 6849,
  "-dec": 6850,
  "Title": 6851,
  "(nr": 6852,
  "-distance": 6853,
  "Cor": 6854,
  "udo": 6855,
  "-dom": 6856,
  "-dialog": 6857,
  "▁z": 6858,
  "-down": 6859,
  "ANG": 6860,
  "-domain": 6861,
  "-door": 6862,
  "-det": 6863,
  "Ġyears": 6864,
  "iano": 6865,
  "Product": 6866,
  "Ġpost": 6867,
  "-dir": 6868,
  "-driven": 6869,
  "-desc": 6870,
  "ming": 6871,
  "har": 6872,
  "serv": 6873,
  "tml": 6874,
  "Default": 6875,
  "-development": 6876,
  "-device": 6877,
  "-du": 6878,
  "-dismiss": 6879,
  "-e": 6880,
  "Edit": 6881,
  "arts": 6882,
  "Command": 6883,
  "Ġdem": 6884,
  "-display": 6885,
  "cat": 6886,
  "▁ma": 6887,
  "-doc": 6888,
  "ATH": 6889,
  "eno": 6890,
  "-dessus": 6891,
  "bug": 6892,
  "-dollar": 6893,
  "-ed": 6894,
  "-east": 6895,
  "Ġmen": 6896,
  "aron": 6897,
  "rive": 6898,
  "oga": 6899,
  "-economic": 6900,
  "aws": 6901,
  "-edge": 6902,
  "-dr": 6903,
  "urb": 6904,
  "-effect": 6905,
  "(od": 6906,
  "-drop": 6907,
  "-dessous": 6908,
  "-effective": 6909,
  "Phone": 6910,
  "-dire": 6911,
  "ilit": 6912,
  "-dropdown": 6913,
  "ĠOn": 6914,
  "-effects": 6915,
  "-duty": 6916,
  "Ġbus": 6917,
  "-el": 6918,
  "-eight": 6919,
  "Ġhere": 6920,
  "-download": 6921,
  "-elect": 6922,
  "-earth": 6923,
  "-em": 6924,
  "-driving": 6925,
  "Ġgreat": 6926,
  "FIG": 6927,
  "-element": 6928,
  "-election": 6929,
  "-en": 6930,
  "olic": 6931,
  "-duration": 6932,
  "-edit": 6933,
  "-end": 6934,
  "-dot": 6935,
  "antly": 6936,
  "images": 6937,
  "▁are": 6938,
  "-editor": 6939,
  "ĠEn": 6940,
  "frac": 6941,
  "-eff": 6942,
  "-empty": 6943,
  "-dose": 6944,
  "SET": 6945,
  "_H": 6946,
  "stra": 6947,
  "-enabled": 6948,
  "pected": 6949,
  "-efficient": 6950,
  "Ang": 6951,
  "-ended": 6952,
  "unit": 6953,
  "-energy": 6954,
  "ĠNew": 6955,
  "ouch": 6956,
  "Ġchar": 6957,
  "-engine": 6958,
  "orrow": 6959,
  "-equ": 6960,
  "OG": 6961,
  "Update": 6962,
  "rod": 6963,
  "-entry": 6964,
  "DN": 6965,
  "aman": 6966,
  "Mode": 6967,
  "-equiv": 6968,
  "osph": 6969,
  "-es": 6970,
  "-error": 6971,
  "only": 6972,
  "-era": 6973,
  "bra": 6974,
  "ĠFor": 6975,
  "pret": 6976,
  "oda": 6977,
  "Ġday": 6978,
  "heet": 6979,
  "-et": 6980,
  "▁Y": 6981,
  "-ear": 6982,
  "Je": 6983,
  "-established": 6984,
  "-esteem": 6985,
  "Les": 6986,
  "Equal": 6987,
  "nel": 6988,
  "-ex": 6989,
  "ctx": 6990,
  "eri": 6991,
  "-ending": 6992,
  "Pat": 6993,
  "-dÃ©": 6994,
  "-event": 6995,
  "-dÉĻ": 6996,
  "-ever": 6997,
  "-email": 6998,
  "▁by": 6999,
  "ĠBe": 7000,
  "Ġvis": 7001,
  "-employed": 7002,
  "-exp": 7003,
  "bes": 7004,
  "lee": 7005,
  "-existent": 7006,
  "-existing": 7007,
  "-f": 7008,
  "-dro": 7009,
  "ski": 7010,
  "start": 7011,
  "ners": 7012,
  "-enh": 7013,
  "-ext": 7014,
  "Que": 7015,
  "-expression": 7016,
  "orial": 7017,
  "Ġins": 7018,
  "-eye": 7019,
  "Use": 7020,
  "-eyed": 7021,
  "-face": 7022,
  "▁The": 7023,
  "pons": 7024,
  "-family": 7025,
  "-enter": 7026,
  "oca": 7027,
  "-even": 7028,
  "-ek": 7029,
  "ears": 7030,
  "-eb": 7031,
  "-equipped": 7032,
  "-faced": 7033,
  "acht": 7034,
  "-eng": 7035,
  "-elle": 7036,
  "-events": 7037,
  "-fe": 7038,
  "-facing": 7039,
  "aza": 7040,
  "-factor": 7041,
  "NU": 7042,
  "-fashion": 7043,
  "-ede": 7044,
  "-fashioned": 7045,
  "-example": 7046,
  "-fat": 7047,
  "-eslint": 7048,
  "aturday": 7049,
  "(parseInt": 7050,
  "GET": 7051,
  "-ee": 7052,
  "-env": 7053,
  "-fed": 7054,
  "eting": 7055,
  "-expanded": 7056,
  "-fi": 7057,
  "known": 7058,
  "-field": 7059,
  "zu": 7060,
  "rog": 7061,
  "-eg": 7062,
  "which": 7063,
  "-file": 7064,
  "card": 7065,
  "click": 7066,
  "Ġsign": 7067,
  "angle": 7068,
  "-fiction": 7069,
  "zd": 7070,
  "-ent": 7071,
  "Case": 7072,
  "-er": 7073,
  "-eji": 7074,
  "▁wh": 7075,
  "amil": 7076,
  "-filled": 7077,
  "Here": 7078,
  "-ele": 7079,
  "-est": 7080,
  "-expand": 7081,
  "-filter": 7082,
  "Order": 7083,
  "author": 7084,
  "-final": 7085,
  "Ġgener": 7086,
  "REE": 7087,
  "-eme": 7088,
  "IND": 7089,
  "uster": 7090,
  "-fl": 7091,
  "-first": 7092,
  "-fast": 7093,
  "ONE": 7094,
  "-five": 7095,
  "-flex": 7096,
  "-fit": 7097,
  "Http": 7098,
  "long": 7099,
  "IES": 7100,
  "-feira": 7101,
  "osh": 7102,
  "Ġagain": 7103,
  "iling": 7104,
  "_v": 7105,
  "-feedback": 7106,
  "-facebook": 7107,
  "Ġbefore": 7108,
  "atever": 7109,
  "-fluid": 7110,
  "ensity": 7111,
  "agg": 7112,
  "-flow": 7113,
  "-fold": 7114,
  "ugar": 7115,
  "eks": 7116,
  "-for": 7117,
  "(pf": 7118,
  "-files": 7119,
  "-focused": 7120,
  "local": 7121,
  "-fill": 7122,
  "vider": 7123,
  "-foot": 7124,
  "yes": 7125,
  "-font": 7126,
  "lands": 7127,
  "-feed": 7128,
  "-form": 7129,
  "-footer": 7130,
  "-fin": 7131,
  "lay": 7132,
  "well": 7133,
  "lla": 7134,
  "Open": 7135,
  "count": 7136,
  "-fire": 7137,
  "Ġown": 7138,
  "-finals": 7139,
  "-ey": 7140,
  "igu": 7141,
  "-free": 7142,
  "-forward": 7143,
  "ĉt": 7144,
  "-four": 7145,
  "lat": 7146,
  "-founder": 7147,
  "-friendly": 7148,
  "-fixed": 7149,
  "root": 7150,
  "Ins": 7151,
  "uty": 7152,
  "-frame": 7153,
  "_V": 7154,
  "inct": 7155,
  "Ġpass": 7156,
  "-flight": 7157,
  "-frequency": 7158,
  "-focus": 7159,
  "-from": 7160,
  "uint": 7161,
  "▁su": 7162,
  "-ew": 7163,
  "-full": 7164,
  "-g": 7165,
  "-fired": 7166,
  "-function": 7167,
  "-front": 7168,
  "uls": 7169,
  "-food": 7170,
  "ruit": 7171,
  "-functional": 7172,
  "-game": 7173,
  "-fer": 7174,
  "rage": 7175,
  "-force": 7176,
  "-floor": 7177,
  "-format": 7178,
  "FFFF": 7179,
  "atalog": 7180,
  "Ġmem": 7181,
  "under": 7182,
  "Activity": 7183,
  "agon": 7184,
  "ITE": 7185,
  "Repository": 7186,
  "-gen": 7187,
  "wan": 7188,
  "-fr": 7189,
  "-fa": 7190,
  "ugin": 7191,
  "-generated": 7192,
  "kr": 7193,
  "Next": 7194,
  "iza": 7195,
  "KEY": 7196,
  "Options": 7197,
  "Ġge": 7198,
  "-get": 7199,
  "-generation": 7200,
  "-film": 7201,
  "ORM": 7202,
  "-general": 7203,
  "site": 7204,
  "-gl": 7205,
  "-go": 7206,
  "Frame": 7207,
  "IVE": 7208,
  "Buffer": 7209,
  "udd": 7210,
  "ASE": 7211,
  "-found": 7212,
  "atin": 7213,
  "care": 7214,
  "iments": 7215,
  "CON": 7216,
  "-founded": 7217,
  "ĠTo": 7218,
  "-going": 7219,
  "-funded": 7220,
  "aire": 7221,
  "Ġsystem": 7222,
  "while": 7223,
  "-grade": 7224,
  "_W": 7225,
  "what": 7226,
  "-gradient": 7227,
  "esh": 7228,
  "-government": 7229,
  "yi": 7230,
  "-gray": 7231,
  "See": 7232,
  "-group": 7233,
  "Ġcall": 7234,
  "aciones": 7235,
  "-grand": 7236,
  "Work": 7237,
  "-grid": 7238,
  "LED": 7239,
  "EXT": 7240,
  "-green": 7241,
  "rench": 7242,
  "ARD": 7243,
  "anges": 7244,
  "oco": 7245,
  "-fil": 7246,
  "bert": 7247,
  "-h": 7248,
  "iser": 7249,
  "hm": 7250,
  "-fw": 7251,
  "-ground": 7252,
  "(predict": 7253,
  "iso": 7254,
  "-growing": 7255,
  "eda": 7256,
  "ensions": 7257,
  "-ft": 7258,
  "-gap": 7259,
  "-hand": 7260,
  "(preg": 7261,
  "▁was": 7262,
  "Ġbeing": 7263,
  "iar": 7264,
  "-half": 7265,
  "-haired": 7266,
  "-he": 7267,
  "ignment": 7268,
  "ponents": 7269,
  "-handed": 7270,
  "-good": 7271,
  "omin": 7272,
  "aze": 7273,
  "-header": 7274,
  "-head": 7275,
  "-hard": 7276,
  "▁un": 7277,
  "Ġaw": 7278,
  "Ġmark": 7279,
  "ancing": 7280,
  "Dir": 7281,
  "cks": 7282,
  "ifying": 7283,
  "▁do": 7284,
  "-height": 7285,
  "ashion": 7286,
  "-headed": 7287,
  "Just": 7288,
  "main": 7289,
  "Sch": 7290,
  "find": 7291,
  "ĉreturn": 7292,
  "nic": 7293,
  "-gr": 7294,
  "Ġtake": 7295,
  "-hidden": 7296,
  "-google": 7297,
  "Ġwhile": 7298,
  "Ġprof": 7299,
  "bas": 7300,
  "-high": 7301,
  "-held": 7302,
  "-help": 7303,
  "show": 7304,
  "-gener": 7305,
  "-guide": 7306,
  "omy": 7307,
  "zel": 7308,
  "inese": 7309,
  "message": 7310,
  "null": 7311,
  "-home": 7312,
  "Gen": 7313,
  "eps": 7314,
  "-ge": 7315,
  "-garde": 7316,
  "uzz": 7317,
  "-hole": 7318,
  "SQL": 7319,
  "-hour": 7320,
  "-hop": 7321,
  "cut": 7322,
  "Ġcase": 7323,
  "-have": 7324,
  "byte": 7325,
  "_G": 7326,
  "isions": 7327,
  "Icon": 7328,
  "-host": 7329,
  "anging": 7330,
  "-house": 7331,
  "-heading": 7332,
  "esc": 7333,
  "-i": 7334,
  "▁di": 7335,
  "-heart": 7336,
  "-how": 7337,
  "Ã¡s": 7338,
  "-health": 7339,
  "-icon": 7340,
  "oster": 7341,
  "asse": 7342,
  "STR": 7343,
  "-hearted": 7344,
  "(pts": 7345,
  "-id": 7346,
  "ordin": 7347,
  "-human": 7348,
  "-icons": 7349,
  "ulu": 7350,
  "craft": 7351,
  "asm": 7352,
  "-ga": 7353,
  "ying": 7354,
  "-if": 7355,
  "-il": 7356,
  "-gu": 7357,
  "-image": 7358,
  "Container": 7359,
  "Ġpat": 7360,
  "Ġwor": 7361,
  "hab": 7362,
  "Nav": 7363,
  "Home": 7364,
  "-im": 7365,
  "-img": 7366,
  "-in": 7367,
  "-ha": 7368,
  "foot": 7369,
  "acional": 7370,
  "Obj": 7371,
  "-images": 7372,
  "-heavy": 7373,
  "eln": 7374,
  "Valid": 7375,
  "-ind": 7376,
  "-inch": 7377,
  "-hover": 7378,
  "Oper": 7379,
  "-ger": 7380,
  "-hit": 7381,
  "ARY": 7382,
  "info": 7383,
  "-gh": 7384,
  "-history": 7385,
  "Ġmade": 7386,
  "Did": 7387,
  "-income": 7388,
  "force": 7389,
  "(ra": 7390,
  "-html": 7391,
  "-index": 7392,
  "-inc": 7393,
  "-induced": 7394,
  "iders": 7395,
  "-grown": 7396,
  "-info": 7397,
  "strong": 7398,
  "-horizontal": 7399,
  "-independent": 7400,
  "Output": 7401,
  "-hot": 7402,
  "-inflammatory": 7403,
  "rar": 7404,
  "-hours": 7405,
  "kov": 7406,
  "-input": 7407,
  "amo": 7408,
  "-ins": 7409,
  "-hook": 7410,
  "amed": 7411,
  "cell": 7412,
  "Non": 7413,
  "Ġproduct": 7414,
  "riz": 7415,
  "Ġng": 7416,
  "src": 7417,
  "-int": 7418,
  "-ho": 7419,
  "Est": 7420,
  "Grid": 7421,
  "zk": 7422,
  "Ġlast": 7423,
  "-inter": 7424,
  "vention": 7425,
  "osi": 7426,
  "-gÄ§": 7427,
  "-intensive": 7428,
  "ĠOr": 7429,
  "rome": 7430,
  "-interest": 7431,
  "-ignore": 7432,
  "-is": 7433,
  "Ġeach": 7434,
  "-hi": 7435,
  "-ion": 7436,
  "-item": 7437,
  "osen": 7438,
  "ĠIs": 7439,
  "▁this": 7440,
  "-j": 7441,
  "-items": 7442,
  "Cap": 7443,
  "ĠSp": 7444,
  "-inf": 7445,
  "-it": 7446,
  "vg": 7447,
  "-ing": 7448,
  "-ie": 7449,
  "-inline": 7450,
  "-init": 7451,
  "-import": 7452,
  "-inner": 7453,
  "Day": 7454,
  "Mem": 7455,
  "-k": 7456,
  "-indent": 7457,
  "-inspired": 7458,
  "-install": 7459,
  "otes": 7460,
  "-key": 7461,
  "esk": 7462,
  "Ġcap": 7463,
  "house": 7464,
  "frame": 7465,
  "server": 7466,
  "-known": 7467,
  "▁po": 7468,
  "iance": 7469,
  "-l": 7470,
  "antic": 7471,
  "Card": 7472,
  "Connection": 7473,
  "-inst": 7474,
  "-ish": 7475,
  "orb": 7476,
  "Header": 7477,
  "imin": 7478,
  "Access": 7479,
  "oding": 7480,
  "-la": 7481,
  "-label": 7482,
  "-ils": 7483,
  "eral": 7484,
  "enta": 7485,
  "-java": 7486,
  "-invalid": 7487,
  "-js": 7488,
  "ĠAd": 7489,
  "params": 7490,
  "aken": 7491,
  "Ant": 7492,
  "uw": 7493,
  "-language": 7494,
  "Collection": 7495,
  "-law": 7496,
  "output": 7497,
  "-large": 7498,
  "Empty": 7499,
  "-le": 7500,
  "-lasting": 7501,
  "-kind": 7502,
  "-ip": 7503,
  "Some": 7504,
  "parse": 7505,
  "-layer": 7506,
  "-left": 7507,
  "EB": 7508,
  "-ios": 7509,
  "yer": 7510,
  "-job": 7511,
  "-led": 7512,
  "Ġnumber": 7513,
  "-learning": 7514,
  "holder": 7515,
  "-imi": 7516,
  "-json": 7517,
  "Ġtry": 7518,
  "cular": 7519,
  "-level": 7520,
  "endif": 7521,
  "pective": 7522,
  "-length": 7523,
  "-invasive": 7524,
  "amer": 7525,
  "-lg": 7526,
  "Ġuna": 7527,
  "Ġprocess": 7528,
  "Book": 7529,
  "-labelled": 7530,
  "qi": 7531,
  "-less": 7532,
  "Ġcent": 7533,
  "-labelledby": 7534,
  "-li": 7535,
  "cin": 7536,
  "umin": 7537,
  "-lang": 7538,
  "Who": 7539,
  "-like": 7540,
  "-life": 7541,
  "-ir": 7542,
  "-line": 7543,
  "-light": 7544,
  "buf": 7545,
  "(rng": 7546,
  "ervation": 7547,
  "tag": 7548,
  "ologies": 7549,
  "ODO": 7550,
  "igation": 7551,
  "-link": 7552,
  "ategories": 7553,
  "-library": 7554,
  "undo": 7555,
  "Enc": 7556,
  "rowser": 7557,
  "ĠSo": 7558,
  "-list": 7559,
  "-linear": 7560,
  "-layout": 7561,
  "-je": 7562,
  "-kit": 7563,
  "fast": 7564,
  "-kan": 7565,
  "rate": 7566,
  "-leading": 7567,
  "-linked": 7568,
  "Level": 7569,
  "yk": 7570,
  "-lo": 7571,
  "occ": 7572,
  "-largest": 7573,
  "-last": 7574,
  "EA": 7575,
  "-legged": 7576,
  "-lived": 7577,
  "-ke": 7578,
  "(rp": 7579,
  "azi": 7580,
  "-load": 7581,
  "-loader": 7582,
  "-log": 7583,
  "(savedInstanceState": 7584,
  "ĠPr": 7585,
  "-lib": 7586,
  "-local": 7587,
  "OUR": 7588,
  "-long": 7589,
  "ped": 7590,
  "rypt": 7591,
  "close": 7592,
  "-looking": 7593,
  "-leg": 7594,
  "-ist": 7595,
  "IME": 7596,
  "anned": 7597,
  "esome": 7598,
  "Format": 7599,
  "Ġbetween": 7600,
  "-m": 7601,
  "-kn": 7602,
  "rian": 7603,
  "mitted": 7604,
  "-loop": 7605,
  "-ja": 7606,
  "idents": 7607,
  "Mark": 7608,
  "Ġhome": 7609,
  "ulated": 7610,
  "-letter": 7611,
  "▁we": 7612,
  "-mail": 7613,
  "ups": 7614,
  "-low": 7615,
  "jan": 7616,
  "-links": 7617,
  "Ġpoint": 7618,
  "bling": 7619,
  "-made": 7620,
  "-linux": 7621,
  "-land": 7622,
  "-ka": 7623,
  "▁par": 7624,
  "-main": 7625,
  "rep": 7626,
  "-making": 7627,
  "Ġusing": 7628,
  "-man": 7629,
  "-kar": 7630,
  "auth": 7631,
  "More": 7632,
  "reme": 7633,
  "Current": 7634,
  "atically": 7635,
  "ILL": 7636,
  "-laws": 7637,
  "-loaded": 7638,
  "-lined": 7639,
  "-lfs": 7640,
  "idades": 7641,
  "aci": 7642,
  "Width": 7643,
  "-makers": 7644,
  "-kl": 7645,
  "▁ch": 7646,
  "-las": 7647,
  "-lock": 7648,
  "-les": 7649,
  "Ġsim": 7650,
  "-logo": 7651,
  "Stat": 7652,
  "-mark": 7653,
  "-login": 7654,
  "-map": 7655,
  "-management": 7656,
  "Rev": 7657,
  "-ko": 7658,
  "-md": 7659,
  "ĠBl": 7660,
  "Ptr": 7661,
  "items": 7662,
  "-liter": 7663,
  "-kom": 7664,
  "FB": 7665,
  "-market": 7666,
  "-ku": 7667,
  "Server": 7668,
  "Ġdifferent": 7669,
  "-kon": 7670,
  "remove": 7671,
  "urer": 7672,
  "-me": 7673,
  "-loss": 7674,
  "Run": 7675,
  "-loving": 7676,
  "({": 7677,
  "-match": 7678,
  ")": 7679,
  "-med": 7680,
  "Ġshow": 7681,
  "Player": 7682,
  "ston": 7683,
  "Game": 7684,
  "Filter": 7685,
  "Well": 7686,
  "-ln": 7687,
  "-mediated": 7688,
  "-loading": 7689,
  "Each": 7690,
  "-media": 7691,
  "non": 7692,
  "-menu": 7693,
  "-lnd": 7694,
  "namespace": 7695,
  "rics": 7696,
  "-mails": 7697,
  "-medium": 7698,
  "-member": 7699,
  "▁no": 7700,
  "-major": 7701,
  "-lhe": 7702,
  "otic": 7703,
  "VS": 7704,
  "Search": 7705,
  "Two": 7706,
  "jar": 7707,
  "agra": 7708,
  "ulate": 7709,
  "-manager": 7710,
  "-mar": 7711,
  "rov": 7712,
  "Ġrep": 7713,
  "isen": 7714,
  "-metal": 7715,
  "-min": 7716,
  "-meter": 7717,
  "-machine": 7718,
  "RES": 7719,
  "bat": 7720,
  "Ġorg": 7721,
  "Task": 7722,
  "-master": 7723,
  "-mile": 7724,
  "-minute": 7725,
  "-middle": 7726,
  "-minded": 7727,
  "-max": 7728,
  "-maker": 7729,
  "rug": 7730,
  "-material": 7731,
  "current": 7732,
  "meta": 7733,
  "-mod": 7734,
  "-lit": 7735,
  "Description": 7736,
  "-mm": 7737,
  "-los": 7738,
  ")\"": 7739,
  "esi": 7740,
  "ĠPh": 7741,
  "had": 7742,
  "-mode": 7743,
  "Err": 7744,
  "However": 7745,
  "RED": 7746,
  "-modal": 7747,
  "organ": 7748,
  "-luv": 7749,
  "(sem": 7750,
  "-model": 7751,
  "-men": 7752,
  "esa": 7753,
  "))": 7754,
  "Ġsame": 7755,
  "-ma": 7756,
  "onna": 7757,
  "-month": 7758,
  "Ġinformation": 7759,
  "Resource": 7760,
  ")(": 7761,
  "AST": 7762,
  "anna": 7763,
  "-message": 7764,
  "Pay": 7765,
  "Module": 7766,
  "core": 7767,
  ")!": 7768,
  "Ġfalse": 7769,
  "aly": 7770,
  "-lÃł": 7771,
  "container": 7772,
  "-method": 7773,
  "-n": 7774,
  "-most": 7775,
  "Ġthose": 7776,
  "oder": 7777,
  "Ġworld": 7778,
  "clusion": 7779,
  "adv": 7780,
  "-mounted": 7781,
  "endar": 7782,
  "-name": 7783,
  "-members": 7784,
  "_id": 7785,
  "admin": 7786,
  "Bit": 7787,
  "bul": 7788,
  "dat": 7789,
  "Location": 7790,
  "Ġexp": 7791,
  "-million": 7792,
  "-my": 7793,
  ")\",": 7794,
  "zw": 7795,
  "sum": 7796,
  "-nav": 7797,
  "-na": 7798,
  "-native": 7799,
  "-mal": 7800,
  "tem": 7801,
  "Ġtop": 7802,
  "-ne": 7803,
  "-mobile": 7804,
  "Ġopt": 7805,
  "-masing": 7806,
  "osing": 7807,
  "model": 7808,
  "▁tr": 7809,
  ")&": 7810,
  ")'": 7811,
  "Args": 7812,
  "Integer": 7813,
  "-module": 7814,
  "Ġchild": 7815,
  "ownload": 7816,
  "-mon": 7817,
  "wen": 7818,
  "Your": 7819,
  "UID": 7820,
  "-new": 7821,
  "adata": 7822,
  "oly": 7823,
  "(sid": 7824,
  "-negative": 7825,
  "-net": 7826,
  "-money": 7827,
  "ingu": 7828,
  "-minus": 7829,
  "-network": 7830,
  "-mf": 7831,
  ")))": 7832,
  "-neutral": 7833,
  "-meta": 7834,
  "ifer": 7835,
  "Ġrun": 7836,
  "-next": 7837,
  "-mentioned": 7838,
  "-ms": 7839,
  "Cho": 7840,
  "-mer": 7841,
  "-night": 7842,
  "ieg": 7843,
  "-met": 7844,
  "-muted": 7845,
  "-no": 7846,
  "sin": 7847,
  "(sin": 7848,
  "essa": 7849,
  "ells": 7850,
  "-mÃªme": 7851,
  "Ġlife": 7852,
  "actor": 7853,
  ")).": 7854,
  "Ġdevelop": 7855,
  ")),": 7856,
  "-nine": 7857,
  "Ġweek": 7858,
  "-none": 7859,
  "-not": 7860,
  "-node": 7861,
  "),": 7862,
  "-mi": 7863,
  "-more": 7864,
  "AW": 7865,
  "-o": 7866,
  "inner": 7867,
  "(skb": 7868,
  "-normal": 7869,
  "ptions": 7870,
  "Ġcle": 7871,
  "Ġconf": 7872,
  "-national": 7873,
  "Ġreally": 7874,
  "Ġsit": 7875,
  "Ġvi": 7876,
  "Ġfound": 7877,
  "-of": 7878,
  "-navigation": 7879,
  "Please": 7880,
  "-number": 7881,
  "orf": 7882,
  "-off": 7883,
  "-moving": 7884,
  "ĠGr": 7885,
  "-needed": 7886,
  "-ob": 7887,
  "ulture": 7888,
  ")*": 7889,
  "ovo": 7890,
  "));": 7891,
  ").": 7892,
  "(so": 7893,
  "-object": 7894,
  "-old": 7895,
  "Stack": 7896,
  "pop": 7897,
  "-on": 7898,
  "lections": 7899,
  "options": 7900,
  "uba": 7901,
  "-offs": 7902,
  "These": 7903,
  "-office": 7904,
  "-one": 7905,
  "-midi": 7906,
  ")-": 7907,
  "▁from": 7908,
  "-msg": 7909,
  "-navbar": 7910,
  "Left": 7911,
  "uo": 7912,
  "-only": 7913,
  "-op": 7914,
  "CRE": 7915,
  "-olds": 7916,
  "▁id": 7917,
  "Body": 7918,
  "first": 7919,
  "-news": 7920,
  "asis": 7921,
  "-open": 7922,
  "-notch": 7923,
  "Email": 7924,
  "google": 7925,
  "iente": 7926,
  "dam": 7927,
  "▁not": 7928,
  "-or": 7929,
  "):": 7930,
  "Position": 7931,
  "don": 7932,
  "attr": 7933,
  "outer": 7934,
  "Ġrequ": 7935,
  "uge": 7936,
  "-oper": 7937,
  "(sq": 7938,
  "-moi": 7939,
  "-operation": 7940,
  "-order": 7941,
  "Ġart": 7942,
  "-operative": 7943,
  "),(": 7944,
  ");": 7945,
  "Height": 7946,
  "Ġfree": 7947,
  "may": 7948,
  "ensor": 7949,
  "tor": 7950,
  "-ng": 7951,
  "-out": 7952,
  "-oriented": 7953,
  ")/": 7954,
  "ailable": 7955,
  "-offset": 7956,
  "iform": 7957,
  "Panel": 7958,
  "Ġsay": 7959,
  "node": 7960,
  "ASH": 7961,
  "-os": 7962,
  "Ġdist": 7963,
  "inos": 7964,
  "Entry": 7965,
  "ĠTe": 7966,
  "Pad": 7967,
  "-p": 7968,
  "-mo": 7969,
  "-num": 7970,
  "-over": 7971,
  "Tra": 7972,
  "itud": 7973,
  ")--": 7974,
  "-null": 7975,
  "atar": 7976,
  "-owned": 7977,
  "bot": 7978,
  "Ġprogram": 7979,
  "-neg": 7980,
  "-ons": 7981,
  "-output": 7982,
  "_E": 7983,
  "Ġposs": 7984,
  "-natural": 7985,
  "tbody": 7986,
  "▁ar": 7987,
  "Ġos": 7988,
  "-page": 7989,
  "_e": 7990,
  "-now": 7991,
  "ursor": 7992,
  "Vol": 7993,
  "-opening": 7994,
  "Dialog": 7995,
  "-ok": 7996,
  "column": 7997,
  "-par": 7998,
  "-option": 7999,
  "auto": 8000,
  "-options": 8001,
  "-mut": 8002,
  "-part": 8003,
  "-online": 8004,
  "-party": 8005,
  "ĉb": 8006,
  "Application": 8007,
  "-parent": 8008,
  "-opacity": 8009,
  "Ġbook": 8010,
  "ĠSch": 8011,
  "-origin": 8012,
  "-per": 8013,
  "-path": 8014,
  "his": 8015,
  "-pass": 8016,
  "ipes": 8017,
  "Ġstill": 8018,
  "itors": 8019,
  "-outline": 8020,
  "Ġein": 8021,
  "Cons": 8022,
  "-ph": 8023,
  "she": 8024,
  "-opt": 8025,
  "-nos": 8026,
  "ril": 8027,
  "-person": 8028,
  "ails": 8029,
  ")?": 8030,
  "bie": 8031,
  "-performance": 8032,
  "-pack": 8033,
  "entity": 8034,
  "Ġcare": 8035,
  "-org": 8036,
  "Ġpartic": 8037,
  "-nous": 8038,
  "-occ": 8039,
  "-paced": 8040,
  "-phase": 8041,
  ")]": 8042,
  "-pl": 8043,
  "Auth": 8044,
  "rant": 8045,
  "-period": 8046,
  "home": 8047,
  "zes": 8048,
  ")\\": 8049,
  "Ġmat": 8050,
  "idel": 8051,
  ")[": 8052,
  "aked": 8053,
  "ango": 8054,
  "-packed": 8055,
  "dated": 8056,
  "Ġdep": 8057,
  "-piece": 8058,
  "-ni": 8059,
  "space": 8060,
  "-panel": 8061,
  "Unit": 8062,
  "-nji": 8063,
  "-place": 8064,
  "-pane": 8065,
  "stream": 8066,
  "-play": 8067,
  "edu": 8068,
  "-outs": 8069,
  "-njy": 8070,
  "yu": 8071,
  "-oh": 8072,
  "-param": 8073,
  "dem": 8074,
  "-plane": 8075,
  "-platform": 8076,
  "Spec": 8077,
  "Msg": 8078,
  "lets": 8079,
  "-point": 8080,
  "Aug": 8081,
  "-plugin": 8082,
  "-plus": 8083,
  "onym": 8084,
  "-player": 8085,
  "FG": 8086,
  "styles": 8087,
  "(sv": 8088,
  "-password": 8089,
  "-pe": 8090,
  "inf": 8091,
  "-pop": 8092,
  "Her": 8093,
  "Ġplace": 8094,
  "-orang": 8095,
  "-package": 8096,
  "▁el": 8097,
  "Ġcal": 8098,
  "-padding": 8099,
  "-organ": 8100,
  "-paid": 8101,
  "-pol": 8102,
  "-pointer": 8103,
  "-position": 8104,
  "prise": 8105,
  "-port": 8106,
  "Du": 8107,
  "-post": 8108,
  "BER": 8109,
  "framework": 8110,
  "jection": 8111,
  "weet": 8112,
  "-pr": 8113,
  "Ġfinal": 8114,
  "-positive": 8115,
  "-power": 8116,
  "ĠBr": 8117,
  "-pre": 8118,
  "-parser": 8119,
  ")_": 8120,
  "Ġdesign": 8121,
  "-powered": 8122,
  "-pad": 8123,
  "-og": 8124,
  "-pay": 8125,
  "ancer": 8126,
  "-pres": 8127,
  "-primary": 8128,
  "-pro": 8129,
  "Jan": 8130,
  "-paying": 8131,
  "▁have": 8132,
  "-plan": 8133,
  "-peer": 8134,
  "-present": 8135,
  "Ã©r": 8136,
  "▁can": 8137,
  "-pressure": 8138,
  "-price": 8139,
  "Provider": 8140,
  "anted": 8141,
  "build": 8142,
  "door": 8143,
  "-process": 8144,
  "-phone": 8145,
  "Json": 8146,
  "ĠBut": 8147,
  "who": 8148,
  "Ba": 8149,
  "after": 8150,
  "rich": 8151,
  "IK": 8152,
  "-product": 8153,
  "-processing": 8154,
  "uten": 8155,
  "edit": 8156,
  "AVE": 8157,
  "Ľi": 8158,
  "▁lo": 8159,
  "-profit": 8160,
  "status": 8161,
  "){": 8162,
  "pie": 8163,
  "-producing": 8164,
  "*": 8165,
  "Account": 8166,
  "-placement": 8167,
  "-profile": 8168,
  "-production": 8169,
  "aires": 8170,
  "ulations": 8171,
  "-products": 8172,
  "Bet": 8173,
  "IAL": 8174,
  "riage": 8175,
  "-project": 8176,
  "-program": 8177,
  "sion": 8178,
  "Down": 8179,
  "avy": 8180,
  "UST": 8181,
  "-po": 8182,
  "-pound": 8183,
  ")}": 8184,
  "-playing": 8185,
  "Ġmo": 8186,
  "bec": 8187,
  "-prom": 8188,
  "asket": 8189,
  "Ce": 8190,
  "-pin": 8191,
  "-qu": 8192,
  "address": 8193,
  "Ġsoc": 8194,
  "ETH": 8195,
  "-q": 8196,
  "css": 8197,
  "-pocket": 8198,
  "-quality": 8199,
  "-ou": 8200,
  "-r": 8201,
  "His": 8202,
  "mut": 8203,
  "run": 8204,
  "aching": 8205,
  "-pos": 8206,
  "-popup": 8207,
  "**": 8208,
  "-purpose": 8209,
  "-president": 8210,
  "here": 8211,
  "names": 8212,
  "-preview": 8213,
  "agi": 8214,
  "-radius": 8215,
  "Ġfollow": 8216,
  "break": 8217,
  "emon": 8218,
  "-ra": 8219,
  "-print": 8220,
  "AMP": 8221,
  "izar": 8222,
  "ONG": 8223,
  "ĠNo": 8224,
  "****": 8225,
  "-pa": 8226,
  "icious": 8227,
  "-produ": 8228,
  "aming": 8229,
  "▁ad": 8230,
  "ifest": 8231,
  "-range": 8232,
  "rin": 8233,
  "-re": 8234,
  "-ray": 8235,
  "-produced": 8236,
  "********": 8237,
  "avi": 8238,
  "Ġword": 8239,
  "ahn": 8240,
  "venue": 8241,
  "rees": 8242,
  "-rate": 8243,
  "fix": 8244,
  "IGHT": 8245,
  ")},": 8246,
  "(ti": 8247,
  "style": 8248,
  "-rated": 8249,
  "****************": 8250,
  "*)": 8251,
  "ĠRes": 8252,
  "(tid": 8253,
  "-read": 8254,
  "-rays": 8255,
  "-proof": 8256,
  "*(": 8257,
  "Posted": 8258,
  "-private": 8259,
  "isco": 8260,
  "ifications": 8261,
  "sql": 8262,
  "hot": 8263,
  "-react": 8264,
  "Sim": 8265,
  "-property": 8266,
  "VAL": 8267,
  "pack": 8268,
  "-red": 8269,
  "ocs": 8270,
  "-readable": 8271,
  "-public": 8272,
  "private": 8273,
  "-rec": 8274,
  "-reg": 8275,
  "-related": 8276,
  "-ref": 8277,
  "(tk": 8278,
  "-record": 8279,
  "atural": 8280,
  "-redux": 8281,
  "-prof": 8282,
  "-python": 8283,
  "mos": 8284,
  "grade": 8285,
  "Function": 8286,
  "-quarter": 8287,
  "-reference": 8288,
  "-rel": 8289,
  "wide": 8290,
  "pository": 8291,
  "-progress": 8292,
  "-repeat": 8293,
  "cohol": 8294,
  "-res": 8295,
  "*/": 8296,
  "_x": 8297,
  "issa": 8298,
  "-pot": 8299,
  "-release": 8300,
  "***": 8301,
  "Ġmain": 8302,
  "YP": 8303,
  "yb": 8304,
  "abilities": 8305,
  "-resistant": 8306,
  "-report": 8307,
  "▁ab": 8308,
  "-prem": 8309,
  "While": 8310,
  "-ranked": 8311,
  "mann": 8312,
  "(tol": 8313,
  "Ġstring": 8314,
  "-ranking": 8315,
  "-responsive": 8316,
  "_i": 8317,
  "-resolution": 8318,
  "-right": 8319,
  "Job": 8320,
  "Aw": 8321,
  "Au": 8322,
  "ĠLa": 8323,
  "ushed": 8324,
  "None": 8325,
  "-rest": 8326,
  "-response": 8327,
  "source": 8328,
  "Port": 8329,
  "-ret": 8330,
  "ĠUS": 8331,
  "*,": 8332,
  "-review": 8333,
  "-rich": 8334,
  "Pop": 8335,
  "pass": 8336,
  "AZ": 8337,
  "-query": 8338,
  "Types": 8339,
  "Ben": 8340,
  "Const": 8341,
  "Ġfact": 8342,
  "-ro": 8343,
  "-ready": 8344,
  "words": 8345,
  "-risk": 8346,
  "Ġboth": 8347,
  "react": 8348,
  "-radio": 8349,
  "*.": 8350,
  "-ring": 8351,
  "Has": 8352,
  "-ranging": 8353,
  "Doc": 8354,
  "-round": 8355,
  "Equals": 8356,
  "Ġsupport": 8357,
  "-row": 8358,
  "-rock": 8359,
  "-s": 8360,
  "Ġaround": 8361,
  "-room": 8362,
  "-router": 8363,
  "undle": 8364,
  "oval": 8365,
  "igs": 8366,
  "-root": 8367,
  "oso": 8368,
  "-run": 8369,
  "-reaching": 8370,
  "Long": 8371,
  "abl": 8372,
  "-real": 8373,
  "Ġopen": 8374,
  "-prov": 8375,
  "-request": 8376,
  "gun": 8377,
  "-running": 8378,
  "-sc": 8379,
  "Ġsw": 8380,
  "lation": 8381,
  "-scale": 8382,
  "NH": 8383,
  "aug": 8384,
  "-safe": 8385,
  "Ġcour": 8386,
  "Ġtoo": 8387,
  "dec": 8388,
  "CPU": 8389,
  "-se": 8390,
  "-region": 8391,
  "-san": 8392,
  "OUT": 8393,
  "-saving": 8394,
  "atre": 8395,
  "-ren": 8396,
  "-school": 8397,
  "Thread": 8398,
  "+": 8399,
  "xb": 8400,
  "-reviewed": 8401,
  "-screen": 8402,
  "(typ": 8403,
  "QUE": 8404,
  "lies": 8405,
  "utter": 8406,
  "CY": 8407,
  "-road": 8408,
  "-search": 8409,
  "igi": 8410,
  "*\\": 8411,
  "even": 8412,
  "uru": 8413,
  "ACH": 8414,
  "icing": 8415,
  "Ġeas": 8416,
  "acion": 8417,
  "-season": 8418,
  "-section": 8419,
  "-second": 8420,
  "endant": 8421,
  "ÃŃa": 8422,
  "istan": 8423,
  "-secondary": 8424,
  "Ġcurrent": 8425,
  "▁sp": 8426,
  "idas": 8427,
  "ĠInd": 8428,
  "Seg": 8429,
  "-result": 8430,
  "-rounded": 8431,
  "-sectional": 8432,
  "-select": 8433,
  "ursday": 8434,
  "aran": 8435,
  "Om": 8436,
  "Ġdat": 8437,
  "ARE": 8438,
  "Big": 8439,
  "-ser": 8440,
  "++": 8441,
  "-self": 8442,
  "grid": 8443,
  "Ġgoing": 8444,
  "fon": 8445,
  "-selling": 8446,
  "Cs": 8447,
  "iture": 8448,
  "-serif": 8449,
  "Hey": 8450,
  "Ġeffect": 8451,
  "hou": 8452,
  "-sem": 8453,
  "irection": 8454,
  "Ġcho": 8455,
  "aciÃ³n": 8456,
  "-sensitive": 8457,
  "-role": 8458,
  "ón": 8459,
  "-service": 8460,
  "Length": 8461,
  "inar": 8462,
  "-server": 8463,
  "unning": 8464,
  "low": 8465,
  "CTION": 8466,
  "-series": 8467,
  "about": 8468,
  "ANS": 8469,
  "-sh": 8470,
  "-set": 8471,
  "Tab": 8472,
  "-rule": 8473,
  "uesday": 8474,
  "-sdk": 8475,
  "Ã©e": 8476,
  "alg": 8477,
  "-scroll": 8478,
  "-score": 8479,
  "-shadow": 8480,
  "amen": 8481,
  "-services": 8482,
  "aco": 8483,
  "(ur": 8484,
  "Direct": 8485,
  "-shaped": 8486,
  "ething": 8487,
  "case": 8488,
  "Option": 8489,
  "going": 8490,
  "-sex": 8491,
  "Ġbusiness": 8492,
  "quot": 8493,
  "-sale": 8494,
  "-seven": 8495,
  "lick": 8496,
  "ĠAll": 8497,
  "related": 8498,
  "-shirt": 8499,
  "POST": 8500,
  "far": 8501,
  "Ġquest": 8502,
  "bour": 8503,
  "-side": 8504,
  "-sharing": 8505,
  "standing": 8506,
  "Project": 8507,
  "crete": 8508,
  "Ġproble": 8509,
  "player": 8510,
  "-shell": 8511,
  "-size": 8512,
  "-show": 8513,
  "-security": 8514,
  "(userName": 8515,
  "-site": 8516,
  "-shot": 8517,
  "iac": 8518,
  "ploy": 8519,
  "-selected": 8520,
  "-sign": 8521,
  "cap": 8522,
  "ourse": 8523,
  "Also": 8524,
  "Ġlas": 8525,
  "▁all": 8526,
  "ollow": 8527,
  "-sided": 8528,
  "-sized": 8529,
  "(utf": 8530,
  "arios": 8531,
  "via": 8532,
  "-sm": 8533,
  "adores": 8534,
  "-six": 8535,
  "Sur": 8536,
  "erman": 8537,
  "-sales": 8538,
  "-sk": 8539,
  "-save": 8540,
  "-rom": 8541,
  "ERROR": 8542,
  "-sizing": 8543,
  "yal": 8544,
  "(va": 8545,
  "-seat": 8546,
  "Ġincre": 8547,
  "uted": 8548,
  "Loc": 8549,
  "lyn": 8550,
  "-so": 8551,
  "elles": 8552,
  "-sector": 8553,
  "awn": 8554,
  "Ġrest": 8555,
  "-small": 8556,
  "-rem": 8557,
  "ĠHow": 8558,
  "-sp": 8559,
  "Utils": 8560,
  "fu": 8561,
  "Author": 8562,
  "-settings": 8563,
  "-social": 8564,
  "enti": 8565,
  "appy": 8566,
  "Ġut": 8567,
  "-solid": 8568,
  ",": 8569,
  "-source": 8570,
  "False": 8571,
  "flu": 8572,
  "-space": 8573,
  "-semibold": 8574,
  "Ġfa": 8575,
  "-solving": 8576,
  "Where": 8577,
  "-song": 8578,
  "-shirts": 8579,
  "-specific": 8580,
  "hetic": 8581,
  "argo": 8582,
  "have": 8583,
  "Ġold": 8584,
  "-st": 8585,
  "-spe": 8586,
  "PRO": 8587,
  "-ri": 8588,
  "Every": 8589,
  "-speed": 8590,
  "-span": 8591,
  ",\"": 8592,
  "-serving": 8593,
  "-speaking": 8594,
  "ĠEl": 8595,
  "-sidebar": 8596,
  "inda": 8597,
  "-square": 8598,
  "-session": 8599,
  "-setting": 8600,
  "Ã¡n": 8601,
  "ĠMe": 8602,
  "conf": 8603,
  "oven": 8604,
  "-star": 8605,
  "-sl": 8606,
  "plot": 8607,
  "-stage": 8608,
  "-start": 8609,
  "-sec": 8610,
  "-state": 8611,
  "Process": 8612,
  "-share": 8613,
  "akers": 8614,
  "Ġvari": 8615,
  "boot": 8616,
  "Ġequ": 8617,
  "-slide": 8618,
  "Right": 8619,
  "-standard": 8620,
  "-standing": 8621,
  "-slider": 8622,
  "Ġmus": 8623,
  "-step": 8624,
  "-shop": 8625,
  ",'": 8626,
  "(vp": 8627,
  "(vs": 8628,
  "Details": 8629,
  "Ġuser": 8630,
  "Adapter": 8631,
  "EV": 8632,
  "-status": 8633,
  "ASK": 8634,
  "MENT": 8635,
  "-sa": 8636,
  "-static": 8637,
  "-stop": 8638,
  "Lu": 8639,
  "gre": 8640,
  "-store": 8641,
  "-str": 8642,
  "background": 8643,
  "-sac": 8644,
  "-style": 8645,
  "Ġson": 8646,
  "fection": 8647,
  "-story": 8648,
  "Window": 8649,
  "OLD": 8650,
  "Category": 8651,
  "-spacing": 8652,
  "-string": 8653,
  "Div": 8654,
  "Core": 8655,
  "-sub": 8656,
  "-stream": 8657,
  "gie": 8658,
  ",,": 8659,
  "rame": 8660,
  ",-": 8661,
  "-success": 8662,
  "▁sa": 8663,
  "kes": 8664,
  "rior": 8665,
  "-su": 8666,
  "-spec": 8667,
  "-sch": 8668,
  "Items": 8669,
  ",(": 8670,
  "-src": 8671,
  "(withIdentifier": 8672,
  "-slot": 8673,
  "cean": 8674,
  "begin": 8675,
  "-sur": 8676,
  "Init": 8677,
  "-t": 8678,
  "Sign": 8679,
  "ply": 8680,
  ",.": 8681,
  "Ġter": 8682,
  "NAME": 8683,
  "loc": 8684,
  "ograf": 8685,
  "nom": 8686,
  "▁per": 8687,
  "-stack": 8688,
  "empor": 8689,
  "Ġstatic": 8690,
  "-support": 8691,
  "ints": 8692,
  "isms": 8693,
  "(wp": 8694,
  "Ġnon": 8695,
  "-table": 8696,
  "hin": 8697,
  "-system": 8698,
  "Mac": 8699,
  "-stat": 8700,
  "-sn": 8701,
  "Ġpop": 8702,
  "HTML": 8703,
  "ĠCol": 8704,
  "Found": 8705,
  "itness": 8706,
  "river": 8707,
  "QQ": 8708,
  "Pal": 8709,
  ",)": 8710,
  "apse": 8711,
  "-see": 8712,
  "-target": 8713,
  "_A": 8714,
  "▁go": 8715,
  "COM": 8716,
  "-te": 8717,
  "Ġvol": 8718,
  "-sponsored": 8719,
  "rical": 8720,
  "SG": 8721,
  "inet": 8722,
  "Hot": 8723,
  "-sort": 8724,
  "(xi": 8725,
  "-si": 8726,
  "Oct": 8727,
  "Ni": 8728,
  "vl": 8729,
  "-task": 8730,
  "-term": 8731,
  "ipt": 8732,
  "aud": 8733,
  "-tech": 8734,
  "Ġsecond": 8735,
  ",...": 8736,
  "-striped": 8737,
  "-team": 8738,
  "mail": 8739,
  "-template": 8740,
  "Ġfew": 8741,
  "-serv": 8742,
  "cription": 8743,
  "-ste": 8744,
  "-text": 8745,
  "-th": 8746,
  "-test": 8747,
  ")à¥¤": 8748,
  "Bel": 8749,
  "coin": 8750,
  "gent": 8751,
  "-the": 8752,
  "Air": 8753,
  "(xy": 8754,
  "volution": 8755,
  "-sw": 8756,
  "-terminal": 8757,
  "Ġpa": 8758,
  "Ġsal": 8759,
  "-supported": 8760,
  "jt": 8761,
  "(yy": 8762,
  "Thanks": 8763,
  "-storage": 8764,
  "About": 8765,
  "agu": 8766,
  "-strip": 8767,
  "-than": 8768,
  "Local": 8769,
  "Ġfile": 8770,
  "-switch": 8771,
  "xic": 8772,
  "-tab": 8773,
  "Ġau": 8774,
  "lood": 8775,
  "-third": 8776,
  "Adv": 8777,
  "▁es": 8778,
  "-time": 8779,
  "cir": 8780,
  "-sol": 8781,
  "-tag": 8782,
  "-tabs": 8783,
  "axy": 8784,
  "▁des": 8785,
  "-thirds": 8786,
  "ymbol": 8787,
  "control": 8788,
  "-summary": 8789,
  "-to": 8790,
  "-suite": 8791,
  "-title": 8792,
  "-through": 8793,
  "-stock": 8794,
  "Den": 8795,
  "-taking": 8796,
  "-three": 8797,
  "itan": 8798,
  "-threatening": 8799,
  "BG": 8800,
  "Ġhead": 8801,
  "azine": 8802,
  "-toggle": 8803,
  "aid": 8804,
  "acks": 8805,
  "allel": 8806,
  "friend": 8807,
  "-tier": 8808,
  "-tax": 8809,
  "unte": 8810,
  "Params": 8811,
  "tek": 8812,
  "-top": 8813,
  "Engine": 8814,
  "-times": 8815,
  ",\\": 8816,
  ")C": 8817,
  "-symbol": 8818,
  "acer": 8819,
  ")f": 8820,
  "▁In": 8821,
  "CU": 8822,
  "Ġho": 8823,
  "real": 8824,
  "Ġcome": 8825,
  "-tr": 8826,
  "KA": 8827,
  "ĉd": 8828,
  "-ton": 8829,
  "ĠQu": 8830,
  "HB": 8831,
  "estic": 8832,
  "Ġhapp": 8833,
  "Then": 8834,
  ",[": 8835,
  "alled": 8836,
  "RY": 8837,
  "ĠSu": 8838,
  "Ġoper": 8839,
  "-trans": 8840,
  "-svg": 8841,
  "stat": 8842,
  "-tests": 8843,
  "-talk": 8844,
  "-transform": 8845,
  "SV": 8846,
  "Ġcontin": 8847,
  "method": 8848,
  "-theme": 8849,
  "-track": 8850,
  ")P": 8851,
  "-themed": 8852,
  "Configuration": 8853,
  "-trained": 8854,
  "Interface": 8855,
  "Ġprote": 8856,
  "bus": 8857,
  "Cy": 8858,
  "-threat": 8859,
  "-transfer": 8860,
  "apped": 8861,
  ")A": 8862,
  "Ġide": 8863,
  "-treated": 8864,
  "Ġcount": 8865,
  "gra": 8866,
  "ivate": 8867,
  "-type": 8868,
  ")B": 8869,
  "water": 8870,
  "Main": 8871,
  "-tree": 8872,
  "look": 8873,
  "-ta": 8874,
  "Ġmethod": 8875,
  "Sa": 8876,
  "GV": 8877,
  "-u": 8878,
  "akh": 8879,
  "kc": 8880,
  "-two": 8881,
  "Dan": 8882,
  "-ui": 8883,
  ")D": 8884,
  ")CS": 8885,
  "-turn": 8886,
  "-that": 8887,
  "-study": 8888,
  ")The": 8889,
  ")F": 8890,
  "Store": 8891,
  "Vo": 8892,
  "bow": 8893,
  "-un": 8894,
  "lj": 8895,
  "itat": 8896,
  "-types": 8897,
  "-up": 8898,
  ")H": 8899,
  "Active": 8900,
  ")and": 8901,
  ")didReceiveMemoryWarning": 8902,
  ")I": 8903,
  "Ut": 8904,
  "-tool": 8905,
  "-token": 8906,
  "Parameter": 8907,
  "-thinking": 8908,
  "entry": 8909,
  "-tools": 8910,
  "Play": 8911,
  ")findViewById": 8912,
  "Ġorgan": 8913,
  "-touch": 8914,
  ")N": 8915,
  "Version": 8916,
  "-ups": 8917,
  "aved": 8918,
  "lav": 8919,
  ")O": 8920,
  "-tal": 8921,
  "-talet": 8922,
  "-tra": 8923,
  "-unit": 8924,
  "-town": 8925,
  "Ġlog": 8926,
  "ĠAt": 8927,
  "elli": 8928,
  "-us": 8929,
  "Sec": 8930,
  "icago": 8931,
  "-user": 8932,
  "-use": 8933,
  "-ter": 8934,
  "Good": 8935,
  "pad": 8936,
  "-temperature": 8937,
  ")R": 8938,
  "vector": 8939,
  "-url": 8940,
  "-ten": 8941,
  "-v": 8942,
  "Ġog": 8943,
  ")S": 8944,
  "jud": 8945,
  "-transition": 8946,
  "Ġeen": 8947,
  "-training": 8948,
  ")T": 8949,
  ")g": 8950,
  "-toggler": 8951,
  "-tail": 8952,
  "ictionary": 8953,
  "Ġline": 8954,
  ")initWith": 8955,
  "Ġmust": 8956,
  "estion": 8957,
  "-this": 8958,
  "-used": 8959,
  "Ġwr": 8960,
  "-users": 8961,
  "-trigger": 8962,
  "-value": 8963,
  "Dim": 8964,
  "apes": 8965,
  "ection": 8966,
  "-val": 8967,
  "-topic": 8968,
  "annels": 8969,
  "ented": 8970,
  "-total": 8971,
  "jn": 8972,
  "-tip": 8973,
  "-techn": 8974,
  "lang": 8975,
  "-ul": 8976,
  "-values": 8977,
  "Return": 8978,
  "Ġsupp": 8979,
  ")r": 8980,
  "eria": 8981,
  "PF": 8982,
  "-w": 8983,
  "-view": 8984,
  "Ġmit": 8985,
  "Font": 8986,
  "printf": 8987,
  ")dx": 8988,
  "igan": 8989,
  "Ġorder": 8990,
  "FX": 8991,
  "Ġmov": 8992,
  "-under": 8993,
  "Ġvon": 8994,
  "-vis": 8995,
  "-vous": 8996,
  "false": 8997,
  "Ġou": 8998,
  "Tree": 8999,
  "John": 9000,
  "tab": 9001,
  "-update": 9002,
  ")row": 9003,
  "ĠAm": 9004,
  "aret": 9005,
  "empty": 9006,
  "-volume": 9007,
  "Ak": 9008,
  "-twitter": 9009,
  "ĠMar": 9010,
  "icians": 9011,
  "-way": 9012,
  "-weight": 9013,
  "Impl": 9014,
  "-war": 9015,
  ")tableView": 9016,
  "-water": 9017,
  "Note": 9018,
  "-ts": 9019,
  "-trash": 9020,
  "▁x": 9021,
  "-web": 9022,
  "-week": 9023,
  "tan": 9024,
  "-we": 9025,
  "eed": 9026,
  "rez": 9027,
  "-tem": 9028,
  "MG": 9029,
  "-wave": 9030,
  "-white": 9031,
  "-width": 9032,
  "xis": 9033,
  "roc": 9034,
  "pay": 9035,
  "-wide": 9036,
  "Vi": 9037,
  "EEE": 9038,
  "road": 9039,
  "-west": 9040,
  "UND": 9041,
  "Ġonline": 9042,
  "▁your": 9043,
  ")k": 9044,
  "-": 9045,
  ")viewDidLoad": 9046,
  "Pod": 9047,
  "Ġref": 9048,
  "-validation": 9049,
  "PUT": 9050,
  "Ġtext": 9051,
  "omic": 9052,
  "-wheel": 9053,
  "iques": 9054,
  "-winning": 9055,
  "oration": 9056,
  "Ġlot": 9057,
  "los": 9058,
  "Many": 9059,
  "-upload": 9060,
  "▁ro": 9061,
  "-ver": 9062,
  "*B": 9063,
  "connect": 9064,
  "-work": 9065,
  "-with": 9066,
  "-treatment": 9067,
  "-wing": 9068,
  "-vers": 9069,
  "clusive": 9070,
  "-wise": 9071,
  "▁Th": 9072,
  "*D": 9073,
  "-version": 9074,
  "Ġkey": 9075,
  "-word": 9076,
  "will": 9077,
  "-video": 9078,
  "Password": 9079,
  "-world": 9080,
  "*I": 9081,
  "Ho": 9082,
  "Async": 9083,
  "-wrap": 9084,
  "--": 9085,
  "-x": 9086,
  "UNT": 9087,
  "-workers": 9088,
  "Ġtot": 9089,
  "-wrapper": 9090,
  "-util": 9091,
  "-utils": 9092,
  "*L": 9093,
  "-ti": 9094,
  "anga": 9095,
  "-y": 9096,
  "Bal": 9097,
  "usa": 9098,
  "Ã¤r": 9099,
  "-xs": 9100,
  "-uri": 9101,
  "-year": 9102,
  "rer": 9103,
  "-upper": 9104,
  "----": 9105,
  "-valu": 9106,
  "plan": 9107,
  "-warning": 9108,
  "Delete": 9109,
  "-wall": 9110,
  "-und": 9111,
  "-xl": 9112,
  "*R": 9113,
  "-urlencoded": 9114,
  "-written": 9115,
  "-variable": 9116,
  "-tu": 9117,
  "--------": 9118,
  "ocks": 9119,
  "-z": 9120,
  "number": 9121,
  "-vector": 9122,
  "-yard": 9123,
  "Changed": 9124,
  "tmp": 9125,
  "Ġnext": 9126,
  "*X": 9127,
  "itis": 9128,
  "Ġview": 9129,
  "eva": 9130,
  "LV": 9131,
  "ned": 9132,
  "-you": 9133,
  "-years": 9134,
  "abi": 9135,
  "GER": 9136,
  ")the": 9137,
  "osta": 9138,
  "-your": 9139,
  "-widget": 9140,
  "-win": 9141,
  "ORY": 9142,
  "esis": 9143,
  "faces": 9144,
  "-(": 9145,
  "----------------": 9146,
  "Ġput": 9147,
  "Ġpour": 9148,
  "process": 9149,
  "-var": 9150,
  "blog": 9151,
  "---": 9152,
  "bay": 9153,
  "-zero": 9154,
  "-,": 9155,
  "Find": 9156,
  "emos": 9157,
  "Bay": 9158,
  "Only": 9159,
  "java": 9160,
  "Ġfeel": 9161,
  "-ves": 9162,
  "-worker": 9163,
  "Ti": 9164,
  "Show": 9165,
  "ĠThey": 9166,
  "Own": 9167,
  "*H": 9168,
  "-\"": 9169,
  "arks": 9170,
  "Ġja": 9171,
  "Enter": 9172,
  "NB": 9173,
  "-working": 9174,
  "oxy": 9175,
  "assa": 9176,
  "According": 9177,
  "ffff": 9178,
  "iot": 9179,
  "*dt": 9180,
  "*e": 9181,
  "Ġcas": 9182,
  "shop": 9183,
  "*dx": 9184,
  "Ġlevel": 9185,
  "icken": 9186,
  "-tv": 9187,
  "-)": 9188,
  "Ġrequire": 9189,
  "HK": 9190,
  "-window": 9191,
  "Best": 9192,
  "*P": 9193,
  "Press": 9194,
  "------------": 9195,
  "-wh": 9196,
  "DH": 9197,
  "white": 9198,
  "-uit": 9199,
  "_a": 9200,
  "Before": 9201,
  "*The": 9202,
  "unes": 9203,
  "*Z": 9204,
  "▁up": 9205,
  "-----": 9206,
  "riend": 9207,
  "Step": 9208,
  "▁co": 9209,
  "Ġdirect": 9210,
  "-Ãªtre": 9211,
  "*log": 9212,
  "Reader": 9213,
  "Ġwithout": 9214,
  "Helper": 9215,
  "-www": 9216,
  "*Zie": 9217,
  "assets": 9218,
  "-writing": 9219,
  "-write": 9220,
  "omi": 9221,
  "-.": 9222,
  "reek": 9223,
  "*at": 9224,
  "-vol": 9225,
  "echo": 9226,
  "Ġmodel": 9227,
  "Buy": 9228,
  "Ġcheck": 9229,
  "Ġmar": 9230,
  "prim": 9231,
  "-ut": 9232,
  "OWN": 9233,
  "arse": 9234,
  "stein": 9235,
  "display": 9236,
  ".A": 9237,
  "Ġgame": 9238,
  "ishes": 9239,
  "Ġevent": 9240,
  "-va": 9241,
  "Bre": 9242,
  "LG": 9243,
  "opa": 9244,
  "-wow": 9245,
  "Cur": 9246,
  "AO": 9247,
  "-yellow": 9248,
  "-wsj": 9249,
  "icate": 9250,
  "*pow": 9251,
  "esp": 9252,
  "Apr": 9253,
  "Ġjava": 9254,
  "Ġhet": 9255,
  "lot": 9256,
  "usk": 9257,
  "Ġce": 9258,
  "ibil": 9259,
  "Widget": 9260,
  "Ġlittle": 9261,
  "Ġpresent": 9262,
  "Ġterm": 9263,
  "-ve": 9264,
  "Ġbre": 9265,
  "unda": 9266,
  "ieu": 9267,
  "Hash": 9268,
  "+N": 9269,
  "zb": 9270,
  "job": 9271,
  "*sp": 9272,
  "inition": 9273,
  "imit": 9274,
  "Full": 9275,
  "article": 9276,
  "Ġgot": 9277,
  "JSON": 9278,
  "▁will": 9279,
  "aq": 9280,
  "quare": 9281,
  "+F": 9282,
  "-vit": 9283,
  "Figure": 9284,
  "_O": 9285,
  "-vos": 9286,
  "▁new": 9287,
  ".Ab": 9288,
  "ĠDo": 9289,
  "icit": 9290,
  "-wa": 9291,
  "▁us": 9292,
  "OME": 9293,
  "ibr": 9294,
  "UTF": 9295,
  "oggle": 9296,
  ".Action": 9297,
  ".Add": 9298,
  "-worth": 9299,
  ".Abstract": 9300,
  ".Act": 9301,
  "ITH": 9302,
  "*o": 9303,
  "roke": 9304,
  "+E": 9305,
  "quer": 9306,
  "lov": 9307,
  "WT": 9308,
  "beit": 9309,
  "ĠThere": 9310,
  ".Al": 9311,
  "west": 9312,
  "Ã¶r": 9313,
  "Ng": 9314,
  "float": 9315,
  "isse": 9316,
  "Cache": 9317,
  "+S": 9318,
  "iev": 9319,
  "edge": 9320,
  "Har": 9321,
  "+H": 9322,
  ".An": 9323,
  "oses": 9324,
  ".All": 9325,
  "God": 9326,
  "emic": 9327,
  "Bus": 9328,
  "Ġcu": 9329,
  "Hub": 9330,
  "+f": 9331,
  "HF": 9332,
  "Ax": 9333,
  "draw": 9334,
  "bad": 9335,
  "odi": 9336,
  "Thank": 9337,
  ".App": 9338,
  "ĠMy": 9339,
  "Ġstate": 9340,
  "sim": 9341,
  "iah": 9342,
  "High": 9343,
  "Ġspe": 9344,
  ".Any": 9345,
  ".API": 9346,
  "DW": 9347,
  "+v": 9348,
  ".APP": 9349,
  ".Api": 9350,
  "Although": 9351,
  ".Append": 9352,
  "vu": 9353,
  "module": 9354,
  "ultural": 9355,
  "Bro": 9356,
  "*sqrt": 9357,
  "gers": 9358,
  "itate": 9359,
  "values": 9360,
  "+W": 9361,
  ".Application": 9362,
  ".Abs": 9363,
  "xml": 9364,
  ".Acc": 9365,
  ".Are": 9366,
  "ĠFl": 9367,
  ".ACTION": 9368,
  "Ã©n": 9369,
  ".As": 9370,
  "lk": 9371,
  ".Account": 9372,
  "ĠShe": 9373,
  "ĠApp": 9374,
  ".Ad": 9375,
  "Ġdisc": 9376,
  "enger": 9377,
  "THE": 9378,
  "RN": 9379,
  "ayout": 9380,
  ".Activity": 9381,
  ".Ass": 9382,
  ".Assert": 9383,
  "RM": 9384,
  "ICK": 9385,
  "mand": 9386,
  "legal": 9387,
  "Document": 9388,
  ".Arrays": 9389,
  "ERY": 9390,
  ".APPLICATION": 9391,
  "-ze": 9392,
  "Another": 9393,
  "Free": 9394,
  ".Address": 9395,
  "front": 9396,
  "Most": 9397,
  "een": 9398,
  "fall": 9399,
  "OST": 9400,
  "nas": 9401,
  "+G": 9402,
  "Tim": 9403,
  "-Ã¥r": 9404,
  "Ġpay": 9405,
  ".ACT": 9406,
  "quis": 9407,
  "▁but": 9408,
  ".AD": 9409,
  ".AF": 9410,
  ".AL": 9411,
  "+z": 9412,
  "Inv": 9413,
  ".Att": 9414,
  "Lin": 9415,
  ".ADD": 9416,
  ".Anchor": 9417,
  "Lat": 9418,
  "Ġlove": 9419,
  ".AP": 9420,
  ".And": 9421,
  ".Auto": 9422,
  ".B": 9423,
  "WF": 9424,
  "+I": 9425,
  ".ALL": 9426,
  "alis": 9427,
  "Have": 9428,
  "Ann": 9429,
  "+K": 9430,
  ".Access": 9431,
  "+e": 9432,
  ".AR": 9433,
  "+L": 9434,
  "onic": 9435,
  "AIN": 9436,
  "Um": 9437,
  "neg": 9438,
  "+M": 9439,
  ".Active": 9440,
  "Ja": 9441,
  "andon": 9442,
  "Rob": 9443,
  ".Autowired": 9444,
  "ĠAmer": 9445,
  ".Adapter": 9446,
  "ensed": 9447,
  ".After": 9448,
  "access": 9449,
  "big": 9450,
  "+P": 9451,
  "oba": 9452,
  ".Ac": 9453,
  "+PC": 9454,
  "Fun": 9455,
  "allow": 9456,
  "Ġrece": 9457,
  "qa": 9458,
  ".Absolute": 9459,
  "DX": 9460,
  ".Alignment": 9461,
  ".AUTO": 9462,
  ".Back": 9463,
  "isters": 9464,
  "rup": 9465,
  "+R": 9466,
  "scale": 9467,
  "ĠdÃ©": 9468,
  ".AUTH": 9469,
  "kins": 9470,
  "Tube": 9471,
  "Script": 9472,
  "+len": 9473,
  "+lsi": 9474,
  "Ġbi": 9475,
  ".Alert": 9476,
  "+T": 9477,
  ".Array": 9478,
  ".Base": 9479,
  "+V": 9480,
  "Ġpot": 9481,
  ".Argument": 9482,
  "nan": 9483,
  "Ġthree": 9484,
  "lymp": 9485,
  "+X": 9486,
  "ference": 9487,
  "Ġleg": 9488,
  "elcome": 9489,
  "acher": 9490,
  "Effect": 9491,
  "+Y": 9492,
  "Ġdev": 9493,
  "OA": 9494,
  ".At": 9495,
  "Ġexpl": 9496,
  "Sal": 9497,
  ".Admin": 9498,
  "+de": 9499,
  "Session": 9500,
  "amy": 9501,
  "seg": 9502,
  "eny": 9503,
  ".Ar": 9504,
  ".Allow": 9505,
  "+en": 9506,
  "Ġhref": 9507,
  "JP": 9508,
  ".Arg": 9509,
  "Ġiss": 9510,
  "iate": 9511,
  "call": 9512,
  "IDE": 9513,
  ".Ap": 9514,
  "Ta": 9515,
  "Ġthings": 9516,
  "▁uid": 9517,
  ".Body": 9518,
  "KN": 9519,
  "Even": 9520,
  ".Android": 9521,
  "Byte": 9522,
  "+g": 9523,
  "({\"": 9524,
  "xl": 9525,
  "Ka": 9526,
  "Price": 9527,
  "eding": 9528,
  "({'": 9529,
  ".Animation": 9530,
  "+in": 9531,
  ".Appearance": 9532,
  "Abs": 9533,
  "(|": 9534,
  "leted": 9535,
  ",DB": 9536,
  "orders": 9537,
  ".Builder": 9538,
  ".Apply": 9539,
  ".C": 9540,
  "aml": 9541,
  "pecial": 9542,
  ".Assertions": 9543,
  ".Button": 9544,
  ".Bundle": 9545,
  "footer": 9546,
  "Display": 9547,
  "oded": 9548,
  "▁que": 9549,
  ".Background": 9550,
  "Contact": 9551,
  ".Attribute": 9552,
  "Like": 9553,
  "Vector": 9554,
  ".Auth": 9555,
  "NOT": 9556,
  ".ACC": 9557,
  ",GL": 9558,
  ".Args": 9559,
  "rig": 9560,
  ".Art": 9561,
  "ixel": 9562,
  "Kit": 9563,
  ".AG": 9564,
  ".Author": 9565,
  "Ġduring": 9566,
  ".Authentication": 9567,
  "Ġbeg": 9568,
  ".Before": 9569,
  "▁sh": 9570,
  ",ID": 9571,
  "Exec": 9572,
  "mic": 9573,
  "+q": 9574,
  "ENS": 9575,
  "DER": 9576,
  "Device": 9577,
  ".Big": 9578,
  "Ids": 9579,
  "onto": 9580,
  "KM": 9581,
  "ummy": 9582,
  ".Async": 9583,
  "into": 9584,
  "Ġir": 9585,
  "elled": 9586,
  "Sep": 9587,
  "EU": 9588,
  ".ASC": 9589,
  ".Block": 9590,
  "imation": 9591,
  ".Attributes": 9592,
  ".Audio": 9593,
  "Por": 9594,
  "oral": 9595,
  "USE": 9596,
  "Ġbuild": 9597,
  "pot": 9598,
  ",No": 9599,
  "Mag": 9600,
  ")$": 9601,
  "encing": 9602,
  ".Boolean": 9603,
  "ISO": 9604,
  ".Border": 9605,
  "Win": 9606,
  ".Av": 9607,
  "ĠAb": 9608,
  "Ġsmall": 9609,
  "irs": 9610,
  "ORK": 9611,
  ".BL": 9612,
  ".BASE": 9613,
  ")%": 9614,
  "aur": 9615,
  ".Bean": 9616,
  "▁man": 9617,
  "king": 9618,
  ".Aut": 9619,
  ".BAD": 9620,
  "Ġmonth": 9621,
  ".Begin": 9622,
  "help": 9623,
  "Wi": 9624,
  ".BASELINE": 9625,
  ",And": 9626,
  "Ġvers": 9627,
  "Ġsize": 9628,
  "andid": 9629,
  ".Build": 9630,
  ".Bind": 9631,
  "sol": 9632,
  ".BLACK": 9633,
  "scope": 9634,
  "ĠIm": 9635,
  "Area": 9636,
  "ALSE": 9637,
  ".But": 9638,
  ".BOLD": 9639,
  ".Char": 9640,
  ")',": 9641,
  ".Bitmap": 9642,
  "ĠSc": 9643,
  ".Bad": 9644,
  "Ġur": 9645,
  ".Bar": 9646,
  "Bad": 9647,
  ".Check": 9648,
  "device": 9649,
  ".Asp": 9650,
  ",Th": 9651,
  ".Be": 9652,
  ".Byte": 9653,
  ".Basic": 9654,
  "Storage": 9655,
  "Record": 9656,
  "Ġpower": 9657,
  "Ġstand": 9658,
  "Leg": 9659,
  ".Batch": 9660,
  ".Book": 9661,
  "ijn": 9662,
  "Enabled": 9663,
  "account": 9664,
  ".CO": 9665,
  "Settings": 9666,
  ".Bl": 9667,
  "LF": 9668,
  "▁has": 9669,
  ".COM": 9670,
  ".Ang": 9671,
  ".Client": 9672,
  "Mus": 9673,
  ".Click": 9674,
  "PDF": 9675,
  ".Clear": 9676,
  ".Close": 9677,
  ".Collections": 9678,
  ".Binding": 9679,
  ".Binary": 9680,
  ".Black": 9681,
  "activ": 9682,
  ".Buffered": 9683,
  ".Bit": 9684,
  "him": 9685,
  "Hist": 9686,
  "bud": 9687,
  "Ber": 9688,
  ".Bold": 9689,
  ".Color": 9690,
  "nen": 9691,
  "Parser": 9692,
  ".Column": 9693,
  ".Code": 9694,
  ".By": 9695,
  "-\\": 9696,
  ".Com": 9697,
  "Ġarr": 9698,
  "Mult": 9699,
  ".Call": 9700,
  "Ġlocal": 9701,
  ".Blue": 9702,
  "Ġlead": 9703,
  "essions": 9704,
  ".Arr": 9705,
  "GI": 9706,
  ".Bool": 9707,
  ".Br": 9708,
  ".Bottom": 9709,
  "terior": 9710,
  "RP": 9711,
  ".Buffer": 9712,
  ".Btn": 9713,
  ".CENTER": 9714,
  "mel": 9715,
  ".Box": 9716,
  "Google": 9717,
  "Gi": 9718,
  ".Command": 9719,
  ".Bot": 9720,
  "▁out": 9721,
  "Ġhum": 9722,
  ".CASCADE": 9723,
  "oves": 9724,
  ".Component": 9725,
  ".COL": 9726,
  ".Ch": 9727,
  "Ġben": 9728,
  "zm": 9729,
  "aan": 9730,
  "▁ti": 9731,
  "Does": 9732,
  "Od": 9733,
  "icans": 9734,
  ",axis": 9735,
  "lab": 9736,
  ".CON": 9737,
  "Ġbig": 9738,
  "uki": 9739,
  ".Common": 9740,
  "Cre": 9741,
  "Lib": 9742,
  ".Con": 9743,
  ",buf": 9744,
  "nut": 9745,
  "price": 9746,
  ".Business": 9747,
  "MX": 9748,
  "irus": 9749,
  "Build": 9750,
  "Ġweb": 9751,
  "Ġcustom": 9752,
  "Cd": 9753,
  "hist": 9754,
  "late": 9755,
  ".Bus": 9756,
  "onia": 9757,
  ".CH": 9758,
  ".Config": 9759,
  "ĠMan": 9760,
  "thumb": 9761,
  "umes": 9762,
  ".Bytes": 9763,
  "ĠIN": 9764,
  ".Configuration": 9765,
  ".CL": 9766,
  ".Checked": 9767,
  "boy": 9768,
  "Ġperform": 9769,
  ".Connection": 9770,
  "agne": 9771,
  ".Can": 9772,
  "KG": 9773,
  "rob": 9774,
  "qs": 9775,
  ".Context": 9776,
  "acle": 9777,
  ".Class": 9778,
  "eper": 9779,
  "claim": 9780,
  ".Contains": 9781,
  "stead": 9782,
  "Ga": 9783,
  "Fa": 9784,
  "WP": 9785,
  ".Controls": 9786,
  "Ġexpect": 9787,
  "blem": 9788,
  "Ġconsider": 9789,
  "Ġwater": 9790,
  ",The": 9791,
  ".Content": 9792,
  ",cp": 9793,
  "DJ": 9794,
  ".COLOR": 9795,
  "Target": 9796,
  ".COLUMN": 9797,
  "Ġbetter": 9798,
  ".Col": 9799,
  ".CR": 9800,
  ",copy": 9801,
  ",cv": 9802,
  "Once": 9803,
  ".CONT": 9804,
  ".Category": 9805,
  ".Cell": 9806,
  "Ġreport": 9807,
  "Ident": 9808,
  ".Cells": 9809,
  "uture": 9810,
  "Ġservice": 9811,
  ".Count": 9812,
  ".Create": 9813,
  ".Control": 9814,
  "Ġsuper": 9815,
  "Ġste": 9816,
  "Admin": 9817,
  "ĉpublic": 9818,
  ".Center": 9819,
  ".Core": 9820,
  "_y": 9821,
  ".Cache": 9822,
  "Fs": 9823,
  "Callback": 9824,
  ".Collection": 9825,
  "uper": 9826,
  "Names": 9827,
  ".Change": 9828,
  "Route": 9829,
  ".D": 9830,
  ".CSS": 9831,
  ".Calendar": 9832,
  "ibli": 9833,
  "Tool": 9834,
  "ician": 9835,
  "MV": 9836,
  "alia": 9837,
  ")+": 9838,
  "wed": 9839,
  ",an": 9840,
  "Cam": 9841,
  "mus": 9842,
  "▁his": 9843,
  ".Callback": 9844,
  "MAX": 9845,
  "lon": 9846,
  ",dim": 9847,
  ".Cancel": 9848,
  ".Current": 9849,
  ".Camera": 9850,
  "KT": 9851,
  ")*(": 9852,
  "utton": 9853,
  ".Cl": 9854,
  "BV": 9855,
  "AME": 9856,
  ",as": 9857,
  "Channel": 9858,
  "erts": 9859,
  ")**": 9860,
  ",eg": 9861,
  "Ġask": 9862,
  ".Car": 9863,
  ".Card": 9864,
  ".Cap": 9865,
  "nal": 9866,
  ".Canvas": 9867,
  ",at": 9868,
  "ingly": 9869,
  "pite": 9870,
  "your": 9871,
  "resent": 9872,
  ".Caption": 9873,
  "ĠEr": 9874,
  "KO": 9875,
  ",ep": 9876,
  "Ġhealth": 9877,
  "offset": 9878,
  "mac": 9879,
  "ADD": 9880,
  ".Channel": 9881,
  "Ġli": 9882,
  ".DB": 9883,
  ",err": 9884,
  "),\"": 9885,
  ".Data": 9886,
  "Ġcost": 9887,
  "ted": 9888,
  ",ev": 9889,
  ".Chat": 9890,
  ".Chart": 9891,
  "types": 9892,
  ",by": 9893,
  "Mu": 9894,
  "Ġhist": 9895,
  "azy": 9896,
  "JK": 9897,
  ".Columns": 9898,
  ")->": 9899,
  "IH": 9900,
  "Ġpas": 9901,
  "utf": 9902,
  ".Children": 9903,
  ".Date": 9904,
  ".Child": 9905,
  "Ġalways": 9906,
  "merce": 9907,
  "▁Z": 9908,
  ")-(": 9909,
  "gage": 9910,
  "▁my": 9911,
  ".City": 9912,
  "Abstract": 9913,
  "sur": 9914,
  ".Chrome": 9915,
  ".Co": 9916,
  ".Combine": 9917,
  "yll": 9918,
  "NULL": 9919,
  "cas": 9920,
  ".De": 9921,
  "Total": 9922,
  "Ġprint": 9923,
  ".Cmd": 9924,
  "▁Q": 9925,
  ".Controllers": 9926,
  ".Def": 9927,
  ".Compare": 9928,
  ")...": 9929,
  "Len": 9930,
  ".Default": 9931,
  "tras": 9932,
  "Ġeng": 9933,
  "olid": 9934,
  "sto": 9935,
  "media": 9936,
  ".Collectors": 9937,
  "▁und": 9938,
  "Ġaff": 9939,
  "UTH": 9940,
  "length": 9941,
  "Eu": 9942,
  "Ġappro": 9943,
  ".Des": 9944,
  ".Delete": 9945,
  "uation": 9946,
  "mid": 9947,
  "Ġbreak": 9948,
  "Jul": 9949,
  "sky": 9950,
  ".Custom": 9951,
  "Ġsomething": 9952,
  "register": 9953,
  "sey": 9954,
  "Ġimportant": 9955,
  ".Container": 9956,
  "alpha": 9957,
  "Ġret": 9958,
  ".Compiler": 9959,
  "role": 9960,
  "strap": 9961,
  ".Commands": 9962,
  ")/(": 9963,
  "WC": 9964,
  ".Controller": 9965,
  ".Diagnostics": 9966,
  ".DEFAULT": 9967,
  ".Comment": 9968,
  ".Comp": 9969,
  ")//": 9970,
  ".Drawing": 9971,
  "XML": 9972,
  ".Display": 9973,
  ".Conv": 9974,
  "ULE": 9975,
  "obby": 9976,
  "Ġbeh": 9977,
  ".Copy": 9978,
  "Ġnet": 9979,
  ".E": 9980,
  "description": 9981,
  "Ġanal": 9982,
  ",et": 9983,
  "yc": 9984,
  "Sam": 9985,
  ".Constants": 9986,
  "covery": 9987,
  "Cat": 9988,
  "impl": 9989,
  ".Domain": 9990,
  ".Cal": 9991,
  "ORS": 9992,
  "bridge": 9993,
  "Selector": 9994,
  ");//": 9995,
  ".Console": 9996,
  "when": 9997,
  ".Cross": 9998,
  ".Contact": 9999,
  "({Ċ": 10000,
  "elly": 10001,
  "Ġavailable": 10002,
  "Login": 10003,
  ",lat": 10004,
  "Intern": 10005,
  ".Database": 10006,
  "({},": 10007,
  ".Customer": 10008,
  "born": 10009,
  "EY": 10010,
  "Spe": 10011,
  "mis": 10012,
  "RD": 10013,
  "VB": 10014,
  ",for": 10015,
  "HM": 10016,
  "Ill": 10017,
  ".Dec": 10018,
  ".Convert": 10019,
  "mond": 10020,
  ".Debug": 10021,
  "(Ċ": 10022,
  "(~": 10023,
  "amples": 10024,
  "Ġkeep": 10025,
  ")<": 10026,
  "away": 10027,
  ")</": 10028,
  "Will": 10029,
  ",he": 10030,
  ")=": 10031,
  ",mid": 10032,
  ".Cos": 10033,
  "Ġbas": 10034,
  ".Cursor": 10035,
  "Ġya": 10036,
  "zone": 10037,
  "life": 10038,
  "git": 10039,
  ".Created": 10040,
  "Properties": 10041,
  ".En": 10042,
  ".Empty": 10043,
  ".Element": 10044,
  ".DE": 10045,
  "wu": 10046,
  "Range": 10047,
  ".Dis": 10048,
  "obi": 10049,
  ",if": 10050,
  ".Email": 10051,
  "usr": 10052,
  "Ġanother": 10053,
  ".DAL": 10054,
  ")==": 10055,
  "_k": 10056,
  "Ny": 10057,
  ".DATE": 10058,
  "Ds": 10059,
  "nos": 10060,
  ".DATA": 10061,
  ")>": 10062,
  "views": 10063,
  ".Dispose": 10064,
  ".Entity": 10065,
  "uries": 10066,
  ".DAY": 10067,
  "IDS": 10068,
  ".Do": 10069,
  "Ip": 10070,
  "Christ": 10071,
  "ISH": 10072,
  ".End": 10073,
  ".DAO": 10074,
  ".DO": 10075,
  "Hello": 10076,
  "common": 10077,
  ".DEBUG": 10078,
  "phi": 10079,
  "jm": 10080,
  ")\")Ċ": 10081,
  ".Error": 10082,
  ".DIS": 10083,
  "Ġwar": 10084,
  "avel": 10085,
  "Tom": 10086,
  ".Document": 10087,
  ")\",Ċ": 10088,
  ".Equal": 10089,
  ".DTO": 10090,
  ".Entry": 10091,
  ".DOM": 10092,
  "Arch": 10093,
  "Offset": 10094,
  "Ġsure": 10095,
  "uce": 10096,
  ".Draw": 10097,
  "DEBUG": 10098,
  "project": 10099,
  ")\">": 10100,
  ".Errorf": 10101,
  "typ": 10102,
  ".Event": 10103,
  "atura": 10104,
  ".Dao": 10105,
  "ANCE": 10106,
  ".Equals": 10107,
  ")\"Ċ": 10108,
  "Alt": 10109,
  ")\">Ċ": 10110,
  ".Dark": 10111,
  "omp": 10112,
  ")#": 10113,
  ".Description": 10114,
  "ateur": 10115,
  ".F": 10116,
  "icio": 10117,
  ".Db": 10118,
  "Nh": 10119,
  "contr": 10120,
  ".Combo": 10121,
  "SELECT": 10122,
  ".Deserialize": 10123,
  ".Dialog": 10124,
  "POS": 10125,
  ".Day": 10126,
  "▁get": 10127,
  "Reference": 10128,
  "itas": 10129,
  ".Execute": 10130,
  ",proto": 10131,
  "bles": 10132,
  "(ĊĊ": 10133,
  "kv": 10134,
  "LES": 10135,
  "pal": 10136,
  ")],": 10137,
  ".Ed": 10138,
  ".Dep": 10139,
  "eling": 10140,
  "Bon": 10141,
  "ĠGu": 10142,
  ")].": 10143,
  ".Decimal": 10144,
  "deg": 10145,
  ".Deep": 10146,
  ")^": 10147,
  ".Extensions": 10148,
  "fan": 10149,
  "ographic": 10150,
  "Ali": 10151,
  ")((": 10152,
  "lected": 10153,
  "application": 10154,
  "ugu": 10155,
  "sem": 10156,
  "Rect": 10157,
  "Database": 10158,
  ")`": 10159,
  "_X": 10160,
  "Men": 10161,
  ".Drop": 10162,
  "wick": 10163,
  ".Device": 10164,
  "Since": 10165,
  ".File": 10166,
  "isy": 10167,
  "LOC": 10168,
  "UF": 10169,
  "({čĊ": 10170,
  ".Dev": 10171,
  ".Enabled": 10172,
  ".Driver": 10173,
  "miss": 10174,
  ")\");Ċ": 10175,
  ".Field": 10176,
  "lines": 10177,
  "Ġport": 10178,
  ".Dock": 10179,
  ".Duration": 10180,
  "))))": 10181,
  "Ġturn": 10182,
  ".Dimension": 10183,
  ".Div": 10184,
  ".Doc": 10185,
  "pub": 10186,
  "▁comp": 10187,
  ".EX": 10188,
  ".Find": 10189,
  ".ERROR": 10190,
  "(čĊ": 10191,
  ".Entities": 10192,
  "))))Ċ": 10193,
  "Values": 10194,
  ")));Ċ": 10195,
  ".Dot": 10196,
  "Ay": 10197,
  ",rp": 10198,
  "Ġune": 10199,
  "ATED": 10200,
  ".Edit": 10201,
  ")))Ċ": 10202,
  ".First": 10203,
  "PV": 10204,
  ".Font": 10205,
  "eo": 10206,
  ".Double": 10207,
  "Ġhard": 10208,
  ".El": 10209,
  "angular": 10210,
  ",pp": 10211,
  "iph": 10212,
  "rus": 10213,
  ".Dom": 10214,
  ")!=": 10215,
  "ICS": 10216,
  ".Form": 10217,
  ",not": 10218,
  ")!Ċ": 10219,
  "components": 10220,
  "PB": 10221,
  ")))ĊĊ": 10222,
  ".Editor": 10223,
  ".Ex": 10224,
  ".For": 10225,
  ".Forms": 10226,
  "Ai": 10227,
  "embre": 10228,
  "))*": 10229,
  "Ġlim": 10230,
  ".EN": 10231,
  "▁pid": 10232,
  ".Fore": 10233,
  "MN": 10234,
  "make": 10235,
  ")\")": 10236,
  ")),Ċ": 10237,
  ".Dynamic": 10238,
  "Ġol": 10239,
  "MK": 10240,
  ".Enable": 10241,
  "Fac": 10242,
  ",of": 10243,
  ".EMPTY": 10244,
  "ĠCo": 10245,
  ".Format": 10246,
  "cep": 10247,
  ",om": 10248,
  ".END": 10249,
  ",st": 10250,
  ".G": 10251,
  ".Ext": 10252,
  "cdn": 10253,
  "Hor": 10254,
  "Ġmag": 10255,
  ")',Ċ": 10256,
  "DEF": 10257,
  "Conf": 10258,
  "Fil": 10259,
  ".From": 10260,
  ")\":": 10261,
  "lah": 10262,
  ".EXIT": 10263,
  ".FC": 10264,
  "ether": 10265,
  "sed": 10266,
  "))/": 10267,
  "Ġinterest": 10268,
  ".EXTRA": 10269,
  "Graph": 10270,
  ")(((": 10271,
  "anny": 10272,
  "▁au": 10273,
  ".Err": 10274,
  "Comment": 10275,
  "Great": 10276,
  ",one": 10277,
  ")):Ċ": 10278,
  "irts": 10279,
  ",or": 10280,
  "));Ċ": 10281,
  "wal": 10282,
  "Ġfamily": 10283,
  "Bean": 10284,
  "))(": 10285,
  "_j": 10286,
  ".GET": 10287,
  "vere": 10288,
  ".Get": 10289,
  "));ĊĊ": 10290,
  ".Fatal": 10291,
  ",ooo": 10292,
  "Nu": 10293,
  "Custom": 10294,
  ".Generic": 10295,
  "▁pre": 10296,
  ".Employee": 10297,
  "two": 10298,
  "Ġom": 10299,
  "Io": 10300,
  "rait": 10301,
  "idential": 10302,
  "Handle": 10303,
  ")))),": 10304,
  "igg": 10305,
  "news": 10306,
  ".Dat": 10307,
  ")&&": 10308,
  "Ġfull": 10309,
  "Typ": 10310,
  "Ġmarket": 10311,
  "mathrm": 10312,
  ".Exception": 10313,
  "))]Ċ": 10314,
  "insert": 10315,
  ")));": 10316,
  "Ġbro": 10317,
  ")){Ċ": 10318,
  "))Ċ": 10319,
  "▁St": 10320,
  ".Encode": 10321,
  ".Enum": 10322,
  ".Exists": 10323,
  ")));ĊĊ": 10324,
  "Ġproject": 10325,
  "ometry": 10326,
  ".Enter": 10327,
  "))ĊĊ": 10328,
  "pend": 10329,
  "brid": 10330,
  "erta": 10331,
  ",top": 10332,
  ")|": 10333,
  "fff": 10334,
  ".Env": 10335,
  "plus": 10336,
  "Ġann": 10337,
  "Detail": 10338,
  ".Environment": 10339,
  "FK": 10340,
  "))ĊĊĊ": 10341,
  "Profile": 10342,
  "amma": 10343,
  "))+": 10344,
  "Host": 10345,
  "eries": 10346,
  ".Group": 10347,
  "sex": 10348,
  ".FLAG": 10349,
  "MIN": 10350,
  "expected": 10351,
  ".H": 10352,
  ".Est": 10353,
  "Js": 10354,
  ".Events": 10355,
  "))->": 10356,
  ")).Ċ": 10357,
  "Ġmight": 10358,
  "Ġcreate": 10359,
  "Ui": 10360,
  ".Exit": 10361,
  "Ġnever": 10362,
  "hell": 10363,
  ")+(": 10364,
  ".Fragment": 10365,
  "outs": 10366,
  "▁which": 10367,
  ".Fill": 10368,
  ",so": 10369,
  "tings": 10370,
  "Serial": 10371,
  "store": 10372,
  "TON": 10373,
  "))/(": 10374,
  ".Em": 10375,
  ".Frame": 10376,
  ".Filter": 10377,
  "anne": 10378,
  "),Ċ": 10379,
  "ighter": 10380,
  "),'": 10381,
  ".Exp": 10382,
  "ders": 10383,
  ".Hash": 10384,
  "Because": 10385,
  ".Has": 10386,
  "XL": 10387,
  "Ġta": 10388,
  ".FR": 10389,
  "KR": 10390,
  "Ġoffer": 10391,
  "Old": 10392,
  ".FAIL": 10393,
  ".Firebase": 10394,
  "Ik": 10395,
  "▁ag": 10396,
  "),ĊĊ": 10397,
  "San": 10398,
  "ktop": 10399,
  "Rule": 10400,
  ".FIELD": 10401,
  "Gui": 10402,
  "Other": 10403,
  "they": 10404,
  ".Header": 10405,
  ".Fatalf": 10406,
  ".I": 10407,
  "Cond": 10408,
  "yw": 10409,
  ".Game": 10410,
  ".Float": 10411,
  "Kh": 10412,
  "rev": 10413,
  "bool": 10414,
  "Ġadv": 10415,
  ".Factory": 10416,
  ".Fail": 10417,
  "Amount": 10418,
  "quir": 10419,
  "phy": 10420,
  ".Http": 10421,
  "night": 10422,
  ")){": 10423,
  "stud": 10424,
  ".EM": 10425,
  "ENSE": 10426,
  "cmd": 10427,
  "cluded": 10428,
  "Make": 10429,
  ".Fetch": 10430,
  ".Fields": 10431,
  "amps": 10432,
  ".ID": 10433,
  "Ġod": 10434,
  ".Files": 10435,
  ",that": 10436,
  "DG": 10437,
  "fly": 10438,
  "Ġbody": 10439,
  "Rot": 10440,
  "vh": 10441,
  ")):": 10442,
  ".Fl": 10443,
  "etc": 10444,
  "Ġsem": 10445,
  "region": 10446,
  ".Flat": 10447,
  "ongo": 10448,
  "illy": 10449,
  ".Framework": 10450,
  "Fu": 10451,
  ".Fire": 10452,
  ".Fixed": 10453,
  "inta": 10454,
  "ardo": 10455,
  ".Full": 10456,
  "Nov": 10457,
  "ushing": 10458,
  ".IO": 10459,
  "));čĊ": 10460,
  ").[": 10461,
  ".GL": 10462,
  "Ġprom": 10463,
  ").Ċ": 10464,
  ".Function": 10465,
  "die": 10466,
  ".GONE": 10467,
  ".IOException": 10468,
  ".Graphics": 10469,
  "));čĊčĊ": 10470,
  ".Flow": 10471,
  "eff": 10472,
  ").__": 10473,
  ").ĊĊ": 10474,
  ".Focus": 10475,
  "essages": 10476,
  "cam": 10477,
  "zip": 10478,
  ".Id": 10479,
  ".Ge": 10480,
  ".Google": 10481,
  "Ly": 10482,
  ".Grid": 10483,
  "omer": 10484,
  "-Americ": 10485,
  "-Af": 10486,
  "spec": 10487,
  ".Fe": 10488,
  "Ġinvest": 10489,
  "users": 10490,
  "?v": 10491,
  "▁ver": 10492,
  "Sy": 10493,
  ".In": 10494,
  "urd": 10495,
  ".Generated": 10496,
  "ested": 10497,
  "asts": 10498,
  ".Image": 10499,
  "********************************": 10500,
  "oston": 10501,
  "))čĊ": 10502,
  "▁et": 10503,
  "):Ċ": 10504,
  "JB": 10505,
  ".He": 10506,
  "Selected": 10507,
  ".Free": 10508,
  "Mal": 10509,
  "peg": 10510,
  "service": 10511,
  "):ĊĊ": 10512,
  "ĠOb": 10513,
  "Tok": 10514,
  "Global": 10515,
  "Pub": 10516,
  ".Foreign": 10517,
  ".Go": 10518,
  ".Func": 10519,
  "Mapping": 10520,
  "heim": 10521,
  ".Height": 10522,
  ")+\"": 10523,
  ".Global": 10524,
  "Draw": 10525,
  "nea": 10526,
  ",was": 10527,
  ".Input": 10528,
  ".GUI": 10529,
  ".Es": 10530,
  "Gs": 10531,
  ",which": 10532,
  "Ġdans": 10533,
  "Ġca": 10534,
  ").\"": 10535,
  "**,": 10536,
  ".Gen": 10537,
  "ogle": 10538,
  "Look": 10539,
  ");Ċ": 10540,
  ".Int": 10541,
  "Ġstyle": 10542,
  "▁one": 10543,
  ".How": 10544,
  "Ġmom": 10545,
  ",who": 10546,
  ").*": 10547,
  "icro": 10548,
  ")..": 10549,
  "Perm": 10550,
  "Bytes": 10551,
  ".Instance": 10552,
  "Ġdays": 10553,
  "Cmd": 10554,
  ");ĊĊ": 10555,
  ".Generate": 10556,
  "*-": 10557,
  "menu": 10558,
  ".Is": 10559,
  ".Inter": 10560,
  ",with": 10561,
  ".Insert": 10562,
  "ogn": 10563,
  "Ġbit": 10564,
  "rah": 10565,
  "Ġactiv": 10566,
  ").</": 10567,
  ".HTTP": 10568,
  ".Integer": 10569,
  "orry": 10570,
  ".IN": 10571,
  "),čĊ": 10572,
  ");ĊĊĊ": 10573,
  "Definition": 10574,
  "Mer": 10575,
  "lich": 10576,
  "Ġchang": 10577,
  "REG": 10578,
  ")._": 10579,
  "there": 10580,
  ".Handle": 10581,
  ".Handler": 10582,
  ".Graph": 10583,
  "NET": 10584,
  "Its": 10585,
  ".J": 10586,
  "Ġfac": 10587,
  ".FL": 10588,
  "Ġleft": 10589,
  ".FE": 10590,
  "nÃŃ": 10591,
  ".Getter": 10592,
  "Bot": 10593,
  ".Item": 10594,
  ".Gr": 10595,
  "Ġschool": 10596,
  "Bas": 10597,
  "mag": 10598,
  "Ts": 10599,
  "Ġchange": 10600,
  ".IS": 10601,
  "Render": 10602,
  "teen": 10603,
  "Ġteam": 10604,
  "USB": 10605,
  "*>": 10606,
  ".Items": 10607,
  "trl": 10608,
  "pling": 10609,
  ".If": 10610,
  ".Home": 10611,
  "eca": 10612,
  "nat": 10613,
  ".Host": 10614,
  "inas": 10615,
  "oted": 10616,
  ".Gson": 10617,
  "CX": 10618,
  "vw": 10619,
  "Sql": 10620,
  ")=>": 10621,
  "gas": 10622,
  "pin": 10623,
  ".Hand": 10624,
  ")=>{Ċ": 10625,
  ".K": 10626,
  "icker": 10627,
  "chem": 10628,
  ".Identity": 10629,
  "Parameters": 10630,
  "IFI": 10631,
  "should": 10632,
  ".JSON": 10633,
  "Close": 10634,
  "property": 10635,
  "usc": 10636,
  "▁if": 10637,
  "adel": 10638,
  "never": 10639,
  "Ġcontrol": 10640,
  ".L": 10641,
  ".Index": 10642,
  "Person": 10643,
  "igma": 10644,
  ".Json": 10645,
  "LU": 10646,
  "Ġdur": 10647,
  ".Key": 10648,
  ".Info": 10649,
  "Ġsite": 10650,
  "law": 10651,
  "reshold": 10652,
  ".Join": 10653,
  "Was": 10654,
  ").čĊ": 10655,
  "BH": 10656,
  "ikes": 10657,
  ".Hide": 10658,
  ".High": 10659,
  ");}Ċ": 10660,
  "ARG": 10661,
  ".Headers": 10662,
  "ARCH": 10663,
  "fre": 10664,
  "quo": 10665,
  "Save": 10666,
  "-CH": 10667,
  "Black": 10668,
  "-CN": 10669,
  ".Horizontal": 10670,
  ".Label": 10671,
  "high": 10672,
  "▁fo": 10673,
  ".Html": 10674,
  ".IC": 10675,
  "Ġsince": 10676,
  ".Intent": 10677,
  ".Fr": 10678,
  "Hu": 10679,
  "):-": 10680,
  "none": 10681,
  ".IM": 10682,
  "ĠAN": 10683,
  ".Im": 10684,
  "Ġgen": 10685,
  "drop": 10686,
  "):čĊ": 10687,
  ".IContainer": 10688,
  "ichte": 10689,
  "Iter": 10690,
  "Dig": 10691,
  "Expression": 10692,
  "best": 10693,
  "GW": 10694,
  ".Layout": 10695,
  "-Ant": 10696,
  ".Interfaces": 10697,
  ".INFO": 10698,
  ".Internal": 10699,
  ")]Ċ": 10700,
  "imiento": 10701,
  "Ek": 10702,
  ")];Ċ": 10703,
  "utils": 10704,
  "IU": 10705,
  "Ã©t": 10706,
  "ILD": 10707,
  ".Length": 10708,
  ".IDENTITY": 10709,
  "okes": 10710,
  ".It": 10711,
  "iera": 10712,
  ".Last": 10713,
  ".IP": 10714,
  "ugg": 10715,
  ".Invalid": 10716,
  ".INSTANCE": 10717,
  ");\\": 10718,
  ".INT": 10719,
  "-CO": 10720,
  ")]ĊĊ": 10721,
  ")=\"": 10722,
  "achel": 10723,
  "Ġmil": 10724,
  ");}": 10725,
  "Ġcolor": 10726,
  "Ġcond": 10727,
  ".Init": 10728,
  ".INTEGER": 10729,
  "lle": 10730,
  "JA": 10731,
  ".List": 10732,
  ".IT": 10733,
  "ersion": 10734,
  ".Icon": 10735,
  "orem": 10736,
  "Ġmult": 10737,
  ".GR": 10738,
  "-CT": 10739,
  "second": 10740,
  ".INVISIBLE": 10741,
  ".Linq": 10742,
  ".Initial": 10743,
  "Ġgrow": 10744,
  "anas": 10745,
  "idx": 10746,
  "MH": 10747,
  "▁ri": 10748,
  "Inf": 10749,
  "▁Re": 10750,
  "ATCH": 10751,
  ".Location": 10752,
  ".Log": 10753,
  ");čĊ": 10754,
  "-Baptiste": 10755,
  "Download": 10756,
  "ennis": 10757,
  "-BY": 10758,
  "-Bas": 10759,
  ".Il": 10760,
  ")?;Ċ": 10761,
  ");čĊčĊ": 10762,
  ")?Ċ": 10763,
  "folio": 10764,
  ".Load": 10765,
  "Dat": 10766,
  "Editor": 10767,
  "Axis": 10768,
  "Ġni": 10769,
  ".M": 10770,
  "akt": 10771,
  "URI": 10772,
  ".Local": 10773,
  ".Ignore": 10774,
  ")?ĊĊ": 10775,
  ".Logger": 10776,
  "Ġcell": 10777,
  "Bg": 10778,
  "ĠPar": 10779,
  "nj": 10780,
  "children": 10781,
  "Enum": 10782,
  "-Cla": 10783,
  "Windows": 10784,
  ".Images": 10785,
  ")<<": 10786,
  ".Gl": 10787,
  "Report": 10788,
  "ĠNe": 10789,
  "▁dis": 10790,
  "Ġgroup": 10791,
  ".Inject": 10792,
  "formance": 10793,
  "ulin": 10794,
  "oren": 10795,
  ".Invoke": 10796,
  "cca": 10797,
  "▁more": 10798,
  ".MAX": 10799,
  ".LE": 10800,
  ".Infrastructure": 10801,
  "-Bret": 10802,
  ".Inner": 10803,
  "Template": 10804,
  "-HT": 10805,
  ".Iter": 10806,
  "ubs": 10807,
  ".LENGTH": 10808,
  "clip": 10809,
  "dog": 10810,
  ".JLabel": 10811,
  ".JButton": 10812,
  "auer": 10813,
  ")])Ċ": 10814,
  ".Map": 10815,
  "-CoV": 10816,
  ".Iterator": 10817,
  "Sen": 10818,
  ".JPG": 10819,
  ".Interop": 10820,
  "INFO": 10821,
  "chat": 10822,
  "+\"": 10823,
  ".Interface": 10824,
  ".Gu": 10825,
  "Java": 10826,
  "ativa": 10827,
  "News": 10828,
  ".Inv": 10829,
  "Double": 10830,
  "-CSF": 10831,
  "Env": 10832,
  "Ġgive": 10833,
  "pond": 10834,
  ".Job": 10835,
  "arga": 10836,
  "anes": 10837,
  ".Left": 10838,
  "chor": 10839,
  ".Max": 10840,
  "Blue": 10841,
  "ceived": 10842,
  ".KEY": 10843,
  ".Message": 10844,
  "ainer": 10845,
  "HV": 10846,
  ".Level": 10847,
  "Background": 10848,
  "Ġcompany": 10849,
  "Ġarg": 10850,
  "+'": 10851,
  "isme": 10852,
  "-Chr": 10853,
  "Ġwithin": 10854,
  "shot": 10855,
  "KC": 10856,
  "Ġva": 10857,
  ")])": 10858,
  "-DNA": 10859,
  ".Linear": 10860,
  "-Can": 10861,
  "Ju": 10862,
  "Buf": 10863,
  "Ġless": 10864,
  ".LEADING": 10865,
  "sha": 10866,
  "Auto": 10867,
  "+(": 10868,
  ".JPanel": 10869,
  "LB": 10870,
  "_st": 10871,
  "Ġexperience": 10872,
  "+)": 10873,
  "++)": 10874,
  ".Method": 10875,
  "TN": 10876,
  ".Model": 10877,
  ".JFrame": 10878,
  ".JSONObject": 10879,
  "require": 10880,
  ".Mod": 10881,
  "Ġcomo": 10882,
  "igration": 10883,
  ".Min": 10884,
  "Ġenc": 10885,
  "Emp": 10886,
  "ocity": 10887,
  "Rs": 10888,
  "){Ċ": 10889,
  "Ġable": 10890,
  "ĠCar": 10891,
  ".IB": 10892,
  ".Java": 10893,
  "amine": 10894,
  "earing": 10895,
  ".Models": 10896,
  "double": 10897,
  ");Ċ//": 10898,
  "did": 10899,
  ".Le": 10900,
  "Ġincluding": 10901,
  "Pt": 10902,
  ".JWT": 10903,
  "){ĊĊ": 10904,
  ".N": 10905,
  "Head": 10906,
  ".IF": 10907,
  "cri": 10908,
  "ĠEm": 10909,
  "▁they": 10910,
  ")__": 10911,
  ");ĊĊ//": 10912,
  "-CoA": 10913,
  "password": 10914,
  "++++": 10915,
  "ively": 10916,
  "tha": 10917,
  ".Long": 10918,
  "Ki": 10919,
  ".Keys": 10920,
  ".LA": 10921,
  "Ol": 10922,
  ".Line": 10923,
  "Ao": 10924,
  "▁fe": 10925,
  ".Kind": 10926,
  ".My": 10927,
  ".Link": 10928,
  ".LOG": 10929,
  ".Name": 10930,
  ".LEFT": 10931,
  ".ISupport": 10932,
  ".IR": 10933,
  "aky": 10934,
  "++,": 10935,
  "ulty": 10936,
  ".NET": 10937,
  "ĠBo": 10938,
  "Ġmu": 10939,
  ".Main": 10940,
  "ĠEng": 10941,
  "Matrix": 10942,
  ".Man": 10943,
  ")}Ċ": 10944,
  "ifies": 10945,
  "login": 10946,
  "++.": 10947,
  "Rh": 10948,
  "scribe": 10949,
  ".Linked": 10950,
  "PORT": 10951,
  ")}}": 10952,
  "City": 10953,
  "++;": 10954,
  ".LOC": 10955,
  "-Fran": 10956,
  "Ġwrit": 10957,
  "NK": 10958,
  "▁bo": 10959,
  "RB": 10960,
  "+,": 10961,
  "Ġmot": 10962,
  "Low": 10963,
  ".New": 10964,
  ")Ċ": 10965,
  "rick": 10966,
  "World": 10967,
  ")âĢĶ": 10968,
  "+-": 10969,
  "Ġjob": 10970,
  "++]": 10971,
  "Initial": 10972,
  "Tags": 10973,
  "hover": 10974,
  ")âĢĿ": 10975,
  "onal": 10976,
  "edd": 10977,
  ")ĊĊ": 10978,
  ".Net": 10979,
  "Float": 10980,
  ".Media": 10981,
  "+.": 10982,
  "arry": 10983,
  "raction": 10984,
  ".No": 10985,
  "+/": 10986,
  ".Login": 10987,
  "amiento": 10988,
  ")ĊĊĊ": 10989,
  "Ġobject": 10990,
  "important": 10991,
  "iest": 10992,
  ".Len": 10993,
  ".Menu": 10994,
  "-Din": 10995,
  "RV": 10996,
  "+=": 10997,
  "+:": 10998,
  "igue": 10999,
  "Ġlight": 11000,
  ".MIN": 11001,
  "xxx": 11002,
  "Second": 11003,
  ".Light": 11004,
  "Sun": 11005,
  ".Next": 11006,
  "Ign": 11007,
  "orph": 11008,
  ".Lib": 11009,
  ".O": 11010,
  "axis": 11011,
  "-Dr": 11012,
  "foo": 11013,
  ".Not": 11014,
  ".Lo": 11015,
  "Sil": 11016,
  "Xml": 11017,
  "Ze": 11018,
  ".Now": 11019,
  "ĠGe": 11020,
  "lers": 11021,
  ".Mock": 11022,
  "Ġroom": 11023,
  "CLA": 11024,
  "*\"": 11025,
  "inity": 11026,
  "+\\": 11027,
  ".Lock": 11028,
  "Put": 11029,
  "sea": 11030,
  "-Ed": 11031,
  ".Mar": 11032,
  ".Many": 11033,
  "Ġaccess": 11034,
  "transform": 11035,
  "Ġarea": 11036,
  "tat": 11037,
  "iol": 11038,
  ".Locale": 11039,
  ".OK": 11040,
  "-Gu": 11041,
  "thers": 11042,
  "bind": 11043,
  "Fore": 11044,
  "wm": 11045,
  "JECT": 11046,
  ".Module": 11047,
  "uren": 11048,
  ".Object": 11049,
  "umps": 11050,
  "ARN": 11051,
  ".Marshal": 11052,
  ".Look": 11053,
  "-Est": 11054,
  ".Mouse": 11055,
  ".On": 11056,
  ".Match": 11057,
  ".MM": 11058,
  "Users": 11059,
  ".Logging": 11060,
  "-FM": 11061,
  ".La": 11062,
  ".MODE": 11063,
  "Ġexc": 11064,
  ".Low": 11065,
  "chain": 11066,
  "*)(": 11067,
  "mean": 11068,
  ".Ma": 11069,
  "ych": 11070,
  ".Mvc": 11071,
  "zig": 11072,
  ".MON": 11073,
  "MQ": 11074,
  ".MOD": 11075,
  ".Lat": 11076,
  "TG": 11077,
  ".Open": 11078,
  "gener": 11079,
  "**)": 11080,
  "-IS": 11081,
  ".Make": 11082,
  ".P": 11083,
  "icons": 11084,
  ".Margin": 11085,
  "ão": 11086,
  "star": 11087,
  ".MSG": 11088,
  "Ġair": 11089,
  "aylor": 11090,
  "******": 11091,
  "Dem": 11092,
  ")ï¼Į": 11093,
  "){čĊ": 11094,
  "dag": 11095,
  "Rest": 11096,
  "-III": 11097,
  ".JText": 11098,
  ".Me": 11099,
  "Ġkind": 11100,
  "▁res": 11101,
  ".Order": 11102,
  "atrix": 11103,
  "person": 11104,
  "MAC": 11105,
  "tar": 11106,
  ".Material": 11107,
  "▁pl": 11108,
  "-IR": 11109,
  ".Nav": 11110,
  ")||": 11111,
  ".Mark": 11112,
  "upt": 11113,
  "CODE": 11114,
  "Queue": 11115,
  ".More": 11116,
  ".Math": 11117,
  "Ġey": 11118,
  "keys": 11119,
  "-Isl": 11120,
  ")ĊĊĊĊ": 11121,
  ".Jpa": 11122,
  "eman": 11123,
  "Ul": 11124,
  ".Member": 11125,
  ".Js": 11126,
  "Ġfield": 11127,
  "onda": 11128,
  ")},Ċ": 11129,
  "Ġpress": 11130,
  ".Move": 11131,
  ".Mesh": 11132,
  ".Node": 11133,
  "some": 11134,
  ")}>": 11135,
  "Ns": 11136,
  "**Ċ": 11137,
  ".Non": 11138,
  ".Middle": 11139,
  "closed": 11140,
  "cred": 11141,
  ".POST": 11142,
  "-Geiger": 11143,
  ".Meta": 11144,
  ".None": 11145,
  "WB": 11146,
  "Screen": 11147,
  ".Metadata": 11148,
  "**ĊĊ": 11149,
  ",$": 11150,
  ",#": 11151,
  "command": 11152,
  ".Migrations": 11153,
  ".Null": 11154,
  ".Mockito": 11155,
  "rent": 11156,
  "_u": 11157,
  ".Page": 11158,
  "Cent": 11159,
  ".LO": 11160,
  ".NOT": 11161,
  ".Parse": 11162,
  ",%": 11163,
  "gm": 11164,
  "Role": 11165,
  ".Mode": 11166,
  "▁tra": 11167,
  "etry": 11168,
  ",&": 11169,
  "delete": 11170,
  "asma": 11171,
  "ials": 11172,
  ".Parameters": 11173,
  "Root": 11174,
  "Coll": 11175,
  "*/Ċ": 11176,
  ".Msg": 11177,
  ".Mon": 11178,
  "asks": 11179,
  ".Path": 11180,
  "*)&": 11181,
  "Write": 11182,
  "Ġmill": 11183,
  "asant": 11184,
  "*/ĊĊ": 11185,
  ")čĊ": 11186,
  "Join": 11187,
  "ĠDr": 11188,
  "-Hill": 11189,
  ".Month": 11190,
  ".Per": 11191,
  "-Jean": 11192,
  "Word": 11193,
  ")čĊčĊ": 11194,
  "-Jac": 11195,
  "redit": 11196,
  "ĠMed": 11197,
  ".Network": 11198,
  ".Native": 11199,
  "-His": 11200,
  ".Mult": 11201,
  "▁ra": 11202,
  "also": 11203,
  ".NO": 11204,
  ".Point": 11205,
  "arte": 11206,
  ".Movie": 11207,
  ".Must": 11208,
  ".One": 11209,
  ".Multi": 11210,
  ",*": 11211,
  "*</": 11212,
  "*=": 11213,
  "NM": 11214,
  "*****": 11215,
  ".NODE": 11216,
  "ibles": 11217,
  ".NAME": 11218,
  "Today": 11219,
  "HN": 11220,
  "*$": 11221,
  ".NONE": 11222,
  "Ġba": 11223,
  "RX": 11224,
  "*>(": 11225,
  "imens": 11226,
  "Ġcontent": 11227,
  "Ġals": 11228,
  "Pass": 11229,
  "*&": 11230,
  "tech": 11231,
  "pez": 11232,
  "athy": 11233,
  "Constants": 11234,
  "Dom": 11235,
  ".NUM": 11236,
  "Dist": 11237,
  ".Normal": 11238,
  "filter": 11239,
  "Desc": 11240,
  "Vari": 11241,
  "*((": 11242,
  "*(-": 11243,
  "Ġess": 11244,
  ".Nullable": 11245,
  ".Number": 11246,
  "Tu": 11247,
  ".Print": 11248,
  ".Post": 11249,
  ".Named": 11250,
  "***Ċ": 11251,
  "Ġtechn": 11252,
  "Ġocc": 11253,
  ".Output": 11254,
  ".PI": 11255,
  ",:": 11256,
  ".Namespace": 11257,
  "***ĊĊ": 11258,
  "asion": 11259,
  ".Navigation": 11260,
  "Ġwa": 11261,
  ".Println": 11262,
  "orney": 11263,
  "Ġpod": 11264,
  ".Of": 11265,
  "stylesheet": 11266,
  "Ġcou": 11267,
  "arrow": 11268,
  "Ġmi": 11269,
  ".Nil": 11270,
  "Ġaway": 11271,
  "clu": 11272,
  "Ec": 11273,
  ".Q": 11274,
  ".Printf": 11275,
  "COL": 11276,
  "dal": 11277,
  "athan": 11278,
  ".Objects": 11279,
  "Ġfriend": 11280,
  ".Product": 11281,
  "ĠCont": 11282,
  ".R": 11283,
  "isted": 11284,
  ",@": 11285,
  "aded": 11286,
  ".Num": 11287,
  ".Panel": 11288,
  ".Property": 11289,
  "utch": 11290,
  "write": 11291,
  ".Notification": 11292,
  "OX": 11293,
  "Pet": 11294,
  "ZA": 11295,
  "Gal": 11296,
  "normal": 11297,
  ".ON": 11298,
  ".Optional": 11299,
  ".Options": 11300,
  ".OP": 11301,
  "ĠBy": 11302,
  "Ġsin": 11303,
  ".OR": 11304,
  ".Parameter": 11305,
  "pare": 11306,
  "berry": 11307,
  ".OS": 11308,
  ".Query": 11309,
  "Common": 11310,
  ".Our": 11311,
  "******/": 11312,
  "ĠEd": 11313,
  "omes": 11314,
  "▁cont": 11315,
  "dig": 11316,
  "*:": 11317,
  "-Martin": 11318,
  "▁imp": 11319,
  "DATE": 11320,
  "agraph": 11321,
  ".ONE": 11322,
  "angers": 11323,
  "ackage": 11324,
  ".Ok": 11325,
  ".Override": 11326,
  ".Re": 11327,
  "**/Ċ": 11328,
  ".OUT": 11329,
  "dv": 11330,
  ".Op": 11331,
  "resa": 11332,
  ".PREFERRED": 11333,
  ".Read": 11334,
  "-Mer": 11335,
  "Hen": 11336,
  "Due": 11337,
  "eras": 11338,
  "**čĊ": 11339,
  ".Obj": 11340,
  "illo": 11341,
  ")Ċ//": 11342,
  "-Lab": 11343,
  "vn": 11344,
  ".Player": 11345,
  ".Or": 11346,
  "dim": 11347,
  "jos": 11348,
  ".Padding": 11349,
  "************************": 11350,
  "Statement": 11351,
  "ipment": 11352,
  "Ġhab": 11353,
  "Ã©m": 11354,
  ".Option": 11355,
  "BW": 11356,
  ".Operation": 11357,
  "prop": 11358,
  "ĠDes": 11359,
  "*/,": 11360,
  ".Out": 11361,
  "-MB": 11362,
  ".Position": 11363,
  "Match": 11364,
  ".Pre": 11365,
  "Files": 11366,
  "ften": 11367,
  ".Parent": 11368,
  ".PL": 11369,
  "*/čĊ": 11370,
  ".Password": 11371,
  ".Reg": 11372,
  ".Pe": 11373,
  "PER": 11374,
  "formed": 11375,
  "inge": 11376,
  "Jun": 11377,
  "*_": 11378,
  "Nm": 11379,
  ".Rem": 11380,
  "QR": 11381,
  ".Owner": 11382,
  ".Ph": 11383,
  "WL": 11384,
  "Transaction": 11385,
  "Expl": 11386,
  ".Ref": 11387,
  ".PR": 11388,
  ".PORT": 11389,
  "icture": 11390,
  ".PRO": 11391,
  "pdf": 11392,
  "Ġfar": 11393,
  "-OH": 11394,
  "bid": 11395,
  ".Register": 11396,
  "console": 11397,
  "▁some": 11398,
  ".Process": 11399,
  "-Smith": 11400,
  ".Remove": 11401,
  "*@": 11402,
  ".POS": 11403,
  ".PLAIN": 11404,
  ".Request": 11405,
  ".Properties": 11406,
  ".Project": 11407,
  "NEW": 11408,
  ".Play": 11409,
  "Ġtri": 11410,
  "Ġzu": 11411,
  ".Package": 11412,
  "Move": 11413,
  ",_": 11414,
  "JR": 11415,
  ".Param": 11416,
  "Term": 11417,
  "dot": 11418,
  "*Ċ": 11419,
  ".Response": 11420,
  "dist": 11421,
  "stood": 11422,
  "-Saharan": 11423,
  "Success": 11424,
  "Real": 11425,
  "loat": 11426,
  "andy": 11427,
  "loss": 11428,
  ".RE": 11429,
  ".Repository": 11430,
  ".Resource": 11431,
  "zs": 11432,
  "aser": 11433,
  "Ġplan": 11434,
  ".Part": 11435,
  "small": 11436,
  "Ġcommun": 11437,
  "Ã¡l": 11438,
  ".Na": 11439,
  "Rx": 11440,
  "inst": 11441,
  "ensus": 11442,
  "*[": 11443,
  ".Perform": 11444,
  "-Med": 11445,
  "txt": 11446,
  "BJ": 11447,
  ".S": 11448,
  "Sum": 11449,
  ".Rest": 11450,
  ".Pattern": 11451,
  ".Pl": 11452,
  "DOM": 11453,
  "Nd": 11454,
  ".Pay": 11455,
  "_U": 11456,
  ".Person": 11457,
  "▁Ch": 11458,
  "Follow": 11459,
  ".Pro": 11460,
  "During": 11461,
  ".Ne": 11462,
  "Lab": 11463,
  "Ġelect": 11464,
  ".Primary": 11465,
  "Ġrequest": 11466,
  "ivos": 11467,
  "Ġreview": 11468,
  ".Phone": 11469,
  "lr": 11470,
  "Uri": 11471,
  "-Qu": 11472,
  "ĠCan": 11473,
  ".Random": 11474,
  "qual": 11475,
  ".Run": 11476,
  "CAP": 11477,
  "+$": 11478,
  "Parent": 11479,
  ".Range": 11480,
  "-Sah": 11481,
  "append": 11482,
  "Year": 11483,
  "Ġinc": 11484,
  ".Runtime": 11485,
  "lf": 11486,
  ".Pr": 11487,
  "*!": 11488,
  ".Org": 11489,
  ".Pop": 11490,
  ".Pin": 11491,
  "Ġka": 11492,
  "-Nr": 11493,
  "-Per": 11494,
  ".Pos": 11495,
  "aland": 11496,
  ".Platform": 11497,
  ".Port": 11498,
  ".Pod": 11499,
  "Pane": 11500,
  "scription": 11501,
  ".Provider": 11502,
  "ĠGl": 11503,
  ".Qt": 11504,
  "Mel": 11505,
  "ometer": 11506,
  ".Pointer": 11507,
  "nor": 11508,
  "Ġside": 11509,
  "Copy": 11510,
  ".Red": 11511,
  ".Pow": 11512,
  "gd": 11513,
  "++){Ċ": 11514,
  "Hit": 11515,
  "icky": 11516,
  "++)Ċ": 11517,
  ".Power": 11518,
  ".Price": 11519,
  "hum": 11520,
  ".Regular": 11521,
  "Ya": 11522,
  "blank": 11523,
  "anim": 11524,
  "Under": 11525,
  ".Sc": 11526,
  "acon": 11527,
  ".Ob": 11528,
  ".Progress": 11529,
  ".Save": 11530,
  "logo": 11531,
  ".Se": 11532,
  "++++++++": 11533,
  "Ġsex": 11534,
  ".Res": 11535,
  "Yu": 11536,
  "asting": 11537,
  ".Prop": 11538,
  ".Profile": 11539,
  "ĠWhat": 11540,
  ".Replace": 11541,
  ".Put": 11542,
  "Ġitem": 11543,
  "Feb": 11544,
  ".Push": 11545,
  "angel": 11546,
  "DIR": 11547,
  "Ġbar": 11548,
  "Ã§Ã£o": 11549,
  "*ĊĊ": 11550,
  "++;Ċ": 11551,
  ".Qu": 11552,
  "hex": 11553,
  "sign": 11554,
  "Chat": 11555,
  "inent": 11556,
  ".Scanner": 11557,
  ".Public": 11558,
  ".Schema": 11559,
  "Events": 11560,
  "uent": 11561,
  "▁their": 11562,
  "izza": 11563,
  ".Result": 11564,
  ".RED": 11565,
  ".Rect": 11566,
  ".Select": 11567,
  "UTE": 11568,
  "Ġang": 11569,
  "Ġqui": 11570,
  "thread": 11571,
  "-Ph": 11572,
  "Writer": 11573,
  "Ġwhe": 11574,
  ".Queue": 11575,
  "-Pal": 11576,
  "ETA": 11577,
  "Ġprim": 11578,
  "++Ċ": 11579,
  ".RELATED": 11580,
  "cx": 11581,
  "-Si": 11582,
  ".Serial": 11583,
  ".Security": 11584,
  ".Right": 11585,
  "charge": 11586,
  "Ġwhy": 11587,
  "UTO": 11588,
  "hard": 11589,
  ".READ": 11590,
  "Ġident": 11591,
  "+\"/": 11592,
  ".Reflection": 11593,
  "eres": 11594,
  ".Set": 11595,
  ".REG": 11596,
  "+#": 11597,
  "INSERT": 11598,
  ".Send": 11599,
  ".Row": 11600,
  ".Rows": 11601,
  "Register": 11602,
  ".RIGHT": 11603,
  ".Service": 11604,
  "arian": 11605,
  "+-+-": 11606,
  "BIT": 11607,
  ".Serializable": 11608,
  ".Raw": 11609,
  "Wow": 11610,
  "Ã¨s": 11611,
  ".PERM": 11612,
  ".Render": 11613,
  ".Rad": 11614,
  "before": 11615,
  ".RUN": 11616,
  ".Sh": 11617,
  "urers": 11618,
  "RG": 11619,
  "android": 11620,
  "▁col": 11621,
  "EK": 11622,
  "graph": 11623,
  "Iss": 11624,
  "Section": 11625,
  "Ġlooking": 11626,
  ".Services": 11627,
  "primary": 11628,
  "Ġlaw": 11629,
  "*čĊ": 11630,
  ".React": 11631,
  "interface": 11632,
  ".Size": 11633,
  ".Show": 11634,
  "HG": 11635,
  "Boolean": 11636,
  ".Resources": 11637,
  ".Record": 11638,
  "stan": 11639,
  "tery": 11640,
  ".Reader": 11641,
  "AJ": 11642,
  "ubl": 11643,
  ".ST": 11644,
  "-Te": 11645,
  ".SQL": 11646,
  "Vu": 11647,
  "stone": 11648,
  "+\",": 11649,
  ".Rel": 11650,
  "Cloud": 11651,
  "Ġthought": 11652,
  "+\".": 11653,
  ".Redirect": 11654,
  "Ġstruct": 11655,
  "+++": 11656,
  "cloud": 11657,
  "+\"\\": 11658,
  "cker": 11659,
  "Debug": 11660,
  "Results": 11661,
  "Track": 11662,
  "_in": 11663,
  ".Role": 11664,
  "Operation": 11665,
  "Mad": 11666,
  "Compat": 11667,
  "-Rel": 11668,
  ".Refresh": 11669,
  "Center": 11670,
  "++++++++++++++++": 11671,
  ".Remote": 11672,
  "-SS": 11673,
  "Ġfre": 11674,
  ".Report": 11675,
  "-Res": 11676,
  "Ġagainst": 11677,
  ".Router": 11678,
  "bury": 11679,
  "enders": 11680,
  "Cart": 11681,
  "Ġbuy": 11682,
  "-Sa": 11683,
  "+'/": 11684,
  "Support": 11685,
  "exports": 11686,
  "RH": 11687,
  ".Rendering": 11688,
  "avid": 11689,
  "Raw": 11690,
  ".Picture": 11691,
  "-Trump": 11692,
  "Keys": 11693,
  "VEL": 11694,
  ".Reset": 11695,
  "Member": 11696,
  ".SE": 11697,
  "wig": 11698,
  "Cut": 11699,
  "Lock": 11700,
  "++;ĊĊ": 11701,
  "Cost": 11702,
  ".Resume": 11703,
  "system": 11704,
  "pled": 11705,
  ".Selected": 11706,
  "Neg": 11707,
  ".Sprintf": 11708,
  ".Search": 11709,
  "Hol": 11710,
  ".Second": 11711,
  "++){čĊ": 11712,
  ".Split": 11713,
  "++)čĊ": 11714,
  ".Start": 11715,
  "Argument": 11716,
  ".Status": 11717,
  ".Sql": 11718,
  "mys": 11719,
  "were": 11720,
  "Arm": 11721,
  ".String": 11722,
  ".Return": 11723,
  "Ġmax": 11724,
  ".Room": 11725,
  "Ġsuccess": 11726,
  ".Root": 11727,
  ".State": 11728,
  "fortunately": 11729,
  "ossa": 11730,
  ".Round": 11731,
  "unter": 11732,
  "inking": 11733,
  ".SQLException": 11734,
  "Pin": 11735,
  "ESS": 11736,
  "-Sem": 11737,
  ".Server": 11738,
  ".STRING": 11739,
  "Modal": 11740,
  ".Serialization": 11741,
  ".SC": 11742,
  "Props": 11743,
  "Func": 11744,
  "document": 11745,
  "pur": 11746,
  "+Ċ": 11747,
  "sup": 11748,
  "Ru": 11749,
  "edly": 11750,
  ".Route": 11751,
  "Ġblood": 11752,
  ".SDK": 11753,
  ".T": 11754,
  ".Rule": 11755,
  ".Sub": 11756,
  ".Session": 11757,
  "uras": 11758,
  "uros": 11759,
  "-Six": 11760,
  "▁te": 11761,
  ".SET": 11762,
  ".SEVERE": 11763,
  ".SH": 11764,
  "lett": 11765,
  ",!": 11766,
  "-abs": 11767,
  ".Recycler": 11768,
  "Trace": 11769,
  "++;čĊ": 11770,
  "atile": 11771,
  "Ġsever": 11772,
  ".Scene": 11773,
  "tons": 11774,
  "good": 11775,
  ".SECONDS": 11776,
  ".Screen": 11777,
  ".SM": 11778,
  ".SK": 11779,
  ".SP": 11780,
  "-Stra": 11781,
  ".SO": 11782,
  "pool": 11783,
  "iw": 11784,
  "+]": 11785,
  "hz": 11786,
  ".Simple": 11787,
  "hv": 11788,
  "IGH": 11789,
  "ĠWith": 11790,
  "rett": 11791,
  "ASS": 11792,
  "Mor": 11793,
  "Character": 11794,
  "aneous": 11795,
  "Sz": 11796,
  "Ky": 11797,
  ".Tab": 11798,
  ".Single": 11799,
  "ogg": 11800,
  "aver": 11801,
  "erial": 11802,
  "itative": 11803,
  "ansas": 11804,
  "lass": 11805,
  ".START": 11806,
  "olis": 11807,
  "bum": 11808,
  "full": 11809,
  ".SUCCESS": 11810,
  "+</": 11811,
  ",''": 11812,
  ".SUB": 11813,
  ".Source": 11814,
  ".STATE": 11815,
  "opic": 11816,
  "iation": 11817,
  "WN": 11818,
  "join": 11819,
  "ashed": 11820,
  "ucky": 11821,
  ".RO": 11822,
  "uario": 11823,
  "+=\"": 11824,
  ".Serialize": 11825,
  "kd": 11826,
  "Ġpage": 11827,
  ".Text": 11828,
  "nx": 11829,
  ".Series": 11830,
  ".Scan": 11831,
  ".Tasks": 11832,
  "inte": 11833,
  ".Table": 11834,
  ".Servlet": 11835,
  ",+": 11836,
  ".Scale": 11837,
  ".Test": 11838,
  "Fix": 11839,
  "Ġlow": 11840,
  ".Radio": 11841,
  "YO": 11842,
  ".St": 11843,
  ".Spring": 11844,
  "WORD": 11845,
  "fty": 11846,
  ".The": 11847,
  "YA": 11848,
  ".Tag": 11849,
  ".She": 11850,
  "bj": 11851,
  "ctic": 11852,
  ".Settings": 11853,
  "Ġnu": 11854,
  "+[": 11855,
  "Ġbased": 11856,
  "Occ": 11857,
  "Stop": 11858,
  ".Scroll": 11859,
  ".Script": 11860,
  "LOB": 11861,
  ",,,,": 11862,
  ".Shared": 11863,
  "emple": 11864,
  "Pan": 11865,
  "Alex": 11866,
  "Health": 11867,
  "▁pe": 11868,
  "orer": 11869,
  "-Two": 11870,
  ".Selection": 11871,
  "Ġfut": 11872,
  ".Should": 11873,
  "amount": 11874,
  "KK": 11875,
  "abc": 11876,
  "tip": 11877,
  "Ġsing": 11878,
  "Fields": 11879,
  "Ġaccount": 11880,
  "Meta": 11881,
  ".Thread": 11882,
  ".To": 11883,
  "ĠChrist": 11884,
  ".Threading": 11885,
  ".Sequential": 11886,
  ".So": 11887,
  "Program": 11888,
  ".Str": 11889,
  "Ġsn": 11890,
  "Flag": 11891,
  "+ĊĊ": 11892,
  "URN": 11893,
  ".Skip": 11894,
  ".SEC": 11895,
  "Hon": 11896,
  ".Time": 11897,
  ".Sleep": 11898,
  "erver": 11899,
  "Nb": 11900,
  "Ġza": 11901,
  "FOR": 11902,
  ".Some": 11903,
  "letter": 11904,
  "iley": 11905,
  ".Setup": 11906,
  "War": 11907,
  "Dest": 11908,
  "ĠGet": 11909,
  "Ġtw": 11910,
  ".System": 11911,
  ".Title": 11912,
  ".Sign": 11913,
  ".Shape": 11914,
  "iral": 11915,
  "Video": 11916,
  "Arc": 11917,
  "Pool": 11918,
  "Plan": 11919,
  "gc": 11920,
  "ENCE": 11921,
  ".Short": 11922,
  "Ġprovide": 11923,
  "Ġmaterial": 11924,
  "-Ze": 11925,
  "Try": 11926,
  ".Sin": 11927,
  ".U": 11928,
  "Rate": 11929,
  "aska": 11930,
  ".Sn": 11931,
  "▁app": 11932,
  "FILE": 11933,
  ".Slf": 11934,
  ".Standard": 11935,
  "Una": 11936,
  ".Sp": 11937,
  ".Site": 11938,
  "Ġallow": 11939,
  ".Type": 11940,
  "-$": 11941,
  "-ZÃ©": 11942,
  ".Stop": 11943,
  ".Sort": 11944,
  "apor": 11945,
  "Law": 11946,
  ".TYPE": 11947,
  "Ast": 11948,
  "clear": 11949,
  ".UI": 11950,
  "-%": 11951,
  ".Spec": 11952,
  "Qi": 11953,
  ".Try": 11954,
  ".Socket": 11955,
  ".Stream": 11956,
  ",,,": 11957,
  "etta": 11958,
  "ĠMay": 11959,
  ".Style": 11960,
  "-'": 11961,
  ".Task": 11962,
  ",\"%": 11963,
  "▁were": 11964,
  ",\"Ċ": 11965,
  "modal": 11966,
  "total": 11967,
  "Ġthing": 11968,
  "CAT": 11969,
  ".Substring": 11970,
  "NER": 11971,
  ".Un": 11972,
  "Policy": 11973,
  "nr": 11974,
  ".Stack": 11975,
  ".Sprite": 11976,
  "Fragment": 11977,
  ".Success": 11978,
  "upload": 11979,
  "Review": 11980,
  "Die": 11981,
  ".Symbol": 11982,
  ",/": 11983,
  "Ġplus": 11984,
  "LINE": 11985,
  "Ġtak": 11986,
  ".There": 11987,
  ".This": 11988,
  ".Stage": 11989,
  "Public": 11990,
  "inv": 11991,
  ",//": 11992,
  ".Stat": 11993,
  ".Std": 11994,
  "agues": 11995,
  ".User": 11996,
  "--)": 11997,
  "Ġsam": 11998,
  "Children": 11999,
  ".They": 12000,
  ".Store": 12001,
  "Ġhal": 12002,
  "Ten": 12003,
  ".V": 12004,
  "ideos": 12005,
  "Layer": 12006,
  "OE": 12007,
  ".Use": 12008,
  ".Update": 12009,
  "Help": 12010,
  "Ġep": 12011,
  "Serv": 12012,
  ",),": 12013,
  ".Storage": 12014,
  "ĠThat": 12015,
  ".Step": 12016,
  ",<": 12017,
  "din": 12018,
  "Pack": 12019,
  "Invalid": 12020,
  "------": 12021,
  "Ġproper": 12022,
  "-------": 12023,
  "Ġpath": 12024,
  "-anal": 12025,
  ".Student": 12026,
  "unci": 12027,
  "-amerikan": 12028,
  ".Tables": 12029,
  ".Struct": 12030,
  "---------": 12031,
  ".Te": 12032,
  "Connect": 12033,
  "----------": 12034,
  ".Sum": 12035,
  ".Value": 12036,
  ".Tool": 12037,
  "Ġhar": 12038,
  "Ġapplic": 12039,
  "Ġtu": 12040,
  "--------------------------------": 12041,
  "dar": 12042,
  ".Sys": 12043,
  ".Target": 12044,
  "Tax": 12045,
  "lez": 12046,
  "-----------": 12047,
  "LET": 12048,
  "crip": 12049,
  "-------------": 12050,
  ".TH": 12051,
  "ulous": 12052,
  "USER": 12053,
  ".TR": 12054,
  "ĉi": 12055,
  ".Top": 12056,
  "Logger": 12057,
  ",...Ċ": 12058,
  "Nor": 12059,
  ".TEXT": 12060,
  "Inst": 12061,
  "--------------": 12062,
  ".TAG": 12063,
  "Elements": 12064,
  ".TRA": 12065,
  ".Th": 12066,
  ".View": 12067,
  ",...ĊĊ": 12068,
  "sys": 12069,
  ".TABLE": 12070,
  ".That": 12071,
  ".TOP": 12072,
  ".TIM": 12073,
  ".Tests": 12074,
  ".W": 12075,
  "ogs": 12076,
  "ication": 12077,
  "Nr": 12078,
  ".Then": 12079,
  "History": 12080,
  "acs": 12081,
  "Ġfore": 12082,
  "mir": 12083,
  ".TRAILING": 12084,
  "aton": 12085,
  "Weight": 12086,
  "Ġlik": 12087,
  ",:)": 12088,
  "jj": 12089,
  "Ġunderstand": 12090,
  "Cross": 12091,
  "Edge": 12092,
  ".Serv": 12093,
  ",:,": 12094,
  "fra": 12095,
  "ipeline": 12096,
  "Tri": 12097,
  ".TRUE": 12098,
  "blue": 12099,
  "hang": 12100,
  "Come": 12101,
  "olean": 12102,
  "vari": 12103,
  "Wed": 12104,
  "ĠGod": 12105,
  "▁who": 12106,
  "haus": 12107,
  ".Web": 12108,
  "tim": 12109,
  ".Types": 12110,
  "-->": 12111,
  "Ġsocial": 12112,
  "Prom": 12113,
  ".Windows": 12114,
  "Ġspecial": 12115,
  ".URL": 12116,
  "Sym": 12117,
  "Ġmean": 12118,
  "Yo": 12119,
  "->": 12120,
  "Attributes": 12121,
  "Ġlink": 12122,
  "fire": 12123,
  ".Toast": 12124,
  "Ġindiv": 12125,
  "cers": 12126,
  ".Tensor": 12127,
  ".Team": 12128,
  "bank": 12129,
  "cpp": 12130,
  ".Term": 12131,
  "-/": 12132,
  "Tip": 12133,
  ".Token": 12134,
  ".Write": 12135,
  ".Template": 12136,
  "agger": 12137,
  "amar": 12138,
  "imen": 12139,
  "days": 12140,
  ".X": 12141,
  ".Where": 12142,
  "Ġchildren": 12143,
  "->_": 12144,
  "ĠWhen": 12145,
  ".Texture": 12146,
  ".With": 12147,
  "week": 12148,
  "wart": 12149,
  "hom": 12150,
  ".Total": 12151,
  "Ġok": 12152,
  "FORM": 12153,
  "game": 12154,
  "-amerikanischer": 12155,
  "Ġred": 12156,
  "agers": 12157,
  "too": 12158,
  "rir": 12159,
  "send": 12160,
  "gue": 12161,
  "Luc": 12162,
  ".Trim": 12163,
  ".Y": 12164,
  ".Transaction": 12165,
  "Drop": 12166,
  ".Tile": 12167,
  "sters": 12168,
  "▁her": 12169,
  ".Timer": 12170,
  "ilst": 12171,
  "rogen": 12172,
  "Amb": 12173,
  ".Xml": 12174,
  ".Z": 12175,
  "-blind": 12176,
  "Flags": 12177,
  "ĠGo": 12178,
  ".UN": 12179,
  ".Timestamp": 12180,
  "Decl": 12181,
  "oked": 12182,
  "flag": 12183,
  "Sem": 12184,
  "stance": 12185,
  ".Tr": 12186,
  "Ġstudy": 12187,
  "Ġtable": 12188,
  "ANGE": 12189,
  "Ġdom": 12190,
  ".a": 12191,
  "onymous": 12192,
  "Sol": 12193,
  ".Trans": 12194,
  ",..": 12195,
  "handle": 12196,
  "erd": 12197,
  ".UTF": 12198,
  "Directory": 12199,
  "dra": 12200,
  ".USER": 12201,
  ".Vector": 12202,
  "Print": 12203,
  "Schema": 12204,
  "Ġfour": 12205,
  "XP": 12206,
  "once": 12207,
  "cad": 12208,
  "arly": 12209,
  "Esc": 12210,
  "svg": 12211,
  "tions": 12212,
[...]
