{
  "A": 160,
  "B": 161,
  "C": 162,
  "D": 163,
  "E": 164,
  "F": 165,
  "G": 166,
  "H": 167,
  "I": 168,
  "J": 169,
  "K": 170,
  "L": 171,
  "M": 172,
  "N": 173,
  "O": 174,
  "P": 175,
  "Q": 176,
  "R": 177,
  "S": 178,
  "T": 179,
  "U": 180,
  "V": 181,
  "W": 182,
  "X": 183,
  "Y": 184,
  "Z": 185,
  "a": 192,
  "b": 193,
  "c": 194,
  "d": 195,
  "e": 196,
  "f": 197,
  "g": 198,
  "h": 199,
  "i": 200,
  "j": 201,
  "k": 202,
  "l": 203,
  "m": 204,
  "n": 205,
  "o": 206,
  "p": 207,
  "q": 208,
  "r": 209,
  "s": 210,
  "t": 211,
  "u": 212,
  "v": 213,
  "w": 214,
  "x": 215,
  "y": 216,
  "z": 217,
  "Ġt": 385,
  "in": 386,
  "Ġa": 387,
  "er": 388,
  "on": 391,
  "he": 392,
  "en": 393,
  "re": 395,
  "Ġs": 397,
  "at": 398,
  "or": 399,
  "an": 400,
  "Ġc": 402,
  "es": 403,
  "Ġthe": 405,
  "Ġd": 407,
  "is": 408,
  "it": 409,
  "Ġp": 410,
  "Ġw": 411,
  "Ġo": 412,
  "al": 413,
  "ar": 414,
  "Ġf": 416,
  "Ġb": 417,
  "Ġm": 418,
  "ou": 419,
  "ed": 420,
  "ing": 421,
  "nd": 422,
  "le": 423,
  "as": 425,
  "ic": 426,
  "Ġin": 430,
  "ion": 432,
  "Ġh": 433,
  "Ġto": 434,
  "om": 436,
  "Ġof": 437,
  "el": 439,
  "Ġand": 440,
  "ent": 442,
  "Ġl": 444,
  "et": 445,
  "Ġn": 447,
  "st": 449,
  "il": 451,
  "Ġth": 453,
  "ro": 455,
  "ct": 462,
  "Ġe": 464,
  "Ġg": 468,
  "Ġre": 469,
  "id": 470,
  "am": 472,
  "ut": 475,
  "ĠS": 476,
  "ad": 478,
  "im": 479,
  "ol": 484,
  "ĠI": 485,
  "ch": 487,
  "ur": 488,
  "ot": 490,
  "ĠT": 491,
  "us": 494,
  "ig": 495,
  "Ġv": 496,
  "Ġy": 498,
  "ĠA": 499,
  "ve": 501,
  "un": 502,
  "ĠC": 505,
  "Ġis": 506,
  "Ġde": 507,
  "ow": 508,
  "ce": 510,
  "ay": 513,
  "os": 519,
  "Ġfor": 520,
  "ul": 521,
  "Ġbe": 522,
  "ly": 526,
  "Ġon": 527,
  "ation": 528,
  "ra": 529,
  "Ġst": 530,
  "ĠM": 531,
  "em": 533,
  "od": 534,
  "ir": 536,
  "ĠP": 540,
  "ter": 541,
  "Ġyou": 545,
  "if": 546,
  "ver": 547,
  "Ġk": 550,
  "ag": 551,
  "th": 552,
  "ith": 555,
  "qu": 556,
  "ĠB": 557,
  "est": 560,
  "um": 566,
  "ri": 570,
  "Ġthat": 571,
  "Ġal": 572,
  "ab": 573,
  "Ġcon": 576,
  "ĠD": 580,
  "ac": 582,
  "Ġan": 583,
  "Ġit": 586,
  "ers": 587,
  "ie": 588,
  "Ġwith": 589,
  "and": 591,
  "se": 593,
  "ist": 595,
  "ak": 596,
  "ate": 600,
  "Ġas": 607,
  "ĠH": 608,
  "Ġpro": 610,
  "Ġwh": 614,
  "pp": 616,
  "ere": 617,
  "ht": 621,
  "ĠL": 622,
  "ĠF": 624,
  "ĠR": 626,
  "ill": 627,
  "res": 628,
  "ĠW": 631,
  "Ġse": 633,
  "op": 637,
  "ess": 640,
  "Ġr": 641,
  "ĠE": 642,
  "Ġcom": 643,
  "iv": 645,
  "oc": 646,
  "ant": 649,
  "Ġhe": 653,
  "ort": 654,
  "end": 664,
  "ĠN": 665,
  "ĠG": 666,
  "pe": 669,
  "Ġj": 675,
  "Ġor": 676,
  "te": 677,
  "Ġat": 681,
  "Ġu": 682,
  "Ġare": 684,
  "Ġne": 685,
  "ore": 686,
  "Ġsu": 689,
  "Ġex": 690,
  "ld": 692,
  "ment": 693,
  "rom": 697,
  "Ġha": 698,
  "art": 699,
  "ain": 707,
  "ĠThe": 708,
  "Ġwas": 709,
  "ass": 712,
  "Ġen": 716,
  "og": 717,
  "ity": 719,
  "Ġle": 720,
  "ik": 721,
  "ap": 723,
  "ud": 733,
  "Ġthis": 735,
  "ia": 736,
  "Ġch": 740,
  "ine": 741,
  "ell": 742,
  "ĠO": 744,
  "ang": 747,
  "ction": 748,
  "ight": 749,
  "ok": 751,
  "ust": 752,
  "iz": 754,
  "ies": 758,
  "all": 762,
  "pt": 766,
  "ame": 767,
  "pl": 768,
  "Ġnot": 769,
  "ost": 774,
  "Ġun": 775,
  "ive": 776,
  "Ġwe": 777,
  "Ġcl": 780,
  "ĠJ": 781,
  "Ġby": 784,
  "ue": 787,
  "Ġsh": 788,
  "our": 791,
  "ure": 793,
  "ard": 797,
  "Ġfrom": 798,
  "Ġus": 799,
  "Ġqu": 801,
  "ial": 805,
  "ind": 806,
  "ub": 809,
  "Ġhave": 812,
  "Ġcan": 822,
  "age": 823,
  "out": 824,
  "Ġdo": 827,
  "ast": 829,
  "ff": 830,
  "per": 831,
  "ne": 833,
  "ĠK": 834,
  "Ġtr": 835,
  "Ġla": 840,
  "ich": 843,
  "ould": 846,
  "ome": 849,
  "Ġpl": 852,
  "av": 857,
  "ack": 858,
  "hen": 859,
  "Ġab": 862,
  "ip": 863,
  "ans": 865,
  "rou": 868,
  "Ġme": 869,
  "are": 873,
  "ide": 878,
  "nt": 879,
  "orm": 884,
  "ect": 886,
  "ib": 888,
  "ord": 892,
  "ĠU": 894,
  "ult": 898,
  "to": 899,
  "ire": 900,
  "ĠV": 903,
  "ice": 904,
  "able": 907,
  "imp": 912,
  "Ġyour": 913,
  "cl": 916,
  "Ġall": 924,
  "ong": 928,
  "one": 930,
  "ge": 932,
  "con": 933,
  "int": 936,
  "Ġz": 940,
  "Ġad": 946,
  "Ġi": 947,
  "tr": 950,
  "ber": 955,
  "Ġwill": 961,
  "ile": 964,
  "ime": 965,
  "ally": 968,
  "ated": 969,
  "ork": 974,
  "ov": 976,
  "ach": 977,
  "cc": 978,
  "ĠIn": 980,
  "ĠTh": 981,
  "Ġcomp": 982,
  "Ġbut": 983,
  "ex": 984,
  "Ġgo": 985,
  "ru": 987,
  "ase": 992,
  "Ġso": 994,
  "ear": 1002,
  "act": 1003,
  "ens": 1004,
  "ite": 1008,
  "ep": 1011,
  "Ġif": 1013,
  "lic": 1016,
  "her": 1019,
  "ous": 1029,
  "ook": 1030,
  "Ġres": 1033,
  "du": 1035,
  "Ġper": 1036,
  "urn": 1037,
  "Ġout": 1041,
  "ng": 1043,
  "ign": 1050,
  "ance": 1054,
  "ll": 1055,
  "Ġhas": 1057,
  "ace": 1058,
  "âĢĻs": 1060,
  "ck": 1061,
  "The": 1063,
  "Ġar": 1066,
  "Ġmy": 1067,
  "ry": 1071,
  "ence": 1073,
  "gh": 1074,
  "Ġcont": 1078,
  "ob": 1080,
  "fer": 1082,
  "ake": 1085,
  "ther": 1088,
  "ition": 1089,
  "ata": 1091,
  "Ġdes": 1097,
  "ress": 1099,
  "com": 1100,
  "Ġup": 1101,
  "ail": 1108,
  "so": 1114,
  "ĠY": 1118,
  "form": 1119,
  "ary": 1121,
  "Ġclass": 1122,
  "de": 1125,
  "Ġsp": 1131,
  "get": 1134,
  "Ġhis": 1139,
  "ents": 1142,
  "Ġthey": 1143,
  "ont": 1146,
  "ical": 1150,
  "Ġman": 1154,
  "Ġund": 1156,
  "Ġsa": 1157,
  "Ġpr": 1159,
  "Ġdis": 1162,
  "Ġone": 1163,
  "Ġpre": 1168,
  "io": 1171,
  "td": 1173,
  "Ġel": 1178,
  "ose": 1180,
  "ations": 1184,
  "ĠSt": 1185,
  "Ġapp": 1188,
  "Ġmore": 1194,
  "erv": 1195,
  "Ġro": 1197,
  "Ġdi": 1198,
  "ink": 1199,
  "Ġte": 1202,
  "li": 1204,
  "lo": 1206,
  "ike": 1213,
  "ions": 1216,
  "Ġget": 1217,
  "ert": 1219,
  "ount": 1222,
  "Ġam": 1224,
  "ah": 1225,
  "Ġnew": 1226,
  "Ġtheir": 1234,
  "own": 1237,
  "che": 1238,
  "sp": 1239,
  "ick": 1242,
  "Ġwhich": 1245,
  "ark": 1248,
  "ft": 1252,
  "ely": 1257,
  "we": 1260,
  "Ġfe": 1268,
  "Ġabout": 1272,
  "ph": 1274,
  "vel": 1275,
  "ree": 1277,
  "ath": 1278,
  "ors": 1279,
  "ci": 1281,
  "ĠCh": 1283,
  "Ġet": 1284,
  "ory": 1286,
  "Ġno": 1287,
  "Ġev": 1293,
  "ild": 1295,
  "Ġher": 1297,
  "Ġpart": 1300,
  "In": 1303,
  "Ġtime": 1306,
  "ings": 1308,
  "Ġag": 1309,
  "reat": 1311,
  "Ġpar": 1313,
  "turn": 1317,
  "Ġinter": 1320,
  "xt": 1324,
  "elf": 1325,
  "Ġwere": 1326,
  "ock": 1329,
  "ays": 1331,
  "Ġany": 1336,
  "ek": 1337,
  "Ġwho": 1341,
  "Ġimp": 1342,
  "aus": 1343,
  "Ġwork": 1345,
  "ug": 1349,
  "cre": 1352,
  "ty": 1353,
  "Ġpe": 1354,
  "ery": 1357,
  "Ġsome": 1359,
  "ian": 1360,
  "Ġthere": 1361,
  "ys": 1362,
  "Ġhad": 1363,
  "ound": 1365,
  "ode": 1366,
  "ject": 1367,
  "div": 1368,
  "Ġem": 1370,
  "ĠIt": 1371,
  "iew": 1374,
  "iss": 1375,
  "enc": 1379,
  "old": 1385,
  "ade": 1388,
  "ater": 1392,
  "ove": 1393,
  "row": 1394,
  "ps": 1395,
  "yst": 1398,
  "ual": 1401,
  "ss": 1404,
  "Ġover": 1405,
  "itt": 1406,
  "Ġalso": 1408,
  "ond": 1409,
  "az": 1414,
  "Ġkn": 1415,
  "eg": 1417,
  "Ġlike": 1418,
  "Ġwhen": 1424,
  "Ġbeen": 1425,
  "Ġthem": 1426,
  "Ġwould": 1438,
  "oll": 1439,
  "Ġer": 1443,
  "Ġour": 1444,
  "Ġother": 1445,
  "eth": 1448,
  "ublic": 1449,
  "Ġjust": 1455,
  "Ġwhat": 1457,
  "ish": 1458,
  "erm": 1464,
  "Ġim": 1465,
  "ull": 1467,
  "ari": 1470,
  "amp": 1471,
  "irst": 1473,
  "anc": 1477,
  "wo": 1478,
  "gr": 1479,
  "fter": 1483,
  "lect": 1484,
  "ier": 1488,
  "ung": 1490,
  "eng": 1492,
  "Ġest": 1493,
  "up": 1496,
  "ank": 1497,
  "ale": 1498,
  "Ġque": 1499,
  "ons": 1504,
  "ec": 1507,
  "ann": 1510,
  "Ġpo": 1512,
  "Ġob": 1514,
  "Ġyear": 1515,
  "ef": 1516,
  "pec": 1518,
  "Ġdel": 1520,
  "ize": 1521,
  "ific": 1523,
  "Ġacc": 1525,
  "very": 1527,
  "pr": 1528,
  "aj": 1531,
  "the": 1532,
  "mer": 1533,
  "les": 1536,
  "igh": 1537,
  "Ġder": 1539,
  "oy": 1540,
  "ener": 1541,
  "vers": 1545,
  "Ġbl": 1551,
  "uch": 1553,
  "oss": 1554,
  "rib": 1558,
  "iel": 1559,
  "und": 1560,
  "Th": 1565,
  "ise": 1566,
  "Ġshe": 1573,
  "Ġco": 1576,
  "port": 1577,
  "ke": 1579,
  "Ġbet": 1580,
  "ystem": 1583,
  "ax": 1585,
  "Ġhow": 1593,
  "Ġinto": 1594,
  "ric": 1596,
  "sh": 1598,
  "Ġph": 1600,
  "ew": 1601,
  "clud": 1603,
  "rit": 1607,
  "Ġtra": 1609,
  "Ġval": 1610,
  "Ġoff": 1616,
  "Ġreturn": 1617,
  "Ġcol": 1619,
  "ates": 1620,
  "au": 1626,
  "let": 1628,
  "ople": 1630,
  "ni": 1631,
  "Ġcomm": 1634,
  "Ġmay": 1637,
  "Ġthan": 1638,
  "pect": 1640,
  "Ġneed": 1645,
  "round": 1647,
  "Ġes": 1648,
  "ĠWe": 1652,
  "Ġdif": 1656,
  "ating": 1660,
  "ype": 1661,
  "ĠHe": 1665,
  "Ġact": 1666,
  "olog": 1667,
  "Ġstr": 1670,
  "cess": 1672,
  "Ġits": 1674,
  "Ġint": 1676,
  "Ġsc": 1677,
  "ause": 1679,
  "put": 1680,
  "Ġass": 1684,
  "Ġknow": 1688,
  "Ġra": 1689,
  "pro": 1690,
  "ption": 1695,
  "Ġback": 1699,
  "Ġset": 1701,
  "ient": 1703,
  "Ġbec": 1705,
  "tt": 1706,
  "Ġonly": 1707,
  "ble": 1709,
  "ĠThis": 1714,
  "of": 1716,
  "Ġent": 1722,
  "Ġmod": 1724,
  "Ġrec": 1725,
  "Ġcons": 1727,
  "Ġreg": 1729,
  "Ġadd": 1731,
  "Ġrel": 1732,
  "Ġke": 1737,
  "ange": 1739,
  "ix": 1740,
  "ER": 1742,
  "ning": 1743,
  "Ġbu": 1746,
  "Ġfirst": 1757,
  "ev": 1759,
  "der": 1761,
  "Ġatt": 1766,
  "Ġlook": 1768,
  "riv": 1770,
  "Ġfin": 1777,
  "Ġpeople": 1779,
  "ood": 1780,
  "ĠZ": 1781,
  "par": 1782,
  "wn": 1783,
  "St": 1784,
  "Ġprov": 1786,
  "arg": 1789,
  "ower": 1791,
  "Ġche": 1792,
  "Ġunder": 1794,
  "als": 1795,
  "Ġmed": 1796,
  "red": 1803,
  "Ġfun": 1805,
  "ai": 1806,
  "any": 1810,
  "me": 1811,
  "tern": 1813,
  "ool": 1814,
  "ern": 1824,
  "Ġgr": 1825,
  "Ġdie": 1827,
  "ough": 1828,
  "ins": 1830,
  "Ġav": 1833,
  "ular": 1836,
  "its": 1839,
  "Ġdef": 1840,
  "ement": 1845,
  "Ġprodu": 1846,
  "âĢĻt": 1847,
  "ied": 1848,
  "Ġfl": 1849,
  "erson": 1851,
  "Ġhim": 1853,
  "ts": 1854,
  "Ġwant": 1855,
  "Ġind": 1856,
  "oth": 1857,
  "Ġhel": 1858,
  "be": 1861,
  "ij": 1862,
  "ments": 1863,
  "Ġuse": 1864,
  "Ġtwo": 1865,
  "Ġsaid": 1867,
  "aw": 1871,
  "Ġdet": 1877,
  "Ġop": 1878,
  "rough": 1881,
  "Ġsur": 1883,
  "Ġsub": 1887,
  "Ġstud": 1888,
  "Ġac": 1889,
  "Ġmake": 1890,
  "ox": 1891,
  "Ġcould": 1898,
  "Ġmost": 1899,
  "que": 1900,
  "ĠPro": 1902,
  "IN": 1905,
  "Ġdid": 1906,
  "Ġtrans": 1908,
  "Ġinv": 1909,
  "line": 1910,
  "app": 1919,
  "ily": 1921,
  "Ġthen": 1923,
  "atch": 1925,
  "ible": 1926,
  "Ġsm": 1928,
  "import": 1930,
  "Ġform": 1931,
  "Ġdon": 1932,
  "ics": 1933,
  "Ġafter": 1934,
  "ext": 1936,
  "ife": 1940,
  "str": 1941,
  "Ġend": 1944,
  "Ġsupp": 1945,
  "eb": 1947,
  "Ġpublic": 1949,
  "ict": 1956,
  "Ġwor": 1957,
  "arch": 1960,
  "ym": 1961,
  "Ġthese": 1963,
  "Ġevery": 1964,
  "sc": 1970,
  "hat": 1972,
  "ĠCom": 1976,
  "Ġpres": 1977,
  "ten": 1980,
  "Ġvery": 1982,
  "Ġshould": 1983,
  "Ġgood": 1985,
  "ody": 1987,
  "ful": 1988,
  "hed": 1993,
  "Ġrem": 1994,
  "Ġcar": 1996,
  "Ġmin": 1999,
  "fore": 2000,
  "Ġgu": 2001,
  "Ġconst": 2002,
  "ĠAn": 2003,
  "Ġser": 2004,
  "ures": 2006,
  "ility": 2008,
  "ased": 2010,
  "ĠAl": 2011,
  "ident": 2012,
  "Ġsom": 2013,
  "Ġbr": 2015,
  "ract": 2016,
  "Ġthrough": 2017,
  "ner": 2018,
  "Ġwell": 2019,
  "Ġnum": 2020,
  "ON": 2025,
  "ities": 2028,
  "ave": 2029,
  "ative": 2034,
  "Ġeff": 2035,
  "co": 2037,
  "ash": 2040,
  "ren": 2041,
  "els": 2042,
  "read": 2043,
  "ĠSe": 2045,
  "Ġinclud": 2046,
  "val": 2047,
  "Ġpol": 2049,
  "Ġdata": 2050,
  "oid": 2052,
  "Ġwhere": 2053,
  "Ġna": 2054,
  "pos": 2055,
  "Ġsee": 2059,
  "ious": 2062,
  "Ġnow": 2069,
  "urr": 2071,
  "ues": 2072,
  "ton": 2074,
  "ting": 2075,
  "ĠYou": 2079,
  "Ġdiffer": 2083,
  "Ġinst": 2084,
  "ĠAr": 2089,
  "ield": 2091,
  "Ġlong": 2092,
  "ational": 2096,
  "ices": 2104,
  "day": 2105,
  "ada": 2109,
  "Ġeven": 2111,
  "Ġaut": 2115,
  "Ġhelp": 2117,
  "Ġrequ": 2122,
  "yn": 2123,
  "uk": 2125,
  "Ġsk": 2128,
  "Ġserv": 2130,
  "Ġway": 2133,
  "Ġspec": 2137,
  "text": 2138,
  "Ġplay": 2139,
  "Ġfr": 2149,
  "ĠRe": 2150,
  "Ġdown": 2153,
  "span": 2154,
  "other": 2157,
  "Ġthink": 2158,
  "ute": 2160,
  "na": 2165,
  "ien": 2166,
  "ator": 2167,
  "gan": 2169,
  "air": 2171,
  "tring": 2173,
  "pon": 2174,
  "ze": 2175,
  "Ġsl": 2177,
  "Ġed": 2178,
  "ages": 2182,
  "Ġsuch": 2183,
  "uc": 2184,
  "alk": 2185,
  "Ġloc": 2188,
  "Ġmem": 2189,
  "dd": 2190,
  "Ġhigh": 2194,
  "ms": 2198,
  "Ġdoes": 2200,
  "ĠQ": 2202,
  "Ġused": 2203,
  "ows": 2205,
  "ward": 2206,
  "led": 2209,
  "Ġbest": 2210,
  "ĠAnd": 2215,
  "Ġstart": 2217,
  "It": 2221,
  "Ġmon": 2223,
  "ider": 2224,
  "Ã³n": 2225,
  "ho": 2229,
  "ctions": 2230,
  "ina": 2232,
  "Ġmuch": 2233,
  "Ġbecause": 2237,
  "Ġright": 2238,
  "atic": 2240,
  "Ġmany": 2241,
  "aking": 2244,
  "Ġread": 2245,
  "ta": 2247,
  "Ġfind": 2252,
  "min": 2263,
  "ven": 2267,
  "px": 2268,
  "Ġperson": 2269,
  "lement": 2270,
  "vent": 2272,
  "ution": 2274,
  "ines": 2277,
  "br": 2278,
  "Ġhand": 2280,
  "RE": 2281,
  "Ġexper": 2282,
  "land": 2283,
  "Ġext": 2286,
  "AT": 2287,
  "ww": 2290,
  "Ġfam": 2291,
  "uring": 2293,
  "velop": 2294,
  "ars": 2295,
  "Ġbel": 2301,
  "fl": 2303,
  "cond": 2304,
  "iet": 2305,
  "ml": 2306,
  "Ġyears": 2308,
  "ited": 2309,
  "ĠDe": 2311,
  "ny": 2313,
  "Ġdu": 2314,
  "Ġcor": 2315,
  "roup": 2316,
  "Ġgreat": 2320,
  "ror": 2321,
  "self": 2323,
  "Ġda": 2324,
  "add": 2325,
  "ma": 2326,
  "col": 2329,
  "Ġsol": 2330,
  "Ġx": 2331,
  "ST": 2334,
  "ado": 2337,
  "ween": 2339,
  "Ġresult": 2341,
  "Ġagain": 2345,
  "rol": 2348,
  "uf": 2349,
  "tic": 2350,
  "ets": 2353,
  "Ġden": 2360,
  "Ġsystem": 2362,
  "ature": 2363,
  "Ġfil": 2364,
  "Ġmet": 2370,
  "aut": 2374,
  "ĠX": 2375,
  "ces": 2376,
  "Ġsign": 2378,
  "man": 2379,
  "ĠSh": 2383,
  "Ġhere": 2385,
  "ger": 2389,
  "Ġinform": 2391,
  "ced": 2392,
  "way": 2394,
  "ruct": 2395,
  "Ġdec": 2396,
  "ref": 2399,
  "uss": 2400,
  "ames": 2401,
  "Pro": 2405,
  "gy": 2407,
  "att": 2410,
  "oh": 2411,
  "alth": 2412,
  "view": 2417,
  "irect": 2419,
  "Ġil": 2423,
  "Ġcre": 2429,
  "Ġgener": 2431,
  "ĠIf": 2433,
  "Ġcall": 2434,
  "Ġbefore": 2435,
  "Ġbeing": 2436,
  "Ġlist": 2438,
  "Ġname": 2442,
  "sk": 2445,
  "ethod": 2446,
  "gram": 2448,
  "htt": 2449,
  "Ġins": 2450,
  "iness": 2453,
  "Ġdist": 2454,
  "ĠUn": 2455,
  "Ġpos": 2458,
  "bl": 2460,
  "Ġlo": 2461,
  "Ġpost": 2462,
  "Ġown": 2463,
  "work": 2467,
  "Ġbetween": 2469,
  "Ġimport": 2472,
  "cont": 2477,
  "Ġday": 2480,
  "cept": 2482,
  "Ġtake": 2484,
  "Ġreal": 2485,
  "Ã©s": 2491,
  "Ġmade": 2493,
  "ually": 2495,
  "ized": 2496,
  "Ġdem": 2504,
  "ĠFor": 2506,
  "name": 2508,
  "AR": 2509,
  "Ġpat": 2510,
  "arm": 2511,
  "yp": 2515,
  "Re": 2516,
  "Ġself": 2517,
  "urs": 2518,
  "ole": 2519,
  "urrent": 2520,
  "ĠLe": 2527,
  "ene": 2530,
  "cent": 2535,
  "for": 2538,
  "ane": 2539,
  "Ġmen": 2540,
  "ica": 2541,
  "ollow": 2542,
  "Con": 2544,
  "Ġtem": 2545,
  "Ġgl": 2548,
  "Ġeach": 2550,
  "this": 2552,
  "Ġtest": 2553,
  "rop": 2554,
  "ince": 2556,
  "_t": 2559,
  "ouse": 2562,
  "imes": 2563,
  "ght": 2565,
  "go": 2566,
  "Ġdifferent": 2568,
  "ĠNew": 2570,
  "ism": 2571,
  "Ġles": 2576,
  "ional": 2577,
  "EN": 2578,
  "Ġvari": 2579,
  "ait": 2580,
  "Ġver": 2581,
  "ever": 2583,
  "Ġsame": 2584,
  "Ch": 2585,
  "ason": 2589,
  "ask": 2590,
  "Ġsch": 2591,
  "arn": 2593,
  "Ġlet": 2595,
  "ather": 2596,
  "Ġthose": 2597,
  "orn": 2603,
  "Ġbo": 2604,
  "by": 2607,
  "ined": 2608,
  "Ex": 2609,
  "ott": 2610,
  "Ġstill": 2612,
  "ants": 2613,
  "af": 2615,
  "Ġreally": 2618,
  "Ġve": 2620,
  "Ġpoint": 2622,
  "Ġbus": 2623,
  "Ġwhile": 2624,
  "Ġsi": 2627,
  "Ġconf": 2628,
  "Ġcent": 2629,
  "oun": 2630,
  "atur": 2633,
  "ray": 2640,
  "AN": 2642,
  "AL": 2643,
  "Ġvis": 2645,
  "son": 2646,
  "OR": 2649,
  "gg": 2654,
  "ument": 2657,
  "ense": 2658,
  "ID": 2659,
  "Ġusing": 2660,
  "Ġprocess": 2664,
  "ired": 2668,
  "Ġchar": 2669,
  "inal": 2671,
  "Name": 2672,
  "Ġexp": 2674,
  "ĠCl": 2678,
  "ser": 2679,
  "Ġsay": 2680,
  "ament": 2681,
  "yl": 2682,
  "ource": 2683,
  "Ġlast": 2686,
  "ives": 2689,
  "Ġlife": 2691,
  "kt": 2697,
  "raph": 2698,
  "je": 2700,
  "Ġdevelop": 2704,
  "fo": 2705,
  "Ġtype": 2708,
  "ka": 2710,
  "Ġfunction": 2712,
  "ital": 2714,
  "ared": 2715,
  "lex": 2720,
  "set": 2721,
  "Ġshow": 2723,
  "Ġmark": 2724,
  "Ġworld": 2725,
  "ats": 2727,
  "Ġcap": 2732,
  "ĠCon": 2733,
  "ters": 2735,
  "den": 2736,
  "Id": 2740,
  "Ġje": 2741,
  "bs": 2743,
  "Ġein": 2744,
  "hip": 2749,
  "lood": 2750,
  "ĠFr": 2751,
  "no": 2755,
  "ĠTr": 2757,
  "Com": 2758,
  "Ġvan": 2759,
  "Ġfound": 2761,
  "hes": 2763,
  "cri": 2764,
  "Ġrep": 2766,
  "Ġeffect": 2770,
  "yle": 2771,
  "ittle": 2772,
  "Ġpass": 2773,
  "oint": 2781,
  "Ġvalue": 2782,
  "ness": 2783,
  "riend": 2786,
  "ron": 2787,
  "Ġpartic": 2791,
  "Ġdep": 2792,
  "Ġweek": 2796,
  "ology": 2798,
  "Ġcount": 2799,
  "ĠPl": 2802,
  "Ġcare": 2803,
  "chn": 2805,
  "Ġhome": 2806,
  "Ġnumber": 2807,
  "ĠAs": 2808,
  "Ġprof": 2810,
  "ross": 2811,
  "ample": 2813,
  "akes": 2817,
  "Ġtoo": 2819,
  "This": 2821,
  "Ġbre": 2822,
  "LE": 2825,
  "Ġboth": 2826,
  "Ġrun": 2827,
  "ĠEx": 2829,
  "Ġgoing": 2830,
  "ler": 2833,
  "itle": 2837,
  "Ġposs": 2840,
  "ral": 2841,
  "ĠBut": 2842,
  "ior": 2843,
  "ana": 2848,
  "bo": 2852,
  "ey": 2855,
  "Ġmain": 2857,
  "Ġfollow": 2859,
  "Ġincre": 2862,
  "Ġplace": 2863,
  "Ġfact": 2864,
  "iÃ³n": 2866,
  "Ġchild": 2867,
  "Ġaround": 2876,
  "ti": 2877,
  "ĠSch": 2878,
  "Ġtop": 2880,
  "Ġcle": 2883,
  "Ġsecond": 2889,
  "Ġid": 2894,
  "ato": 2896,
  "ote": 2897,
  "rem": 2899,
  "Ã£o": 2900,
  "Ġcour": 2906,
  "wh": 2907,
  "rivate": 2910,
  "ux": 2911,
  "Ġinformation": 2912,
  "abel": 2914,
  "ills": 2915,
  "IT": 2917,
  "rist": 2919,
  "Ġproduct": 2923,
  "ength": 2928,
  "Ġcase": 2930,
  "ways": 2931,
  "net": 2932,
  "ams": 2934,
  "ustom": 2935,
  "Ġtry": 2936,
  "Ġhead": 2943,
  "less": 2947,
  "ving": 2951,
  "Ġrest": 2953,
  "Ġsit": 2954,
  "Ġelse": 2955,
  "play": 2957,
  "Ġbook": 2960,
  "ought": 2961,
  "ency": 2963,
  "roll": 2964,
  "ium": 2965,
  "ĠBe": 2966,
  "Ġcommun": 2967,
  "Ġproble": 2972,
  "ccess": 2974,
  "new": 2976,
  "ĠHow": 2979,
  "ality": 2980,
  "load": 2981,
  "thing": 2984,
  "ui": 2987,
  "ems": 2989,
  "Ġsupport": 2991,
  "ais": 2992,
  "Ġpor": 2993,
  "zy": 2995,
  "Ġmat": 2999,
  "Ġdesign": 3002,
  "Ġter": 3003,
  "ks": 3004,
  "_d": 3005,
  "ify": 3008,
  "Ġhapp": 3009,
  "SE": 3010,
  "Ġcome": 3011,
  "Ġcr": 3012,
  "ience": 3015,
  "Ã¤r": 3016,
  "lease": 3017,
  "stand": 3019,
  "Ġprogram": 3021,
  "med": 3022,
  "Ġsoc": 3023,
  "urch": 3025,
  "Ġfree": 3026,
  "Ġquest": 3027,
  "We": 3029,
  "ides": 3032,
  "ĠOn": 3034,
  "List": 3035,
  "Ġvar": 3037,
  "ved": 3038,
  "Ġlittle": 3040,
  "Ġfew": 3042,
  "tain": 3045,
  "Ġpresent": 3047,
  "Ġmus": 3048,
  "ĠTo": 3049,
  "Ġold": 3051,
  "ĠSp": 3055,
  "Ġuna": 3057,
  "Ġum": 3059,
  "idth": 3061,
  "vis": 3063,
  "Ġopen": 3064,
  "ule": 3066,
  "ele": 3068,
  "la": 3071,
  "ister": 3072,
  "Ġlevel": 3073,
  "bre": 3076,
  "uck": 3079,
  "za": 3081,
  "ething": 3082,
  "String": 3083,
  "ember": 3084,
  "Ġlot": 3086,
  "ava": 3087,
  "Ġlos": 3088,
  "Ġlead": 3089,
  "Ġnon": 3091,
  "ĠEn": 3092,
  "ases": 3097,
  "org": 3099,
  "fe": 3100,
  "essage": 3104,
  "Ġfeel": 3106,
  "Ġhref": 3108,
  "IC": 3110,
  "raw": 3111,
  "return": 3113,
  "Ã¶r": 3114,
  "ault": 3116,
  "ĠIs": 3118,
  "chen": 3126,
  "ĠInd": 3127,
  "ird": 3131,
  "ino": 3132,
  "Ġeas": 3133,
  "Ġequ": 3135,
  "Ġthree": 3136,
  "ush": 3139,
  "ara": 3141,
  "omen": 3142,
  "Ġmust": 3143,
  "reg": 3145,
  "ĠWh": 3146,
  "umm": 3148,
  "alse": 3149,
  "Ġvers": 3151,
  "hor": 3152,
  "Ġgot": 3153,
  "ization": 3155,
  "Ġdev": 3157,
  "ja": 3161,
  "Ã¼r": 3164,
  "over": 3165,
  "ĠThey": 3167,
  "Ġtri": 3168,
  "Ġwr": 3169,
  "Ġwithout": 3170,
  "Ġorgan": 3173,
  "Ġpop": 3175,
  "not": 3176,
  "ĠPh": 3177,
  "Ġword": 3181,
  "ĠBl": 3183,
  "arly": 3184,
  "def": 3185,
  "ateg": 3188,
  "ĠOr": 3189,
  "Ġoper": 3190,
  "Ġthings": 3193,
  "ee": 3194,
  "ĠThere": 3195,
  "ining": 3196,
  "Ġbusiness": 3198,
  "Ġut": 3199,
  "Ġmethod": 3200,
  "rag": 3204,
  "inc": 3206,
  "Ġpower": 3210,
  "ES": 3211,
  "Ġexpl": 3213,
  "atus": 3215,
  "Ġcho": 3219,
  "pre": 3220,
  "eter": 3221,
  "Ġvol": 3222,
  "Ġcontin": 3223,
  "ĠMar": 3224,
  "yd": 3225,
  "AC": 3226,
  "une": 3227,
  "ĠShe": 3229,
  "Ġvon": 3232,
  "ential": 3233,
  "nivers": 3235,
  "html": 3238,
  "Ġput": 3239,
  "Ġduring": 3240,
  "Ġterm": 3245,
  "hr": 3246,
  "bers": 3249,
  "Ġsmall": 3252,
  "Ġide": 3253,
  "Ġpara": 3254,
  "Res": 3257,
  "To": 3258,
  "Type": 3259,
  "ĠAd": 3263,
  "ists": 3264,
  "uro": 3265,
  "Ġtrue": 3267,
  "Ġwater": 3269,
  "por": 3271,
  "Ġsomething": 3273,
  "Ġorder": 3275,
  "Ġvo": 3276,
  "Cont": 3278,
  "duct": 3279,
  "ences": 3282,
  "uff": 3283,
  "era": 3284,
  "Ġog": 3286,
  "ope": 3287,
  "ĠSo": 3289,
  "Ġspe": 3290,
  "Ġdirect": 3292,
  "ished": 3297,
  "Ġperform": 3300,
  "ention": 3301,
  "til": 3302,
  "Ġline": 3306,
  "_s": 3308,
  "Ar": 3309,
  "He": 3310,
  "Ġlove": 3311,
  "use": 3312,
  "ĠRes": 3314,
  "mp": 3319,
  "ponse": 3322,
  "ves": 3327,
  "amb": 3329,
  "Ġstand": 3331,
  "Ġsim": 3332,
  "order": 3335,
  "Ġref": 3337,
  "Ġprote": 3338,
  "ĠAll": 3339,
  "oci": 3340,
  "Ġcurrent": 3341,
  "Ġgame": 3347,
  "iter": 3349,
  "Ġbetter": 3350,
  "Ġanal": 3352,
  "ĠAmer": 3353,
  "Ġturn": 3355,
  "Ġmov": 3356,
  "Ġconsider": 3357,
  "Ġiss": 3360,
  "ste": 3362,
  "Ġblood": 3363,
  "ware": 3365,
  "ha": 3366,
  "Ġpot": 3370,
  "ili": 3373,
  "Ġnext": 3374,
  "Ġap": 3375,
  "ender": 3376,
  "Ġdisc": 3377,
  "isk": 3378,
  "Ġask": 3382,
  "ception": 3383,
  "Ġimportant": 3385,
  "ama": 3386,
  "Ġson": 3387,
  "Ġanother": 3388,
  "gen": 3389,
  "ploy": 3390,
  "ified": 3392,
  "ately": 3397,
  "ailable": 3398,
  "ients": 3399,
  "face": 3401,
  "rc": 3403,
  "right": 3405,
  "oot": 3406,
  "Ġcond": 3407,
  "ided": 3408,
  "Ġhealth": 3409,
  "word": 3410,
  "iment": 3412,
  "Ġpress": 3414,
  "ertain": 3415,
  "Ġnever": 3416,
  "Ġproper": 3417,
  "AM": 3420,
  "iron": 3421,
  "ream": 3424,
  "aster": 3425,
  "iven": 3426,
  "iving": 3427,
  "Ġalways": 3428,
  "Ġvi": 3429,
  "acter": 3431,
  "fun": 3433,
  "Ġhum": 3435,
  "Ġwar": 3437,
  "aterial": 3440,
  "ella": 3441,
  "Ġmonth": 3442,
  "Ġbuild": 3445,
  "arge": 3446,
  "Ġbig": 3448,
  "search": 3449,
  "ique": 3450,
  "leg": 3451,
  "type": 3452,
  "Ġleg": 3454,
  "Ġactiv": 3455,
  "Ġreport": 3457,
  "Ġkeep": 3459,
  "odel": 3460,
  "Ã¡s": 3461,
  "Ġfriend": 3464,
  "inter": 3465,
  "class": 3466,
  "Ġsal": 3468,
  "_m": 3473,
  "Ġart": 3474,
  "Ġstate": 3478,
  "cul": 3479,
  "comm": 3481,
  "ission": 3482,
  "Ġopt": 3484,
  "Ġvoid": 3485,
  "AS": 3486,
  "ĠCol": 3489,
  "Ġmight": 3491,
  "Ġcal": 3492,
  "Val": 3493,
  "Ġhard": 3494,
  "ently": 3495,
  "Ġfamily": 3501,
  "Ġinterest": 3502,
  "lection": 3506,
  "https": 3509,
  "Ġrece": 3510,
  "back": 3513,
  "Ġsure": 3516,
  "Ġhist": 3517,
  "Ġbeh": 3523,
  "ours": 3528,
  "itions": 3531,
  "Ġmar": 3534,
  "_c": 3536,
  "ida": 3537,
  "Ġopp": 3538,
  "icht": 3540,
  "ically": 3542,
  "Ġonline": 3549,
  "Ġcell": 3550,
  "Data": 3551,
  "Ġappro": 3552,
  "elt": 3554,
  "Ġsing": 3557,
  "ici": 3558,
  "ĠAm": 3559,
  "itor": 3562,
  "Ġlight": 3564,
  "Ġcost": 3565,
  "head": 3571,
  "Ġmit": 3577,
  "quest": 3579,
  "lete": 3582,
  "ione": 3583,
  "date": 3584,
  "Ġprivate": 3586,
  "ĠSu": 3587,
  "Ġtot": 3589,
  "Ġpay": 3590,
  "ably": 3592,
  "Ġview": 3593,
  "sw": 3595,
  "ĠTe": 3599,
  "enn": 3600,
  "Ġaff": 3602,
  "ains": 3607,
  "nal": 3608,
  "Ġsince": 3609,
  "arget": 3614,
  "ination": 3615,
  "Ġbody": 3617,
  "fig": 3619,
  "ling": 3621,
  "oney": 3622,
  "ca": 3623,
  "Ġschool": 3625,
  "Al": 3627,
  "iver": 3634,
  "ĠMan": 3635,
  "men": 3638,
  "Ġgrow": 3640,
  "ration": 3641,
  "ĠNo": 3643,
  "_p": 3645,
  "ability": 3647,
  "Ġresp": 3648,
  "ki": 3649,
  "oj": 3651,
  "Ġadv": 3654,
  "Ġport": 3655,
  "Ġchang": 3656,
  "Ã¡n": 3657,
  "Ġbro": 3659,
  "Ġconne": 3660,
  "cle": 3661,
  "Ġleft": 3662,
  "ift": 3663,
  "ĠPr": 3664,
  "mm": 3667,
  "Ġcontrol": 3668,
  "Ġdr": 3669,
  "ervice": 3671,
  "ering": 3673,
  "Ġmodel": 3676,
  "Ġprom": 3678,
  "FF": 3679,
  "LL": 3680,
  "ively": 3681,
  "but": 3683,
  "ubl": 3684,
  "ĠBr": 3687,
  "_l": 3688,
  "uy": 3690,
  "Ġlocal": 3692,
  "ump": 3695,
  "ground": 3700,
  "Ġdidn": 3703,
  "Ġless": 3708,
  "Ġtext": 3710,
  "If": 3711,
  "ĠLa": 3713,
  "ini": 3714,
  "Cl": 3715,
  "ĠUnivers": 3718,
  "Ġwithin": 3720,
  "Ġcheck": 3721,
  "Ġeng": 3724,
  "irl": 3727,
  "Ġweight": 3730,
  "You": 3735,
  "ches": 3736,
  "do": 3738,
  "En": 3741,
  "Ġben": 3742,
  "Ġinvest": 3744,
  "Ġgroup": 3750,
  "ĠGr": 3751,
  "ched": 3755,
  "ĠUS": 3756,
  "Ġthought": 3757,
  "Ġmanag": 3759,
  "ĉif": 3763,
  "RO": 3764,
  "unt": 3766,
  "Ġgive": 3767,
  "Ġbas": 3768,
  "IS": 3769,
  "CT": 3770,
  "ially": 3771,
  "Ġmil": 3773,
  "Ġelect": 3775,
  "Ġfull": 3779,
  "ita": 3780,
  "Ġmag": 3783,
  "ett": 3785,
  "Ġmult": 3786,
  "Ġproject": 3787,
  "Ġexpect": 3789,
  "ision": 3790,
  "Ġdays": 3791,
  "Ġtak": 3792,
  "Ġsw": 3793,
  "Ġchange": 3796,
  "adi": 3798,
  "DE": 3802,
  "Ġsimp": 3804,
  "Ġavailable": 3807,
  "ards": 3808,
  "vious": 3813,
  "cer": 3814,
  "ĠSystem": 3817,
  "ference": 3823,
  "Ġside": 3824,
  "Ġapplic": 3826,
  "outh": 3828,
  "Ġable": 3833,
  "Ġservice": 3838,
  "Ġteam": 3839,
  "Ġincluding": 3844,
  "action": 3845,
  "resent": 3847,
  "Ġprim": 3850,
  "ived": 3851,
  "itive": 3854,
  "Ġaway": 3855,
  "ĠEl": 3856,
  "What": 3857,
  "bd": 3861,
  "ano": 3862,
  "Ġcustom": 3863,
  "Ġnull": 3864,
  "Ġlim": 3869,
  "Ġgen": 3870,
  "As": 3876,
  "opt": 3877,
  "ieve": 3878,
  "ording": 3879,
  "ĠWhat": 3881,
  "ails": 3883,
  "Ġfac": 3885,
  "Ġret": 3886,
  "Ġmarket": 3887,
  "const": 3889,
  "AP": 3890,
  "ohn": 3891,
  "ley": 3893,
  "Ġsuper": 3894,
  "Ġkind": 3897,
  "Ġbit": 3899,
  "Ġoffer": 3902,
  "www": 3908,
  "ga": 3909,
  "var": 3915,
  "_f": 3916,
  "Ġlas": 3918,
  "Ġstudy": 3919,
  "Ġfinal": 3922,
  "ante": 3924,
  "ros": 3925,
  "va": 3928,
  "ances": 3930,
  "ots": 3932,
  "Ġocc": 3933,
  "Ġbeg": 3934,
  "Ġlog": 3935,
  "ET": 3936,
  "rain": 3938,
  "Ġinc": 3940,
  "Ġey": 3941,
  "Ġroom": 3947,
  "ĠAt": 3948,
  "ories": 3949,
  "ids": 3950,
  "Ġmom": 3956,
  "ocument": 3957,
  "Ġnh": 3962,
  "Ġbi": 3963,
  "rac": 3964,
  "inn": 3966,
  "ries": 3967,
  "ression": 3969,
  "fect": 3970,
  "Ġagainst": 3972,
  "Ġsever": 3974,
  "Ġwhy": 3976,
  "ideo": 3977,
  "Ġarea": 3982,
  "ulation": 3983,
  "Ġthing": 3984,
  "Ġhtt": 3986,
  "utes": 3988,
  "Ġexperience": 3990,
  "ando": 3992,
  "But": 3993,
  "ready": 3998,
  "erg": 4000,
  "ĠApp": 4001,
  "AD": 4004,
  "thers": 4005,
  "ouble": 4006,
  "alt": 4007,
  "ku": 4008,
  "Ġwhe": 4009,
  "Ġge": 4010,
  "Ġnet": 4011,
  "Ġmot": 4014,
  "ĠCar": 4016,
  "ico": 4017,
  "viron": 4020,
  "ured": 4021,
  "yt": 4022,
  "Ġfile": 4023,
  "pped": 4026,
  "Ġmean": 4027,
  "Ġident": 4029,
  "Col": 4030,
  "nh": 4031,
  "Se": 4032,
  "Ġorig": 4033,
  "ume": 4034,
  "ĠQu": 4040,
  "Tr": 4041,
  "Ġma": 4043,
  "ĠEng": 4047,
  "Ġaddition": 4048,
  "gu": 4050,
  "ii": 4051,
  "Ġur": 4053,
  "aper": 4055,
  "Ġtechn": 4056,
  "ending": 4057,
  "Ġcompany": 4059,
  "ones": 4060,
  "Ġkey": 4061,
  "ED": 4062,
  "Ġfar": 4066,
  "Ġsize": 4067,
  "ille": 4069,
  "ury": 4074,
  "Ġist": 4076,
  "Ġcolor": 4082,
  "Ġunderstand": 4084,
  "On": 4086,
  "ba": 4088,
  "Ġtreat": 4089,
  "ris": 4091,
  "Ġdas": 4093,
  "Ġlooking": 4096,
  "ple": 4097,
  "ĠMe": 4102,
  "ession": 4103,
  "Ob": 4104,
  "conom": 4106,
  "crib": 4107,
  "ĠdÃ©": 4108,
  "vert": 4109,
  "ero": 4110,
  "opy": 4112,
  "met": 4114,
  "aim": 4115,
  "Ġdan": 4117,
  "Ġann": 4119,
  "Ġhet": 4121,
  "ĠComm": 4124,
  "Ã©e": 4126,
  "Ä±n": 4127,
  "OT": 4130,
  "anks": 4134,
  "ko": 4135,
  "ih": 4136,
  "public": 4137,
  "ands": 4138,
  "Ġmaj": 4139,
  "Ġevent": 4140,
  "ĠMed": 4141,
  "ican": 4142,
  "aps": 4143,
  "ends": 4146,
  "View": 4147,
  "Ġcou": 4148,
  "ĠThat": 4150,
  "vern": 4151,
  "Ġbased": 4152,
  "lt": 4153,
  "Ġexc": 4154,
  "Ġair": 4155,
  "Ġfield": 4161,
  "da": 4162,
  "ya": 4163,
  "Ġhaving": 4165,
  "ĠDo": 4166,
  "Ġlow": 4167,
  "ĠChrist": 4168,
  "user": 4169,
  "Ġuser": 4170,
  "zen": 4172,
  "Ġredu": 4173,
  "Ġplan": 4174,
  "Ġtyp": 4175,
  "data": 4178,
  "ĠPar": 4179,
  "Ġjob": 4181,
  "ctor": 4182,
  "ster": 4187,
  "Ġstyle": 4188,
  "CO": 4189,
  "ĠString": 4191,
  "Ġstruct": 4193,
  "ither": 4194,
  "Ġtimes": 4195,
  "ION": 4196,
  "my": 4197,
  "erc": 4198,
  "IG": 4199,
  "body": 4201,
  "ati": 4202,
  "ĠMy": 4204,
  "Ġreview": 4205,
  "uild": 4206,
  "II": 4207,
  "Ġproblem": 4209,
  "Ġja": 4210,
  "aff": 4211,
  "ips": 4212,
  "iod": 4213,
  "Ġzu": 4215,
  "Ġaccess": 4216,
  "Ġmill": 4217,
  "Ġau": 4220,
  "icro": 4221,
  "Ġpri": 4223,
  "idual": 4226,
  "Ġtalk": 4227,
  "kan": 4228,
  "ĉreturn": 4230,
  "ali": 4233,
  "ret": 4238,
  "Ġmaterial": 4240,
  "Ġexample": 4241,
  "Ġsuccess": 4243,
  "Ġimpro": 4246,
  "mber": 4247,
  "For": 4248,
  "ograph": 4250,
  "Ġlaw": 4252,
  "ude": 4254,
  "An": 4255,
  "Ġenc": 4256,
  "Ġresearch": 4258,
  "By": 4259,
  "AB": 4261,
  "orth": 4262,
  "off": 4264,
  "ification": 4266,
  "âĢĻre": 4270,
  "ych": 4271,
  "ayer": 4272,
  "Ġyang": 4274,
  "Ġfour": 4277,
  "ades": 4278,
  "mi": 4279,
  "Ġele": 4281,
  "Ġpract": 4282,
  "bar": 4287,
  "ura": 4289,
  "Ġdat": 4291,
  "ocus": 4293,
  "Ġresults": 4295,
  "Ġfre": 4297,
  "ken": 4298,
  "ĠWhen": 4299,
  "Ġfood": 4300,
  "Ġcas": 4301,
  "ua": 4302,
  "ido": 4303,
  "aciÃ³n": 4305,
  "umn": 4306,
  "ĠFl": 4308,
  "Ġeen": 4309,
  "Ġsite": 4312,
  "ĠCan": 4313,
  "fr": 4314,
  "Ġsem": 4315,
  "Ġess": 4316,
  "ĠWith": 4318,
  "Ġpossible": 4319,
  "Ġprovide": 4320,
  "lar": 4321,
  "ised": 4322,
  "Ġalready": 4325,
  "Le": 4328,
  "Ġchildren": 4330,
  "ended": 4333,
  "ortun": 4337,
  "ĠGod": 4341,
  "Ġindiv": 4344,
  "Ġcontent": 4346,
  "ried": 4347,
  "Ġleast": 4348,
  "Ġlarge": 4349,
  "Ġmind": 4351,
  "Ġoch": 4352,
  "Ġom": 4354,
  "Ġfut": 4355,
  "Ġloss": 4358,
  "Ġsocial": 4361,
  "iá»": 4365,
  "ĠGu": 4366,
  "ural": 4367,
  "ÃŃa": 4368,
  "Ġmove": 4371,
  "Ġobject": 4372,
  "How": 4373,
  "Ġbreak": 4374,
  "Ġdans": 4375,
  "Text": 4378,
  "Ġfollowing": 4379,
  "Ġfalse": 4381,
  "Ġposition": 4382,
  "ples": 4384,
  "ysis": 4386,
  "Ġallow": 4387,
  "Ġpour": 4388,
  "_id": 4389,
  "irt": 4390,
  "pper": 4391,
  "ĠCent": 4392,
  "Ġstring": 4396,
  "Ġbuy": 4397,
  "Ġnight": 4400,
  "value": 4401,
  "And": 4402,
  "ĠEr": 4403,
  "Ġface": 4404,
  "Ġcreate": 4410,
  "Ġcourse": 4411,
  "aring": 4414,
  "Ġpast": 4415,
  "Ġtoday": 4417,
  "Ġcir": 4418,
  "Ġtell": 4420,
  "gl": 4421,
  "Ġmaking": 4422,
  "Ġspecial": 4425,
  "ormal": 4426,
  "Ġmoney": 4427,
  "oad": 4429,
  "Ġste": 4433,
  "string": 4434,
  "Ġlik": 4436,
  "zi": 4439,
  "Ġwrit": 4440,
  "Ġphot": 4441,
  "cription": 4442,
  "Ġmeet": 4444,
  "ĠMay": 4446,
  "fic": 4447,
  "hel": 4450,
  "Ġdone": 4451,
  "Ġhal": 4453,
  "po": 4459,
  "oman": 4462,
  "Ġuntil": 4463,
  "Ġshort": 4466,
  "Ġaccount": 4467,
  "Ġfore": 4469,
  "Ġbar": 4471,
  "ager": 4472,
  "Ġworking": 4473,
  "Ġune": 4474,
  "UT": 4475,
  "Ġauf": 4476,
  "Ġhouse": 4480,
  "Ġprob": 4483,
  "place": 4487,
  "gs": 4488,
  "wa": 4491,
  "pping": 4494,
  "ĠUniversity": 4495,
  "Wh": 4497,
  "ring": 4498,
  "itch": 4500,
  "Ġtrad": 4501,
  "idd": 4508,
  "ape": 4510,
  "Ġpod": 4513,
  "ney": 4514,
  "http": 4515,
  "rel": 4517,
  "init": 4519,
  "urther": 4521,
  "Ġenough": 4523,
  "Ġsec": 4525,
  "side": 4528,
  "osed": 4529,
  "param": 4537,
  "ben": 4538,
  "Ġmeas": 4542,
  "Ġmo": 4543,
  "orld": 4546,
  "Ġos": 4549,
  "Ġcertain": 4550,
  "ĠSte": 4551,
  "Ġgra": 4552,
  "Ġcomb": 4554,
  "code": 4557,
  "CH": 4558,
  "ript": 4559,
  "Sh": 4561,
  "bt": 4563,
  "Ġpain": 4564,
  "Ġsex": 4566,
  "Ġcover": 4567,
  "Ġmeans": 4569,
  "Ġgiven": 4570,
  "ety": 4571,
  "vironment": 4575,
  "UR": 4578,
  "ĠPol": 4581,
  "Ġir": 4583,
  "Ġdue": 4586,
  "ĠAss": 4587,
  "Ġdri": 4588,
  "Im": 4589,
  "Ġaf": 4590,
  "Un": 4592,
  "Ġstep": 4594,
  "Ġinit": 4595,
  "Ġng": 4596,
  "Ġpressure": 4597,
  "print": 4598,
  "eder": 4599,
  "umber": 4602,
  "key": 4603,
  "ĠCo": 4604,
  "now": 4605,
  "sel": 4606,
  "joy": 4607,
  "book": 4608,
  "Pl": 4609,
  "ente": 4610,
  "Ġpa": 4611,
  "ored": 4612,
  "apt": 4615,
  "angu": 4617,
  "Ġcalled": 4626,
  "ques": 4627,
  "Ġabs": 4631,
  "atures": 4633,
  "irm": 4638,
  "Ġcult": 4640,
  "Par": 4641,
  "Ġtoget": 4642,
  "Ġrequire": 4643,
  "Ġli": 4644,
  "reen": 4645,
  "Ġtogether": 4647,
  "Ġod": 4648,
  "ources": 4649,
  "Ġcomplet": 4653,
  "ication": 4654,
  "nÃŃ": 4655,
  "ĠCont": 4659,
  "atter": 4660,
  "Ġcame": 4663,
  "Ġthough": 4664,
  "Ġprint": 4667,
  "ena": 4669,
  "Ġmor": 4672,
  "Ġalong": 4673,
  "Ġothers": 4674,
  "Ġstat": 4675,
  "Ġlink": 4678,
  "Ġsitu": 4679,
  "Ġspecific": 4681,
  "sch": 4682,
  "Ġhig": 4683,
  "rict": 4684,
  "ĠSc": 4687,
  "uz": 4688,
  "vo": 4689,
  "osp": 4690,
  "Ġdeterm": 4691,
  "Ġoften": 4692,
  "Er": 4694,
  "Ġland": 4695,
  "rap": 4696,
  "room": 4697,
  "Ġbir": 4698,
  "Ġdom": 4699,
  "ogle": 4700,
  "US": 4702,
  "ales": 4706,
  "ables": 4710,
  "Ġsoft": 4712,
  "uit": 4719,
  "most": 4721,
  "Ġwind": 4722,
  "ĠAb": 4724,
  "Ġsam": 4726,
  "Ġhar": 4728,
  "abor": 4729,
  "Ġals": 4731,
  "Get": 4733,
  "Ġcharacter": 4735,
  "ige": 4737,
  "ala": 4739,
  "Ġindust": 4740,
  "Ġhold": 4744,
  "umb": 4745,
  "Ġwomen": 4746,
  "Ã©n": 4747,
  "Ãªn": 4749,
  "Ġinclude": 4753,
  "aces": 4754,
  "Ġtable": 4756,
  "Ġrecord": 4758,
  "Ġever": 4761,
  "Ġheart": 4762,
  "Ġindividual": 4764,
  "ji": 4765,
  "Ġhuman": 4767,
  "color": 4768,
  "Ġexist": 4770,
  "Ġstudents": 4771,
  "Ġwalk": 4772,
  "Ġdiv": 4773,
  "Ġgovern": 4775,
  "Ġnatur": 4777,
  "stit": 4778,
  "Ġcu": 4779,
  "Ġdoesn": 4781,
  "cted": 4783,
  "Ġservices": 4790,
  "wards": 4792,
  "Ġaw": 4795,
  "Ġsignific": 4796,
  "Ġred": 4798,
  "mod": 4799,
  "Ġemploy": 4802,
  "Value": 4803,
  "Ġcreat": 4805,
  "obal": 4806,
  "IM": 4807,
  "OS": 4810,
  "Ġseveral": 4816,
  "ered": 4817,
  "Ġreason": 4819,
  "lected": 4820,
  "ony": 4821,
  "ING": 4822,
  "function": 4823,
  "ĠRep": 4825,
  "Ġant": 4827,
  "gar": 4829,
  "Ġgetting": 4833,
  "lish": 4835,
  "item": 4836,
  "ista": 4837,
  "Ã©r": 4838,
  "ibr": 4841,
  "Ġkh": 4842,
  "Ġrange": 4843,
  "elle": 4846,
  "idence": 4848,
  "Ġlearn": 4849,
  "Ġpolit": 4850,
  "Ġparticular": 4851,
  "AA": 4853,
  "ĠReg": 4856,
  "Ġhot": 4857,
  "Ġtre": 4862,
  "Ġpas": 4863,
  "Ġconc": 4869,
  "Ġabove": 4870,
  "ĠpÃ¥": 4871,
  "Ġstatic": 4875,
  "ober": 4880,
  "ĠDes": 4881,
  "Ġartic": 4884,
  "Ġfa": 4885,
  "ores": 4886,
  "oud": 4888,
  "atal": 4890,
  "Ġtook": 4891,
  "mit": 4892,
  "img": 4893,
  "log": 4894,
  "includ": 4895,
  "Ġkom": 4896,
  "Ġpage": 4899,
  "Ġwer": 4900,
  "Ġcomo": 4901,
  "Ġsingle": 4902,
  "icy": 4903,
  "avor": 4905,
  "ilt": 4908,
  "âĢĻm": 4909,
  "_S": 4912,
  "ĠChe": 4913,
  "Ġbed": 4915,
  "Ġsz": 4918,
  "Ġsent": 4919,
  "ĠJohn": 4920,
  "Ã§Ã£o": 4922,
  "Ġcur": 4924,
  "ued": 4925,
  "Ġactually": 4926,
  "Ġdevelopment": 4927,
  "acy": 4928,
  "ĠIntern": 4929,
  "Ġbecome": 4932,
  "creen": 4934,
  "vol": 4937,
  "Ġinte": 4939,
  "Ã¤n": 4940,
  "oph": 4941,
  "hing": 4942,
  "Ġmakes": 4944,
  "ios": 4947,
  "ules": 4948,
  "ackage": 4949,
  "artment": 4951,
  "Ġpath": 4952,
  "Ġoil": 4954,
  "HE": 4955,
  "Ġperiod": 4956,
  "ĠHowever": 4957,
  "Ġonce": 4959,
  "ilar": 4964,
  "Ġdoing": 4965,
  "raft": 4966,
  "Ġstrong": 4968,
  "Ġlater": 4969,
  "ison": 4971,
  "Ġflo": 4974,
  "ĠComp": 4976,
  "Ġquality": 4978,
  "though": 4980,
  "hold": 4982,
  "Ġol": 4984,
  "ges": 4985,
  "cript": 4986,
  "ĠIm": 4987,
  "ĠPer": 4988,
  "ram": 4990,
  "IP": 4991,
  "Object": 4992,
  "Ġyoung": 4997,
  "Ġwent": 4998,
  "ĠEd": 5000,
  "ende": 5004,
  "Ġpers": 5009,
  "ffic": 5011,
  "Ġmajor": 5012,
  "Ind": 5013,
  "Ġpur": 5014,
  "Ġsat": 5016,
  "Ġrelations": 5020,
  "Ġtotal": 5022,
  "Ġener": 5024,
  "Ġquick": 5028,
  "Ġdest": 5032,
  "ened": 5033,
  "ball": 5038,
  "ao": 5041,
  "Ġrequest": 5043,
  "Ġwebs": 5045,
  "Ġrespect": 5047,
  "Ġhab": 5048,
  "Ġneeds": 5049,
  "Ġbad": 5050,
  "ief": 5052,
  "ĠNot": 5054,
  "orts": 5057,
  "Qu": 5058,
  "err": 5060,
  "Ġlower": 5062,
  "ocal": 5064,
  "earch": 5065,
  "Ġfront": 5067,
  "ĠNe": 5068,
  "ĠIN": 5069,
  "uly": 5070,
  "ĠfÃ¼r": 5073,
  "Ġdescrib": 5075,
  "file": 5079,
  "Ġeasy": 5080,
  "ension": 5081,
  "cz": 5082,
  "ora": 5083,
  "Ġbenef": 5087,
  "ĠGe": 5088,
  "ani": 5089,
  "Ġq": 5091,
  "Ġdiscuss": 5092,
  "index": 5094,
  "Or": 5095,
  "Ġtil": 5096,
  "Ġdig": 5098,
  "Ġquestion": 5103,
  "Ġlive": 5104,
  "zt": 5108,
  "Ġfilm": 5109,
  "ogn": 5111,
  "Ġmoment": 5112,
  "Ġstory": 5113,
  "ados": 5114,
  "Ġmax": 5119,
  "Ġgirl": 5121,
  "ising": 5122,
  "There": 5123,
  "igen": 5127,
  "ĠThese": 5128,
  "imal": 5130,
  "Ġsound": 5132,
  "Ġsens": 5134,
  "Ġtarget": 5135,
  "Ġspace": 5137,
  "Ġblock": 5138,
  "uj": 5139,
  "âĢĻve": 5141,
  "Ġyet": 5142,
  "Ġenjoy": 5143,
  "Ġear": 5144,
  "Ġsays": 5145,
  "ira": 5150,
  "Ġplus": 5151,
  "Ġseen": 5153,
  "urg": 5154,
  "Ġsomeone": 5155,
  "iding": 5156,
  "iam": 5158,
  "argin": 5160,
  "with": 5161,
  "left": 5162,
  "ribut": 5163,
  "Ġamount": 5164,
  "Ġsus": 5165,
  "urity": 5167,
  "ivity": 5169,
  "ites": 5170,
  "_P": 5172,
  "All": 5174,
  "ags": 5176,
  "aur": 5180,
  "iff": 5181,
  "lev": 5182,
  "Ġfund": 5184,
  "Ġassoci": 5186,
  "test": 5187,
  "No": 5190,
  "Ġfocus": 5193,
  "Ġinvol": 5194,
  "ula": 5196,
  "ette": 5198,
  "ika": 5199,
  "Ġcountry": 5200,
  "ona": 5203,
  "Is": 5205,
  "Ġcommon": 5207,
  "Ġansw": 5209,
  "Ġproducts": 5211,
  "Ġdire": 5213,
  "Ġknown": 5215,
  "Ġeduc": 5216,
  "Ġcamp": 5220,
  "Ġcode": 5221,
  "ache": 5222,
  "Ã¡l": 5226,
  "Ġeither": 5227,
  "icon": 5228,
  "Ġwur": 5229,
  "Ġdisplay": 5230,
  "clus": 5233,
  "Ġang": 5234,
  "_st": 5239,
  "uel": 5240,
  "Ġappear": 5244,
  "Ġsugg": 5245,
  "Ġteach": 5246,
  "Ġbeaut": 5248,
  "ottom": 5249,
  "Ġvideo": 5250,
  "ols": 5251,
  "plic": 5258,
  "Ġens": 5259,
  "ibility": 5260,
  "ky": 5265,
  "emb": 5267,
  "ĠCO": 5270,
  "Ã³w": 5273,
  "Ġjo": 5274,
  "Ġprop": 5277,
  "ĠOne": 5278,
  "oz": 5280,
  "Ġqui": 5281,
  "isc": 5285,
  "Ġsuggest": 5287,
  "Ġing": 5288,
  "urope": 5289,
  "Ġseem": 5290,
  "Ġphys": 5293,
  "Ġpred": 5295,
  "Ġanything": 5296,
  "De": 5297,
  "Ġpen": 5300,
  "Ġri": 5302,
  "Ġaddress": 5304,
  "Ġespec": 5305,
  "Ġenergy": 5306,
  "where": 5307,
  "ald": 5308,
  "Ġwidth": 5309,
  "Ġfig": 5310,
  "Ġrepresent": 5311,
  "Ġrequired": 5314,
  "Ġfuture": 5320,
  "illed": 5322,
  "kl": 5325,
  "Ġcomput": 5327,
  "Ġblack": 5328,
  "ĠAmerican": 5329,
  "ĠJan": 5330,
  "ito": 5332,
  "ĠGo": 5334,
  "UN": 5335,
  "Ġcaus": 5336,
  "iles": 5337,
  "Ġcontact": 5338,
  "pen": 5339,
  "from": 5341,
  "Ġemb": 5343,
  "Ġneg": 5345,
  "Ġoffic": 5346,
  "Ġgeneral": 5348,
  "ĠBar": 5352,
  "ĠVer": 5354,
  "Ġsrc": 5355,
  "Ġpersonal": 5356,
  "Ġbase": 5358,
  "Ġwon": 5359,
  "ires": 5360,
  "abil": 5361,
  "Ġstay": 5369,
  "input": 5370,
  "iy": 5373,
  "Ġdoor": 5374,
  "ader": 5375,
  "Ġprice": 5376,
  "Ġrespons": 5377,
  "roid": 5381,
  "ĠEm": 5383,
  "rs": 5385,
  "Ġinfl": 5387,
  "Ġvisit": 5392,
  "Ġpret": 5393,
  "IL": 5394,
  "Ġstarted": 5397,
  "Ġcity": 5402,
  "Ġtw": 5403,
  "comp": 5405,
  "Ġcontain": 5409,
  "ological": 5410,
  "ops": 5411,
  "Ġmer": 5412,
  "Ġbes": 5414,
  "Ġwhole": 5415,
  "_T": 5417,
  "cience": 5418,
  "Ġcrit": 5419,
  "rect": 5420,
  "Ġacross": 5423,
  "Ġinstall": 5424,
  "Ġwin": 5425,
  "ival": 5426,
  "Ġtitle": 5428,
  "ils": 5429,
  "oved": 5432,
  "nie": 5434,
  "ĠCal": 5436,
  "eld": 5444,
  "Ġber": 5445,
  "SS": 5454,
  "Ġdocument": 5458,
  "ischen": 5460,
  "ĠBo": 5462,
  "Ġep": 5467,
  "Ġversion": 5468,
  "Ġaction": 5470,
  "ĠYork": 5471,
  "acc": 5473,
  "ban": 5474,
  "AG": 5476,
  "Ġimage": 5477,
  "Ġdeal": 5481,
  "Ġwhether": 5484,
  "unk": 5485,
  "unch": 5487,
  "rodu": 5488,
  "Ġten": 5489,
  "Ġmembers": 5490,
  "Ġdru": 5493,
  "Ġeverything": 5499,
  "ged": 5500,
  "Item": 5501,
  "_C": 5502,
  "amm": 5503,
  "Ġaz": 5505,
  "Ġcut": 5507,
  "Exception": 5508,
  "ete": 5510,
  "ĠUnited": 5511,
  "ĠrÃ©": 5514,
  "epend": 5515,
  "Ġhours": 5518,
  "anguage": 5519,
  "Ġearly": 5521,
  "Ġperfect": 5525,
  "Ġsignificant": 5527,
  "ruction": 5528,
  "Ġnetwork": 5529,
  "Ġlat": 5530,
  "Ġfont": 5532,
  "EM": 5533,
  "ese": 5537,
  "Ph": 5538,
  "cret": 5539,
  "Ġalt": 5542,
  "uth": 5543,
  "Ġseason": 5546,
  "Man": 5547,
  "iful": 5550,
  "Ġclaim": 5551,
  "Ġsym": 5552,
  "Ġcommunity": 5553,
  "ĠPart": 5555,
  "xx": 5556,
  "Ġobs": 5557,
  "imate": 5558,
  "_b": 5560,
  "App": 5562,
  "Ġauthor": 5564,
  "Ġmonths": 5565,
  "Ġindic": 5566,
  "ivers": 5571,
  "ledge": 5576,
  "iety": 5577,
  "La": 5578,
  "Ġsil": 5580,
  "Ġbegin": 5581,
  "Ġnecess": 5584,
  "Ġeyes": 5585,
  "Ġgi": 5588,
  "onder": 5589,
  "Ġpie": 5593,
  "Ġpatients": 5594,
  "nb": 5595,
  "iple": 5600,
  "With": 5604,
  "bb": 5606,
  "LO": 5607,
  "asing": 5608,
  "rat": 5609,
  "reet": 5610,
  "jo": 5613,
  "mas": 5614,
  "Ġresponse": 5615,
  "Ġlarg": 5617,
  "gress": 5620,
  "agn": 5621,
  "Ġcomes": 5626,
  "ĠAfter": 5628,
  "Ġaus": 5629,
  "Ġamong": 5630,
  "Ġeconom": 5631,
  "Ġexam": 5632,
  "Ġce": 5634,
  "Ġago": 5636,
  "Ġwords": 5637,
  "Ġhom": 5639,
  "ĠVal": 5640,
  "Ġfurther": 5641,
  "Ġcard": 5644,
  "minist": 5645,
  "Ġdate": 5646,
  "Ġmach": 5648,
  "uh": 5652,
  "medi": 5654,
  "ENT": 5656,
  "ĠGl": 5659,
  "lich": 5660,
  "Ġsich": 5661,
  "lege": 5665,
  "At": 5667,
  "Ġvarious": 5669,
  "indows": 5670,
  "Ġrelationship": 5671,
  "Ġmi": 5673,
  "Ġfall": 5675,
  "trans": 5676,
  "Ġdam": 5677,
  "Ġva": 5678,
  "lin": 5680,
  "Ġsearch": 5682,
  "empl": 5683,
  "Ġclose": 5684,
  "Ġetc": 5685,
  "Ġbackground": 5686,
  "table": 5688,
  "Ġerror": 5689,
  "Ġrole": 5692,
  "empt": 5694,
  "When": 5696,
  "uan": 5697,
  "upp": 5700,
  "Ġfail": 5701,
  "ĠMon": 5703,
  "cho": 5704,
  "Ġarg": 5706,
  "Ġage": 5707,
  "rack": 5708,
  "ĠÃ¤r": 5709,
  "istic": 5712,
  "So": 5713,
  "ĠDie": 5717,
  "chan": 5718,
  "Ġenvironment": 5719,
  "oke": 5721,
  "Ġorg": 5723,
  "come": 5727,
  "Ġill": 5731,
  "content": 5733,
  "ĠBy": 5735,
  "ights": 5737,
  "Ġmiss": 5740,
  "Ġsubject": 5741,
  "Ġwait": 5742,
  "Ġparticip": 5744,
  "ĠSer": 5746,
  "ĠGet": 5747,
  "using": 5749,
  "Ã©t": 5752,
  "rite": 5754,
  "Ġfast": 5759,
  "rown": 5760,
  "ĠMin": 5761,
  "Ġca": 5762,
  "void": 5763,
  "include": 5764,
  "âĢĻll": 5765,
  "Ġeine": 5766,
  "Ġweb": 5768,
  "ario": 5772,
  "Ġseg": 5774,
  "State": 5775,
  "list": 5776,
  "PE": 5777,
  "Ġwatch": 5778,
  "aint": 5779,
  "Ġdownload": 5780,
  "oo": 5781,
  "Ã¡t": 5783,
  "Ġnear": 5785,
  "Ġmusic": 5788,
  "Ġpick": 5789,
  "Ġclean": 5791,
  "PS": 5792,
  "elling": 5794,
  "uration": 5797,
  "Ġhalf": 5799,
  "amente": 5809,
  "Ġseries": 5811,
  "ima": 5812,
  "Ġidea": 5813,
  "ening": 5814,
  "mon": 5815,
  "Ġasked": 5816,
  "eta": 5817,
  "Ġnom": 5818,
  "_n": 5820,
  "arning": 5821,
  "Ġpotential": 5822,
  "Ġach": 5823,
  "si": 5824,
  "ername": 5826,
  "ties": 5827,
  "Ġbelieve": 5837,
  "ournal": 5838,
  "Ġsimilar": 5840,
  "obile": 5841,
  "cient": 5842,
  "Ġho": 5843,
  "Ġgames": 5845,
  "NA": 5846,
  "oper": 5847,
  "Ġdeg": 5848,
  "Ġwebsite": 5852,
  "ĠCor": 5854,
  "astic": 5855,
  "Ġrate": 5858,
  "fort": 5859,
  "Ġeveryone": 5860,
  "inary": 5861,
  "Ġinf": 5862,
  "alu": 5863,
  "Ġmass": 5864,
  "Time": 5866,
  "Ġpoints": 5869,
  "Ġbring": 5870,
  "Ġwhite": 5872,
  "Ġalmost": 5876,
  "omet": 5877,
  "Ġanalysis": 5878,
  "Ġopportun": 5881,
  "Ġclear": 5884,
  "ribute": 5885,
  "Ġperformance": 5888,
  "imum": 5890,
  "icle": 5891,
  "ĠWill": 5892,
  "script": 5893,
  "Ã¼n": 5894,
  "Ġbelow": 5895,
  "ficult": 5896,
  "Ġkon": 5897,
  "Ġdevice": 5899,
  "ental": 5900,
  "Ġmatter": 5901,
  "ULL": 5902,
  "vi": 5903,
  "ĠvÃł": 5904,
  "ĠYour": 5905,
  "lig": 5907,
  "hib": 5908,
  "cha": 5909,
  "itted": 5910,
  "Ġsource": 5913,
  "ixed": 5914,
  "itten": 5915,
  "just": 5916,
  "odes": 5917,
  "ria": 5918,
  "Ġhistory": 5919,
  "api": 5921,
  "issue": 5923,
  "ĠÃ©s": 5924,
  "Ġprovided": 5925,
  "abet": 5926,
  "Key": 5927,
  "Ġsy": 5929,
  "Ġdella": 5930,
  "gt": 5931,
  "Ad": 5932,
  "ĠRev": 5933,
  "_M": 5934,
  "Ġdin": 5940,
  "ators": 5944,
  "ĠAug": 5946,
  "Ġcbd": 5951,
  "Ġprevious": 5952,
  "Ġtreatment": 5953,
  "ĠPath": 5954,
  "ĠStud": 5958,
  "oken": 5959,
  "iction": 5965,
  "Ġpills": 5966,
  "Ġnothing": 5968,
  "Ġprobably": 5970,
  "ĠHar": 5972,
  "nes": 5974,
  "Ġou": 5975,
  "Ġaccording": 5976,
  "roller": 5977,
  "Ġtaking": 5978,
  "Ġrecomm": 5980,
  "ises": 5981,
  "Ġobtain": 5983,
  "oi": 5984,
  "Error": 5985,
  "Ġta": 5989,
  "Ġfriends": 5990,
  "Ġinput": 5994,
  "bol": 5995,
  "Ġminutes": 5996,
  "ounter": 5998,
  "box": 5999,
  "ube": 6000,
  "Ġwanted": 6001,
  "Ġcenter": 6004,
  "ĠAN": 6005,
  "iem": 6009,
  "Ġsimple": 6010,
  "Ġincrease": 6013,
  "Ġcompet": 6016,
  "Ġpaper": 6017,
  "Ġhigher": 6018,
  "Ġka": 6020,
  "Ġmessage": 6024,
  "zer": 6026,
  "Ġtemper": 6028,
  "ĠCity": 6030,
  "ocation": 6031,
  "Ġparam": 6032,
  "Ġsum": 6033,
  "Ġchanges": 6036,
  "Ġvia": 6037,
  "Ġintern": 6039,
  "leep": 6040,
  "ĠOf": 6043,
  "File": 6044,
  "Ġworks": 6048,
  "ĠPa": 6049,
  "Ġtrying": 6050,
  "ĠCount": 6055,
  "Ġtou": 6059,
  "Ġshare": 6060,
  "pril": 6061,
  "cover": 6063,
  "ayout": 6067,
  "ĠWorld": 6071,
  "Ġgovernment": 6073,
  "Ġcam": 6076,
  "Ġok": 6079,
  "php": 6080,
  "Ġissue": 6081,
  "Ġimprove": 6085,
  "vec": 6086,
  "User": 6087,
  "ĠState": 6088,
  "Ġnatural": 6089,
  "Ġquite": 6090,
  "Ġbox": 6092,
  "Ġhor": 6094,
  "Ġaud": 6095,
  "Ġtaken": 6096,
  "Ġdos": 6097,
  "edd": 6098,
  "Ġnov": 6099,
  "Ġpan": 6101,
  "ĠHer": 6104,
  "atory": 6110,
  "Not": 6111,
  "yr": 6113,
  "iting": 6114,
  "Ġproperty": 6119,
  "Ġimm": 6123,
  "Ġtold": 6124,
  "Ġvalues": 6125,
  "Ã¡c": 6129,
  "Ġapplication": 6132,
  "aving": 6133,
  "ync": 6134,
  "ĠlÃł": 6137,
  "iu": 6138,
  "ĠMark": 6139,
  "Ġpict": 6140,
  "ela": 6142,
  "ĠGener": 6144,
  "ĠDep": 6145,
  "CC": 6147,
  "Ġload": 6148,
  "js": 6150,
  "Ġheight": 6155,
  "isch": 6159,
  "My": 6161,
  "idad": 6163,
  "link": 6164,
  "anced": 6169,
  "Ġfive": 6171,
  "ĠPe": 6174,
  "Ġentre": 6175,
  "Ġseems": 6177,
  "ĠAg": 6178,
  "Ġhon": 6179,
  "Ġissues": 6181,
  "Ġdifficult": 6182,
  "Ġtax": 6183,
  "Ġcoll": 6187,
  "ran": 6193,
  "ĠIl": 6195,
  "rest": 6198,
  "utions": 6200,
  "adem": 6201,
  "Ġoriginal": 6203,
  "ĠDr": 6205,
  "Ġpubl": 6206,
  "Ġprofess": 6212,
  "Ġchall": 6213,
  "iÃ³": 6215,
  "ĠOb": 6216,
  "Ġmanagement": 6217,
  "lick": 6218,
  "Ġerr": 6219,
  "Ġamb": 6224,
  "Ġnormal": 6225,
  "Ġmedia": 6226,
  "verage": 6227,
  "Ġcompon": 6228,
  "iddle": 6229,
  "Ġsaw": 6230,
  "ĠSm": 6232,
  "New": 6234,
  "des": 6235,
  "mat": 6237,
  "Ġfeatures": 6239,
  "Ġhost": 6240,
  "IV": 6244,
  "ĠAut": 6245,
  "roups": 6249,
  "Ġdal": 6251,
  "error": 6252,
  "Ġcy": 6256,
  "Ġhttp": 6257,
  "Be": 6259,
  "can": 6260,
  "Ġfavor": 6261,
  "Ġpi": 6262,
  "oul": 6263,
  "Ġcause": 6265,
  "Ġlooked": 6266,
  "ĠAdd": 6267,
  "Ġrisk": 6270,
  "url": 6272,
  "resp": 6273,
  "itting": 6275,
  "Ġnu": 6276,
  "Ġoptions": 6278,
  "Ġneeded": 6281,
  "Int": 6284,
  "cial": 6285,
  "Ġgrand": 6286,
  "ĠEurope": 6289,
  "pa": 6290,
  "Ġentire": 6291,
  "ĠAct": 6292,
  "bum": 6295,
  "part": 6296,
  "asi": 6298,
  "izing": 6299,
  "ady": 6300,
  "Ġsoon": 6302,
  "idge": 6303,
  "Ġutil": 6304,
  "verse": 6306,
  "eters": 6307,
  "ami": 6308,
  "Service": 6311,
  "Em": 6312,
  "Ġextra": 6313,
  "formation": 6314,
  "Ġwurde": 6315,
  "Set": 6316,
  "Ġza": 6318,
  "OD": 6319,
  "urt": 6320,
  "Ġblog": 6321,
  "Ġstop": 6322,
  "ained": 6323,
  "Box": 6324,
  "you": 6326,
  "Ġshown": 6330,
  "lock": 6334,
  "Des": 6335,
  "Ġaccept": 6336,
  "andom": 6337,
  "Ġestab": 6340,
  "Ġnie": 6342,
  "ĠAf": 6343,
  "Ġrather": 6349,
  "orage": 6350,
  "Ġborder": 6352,
  "ĠIS": 6353,
  "Ġconfig": 6354,
  "button": 6359,
  "ached": 6360,
  "ĠSoc": 6361,
  "Ġupon": 6362,
  "ori": 6366,
  "ĠAust": 6368,
  "Ġhowever": 6369,
  "cing": 6374,
  "iday": 6376,
  "ĠStates": 6377,
  "Ġcross": 6378,
  "Ġhu": 6379,
  "Ġmatch": 6381,
  "Ġdiet": 6382,
  "El": 6383,
  "Ġdise": 6385,
  "rt": 6386,
  "board": 6387,
  "iber": 6389,
  "Ġrefer": 6391,
  "Ġpretty": 6394,
  "Ġsn": 6395,
  "ester": 6398,
  "Ġmillion": 6405,
  "pi": 6407,
  "Ã©m": 6408,
  "Ġhope": 6409,
  "icense": 6410,
  "eds": 6411,
  "erved": 6412,
  "Ġshows": 6413,
  "Ġproblems": 6415,
  "Ġclos": 6416,
  "oto": 6420,
  "Ã¨re": 6423,
  "Ġcannot": 6424,
  "zo": 6427,
  "zh": 6428,
  "ola": 6429,
  "fully": 6431,
  "bor": 6433,
  "len": 6434,
  "ancial": 6436,
  "adding": 6437,
  "Add": 6439,
  "Ã¤t": 6443,
  "ensive": 6444,
  "Ġtrack": 6448,
  "Ã¶n": 6449,
  "ĠHis": 6450,
  "selves": 6451,
  "ĠJust": 6453,
  "itional": 6454,
  "ĠDis": 6455,
  "rew": 6456,
  "nbsp": 6458,
  "ponent": 6459,
  "Ġsepar": 6464,
  "Ġdeath": 6465,
  "Ġfoot": 6467,
  "arr": 6469,
  "Ġcred": 6472,
  "ĠMc": 6475,
  "Ġcompan": 6476,
  "atform": 6477,
  "Ġenh": 6478,
  "label": 6480,
  "Ġground": 6483,
  "Ġbis": 6486,
  "asc": 6488,
  "Of": 6490,
  "_name": 6492,
  "Ġinn": 6494,
  "nav": 6495,
  "Ġsurface": 6496,
  "ĠNational": 6498,
  "OL": 6499,
  "cm": 6500,
  "Ġregard": 6501,
  "aa": 6502,
  "Ġdefault": 6503,
  "Ġquestions": 6506,
  "EL": 6508,
  "year": 6513,
  "ride": 6515,
  "Ġadded": 6516,
  "Ġimpact": 6520,
  "apter": 6521,
  "mark": 6522,
  "Ġpurch": 6523,
  "Ġsystems": 6524,
  "aced": 6526,
  "rie": 6527,
  "uments": 6530,
  "ithub": 6531,
  "Ġwriting": 6533,
  "ptember": 6534,
  "Ġthrow": 6535,
  "Ġespecially": 6536,
  "annel": 6537,
  "Ġfire": 6539,
  "olution": 6541,
  "Ġbeautiful": 6544,
  "Ġpack": 6545,
  "mente": 6547,
  "Ġcells": 6548,
  "lim": 6549,
  "Ġconditions": 6551,
  "df": 6554,
  "Ġsoftware": 6557,
  "Ġarticle": 6560,
  "anger": 6561,
  "that": 6562,
  "ging": 6563,
  "stance": 6564,
  "Ġautom": 6567,
  "Ġqual": 6570,
  "irit": 6571,
  "Ġcirc": 6572,
  "Ġpopular": 6575,
  "Ġfamil": 6576,
  "Ä±r": 6578,
  "endo": 6581,
  "MP": 6582,
  "ĠJe": 6583,
  "itÃ©": 6584,
  "Ġcomplete": 6592,
  "ĠMore": 6594,
  "Rep": 6596,
  "ully": 6597,
  "ĠSan": 6598,
  "Ġnews": 6599,
  "Ġps": 6602,
  "ainer": 6603,
  "eli": 6605,
  "ham": 6609,
  "Ġeffects": 6611,
  "Test": 6612,
  "Ġmargin": 6616,
  "ĠAnt": 6625,
  "Ġsett": 6626,
  "ĠOur": 6628,
  "ufact": 6630,
  "Ġflow": 6631,
  "Ġbal": 6632,
  "sl": 6633,
  "Ġisn": 6637,
  "igned": 6638,
  "Ġbuilding": 6646,
  "enu": 6647,
  "Ġindustry": 6648,
  "ĠEst": 6652,
  "oma": 6654,
  "ĠTra": 6655,
  "Ġtech": 6658,
  "Ġemail": 6660,
  "Ġoption": 6661,
  "Ġaffect": 6662,
  "Ġlikely": 6663,
  "ĠInt": 6666,
  "Ġrad": 6667,
  "Ġsugar": 6671,
  "Ġintegr": 6672,
  "Ġhat": 6673,
  "Ġprovides": 6674,
  "sub": 6678,
  "Ġmal": 6680,
  "perty": 6681,
  "ĠDon": 6685,
  "ĉpublic": 6686,
  "Ġsin": 6687,
  "ĠMus": 6688,
  "ĠPre": 6691,
  "Ġnam": 6692,
  "lied": 6694,
  "Ġlevels": 6698,
  "Ġmember": 6699,
  "Ġexperi": 6701,
  "ische": 6703,
  "time": 6704,
  "Ġprinc": 6705,
  "ategory": 6708,
  "uer": 6714,
  "resh": 6717,
  "Ġbehind": 6718,
  "Info": 6719,
  "Ġanyone": 6720,
  "ummary": 6722,
  "pose": 6723,
  "Ġwa": 6724,
  "ĠAng": 6725,
  "rim": 6726,
  "Ġdouble": 6728,
  "Ent": 6729,
  "Ġphone": 6730,
  "ÃŃt": 6736,
  "ĠSome": 6737,
  "ĠSchool": 6738,
  "ns": 6739,
  "ye": 6743,
  "light": 6744,
  "Ġliving": 6745,
  "result": 6748,
  "Ġtraining": 6750,
  "Ġrelated": 6751,
  "arter": 6752,
  "Event": 6755,
  "more": 6758,
  "ĠList": 6759,
  "ressed": 6761,
  "ivo": 6762,
  "iones": 6763,
  "Sc": 6765,
  "ector": 6766,
  "aging": 6771,
  "Ġmas": 6772,
  "rix": 6773,
  "ĠHigh": 6775,
  "image": 6776,
  "_F": 6778,
  "bi": 6780,
  "Ġplease": 6781,
  "sole": 6786,
  "Ġapproach": 6787,
  "Ġinside": 6788,
  "eller": 6792,
  "ker": 6796,
  "_D": 6797,
  "ribution": 6799,
  "Ã¨s": 6801,
  "agement": 6804,
  "istance": 6805,
  "Ġengine": 6807,
  "Ġelement": 6808,
  "Ġknowledge": 6810,
  "Ġlonger": 6811,
  "CE": 6814,
  "oms": 6816,
  "Ġcoming": 6817,
  "ras": 6821,
  "ĠsiÄĻ": 6823,
  "OP": 6824,
  "kn": 6825,
  "anning": 6826,
  "mission": 6830,
  "ĠPark": 6835,
  "Ġjava": 6836,
  "itter": 6838,
  "Ġsection": 6839,
  "ql": 6843,
  "gn": 6844,
  "Ã´ng": 6845,
  "Form": 6846,
  "Ġthird": 6847,
  "Ġoutside": 6848,
  "Ġple": 6849,
  "Ġpal": 6850,
  "Ġfem": 6852,
  "fil": 6853,
  "Ġcases": 6854,
  "down": 6856,
  "Ġforward": 6857,
  "Ġinvestig": 6858,
  "field": 6859,
  "Ġterms": 6861,
  "ĠSouth": 6864,
  "Ġfelt": 6865,
  "aker": 6866,
  "aves": 6867,
  "ĠNow": 6869,
  "Ġsen": 6870,
  "iva": 6871,
  "Ġtour": 6872,
  "Ġsort": 6878,
  "Ġfra": 6879,
  "ungen": 6881,
  "nder": 6883,
  "ĠPat": 6884,
  "create": 6887,
  "Ġwall": 6890,
  "Ġmis": 6891,
  "Ġtele": 6894,
  "Ġstore": 6896,
  "Ġdies": 6899,
  "IR": 6900,
  "UL": 6902,
  "emp": 6904,
  "illa": 6906,
  "Ġconsum": 6907,
  "ĠOct": 6908,
  "una": 6914,
  "cy": 6915,
  "hi": 6916,
  "Class": 6918,
  "ĠPost": 6924,
  "uv": 6926,
  "ĠInter": 6927,
  "Ġitem": 6928,
  "ĠTrans": 6931,
  "Over": 6932,
  "Ġpropos": 6933,
  "Ġsix": 6937,
  "Ġcontinue": 6938,
  "Ġunit": 6939,
  "ĠBer": 6940,
  "och": 6942,
  "Ġdog": 6943,
  "Request": 6944,
  "Ġwrite": 6945,
  "Ġhttps": 6946,
  "uary": 6951,
  "cia": 6952,
  "urance": 6957,
  "Ġincludes": 6958,
  "Ġtravel": 6962,
  "ternal": 6963,
  "Ġimplement": 6964,
  "Ġren": 6965,
  "Ġshall": 6966,
  "Ġsche": 6967,
  "ead": 6968,
  "ĠII": 6969,
  "Ġsong": 6971,
  "Model": 6974,
  "Ġways": 6976,
  "Ġbehav": 6977,
  "aÅĤ": 6978,
  "Ġaccom": 6981,
  "OM": 6983,
  "bon": 6989,
  "Ġrunning": 6990,
  "ounds": 6992,
  "Ġkan": 6995,
  "util": 6996,
  "Ġcreated": 6997,
  "ebru": 6999,
  "ĠAc": 7000,
  "Ġtro": 7001,
  "Ġreceived": 7002,
  "Ġoutput": 7003,
  "ĠPres": 7004,
  "ĠFin": 7005,
  "Ġexec": 7006,
  "abase": 7007,
  "Ġcompl": 7010,
  "Ġareas": 7011,
  "ello": 7012,
  "sequ": 7013,
  "Do": 7015,
  "Ġstructure": 7018,
  "Ġpercent": 7019,
  "cel": 7021,
  "Ã©g": 7022,
  "ĠfÃ¶r": 7024,
  "Ġsense": 7028,
  "ĠÃ®n": 7029,
  "omb": 7031,
  "arl": 7032,
  "Ġhy": 7034,
  "username": 7038,
  "BC": 7043,
  "Ġintrodu": 7045,
  "Ġhands": 7047,
  "aily": 7048,
  "Ġscreen": 7053,
  "Ġusually": 7055,
  "Ġcomplex": 7059,
  "Ġfrequ": 7060,
  "ĠDav": 7061,
  "Ġproduction": 7063,
  "Ġauch": 7064,
  "rd": 7065,
  "mes": 7068,
  "ila": 7069,
  "Ġwoman": 7076,
  "Ġtechnology": 7078,
  "Ġtypes": 7079,
  "cast": 7080,
  "Ġgrad": 7082,
  "Ġsolution": 7083,
  "Ġnicht": 7084,
  "Ġstandard": 7085,
  "Ġband": 7088,
  "Ġreading": 7089,
  "Ġplant": 7090,
  "Ġsimply": 7091,
  "oe": 7093,
  "rav": 7097,
  "Ġlearning": 7098,
  "Ġattack": 7101,
  "Ġexact": 7102,
  "Ġgrowth": 7107,
  "pm": 7110,
  "aks": 7113,
  "Ġremember": 7114,
  "IF": 7115,
  "Ġarray": 7117,
  "Ġevents": 7118,
  "Index": 7120,
  "itar": 7121,
  "imm": 7124,
  "ibrary": 7126,
  "itation": 7130,
  "itude": 7135,
  "Ġleave": 7136,
  "Ġnice": 7137,
  "nen": 7139,
  "change": 7140,
  "Ġya": 7141,
  "Up": 7142,
  "ĠUs": 7143,
  "BA": 7144,
  "ota": 7145,
  "uid": 7147,
  "ĠWest": 7151,
  "Ġoffers": 7152,
  "oring": 7153,
  "Ġwrong": 7154,
  "ership": 7156,
  "Ġarr": 7159,
  "Ed": 7160,
  "used": 7161,
  "Ġlocation": 7163,
  "Ġfit": 7165,
  "iner": 7166,
  "Ġtakes": 7167,
  "Ġheav": 7171,
  "config": 7172,
  "tes": 7173,
  "ĠMr": 7174,
  "TR": 7176,
  "Ġselect": 7179,
  "Ġdeep": 7180,
  "ĠStr": 7183,
  "Ġhol": 7185,
  "iat": 7188,
  "check": 7189,
  "Ġworth": 7190,
  "define": 7193,
  "ML": 7196,
  "export": 7197,
  "ĠAugust": 7198,
  "PC": 7199,
  "Ġinflu": 7202,
  "ospital": 7203,
  "ĠApril": 7208,
  "Ġtask": 7209,
  "airs": 7210,
  "ĠNorth": 7212,
  "lier": 7213,
  "Ġstra": 7215,
  "Field": 7217,
  "ĠRec": 7220,
  "Ġroad": 7230,
  "ishing": 7232,
  "Ġba": 7233,
  "iger": 7235,
  "Ġcontext": 7237,
  "Ġtal": 7241,
  "Ġmedic": 7242,
  "Ġdraw": 7243,
  "osition": 7244,
  "ĠFe": 7245,
  "Ġiz": 7248,
  "oria": 7249,
  "ĠSw": 7250,
  "Ġrecogn": 7252,
  "Ġliter": 7254,
  "Color": 7256,
  "Config": 7258,
  "sm": 7260,
  "Ġfat": 7262,
  "Ġmechan": 7266,
  "Ġdro": 7268,
  "ĠAcc": 7271,
  "ania": 7277,
  "ĠHealth": 7278,
  "Ġyourself": 7279,
  "amily": 7281,
  "ĠThen": 7283,
  "iki": 7285,
  "Ġconcern": 7288,
  "MS": 7290,
  "Ġmention": 7295,
  "ynam": 7296,
  "ae": 7297,
  "see": 7298,
  "Ġnach": 7299,
  "That": 7300,
  "One": 7302,
  "coming": 7303,
  "ador": 7306,
  "kin": 7307,
  "gi": 7311,
  "Ġweeks": 7313,
  "Ġheld": 7314,
  "Ġparty": 7315,
  "aste": 7319,
  "aren": 7320,
  "rip": 7322,
  "ĠJah": 7324,
  "ago": 7327,
  "Ġsaf": 7329,
  "Ġsv": 7330,
  "Ġimmedi": 7333,
  "edia": 7334,
  "Ġvá»": 7336,
  "Context": 7338,
  "apan": 7341,
  "anch": 7344,
  "Ġlength": 7346,
  "ĠArt": 7348,
  "Ġdim": 7349,
  "akt": 7352,
  "lem": 7353,
  "Ġbud": 7354,
  "Ġunique": 7357,
  "isi": 7358,
  "Ġregion": 7362,
  "unic": 7363,
  "Ġavec": 7365,
  "aling": 7367,
  "Ġindex": 7368,
  "Ġprior": 7370,
  "ĠOff": 7374,
  "Ġhappy": 7375,
  "ĠcÃ³": 7378,
  "title": 7379,
  "Ġanim": 7380,
  "ĠRed": 7381,
  "Ġsend": 7383,
  "Ġvoor": 7387,
  "else": 7388,
  "dom": 7391,
  "pace": 7397,
  "aby": 7398,
  "Ã¢n": 7399,
  "augh": 7401,
  "Ġassociated": 7402,
  "Ġlooks": 7404,
  "Ġturned": 7405,
  "Ġequip": 7408,
  "Ġmicro": 7410,
  "Ġanswer": 7412,
  "Ġcompanies": 7414,
  "Ġinstead": 7417,
  "Ġlanguage": 7418,
  "istics": 7419,
  "Ġframe": 7420,
  "ako": 7421,
  "Ġactivity": 7423,
  "Ġcouple": 7425,
  "Ġprefer": 7426,
  "het": 7427,
  "Ġdetails": 7428,
  "Ġord": 7429,
  "ught": 7430,
  "eto": 7432,
  "Size": 7433,
  "iden": 7434,
  "ĠBro": 7436,
  "ĠFrom": 7438,
  "Element": 7439,
  "Ġpark": 7441,
  "ford": 7443,
  "orge": 7444,
  "Ġmale": 7449,
  "EC": 7450,
  "Ġstatus": 7451,
  "ĠWar": 7453,
  "band": 7454,
  "Ġquickly": 7455,
  "cember": 7456,
  "Ġhit": 7457,
  "Ġveh": 7458,
  "ĠpÅĻ": 7460,
  "Out": 7462,
  "Ġdrive": 7463,
  "nÃ©": 7464,
  "Ġdating": 7466,
  "fa": 7467,
  "Ġjed": 7470,
  "Ġjud": 7472,
  "Ġswe": 7473,
  "Log": 7474,
  "Ġexpected": 7475,
  "bit": 7476,
  "Ġflex": 7477,
  "ceed": 7478,
  "wise": 7482,
  "berg": 7483,
  "ovember": 7484,
  "ĠNULL": 7485,
  "Post": 7486,
  "PI": 7487,
  "Ġcorrect": 7489,
  "Ġoffice": 7492,
  "Ġmut": 7493,
  "ĠMarch": 7495,
  "Ġprevent": 7497,
  "aan": 7498,
  "Fr": 7499,
  "Ġgroups": 7503,
  "lying": 7505,
  "pat": 7509,
  "reate": 7510,
  "ĠHol": 7511,
  "Ġalg": 7514,
  "Ġcele": 7519,
  "âĢĻd": 7523,
  "ffect": 7525,
  "olean": 7527,
  "hol": 7529,
  "Ġcalcul": 7532,
  "cons": 7534,
  "Ġprep": 7535,
  "Node": 7538,
  "Ġball": 7539,
  "_in": 7542,
  "Ġcontr": 7543,
  "cht": 7544,
  "Ġheard": 7546,
  "efore": 7548,
  "Ġrecent": 7549,
  "Ġmodern": 7550,
  "Ġstudies": 7552,
  "Ġcand": 7555,
  "Ġmeasure": 7556,
  "Ġcondition": 7557,
  "Ġstaff": 7560,
  "Ġlate": 7561,
  "rec": 7562,
  "ogen": 7563,
  "Ġitems": 7564,
  "Ġabsol": 7565,
  "Ġmedical": 7566,
  "Ġnav": 7568,
  "active": 7572,
  "Ġdur": 7575,
  "Ġtim": 7576,
  "Ġmes": 7579,
  "Ġclient": 7583,
  "Ġpull": 7584,
  "yth": 7585,
  "acity": 7589,
  "Ġwonder": 7590,
  "Ġsie": 7592,
  "ondon": 7594,
  "Ġni": 7595,
  "iny": 7596,
  "Ġfeature": 7601,
  "Ġmais": 7602,
  "Ġagre": 7603,
  "XX": 7608,
  "wer": 7609,
  "Ã©d": 7610,
  "Ġsqu": 7611,
  "Ġmap": 7612,
  "Ġfol": 7614,
  "Path": 7615,
  "tex": 7618,
  "position": 7619,
  "inger": 7625,
  "Ġfine": 7627,
  "ÉĻr": 7628,
  "rial": 7629,
  "ĠBrit": 7630,
  "Ġcry": 7631,
  "Ã¡r": 7633,
  "ĠTHE": 7636,
  "TD": 7637,
  "Ġkm": 7639,
  "Ġcook": 7641,
  "Def": 7642,
  "Mod": 7645,
  "Ġtill": 7646,
  "dy": 7647,
  "Ġprec": 7650,
  "Ġconsidered": 7651,
  "Ġmethods": 7652,
  "Ġdescribed": 7653,
  "Ġmyself": 7654,
  "Ġpow": 7658,
  "HT": 7659,
  "eme": 7660,
  "ĠTV": 7662,
  "She": 7663,
  "Ġcomputer": 7664,
  "iá»ĩ": 7666,
  "ĠWork": 7668,
  "ĠCons": 7669,
  "Ġinitial": 7670,
  "Ġcá»§": 7672,
  "Ġglobal": 7673,
  "Ä±nd": 7674,
  "Ġeducation": 7675,
  "ĉc": 7677,
  "Ġmultiple": 7678,
  "ĠJune": 7680,
  "Ġmu": 7683,
  "Ġbill": 7687,
  "attle": 7690,
  "ements": 7692,
  "Ġdiabet": 7693,
  "Button": 7694,
  "ĠBlack": 7695,
  "struct": 7696,
  "TE": 7697,
  "Ġtu": 7698,
  "vey": 7699,
  "Ġparts": 7700,
  "Ġwasn": 7701,
  "Ġchoose": 7703,
  "enced": 7705,
  "MA": 7706,
  "Ġkit": 7707,
  "Ġaverage": 7709,
  "Ġpractice": 7710,
  "Ġcá»§a": 7711,
  "Ġwel": 7712,
  "ellow": 7713,
  "Ġquant": 7714,
  "ju": 7715,
  "ĠSeptember": 7717,
  "Ġnecessary": 7718,
  "Ġti": 7719,
  "xy": 7720,
  "mo": 7722,
  "Ġready": 7723,
  "Ġprofessional": 7724,
  "web": 7726,
  "tre": 7728,
  "Ġhair": 7731,
  "Ġusers": 7733,
  "Ġsun": 7734,
  "Ġknew": 7735,
  "isf": 7736,
  "Ġconsist": 7738,
  "Ġesc": 7740,
  "ĉp": 7742,
  "respond": 7743,
  "Ġconduct": 7744,
  "CD": 7745,
  "lam": 7746,
  "vest": 7748,
  "itte": 7749,
  "Ġvalid": 7750,
  "Ġcontract": 7751,
  "ĠRet": 7753,
  "Ġdark": 7754,
  "Ġhimself": 7758,
  "Ġmaintain": 7759,
  "Ġarch": 7761,
  "Ġcatch": 7762,
  "lu": 7763,
  "Ġdemon": 7766,
  "idden": 7768,
  "dev": 7769,
  "aining": 7771,
  "Ġcool": 7773,
  "ĠDet": 7777,
  "Ġmother": 7779,
  "ague": 7781,
  "Ġevalu": 7783,
  "ydro": 7784,
  "Ġnel": 7785,
  "Ġmorning": 7786,
  "akan": 7788,
  "Date": 7789,
  "inen": 7790,
  "Ġcopy": 7791,
  "Ġthinking": 7792,
  "Ġrepl": 7793,
  "ĠKing": 7794,
  "Ġki": 7797,
  "istry": 7798,
  "From": 7800,
  "inding": 7801,
  "comes": 7802,
  "Ġdriv": 7805,
  "usiness": 7806,
  "ĠSee": 7807,
  "lor": 7808,
  "hal": 7809,
  "Result": 7810,
  "Ġlocated": 7811,
  "Ġbei": 7812,
  "zie": 7814,
  "Ġtom": 7815,
  "Ġlost": 7816,
  "Trans": 7817,
  "Ġsolid": 7818,
  "Ġnational": 7819,
  "Ġnature": 7820,
  "Message": 7821,
  "Ġplayer": 7823,
  "azione": 7824,
  "Ġmanufact": 7827,
  "lient": 7828,
  "ĠPM": 7829,
  "aches": 7830,
  "section": 7831,
  "Ġsave": 7834,
  "Ġmodels": 7835,
  "ĠBest": 7836,
  "Ġones": 7837,
  "Ġstd": 7838,
  "Ġplayers": 7839,
  "Ġskin": 7840,
  "Ġtown": 7841,
  "ĠNet": 7842,
  "ecause": 7843,
  "Ġgas": 7844,
  "ĠmÃ¡s": 7845,
  "rab": 7846,
  "Ġwat": 7847,
  "Ġeste": 7848,
  "Ġstock": 7849,
  "Ġregular": 7850,
  "ervices": 7851,
  "Ġpet": 7854,
  "ĠPress": 7860,
  "Inter": 7862,
  "ias": 7863,
  "equ": 7865,
  "itz": 7866,
  "Map": 7867,
  "Ġslow": 7868,
  "Ġbooks": 7869,
  "ĠAre": 7870,
  "Table": 7871,
  "ography": 7873,
  "Ġorganiz": 7874,
  "ĠEnglish": 7875,
  "_N": 7876,
  "Ġdifference": 7877,
  "Ġspeed": 7878,
  "ĠMich": 7880,
  "Ġsituation": 7881,
  "Ġtechni": 7882,
  "ummies": 7884,
  "Ġability": 7885,
  "Ġera": 7888,
  "Ġitself": 7889,
  "Ġviol": 7890,
  "Ġeffective": 7891,
  "dis": 7893,
  "Ġpattern": 7896,
  "ono": 7899,
  "ĠDay": 7900,
  "Ġupdate": 7901,
  "Ġvir": 7902,
  "Ġincluded": 7904,
  "ĠFig": 7905,
  "oute": 7906,
  "ĠUp": 7909,
  "ĠCounty": 7912,
  "uis": 7913,
  "inder": 7915,
  "query": 7916,
  "Ġamaz": 7921,
  "Ġdirectly": 7924,
  "Ġgro": 7925,
  "ĠOut": 7926,
  "Ã½ch": 7928,
  "soft": 7929,
  "ĠÃ¼ber": 7931,
  "Ġadditional": 7932,
  "Ġcomfort": 7934,
  "option": 7936,
  "wood": 7938,
  "Ġlose": 7939,
  "imo": 7940,
  "osis": 7941,
  "Code": 7942,
  "aya": 7943,
  "ĠBen": 7944,
  "Ġboard": 7946,
  "iler": 7947,
  "Ġsold": 7948,
  "abled": 7950,
  "Ġattention": 7952,
  "sa": 7955,
  "duc": 7960,
  "iro": 7961,
  "Ġfinancial": 7963,
  "Ġuma": 7965,
  "Ġkids": 7966,
  "olo": 7967,
  "Ġsleep": 7968,
  "ĠGerm": 7971,
  "Ġgave": 7972,
  "olar": 7973,
  "Ġcomment": 7974,
  "Ġaltern": 7975,
  "true": 7978,
  "ipal": 7979,
  "Ġfight": 7981,
  "ilities": 7982,
  "aged": 7983,
  "otal": 7984,
  "rid": 7986,
  "ova": 7987,
  "ĠHere": 7989,
  "Ġstar": 7991,
  "erd": 7995,
  "ĠMal": 7996,
  "cd": 7999,
  "Ġroll": 8002,
  "ĠInternational": 8003,
  "ĠPort": 8006,
  "Ġpel": 8007,
  "Ġsecurity": 8008,
  "Ġchoice": 8009,
  "Ġsurpr": 8010,
  "Param": 8012,
  "Ġvot": 8013,
  "aten": 8014,
  "Ġrele": 8015,
  "Ã¥r": 8016,
  "unn": 8019,
  "Ġwritten": 8020,
  "ema": 8021,
  "race": 8022,
  "Ġappe": 8023,
  "Ġuns": 8026,
  "anta": 8027,
  "Ġconcept": 8028,
  "Ġpun": 8029,
  "Ġsav": 8033,
  "Ġadminist": 8034,
  "pty": 8035,
  "object": 8037,
  "olf": 8038,
  "ATE": 8040,
  "anz": 8042,
  "ande": 8043,
  "Ġcompletely": 8044,
  "Us": 8045,
  "actions": 8047,
  "Ġpositive": 8048,
  "Ġavoid": 8049,
  "Ġdecl": 8050,
  "ashing": 8051,
  "Ġfeed": 8053,
  "Ġbank": 8054,
  "DA": 8055,
  "comment": 8056,
  "point": 8057,
  "Ġtur": 8058,
  "ĠJuly": 8061,
  "illing": 8062,
  "Ġtowards": 8063,
  "Ġconcent": 8064,
  "Array": 8069,
  "hand": 8072,
  "TH": 8074,
  "Ġreported": 8078,
  "alle": 8081,
  "inate": 8083,
  "ĠCenter": 8087,
  "Ġmount": 8088,
  "ĠAmerica": 8089,
  "Ġserious": 8091,
  "ael": 8093,
  "ĠVol": 8094,
  "Ġplaying": 8097,
  "ĠCour": 8098,
  "ĠPal": 8099,
  "Fig": 8102,
  "Ġdesigned": 8103,
  "pan": 8105,
  "ijn": 8106,
  "Ġbrand": 8108,
  "Ġupd": 8110,
  "Ġju": 8114,
  "uto": 8115,
  "SP": 8117,
  "ander": 8118,
  "Ġdeb": 8121,
  "lication": 8123,
  "gest": 8124,
  "Ġconnect": 8129,
  "Ġeasily": 8130,
  "raz": 8133,
  "hem": 8137,
  "erve": 8139,
  "Ġauto": 8140,
  "Ġcurrently": 8142,
  "ĠClass": 8144,
  "Ġplatform": 8145,
  "Ġstudent": 8146,
  "Ġassert": 8147,
  "ĠNovember": 8149,
  "Ġactivities": 8153,
  "Ġot": 8157,
  "Ġdecision": 8160,
  "_B": 8161,
  "ancy": 8163,
  "Hand": 8165,
  "Ġik": 8166,
  "initely": 8171,
  "Ġhear": 8173,
  "array": 8176,
  "Ľi": 8177,
  "Ġthemselves": 8178,
  "Ġcontinu": 8182,
  "Ġprem": 8184,
  "ously": 8185,
  "ellent": 8187,
  "uns": 8189,
  "width": 8190,
  "Ġbecame": 8191,
  "ĠOF": 8192,
  "Ġtemperature": 8194,
  "ln": 8195,
  "Ġgar": 8196,
  "unction": 8200,
  "ĠAustral": 8201,
  "iti": 8202,
  "Ġrock": 8203,
  "ĠInc": 8204,
  "Ġrow": 8207,
  "Ġak": 8208,
  "Ġgold": 8210,
  "rought": 8212,
  "Ġcouldn": 8213,
  "Ġdrink": 8214,
  "Ġassess": 8215,
  "Reg": 8216,
  "package": 8219,
  "Ġinj": 8220,
  "ĠMor": 8221,
  "Ġclick": 8222,
  "izes": 8224,
  "ĠSub": 8226,
  "After": 8227,
  "Ġhop": 8228,
  "Ġult": 8231,
  "Ġdetail": 8232,
  "center": 8233,
  "ronic": 8234,
  "ĠSal": 8235,
  "ĠTest": 8236,
  "TO": 8237,
  "sec": 8239,
  "Ġwerden": 8242,
  "Ġfinally": 8244,
  "Ġmachine": 8245,
  "Ġmess": 8246,
  "Ġunivers": 8249,
  "ĠZe": 8250,
  "char": 8253,
  "Ġlov": 8254,
  "Ġdisease": 8255,
  "Ġskills": 8256,
  "ĠFree": 8257,
  "oon": 8258,
  "asy": 8260,
  "agen": 8261,
  "asons": 8262,
  "Ġincreased": 8263,
  "aries": 8265,
  "Ġgoes": 8266,
  "Ġenter": 8269,
  "Ġsafe": 8271,
  "itory": 8272,
  "hn": 8276,
  "Ġsel": 8277,
  "engan": 8278,
  "post": 8279,
  "Ġreach": 8280,
  "event": 8284,
  "PP": 8285,
  "Ġrecommend": 8286,
  "Act": 8288,
  "Ġled": 8289,
  "enge": 8291,
  "Ġmel": 8292,
  "Ġactive": 8294,
  "ĠLet": 8296,
  "tn": 8301,
  "ĠKe": 8302,
  "Ser": 8307,
  "aux": 8308,
  "Ġproced": 8309,
  "lements": 8313,
  "ĠMod": 8314,
  "Ġbur": 8315,
  "math": 8317,
  "block": 8318,
  "anda": 8319,
  "nya": 8322,
  "Ġstuff": 8325,
  "itable": 8326,
  "ĠFil": 8327,
  "Ġgreen": 8329,
  "sen": 8331,
  "Ġcustomers": 8334,
  "Ġenhance": 8335,
  "Ġze": 8336,
  "Ġemp": 8337,
  "Ġunt": 8339,
  "open": 8341,
  "adas": 8343,
  "rica": 8347,
  "ĠBook": 8349,
  "ares": 8350,
  "ustr": 8351,
  "Att": 8352,
  "version": 8353,
  "Ġdou": 8355,
  "ĠDi": 8356,
  "Ġround": 8357,
  "haps": 8358,
  "Ġforce": 8361,
  "yles": 8362,
  "bu": 8363,
  "EX": 8364,
  "á»Ļt": 8367,
  "Ġsig": 8368,
  "Ġclin": 8373,
  "Ġcompared": 8374,
  "Ġparents": 8375,
  "ropri": 8376,
  "Ġkl": 8378,
  "Ġphysical": 8379,
  "Ġdar": 8382,
  "ĠSl": 8383,
  "Ġlives": 8385,
  "Ġopportunity": 8387,
  "ĠMat": 8389,
  "Ġtried": 8391,
  "Ġattempt": 8392,
  "UE": 8393,
  "iring": 8394,
  "Ġsomet": 8396,
  "Ġactual": 8398,
  "Ġgets": 8399,
  "ĠÃ©t": 8400,
  "ede": 8401,
  "Ä±l": 8402,
  "requ": 8403,
  "ĠJanuary": 8404,
  "ĠGeneral": 8406,
  "stant": 8407,
  "itu": 8408,
  "Am": 8410,
  "idget": 8413,
  "Ġchance": 8414,
  "ĠHouse": 8417,
  "Ġfair": 8418,
  "Ġensure": 8420,
  "Ġded": 8422,
  "Equ": 8424,
  "Ġtut": 8426,
  "loat": 8427,
  "Ġperm": 8429,
  "Ġko": 8432,
  "Ġlib": 8433,
  "Ġtransfer": 8434,
  "ĠMag": 8437,
  "Ġpolicy": 8439,
  "ees": 8440,
  "Ġserver": 8441,
  "ĠPaul": 8442,
  "Ġmid": 8444,
  "Ġwide": 8445,
  "Ġarm": 8446,
  "Ġrecently": 8447,
  "ivil": 8448,
  "Ġrat": 8449,
  "usion": 8451,
  "ĠBel": 8454,
  "Ġrelig": 8455,
  "Ġdirection": 8456,
  "Ġvirt": 8457,
  "font": 8458,
  "ĠLi": 8461,
  "was": 8465,
  "Pr": 8468,
  "jen": 8469,
  "ums": 8474,
  "Ġthroughout": 8476,
  "zn": 8477,
  "Sub": 8478,
  "Ġevidence": 8479,
  "ship": 8481,
  "ĠSupp": 8482,
  "Ġsites": 8483,
  "ĠDan": 8486,
  "enty": 8488,
  "ĠDen": 8489,
  "Ġregul": 8496,
  "has": 8497,
  "Ġlimit": 8498,
  "Ġtit": 8499,
  "Ġsaying": 8501,
  "Manager": 8503,
  "fol": 8504,
  "Ġbul": 8505,
  "ialog": 8507,
  "BD": 8508,
  "rote": 8515,
  "Ġhistor": 8516,
  "thern": 8518,
  "amin": 8519,
  "Ġprotect": 8520,
  "rive": 8521,
  "Ġannoun": 8523,
  "Ġrelease": 8525,
  "ĠFirst": 8527,
  "Ġmaybe": 8532,
  "stall": 8533,
  "Ã©es": 8534,
  "ĠHist": 8535,
  "ading": 8539,
  "abs": 8542,
  "db": 8544,
  "Ġprot": 8547,
  "ifier": 8550,
  "ech": 8552,
  "esch": 8553,
  "Response": 8556,
  "Image": 8559,
  "RA": 8561,
  "Ġwindow": 8562,
  "di": 8564,
  "raf": 8565,
  "osa": 8567,
  "Ġsind": 8568,
  "OW": 8569,
  "Ġtransport": 8570,
  "CP": 8571,
  "ĠLondon": 8573,
  "ocol": 8576,
  "ependent": 8578,
  "ÃŃn": 8581,
  "Ġkt": 8582,
  "Ġreceive": 8583,
  "Ġvoice": 8585,
  "sz": 8587,
  "Ġdead": 8590,
  "Ġclub": 8591,
  "ords": 8592,
  "Ġcompar": 8593,
  "AME": 8594,
  "encies": 8595,
  "Ġinsp": 8597,
  "Ġcollection": 8598,
  "iled": 8599,
  "rm": 8608,
  "Ġadult": 8613,
  "Ġessential": 8615,
  "bal": 8616,
  "Ġinternational": 8618,
  "request": 8620,
  "Ġinteresting": 8622,
  "ÅĽci": 8623,
  "ĠWhile": 8627,
  "ĠSet": 8628,
  "Ġinvolved": 8630,
  "Ġtransform": 8633,
  "Ġmaterials": 8634,
  "Ġsuff": 8639,
  "anged": 8643,
  "Ġnames": 8644,
  "CL": 8645,
  "ĠAir": 8646,
  "Ġcorrespond": 8647,
  "Ġideas": 8648,
  "Comp": 8649,
  "Æ°á»£c": 8651,
  "eful": 8652,
  "Ġanti": 8655,
  "Ġresources": 8656,
  "ĠCam": 8657,
  "Ġacqu": 8659,
  "Count": 8660,
  "apy": 8661,
  "Ġrot": 8662,
  "mt": 8664,
  "ĠFebru": 8667,
  "Ġbuilt": 8668,
  "xim": 8669,
  "ville": 8672,
  "uts": 8673,
  "Ġcat": 8674,
  "plit": 8675,
  "Ġmovie": 8678,
  "Ġexerc": 8681,
  "encia": 8684,
  "Ġworked": 8685,
  "Ġofficial": 8688,
  "reci": 8690,
  "Ġsequ": 8691,
  "Ġpatient": 8692,
  "Ġstage": 8694,
  "lear": 8696,
  "ĠMart": 8699,
  "Ġheat": 8700,
  "exp": 8702,
  "Ġcustomer": 8706,
  "Ġbag": 8710,
  "ĠRuss": 8711,
  "level": 8712,
  "aled": 8719,
  "Ġdigital": 8722,
  "EE": 8723,
  "ĠMet": 8724,
  "umer": 8725,
  "Ġcolumn": 8727,
  "Ġdeveloped": 8728,
  "ĠHome": 8729,
  "áº¡i": 8730,
  "Ġaspect": 8731,
  "GB": 8732,
  "UM": 8734,
  "iller": 8735,
  "conne": 8738,
  "Ġchanged": 8739,
  "ĠIndia": 8745,
  "Ġstrength": 8746,
  "roy": 8747,
  "Ġfather": 8748,
  "ĠData": 8749,
  "DF": 8751,
  "Ġtrust": 8752,
  "Ġstru": 8754,
  "aka": 8755,
  "Ġseek": 8757,
  "ilit": 8758,
  "Ġinstance": 8759,
  "ĠJes": 8760,
  "Ġlegal": 8762,
  "ĠSam": 8764,
  "Ġmemory": 8765,
  "Ġimag": 8766,
  "hl": 8767,
  "Per": 8768,
  "Ġdeliver": 8770,
  "Ġpadding": 8772,
  "Ġsale": 8774,
  "height": 8775,
  "ĠTechn": 8776,
  "valid": 8780,
  "Ġfan": 8781,
  "header": 8782,
  "owe": 8783,
  "hu": 8784,
  "Ġgod": 8786,
  "frac": 8787,
  "ĠOctober": 8792,
  "isation": 8795,
  "izer": 8796,
  "Ġini": 8797,
  "Ġspect": 8798,
  "ĠRE": 8799,
  "ĠDem": 8801,
  "Ġrestaur": 8802,
  "Ġrights": 8803,
  "iten": 8804,
  "Ġdecided": 8805,
  "Ġreve": 8808,
  "Ġchem": 8810,
  "hood": 8813,
  "ategy": 8814,
  "osph": 8816,
  "Ġcountries": 8817,
  "Ġcourt": 8818,
  "Ġbegan": 8820,
  "ius": 8821,
  "Ġlines": 8822,
  "Ġdir": 8823,
  "Ġfiles": 8828,
  "_r": 8829,
  "Ġvor": 8831,
  "ogy": 8832,
  "Input": 8833,
  "isp": 8834,
  "ĠLife": 8836,
  "like": 8840,
  "Ġvariety": 8841,
  "iana": 8842,
  "Ġsou": 8843,
  "github": 8844,
  "atively": 8846,
  "Ġsont": 8847,
  "Ġmort": 8848,
  "Ġallows": 8854,
  "áº¥t": 8855,
  "Ġbottom": 8857,
  "arily": 8858,
  "vision": 8859,
  "cil": 8860,
  "ĠSie": 8863,
  "sten": 8866,
  "Ġconnection": 8870,
  "ÈĻi": 8871,
  "Ġmeeting": 8873,
  "ĠForm": 8874,
  "uman": 8875,
  "assword": 8877,
  "Ġtouch": 8878,
  "ego": 8879,
  "oles": 8883,
  "Ġsto": 8886,
  "egin": 8889,
  "Ġprogress": 8890,
  "amento": 8891,
  "Ġchalleng": 8892,
  "Ġlimited": 8893,
  "Ġstress": 8896,
  "antly": 8897,
  "Ġcharg": 8899,
  "Ġspirit": 8901,
  "Ġtool": 8908,
  "ĠDecember": 8909,
  "Ġalign": 8913,
  "ungs": 8918,
  "asta": 8920,
  "ĠSk": 8923,
  "lib": 8925,
  "CR": 8926,
  "Ġlie": 8928,
  "Ġgives": 8929,
  "Ġalbum": 8934,
  "Ġdengan": 8936,
  "Ġorigin": 8937,
  "Ġarriv": 8940,
  "uri": 8942,
  "este": 8943,
  "Ġnone": 8944,
  "Ġexcept": 8946,
  "Ġcommand": 8948,
  "Ġcold": 8949,
  "Ġpriv": 8950,
  "Ġimmediately": 8951,
  "ocket": 8952,
  "ĠDef": 8954,
  "PO": 8956,
  "Ġlack": 8957,
  "Ġstates": 8959,
  "Ġproperties": 8960,
  "Ġnote": 8963,
  "Ġbra": 8966,
  "ĠGoogle": 8967,
  "weight": 8968,
  "Ab": 8969,
  "path": 8972,
  "Ġformer": 8973,
  "uilder": 8974,
  "ĠSen": 8979,
  "ĠLu": 8980,
  "Ġmobile": 8981,
  "ĠItal": 8984,
  "rage": 8986,
  "ibly": 8987,
  "asa": 8988,
  "_data": 8989,
  "PL": 8992,
  "Ġsell": 8994,
  "ĠPublic": 8996,
  "Ġsho": 8997,
  "Ġfeeling": 8999,
  "ĉm": 9000,
  "System": 9004,
  "Ġstarting": 9005,
  "Ġgoal": 9007,
  "Ġsignal": 9009,
  "which": 9010,
  "Ġconv": 9011,
  "Ġlatest": 9012,
  "ĠInstit": 9013,
  "ederal": 9014,
  "ĠEs": 9015,
  "Ġnor": 9016,
  "iforn": 9021,
  "Acc": 9022,
  "Ã¤nd": 9025,
  "pg": 9027,
  "Ã¼l": 9029,
  "rief": 9031,
  "Ġcelebr": 9032,
  "They": 9033,
  "ĠEnd": 9034,
  "func": 9036,
  "FA": 9037,
  "Ġexpression": 9038,
  "ĠChar": 9040,
  "ĠtÃ«": 9042,
  "flow": 9044,
  "ĠResearch": 9045,
  "rier": 9052,
  "onom": 9054,
  "Ġdefinitely": 9055,
  "ĠAM": 9058,
  "Ġsometimes": 9060,
  "Ġfactors": 9061,
  "Ġlabel": 9063,
  "eler": 9065,
  "ĠMa": 9067,
  "Ġextrem": 9068,
  "Ġhuge": 9075,
  "Ġmiddle": 9076,
  "Ġdiscover": 9078,
  "Ġtid": 9080,
  "ĠUK": 9081,
  "arden": 9082,
  "ĠNews": 9083,
  "Ġlayer": 9084,
  "Ã¤l": 9085,
  "CA": 9086,
  "ĠÄĳÆ°á»£c": 9088,
  "Ġhighly": 9090,
  "Ġnil": 9091,
  "Ġpopulation": 9092,
  "_type": 9093,
  "Ġopin": 9094,
  "Ġbenefits": 9095,
  "Ġalone": 9096,
  "Ġadvant": 9098,
  "TS": 9099,
  "Ġinstit": 9100,
  "Ġgam": 9101,
  "rum": 9102,
  "Ġwood": 9104,
  "Ġimages": 9106,
  "Ġmode": 9107,
  "Ġmá»Ļt": 9109,
  "Ġlab": 9111,
  "Ġdemonstr": 9112,
  "Ġculture": 9115,
  "rik": 9118,
  "eline": 9120,
  "host": 9121,
  "ĠMac": 9123,
  "omas": 9124,
  "Ġdefin": 9125,
  "ĠHel": 9126,
  "Ġparte": 9127,
  "oin": 9128,
  "ekt": 9130,
  "Ġleading": 9134,
  "itect": 9135,
  "ruit": 9137,
  "Ġku": 9140,
  "Ġblue": 9142,
  "Ġcredit": 9143,
  "Ġhour": 9147,
  "ĠDavid": 9150,
  "Group": 9157,
  "ĠChina": 9159,
  "ĠLaw": 9163,
  "ĠRem": 9164,
  "Ġunderstanding": 9165,
  "Ġpolitical": 9166,
  "ĠEvery": 9167,
  "Che": 9168,
  "Ġax": 9169,
  "Ġreviews": 9170,
  "ĠCap": 9171,
  "ĠBi": 9172,
  "Ġdepend": 9173,
  "ĠSuper": 9174,
  "Ġprz": 9175,
  "Ġelements": 9176,
  "default": 9178,
  "Ġdaily": 9180,
  "ĠLicense": 9181,
  "Ġestim": 9182,
  "han": 9185,
  "Ġeat": 9188,
  "Ġvel": 9189,
  "uct": 9190,
  "Ġpurpose": 9191,
  "static": 9192,
  "mercial": 9193,
  "Ġwie": 9196,
  "bed": 9198,
  "stra": 9199,
  "uffer": 9200,
  "Ġpsych": 9202,
  "Ġcapital": 9203,
  "Ġnumer": 9205,
  "Me": 9207,
  "Ġcollect": 9208,
  "Ġkar": 9209,
  "Ġzum": 9210,
  "ians": 9211,
  "Ġcapt": 9216,
  "Ġslight": 9217,
  "next": 9219,
  "igger": 9220,
  "ĠTw": 9221,
  "ĠDepartment": 9223,
  "how": 9225,
  "Ġinternet": 9226,
  "ÃŃm": 9228,
  "Ġzur": 9229,
  "Ġpiece": 9231,
  "pid": 9232,
  "ĠDel": 9233,
  "Ġeiner": 9235,
  "Ġvill": 9244,
  "Ġalle": 9245,
  "Ġsatisf": 9247,
  "iga": 9248,
  "Ġoder": 9249,
  "ĠWeb": 9252,
  "iers": 9253,
  "ersion": 9254,
  "Ġemot": 9255,
  "ĠAlso": 9258,
  "Ġsales": 9261,
  "ributed": 9263,
  "Ġdiabetes": 9264,
  "Ġexpos": 9265,
  "ĠDirect": 9266,
  "pha": 9269,
  "ĠST": 9270,
  "Ġalthough": 9273,
  "ĠLand": 9275,
  "ears": 9277,
  "emplate": 9278,
  "Ġgummies": 9279,
  "Line": 9284,
  "ĠLog": 9285,
  "Ġbirth": 9286,
  "Ġformat": 9287,
  "ĠAND": 9288,
  "Ġmai": 9291,
  "Ġfirm": 9296,
  "su": 9298,
  "actory": 9299,
  "Ġmaster": 9303,
  "Ġdistance": 9305,
  "Ġfavorite": 9306,
  "Ġprimary": 9307,
  "Ġmeaning": 9309,
  "isions": 9310,
  "atives": 9311,
  "Ġgru": 9313,
  "lik": 9314,
  "Ġwife": 9315,
  "Ġapply": 9317,
  "Ġamazing": 9318,
  "term": 9319,
  "Ġselected": 9321,
  "Ġbrought": 9322,
  "Ã¸r": 9327,
  "inde": 9329,
  "Ġstrateg": 9331,
  "ĠDer": 9332,
  "iche": 9333,
  "ĠMad": 9334,
  "ÅĤa": 9335,
  "orrow": 9337,
  "ioni": 9344,
  "IA": 9352,
  "ĠLin": 9353,
  "Ã¡m": 9355,
  "older": 9356,
  "Ġuntuk": 9357,
  "last": 9358,
  "Ġuses": 9361,
  "Ġradi": 9362,
  "ĠHot": 9365,
  "Ass": 9366,
  "state": 9369,
  "ĠSim": 9370,
  "Ġther": 9374,
  "Ġequipment": 9377,
  "OC": 9378,
  "idade": 9379,
  "Ġwants": 9380,
  "Ġrespond": 9383,
  "ifornia": 9388,
  "Ġhappen": 9389,
  "Ġnumbers": 9390,
  "aria": 9391,
  "Ġlif": 9393,
  "Status": 9394,
  "Pre": 9395,
  "Ġreduce": 9398,
  "Ġdesp": 9399,
  "ĠFranc": 9402,
  "Ġassist": 9403,
  "Ġcert": 9404,
  "Ġfigure": 9405,
  "Ġsurv": 9406,
  "rad": 9407,
  "Ġuseful": 9408,
  "Ġcast": 9409,
  "cs": 9414,
  "Ġaim": 9415,
  "ĠPresident": 9417,
  "Ġcarry": 9418,
  "estern": 9421,
  "Ġtor": 9422,
  "Ġplayed": 9423,
  "Ġsafety": 9424,
  "Ġpublished": 9425,
  "Ġguy": 9426,
  "ulf": 9428,
  "ĠGreat": 9429,
  "Ġdrug": 9431,
  "Ġemerg": 9432,
  "abe": 9434,
  "Å¼e": 9435,
  "ĠPlease": 9438,
  "Ġcit": 9439,
  "Ġgraph": 9440,
  "ses": 9442,
  "aughter": 9443,
  "Ġcancer": 9444,
  "Ġvict": 9447,
  "ĠAny": 9448,
  "undred": 9449,
  "Ġbon": 9451,
  "rey": 9452,
  "acing": 9453,
  "Ġmeng": 9454,
  "map": 9456,
  "ĠUSA": 9457,
  "Ġswitch": 9460,
  "jet": 9464,
  "ĠJos": 9466,
  "Component": 9468,
  "Ġadjust": 9469,
  "Ġsecret": 9470,
  "Ġaccur": 9471,
  "Ġtalking": 9472,
  "Ġwy": 9475,
  "Ġguess": 9476,
  "iments": 9477,
  "Ġny": 9480,
  "Det": 9482,
  "ests": 9483,
  "Ġpages": 9484,
  "ĠAssoci": 9486,
  "DS": 9487,
  "ĠMost": 9489,
  "Ġtransl": 9490,
  "Ġpromot": 9491,
  "Ġfix": 9492,
  "Ġaux": 9496,
  "Ġgiving": 9497,
  "BS": 9498,
  "elij": 9499,
  "Ġfeet": 9500,
  "Ġindividuals": 9503,
  "aine": 9504,
  "Ġmm": 9508,
  "Ġci": 9509,
  "Ġmilit": 9510,
  "Ġsummer": 9512,
  "ĠGroup": 9515,
  "Ġacid": 9516,
  "VER": 9517,
  "ĠDE": 9518,
  "olic": 9519,
  "Ġcosts": 9521,
  "Ã©l": 9522,
  "Ġgreater": 9524,
  "indow": 9525,
  "Fl": 9527,
  "BN": 9530,
  "Ġcentral": 9531,
  "Ġboy": 9532,
  "pret": 9533,
  "Ġexperiment": 9535,
  "ĠJack": 9536,
  "oday": 9537,
  "icrosoft": 9538,
  "Ġthread": 9540,
  "Ġplaces": 9543,
  "Ġdoc": 9545,
  "Rec": 9546,
  "riter": 9547,
  "AY": 9549,
  "Controller": 9550,
  "ĠSpec": 9553,
  "Ġachieve": 9555,
  "ciÃ³n": 9556,
  "overn": 9562,
  "Ġhandle": 9564,
  "eles": 9567,
  "ads": 9568,
  "iced": 9571,
  "uni": 9572,
  "Ġburn": 9581,
  "under": 9584,
  "iene": 9589,
  "Ġpoly": 9590,
  "acters": 9591,
  "Ġappropri": 9593,
  "parent": 9594,
  "Ġexactly": 9596,
  "ĠReview": 9597,
  "ĠJapan": 9600,
  "cher": 9602,
  "orial": 9605,
  "car": 9607,
  "Ġdecre": 9610,
  "max": 9612,
  "isa": 9615,
  "oli": 9616,
  "Ġshowed": 9619,
  "Ġfully": 9620,
  "Ġspeak": 9621,
  "geb": 9622,
  "Ġcareer": 9623,
  "Ġregister": 9625,
  "ĠGood": 9626,
  "Ġfresh": 9627,
  "cor": 9628,
  "icient": 9629,
  "Str": 9631,
  "rupt": 9632,
  "Ġtools": 9633,
  "well": 9634,
  "Ġoperation": 9635,
  "TER": 9636,
  "Ġreference": 9639,
  "ĠEnt": 9642,
  "Ġstorage": 9643,
  "burg": 9644,
  "Ġfloor": 9645,
  "Ġwarm": 9646,
  "Ġvs": 9647,
  "Ġprograms": 9649,
  "Ġneigh": 9650,
  "nÄĽ": 9652,
  "Ġapplications": 9653,
  "Ġbutton": 9656,
  "Ġmulti": 9659,
  "ĠNOT": 9661,
  "Ġcharge": 9662,
  "top": 9663,
  "ensity": 9664,
  "isl": 9666,
  "iste": 9668,
  "Ġappar": 9669,
  "Ġinsurance": 9672,
  "Ġpresident": 9674,
  "grad": 9676,
  "Ġnode": 9679,
  "Ġguys": 9680,
  "Ġincreasing": 9681,
  "pert": 9682,
  "_w": 9684,
  "Ġexpress": 9686,
  "Ġhappened": 9687,
  "Ag": 9689,
  "icks": 9690,
  "Ġtend": 9691,
  "Ġdurch": 9692,
  "TP": 9694,
  "Can": 9697,
  "Ġbehavior": 9698,
  "ĠEven": 9699,
  "ying": 9701,
  "Ġprojects": 9702,
  "Ġign": 9703,
  "ython": 9705,
  "anÃ§": 9706,
  "Ġobtained": 9708,
  "ĠOver": 9709,
  "Ġpicture": 9711,
  "Ġexcellent": 9715,
  "Ġlock": 9720,
  "cos": 9722,
  "ĠFre": 9723,
  "iano": 9724,
  "alla": 9725,
  "Ġhus": 9727,
  "Ġrandom": 9729,
  "cles": 9730,
  "Ġuit": 9731,
  "anto": 9733,
  "ĠWell": 9736,
  "CS": 9737,
  "rench": 9739,
  "ATION": 9740,
  "ifying": 9742,
  "Ġbasis": 9743,
  "Ġwish": 9746,
  "area": 9749,
  "Ġnem": 9753,
  "ĠÈĻi": 9755,
  "OK": 9757,
  "iling": 9758,
  "ĠService": 9759,
  "acebook": 9760,
  "ĠProgram": 9761,
  "Ġton": 9764,
  "Ġspecies": 9765,
  "Ġstraight": 9767,
  "rl": 9769,
  "ĠSur": 9770,
  "sta": 9771,
  "dden": 9773,
  "ming": 9774,
  "Ġproviding": 9776,
  "udi": 9777,
  "ĠGen": 9780,
  "Ġmoving": 9783,
  "ĠLes": 9784,
  "Ġtag": 9785,
  "arp": 9790,
  "ĠID": 9792,
  "izz": 9795,
  "rows": 9797,
  "Ġbasic": 9798,
  "lands": 9804,
  "Ġpoor": 9806,
  "Ġallowed": 9807,
  "ĠFebruary": 9808,
  "Ġhan": 9811,
  "Ġjour": 9812,
  "oster": 9813,
  "Ġpolice": 9815,
  "ĠJournal": 9816,
  "igation": 9817,
  "Ġsample": 9819,
  "ĠProf": 9822,
  "what": 9823,
  "Ġris": 9824,
  "Ġdemand": 9827,
  "child": 9828,
  "Ġrules": 9830,
  "Ġsteps": 9834,
  "Ġcandid": 9835,
  "_comment": 9839,
  "utt": 9841,
  "Ġven": 9842,
  "wi": 9843,
  "ĠWindows": 9845,
  "agram": 9846,
  "Ġfilter": 9847,
  "Ġmotor": 9849,
  "Ġguide": 9851,
  "ieved": 9852,
  "Ġrob": 9854,
  "Ġfollowed": 9856,
  "aign": 9858,
  "Ġdegree": 9859,
  "Ġconnected": 9861,
  "iders": 9862,
  "_g": 9864,
  "Ġcm": 9865,
  "Ġglass": 9868,
  "Ġsor": 9870,
  "teger": 9871,
  "adow": 9872,
  "ĠCompany": 9873,
  "ĠLong": 9874,
  "Ġlay": 9876,
  "Ġbeginning": 9877,
  "ĠSund": 9884,
  "Ġcru": 9885,
  "Ãµes": 9886,
  "ĠTop": 9887,
  "phone": 9888,
  "Sp": 9889,
  "assert": 9890,
  "alls": 9892,
  "Ġinterface": 9893,
  "Ġaan": 9894,
  "Ġdry": 9895,
  "Die": 9896,
  "ĠWhy": 9897,
  "Ġcommunication": 9898,
  "iej": 9899,
  "format": 9901,
  "ĠRober": 9902,
  "uje": 9903,
  "Page": 9905,
  "velopment": 9906,
  "Ġoccur": 9912,
  "Ġfab": 9913,
  "wing": 9916,
  "Bl": 9917,
  "igt": 9919,
  "stract": 9920,
  "ouncil": 9921,
  "Override": 9922,
  "IZ": 9923,
  "lie": 9927,
  "Ġrom": 9928,
  "ĠJul": 9929,
  "pload": 9930,
  "Ġdiagn": 9931,
  "Ġpra": 9932,
  "anti": 9935,
  "Ġnorm": 9937,
  "Ġsudden": 9938,
  "Ġdei": 9939,
  "ĠGold": 9942,
  "Ġsetting": 9947,
  "then": 9948,
  "ĠRo": 9949,
  "ĠEv": 9950,
  "QL": 9954,
  "Ġhous": 9955,
  "Ġwird": 9956,
  "Ġcer": 9957,
  "Ġinterested": 9959,
  "Ġdetect": 9962,
  "Il": 9967,
  "Ġletter": 9968,
  "Ġreleased": 9970,
  "Ġtrong": 9971,
  "gin": 9972,
  "IB": 9973,
  "Ġpap": 9976,
  "Ġsed": 9977,
  "Ġplans": 9980,
  "Ġtá»": 9982,
  "Ġpassed": 9983,
  "ptions": 9986,
  "btn": 9987,
  "Ġsobre": 9988,
  "Comm": 9989,
  "Ġspot": 9990,
  "ĠPo": 9992,
  "known": 9993,
  "pes": 9994,
  "atever": 9996,
  "pected": 9998,
  "Ġvide": 9999,
  "Ġmarketing": 10000,
  "ĠkÃ¶": 10002,
  "Ġeconomic": 10003,
  "Ġcomponent": 10006,
  "Ġtree": 10008,
  "Ġzijn": 10009,
  "Ġeye": 10010,
  "mem": 10011,
  "ĠSa": 10012,
  "Ġawait": 10013,
  "Ġconstruct": 10015,
  "Ġcounter": 10018,
  "Ġhelps": 10020,
  "Ġtherefore": 10021,
  "ĠDist": 10023,
  "ikan": 10024,
  "ownload": 10025,
  "ĠRel": 10028,
  "Ġborn": 10029,
  "Ġvert": 10031,
  "std": 10033,
  "Ġses": 10042,
  "Ġthus": 10044,
  "nam": 10045,
  "ervation": 10046,
  "hest": 10050,
  "ilter": 10052,
  "Ġere": 10053,
  "othing": 10054,
  "oni": 10055,
  "Ãły": 10056,
  "Ġremove": 10058,
  "ĠAv": 10060,
  "Ġpm": 10062,
  "itÃł": 10065,
  "Ġtamb": 10067,
  "Ġstream": 10068,
  "ĠTime": 10069,
  "Ġscen": 10070,
  "Ġpaid": 10072,
  "Ġmetal": 10073,
  "Ġih": 10074,
  "Ġrelev": 10075,
  "uses": 10077,
  "Ġscale": 10078,
  "Ġphotos": 10084,
  "ĠRich": 10086,
  "ĠCollege": 10087,
  "Ġdefined": 10089,
  "aft": 10090,
  "Ġfill": 10094,
  "kg": 10100,
  "Ġdrop": 10104,
  "images": 10108,
  "aba": 10110,
  "Number": 10111,
  "ois": 10112,
  "Ġble": 10114,
  "Content": 10115,
  "asure": 10118,
  "Ġpredict": 10119,
  "ĠNor": 10122,
  "product": 10123,
  "anie": 10127,
  "Ġdamage": 10129,
  "_L": 10134,
  "Ġmoved": 10135,
  "Ġtrip": 10137,
  "Ġmist": 10138,
  "enses": 10143,
  "arth": 10144,
  "ĠCr": 10145,
  "client": 10147,
  "urop": 10148,
  "Ġinterview": 10150,
  "size": 10154,
  "uster": 10155,
  "inese": 10158,
  "rio": 10159,
  "chaft": 10161,
  "Ġthous": 10162,
  "nia": 10164,
  "Ġconsole": 10166,
  "Ġsuccessful": 10167,
  "Ġdynam": 10171,
  "Ġwrote": 10176,
  "Ġdell": 10179,
  "strong": 10180,
  "vention": 10181,
  "Aut": 10182,
  "alm": 10185,
  "Ġnation": 10186,
  "ĠBet": 10187,
  "dz": 10188,
  "Ġrates": 10189,
  "Ġoverall": 10192,
  "Ġmix": 10195,
  "Ġsupply": 10196,
  "apping": 10197,
  "ĠStreet": 10198,
  "Ġpu": 10199,
  "Ġembod": 10201,
  "ĠView": 10202,
  "ulated": 10203,
  "Ġsolutions": 10205,
  "Ġtip": 10206,
  "Ġcop": 10207,
  "Ġbaby": 10210,
  "force": 10213,
  "Ġperformed": 10214,
  "Ġcontains": 10215,
  "ĠJames": 10216,
  "Ġvehicle": 10217,
  "Ġparticularly": 10218,
  "anel": 10222,
  "ename": 10225,
  "Ġentry": 10227,
  "Ġinfo": 10230,
  "áº¿n": 10233,
  "aturday": 10235,
  "NS": 10238,
  "antes": 10240,
  "orith": 10243,
  "foot": 10244,
  "Ġmeg": 10245,
  "Ġorganization": 10246,
  "Ġencou": 10247,
  "Ġconstruction": 10248,
  "sg": 10249,
  "Ġalla": 10251,
  "Ġnar": 10252,
  "Ġdescription": 10256,
  "Ġpub": 10261,
  "select": 10262,
  "ĠBusiness": 10263,
  "pective": 10265,
  "kk": 10268,
  "iance": 10270,
  "ancing": 10271,
  "Ġfloat": 10273,
  "Ġshape": 10274,
  "zz": 10275,
  "args": 10277,
  "Ġpul": 10278,
  "ĠScience": 10279,
  "ĠCalifornia": 10283,
  "Ġdevices": 10284,
  "Ġelectric": 10285,
  "ners": 10288,
  "Ġobvious": 10294,
  "Ġinternal": 10299,
  "Ġbound": 10300,
  "ashington": 10302,
  "Ġpros": 10304,
  "esta": 10306,
  "lections": 10307,
  "EO": 10308,
  "ĠFriday": 10309,
  "Fe": 10314,
  "Go": 10315,
  "ĠTH": 10316,
  "ĠBre": 10318,
  "Ġpurchase": 10319,
  "Ġkun": 10320,
  "ĠMo": 10322,
  "ugar": 10323,
  "AV": 10325,
  "inct": 10327,
  "Ġbath": 10328,
  "Ġhundred": 10329,
  "Ġurl": 10330,
  "Ġreplace": 10331,
  "Ġwouldn": 10334,
  "Ġnotice": 10335,
  "Ġcollege": 10336,
  "eting": 10337,
  "Ġfixed": 10339,
  "ĠFrance": 10341,
  "eren": 10343,
  "DB": 10346,
  "Ġgenerally": 10347,
  "yond": 10350,
  "Ġapplied": 10352,
  "ĠJesus": 10354,
  "Ġhotel": 10355,
  "Ãłi": 10359,
  "atin": 10360,
  "Ġale": 10364,
  "Ġmig": 10365,
  "Ġont": 10367,
  "vas": 10368,
  "omin": 10371,
  "mal": 10374,
  "ĠNa": 10375,
  "Ġvolume": 10377,
  "atalog": 10379,
  "idents": 10380,
  "Ġplanning": 10384,
  "Ġprotein": 10385,
  "ports": 10386,
  "Ġdiff": 10388,
  "atz": 10390,
  "Ã©c": 10391,
  "_IN": 10392,
  "Ġnut": 10393,
  "ĠMem": 10396,
  "issions": 10398,
  "fin": 10399,
  "mg": 10401,
  "ĠCD": 10406,
  "Ġgone": 10407,
  "ĠOR": 10409,
  "ĠBlood": 10410,
  "Ġscience": 10411,
  "Ġappreci": 10413,
  "aron": 10414,
  "edy": 10415,
  "ĠcÃ¡c": 10416,
  "Ġrequirements": 10418,
  "ĠSil": 10419,
  "aga": 10420,
  "Ġfue": 10421,
  "Ġcharacters": 10422,
  "Ġgirls": 10423,
  "ĠSing": 10425,
  "Ġagree": 10426,
  "Ġdetermine": 10427,
  "Ġfactor": 10428,
  "Ġparent": 10431,
  "Ġscient": 10432,
  "UP": 10433,
  "ĠTom": 10435,
  "ĠOpen": 10436,
  "Ġscre": 10439,
  "yz": 10440,
  "Ġbroad": 10442,
  "kom": 10443,
  "iciency": 10444,
  "cal": 10445,
  "Ġearn": 10446,
  "Ġhealthy": 10447,
  "ĠCourt": 10448,
  "Ġlang": 10451,
  "Ġbrain": 10453,
  "ĠGovern": 10454,
  "Ġeinem": 10455,
  "Ġbool": 10456,
  "Ġimpl": 10457,
  "ĠCheck": 10459,
  "Now": 10464,
  "hens": 10466,
  "rate": 10468,
  "Ġhospital": 10469,
  "Ġdistribution": 10471,
  "arts": 10473,
  "ĠEast": 10474,
  "ĠNone": 10478,
  "Action": 10479,
  "Ġrepe": 10481,
  "Ġfant": 10482,
  "ismo": 10484,
  "Ste": 10485,
  "ĠLeg": 10486,
  "Ġment": 10489,
  "lished": 10490,
  "Ġclients": 10491,
  "ĠSpr": 10492,
  "ĠCanada": 10493,
  "Ġepis": 10494,
  "Ġpowerful": 10496,
  "Ġprepar": 10497,
  "Ġtrade": 10498,
  "quid": 10499,
  "ĠPhil": 10500,
  "utive": 10502,
  "ĠTer": 10503,
  "ĠSol": 10504,
  "Ġpresented": 10505,
  "ĠRead": 10508,
  "ĠDec": 10509,
  "Ġprices": 10514,
  "Ġmonitor": 10517,
  "email": 10518,
  "Ġfunctions": 10519,
  "anya": 10523,
  "Ġearlier": 10524,
  "Ġvac": 10525,
  "enz": 10527,
  "Ġstation": 10528,
  "Read": 10531,
  "ĠWhite": 10533,
  "only": 10537,
  "Ġroku": 10543,
  "Ġegy": 10544,
  "unity": 10545,
  "bert": 10546,
  "erk": 10547,
  "Ġwhose": 10548,
  "ellig": 10549,
  "Ġrelative": 10550,
  "ĠAtt": 10551,
  "mar": 10552,
  "Ġfu": 10553,
  "ds": 10561,
  "Client": 10564,
  "etic": 10565,
  "while": 10566,
  "Ġek": 10568,
  "ĠArch": 10569,
  "ĠFrank": 10570,
  "Ġshot": 10571,
  "Ġconsult": 10572,
  "Ġspend": 10573,
  "ologies": 10575,
  "azon": 10576,
  "Ã¼ck": 10577,
  "Ġassum": 10578,
  "Ġspread": 10582,
  "Ġseemed": 10584,
  "ĠEduc": 10588,
  "icial": 10590,
  "Ġvolt": 10592,
  "othes": 10593,
  "ittee": 10597,
  "ĠGreen": 10598,
  "Ġthank": 10599,
  "Ġnur": 10602,
  "Ġtempl": 10604,
  "ĠLou": 10605,
  "long": 10606,
  "ĠFound": 10608,
  "Dis": 10610,
  "icles": 10613,
  "Ġsyn": 10614,
  "Sty": 10616,
  "Ġproduce": 10617,
  "Ġdass": 10620,
  "auf": 10624,
  "imi": 10625,
  "iao": 10626,
  "Ġcore": 10627,
  "Ġpresence": 10628,
  "Ġjoin": 10631,
  "ĠLord": 10632,
  "dt": 10634,
  "Ġhydro": 10635,
  "aven": 10638,
  "Ġexisting": 10639,
  "oro": 10641,
  "Ġdoll": 10645,
  "Ġcasino": 10646,
  "Ġprofession": 10649,
  "HO": 10651,
  "_R": 10653,
  "afe": 10657,
  "Ġstories": 10658,
  "tbody": 10659,
  "ĠMond": 10660,
  "Ġconvers": 10661,
  "Ġscore": 10664,
  "Ġdari": 10666,
  "Ġvent": 10667,
  "Ġgrowing": 10668,
  "Ġandroid": 10670,
  "Ġbeyond": 10671,
  "ashion": 10673,
  "aha": 10674,
  "Ġhaven": 10675,
  "etch": 10677,
  "UG": 10678,
  "got": 10680,
  "MM": 10682,
  "ĠChristmas": 10683,
  "atu": 10685,
  "Ġmac": 10686,
  "ordin": 10691,
  "Point": 10692,
  "Don": 10694,
  "Ġlabor": 10695,
  "Ġcreating": 10696,
  "VID": 10697,
  "Ġprin": 10698,
  "Ġnos": 10699,
  "Ġeinen": 10702,
  "ĠOnline": 10703,
  "Ġtempor": 10704,
  "Ġdisapp": 10706,
  "ĠEin": 10707,
  "ĠDate": 10710,
  "rot": 10714,
  "Ä±nda": 10715,
  "anging": 10716,
  "Ġselection": 10717,
  "Ġloved": 10718,
  "uma": 10719,
  "Query": 10723,
  "Ġspent": 10725,
  "frame": 10728,
  "iri": 10729,
  "Ġkept": 10732,
  "Ġcz": 10733,
  "Ġinvention": 10734,
  "odd": 10735,
  "KE": 10737,
  "Ref": 10741,
  "Ġjest": 10742,
  "Ġextremely": 10744,
  "ĠFlor": 10745,
  "uta": 10746,
  "Ġextends": 10747,
  "TA": 10750,
  "idos": 10752,
  "Ġparameters": 10753,
  "ĠTex": 10754,
  "Ġsua": 10756,
  "_h": 10759,
  "dule": 10760,
  "bel": 10761,
  "ĠChristian": 10763,
  "fficient": 10764,
  "Ġinnov": 10766,
  "ĠLos": 10767,
  "Ġtick": 10769,
  "Layout": 10770,
  "Ġru": 10771,
  "rics": 10773,
  "ooking": 10774,
  "ĠRob": 10775,
  "google": 10779,
  "Ã³l": 10780,
  "Ġrace": 10783,
  "Ġphase": 10786,
  "Ġroz": 10787,
  "context": 10788,
  "Ġlarger": 10789,
  "ĠTur": 10790,
  "py": 10791,
  "doc": 10792,
  "Ġfarm": 10793,
  "ĠHand": 10796,
  "ez": 10797,
  "Ġreasons": 10798,
  "Ġcab": 10799,
  "imb": 10802,
  "ĠParis": 10805,
  "rant": 10806,
  "ĠEuropean": 10808,
  "Ġcertainly": 10809,
  "mb": 10810,
  "Call": 10813,
  "xi": 10814,
  "PA": 10816,
  "IST": 10821,
  "umin": 10823,
  "Ġsession": 10827,
  "care": 10828,
  "aki": 10830,
  "Ġped": 10831,
  "Ã¬nh": 10833,
  "Ġstatement": 10836,
  "amil": 10837,
  "las": 10838,
  "Ġwild": 10839,
  "Ġobserved": 10840,
  "Ġnegative": 10843,
  "lichen": 10844,
  "Ġcomponents": 10845,
  "mitted": 10848,
  "ĠAS": 10851,
  "Ġdra": 10852,
  "Ġtruth": 10853,
  "Ġexpert": 10854,
  "Ġdivers": 10856,
  "Ġsurround": 10857,
  "Ġoptim": 10858,
  "ĠInternet": 10859,
  "Our": 10860,
  "ĠThanks": 10861,
  "ega": 10862,
  "Ġincor": 10863,
  "ĠBig": 10866,
  "awa": 10867,
  "ĠclassName": 10869,
  "ĠAlex": 10870,
  "Ġich": 10871,
  "Ġbil": 10873,
  "ĠHall": 10874,
  "SON": 10876,
  "sv": 10877,
  "page": 10879,
  "True": 10881,
  "Ġtraditional": 10882,
  "CI": 10883,
  "Ġthreat": 10886,
  "Ġvit": 10887,
  "Ġhyp": 10888,
  "Link": 10892,
  "house": 10894,
  "DR": 10895,
  "Ġshoot": 10896,
  "Ġearth": 10897,
  "summary": 10898,
  "Ġnearly": 10901,
  "Ġrout": 10903,
  "ÉĻn": 10904,
  "Ġroot": 10905,
  "Ġeffort": 10907,
  "cular": 10909,
  "pol": 10912,
  "osen": 10913,
  "Ġcommercial": 10917,
  "Äĥm": 10918,
  "Why": 10920,
  "ĠAlthough": 10924,
  "Ġshop": 10927,
  "ugh": 10929,
  "Label": 10932,
  "ĠMiss": 10933,
  "ensions": 10934,
  "Ġpok": 10941,
  "Ġprocessing": 10943,
  "Property": 10944,
  "UI": 10947,
  "ĠOther": 10948,
  "ĠPlay": 10951,
  "Ġplate": 10952,
  "ahl": 10954,
  "ĠMil": 10956,
  "Ġbrother": 10957,
  "ws": 10961,
  "Ġfer": 10962,
  "ĠTor": 10963,
  "cious": 10964,
  "ĉthis": 10966,
  "Te": 10967,
  "Ġappropriate": 10970,
  "Ġfi": 10971,
  "Ġdre": 10972,
  "ellen": 10974,
  "ypes": 10975,
  "áº¿t": 10976,
  "Ġrich": 10977,
  "ĠBank": 10978,
  "Ġtheory": 10979,
  "hentic": 10981,
  "craft": 10982,
  "Ġkitchen": 10984,
  "clusion": 10986,
  "ÅĤo": 10991,
  "ĠSunday": 10995,
  "Ġmovement": 10997,
  "ĠSec": 10998,
  "Ġclosed": 11003,
  "ĠBritish": 11011,
  "war": 11013,
  "ston": 11014,
  "Ġdiss": 11016,
  "ĠIns": 11017,
  "Ġmur": 11022,
  "Check": 11023,
  "Ġlic": 11025,
  "yan": 11026,
  "iento": 11027,
  "ĠMichael": 11028,
  "Ġproduced": 11029,
  "ART": 11030,
  "Ġpush": 11031,
  "ĠOh": 11032,
  "ulate": 11033,
  "oyal": 11035,
  "Ġemployees": 11037,
  "Gener": 11039,
  "Ġoccas": 11040,
  "Ġseeing": 11041,
  "PR": 11042,
  "Ġserve": 11043,
  "Ġknows": 11044,
  "Ġay": 11045,
  "Ġsmart": 11046,
  "Conne": 11047,
  "Ġobj": 11050,
  "Ġcomments": 11051,
  "Ġdied": 11055,
  "Ġwire": 11056,
  "ĠManagement": 11057,
  "ĠText": 11059,
  "Ġtab": 11060,
  "Ġcontroll": 11061,
  "estival": 11062,
  "angle": 11063,
  "enda": 11069,
  "ulture": 11070,
  "rij": 11071,
  "ĠAz": 11076,
  "Ne": 11077,
  "cu": 11078,
  "nost": 11079,
  "gle": 11081,
  "Ġchannel": 11082,
  "Ġadapt": 11083,
  "Ġcommunic": 11084,
  "Ġtrain": 11086,
  "ulations": 11088,
  "ĠUse": 11090,
  "Ġsexual": 11092,
  "Ġbatter": 11095,
  "Start": 11097,
  "Ġunter": 11098,
  "rome": 11099,
  "click": 11100,
  "gal": 11101,
  "names": 11102,
  "Ġkur": 11104,
  "Ġmentioned": 11105,
  "ipping": 11106,
  "anges": 11107,
  "antic": 11109,
  "Ġmouth": 11110,
  "base": 11112,
  "otic": 11113,
  "Ġcart": 11114,
  "mu": 11115,
  "Ġmiles": 11116,
  "Ġaren": 11120,
  "kit": 11122,
  "Ġcritical": 11123,
  "Ġao": 11125,
  "Ġdatabase": 11128,
  "Ġsurg": 11131,
  "ĠWashington": 11134,
  "nej": 11135,
  "ĠSince": 11136,
  "Ġstrategy": 11137,
  "Ġfort": 11138,
  "vs": 11139,
  "ĠMont": 11140,
  "Ġjav": 11141,
  "Ġcaused": 11143,
  "ĠLo": 11144,
  "Ġdetermined": 11147,
  "ĠktÃ³": 11148,
  "aman": 11150,
  "ĠWil": 11151,
  "start": 11152,
  "edding": 11154,
  "Ġopened": 11155,
  "Click": 11157,
  "onna": 11160,
  "ttp": 11162,
  "udio": 11163,
  "win": 11165,
  "Ġrule": 11166,
  "Ġforms": 11167,
  "vet": 11168,
  "Ġnas": 11170,
  "apa": 11173,
  "Ġpou": 11174,
  "End": 11176,
  "ĠSun": 11177,
  "lÄ±": 11178,
  "Ã¡v": 11180,
  "Ġwaiting": 11181,
  "ocr": 11182,
  "agon": 11184,
  "Ġels": 11185,
  "ĠDu": 11186,
  "card": 11188,
  "ĠFacebook": 11189,
  "Ġrequires": 11193,
  "Ġremain": 11197,
  "ĠCong": 11198,
  "Ġsea": 11204,
  "_list": 11210,
  "local": 11211,
  "aden": 11215,
  "press": 11216,
  "reme": 11218,
  "ls": 11221,
  "elen": 11222,
  "rian": 11224,
  "First": 11227,
  "pet": 11229,
  "Ġhusband": 11230,
  "Ġpp": 11233,
  "Ġmole": 11234,
  "ĠaÃ±": 11235,
  "Su": 11238,
  "alo": 11239,
  "lan": 11241,
  "atan": 11242,
  "irk": 11244,
  "Ġecho": 11246,
  "imin": 11249,
  "ĠDesign": 11250,
  "Ã¡g": 11251,
  "Ġpair": 11255,
  "Ġscene": 11256,
  "Ġsociety": 11257,
  "Ġportion": 11258,
  "ERT": 11259,
  "osing": 11260,
  "Ġsust": 11261,
  "Ġattract": 11264,
  "ĠSaturday": 11267,
  "heet": 11269,
  "update": 11272,
  "Ġnamed": 11275,
  "Ġthick": 11276,
  "Ġprotected": 11280,
  "Ġenhancement": 11281,
  "IE": 11283,
  "main": 11284,
  "_RE": 11286,
  "Ġotherwise": 11287,
  "Bar": 11295,
  "YPE": 11296,
  "atically": 11302,
  "Ġphoto": 11304,
  "det": 11309,
  "ĠBay": 11311,
  "_re": 11312,
  "Ġreli": 11316,
  "Ġpartner": 11317,
  "response": 11318,
  "organ": 11319,
  "unit": 11321,
  "Ġmaximum": 11322,
  "Ġweekend": 11324,
  "itors": 11325,
  "Ã¡k": 11329,
  "Ġinstr": 11330,
  "ĠTable": 11331,
  "Ġett": 11332,
  "Ġtesting": 11333,
  "cie": 11335,
  "Stream": 11337,
  "Source": 11338,
  "ributes": 11339,
  "alah": 11340,
  "Ġluck": 11346,
  "Ġharm": 11351,
  "rz": 11355,
  "Ġolder": 11358,
  "uar": 11360,
  "anner": 11363,
  "Ġtests": 11364,
  "_pro": 11365,
  "Are": 11366,
  "IO": 11367,
  "cell": 11369,
  "iko": 11370,
  "Ġfoi": 11371,
  "Ġopening": 11372,
  "blic": 11373,
  "Ġweak": 11375,
  "Ġheavy": 11376,
  "vin": 11378,
  "iser": 11379,
  "Ġeight": 11383,
  "ĠWeight": 11384,
  "ĠCamp": 11385,
  "Ġstrugg": 11386,
  "enden": 11388,
  "anned": 11389,
  "ABLE": 11390,
  "Ġschools": 11394,
  "idae": 11396,
  "Ġfamilies": 11398,
  "olt": 11399,
  "json": 11401,
  "Ġcash": 11403,
  "Ġseu": 11404,
  "esome": 11406,
  "Listener": 11408,
  "ĠSocial": 11410,
  "ĠPower": 11411,
  "Ġslightly": 11413,
  "FO": 11415,
  "van": 11417,
  "bling": 11418,
  "Ġreflect": 11419,
  "enter": 11420,
  "Ġgoals": 11423,
  "Ġessay": 11425,
  "TC": 11426,
  "Entity": 11427,
  "iá»ģ": 11430,
  "ĠBas": 11431,
  "Phone": 11433,
  "Ġpictures": 11434,
  "ĠId": 11436,
  "Ġpeace": 11439,
  "Ġeasier": 11440,
  "ĠAnal": 11441,
  "Ġreports": 11442,
  "Ġthanks": 11446,
  "Ġdaughter": 11447,
  "Ġvisual": 11448,
  "Ġcos": 11449,
  "ĠServices": 11450,
  "Ġsand": 11452,
  "ĠZh": 11453,
  "Ġdoctor": 11454,
  "Ġregarding": 11456,
  "Token": 11458,
  "ĠChurch": 11459,
  "Ġproposed": 11460,
  "ushed": 11461,
  "Co": 11462,
  "otes": 11463,
  "idel": 11464,
  "nych": 11465,
  "Ġcampaign": 11467,
  "Ġjug": 11468,
  "Ġclearly": 11469,
  "ĠAnn": 11470,
  "obj": 11471,
  "oding": 11473,
  "ĠStar": 11475,
  "Control": 11476,
  "Util": 11478,
  "obs": 11479,
  "Yes": 11480,
  "Ġpaint": 11481,
  "ĠMany": 11483,
  "Ġdeli": 11484,
  "ĠBa": 11487,
  "ĠDiv": 11492,
  "ONT": 11498,
  "riage": 11499,
  "Ġbenefit": 11500,
  "Ġsources": 11503,
  "oir": 11506,
  "emy": 11507,
  "lies": 11508,
  "ĠTO": 11511,
  "Ġsau": 11512,
  "Ġul": 11514,
  "imer": 11516,
  "Off": 11517,
  "Ret": 11519,
  "Ġpill": 11520,
  "ĠPC": 11521,
  "iang": 11523,
  "ĠSpe": 11524,
  "Ġprocesses": 11528,
  "Ġcamera": 11529,
  "ÃŃs": 11531,
  "empor": 11532,
  "ALL": 11533,
  "ĠUnder": 11535,
  "eral": 11536,
  "ĠPet": 11542,
  "Ġdalam": 11543,
  "Ġrare": 11544,
  "Ġperhaps": 11545,
  "Ġsan": 11546,
  "AND": 11547,
  "_v": 11548,
  "FL": 11551,
  "Ġadvantage": 11552,
  "Ġwonderful": 11554,
  "igin": 11556,
  "Ġnovel": 11557,
  "ĠUser": 11559,
  "ĠJo": 11561,
  "rical": 11562,
  "Ġdys": 11565,
  "group": 11566,
  "rypt": 11569,
  "Ġestablished": 11571,
  "vor": 11573,
  "Select": 11574,
  "Ġwear": 11576,
  "Ġsynt": 11578,
  "num": 11579,
  "Ġcel": 11582,
  "Ġaj": 11583,
  "Ġring": 11584,
  "Ġadvice": 11585,
  "ĠEngland": 11586,
  "Ġsweet": 11588,
  "NO": 11589,
  "ptr": 11590,
  "ME": 11591,
  "bet": 11592,
  "ĠNov": 11596,
  "Ġfinished": 11598,
  "Ã¡z": 11600,
  "ĠClub": 11601,
  "Ġresol": 11604,
  "Ġdont": 11605,
  "ĠSy": 11609,
  "Ġchurch": 11611,
  "iert": 11613,
  "Ġdesc": 11614,
  "ĠMary": 11615,
  "Ġbudget": 11616,
  "Ġplaced": 11617,
  "Ãłn": 11619,
  "Ġrank": 11620,
  "rich": 11621,
  "UB": 11623,
  "Ġgift": 11629,
  "bro": 11630,
  "adt": 11631,
  "upport": 11632,
  "ija": 11633,
  "Ġprepared": 11634,
  "_to": 11635,
  "iform": 11636,
  "Ġteams": 11637,
  "ĠWho": 11638,
  "Ġclasses": 11639,
  "Ġviews": 11640,
  "ĠWed": 11641,
  "Ġshared": 11642,
  "Ġmodule": 11643,
  "ĠPerson": 11647,
  "Eng": 11648,
  "eless": 11649,
  "Ġedge": 11650,
  "oti": 11652,
  "Ġhabit": 11653,
  "ĠEngine": 11654,
  "Ġdriver": 11656,
  "Ġboolean": 11657,
  "acional": 11661,
  "Ġshowing": 11662,
  "Ġkid": 11663,
  "Ġsusp": 11665,
  "jection": 11667,
  "arc": 11668,
  "Ġdriving": 11669,
  "Ġnuc": 11670,
  "ĠMen": 11672,
  "Ġprotection": 11674,
  "Ġpackage": 11678,
  "Ġdit": 11679,
  "Ġdress": 11682,
  "Ġcorpor": 11683,
  "Web": 11685,
  "Ġker": 11686,
  "Ġbuff": 11687,
  "Ġpool": 11691,
  "Ġkil": 11695,
  "Part": 11697,
  "related": 11698,
  "ategories": 11699,
  "Ġfear": 11700,
  "aÃ§Ã£o": 11701,
  "Ġformed": 11702,
  "ĠMer": 11703,
  "Ġsport": 11704,
  "wy": 11710,
  "del": 11713,
  "eah": 11715,
  "Ġexpand": 11716,
  "Ġactions": 11717,
  "aire": 11718,
  "Back": 11720,
  "uen": 11723,
  "Ġtar": 11724,
  "ĉfor": 11726,
  "Ġdelivery": 11728,
  "meta": 11730,
  "ĠFrench": 11732,
  "Ġincome": 11733,
  "ooth": 11734,
  "Ġgain": 11736,
  "Ġresponsible": 11738,
  "Ġbow": 11739,
  "Ġcompris": 11740,
  "ĠDev": 11742,
  "FC": 11743,
  "Ġhighest": 11744,
  "Ġtoward": 11745,
  "Ġlen": 11748,
  "Ä±m": 11749,
  "ĠAustralia": 11750,
  "nik": 11753,
  "Ġonto": 11754,
  "vider": 11758,
  "angan": 11759,
  "fs": 11762,
  "Ġsympt": 11765,
  "Ġtruly": 11767,
  "Ġrapid": 11768,
  "Ġrelevant": 11773,
  "holder": 11776,
  "author": 11778,
  "Ġcompos": 11779,
  "Ġresource": 11780,
  "ifer": 11783,
  "Ġweather": 11785,
  "fast": 11786,
  "Ġequal": 11787,
  "owa": 11788,
  "Ġfans": 11789,
  "ugin": 11790,
  "ĠGal": 11791,
  "entes": 11792,
  "_H": 11793,
  "adius": 11796,
  "iliar": 11797,
  "Ã¤ng": 11800,
  "ĠON": 11801,
  "ĠProject": 11803,
  "ski": 11804,
  "jon": 11805,
  "isen": 11809,
  "Ġraised": 11812,
  "atabase": 11813,
  "ĠMel": 11814,
  "Method": 11815,
  "Ġgest": 11817,
  "Ġjobs": 11818,
  "Ġdanger": 11819,
  "Ġcin": 11820,
  "oval": 11821,
  "Ġmg": 11822,
  "Ġexception": 11823,
  "ById": 11825,
  "Ġfields": 11826,
  "Ġcapacity": 11828,
  "Ġowner": 11829,
  "pc": 11830,
  "ĠVir": 11832,
  "close": 11835,
  "urer": 11836,
  "Ġclinical": 11837,
  "Ġstick": 11838,
  "ĠMot": 11839,
  "Handler": 11842,
  "Ġideal": 11843,
  "Last": 11844,
  "ANT": 11845,
  "Ġprofile": 11847,
  "Ġcovered": 11849,
  "ignment": 11850,
  "Ã©ho": 11851,
  "Ġpag": 11853,
  "ĠHen": 11854,
  "osc": 11855,
  "ĠQue": 11856,
  "ingu": 11865,
  "Ġcoff": 11866,
  "Here": 11868,
  "obe": 11870,
  "Ġtechniques": 11871,
  "ĠMain": 11872,
  "Ġfunc": 11873,
  "Ġbalance": 11875,
  "orter": 11876,
  "lag": 11878,
  "output": 11880,
  "owie": 11881,
  "ĠRock": 11882,
  "Title": 11884,
  "bin": 11885,
  "Ġhappens": 11886,
  "Ġposted": 11887,
  "ĠDa": 11888,
  "Ġradio": 11891,
  "ĠMonday": 11893,
  "rowser": 11894,
  "uted": 11896,
  "Ġgel": 11898,
  "icious": 11899,
  "ĠFile": 11900,
  "Ġmedicine": 11907,
  "Ġregist": 11909,
  "Ġdream": 11910,
  "km": 11911,
  "root": 11912,
  "RL": 11914,
  "Ġdecor": 11915,
  "Ġlearned": 11916,
  "Ġwhatever": 11918,
  "Ġscript": 11919,
  "Ġmine": 11921,
  "ĠAL": 11922,
  "Ġinfluence": 11923,
  "utely": 11925,
  "duction": 11930,
  "Ġfemale": 11936,
  "ĠsÃ¥": 11938,
  "Ġseven": 11943,
  "ĠFore": 11944,
  "Ġfinding": 11947,
  "Ġlu": 11948,
  "ĠCH": 11952,
  "Ġvirtual": 11953,
  "Ġsac": 11954,
  "PM": 11955,
  "Ġsein": 11957,
  "Ġchallenge": 11958,
  "bur": 11959,
  "Ġopportunities": 11960,
  "Ġinvestment": 11961,
  "ĠMake": 11963,
  "Ġillustr": 11968,
  "Ġtod": 11970,
  "uda": 11973,
  "SA": 11974,
  "Ġbecomes": 11978,
  "Ġlots": 11979,
  "Ġfav": 11983,
  "ĠPeople": 11984,
  "Ġexercise": 11985,
  "Ġcivil": 11986,
  "aciÃ³": 11987,
  "Ġopinion": 11989,
  "Ġsist": 11990,
  "Ġpada": 11991,
  "uate": 11992,
  "Ġtrav": 11994,
  "Ġmilitary": 11996,
  "CN": 11998,
  "Ġoffered": 12000,
  "FT": 12001,
  "Ġmental": 12003,
  "Ġlargest": 12004,
  "ĠReal": 12006,
  "ĠAus": 12007,
  "ossible": 12008,
  "Ġfish": 12010,
  "fit": 12011,
  "Ġcontinued": 12012,
  "Instance": 12013,
  "agra": 12014,
  "Ġinterpret": 12016,
  "Ġmedium": 12017,
  "nu": 12018,
  "igo": 12019,
  "stances": 12021,
  "standing": 12026,
  "ĠIsra": 12031,
  "ĠnÃ£o": 12032,
  "Ġrelax": 12033,
  "Ġreturned": 12035,
  "ĠHa": 12036,
  "dir": 12038,
  "Ġmir": 12042,
  "ĠOk": 12043,
  "Ġtopic": 12045,
  "ipp": 12047,
  "DP": 12048,
  "ĠMax": 12051,
  "ĠBack": 12058,
  "Ġcentury": 12059,
  "Ġestablish": 12060,
  "Ġcombination": 12061,
  "Ġupper": 12062,
  "ESS": 12063,
  "ĠBecause": 12065,
  "stream": 12067,
  "Ä±nÄ±": 12069,
  "Ġsports": 12070,
  "Well": 12071,
  "Ġconven": 12075,
  "Base": 12077,
  "Ġmeant": 12079,
  "ĠElect": 12080,
  "count": 12081,
  "ĠJahr": 12082,
  "Æ°á»Ŀi": 12083,
  "Ġoperations": 12084,
  "Ġole": 12085,
  "rod": 12086,
  "ĠAssociation": 12087,
  "Ġcompleted": 12089,
  "aciones": 12090,
  "Ġsignificantly": 12094,
  "Ġbreath": 12096,
  "Ġsuddenly": 12098,
  "Just": 12100,
  "ĠGi": 12102,
  "Ġcomfortable": 12103,
  "Ġappears": 12104,
  "Ġfoll": 12106,
  "ĠPen": 12108,
  "here": 12109,
  "Ġvy": 12110,
  "FFFF": 12112,
  "mann": 12113,
  "ĠRoad": 12115,
  "Ġthoughts": 12116,
  "Ġcollabor": 12117,
  "Ġmenu": 12118,
  "Ġahead": 12121,
  "Ġpolic": 12122,
  "ket": 12123,
  "Ġdisp": 12124,
  "ĠIndian": 12125,
  "uli": 12126,
  "break": 12127,
  "Ġkill": 12128,
  "ĠOffice": 12129,
  "ROM": 12130,
  "aching": 12133,
  "opyright": 12134,
  "ĠUN": 12135,
  "Ġfaith": 12136,
  "ĠISBN": 12137,
  "ĠIT": 12139,
  "Ġcra": 12140,
  "unning": 12148,
  "Ã¼hr": 12149,
  "ativ": 12151,
  "usi": 12152,
  "_W": 12153,
  "chi": 12154,
  "byte": 12155,
  "space": 12157,
  "ĠGame": 12158,
  "Äħc": 12165,
  "Ġindependent": 12168,
  "Ġgran": 12169,
  "Ġhier": 12171,
  "Ġban": 12175,
  "venue": 12176,
  "ĠMass": 12178,
  "Ġbat": 12179,
  "BO": 12180,
  "yg": 12181,
  "CM": 12182,
  "Ġtum": 12183,
  "eni": 12184,
  "Ġfinish": 12185,
  "ĠsÃ©": 12187,
  "ifi": 12189,
  "Ġmanager": 12190,
  "ĠInstitute": 12192,
  "Ġreduced": 12194,
  "ĠTexas": 12196,
  "ĠOl": 12202,
  "Ġgal": 12203,
  "PT": 12204,
  "find": 12205,
  "acht": 12206,
  "atural": 12208,
  "SD": 12210,
  "itud": 12211,
  "Ġplants": 12212,
  "ĠPhys": 12213,
  "Ġseparate": 12214,
  "ĠCare": 12215,
  "Ġvideos": 12216,
  "ĠGeorge": 12219,
  "However": 12221,
  "ĠCas": 12222,
  "Ġsono": 12223,
  "Ġauth": 12227,
  "oor": 12229,
  "Ġunf": 12230,
  "Ġefficient": 12231,
  "Ġpent": 12232,
  "Ġdedic": 12233,
  "Ġbought": 12234,
  "Ġconvert": 12235,
  "Ġhur": 12239,
  "words": 12241,
  "ĠmÃ¡": 12242,
  "Ġprze": 12244,
  "ĠType": 12245,
  "Some": 12246,
  "even": 12248,
  "Ġappoint": 12250,
  "amed": 12251,
  "Ġdepos": 12253,
  "Ġrespectively": 12255,
  "ĠWhe": 12256,
  "nis": 12257,
  "Ġkr": 12258,
  "Ġexhib": 12259,
  "ului": 12263,
  "ORT": 12266,
  "Ġreturns": 12268,
  "Ġcloud": 12269,
  "IX": 12271,
  "ĠChild": 12272,
  "Ã¡ch": 12273,
  "uty": 12277,
  "amos": 12278,
  "Ġreaction": 12279,
  "Ġox": 12281,
  "ĠInformation": 12286,
  "lia": 12290,
  "ims": 12293,
  "Ġfell": 12294,
  "Ġraise": 12295,
  "ĠTwo": 12300,
  "ĠBoard": 12303,
  "ĠkhÃ´ng": 12304,
  "amer": 12306,
  "Ġsmaller": 12307,
  "Pol": 12308,
  "lad": 12309,
  "Ġhelped": 12311,
  "Ġmission": 12314,
  "Ġprincipal": 12317,
  "Ġsets": 12318,
  "Ġspring": 12324,
  "idi": 12325,
  "osoph": 12326,
  "DD": 12328,
  "ĠSi": 12329,
  "Ġrender": 12331,
  "aked": 12332,
  "_size": 12334,
  "ortunately": 12335,
  "Ġcarbon": 12336,
  "urb": 12337,
  "lets": 12338,
  "Ġfailed": 12339,
  "ĠÃ©tÃ©": 12340,
  "ĠChen": 12351,
  "ancer": 12353,
  "Ġwatching": 12354,
  "Ġphen": 12355,
  "md": 12358,
  "Builder": 12360,
  "have": 12361,
  "Ġger": 12362,
  "Ġrub": 12363,
  "ĠpiÃ¹": 12364,
  "ASS": 12365,
  "ĠVi": 12366,
  "Ġuint": 12368,
  "ĠRad": 12373,
  "cohol": 12374,
  "items": 12376,
  "show": 12377,
  "ĠSon": 12379,
  "ursday": 12384,
  "ĠVis": 12385,
  "column": 12391,
  "Ã«r": 12392,
  "uint": 12393,
  "quot": 12394,
  "Ġvá»Ľi": 12395,
  "Ġship": 12396,
  "onym": 12397,
  "Ġreached": 12398,
  "ĠLike": 12399,
  "bag": 12400,
  "Ġdirector": 12402,
  "ĠStand": 12404,
  "river": 12406,
  "Ġwid": 12407,
  "server": 12411,
  "Ġargument": 12413,
  "ipped": 12414,
  "istan": 12415,
  "Ã¼nd": 12416,
  "Ġesp": 12417,
  "ĠPlan": 12418,
  "Ġapproxim": 12422,
  "Ġai": 12423,
  "Ġadvert": 12424,
  "ĠIII": 12427,
  "ĠExt": 12428,
  "hy": 12429,
  "aja": 12431,
  "ĠLove": 12432,
  "Ġrestrict": 12433,
  "ĠLear": 12434,
  "ĠRiver": 12435,
  "Ġsmile": 12436,
  "nek": 12440,
  "water": 12442,
  "edi": 12444,
  "Ġhonest": 12449,
  "Ġbattle": 12450,
  "Ġreality": 12451,
  "rees": 12452,
  "itial": 12457,
  "anal": 12460,
  "odies": 12461,
  "Ġtrial": 12462,
  "fection": 12467,
  "Ġdeux": 12468,
  "embly": 12470,
  "ĠKn": 12471,
  "Ġterrit": 12472,
  "msg": 12473,
  "Ġapart": 12474,
  "Ġagent": 12476,
  "These": 12477,
  "Char": 12478,
  "Ġappeared": 12479,
  "ĠRepublic": 12480,
  "uesday": 12481,
  "ĠBill": 12482,
  "ĠColor": 12485,
  "ULT": 12486,
  "Ġdelle": 12487,
  "scrib": 12488,
  "Ġyn": 12490,
  "friend": 12491,
  "Ġtrou": 12492,
  "ĠEach": 12493,
  "Ã§Ãµes": 12495,
  "Ġlinks": 12500,
  "perties": 12502,
  "after": 12503,
  "ĠIr": 12505,
  "Hel": 12506,
  "Ġgeneration": 12507,
  "ĠSoft": 12508,
  "imple": 12512,
  "orte": 12516,
  "Ġingred": 12517,
  "Ġran": 12518,
  "Oh": 12520,
  "Ġcards": 12521,
  "asp": 12522,
  "Ġacadem": 12527,
  "Ġdrugs": 12528,
  "Ġsoul": 12529,
  "asis": 12530,
  "ĠCouncil": 12531,
  "ĠEducation": 12532,
  "Ġworry": 12534,
  "Ġexperienced": 12535,
  "azz": 12543,
  "chedul": 12544,
  "gent": 12546,
  "Ġcalls": 12550,
  "ĠRom": 12553,
  "styles": 12558,
  "ĠDevelopment": 12559,
  "ĠMex": 12560,
  "ĠOper": 12562,
  "Ġbusinesses": 12563,
  "Ġjump": 12565,
  "liche": 12567,
  "apat": 12571,
  "ĠMusic": 12572,
  "Ġpure": 12573,
  "Ġflat": 12574,
  "Ġdiam": 12575,
  "pu": 12576,
  "iffer": 12577,
  "hetic": 12578,
  "essa": 12583,
  "ĠObject": 12585,
  "ĠOrgan": 12586,
  "orms": 12587,
  "Ġremoved": 12588,
  "ĠRobert": 12590,
  "ĠGrand": 12591,
  "LC": 12593,
  "eph": 12595,
  "reek": 12598,
  "anted": 12600,
  "Ġtransition": 12602,
  "ository": 12603,
  "ĠSmith": 12605,
  "isher": 12608,
  "ifications": 12609,
  "Ã¥n": 12610,
  "Ġking": 12611,
  "Ġunits": 12612,
  "ĠNav": 12613,
  "Ġquiet": 12614,
  "Ġbond": 12616,
  "Ġty": 12621,
  "Ġconstant": 12622,
  "Ġanimals": 12623,
  "ailed": 12624,
  "Ġminimum": 12625,
  "Ãłnh": 12626,
  "Ġsettings": 12628,
  "Ġdiscussion": 12629,
  "ĠMuse": 12630,
  "going": 12631,
  "Ġannual": 12633,
  "_V": 12634,
  "wide": 12636,
  "MT": 12639,
  "lean": 12645,
  "aken": 12647,
  "ikt": 12649,
  "Ġidentify": 12651,
  "Ġoccup": 12652,
  "ipe": 12653,
  "Ġstreet": 12654,
  "ĠPeter": 12655,
  "ĠWater": 12657,
  "Ġcommit": 12659,
  "Ġrev": 12662,
  "Ġunless": 12664,
  "Ġhers": 12667,
  "Ġextract": 12670,
  "Ġpreviously": 12673,
  "Ġstim": 12674,
  "Style": 12675,
  "imento": 12676,
  "Ġhá»į": 12677,
  "ĠAp": 12678,
  "Ġspr": 12683,
  "Ġleader": 12690,
  "ĠFind": 12691,
  "Ġforeign": 12692,
  "utter": 12694,
  "Ġlig": 12696,
  "Ġtips": 12697,
  "Ġentr": 12698,
  "ĠKar": 12700,
  "Ġbij": 12702,
  "etime": 12705,
  "Ġshift": 12710,
  "ĠStart": 12711,
  "Ġannounced": 12714,
  "ooks": 12716,
  "ĠYes": 12717,
  "Ã¶l": 12722,
  "Ġelectro": 12723,
  "Ã¼k": 12724,
  "riev": 12729,
  "Rem": 12731,
  "Ġcomme": 12733,
  "Ġwet": 12737,
  "ĠCA": 12740,
  "Vis": 12741,
  "Ġmol": 12743,
  "Update": 12747,
  "isms": 12750,
  "nesday": 12753,
  "ikk": 12754,
  "Ġchi": 12755,
  "Ġnaj": 12756,
  "issa": 12757,
  "AGE": 12759,
  "Ġpanel": 12760,
  "URL": 12762,
  "_G": 12763,
  "ĠCall": 12764,
  "Ġempty": 12765,
  "Ġdoubt": 12766,
  "ells": 12768,
  "Ġjun": 12770,
  "rak": 12771,
  "Ġsamples": 12776,
  "ĠPs": 12779,
  "Ġafford": 12781,
  "inh": 12782,
  "ĠBur": 12784,
  "Ġhij": 12786,
  "ructions": 12789,
  "isco": 12791,
  "Ġcarried": 12792,
  "uten": 12793,
  "Ġmotiv": 12794,
  "rawing": 12797,
  "Ġlaws": 12801,
  "ĠProduct": 12803,
  "ycl": 12804,
  "endant": 12806,
  "ipes": 12807,
  "Ġpil": 12808,
  "AX": 12809,
  "udd": 12810,
  "container": 12812,
  "ĠPR": 12815,
  "ĠCast": 12816,
  "Ġupdated": 12819,
  "null": 12820,
  "style": 12821,
  "Ġpayment": 12822,
  "Ġbright": 12823,
  "Ġtherm": 12824,
  "Let": 12825,
  "asket": 12826,
  "isters": 12828,
  "Ġintr": 12829,
  "Ġartist": 12833,
  "first": 12834,
  "agy": 12835,
  "Ġeating": 12836,
  "ĠWilliam": 12839,
  "zd": 12840,
  "abilities": 12841,
  "Ġobserv": 12843,
  "Ġquery": 12846,
  "Ġlibrary": 12848,
  "Ġfailure": 12849,
  "background": 12850,
  "ĠShow": 12854,
  "ĠDas": 12855,
  "tenance": 12856,
  "Ġicon": 12862,
  "Ġstre": 12863,
  "riz": 12865,
  "undo": 12866,
  "itness": 12867,
  "omy": 12870,
  "Posted": 12871,
  "Ġposts": 12872,
  "Ġeta": 12873,
  "Ġvariable": 12874,
  "Ġchemical": 12875,
  "Ġleaving": 12879,
  "ograf": 12880,
  "Ġfel": 12882,
  "Ġyes": 12883,
  "áº§n": 12884,
  "HER": 12885,
  "prise": 12887,
  "ampions": 12889,
  "ented": 12890,
  "Ġice": 12891,
  "Ġtan": 12892,
  "Work": 12895,
  "alf": 12896,
  "Ġrid": 12897,
  "HA": 12899,
  "ieder": 12900,
  "Ġexperiences": 12901,
  "cipl": 12902,
  "Ġexchange": 12903,
  "Ġalgorith": 12904,
  "VD": 12906,
  "Ġcheap": 12907,
  "Ġalternative": 12908,
  "icing": 12909,
  "ĠAfrica": 12911,
  "_ST": 12913,
  "Na": 12914,
  "vy": 12915,
  "Ġcoffee": 12918,
  "Ġjournal": 12919,
  "Ġconstit": 12920,
  "ishes": 12921,
  "Ġpieces": 12926,
  "actor": 12927,
  "Ġmanage": 12929,
  "ĠHistory": 12930,
  "Top": 12932,
  "aming": 12933,
  "Ġdifferences": 12935,
  "clusive": 12936,
  "Exp": 12938,
  "Ġoperating": 12939,
  "about": 12940,
  "Ġrelationships": 12941,
  "ĠMaster": 12943,
  "ĠName": 12944,
  "Ġhun": 12945,
  "ĠOil": 12947,
  "info": 12948,
  "ponents": 12950,
  "ĠCbd": 12951,
  "Ġtel": 12952,
  "Ã³d": 12953,
  "ettings": 12954,
  "Ġpurs": 12955,
  "SO": 12956,
  "ints": 12957,
  "Ġexplain": 12960,
  "anna": 12961,
  "Ġwilling": 12963,
  "Ġfurn": 12968,
  "aro": 12969,
  "ITY": 12972,
  "ĠCON": 12973,
  "Ġremains": 12975,
  "Ġmanner": 12976,
  "ahr": 12979,
  "akers": 12984,
  "Ġteaching": 12985,
  "Ġprime": 12986,
  "IZE": 12990,
  "Ġguar": 12991,
  "stein": 12994,
  "eur": 12995,
  "ĠMit": 12996,
  "ĠAR": 12999,
  "Ġsolo": 13000,
  "Ġminute": 13001,
  "Ġsounds": 13003,
  "ĠMedic": 13006,
  "Mat": 13007,
  "Ġinner": 13009,
  "ursor": 13012,
  "Ġfuck": 13013,
  "Ġjoint": 13014,
  "ĠKon": 13017,
  "Ġconsequ": 13018,
  "Ġwaste": 13020,
  "Ġworkers": 13021,
  "Next": 13023,
  "ĠIll": 13024,
  "Ġdomin": 13027,
  "Ġentertain": 13028,
  "Ġved": 13030,
  "Ġaward": 13034,
  "Ġsteel": 13035,
  "Ġmask": 13037,
  "Ġmissing": 13043,
  "Ġrecords": 13044,
  "Ġliquid": 13048,
  "ĠMount": 13050,
  "Ġcs": 13051,
  "Ġteacher": 13053,
  "Ġinde": 13054,
  "Ġgather": 13055,
  "Ġarchitect": 13060,
  "INE": 13062,
  "Ġanx": 13063,
  "ĉf": 13065,
  "Ġakt": 13066,
  "ĠCentral": 13068,
  "rog": 13069,
  "cn": 13071,
  "Ġhelpful": 13073,
  "ĠFOR": 13074,
  "Ã¡d": 13075,
  "kar": 13076,
  "Ġshock": 13077,
  "volution": 13078,
  "Ġsad": 13079,
  "begin": 13082,
  "ĉint": 13083,
  "Ġforget": 13084,
  "ĠThomas": 13085,
  "Ġnp": 13086,
  "ĠCard": 13087,
  "ection": 13088,
  "Ġratio": 13089,
  "endar": 13090,
  "Ġexternal": 13091,
  "ĠJew": 13092,
  "Ġchat": 13093,
  "ultural": 13094,
  "edom": 13097,
  "crete": 13098,
  "Load": 13100,
  "Ġcircum": 13102,
  "Ġmere": 13104,
  "build": 13105,
  "inin": 13108,
  "ĠngÆ°á»Ŀi": 13112,
  "TV": 13113,
  "home": 13114,
  "vat": 13115,
  "ĠAcadem": 13117,
  "kre": 13121,
  "Ġnoch": 13123,
  "May": 13125,
  "urrency": 13126,
  "Ġpregn": 13129,
  "enta": 13130,
  "Ġvom": 13131,
  "ĠCBD": 13133,
  "ĠSociety": 13135,
  "ĠFire": 13136,
  "params": 13137,
  "Ġpoll": 13138,
  "Any": 13140,
  "Ġvous": 13141,
  "ĠKom": 13143,
  "will": 13145,
  "Ġkann": 13146,
  "grade": 13147,
  "Ġtherapy": 13149,
  "Ġmarried": 13150,
  "ensor": 13151,
  "Ġyield": 13152,
  "Ġstopped": 13153,
  "Ġexamples": 13155,
  "Ġcontra": 13156,
  "Å¼y": 13158,
  "Ġtechnical": 13159,
  "ategor": 13160,
  "Ġarticles": 13162,
  "Ġnan": 13163,
  "Sl": 13165,
  "Ġfuel": 13167,
  "thumb": 13168,
  "stal": 13169,
  "ĠOnce": 13171,
  "Ġimportance": 13172,
  "ĠPan": 13175,
  "Ġeg": 13177,
  "Url": 13178,
  "Ġcauses": 13180,
  "Ġslot": 13181,
  "racy": 13182,
  "Ġsister": 13184,
  "Menu": 13186,
  "Net": 13187,
  "Ġfollows": 13188,
  "Ġfrequency": 13189,
  "Ġfootball": 13190,
  "Ġholding": 13192,
  "Ġei": 13194,
  "Column": 13195,
  "ÅĤy": 13197,
  "Create": 13199,
  "oa": 13200,
  "Ġefforts": 13201,
  "SC": 13202,
  "Product": 13205,
  "Ġsky": 13207,
  "Ġisol": 13209,
  "inner": 13210,
  "rican": 13211,
  "Ã¼t": 13212,
  "ikip": 13213,
  "iture": 13216,
  "estic": 13217,
  "esterday": 13218,
  "pass": 13225,
  "gel": 13226,
  "ĠThank": 13231,
  "uzz": 13234,
  "ctors": 13238,
  "uls": 13240,
  "ĠFood": 13241,
  "Ġidentified": 13242,
  "ĠModel": 13245,
  "cr": 13248,
  "Ġcompre": 13252,
  "Ġphil": 13254,
  "Ġwalking": 13255,
  "wei": 13256,
  "Ġsupported": 13257,
  "Ġformation": 13258,
  "Ġchanging": 13259,
  "icago": 13260,
  "ĠiÃ§": 13263,
  "inos": 13265,
  "Ġmedication": 13266,
  "Ġbelong": 13267,
  "Ġoffering": 13268,
  "bf": 13270,
  "ĠOld": 13271,
  "Ġliv": 13274,
  "ĠMicrosoft": 13276,
  "itet": 13277,
  "Ext": 13278,
  "ingen": 13279,
  "xe": 13280,
  "While": 13282,
  "cks": 13284,
  "eria": 13286,
  "Ġnap": 13287,
  "bra": 13289,
  "Ġchallenges": 13290,
  "Ã©k": 13291,
  "Ġiron": 13292,
  "Ġlisten": 13293,
  "eh": 13300,
  "PD": 13301,
  "Ġpenis": 13302,
  "Ġinsert": 13304,
  "Ġanimal": 13307,
  "scale": 13309,
  "Ġorient": 13312,
  "ĠEconom": 13313,
  "options": 13315,
  "ethyl": 13316,
  "Ġjourney": 13318,
  "iveness": 13322,
  "Ġlag": 13326,
  "Ġdepart": 13327,
  "Ġrain": 13329,
  "orb": 13330,
  "Ġkont": 13331,
  "GE": 13333,
  "ĠFIG": 13335,
  "Ġdb": 13336,
  "Ġodd": 13337,
  "Ġwww": 13338,
  "Ġcant": 13344,
  "Ġsector": 13345,
  "ĠvÃ½": 13346,
  "Ġroute": 13347,
  "ĠIts": 13350,
  "Ġinhib": 13351,
  "uation": 13354,
  "ĠDoes": 13355,
  "nic": 13356,
  "Ġdeveloping": 13358,
  "ĠMill": 13361,
  "Ġstarts": 13362,
  "Ġincorpor": 13364,
  "osh": 13365,
  "Ġpued": 13366,
  "ouch": 13367,
  "idades": 13368,
  "roud": 13370,
  "Ġcorner": 13371,
  "Ġmad": 13374,
  "Gl": 13375,
  "Ã¶s": 13376,
  "Ġsmooth": 13378,
  "Ġbtn": 13379,
  "icians": 13381,
  "Ġwalked": 13382,
  "Child": 13383,
  "Ġgre": 13389,
  "cipe": 13390,
  "Ġcategory": 13391,
  "netic": 13392,
  "Ġlaugh": 13394,
  "Ġobjects": 13396,
  "iqu": 13398,
  "ĠEN": 13399,
  "Ġlisted": 13400,
  "Ġadding": 13403,
  "ifest": 13404,
  "emon": 13405,
  "Ġruns": 13406,
  "Ġgy": 13410,
  "Ġoh": 13411,
  "door": 13412,
  "Ġkam": 13413,
  "Ġoc": 13414,
  "aws": 13416,
  "Ġdop": 13417,
  "asse": 13418,
  "Ġguard": 13419,
  "ĠTour": 13421,
  "parse": 13422,
  "ciples": 13423,
  "Ġincred": 13424,
  "ĠChinese": 13425,
  "oder": 13426,
  "Ġdecide": 13431,
  "Ġquarter": 13432,
  "Ġtent": 13435,
  "Ġfly": 13436,
  "oga": 13437,
  "Ġcircuit": 13438,
  "enti": 13443,
  "Ġlui": 13445,
  "Ġweap": 13446,
  "Ġcro": 13448,
  "Br": 13449,
  "Ġjavax": 13451,
  "Ġminor": 13453,
  "Ġmajority": 13455,
  "ustomer": 13456,
  "atre": 13458,
  "ĠTim": 13459,
  "Ġsouth": 13460,
  "Ã©p": 13461,
  "áº§u": 13462,
  "ĠLeague": 13463,
  "Output": 13465,
  "zel": 13466,
  "OV": 13470,
  "ĠSign": 13473,
  "Ġtemplate": 13474,
  "otype": 13476,
  "ĉprivate": 13477,
  "ĠTherefore": 13478,
  "DC": 13480,
  "Ġatm": 13481,
  "Ġadvance": 13486,
  "rior": 13488,
  "Attribute": 13491,
  "Ġserved": 13492,
  "egen": 13493,
  "RI": 13497,
  "Ġfo": 13499,
  "ĠSaint": 13500,
  "lee": 13502,
  "ĠWal": 13503,
  "Ġstri": 13504,
  "Med": 13506,
  "env": 13507,
  "Open": 13508,
  "Ġaware": 13510,
  "Ġpin": 13513,
  "ĠJun": 13514,
  "nel": 13515,
  "Ġnou": 13516,
  "Ġtemp": 13519,
  "ĠLoss": 13522,
  "yy": 13523,
  "Ġneighbor": 13527,
  "ĠlÃ¤": 13528,
  "nergy": 13529,
  "IGN": 13530,
  "opp": 13533,
  "Ġexcited": 13534,
  "Ġdysfunction": 13535,
  "ĠGar": 13536,
  "ĠCode": 13538,
  "Ge": 13539,
  "Ġgenerated": 13540,
  "conf": 13542,
  "_set": 13544,
  "Ġhelping": 13545,
  "Ġcorresponding": 13546,
  "Your": 13547,
  "Ġpad": 13549,
  "âĢľI": 13550,
  "adata": 13557,
  "ragon": 13558,
  "ragment": 13559,
  "ĠStat": 13560,
  "Ġkilled": 13563,
  "Ġtraffic": 13564,
  "ĠLink": 13565,
  "Ġagreement": 13566,
  "current": 13568,
  "Ġseconds": 13569,
  "Ġgew": 13570,
  "oda": 13572,
  "Ġfashion": 13573,
  "ĠVan": 13574,
  "Home": 13576,
  "Ġig": 13581,
  "zet": 13582,
  "Ġevening": 13586,
  "mathrm": 13587,
  "ĠCross": 13588,
  "iego": 13589,
  "Ġhogy": 13590,
  "gb": 13591,
  "unte": 13595,
  "Ġkas": 13596,
  "ĠAmazon": 13599,
  "Default": 13600,
  "aca": 13602,
  "Ġanche": 13603,
  "ĠWomen": 13604,
  "remove": 13605,
  "oca": 13610,
  "Factory": 13611,
  "Ġargs": 13612,
  "oven": 13616,
  "Ġsymptoms": 13617,
  "Ġcars": 13619,
  "Ġsnow": 13620,
  "Ġbillion": 13623,
  "ĠProfess": 13624,
  "ILE": 13625,
  "ĠCarol": 13627,
  "Ġchain": 13628,
  "Ġtub": 13629,
  "Ġmeasures": 13630,
  "dr": 13631,
  "Ġparties": 13632,
  "bour": 13635,
  "ĉcase": 13636,
  "real": 13638,
  "outer": 13639,
  "irection": 13640,
  "ERR": 13643,
  "Ġgun": 13644,
  "ĠRow": 13646,
  "Bo": 13647,
  "Ġtreated": 13648,
  "Ġleaves": 13649,
  "Ġsuitable": 13652,
  "Ġincl": 13653,
  "Ġaber": 13654,
  "elled": 13655,
  "Options": 13656,
  "ĠIsland": 13657,
  "Ġthr": 13658,
  "Ġended": 13659,
  "ĠEp": 13660,
  "ĠnÃ«": 13664,
  "status": 13667,
  "Ġmostly": 13668,
  "Ġveget": 13669,
  "Ġnorth": 13673,
  "ĠTrue": 13674,
  "overy": 13675,
  "ĠHan": 13677,
  "Ġpassword": 13678,
  "Ġeconomy": 13679,
  "node": 13680,
  "Ġdomain": 13681,
  "ĠEX": 13682,
  "Ġfederal": 13684,
  "ĠHave": 13685,
  "Ġjs": 13687,
  "odo": 13688,
  "lla": 13689,
  "ĠYear": 13690,
  "Ġstars": 13691,
  "Ġwond": 13693,
  "bes": 13695,
  "Ġges": 13696,
  "Ġkeeping": 13698,
  "Ġjak": 13699,
  "Ġmotion": 13700,
  "ĠÅ¾e": 13702,
  "Ġenvironmental": 13705,
  "Ġfilled": 13710,
  "tica": 13711,
  "ĠCommission": 13712,
  "Ġcrow": 13713,
  "ĠMethod": 13714,
  "Ġconflic": 13718,
  "ĠLake": 13719,
  "Ġcolors": 13721,
  "Ġclaims": 13722,
  "icit": 13724,
  "Ġfamous": 13725,
  "aires": 13728,
  "kov": 13731,
  "Ġtight": 13732,
  "Max": 13733,
  "Ġwhom": 13735,
  "ĠThursday": 13736,
  "scri": 13738,
  "Ġnella": 13739,
  "rug": 13742,
  "Ġbedroom": 13743,
  "endif": 13745,
  "Ġnotes": 13746,
  "ORD": 13747,
  "Ġgan": 13748,
  "Ãºn": 13749,
  "Ġforces": 13750,
  "Ġbrief": 13752,
  "Ġabsolutely": 13753,
  "Ġtheme": 13754,
  "ACK": 13755,
  "emic": 13756,
  "Ġadvanced": 13757,
  "azine": 13759,
  "Ġcup": 13760,
  "erman": 13762,
  "Var": 13763,
  "oving": 13764,
  "ĠLast": 13769,
  "ĠNetwork": 13770,
  "igital": 13771,
  "Ġdistributed": 13772,
  "Please": 13776,
  "Ġwinter": 13777,
  "EG": 13781,
  "ĠTheir": 13784,
  "stat": 13787,
  "ĠMedical": 13794,
  "Ġbott": 13795,
  "ĠBu": 13796,
  "Block": 13797,
  "Equal": 13798,
  "iek": 13800,
  "III": 13801,
  "ĠApple": 13804,
  "har": 13806,
  "core": 13807,
  "Ġwave": 13808,
  "Ġgenerate": 13809,
  "tu": 13814,
  "ĠOnly": 13815,
  "Ġcultural": 13818,
  "ĠTuesday": 13819,
  "raid": 13821,
  "aped": 13822,
  "ĠLouis": 13823,
  "ĠestÃ¡": 13825,
  "Hz": 13826,
  "ĠAccording": 13827,
  "ymbol": 13828,
  "eri": 13829,
  "Ġbien": 13831,
  "Ġcontaining": 13832,
  "ĠGovernment": 13833,
  "Ġuk": 13834,
  "usher": 13835,
  "Ġll": 13837,
  "hav": 13839,
  "Ġasync": 13841,
  "tegr": 13842,
  "Repository": 13843,
  "unc": 13844,
  "ĠBlue": 13849,
  "Ġbird": 13850,
  "Ġstandards": 13851,
  "ĠWhere": 13853,
  "ĠnÄĥm": 13854,
  "Ke": 13856,
  "xf": 13857,
  "inet": 13858,
  "ĠEnter": 13861,
  "Null": 13863,
  "Mon": 13866,
  "ĉvar": 13867,
  "Ġparameter": 13868,
  "Ġaspects": 13869,
  "Ġconfirm": 13870,
  "cean": 13871,
  "Ġkat": 13872,
  "encing": 13875,
  "Ġuz": 13876,
  "Ġdestroy": 13877,
  "Ġtidak": 13879,
  "Ġbiggest": 13882,
  "Ġasking": 13883,
  "ĠTeam": 13885,
  "INT": 13886,
  "rund": 13887,
  "Ġfriendly": 13891,
  "Ġflu": 13892,
  "inds": 13894,
  "Pe": 13895,
  "Command": 13897,
  "Ġperman": 13898,
  "wan": 13900,
  "alar": 13901,
  "igu": 13902,
  "ĠWood": 13903,
  "Ã½m": 13904,
  "Ġkor": 13909,
  "iques": 13910,
  "Ġsecure": 13911,
  "Ġaccident": 13913,
  "ĠGerman": 13915,
  "QU": 13917,
  "Ġtank": 13918,
  "xture": 13919,
  "Ġvast": 13920,
  "Tag": 13921,
  "iÃ©n": 13925,
  "Ġhall": 13927,
  "elli": 13928,
  "ĠSand": 13929,
  "Ġnombre": 13930,
  "Ġeller": 13931,
  "ĠFoundation": 13932,
  "ĠFlorida": 13933,
  "ĠOs": 13934,
  "Ġsitting": 13936,
  "icken": 13937,
  "pack": 13938,
  "ECT": 13939,
  "Ġtechnique": 13940,
  "Ġhem": 13942,
  "ĠTR": 13946,
  "Ġstone": 13947,
  "Ġvariables": 13949,
  "weet": 13950,
  "Ġcontrast": 13954,
  "chema": 13955,
  "ĠCreate": 13957,
  "ilo": 13958,
  "Ġgene": 13964,
  "Frame": 13965,
  "ĠThus": 13967,
  "Ġvu": 13971,
  "namespace": 13974,
  "ulo": 13975,
  "Ġprincip": 13976,
  "ĠKey": 13977,
  "Mar": 13978,
  "Ġzero": 13979,
  "isten": 13983,
  "method": 13986,
  "Ġrelatively": 13988,
  "Ã¨me": 13990,
  "ĠTechnology": 13991,
  "Ġhomes": 13993,
  "Ġvid": 13995,
  "Change": 13996,
  "udo": 13998,
  "appy": 13999,
  "ĠProv": 14000,
  "Ġrise": 14002,
  "ĠHT": 14003,
  "Thanks": 14004,
  "Ġfamiliar": 14005,
  "tml": 14006,
  "iration": 14007,
  "SM": 14009,
  "req": 14011,
  "Ġwelcome": 14012,
  "Ġwerd": 14014,
  "ĠAbout": 14015,
  "Ġprocedure": 14018,
  "Ġpom": 14020,
  "annot": 14021,
  "atas": 14023,
  "ĠSci": 14028,
  "Ġleaders": 14030,
  "Ġiniti": 14033,
  "UD": 14036,
  "Ġthrows": 14039,
  "prim": 14040,
  "allel": 14042,
  "More": 14043,
  "Ġintellig": 14046,
  "Server": 14047,
  "white": 14048,
  "Ġleads": 14049,
  "message": 14050,
  "oration": 14051,
  "á»¯ng": 14052,
  "Ġgeb": 14055,
  "Ġfait": 14056,
  "OH": 14058,
  "Ã¤hr": 14061,
  "ĠIndust": 14065,
  "your": 14067,
  "Valid": 14070,
  "ĠsÄĥ": 14072,
  "itis": 14073,
  "Ġabsolute": 14076,
  "ĠReturn": 14078,
  "Ġmob": 14086,
  "Ġhell": 14088,
  "cat": 14089,
  "eks": 14090,
  "Ġvend": 14091,
  "sect": 14092,
  "Ġfir": 14093,
  "Ã±a": 14094,
  "Ġdispos": 14097,
  "Ġsek": 14098,
  "cias": 14099,
  "zu": 14100,
  "ĠPrem": 14101,
  "Ġimproved": 14104,
  "Ġcycle": 14105,
  "Ġrestaurant": 14109,
  "Cell": 14110,
  "Ġsharing": 14111,
  "Ġmunic": 14114,
  "Ġstret": 14115,
  "ummer": 14116,
  "Ġdelete": 14117,
  "cciÃ³n": 14118,
  "Ġlip": 14119,
  "ifts": 14120,
  "_path": 14123,
  "elles": 14124,
  "iente": 14125,
  "Ġcontribut": 14130,
  "ĠCOVID": 14133,
  "Ġsupposed": 14135,
  "ĠSecond": 14136,
  "Ġarms": 14139,
  "ocks": 14140,
  "Address": 14141,
  "Ġcomplic": 14142,
  "Ġud": 14144,
  "ĠMult": 14146,
  "Ġvision": 14148,
  "Where": 14149,
  "APP": 14153,
  "Order": 14155,
  "Ġmand": 14157,
  "Ġdepth": 14159,
  "Ġtout": 14160,
  "ourse": 14161,
  "plot": 14162,
  "ĠWednesday": 14164,
  "Ġikke": 14168,
  "_CO": 14169,
  "ĠTre": 14170,
  "cf": 14171,
  "ĠHy": 14172,
  "Ġelev": 14174,
  "Ġherself": 14175,
  "Ġdescribe": 14176,
  "ĠMedia": 14179,
  "Ġsymbol": 14182,
  "Ġpractices": 14184,
  "ĠPay": 14187,
  "iá»ģu": 14188,
  "process": 14190,
  "EST": 14191,
  "Ġaudience": 14192,
  "orders": 14193,
  "ieren": 14195,
  "Gu": 14197,
  "Ġmehr": 14201,
  "ĠOp": 14203,
  "áº£i": 14204,
  "Ġtruck": 14205,
  "MB": 14208,
  "Ġresistance": 14209,
  "Ġbroken": 14211,
  "Ġdepartment": 14213,
  "ĠPop": 14217,
  "Ġkter": 14219,
  "ĠSom": 14223,
  "Ġmanaged": 14225,
  "ĠBuild": 14226,
  "ĠMaybe": 14227,
  "stead": 14229,
  "Ġpremi": 14230,
  "ĠTrump": 14232,
  "Ġcombined": 14233,
  "rar": 14234,
  "road": 14235,
  "ped": 14237,
  "Ġdil": 14238,
  "Ġfond": 14239,
  "Ġgarden": 14243,
  "ĠHill": 14245,
  "Ã³s": 14249,
  "ÅŁt": 14252,
  "ĠTimes": 14254,
  "west": 14256,
  "try": 14257,
  "Ġcentre": 14258,
  "Ġattend": 14260,
  "Ġcitiz": 14263,
  "rapper": 14265,
  "iaÅĤ": 14266,
  "Ġdespite": 14267,
  "Ġdelay": 14268,
  "ajo": 14270,
  "Ġstrategies": 14271,
  "ĠReport": 14272,
  "RS": 14273,
  "Ġpero": 14275,
  "Ġinjury": 14276,
  "ansion": 14277,
  "Ġadopt": 14278,
  "Ġbecoming": 14279,
  "Ġcompetition": 14280,
  "Ġrent": 14281,
  "REF": 14283,
  "ĠJer": 14286,
  "aran": 14287,
  "Mark": 14290,
  "Ġhay": 14291,
  "ĠUnion": 14292,
  "DO": 14294,
  "ĠMartin": 14295,
  "faces": 14297,
  "ĠFurther": 14298,
  "istant": 14300,
  "Min": 14302,
  "ĠUr": 14305,
  "hist": 14306,
  "ĠComput": 14307,
  "Ġtypically": 14311,
  "ĠDirector": 14312,
  "kins": 14313,
  "igan": 14314,
  "model": 14315,
  "acer": 14319,
  "Ġwine": 14320,
  "achine": 14322,
  "amen": 14323,
  "Ġegg": 14324,
  "vector": 14325,
  "Ġsquare": 14327,
  "Ġcha": 14328,
  "Ġans": 14329,
  "ĠRichard": 14335,
  "Mode": 14336,
  "ĠVict": 14337,
  "Ġinstalled": 14338,
  "Ġsequence": 14341,
  "roph": 14342,
  "Ġpassion": 14343,
  "ĠHuman": 14345,
  "Ġmovies": 14346,
  "itat": 14347,
  "Ġcharacteristics": 14348,
  "Ġfabric": 14350,
  "Ġsumm": 14352,
  "Ġcreative": 14354,
  "agg": 14358,
  "Ġforma": 14361,
  "itate": 14364,
  "Ġbuying": 14365,
  "Ġadalah": 14369,
  "Ġplot": 14371,
  "ĠNY": 14372,
  "ployment": 14373,
  "ĠkÃ¶n": 14376,
  "Ġfeels": 14377,
  "Ġdiscussed": 14378,
  "Ġseat": 14380,
  "sis": 14382,
  "Ġproperly": 14383,
  "nak": 14384,
  "LA": 14388,
  "EW": 14389,
  "Ġmeasured": 14393,
  "Ġadvis": 14397,
  "ĠNach": 14398,
  "ĠAdv": 14399,
  "entity": 14400,
  "Ġfif": 14402,
  "Ġkap": 14403,
  "Ġbeat": 14407,
  "Ġerect": 14408,
  "aje": 14409,
  "ĠAk": 14411,
  "Ġzw": 14413,
  "ĠSpecial": 14415,
  "zÄħ": 14416,
  "player": 14419,
  "ographic": 14420,
  "Ġintent": 14424,
  "never": 14426,
  "Ġestate": 14427,
  "esk": 14429,
  "frast": 14430,
  "Ġvote": 14432,
  "Ġstanding": 14435,
  "ĠRest": 14436,
  "Ġkick": 14437,
  "zk": 14439,
  "Ġhi": 14440,
  "Ġlaunch": 14442,
  "Ġrooms": 14443,
  "ĠdÃ©c": 14444,
  "yer": 14447,
  "eno": 14448,
  "Ġpump": 14449,
  "ĠnÃły": 14453,
  "ĠNO": 14454,
  "áº¡n": 14457,
  "Ġplenty": 14458,
  "ĠIP": 14461,
  "Ġembodiment": 14462,
  "Ġexplore": 14464,
  "Ġdia": 14468,
  "apse": 14469,
  "ĠInst": 14470,
  "Ġdecisions": 14472,
  "unes": 14475,
  "atar": 14477,
  "estion": 14484,
  "Ġniet": 14485,
  "izont": 14486,
  "Ġappearance": 14487,
  "ĠGer": 14490,
  "ĠSar": 14492,
  "onic": 14493,
  "Ãªme": 14494,
  "ĠEqu": 14495,
  "larÄ±": 14498,
  "Ġmail": 14500,
  "Ġtv": 14502,
  "Ġhidden": 14504,
  "_file": 14506,
  "itan": 14510,
  "case": 14511,
  "Ġcette": 14512,
  "Ġdol": 14514,
  "ĠBuy": 14516,
  "Ġimplementation": 14517,
  "ĠChem": 14518,
  "ĠMinister": 14519,
  "osta": 14520,
  "ÃŃst": 14522,
  "rame": 14523,
  "Ġsul": 14524,
  "iginal": 14526,
  "Oper": 14527,
  "admin": 14528,
  "AAAA": 14529,
  "ĠEarth": 14531,
  "hab": 14534,
  "Ġconfiguration": 14535,
  "Ġsurvey": 14537,
  "Ġlegisl": 14540,
  "Ġalcohol": 14541,
  "Ġmatrix": 14542,
  "Ġpossibly": 14543,
  "zione": 14544,
  "arios": 14549,
  "ĉs": 14550,
  "ĠDownload": 14554,
  "annels": 14555,
  "ĠHor": 14558,
  "there": 14560,
  "emi": 14562,
  "Ġapr": 14563,
  "ĠBand": 14565,
  "Ġalter": 14569,
  "ĠResult": 14570,
  "ĠGeorg": 14573,
  "Ġthousands": 14575,
  "Ġnj": 14576,
  "ĠNon": 14577,
  "eding": 14578,
  "esto": 14579,
  "auto": 14580,
  "Ġbeauty": 14582,
  "Ġadvent": 14583,
  "Red": 14585,
  "ĠIsrael": 14586,
  "uries": 14587,
  "inu": 14588,
  "Æ°á»Ŀng": 14589,
  "isis": 14592,
  "ĠBal": 14593,
  "áº£n": 14596,
  "argo": 14598,
  "ingly": 14600,
  "rov": 14601,
  "Ġaqu": 14602,
  "ĠProm": 14603,
  "boot": 14605,
  "Ġprev": 14606,
  "Ġsubstant": 14608,
  "Ġschedule": 14609,
  "Ġfocused": 14610,
  "Der": 14613,
  "Ġtoken": 14614,
  "URE": 14615,
  "aza": 14616,
  "Ġplastic": 14620,
  "ĠHu": 14621,
  "Ġorganizations": 14622,
  "Ġrecommended": 14623,
  "Ġtrees": 14624,
  "Ġgli": 14625,
  "hm": 14626,
  "Ġzone": 14628,
  "Ġdinner": 14630,
  "Ġbehavi": 14632,
  "poses": 14633,
  "ĠLib": 14637,
  "ĠLight": 14638,
  "ĠRoman": 14639,
  "irmed": 14640,
  "Ã¤m": 14641,
  "Ġintroduced": 14642,
  "Ġwriter": 14643,
  "Ġloan": 14644,
  "aze": 14649,
  "Å¡t": 14652,
  "Ġvil": 14654,
  "Search": 14658,
  "bas": 14661,
  "Ġdocuments": 14662,
  "article": 14664,
  "heng": 14668,
  "undle": 14669,
  "ĠNord": 14670,
  "Ġeditor": 14673,
  "oom": 14674,
  "Ġslowly": 14677,
  "osi": 14682,
  "ĠFamily": 14683,
  "Ġprzy": 14684,
  "Level": 14685,
  "Ġshopping": 14694,
  "mail": 14695,
  "Ġsurgery": 14696,
  "yi": 14698,
  "ĠFigure": 14699,
  "ango": 14700,
  "Ġesta": 14705,
  "Ġteachers": 14706,
  "lay": 14710,
  "lymp": 14711,
  "ytes": 14712,
  "terior": 14713,
  "Ġgrid": 14714,
  "Ġdetailed": 14722,
  "Ġapproximately": 14724,
  "SH": 14726,
  "ĠPRO": 14728,
  "ahan": 14729,
  "ĠBon": 14730,
  "Ġdefinition": 14731,
  "Ġlit": 14732,
  "Ġkal": 14733,
  "Ġcommunities": 14734,
  "Ġencourag": 14736,
  "Ġbigger": 14738,
  "Ã©ri": 14739,
  "ĠnÃ©": 14744,
  "anno": 14745,
  "oses": 14746,
  "auth": 14748,
  "Ġsustain": 14750,
  "Op": 14755,
  "lij": 14756,
  "Ġnumerous": 14757,
  "ATA": 14758,
  "Dec": 14759,
  "Ġliterature": 14762,
  "java": 14764,
  "Ġast": 14765,
  "footer": 14766,
  "Ġbelie": 14771,
  "ĠTake": 14772,
  "Ġconcentration": 14774,
  "CK": 14777,
  "ĠHam": 14778,
  "SL": 14779,
  "Ġexpensive": 14780,
  "MD": 14781,
  "ingle": 14783,
  "oco": 14785,
  "ĠvÃ¤": 14786,
  "rep": 14797,
  "elijk": 14798,
  "rea": 14800,
  "ĠGlobal": 14804,
  "eps": 14805,
  "andon": 14807,
  "Ġwedding": 14809,
  "Ġefficiency": 14810,
  "ĠSex": 14813,
  "Ġsides": 14814,
  "Æ°Æ¡ng": 14815,
  "Ġly": 14816,
  "Ġbeach": 14822,
  "ĠArray": 14825,
  "LECT": 14826,
  "plan": 14827,
  "Ġtaste": 14829,
  "Car": 14830,
  "yo": 14831,
  "ĉb": 14832,
  "occ": 14833,
  "icans": 14834,
  "ffff": 14835,
  "Ġhen": 14836,
  "asm": 14837,
  "Ġsongs": 14838,
  "GL": 14841,
  "Ġjson": 14842,
  "Ġeth": 14844,
  "Ġraz": 14846,
  "Ġputting": 14848,
  "Ġpand": 14852,
  "ĠPage": 14853,
  "ĠFund": 14854,
  "Then": 14855,
  "Ġpob": 14856,
  "ups": 14858,
  "Ġoblig": 14859,
  "enger": 14862,
  "ĠChicago": 14863,
  "Ġsud": 14864,
  "ĠAu": 14867,
  "ĠBra": 14868,
  "Ġmessages": 14870,
  "bug": 14871,
  "ĠCharles": 14874,
  "Ġriv": 14875,
  "Ġngh": 14876,
  "iá»ĩn": 14877,
  "ea": 14878,
  "connect": 14884,
  "Resource": 14888,
  "Spec": 14889,
  "Ġsenior": 14890,
  "ĠToday": 14892,
  "ĠControl": 14893,
  "aret": 14896,
  "Ġaudio": 14900,
  "Ġnad": 14901,
  "Fin": 14903,
  "uality": 14907,
  "ĠAtl": 14913,
  "Ġvary": 14914,
  "Ġvillage": 14915,
  "number": 14916,
  "ibi": 14918,
  "ĠBrown": 14919,
  "ppe": 14920,
  "Ġdepending": 14922,
  "ĠSoftware": 14926,
  "ĠIV": 14927,
  "Ġstated": 14930,
  "ÄĹs": 14932,
  "omic": 14933,
  "Ġbusy": 14934,
  "Ġerrors": 14935,
  "ACT": 14938,
  "Ġhearing": 14940,
  "Ġrepair": 14941,
  "Row": 14944,
  "Ġincreases": 14945,
  "iale": 14948,
  "Player": 14950,
  "PH": 14952,
  "izar": 14953,
  "ĠDuring": 14955,
  "Ġneck": 14956,
  "Ġadults": 14957,
  "ician": 14958,
  "Ġtrouble": 14959,
  "ĠnhÆ°": 14960,
  "ĠExper": 14963,
  "shop": 14964,
  "bridge": 14966,
  "Ġaffected": 14967,
  "leted": 14968,
  "raction": 14969,
  "grid": 14974,
  "ĠgÃ¶": 14976,
  "onia": 14978,
  "ĠKl": 14979,
  "inar": 14980,
  "Ġidentity": 14981,
  "display": 14982,
  "Ġaug": 14988,
  "Ġcomparison": 14990,
  "Ġworse": 14991,
  "Dev": 14992,
  "ĠHotel": 14997,
  "she": 14998,
  "Ġenjoyed": 15005,
  "oral": 15007,
  "Ġpatterns": 15008,
  "legal": 15009,
  "Ġfunds": 15012,
  "Ġperspective": 15013,
  "PG": 15014,
  "ĉelse": 15017,
  "Ġbez": 15018,
  "Ġscope": 15021,
  "Ġkaj": 15022,
  "ĠWall": 15023,
  "ĠStep": 15026,
  "ĠDar": 15028,
  "Ġsalt": 15031,
  "Ġcaught": 15032,
  "lat": 15034,
  "ovie": 15035,
  "Dep": 15039,
  "ĠConne": 15040,
  "Ġadm": 15041,
  "Ġstack": 15044,
  "icas": 15047,
  "Ġcontinues": 15049,
  "Ġchair": 15052,
  "ĠScott": 15053,
  "Ġook": 15054,
  "ĠLim": 15055,
  "Ġsuit": 15057,
  "Ġsupplement": 15058,
  "Ġtotally": 15060,
  "Ġnob": 15061,
  "sin": 15062,
  "Ġdurante": 15063,
  "claim": 15064,
  "enÃŃ": 15065,
  "Ġanswers": 15066,
  "Ġpes": 15067,
  "Ġnhá»¯ng": 15068,
  "ĠDNA": 15069,
  "Ġpentru": 15070,
  "ĉt": 15071,
  "stud": 15072,
  "ictionary": 15073,
  "Ġwherein": 15075,
  "jan": 15076,
  "Ġfilms": 15078,
  "uture": 15079,
  "_i": 15081,
  "Ã§a": 15082,
  "ructure": 15083,
  "Ġmagn": 15084,
  "iar": 15085,
  "coin": 15086,
  "Ġcalling": 15087,
  "Ġclassic": 15088,
  "Ġsegu": 15089,
  "Ġtail": 15091,
  "MC": 15093,
  "Ġforest": 15098,
  "Met": 15101,
  "Ġagreed": 15102,
  "SET": 15104,
  "Stat": 15105,
  "Case": 15106,
  "look": 15107,
  "ĠLas": 15108,
  "address": 15110,
  "ĠImp": 15111,
  "Ġbattery": 15112,
  "ĠBerlin": 15113,
  "Ġamer": 15115,
  "media": 15116,
  "Ġdistrict": 15117,
  "ĠSeries": 15123,
  "Ġlicense": 15124,
  "roke": 15125,
  "Ġmoder": 15126,
  "Ġride": 15127,
  "Ġkw": 15129,
  "ischer": 15130,
  "ĠGra": 15132,
  "Ġstructures": 15133,
  "Ġspecifically": 15135,
  "ĠSE": 15136,
  "yes": 15138,
  "Ġrevealed": 15140,
  "Ġflag": 15141,
  "erts": 15143,
  "ools": 15145,
  "ĠGermany": 15152,
  "apped": 15156,
  "ĠmÃ¼": 15157,
  "Ġupp": 15158,
  "Ġcoun": 15161,
  "BR": 15162,
  "ĠPubl": 15165,
  "Ġtrading": 15166,
  "Ġchapter": 15168,
  "Ġampl": 15169,
  "Ġrealize": 15172,
  "ĠAPI": 15174,
  "Ġreduction": 15175,
  "ĠCommunity": 15176,
  "Ġmechanism": 15177,
  "ĠDeb": 15180,
  "ERS": 15182,
  "ĠLee": 15185,
  "Ġfruit": 15191,
  "ĠCir": 15192,
  "Cal": 15193,
  "Ġretail": 15194,
  "Ġlived": 15195,
  "ĠJud": 15196,
  "resents": 15197,
  "Ġspecified": 15198,
  "aat": 15203,
  "Ġfaster": 15204,
  "Ġafraid": 15205,
  "idas": 15206,
  "AF": 15207,
  "ĠvÉĻ": 15208,
  "Ġparticipants": 15210,
  "Ġwindows": 15212,
  "Ġjako": 15213,
  "Ġmixed": 15214,
  "ĠEss": 15216,
  "inda": 15220,
  "alled": 15221,
  "hd": 15222,
  "vg": 15224,
  "they": 15226,
  "utsch": 15227,
  "Ġfundament": 15228,
  "ocial": 15229,
  "had": 15231,
  "Ġvacc": 15232,
  "Ġmarriage": 15233,
  "API": 15234,
  "Buffer": 15238,
  "Ġbare": 15243,
  "Ġcham": 15244,
  "Ġintended": 15247,
  "Ġfeedback": 15248,
  "ĠPot": 15251,
  "Ġkad": 15252,
  "Ã¢y": 15254,
  "adores": 15255,
  "Ġends": 15258,
  "orf": 15261,
  "ummy": 15263,
  "Ġnd": 15266,
  "Univers": 15267,
  "Ġplays": 15268,
  "ĠPills": 15269,
  "Ä±k": 15270,
  "ĠWestern": 15272,
  "Ġepisode": 15274,
  "Ġmaintenance": 15278,
  "icos": 15279,
  "ĠWord": 15281,
  "_E": 15283,
  "hensive": 15284,
  "Ġcraft": 15288,
  "emper": 15289,
  "ĠFun": 15290,
  "Header": 15291,
  "ulu": 15293,
  "Ġdynamic": 15295,
  "_ex": 15296,
  "Ġwir": 15298,
  "ĠProte": 15299,
  "Ġcream": 15300,
  "essions": 15302,
  "Ġspl": 15307,
  "Ġstood": 15309,
  "allery": 15310,
  "Ġneut": 15312,
  "Ġgrade": 15315,
  "ĠFull": 15316,
  "Ġsoil": 15317,
  "Ver": 15319,
  "Every": 15320,
  "Ġbear": 15321,
  "abb": 15322,
  "ÄĻd": 15323,
  "ambda": 15324,
  "ĠprÃ©s": 15327,
  "Ġitu": 15329,
  "Ġcrack": 15330,
  "ĠSecurity": 15333,
  "ceived": 15335,
  "ĠRa": 15336,
  "illi": 15337,
  "ĠCarl": 15340,
  "cin": 15343,
  "ĠInvest": 15344,
  "elcome": 15348,
  "entry": 15349,
  "Ġgj": 15352,
  "qi": 15354,
  "ĠEvent": 15355,
  "rif": 15358,
  "blog": 15359,
  "assa": 15363,
  "Ġspeaking": 15364,
  "rÃ¡": 15366,
  "Ġinstrument": 15367,
  "stood": 15369,
  "device": 15370,
  "oggle": 15372,
  "END": 15373,
  "Ġbug": 15375,
  "Ġentered": 15376,
  "Ġauthors": 15378,
  "NAME": 15379,
  "Ġindeed": 15382,
  "ej": 15383,
  "izi": 15385,
  "AI": 15387,
  "xa": 15388,
  "Ã©ny": 15390,
  "Ġeventually": 15391,
  "Ġdistinct": 15392,
  "Ġaccommod": 15394,
  "ĠAuthor": 15395,
  "ĠCa": 15396,
  "Ġvoc": 15397,
  "attr": 15399,
  "Ġtasks": 15400,
  "ierte": 15403,
  "Ġassessment": 15404,
  "inations": 15406,
  "kat": 15408,
  "oly": 15409,
  "Ġindustrial": 15410,
  "Access": 15411,
  "Ġsubs": 15413,
  "Ġingredients": 15414,
  "Num": 15415,
  "Ġemph": 15417,
  "Ġconversation": 15419,
  "ĠSecret": 15420,
  "Ġremote": 15423,
  "Ġoppos": 15424,
  "avas": 15426,
  "Ġdow": 15427,
  "ĠEurop": 15429,
  "Ġframework": 15432,
  "ÃŁen": 15433,
  "acts": 15436,
  "Ġteen": 15438,
  "ĠCommittee": 15439,
  "Ġcum": 15440,
  "Ac": 15443,
  "Width": 15444,
  "assets": 15446,
  "ĠAT": 15447,
  "Ã¤Ã¤n": 15448,
  "Æ°á»Ľc": 15450,
  "pling": 15451,
  "Ġadministration": 15454,
  "Ġaccounts": 15456,
  "apes": 15457,
  "Ġenable": 15458,
  "Ġdok": 15462,
  "unda": 15464,
  "ĠAuf": 15465,
  "rations": 15466,
  "olid": 15470,
  "ĠBoth": 15472,
  "zes": 15473,
  "iza": 15474,
  "PU": 15475,
  "ĠBes": 15477,
  "esso": 15479,
  "Ġcontainer": 15480,
  "Ġrecept": 15481,
  "ĠDistrict": 15484,
  "omain": 15486,
  "ĠSection": 15487,
  "Ġtea": 15488,
  "ukan": 15489,
  "ĠBeach": 15490,
  "Ġnoted": 15492,
  "Ġnoticed": 15493,
  "Ġsuggested": 15494,
  "Ġproud": 15496,
  "when": 15498,
  "important": 15499,
  "Ġham": 15500,
  "front": 15501,
  "Ġtah": 15503,
  "Ġaccompl": 15506,
  "ĠTwitter": 15507,
  "Ġbonus": 15508,
  "Ġawesome": 15510,
  "Ġmainly": 15512,
  "eries": 15516,
  "NT": 15517,
  "ĠMas": 15519,
  "ĠMS": 15520,
  "ĠAfrican": 15523,
  "ĠrÃ©s": 15528,
  "nego": 15529,
  "edit": 15531,
  "Ã¡ny": 15532,
  "Ġselling": 15533,
  "Container": 15534,
  "Ġvector": 15535,
  "Ġfacilities": 15537,
  "Ġboost": 15542,
  "Ġexplained": 15544,
  "Ġsup": 15548,
  "áºŃt": 15551,
  "ĠSanta": 15552,
  "Ġnoise": 15553,
  "ĠJac": 15555,
  "Ġbin": 15557,
  "oves": 15559,
  "Ġerectile": 15560,
  "Ġclimate": 15563,
  "fall": 15564,
  "acher": 15567,
  "Ġsigns": 15568,
  "bles": 15569,
  "arks": 15570,
  "who": 15571,
  "Pa": 15572,
  "ĠCre": 15573,
  "Ġconducted": 15574,
  "Ġrecorded": 15575,
  "ĠMath": 15576,
  "Ġpharm": 15577,
  "Ġprod": 15578,
  "See": 15582,
  "ĠAndroid": 15584,
  "types": 15586,
  "á»©c": 15587,
  "Ġsufficient": 15590,
  "OB": 15591,
  "noon": 15592,
  "irth": 15594,
  "transform": 15596,
  "ÃŃch": 15597,
  "Ġlocations": 15599,
  "Ġhousing": 15600,
  "ĠWin": 15608,
  "Ġdiscount": 15610,
  "Ġimpossible": 15611,
  "ctx": 15612,
  "Ġwurden": 15614,
  "itionally": 15615,
  "Ġtested": 15617,
  "Location": 15618,
  "Ġplane": 15621,
  "scape": 15622,
  "Ġstores": 15623,
  "ometimes": 15628,
  "Figure": 15629,
  "ĠMuseum": 15632,
  "Ġpractical": 15634,
  "Ġscr": 15635,
  "Ġturns": 15637,
  "Ġremaining": 15640,
  "Ġhurt": 15641,
  "tx": 15643,
  "Ġtwice": 15645,
  "Ġagg": 15646,
  "ĠÅ¼e": 15647,
  "Ġyesterday": 15648,
  "zent": 15649,
  "ĠLat": 15650,
  "Ġpolicies": 15652,
  "ĠAD": 15653,
  "enen": 15655,
  "ĠFort": 15658,
  "Ġpert": 15659,
  "Ã¦r": 15661,
  "gers": 15665,
  "Ġpurposes": 15666,
  "ĉd": 15667,
  "ensed": 15669,
  "Ġdiscovered": 15673,
  "edge": 15674,
  "Ġspeech": 15675,
  "ushing": 15677,
  "Ġconfidence": 15679,
  "ĠCongress": 15682,
  "adian": 15685,
  "Ġconference": 15686,
  "hemat": 15687,
  "Del": 15690,
  "Ġcolon": 15691,
  "ĠWay": 15692,
  "ighter": 15694,
  "ĠWeek": 15699,
  "ikipedia": 15700,
  "Ġarrived": 15701,
  "Sm": 15702,
  "Ġallowing": 15703,
  "insert": 15704,
  "mun": 15706,
  "night": 15708,
  "source": 15709,
  "ĠKen": 15711,
  "Ġporn": 15713,
  "Ġoli": 15714,
  "into": 15715,
  "Ġmanual": 15717,
  "life": 15718,
  "Ġraw": 15719,
  "eln": 15721,
  "ĠLuc": 15722,
  "module": 15723,
  "Ġfunctional": 15724,
  "project": 15726,
  "ĠDiet": 15727,
  "umes": 15728,
  "oston": 15731,
  "Ġbathroom": 15733,
  "ovan": 15735,
  "Ġorganic": 15736,
  "vere": 15738,
  "Ġkol": 15739,
  "Pos": 15741,
  "Ġdesire": 15744,
  "Ġrh": 15745,
  "emporary": 15746,
  "ĠCorpor": 15747,
  "umi": 15750,
  "Connection": 15754,
  "Project": 15756,
  "mond": 15757,
  "beit": 15759,
  "Ġbelief": 15760,
  "ÃŃc": 15762,
  "Ġarrest": 15763,
  "peed": 15764,
  "Current": 15768,
  "Ġmedi": 15770,
  "his": 15772,
  "clos": 15773,
  "Ã¡ng": 15776,
  "á»±c": 15777,
  "kon": 15778,
  "merce": 15781,
  "Ä±z": 15782,
  "ether": 15783,
  "Ãłng": 15784,
  "cut": 15785,
  "LOG": 15786,
  "oking": 15787,
  "Å¾e": 15793,
  "ĠMap": 15795,
  "Ġfib": 15797,
  "esh": 15798,
  "Ġconsidering": 15800,
  "Ġresulting": 15801,
  "iele": 15802,
  "emble": 15803,
  "Ġconcerned": 15805,
  "Ã¡i": 15807,
  "Ġmerc": 15809,
  "Ġclothes": 15810,
  "Ġexists": 15811,
  "RC": 15812,
  "ĠCopyright": 15814,
  "ibli": 15815,
  "false": 15817,
  "atie": 15818,
  "ĠFar": 15819,
  "ĠAdminist": 15820,
  "ĠNote": 15821,
  "Ġexcess": 15824,
  "Ġverb": 15825,
  "Ġreceiving": 15826,
  "gener": 15828,
  "framework": 15829,
  "ÃŃnh": 15831,
  "ĠJean": 15834,
  "Ġcoverage": 15835,
  "Ġelectronic": 15836,
  "imens": 15837,
  "values": 15838,
  "Ġcities": 15840,
  "BI": 15841,
  "Ġfle": 15842,
  "Ġlinear": 15843,
  "gment": 15844,
  "may": 15849,
  "Ġholiday": 15853,
  "ĠTown": 15855,
  "Ġrelation": 15856,
  "Ġindu": 15859,
  "_x": 15862,
  "ĠLtd": 15865,
  "ĠFilm": 15868,
  "Option": 15873,
  "Ġfourth": 15875,
  "Ġinteraction": 15877,
  "Ġregions": 15878,
  "ĠHead": 15883,
  "HS": 15884,
  "Ġhang": 15885,
  "ĠGro": 15887,
  "idential": 15888,
  "clude": 15889,
  "Ġequival": 15891,
  "Ġbreast": 15892,
  "Right": 15893,
  "Icon": 15897,
  "esis": 15900,
  "kr": 15901,
  "acion": 15902,
  "Ġthin": 15905,
  "Task": 15907,
  "ciÃ³": 15909,
  "Ġdogs": 15910,
  "aved": 15914,
  "Each": 15916,
  "irus": 15917,
  "Ġdess": 15922,
  "Ġmul": 15928,
  "Ġconver": 15929,
  "Ġreader": 15932,
  "Format": 15934,
  "strap": 15935,
  "ĠNumber": 15936,
  "Ġcompare": 15940,
  "ĠVirgin": 15943,
  "Ġleadership": 15946,
  "Ġmagic": 15947,
  "_start": 15948,
  "_DE": 15950,
  "certain": 15951,
  "Ġcloser": 15952,
  "ĠSearch": 15953,
  "Ġnit": 15954,
  "quare": 15955,
  "ĠPoint": 15956,
  "elo": 15957,
  "Ġbere": 15960,
  "Ġpositions": 15961,
  "Thank": 15963,
  "vÃ¤": 15964,
  "ĠHospital": 15966,
  "Ġantic": 15967,
  "eda": 15968,
  "Pat": 15971,
  "Ġrein": 15972,
  "enne": 15973,
  "ICE": 15975,
  "spec": 15976,
  "oded": 15982,
  "icate": 15986,
  "enza": 15990,
  "Ġglad": 15991,
  "ĠnÃ¤": 15992,
  "born": 15993,
  "Stack": 15994,
  "Ġangle": 15995,
  "ificate": 15996,
  "ariable": 16000,
  "film": 16001,
  "ometry": 16003,
  "LED": 16007,
  "rible": 16008,
  "eper": 16009,
  "OU": 16010,
  "osphere": 16011,
  "ĠCL": 16013,
  "Ġliber": 16017,
  "ĠSou": 16018,
  "cape": 16021,
  "Sch": 16022,
  "quis": 16023,
  "inition": 16024,
  "Ġvul": 16025,
  "Ġzn": 16032,
  "ĠDisc": 16033,
  "ovo": 16035,
  "ĠRef": 16036,
  "Ġusual": 16037,
  "dated": 16038,
  "ĠMaj": 16040,
  "ĠTele": 16042,
  "Dele": 16047,
  "ulin": 16048,
  "Ġscientific": 16050,
  "Position": 16051,
  "Ġseeking": 16052,
  "Ġsigned": 16053,
  "Ġskill": 16054,
  "second": 16057,
  "_value": 16065,
  "Ġsorry": 16067,
  "arse": 16068,
  "Ġdedicated": 16070,
  "Left": 16071,
  "Ġspending": 16074,
  "pop": 16075,
  "Ġpier": 16078,
  "Ġindicate": 16080,
  "ĠHard": 16082,
  "Ġshel": 16083,
  "Ġpulled": 16086,
  "Ã¡p": 16087,
  "Ġinstructions": 16092,
  "Ġprimer": 16093,
  "Ġalleg": 16095,
  "Ġkinds": 16096,
  "Ġhero": 16097,
  "Ġmusical": 16098,
  "áºŃn": 16100,
  "zone": 16105,
  "abels": 16107,
  "Ġoccasion": 16109,
  "Ġcontro": 16110,
  "earing": 16113,
  "rick": 16115,
  "Ġwest": 16120,
  "ĠSO": 16123,
  "wick": 16124,
  "omer": 16126,
  "edu": 16130,
  "obby": 16131,
  "Ġloop": 16132,
  "Ġsubsequ": 16133,
  "cp": 16135,
  "Ġbuffer": 16138,
  "ĠConference": 16139,
  "Filter": 16140,
  "gage": 16142,
  "scope": 16149,
  "esti": 16150,
  "Ġconserv": 16151,
  "Ġsans": 16154,
  "Ġautomatically": 16156,
  "ĠKr": 16157,
  "Ġmemb": 16159,
  "Ġbrings": 16163,
  "Empty": 16164,
  "dl": 16165,
  "ĠPlus": 16166,
  "Les": 16171,
  "Ġnerv": 16172,
  "oka": 16174,
  "Ġelle": 16182,
  "izontal": 16184,
  "sum": 16186,
  "Ġrecover": 16187,
  "Who": 16192,
  "Ġextended": 16193,
  "Ġriver": 16194,
  "Ġdesde": 16197,
  "ĠParty": 16199,
  "non": 16200,
  "Unit": 16201,
  "Ġhate": 16204,
  "_de": 16205,
  "John": 16210,
  "Ġconcerns": 16211,
  "SU": 16216,
  "Ġinher": 16221,
  "Ġadmin": 16224,
  "Ġchosen": 16225,
  "alpha": 16226,
  "Ġorders": 16227,
  "ĠPass": 16230,
  "ril": 16233,
  "oted": 16236,
  "keit": 16238,
  "Ġmetab": 16240,
  "Ġakan": 16241,
  "ĠKore": 16242,
  "Ġowners": 16246,
  "reshold": 16250,
  "Ġjustify": 16252,
  "Ġpicked": 16254,
  "Rev": 16255,
  "ĠSpan": 16257,
  "alan": 16258,
  "Use": 16259,
  "activ": 16262,
  "FIG": 16263,
  "onto": 16264,
  "Ġaid": 16265,
  "Ġanyway": 16268,
  "Ġprovider": 16271,
  "Ġforced": 16272,
  "Ġvalu": 16273,
  "Ġonder": 16274,
  "Ġaccord": 16277,
  "ĠZeit": 16278,
  "ressive": 16281,
  "Ġsimpl": 16283,
  "buf": 16287,
  "ovi": 16289,
  "lang": 16291,
  "Ġtissue": 16292,
  "ĠKir": 16293,
  "_ID": 16294,
  "Ġinvent": 16295,
  "Provider": 16296,
  "esse": 16299,
  "Ġextension": 16300,
  "Ġagency": 16302,
  "ÉĻt": 16305,
  "draw": 16306,
  "Ġrough": 16307,
  "rait": 16309,
  "Ġpray": 16310,
  "Thread": 16311,
  "Ġfur": 16312,
  "rin": 16314,
  "ĠUsing": 16315,
  "ĠEnergy": 16317,
  "ĠUni": 16319,
  "Ġsick": 16321,
  "ĠRen": 16322,
  "Ġrum": 16323,
  "ĠTa": 16327,
  "Ã¼d": 16328,
  "Ġparking": 16329,
  "elly": 16330,
  "Ġlett": 16332,
  "aph": 16333,
  "Ġjoined": 16334,
  "ĠrÃ©g": 16335,
  "rent": 16336,
  "Ġextent": 16337,
  "Ġhighlight": 16339,
  "Ġsang": 16340,
  "Ġrecovery": 16341,
  "ÉĻl": 16343,
  "Ġthá»ĥ": 16344,
  "RT": 16348,
  "Ġrepro": 16349,
  "allow": 16350,
  "Ġancient": 16353,
  "anh": 16354,
  "Ġwheel": 16355,
  "irts": 16356,
  "esi": 16358,
  "Ġtomorrow": 16360,
  "Ġsensor": 16361,
  "Ġlux": 16362,
  "MI": 16363,
  "tw": 16364,
  "Ġpromote": 16368,
  "ĠPsych": 16371,
  "ĠAccess": 16372,
  "Ġdefine": 16374,
  "pie": 16375,
  "Ġguests": 16378,
  "Ġmenj": 16380,
  "ĠcÄĥ": 16381,
  "Ġauss": 16382,
  "ĠDO": 16383,
  "Ġyouth": 16384,
  "Ġacademic": 16386,
  "ĠRos": 16389,
  "ĠMA": 16390,
  "Ġuno": 16392,
  "Ġgent": 16394,
  "Ġmarkets": 16395,
  "Ġreform": 16396,
  "Ġgate": 16397,
  "schaft": 16401,
  "Ġexperts": 16404,
  "access": 16407,
  "ĠBox": 16408,
  "ĠCharl": 16413,
  "Ġrepresents": 16415,
  "Ġstored": 16418,
  "Ġconsistent": 16419,
  "ĠJim": 16420,
  "ĠEU": 16421,
  "Ġtermin": 16423,
  "Ġprison": 16424,
  "ĠHo": 16425,
  "don": 16429,
  "Ġhistorical": 16433,
  "Description": 16435,
  "Ġsuccessfully": 16436,
  "Ã¤h": 16438,
  "Ġhung": 16439,
  "ĠOrder": 16440,
  "uge": 16441,
  "Ps": 16443,
  "Ġsheet": 16444,
  "Ġcoach": 16445,
  "wen": 16448,
  "Ġgreatest": 16449,
  "Ġprepare": 16450,
  "ĠDid": 16452,
  "efined": 16454,
  "cluded": 16455,
  "Ġjur": 16456,
  "Ġnurs": 16457,
  "Ġaccurate": 16458,
  "Ġdhe": 16460,
  "Ġsurprised": 16461,
  "ĠPhot": 16466,
  "FR": 16467,
  "Ġbless": 16469,
  "Ġenerg": 16471,
  "ocker": 16472,
  "expected": 16474,
  "Ġec": 16475,
  "Ġcapable": 16477,
  "iku": 16478,
  "Ġdiverse": 16480,
  "Ġjan": 16481,
  "ĠYu": 16483,
  "ront": 16486,
  "ĠMrs": 16487,
  "riting": 16488,
  "Ġimagine": 16489,
  "Http": 16493,
  "Ġdz": 16495,
  "inf": 16496,
  "Ġfee": 16499,
  "iciÃ³n": 16501,
  "Ġknowing": 16502,
  "WE": 16504,
  "ĠEll": 16505,
  "Ġdepends": 16506,
  "Module": 16507,
  "Ġsaved": 16508,
  "miss": 16509,
  "src": 16516,
  "Ġkhi": 16517,
  "Ġmilk": 16518,
  "ĠAngeles": 16523,
  "Ġreligious": 16525,
  "yk": 16526,
  "Ġtransmission": 16527,
  "orry": 16528,
  "Ġemployee": 16533,
  "ĠPers": 16534,
  "ĠCup": 16535,
  "ĠDaniel": 16536,
  "Dr": 16537,
  "bul": 16538,
  "Ġplug": 16541,
  "Ġmeal": 16542,
  "bat": 16543,
  "apache": 16544,
  "ĠDC": 16545,
  "outs": 16550,
  "Ġedit": 16551,
  "hover": 16555,
  "Port": 16556,
  "ĠSong": 16557,
  "aci": 16559,
  "ĠWang": 16560,
  "Ġoverride": 16561,
  "MO": 16562,
  "Ġheader": 16563,
  "news": 16566,
  "Ġprove": 16569,
  "Cons": 16571,
  "Ġshipping": 16577,
  "Ġtall": 16579,
  "Ġmic": 16582,
  "ĠEsp": 16583,
  "eden": 16585,
  "_str": 16586,
  "Ġcreation": 16587,
  "LS": 16588,
  "Ġshares": 16592,
  "Ġcollected": 16593,
  "ĠaÃ°": 16594,
  "float": 16598,
  "Ġdetection": 16601,
  "imation": 16602,
  "empty": 16603,
  "Ġpit": 16604,
  "inden": 16605,
  "rÃ©": 16606,
  "onal": 16608,
  "inity": 16612,
  "ĠRoyal": 16613,
  "Ġuniversity": 16616,
  "zym": 16617,
  "Ġdensity": 16618,
  "xic": 16619,
  "None": 16620,
  "ĠArab": 16624,
  "Ġcrowd": 16625,
  "Ġhole": 16626,
  "Mem": 16627,
  "ĠSugar": 16630,
  "Ã³r": 16631,
  "Ġmuscle": 16632,
  "Stud": 16634,
  "Ġprzez": 16635,
  "Ġaccepted": 16638,
  "amples": 16639,
  "Ġvirus": 16640,
  "stylesheet": 16643,
  "Ġboys": 16644,
  "ieg": 16645,
  "Ġpy": 16646,
  "teen": 16651,
  "ACE": 16652,
  "Ġtrib": 16653,
  "uti": 16654,
  "Ġresolution": 16658,
  "Ġresponsibility": 16659,
  "ÃŁe": 16660,
  "ĠManager": 16661,
  "Ġattached": 16662,
  "Ġproceed": 16663,
  "Ġspin": 16664,
  "ichte": 16665,
  "Ġresidents": 16666,
  "Ġrealized": 16667,
  "ĠYoung": 16668,
  "Rel": 16672,
  "Ġapartment": 16673,
  "illy": 16675,
  "ĠbaÅŁ": 16676,
  "Ġphilosoph": 16679,
  "ĠGirl": 16680,
  "Game": 16681,
  "Process": 16682,
  "Ġevaluation": 16685,
  "Ġnaturally": 16686,
  "Gr": 16688,
  "Ġdip": 16690,
  "Ġcorrel": 16696,
  "atura": 16698,
  "Ġbacter": 16701,
  "Ġtex": 16703,
  "Ġbah": 16705,
  "Ġforth": 16706,
  "REE": 16708,
  "Ġease": 16710,
  "Ġbrowser": 16712,
  "Ã¤tt": 16714,
  "alis": 16715,
  "help": 16716,
  "Ġrig": 16718,
  "Ġjuga": 16719,
  "formance": 16721,
  "irtual": 16722,
  "Ġfro": 16724,
  "Ġnative": 16725,
  "ĠOffic": 16726,
  "ostaÅĤ": 16727,
  "Ġwearing": 16728,
  "arser": 16729,
  "Ġjoy": 16730,
  "ĠNext": 16731,
  "Ġstudied": 16732,
  "Ġital": 16734,
  "Ġeer": 16735,
  "ogo": 16736,
  "Ġanc": 16738,
  "Ins": 16739,
  "GA": 16740,
  "Ġsupporting": 16742,
  "Cor": 16744,
  "orem": 16747,
  "ĠPac": 16748,
  "Types": 16750,
  "quer": 16751,
  "ĠBefore": 16754,
  "printf": 16756,
  "Ġauthentic": 16761,
  "untime": 16762,
  "Ġcleaning": 16763,
  "ĠVideo": 16764,
  "Ġanxiety": 16766,
  "Ġisland": 16767,
  "ĠMur": 16768,
  "thlet": 16771,
  "Ã±o": 16774,
  "Ġevol": 16777,
  "QQ": 16779,
  "amo": 16781,
  "react": 16783,
  "etite": 16784,
  "ĠInn": 16785,
  "Ġjack": 16786,
  "ĠLine": 16787,
  "Ġfoods": 16788,
  "Entry": 16791,
  "Ġeffectively": 16795,
  "frastructure": 16797,
  "jes": 16798,
  "Ġdegrees": 16799,
  "Ġnine": 16800,
  "Ġinterests": 16802,
  "ĠValley": 16803,
  "Ġwinning": 16804,
  "ĠLive": 16807,
  "ĠUnter": 16809,
  "Ġcomposition": 16811,
  "Ã¹ng": 16812,
  "hend": 16813,
  "ĠLy": 16816,
  "orph": 16817,
  "Ġestimated": 16819,
  "Ġexposure": 16820,
  "Ġapps": 16822,
  "ixel": 16824,
  "_get": 16825,
  "Ġib": 16826,
  "Ġapproved": 16827,
  "Ġbol": 16828,
  "ĠIslam": 16829,
  "Ġyellow": 16830,
  "Ġoperator": 16832,
  "ĠSel": 16839,
  "stell": 16841,
  "Ġvertical": 16843,
  "Ġcorre": 16844,
  "Ġworden": 16846,
  "iso": 16847,
  "Ġtelling": 16849,
  "_time": 16851,
  "ibilities": 16852,
  "Integer": 16853,
  "ĠHD": 16854,
  "Ġfindings": 16855,
  "should": 16859,
  "ĠMarket": 16860,
  "Ġanywhere": 16863,
  "Ġcrime": 16864,
  "czy": 16865,
  "Ġtam": 16866,
  "Ġtypical": 16868,
  "Ġtodo": 16870,
  "ampion": 16871,
  "BUG": 16873,
  "ĠXia": 16874,
  "Ġrod": 16875,
  "Ġtrigger": 16876,
  "Ġarrang": 16877,
  "Ã¤ll": 16878,
  "achel": 16880,
  "ska": 16881,
  "ocs": 16882,
  "Ġdram": 16883,
  "ifies": 16886,
  "make": 16887,
  "ĠAff": 16888,
  "tor": 16889,
  "pite": 16890,
  "esc": 16891,
  "lines": 16892,
  "Ġsilver": 16895,
  "Ġnove": 16900,
  "Ġthu": 16901,
  "esa": 16902,
  "Email": 16903,
  "ĠColl": 16908,
  "Ġflight": 16909,
  "ometer": 16912,
  "ĠBern": 16915,
  "Good": 16916,
  "Ġdefense": 16922,
  "Ã¡nÃŃ": 16923,
  "Return": 16924,
  "Ġsplit": 16925,
  "Ġdebt": 16926,
  "Ġpremier": 16927,
  "ensch": 16928,
  "Ġupdates": 16929,
  "adv": 16930,
  "ÈĽi": 16931,
  "Ġej": 16935,
  "Direct": 16940,
  "ested": 16943,
  "Ġsurprise": 16944,
  "Ġtechnologies": 16946,
  "Ġschedul": 16947,
  "Ġappreciate": 16948,
  "away": 16949,
  "Ġexciting": 16950,
  "person": 16954,
  "Ġagric": 16955,
  "Ġsolve": 16958,
  "ĠStock": 16960,
  "Ġauthority": 16963,
  "ĠHaw": 16964,
  "Panel": 16965,
  "scription": 16966,
  "Ġsab": 16969,
  "agne": 16970,
  "Ġagents": 16971,
  "Ġalgorithm": 16972,
  "ĠCreat": 16973,
  "Ġfluid": 16976,
  "Ġlovely": 16977,
  "Ġtwe": 16979,
  "Ġez": 16981,
  "Ġclock": 16982,
  "Ġemotional": 16983,
  "idelines": 16985,
  "Ġdollars": 16986,
  "Ġspiritual": 16987,
  "Ġfrequently": 16988,
  "ĠEffect": 16989,
  "bie": 16993,
  "Ġgoods": 16994,
  "Ġbreakfast": 17000,
  "ĠtambiÃ©n": 17001,
  "IGHT": 17002,
  "Ġmeat": 17005,
  "ĠCentre": 17006,
  "Ġgender": 17008,
  "Ġopposite": 17009,
  "Ġtells": 17011,
  "ĠImage": 17013,
  "Ġimper": 17014,
  "Window": 17015,
  "ĠClin": 17018,
  "Ġassistance": 17019,
  "Ġpic": 17021,
  "ĠField": 17022,
  "Ġcourses": 17023,
  "_info": 17024,
  "ĠBase": 17026,
  "some": 17027,
  "Grid": 17028,
  "Ġcontroller": 17029,
  "Ġinterior": 17030,
  "Ġlin": 17031,
  "Ġinvolve": 17033,
  "zw": 17034,
  "Card": 17035,
  "Ġcoast": 17037,
  "ĠPolit": 17040,
  "Ġbrown": 17042,
  "ampionship": 17045,
  "utils": 17046,
  "Ġafternoon": 17047,
  "Book": 17048,
  "Ġjou": 17050,
  "ĠAccount": 17055,
  "Ġadj": 17058,
  "ĠBul": 17060,
  "Ġimprovement": 17064,
  "DI": 17067,
  "ateur": 17068,
  "oko": 17069,
  "ingers": 17072,
  "STR": 17073,
  "eling": 17074,
  "Ä±nÄ±n": 17075,
  "ĠAnother": 17077,
  "Ġexpressed": 17079,
  "price": 17080,
  "Ġfavour": 17081,
  "ĠLow": 17085,
  "Ġprofessionals": 17086,
  "Ġobviously": 17092,
  "Ġsetup": 17093,
  "Ġprofit": 17094,
  "Ġstable": 17095,
  "ĠWatch": 17096,
  "Ġkne": 17098,
  "Ġshut": 17100,
  "orough": 17102,
  "Version": 17104,
  "ĠJon": 17105,
  "Ġourselves": 17106,
  "Ġanalyz": 17109,
  "Ġordered": 17110,
  "_count": 17111,
  "Ġreasonable": 17117,
  "Ġmurder": 17124,
  "ĠBit": 17128,
  "jar": 17129,
  "Ġchoices": 17130,
  "Ġketo": 17132,
  "Ġclar": 17134,
  "ĠRod": 17135,
  "description": 17137,
  "Ġfreedom": 17138,
  "Ġhyper": 17144,
  "ĠKit": 17145,
  "Ġreaders": 17146,
  "Edit": 17147,
  "Ġentirely": 17148,
  "Ġsegment": 17153,
  "Ġproof": 17154,
  "Ġengineering": 17156,
  "Ġlights": 17159,
  "common": 17160,
  "arten": 17161,
  "ĠGuide": 17162,
  "Ġcompens": 17163,
  "closed": 17165,
  "nership": 17167,
  "Ġnord": 17169,
  "chron": 17170,
  "Ġpare": 17172,
  "isted": 17173,
  "Ġviv": 17175,
  "ibt": 17177,
  "Ġmonitoring": 17179,
  "istent": 17180,
  "Ġtap": 17183,
  "Ġguid": 17188,
  "Ġsá»ĳ": 17189,
  "Ġregional": 17191,
  "Ġmont": 17193,
  "ĠYe": 17195,
  "tag": 17197,
  "Ġhaben": 17199,
  "Ġcontrolled": 17200,
  "ĠNam": 17202,
  "Ġgap": 17203,
  "blem": 17204,
  "Also": 17207,
  "ĠEmp": 17208,
  "asty": 17210,
  "Ġokay": 17212,
  "Ġdag": 17213,
  "kal": 17214,
  "Ġrend": 17215,
  "small": 17217,
  "ĠPS": 17218,
  "ĠmÃ¥": 17221,
  "Ãºblic": 17224,
  "igma": 17227,
  "ĠKnow": 17229,
  "Ġcrazy": 17230,
  "_e": 17232,
  "bc": 17233,
  "Ġmater": 17236,
  "rieb": 17237,
  "Ġliked": 17242,
  "FS": 17243,
  "Ġvehicles": 17245,
  "ĠRam": 17249,
  "Ġcarefully": 17251,
  "Ġoraz": 17254,
  "Ġlad": 17256,
  "Height": 17258,
  "ĠCath": 17260,
  "ĠJapanese": 17261,
  "Ġdance": 17262,
  "Ġsmiled": 17265,
  "Ġboat": 17273,
  "Ġanymore": 17274,
  "imit": 17276,
  "Ġprompt": 17277,
  "Function": 17280,
  "Ġreliable": 17281,
  "Ġfold": 17283,
  "iac": 17285,
  "Ġassume": 17286,
  "ĠEgy": 17287,
  "Ġprocedures": 17288,
  "Hi": 17289,
  "Ġsuc": 17292,
  "ĠWas": 17293,
  "Ġurban": 17294,
  "zeit": 17295,
  "brid": 17300,
  "Ġzd": 17301,
  "heit": 17302,
  "Ġip": 17303,
  "ĠJohnson": 17304,
  "Ġsevere": 17305,
  "control": 17306,
  "length": 17307,
  "Ġmachines": 17312,
  "ĠDies": 17314,
  "Ġbot": 17317,
  "nap": 17319,
  "Ġdialog": 17320,
  "okes": 17321,
  "Ġcooper": 17322,
  "Ġconj": 17324,
  "Ġcrim": 17328,
  "Ġanaly": 17330,
  "ÃŃcul": 17332,
  "Ġdent": 17334,
  "Ġfault": 17335,
  "Ġlaun": 17337,
  "Ġexistence": 17338,
  "Ġinvestigation": 17341,
  "inent": 17342,
  "Ġreput": 17343,
  "inking": 17345,
  "Ġunderstood": 17347,
  "ĠTerm": 17349,
  "Ġchest": 17351,
  "Ġemergency": 17352,
  "Ġsuperior": 17353,
  "Ġbegins": 17354,
  "ĠHon": 17360,
  "Ġplanet": 17361,
  "Si": 17366,
  "Ġtras": 17367,
  "INS": 17371,
  "Ġfot": 17372,
  "aler": 17373,
  "Ġindicated": 17374,
  "á»ĳi": 17375,
  "Ġimplic": 17376,
  "Ġdot": 17377,
  "Ã³g": 17378,
  "ONE": 17379,
  "Ġsecondary": 17381,
  "Ġinstallation": 17382,
  "ĠvÃ¦": 17383,
  "Ġdose": 17384,
  "ĠLibrary": 17385,
  "Ġstatist": 17386,
  "Ġviagra": 17388,
  "Ġnue": 17389,
  "Ġnetworks": 17393,
  "ĠDam": 17396,
  "tra": 17398,
  "ĠExec": 17399,
  "Activity": 17401,
  "ĠFederal": 17402,
  "orship": 17403,
  "Ġpossibility": 17404,
  "ĠVAL": 17405,
  "jem": 17406,
  "Ã¤s": 17407,
  "MENT": 17408,
  "Ġregistered": 17409,
  "ĠCho": 17410,
  "Ġpersons": 17411,
  "stitution": 17413,
  "orney": 17419,
  "BB": 17421,
  "AK": 17422,
  "ynt": 17423,
  "Que": 17424,
  "Ġturning": 17425,
  "Ġinfection": 17426,
  "Ġformal": 17428,
  "ventional": 17430,
  "Ġachieved": 17431,
  "high": 17432,
  "dk": 17433,
  "ĠError": 17436,
  "Play": 17437,
  "hesis": 17440,
  "insi": 17442,
  "SQL": 17446,
  "Ġfantastic": 17447,
  "Ġtrend": 17448,
  "itative": 17449,
  "Ġvez": 17450,
  "pled": 17451,
  "Ġindepend": 17453,
  "chem": 17455,
  "Ġroof": 17458,
  "Ġtopics": 17460,
  "Ġpaying": 17462,
  "Ġexplan": 17463,
  "Ġmembr": 17465,
  "Ġproport": 17466,
  "ocity": 17468,
  "Ġletters": 17469,
  "Ġfacilit": 17470,
  "webkit": 17473,
  "Ġwalls": 17475,
  "Nav": 17476,
  "ĠRh": 17477,
  "Note": 17478,
  "Ġreferred": 17481,
  "via": 17482,
  "VC": 17484,
  "Ġfunny": 17485,
  "ologie": 17486,
  "Ġfighting": 17489,
  "Ġhorse": 17490,
  "cknow": 17493,
  "Ġfacts": 17495,
  "folio": 17496,
  "nament": 17498,
  "omes": 17499,
  "ĠUm": 17500,
  "Api": 17501,
  "Ġlift": 17503,
  "Ġoccurs": 17504,
  "ennis": 17506,
  "Ġbranch": 17508,
  "ĠMaria": 17511,
  "Ġdesired": 17513,
  "dam": 17515,
  "quir": 17517,
  "fi": 17518,
  "larg": 17520,
  "Script": 17521,
  "ahn": 17523,
  "covery": 17524,
  "Ġtá»«": 17525,
  "late": 17526,
  "ĠProcess": 17527,
  "owaÅĤ": 17528,
  "ĠÃ©ta": 17531,
  "Ġfinns": 17532,
  "acks": 17533,
  "Ġgrat": 17534,
  "PN": 17535,
  "Ġcitizens": 17536,
  "Long": 17537,
  "Ġile": 17539,
  "Ġvolunte": 17542,
  "otion": 17543,
  "ĠHas": 17544,
  "call": 17545,
  "ĠExpl": 17546,
  "Ġcontrols": 17547,
  "ĠiÃ§in": 17548,
  "Ġmountain": 17549,
  "Po": 17550,
  "store": 17551,
  "Ġsous": 17552,
  "stru": 17553,
  "ĠSupport": 17555,
  "Ġcircumstances": 17556,
  "Ġelection": 17560,
  "normal": 17563,
  "ĠVill": 17569,
  "Ã´i": 17570,
  "Ġprima": 17571,
  "ticle": 17572,
  "Ġcada": 17573,
  "ĠJoseph": 17574,
  "Ġcalculated": 17579,
  "scribe": 17580,
  "Many": 17581,
  "ersey": 17582,
  "register": 17583,
  "Ġstrange": 17584,
  "Ġstrict": 17585,
  "Ġdisput": 17587,
  "avascript": 17588,
  "Store": 17589,
  "Ġcultiv": 17591,
  "oret": 17594,
  "Ġstudio": 17595,
  "oren": 17598,
  "ÄŁi": 17599,
  "ĠMedicine": 17600,
  "ĠClick": 17601,
  "utch": 17602,
  "system": 17603,
  "Ġcrisis": 17604,
  "Ġretain": 17605,
  "uo": 17606,
  "Ġmissed": 17607,
  "ĠJoh": 17608,
  "ĠJones": 17610,
  "Ġdad": 17611,
  "Ġhtml": 17615,
  "ĠNS": 17616,
  "ulty": 17618,
  "Ġcritic": 17619,
  "plus": 17620,
  "Ġelectron": 17621,
  "inue": 17622,
  "Ġconfirmed": 17624,
  "apers": 17625,
  "atalogue": 17626,
  "ulous": 17627,
  "upid": 17628,
  "ĠFestival": 17629,
  "ĠSup": 17635,
  "Ġmatters": 17636,
  "run": 17638,
  "Ãºs": 17639,
  "Ġlatter": 17641,
  "Ġformula": 17642,
  "Tube": 17644,
  "yal": 17645,
  "irty": 17647,
  "Ġbirthday": 17651,
  "Ġrit": 17652,
  "Ġchief": 17653,
  "Ġviolence": 17654,
  "_url": 17656,
  "ĠTurn": 17657,
  "ocated": 17659,
  "ĠCur": 17661,
  "Since": 17662,
  "Ġproj": 17665,
  "xc": 17666,
  "bagai": 17669,
  "Ġlunch": 17670,
  "ĠWhich": 17671,
  "Ġdangerous": 17673,
  "osto": 17675,
  "Ġgrande": 17677,
  "Ġhook": 17678,
  "uba": 17680,
  "Ġihr": 17681,
  "ĠMic": 17682,
  "Ġcomprehensive": 17684,
  "ĠNight": 17685,
  "acji": 17686,
  "Ġunknown": 17687,
  "stone": 17689,
  "Ġwebsites": 17691,
  "uw": 17692,
  "ije": 17694,
  "ĠWalk": 17695,
  "Ġbike": 17696,
  "Ġeleg": 17698,
  "ĠAsia": 17699,
  "ĠaÃ±os": 17701,
  "OG": 17702,
  "aylor": 17703,
  "impl": 17710,
  "dem": 17714,
  "ĠChris": 17716,
  "iker": 17719,
  "onio": 17721,
  "assen": 17722,
  "Ã¼m": 17725,
  "HP": 17726,
  "Ġatau": 17728,
  "Ġhonor": 17729,
  "Sign": 17731,
  "ĠBad": 17732,
  "ĠUk": 17733,
  "Ġhumans": 17734,
  "ĠNic": 17735,
  "Ġfacility": 17737,
  "Ġcui": 17739,
  "Ġdraft": 17741,
  "Ġlegs": 17742,
  "Ġaer": 17743,
  "Je": 17744,
  "require": 17746,
  "Ġcounty": 17747,
  "Mr": 17749,
  "Ġchart": 17750,
  "Length": 17751,
  "Ġevolution": 17752,
  "Ġverd": 17754,
  "erra": 17755,
  "ocolate": 17756,
  "Ġleur": 17757,
  "ĠOx": 17759,
  "tons": 17760,
  "Ġvisible": 17762,
  "property": 17764,
  "haust": 17766,
  "Ġwitness": 17767,
  "Ġvital": 17769,
  "iÄĻ": 17770,
  "lywood": 17771,
  "Ġprotest": 17772,
  "Ġwealth": 17776,
  "Ġgrown": 17778,
  "Ġminim": 17779,
  "According": 17780,
  "ĠAcademy": 17781,
  "ktop": 17782,
  "Ġentity": 17785,
  "ĠSuch": 17786,
  "Ġseed": 17788,
  "ĠTri": 17789,
  "DN": 17791,
  "Ġcolour": 17792,
  "Ġreb": 17794,
  "Ġtough": 17795,
  "richt": 17796,
  "False": 17801,
  "emple": 17803,
  "igs": 17808,
  "ĠMexico": 17810,
  "Ġbinding": 17811,
  "Ġlinked": 17812,
  "Ġcommitted": 17813,
  "ĠVersion": 17815,
  "Ġcutting": 17818,
  "efully": 17821,
  "Ġconsumer": 17824,
  "ĠEngineering": 17825,
  "Ã¡st": 17827,
  "azi": 17828,
  "Application": 17829,
  "iams": 17830,
  "imately": 17832,
  "Ġrect": 17833,
  "istas": 17837,
  "Ġpla": 17839,
  "Ġexperimental": 17840,
  "Ġsolar": 17844,
  "itas": 17845,
  "ferences": 17846,
  "Ġscheme": 17848,
  "heim": 17849,
  "bec": 17850,
  "Ġexport": 17851,
  "Ġfest": 17852,
  "ĠLittle": 17853,
  "Ġsowie": 17857,
  "Ġbodies": 17859,
  "Step": 17860,
  "Ġsoll": 17861,
  "Ġfunding": 17865,
  "Ġbone": 17867,
  "Ġencounter": 17868,
  "reich": 17869,
  "Ġgear": 17870,
  "xff": 17871,
  "uros": 17873,
  "Ġwaren": 17874,
  "pons": 17876,
  "Ġartists": 17878,
  "ĠRight": 17879,
  "Ġvoltage": 17880,
  "Ġoccurred": 17881,
  "IVE": 17886,
  "Local": 17887,
  "Ġbasically": 17888,
  "Ġeducational": 17889,
  "urers": 17891,
  "Ġga": 17892,
  "account": 17894,
  "itel": 17895,
  "ÃŃv": 17896,
  "Ġsole": 17897,
  "Ġdirectory": 17898,
  "ĠSym": 17901,
  "Ġworst": 17903,
  "ĠSem": 17905,
  "Ġfeelings": 17906,
  "Ġdelivered": 17908,
  "Ġvaluable": 17911,
  "Ġyounger": 17912,
  "á»Ŀi": 17914,
  "ĠmÃªme": 17915,
  "Parameter": 17916,
  "asÄ±": 17917,
  "Ġresponses": 17921,
  "ĠFalse": 17922,
  "ĠURL": 17924,
  "Ġperfectly": 17925,
  "lyn": 17927,
  "jer": 17928,
  "Ok": 17931,
  "Ġoffset": 17932,
  "Ġforum": 17934,
  "hs": 17936,
  "Ġedition": 17937,
  "Ã¨res": 17938,
  "ITE": 17942,
  "ĠBoston": 17944,
  "Ġsharp": 17945,
  "jÄħ": 17947,
  "Ġtun": 17948,
  "ajÄħ": 17957,
  "Ġunable": 17959,
  "ĠAction": 17960,
  "Ġterror": 17961,
  "Art": 17962,
  "gang": 17963,
  "Ġye": 17964,
  "ĠSpring": 17965,
  "Ġpeng": 17966,
  "Ġserving": 17968,
  "Ġmond": 17969,
  "ĠMah": 17972,
  "indi": 17973,
  "ĠAmericans": 17974,
  "ĠStan": 17975,
  "kes": 17976,
  "ĠMu": 17978,
  "iai": 17980,
  "Ġissued": 17981,
  "ĠWild": 17982,
  "ĠLocal": 17983,
  "Ġblank": 17984,
  "Ġdiscipl": 17985,
  "amine": 17986,
  "ĠJeff": 17988,
  "omo": 17989,
  "areness": 17991,
  "Ġofficials": 17992,
  "igue": 17995,
  "Ġautor": 17996,
  "Ġdeals": 18004,
  "ORM": 18005,
  "Ġblo": 18007,
  "Ġsight": 18008,
  "Ġfees": 18009,
  "Ġrear": 18010,
  "Windows": 18011,
  "anny": 18012,
  "ĠHenry": 18013,
  "unter": 18015,
  "Ġwieder": 18016,
  "iá»ĥ": 18019,
  "LI": 18021,
  "bot": 18022,
  "Ġmant": 18024,
  "LY": 18026,
  "ĠFrancisco": 18027,
  "Ġwatched": 18030,
  "Ġsituations": 18032,
  "star": 18033,
  "Ġrelief": 18034,
  "ĠObama": 18035,
  "flu": 18036,
  "Ġholds": 18038,
  "Ġuniform": 18044,
  "Ġinstitution": 18047,
  "Ġsuppress": 18048,
  "ardo": 18049,
  "ĠEnvironment": 18050,
  "role": 18052,
  "Ġcapac": 18053,
  "ilor": 18054,
  "Ġsuggests": 18057,
  "abeth": 18061,
  "ĠSaf": 18062,
  "ĠvÃło": 18063,
  "_key": 18064,
  "Ġcorporate": 18066,
  "Ġtalent": 18067,
  "NC": 18068,
  "tan": 18069,
  "ĠMike": 18070,
  "ĠLab": 18071,
  "Ġposit": 18075,
  "Ġlean": 18076,
  "region": 18077,
  "Ġconstru": 18079,
  "Ġcycl": 18081,
  "umps": 18082,
  "Ġseriously": 18085,
  "HD": 18086,
  "Google": 18090,
  "Ġpon": 18093,
  "Ġrapp": 18094,
  "Ġpartners": 18096,
  "owy": 18097,
  "ĠLeb": 18099,
  "Ġmoments": 18101,
  "Ġmanufacturing": 18103,
  "Although": 18104,
  "ĠHet": 18105,
  "Widget": 18108,
  "before": 18109,
  "Ġnarrow": 18110,
  "Ġzo": 18115,
  "Ġconvenient": 18117,
  "Sw": 18118,
  "uno": 18121,
  "Ġrecognized": 18122,
  "Ġsubjects": 18126,
  "nah": 18128,
  "keys": 18130,
  "ĠBud": 18131,
  "ensus": 18133,
  "Equals": 18137,
  "ĠInitial": 18138,
  "Ġjustice": 18140,
  "ĠGes": 18143,
  "Ġfellow": 18144,
  "Ġtables": 18149,
  "Ġexit": 18150,
  "ĠRussian": 18151,
  "IND": 18152,
  "application": 18153,
  "cem": 18155,
  "Ġcatal": 18156,
  "ĠFROM": 18159,
  "Ġenth": 18160,
  "Ġdels": 18161,
  "ĠÄĳáº¿n": 18164,
  "ĠArm": 18165,
  "users": 18166,
  "Ġdecades": 18170,
  "yu": 18172,
  "antee": 18177,
  "Ġreplaced": 18178,
  "hte": 18180,
  "vÃŃ": 18184,
  "kw": 18185,
  "Ġshell": 18186,
  "Tra": 18187,
  "Ġserial": 18189,
  "Ã¼h": 18190,
  "Ġsubstr": 18192,
  "Ġtube": 18198,
  "anguages": 18200,
  "Two": 18201,
  "Ġgem": 18204,
  "Ã¶t": 18206,
  "Ġhousehold": 18207,
  "Ġvec": 18208,
  "Ġassets": 18209,
  "Ġnic": 18210,
  "igate": 18212,
  "hot": 18213,
  "Ġsle": 18214,
  "ĠkÃ¶z": 18216,
  "redit": 18217,
  "Ġmini": 18218,
  "Ġpassing": 18219,
  "Ġincident": 18220,
  "ĠJoe": 18223,
  "Ġrepeated": 18225,
  "tech": 18226,
  "FAULT": 18227,
  "Ġhappening": 18230,
  "Ġmassive": 18231,
  "ĠKim": 18232,
  "Äģs": 18233,
  "ĠSus": 18234,
  "ĠArts": 18236,
  "ĠHal": 18237,
  "Ġtransaction": 18239,
  "Json": 18240,
  "Ġtodos": 18243,
  "ĠpÃ«r": 18244,
  "imming": 18248,
  "Ġcrypt": 18249,
  "offset": 18251,
  "ĠWIT": 18256,
  "iation": 18258,
  "struction": 18259,
  "GR": 18262,
  "Ġanalys": 18263,
  "Ġiter": 18265,
  "Ġbio": 18267,
  "Ġdifer": 18268,
  "Ġsentence": 18272,
  "Ġsizes": 18273,
  "ĠSir": 18274,
  "Ġbringing": 18275,
  "azioni": 18279,
  "Exec": 18281,
  "Ġhes": 18283,
  "Ġelectrical": 18285,
  "atto": 18286,
  "IES": 18287,
  "Ġric": 18289,
  "Ġpapers": 18294,
  "Will": 18295,
  "ĠFall": 18296,
  "Æ¡n": 18297,
  "embre": 18299,
  "SR": 18300,
  "oks": 18302,
  "Author": 18303,
  "ulla": 18305,
  "Ġoleh": 18306,
  "Ġtelevision": 18309,
  "Ġoriginally": 18314,
  "Ġmanifest": 18316,
  "ĠOd": 18318,
  "Ġnaar": 18321,
  "ĠPrice": 18322,
  "echo": 18324,
  "Intern": 18327,
  "Ġsurrounding": 18328,
  "Ġrecipe": 18329,
  "ascular": 18331,
  "Only": 18332,
  "Ġpeak": 18333,
  "Ġwaar": 18335,
  "prote": 18336,
  "owej": 18337,
  "arde": 18338,
  "ĠAle": 18340,
  "oire": 18342,
  "HR": 18343,
  "nym": 18344,
  "none": 18345,
  "Ġevil": 18346,
  "Ġfost": 18347,
  "oche": 18348,
  "utz": 18349,
  "lation": 18352,
  "iest": 18354,
  "Ġlayout": 18355,
  "Params": 18357,
  "Ġconstantly": 18358,
  "inners": 18359,
  "ĠUpdate": 18360,
  "xFF": 18361,
  "ERROR": 18363,
  "ÃŃas": 18364,
  "ĠSin": 18365,
  "ichen": 18367,
  "Ġofficer": 18368,
  "ĠConf": 18370,
  "Ġmixture": 18371,
  "Ġster": 18372,
  "RNA": 18373,
  "ĠkÃ¶nnen": 18374,
  "anci": 18375,
  "ĠHelp": 18376,
  "mean": 18377,
  "athan": 18378,
  "ĠWat": 18379,
  "Ġsubt": 18380,
  "Ġpens": 18383,
  "Ġwal": 18385,
  "Ġdecrease": 18387,
  "Ġbasket": 18389,
  "Ġwidely": 18390,
  "Ġsupports": 18391,
  "BE": 18393,
  "ĠSP": 18396,
  "Ġwarrant": 18397,
  "Ġcandidate": 18398,
  "ĠCat": 18399,
  "Ġdivision": 18401,
  "Ġlikes": 18404,
  "ĠStore": 18406,
  "ĠAward": 18413,
  "Account": 18414,
  "Ġpresents": 18415,
  "Ġfigures": 18421,
  "Ġphotograph": 18422,
  "Ġhundreds": 18423,
  "Utils": 18425,
  "ĠPDF": 18426,
  "Ġadministr": 18431,
  "Ġchecked": 18432,
  "Hist": 18433,
  "ĠDur": 18434,
  "hao": 18435,
  "erse": 18436,
  "ipher": 18440,
  "Ġdisappoint": 18442,
  "Ġdefe": 18446,
  "ĠLA": 18452,
  "Ġplanned": 18453,
  "Ġts": 18454,
  "iau": 18459,
  "ĠBlog": 18460,
  "isse": 18461,
  "Arg": 18462,
  "Ġreserv": 18463,
  "Ġblow": 18465,
  "Ġkel": 18466,
  "Ġfn": 18467,
  "ĠOS": 18469,
  "Ġkle": 18471,
  "Ġassociation": 18472,
  "ĠGames": 18476,
  "_index": 18477,
  "Ġcad": 18478,
  "Ġbab": 18479,
  "Dialog": 18482,
  "Ġcoordin": 18486,
  "Ġspoke": 18490,
  "Ġcual": 18491,
  "icz": 18493,
  "Ġlady": 18494,
  "Ġexperiments": 18495,
  "Ġfasc": 18497,
  "Ġabsor": 18498,
  "Ġneighborhood": 18499,
  "Ġyap": 18501,
  "arta": 18502,
  "ĠImm": 18503,
  "tek": 18504,
  "Ġcharges": 18505,
  "isme": 18506,
  "astern": 18508,
  "Ġapproaches": 18509,
  "ĠSystems": 18510,
  "Ġreact": 18511,
  "Ġveg": 18512,
  "ĠStudies": 18513,
  "quired": 18514,
  "Ġcovers": 18515,
  "ĠGre": 18516,
  "ĠThose": 18521,
  "Ġleb": 18524,
  "Ġterminal": 18526,
  "erta": 18527,
  "ĠÃªtre": 18531,
  "ĠTag": 18532,
  "Ġdesigns": 18534,
  "anes": 18535,
  "Ġgay": 18536,
  "HTML": 18538,
  "Ġket": 18540,
  "Ġads": 18541,
  "Ġlosing": 18542,
  "menu": 18545,
  "Ġtradition": 18547,
  "Ġmeasurement": 18548,
  "Ġkes": 18549,
  "lav": 18550,
  "Ġsomewhat": 18553,
  "components": 18554,
  "Ġflowers": 18555,
  "Ġrail": 18556,
  "DNA": 18557,
  "Ġgrav": 18558,
  "xd": 18565,
  "Ġteeth": 18566,
  "Ġrecon": 18567,
  "Ġcompat": 18568,
  "kÃ©": 18569,
  "Most": 18571,
  "Ġhardware": 18572,
  "Ġblocks": 18573,
  "Ġces": 18574,
  "ernel": 18575,
  "ĠValue": 18577,
  "ĠXV": 18579,
  "lett": 18584,
  "Ġarmy": 18590,
  "edly": 18591,
  "asts": 18593,
  "Ġmoves": 18595,
  "Ġshoes": 18596,
  "Ġarguments": 18597,
  "Ġestas": 18599,
  "KEY": 18603,
  "ĠRay": 18604,
  "Tree": 18605,
  "Ġstands": 18606,
  "otte": 18607,
  "Ġreligion": 18611,
  "Ġtaught": 18612,
  "Ġapplicable": 18616,
  "Ġrice": 18617,
  "stan": 18618,
  "Ġbelieved": 18619,
  "Ġoutcomes": 18620,
  "Ġbuildings": 18621,
  "Found": 18631,
  "ilipp": 18633,
  "Ã©nÃ©": 18634,
  "ĠWilliams": 18636,
  "jas": 18637,
  "ĠBall": 18638,
  "resa": 18642,
  "igration": 18645,
  "Ġconflict": 18646,
  "ijd": 18648,
  "eman": 18651,
  "berry": 18652,
  "ĠExp": 18653,
  "Ġintel": 18654,
  "Ġreply": 18655,
  "Ġmillions": 18656,
  "xygen": 18657,
  "Gen": 18659,
  "ikes": 18662,
  "ĠPor": 18664,
  "Ġversch": 18665,
  "Ġdeposit": 18667,
  "ĠPak": 18668,
  "Ġkeeps": 18669,
  "Ġduration": 18671,
  "contr": 18673,
  "asant": 18674,
  "ĠVen": 18677,
  "Ġdiseases": 18678,
  "Ġconsumption": 18679,
  "Ġreward": 18680,
  "arrow": 18685,
  "Ġaxis": 18687,
  "children": 18688,
  "ĠWhether": 18692,
  "Ġrul": 18694,
  "hh": 18695,
  "Interface": 18696,
  "Ġtwenty": 18698,
  "FONT": 18700,
  "ĠPressure": 18701,
  "inta": 18703,
  "Ġinstitutions": 18704,
  "Ġdisk": 18706,
  "Ġhyd": 18708,
  "etry": 18710,
  "ĠStadt": 18711,
  "ailability": 18715,
  "ycz": 18716,
  "Ġcable": 18718,
  "Ġpercentage": 18719,
  "wd": 18720,
  "ĠCond": 18722,
  "Ġtonight": 18726,
  "aku": 18728,
  "WS": 18729,
  "oso": 18730,
  "Ġguest": 18731,
  "Ġlistening": 18732,
  "ĠmÃ¶": 18733,
  "adel": 18736,
  "orie": 18738,
  "rett": 18740,
  "ordan": 18741,
  "Ev": 18743,
  "estamp": 18746,
  "rieved": 18747,
  "Ġtone": 18749,
  "ĠSav": 18750,
  "Ġnaz": 18752,
  "reb": 18753,
  "ĠOlymp": 18754,
  "lers": 18755,
  "ĠYang": 18757,
  "ĠDigital": 18758,
  "Ġversions": 18759,
  "auc": 18761,
  "ĠShould": 18763,
  "Ġupload": 18765,
  "Ang": 18766,
  "Ġpreferred": 18767,
  "Ġlub": 18768,
  "Ġchannels": 18769,
  "Ġphenomen": 18773,
  "acle": 18776,
  "ĠFour": 18783,
  "neh": 18784,
  "Ġprinciples": 18787,
  "Another": 18791,
  "Ġgang": 18793,
  "ĠSz": 18794,
  "best": 18796,
  "Ġloud": 18798,
  "Body": 18799,
  "onda": 18801,
  "Ġequivalent": 18803,
  "imiento": 18804,
  "Ġrestaurants": 18806,
  "ĠBE": 18810,
  "erek": 18811,
  "ĠCou": 18812,
  "Ġconse": 18814,
  "far": 18815,
  "kel": 18816,
  "Ġdebut": 18818,
  "low": 18819,
  "Ġbread": 18821,
  "Ġcriminal": 18822,
  "Ġassign": 18823,
  "á»ĳc": 18825,
  "icons": 18826,
  "ĠLevel": 18827,
  "ĠSports": 18828,
  "Ġaussi": 18830,
  "ĠMaterial": 18832,
  "Ġcharged": 18833,
  "Ġreject": 18834,
  "NU": 18835,
  "Ġkiss": 18836,
  "Ġnous": 18837,
  "Ġtrop": 18838,
  "Ġmuse": 18839,
  "Ġflash": 18840,
  "ktion": 18843,
  "Ġhasta": 18844,
  "ĠChildren": 18846,
  "navbar": 18848,
  "prene": 18850,
  "Ġaccuracy": 18851,
  "ĠSC": 18852,
  "iera": 18853,
  "Ġcoord": 18854,
  "icket": 18856,
  "Ġfolks": 18857,
  "Ġcausing": 18858,
  "Ġcriteria": 18860,
  "Once": 18862,
  "chester": 18865,
  "_text": 18867,
  "Ġsomewhere": 18869,
  "apper": 18870,
  "ĠEuro": 18872,
  "ĠMale": 18873,
  "Ġdestination": 18874,
  "Ġion": 18876,
  "ĠDou": 18877,
  "Ġoct": 18878,
  "pository": 18880,
  "Non": 18882,
  "Args": 18884,
  "eti": 18885,
  "tery": 18888,
  "Ġspaces": 18889,
  "ĠJackson": 18890,
  "Ġcontribute": 18891,
  "gba": 18893,
  "ĠPod": 18894,
  "rogen": 18897,
  "auer": 18899,
  "aud": 18900,
  "Ġfairly": 18902,
  "Ġroles": 18903,
  "Ġdrivers": 18905,
  "Ġhide": 18907,
  "ĠFollow": 18909,
  "Pay": 18912,
  "angular": 18915,
  "ĠSeg": 18916,
  "ĠÃ©p": 18918,
  "fen": 18919,
  "ĠUt": 18921,
  "Ġpossess": 18923,
  "ĠBru": 18924,
  "rated": 18925,
  "Ġoutdoor": 18926,
  "Ġrealiz": 18929,
  "Ġacceler": 18930,
  "Ġannounce": 18931,
  "mut": 18934,
  "aneous": 18935,
  "Ġpermit": 18936,
  "ĠVirginia": 18937,
  "Ġmaar": 18938,
  "Ġintegrated": 18939,
  "Ġsept": 18941,
  "Ġfacing": 18942,
  "Ġproven": 18943,
  "Ġalert": 18945,
  "roc": 18946,
  "TT": 18948,
  "ĠSat": 18950,
  "Ġphosph": 18952,
  "ĠSpirit": 18953,
  "Ġpreced": 18954,
  "Ġdann": 18956,
  "_A": 18958,
  "athy": 18959,
  "ĠLook": 18961,
  "Ġcock": 18964,
  "Ġposter": 18965,
  "fortunately": 18966,
  "Ġrating": 18967,
  "ĠKal": 18968,
  "Ġrac": 18969,
  "uren": 18971,
  "ĠfranÃ§": 18973,
  "Press": 18975,
  "ĠIde": 18976,
  "ocratic": 18978,
  "Ġwra": 18979,
  "ĠzostaÅĤ": 18981,
  "Reader": 18983,
  "erver": 18985,
  "Ãªncia": 18986,
  "ĠSho": 18987,
  "kol": 18988,
  "Ġmagnetic": 18989,
  "nÃ½": 18990,
  "plant": 18992,
  "Ġpresentation": 18993,
  "ĠANY": 18995,
  "ĠEt": 18998,
  "Ġsuo": 19003,
  "ĠThree": 19006,
  "ĠÃ©l": 19008,
  "Ġpeut": 19009,
  "Ġchicken": 19010,
  "angers": 19012,
  "ĠGesch": 19015,
  "Ã«s": 19017,
  "Password": 19018,
  "opic": 19022,
  "leton": 19023,
  "Ġdomestic": 19025,
  "Ġgegen": 19028,
  "asma": 19029,
  "hell": 19031,
  "Ġtorn": 19032,
  "Ġspons": 19033,
  "amma": 19036,
  "ĠCR": 19037,
  "anga": 19039,
  "hard": 19040,
  "Ġforgot": 19041,
  "HERE": 19042,
  "Ġgiá»": 19044,
  "NG": 19045,
  "Main": 19047,
  "ĠSH": 19048,
  "ppen": 19049,
  "ĠWars": 19050,
  "ĠFair": 19051,
  "ders": 19052,
  "enders": 19053,
  "Ġatmosphere": 19054,
  "Ġloves": 19058,
  "Ġcrusher": 19059,
  "Ġelimin": 19060,
  "ĠItalian": 19062,
  "Ġspan": 19064,
  "Ġparallel": 19067,
  "Ġsupplements": 19068,
  "ĠÄĳáº§u": 19069,
  "yb": 19074,
  "Ġnga": 19075,
  "ĠSant": 19077,
  "Es": 19083,
  "ĠKeep": 19084,
  "Ġappetite": 19085,
  "ierung": 19086,
  "Ġgluc": 19087,
  "Ġnormally": 19088,
  "Ġmouse": 19093,
  "Details": 19096,
  "iral": 19099,
  "Ġtet": 19100,
  "Ġarts": 19102,
  "Ġboss": 19104,
  "Ġcalm": 19107,
  "dat": 19108,
  "ATH": 19109,
  "hou": 19110,
  "Ġacknow": 19111,
  "oxy": 19114,
  "cloud": 19117,
  "prop": 19120,
  "rer": 19122,
  "Ä±ndan": 19123,
  "ucky": 19124,
  "Ġcommonly": 19125,
  "ANG": 19126,
  "Ġov": 19128,
  "sters": 19129,
  "Ġcrucial": 19130,
  "loss": 19131,
  "nom": 19132,
  "MR": 19133,
  "ĠIndones": 19134,
  "iot": 19136,
  "DL": 19137,
  "ĠFac": 19140,
  "Ġcav": 19147,
  "ĠAC": 19148,
  "gun": 19150,
  "blank": 19151,
  "Ġrib": 19152,
  "Ġrevenue": 19153,
  "write": 19155,
  "Ġdoors": 19160,
  "Ġeines": 19161,
  "Ġdalla": 19163,
  "ĠLabor": 19164,
  "Ġdw": 19165,
  "Show": 19166,
  "ÉĻs": 19167,
  "Vector": 19168,
  "Ġrequests": 19169,
  "lio": 19173,
  "icio": 19174,
  "Ġnodd": 19175,
  "ÄĽt": 19176,
  "ĠSud": 19177,
  "ĠAli": 19179,
  "primary": 19181,
  "ĠNatural": 19182,
  "Ġresist": 19184,
  "Ġparse": 19186,
  "ĠCase": 19189,
  "Ġbak": 19190,
  "ĠprÃ©": 19192,
  "rÃ³": 19194,
  "also": 19196,
  "ĠCarolina": 19198,
  "ĠSpanish": 19199,
  "Ġlect": 19202,
  "ĠFoot": 19203,
  "than": 19204,
  "ĠFeng": 19206,
  "ĠBible": 19208,
  "Ġreq": 19209,
  "fix": 19210,
  "Ġthousand": 19213,
  "Ġpurchased": 19214,
  "ibles": 19215,
  "issues": 19217,
  "Ġpromise": 19218,
  "ulum": 19219,
  "Ġlung": 19222,
  "chain": 19223,
  "Ġconsists": 19224,
  "Ġsections": 19225,
  "ĠiPhone": 19227,
  "ĠPed": 19230,
  "Before": 19231,
  "world": 19232,
  "Ġassembly": 19235,
  "etz": 19239,
  "Ġstom": 19241,
  "Ġcategories": 19242,
  "hÃ¶r": 19243,
  "jÄĻ": 19244,
  "GET": 19245,
  "ĠFeb": 19247,
  "Ġfiled": 19249,
  "unden": 19252,
  "ILL": 19253,
  "Ġpak": 19255,
  "Ġoutcome": 19256,
  "Äĥng": 19257,
  "Ġmatches": 19258,
  "ĠMid": 19260,
  "ĠBob": 19262,
  "icip": 19263,
  "Ġcogn": 19264,
  "Ġnuclear": 19266,
  "ĠColumb": 19267,
  "bst": 19269,
  "Ġdropped": 19271,
  "cir": 19273,
  "inson": 19274,
  "Ġgrass": 19275,
  "Ġdatas": 19277,
  "tras": 19279,
  "Ġbru": 19281,
  "ĠTry": 19282,
  "ĠRowBox": 19283,
  "Ġattacks": 19285,
  "Ġhouses": 19288,
  "ĠNever": 19294,
  "Ġenemy": 19295,
  "agraph": 19296,
  "Ġbatt": 19297,
  "angel": 19298,
  "ĠRog": 19300,
  "Ġguitar": 19301,
  "amps": 19306,
  "Ġproc": 19307,
  "Ġimplemented": 19308,
  "Ġorganis": 19311,
  "Ġpowder": 19314,
  "ĠCurrent": 19315,
  "itÃ¤t": 19316,
  "Ġnog": 19318,
  "Ġkeys": 19319,
  "Ġpartir": 19320,
  "Ġcommission": 19322,
  "EP": 19324,
  "ned": 19325,
  "Ġpitch": 19327,
  "WA": 19328,
  "Ġdates": 19331,
  "Ġdrawing": 19332,
  "ashed": 19333,
  "ĠFriend": 19335,
  "_add": 19341,
  "bru": 19344,
  "POST": 19346,
  "charge": 19348,
  "ĠcÃ´ng": 19349,
  "reatment": 19350,
  "razil": 19351,
  "Ġconcer": 19352,
  "Ġouter": 19353,
  "king": 19356,
  "Ġindicates": 19360,
  "Category": 19361,
  "ĠAP": 19362,
  "engthen": 19363,
  "Parser": 19364,
  "ĠInstead": 19368,
  "Ġveter": 19370,
  "Even": 19371,
  "Have": 19372,
  "ogether": 19373,
  "were": 19374,
  "ĠPlace": 19375,
  "Åĳl": 19376,
  "Ġchose": 19379,
  "Ġemployment": 19381,
  "ulating": 19383,
  "arian": 19385,
  "evin": 19386,
  "Ġbrands": 19388,
  "Ġpoz": 19390,
  "eva": 19393,
  "Ġfinger": 19394,
  "Ġreplacement": 19395,
  "sq": 19396,
  "osten": 19397,
  "ĠSpiel": 19399,
  "ials": 19400,
  "Ġactor": 19401,
  "Ġmodified": 19402,
  "Ġenviron": 19405,
  "Ã¨n": 19406,
  "Lo": 19407,
  "XFF": 19408,
  "ocate": 19410,
  "Äįi": 19411,
  "Ġfundamental": 19412,
  "cred": 19413,
  "Ġdelicious": 19417,
  "Ġshouldn": 19420,
  "ĠBow": 19423,
  "Ġdust": 19426,
  "ĠCustom": 19427,
  "ĠHong": 19429,
  "Ġaria": 19430,
  "achment": 19431,
  "ibil": 19434,
  "css": 19435,
  "Ġconstra": 19436,
  "emos": 19438,
  "Ġgrew": 19439,
  "Ġcompetitive": 19440,
  "abl": 19441,
  "Engine": 19443,
  "Ġpays": 19444,
  "Ġseine": 19449,
  "ifferent": 19450,
  "CF": 19451,
  "Ġsword": 19453,
  "ĠOm": 19455,
  "Ġclosely": 19457,
  "Ġencourage": 19458,
  "_by": 19459,
  "Ġwo": 19460,
  "ĠKind": 19465,
  "Ġinstant": 19466,
  "OUR": 19469,
  "ĠVery": 19471,
  "ĠAuto": 19473,
  "Ġextensive": 19474,
  "_a": 19475,
  "Ġoptical": 19476,
  "Ġescape": 19477,
  "ĠThrough": 19478,
  "ĠSport": 19480,
  "ĠPok": 19481,
  "xF": 19484,
  "zon": 19486,
  "ĠSche": 19488,
  "ei": 19489,
  "shot": 19490,
  "Mult": 19492,
  "inated": 19493,
  "ĠWi": 19495,
  "Ġlogic": 19497,
  "ĠMiddle": 19498,
  "arry": 19499,
  "Ġobjective": 19501,
  "Ġphr": 19506,
  "Ġsignals": 19509,
  "iously": 19511,
  "nÃ¡": 19514,
  "Ġdict": 19515,
  "Ġnegoti": 19516,
  "uru": 19517,
  "Ġtin": 19518,
  "Ġpeu": 19519,
  "dec": 19520,
  "ĠCost": 19521,
  "Ġrenew": 19522,
  "Ġdy": 19524,
  "GS": 19526,
  "views": 19528,
  "Ġordinary": 19531,
  "Ġtek": 19532,
  "ĠPA": 19533,
  "larak": 19534,
  "Ġcort": 19537,
  "_user": 19538,
  "onymous": 19539,
  "igible": 19541,
  "ĠAustralian": 19548,
  "Ġexposed": 19549,
  "Ġbold": 19550,
  "Ġmens": 19552,
  "asil": 19555,
  "Enter": 19557,
  "usk": 19558,
  "Ġparticipate": 19559,
  "ften": 19560,
  "áºŃp": 19563,
  "Ġdirected": 19566,
  "Ġstyles": 19568,
  "Ġnucle": 19569,
  "Ġconcrete": 19570,
  "Ġtoler": 19571,
  "criptor": 19572,
  "drop": 19575,
  "ĠgÃ¶r": 19576,
  "ĉbreak": 19577,
  "Did": 19578,
  "Storage": 19579,
  "gra": 19583,
  "_log": 19585,
  "dist": 19586,
  "ĠRussia": 19587,
  "ĠPolice": 19588,
  "olis": 19590,
  "ĠsÃº": 19592,
  "Ġowned": 19593,
  "Ġduty": 19595,
  "pay": 19596,
  "good": 19597,
  "Ġmayor": 19600,
  "Ġhoping": 19601,
  "rup": 19602,
  "Ġabandon": 19605,
  "Ġacting": 19607,
  "ancel": 19608,
  "idu": 19611,
  "ĠKingdom": 19614,
  "Find": 19617,
  "Ġdieser": 19618,
  "elijke": 19619,
  "ĠRun": 19620,
  "Ġneither": 19621,
  "Ġrisks": 19622,
  "ĠmÃ©s": 19623,
  "Ġnost": 19624,
  "âĢĻest": 19625,
  "Ġchrom": 19628,
  "Ġchronic": 19629,
  "Ġthi": 19631,
  "Ġreserved": 19635,
  "Items": 19637,
  "ĠServer": 19640,
  "enth": 19641,
  "Core": 19643,
  "AIL": 19644,
  "anne": 19645,
  "Ġlaunched": 19647,
  "Ġloaded": 19648,
  "ĠuÅ¾": 19650,
  "ĠChief": 19651,
  "Ġhatte": 19653,
  "people": 19654,
  "illo": 19655,
  "Ġofficers": 19656,
  "aland": 19657,
  "Ġbutter": 19658,
  "Ġremark": 19660,
  "Ġextreme": 19663,
  "icky": 19664,
  "ĠProdu": 19667,
  "VS": 19668,
  "Ġwhereas": 19670,
  "emia": 19671,
  "Ġknock": 19672,
  "Ġanni": 19674,
  "Ġremind": 19675,
  "Ġprimarily": 19677,
  "Ġexhaust": 19678,
  "ĠAgain": 19682,
  "Ġusage": 19683,
  "Ġpreparation": 19687,
  "Ġvess": 19689,
  "ĠDog": 19695,
  "ching": 19696,
  "Ġheads": 19697,
  "Ġsummary": 19698,
  "ĠFinally": 19700,
  "Ġinfer": 19701,
  "Ġmood": 19702,
  "Settings": 19706,
  "agi": 19709,
  "Ġcolle": 19712,
  "Ġseiner": 19713,
  "ĠMcC": 19716,
  "Ġderived": 19717,
  "leri": 19721,
  "oku": 19722,
  "Ġtired": 19723,
  "ĠPack": 19724,
  "Fi": 19726,
  "Ġgonna": 19730,
  "ĠDom": 19731,
  "inas": 19732,
  "Ġfaces": 19734,
  "Ġwarn": 19735,
  "ĠStra": 19736,
  "Ġfolder": 19738,
  "wr": 19739,
  "thread": 19741,
  "password": 19742,
  "Ġdemonstrated": 19743,
  "Ġshr": 19745,
  "ĠPenn": 19746,
  "Ġintroduction": 19748,
  "Ġdish": 19750,
  "Ġjej": 19751,
  "ĠTrust": 19755,
  "ĠPract": 19756,
  "Ġlimits": 19758,
  "ĠPier": 19760,
  "ĠvÃµ": 19761,
  "igi": 19764,
  "ificial": 19765,
  "kor": 19766,
  "High": 19767,
  "reland": 19771,
  "Ġcapture": 19775,
  "Configuration": 19777,
  "sign": 19779,
  "Reference": 19780,
  "ĠVor": 19781,
  "heid": 19782,
  "gie": 19783,
  "DT": 19787,
  "Ġdrinking": 19789,
  "ĠSep": 19791,
  "pad": 19792,
  "Ġmining": 19793,
  "aturing": 19794,
  "Ġstability": 19795,
  "estyle": 19796,
  "Ġcompr": 19798,
  "Ġtrab": 19799,
  "udad": 19800,
  "Ġlayers": 19802,
  "Ġlev": 19804,
  "lights": 19806,
  "_O": 19810,
  "ĠCy": 19811,
  "Christ": 19813,
  "ĠMO": 19816,
  "BL": 19817,
  "ĠFu": 19818,
  "ĠDivision": 19820,
  "ĠCu": 19823,
  "Å©ng": 19825,
  "Ġinspired": 19826,
  "Ġdecent": 19830,
  "ĠArmy": 19831,
  "anza": 19832,
  "ĠAbs": 19833,
  "ĠBoy": 19837,
  "ansas": 19839,
  "oting": 19841,
  "ĠAnalysis": 19842,
  "cb": 19843,
  "China": 19844,
  "wart": 19846,
  "schen": 19848,
  "ĠException": 19849,
  "irement": 19852,
  "ĠZhang": 19853,
  "ammen": 19854,
  "raj": 19855,
  "worth": 19857,
  "owych": 19858,
  "Ġimg": 19859,
  "Ġalive": 19862,
  "Ġconsideration": 19864,
  "Ġsensitive": 19865,
  "Ġcircul": 19867,
  "Â°C": 19868,
  "raphics": 19870,
  "Jan": 19871,
  "Ġrecording": 19872,
  "double": 19873,
  "iley": 19874,
  "fon": 19876,
  "letter": 19877,
  "Ġassigned": 19878,
  "isto": 19881,
  "ĠKo": 19884,
  "cap": 19885,
  "lix": 19886,
  "Ġsod": 19887,
  "UES": 19888,
  "Ġkir": 19889,
  "CON": 19890,
  "Ġcontained": 19892,
  "ĠKa": 19893,
  "Ġconsumers": 19896,
  "ĠCanadian": 19897,
  "Ġconclusion": 19899,
  "Ġamounts": 19902,
  "Ġdiagnosis": 19903,
  "interface": 19905,
  "Second": 19907,
  "rition": 19910,
  "iska": 19916,
  "ĠBat": 19920,
  "aints": 19921,
  "Ġreducing": 19922,
  "Ġages": 19924,
  "ĠSpace": 19925,
  "ongo": 19926,
  "ĠBed": 19929,
  "Ġmeasurements": 19931,
  "Ġrepresented": 19933,
  "Ġjudge": 19934,
  "Ġcoal": 19939,
  "uced": 19940,
  "Ġlaser": 19941,
  "_string": 19942,
  "ĠFra": 19944,
  "Ġstyl": 19946,
  "Ġaccum": 19947,
  "Ġmarked": 19948,
  "Ġdipl": 19949,
  "Does": 19950,
  "osti": 19952,
  "Ġfactory": 19953,
  "formed": 19955,
  "Ġshower": 19956,
  "upload": 19957,
  "ĠdÃ¼": 19958,
  "Ġabuse": 19959,
  "Ã©rie": 19963,
  "Ġstuck": 19964,
  "inge": 19965,
  "Ġeu": 19967,
  "ĠJava": 19970,
  "SELECT": 19971,
  "Ġzwei": 19972,
  "ĠDisney": 19975,
  "Target": 19977,
  "ÅĤad": 19978,
  "Ġstronger": 19980,
  "Ġbottle": 19981,
  "dep": 19983,
  "Pad": 19984,
  "ikel": 19985,
  "Ġstabil": 19987,
  "asting": 19988,
  "yar": 19990,
  "CG": 19992,
  "Ġmoral": 19993,
  "unci": 19995,
  "ĠIL": 19996,
  "aug": 19998,
  "Ġtrem": 19999,
  "Ġscores": 20001,
  "Ġcontinuous": 20003,
  "ĠChapter": 20005,
  "Ġinvolves": 20006,
  "xb": 20009,
  "CTION": 20010,
  "ulle": 20012,
  "ĠvÃ¡": 20013,
  "chat": 20015,
  "uka": 20016,
  "ĠMom": 20019,
  "ĠKur": 20020,
  "Ã³wn": 20021,
  "Ġhealthcare": 20022,
  "command": 20024,
  "Ġfon": 20026,
  "Das": 20027,
  "hin": 20028,
  "vez": 20030,
  "ĠOK": 20031,
  "_of": 20032,
  "Great": 20033,
  "ctic": 20036,
  "ipeline": 20038,
  "ÄĻp": 20039,
  "Ġproviders": 20041,
  "forcement": 20043,
  "Ġcute": 20044,
  "Ġhorm": 20045,
  "Ġpolitics": 20047,
  "Ġrecognize": 20048,
  "Ġjew": 20049,
  "Vol": 20051,
  "ĠAndrew": 20054,
  "ĠCe": 20055,
  "ĠCru": 20059,
  "Ġvisitors": 20060,
  "BT": 20063,
  "Ġcooking": 20069,
  "ARD": 20071,
  "Ġbroke": 20074,
  "refix": 20075,
  "atos": 20076,
  "etzt": 20079,
  "ĠRoll": 20081,
  "anas": 20082,
  "Ġproteins": 20085,
  "erry": 20086,
  "Session": 20089,
  "Ġsubstit": 20090,
  "_mod": 20091,
  "AE": 20092,
  "Ġnodded": 20094,
  "Ġcareful": 20096,
  "works": 20097,
  "ĠAsh": 20098,
  "Ġlors": 20099,
  "ĠJr": 20100,
  "Ġmanip": 20101,
  "sÃ¥": 20102,
  "Ġinstruct": 20103,
  "Ġinches": 20104,
  "Ġlid": 20106,
  "oup": 20108,
  "Ġcorrectly": 20111,
  "eten": 20112,
  "Ġmath": 20114,
  "Ġsynd": 20115,
  "Ġbrit": 20117,
  "Ġinteract": 20118,
  "aco": 20119,
  "Ġdownt": 20120,
  "Ġemployed": 20122,
  "lass": 20123,
  "Ġgenes": 20125,
  "Ġdonde": 20127,
  "Ġprest": 20129,
  "icker": 20130,
  "Ġexpansion": 20131,
  "isti": 20133,
  "zek": 20134,
  "Ġtempo": 20136,
  "ostic": 20137,
  "ilen": 20138,
  "Ġbomb": 20139,
  "ployee": 20140,
  "Ġforever": 20141,
  "ĠPolicy": 20142,
  "Ġdealing": 20143,
  "ĠÃ©gal": 20144,
  "ksi": 20149,
  "ĠKh": 20150,
  "Ġvida": 20151,
  "pool": 20152,
  "Ġgentle": 20153,
  "ĠiÅ¡": 20154,
  "tober": 20156,
  "Ġtie": 20157,
  "Ġpersonally": 20158,
  "Ġregistration": 20159,
  "aded": 20160,
  "Ġske": 20161,
  "Ġters": 20162,
  "Ġmuy": 20163,
  "ĠVe": 20164,
  "ĠCommon": 20165,
  "Ġvá»ģ": 20166,
  "ĠCell": 20169,
  "Ġhaz": 20175,
  "Other": 20179,
  "Ġeast": 20180,
  "itos": 20182,
  "Ġacts": 20183,
  "ĠCS": 20184,
  "ĠYouTube": 20185,
  "ARY": 20186,
  "ĠHim": 20188,
  "Ġkep": 20189,
  "Ġolarak": 20190,
  "ĠMess": 20191,
  "Ġanticip": 20192,
  "Ġappeal": 20193,
  "Ġstupid": 20195,
  "ativa": 20196,
  "ĠkÃ¤": 20197,
  "dn": 20198,
  "eres": 20200,
  "Ġfurniture": 20201,
  "Ġgrant": 20205,
  "Names": 20207,
  "ĠSteve": 20208,
  "Ġcombat": 20211,
  "ussion": 20212,
  "tocol": 20216,
  "Ġbid": 20217,
  "tico": 20219,
  "ĠÃ¥r": 20220,
  "closure": 20225,
  "Ġio": 20227,
  "ĠmÃł": 20229,
  "ĠTask": 20230,
  "ĠOption": 20231,
  "ĠWAR": 20233,
  "Ġoperate": 20234,
  "ĠFa": 20235,
  "Ġpleasure": 20237,
  "ĠSher": 20242,
  "ĠEnh": 20243,
  "alg": 20244,
  "Ġmeter": 20245,
  "Ġinteractions": 20247,
  "Ġverm": 20249,
  "Ġnodes": 20251,
  "Ġcandidates": 20254,
  "oji": 20260,
  "Ġdiese": 20262,
  "ĠNg": 20263,
  "ĠpolÃŃ": 20266,
  "Ġevaluate": 20267,
  "Ġrecognition": 20268,
  "ĠHarry": 20272,
  "Ġbridge": 20273,
  "Ġdisplayed": 20274,
  "izza": 20277,
  "ĠIF": 20278,
  "Ġtalked": 20279,
  "bow": 20280,
  "Ġreporting": 20281,
  "filter": 20282,
  "eras": 20283,
  "UST": 20284,
  "ĠMoreover": 20287,
  "Ġexpertise": 20290,
  "Ġtiny": 20294,
  "icture": 20296,
  "Ġmonthly": 20300,
  "RES": 20305,
  "ĠFern": 20306,
  "Ġdivided": 20310,
  "loor": 20311,
  "ĠBund": 20312,
  "Ġparticles": 20313,
  "istence": 20314,
  "ivi": 20316,
  "Ġzap": 20317,
  "sql": 20318,
  "merican": 20319,
  "Ġadvertising": 20320,
  "ĠingÃ¥r": 20321,
  "Ġjag": 20325,
  "Ã«n": 20326,
  "ulator": 20328,
  "Ġcircle": 20329,
  "Ġnearby": 20330,
  "nosti": 20331,
  "Ġdebate": 20332,
  "ĠSea": 20333,
  "Delete": 20334,
  "atro": 20335,
  "logo": 20336,
  "Ġpointed": 20337,
  "ĠCab": 20338,
  "ĠsÄħ": 20340,
  "Ġshoulder": 20341,
  "Di": 20345,
  "Ġchallenging": 20346,
  "Init": 20348,
  "fd": 20349,
  "ĠChange": 20350,
  "ĠGeb": 20357,
  "ĠtÃ¶": 20359,
  "ĠStudy": 20361,
  "ennes": 20363,
  "Ġsubmit": 20365,
  "iverse": 20366,
  "ebut": 20367,
  "such": 20369,
  "Ġmsg": 20370,
  "Ġviel": 20371,
  "Ġregularly": 20372,
  "orted": 20373,
  "Ġhá»įc": 20376,
  "_code": 20377,
  "á»Ļc": 20379,
  "Ġarranged": 20381,
  "Ġcodes": 20382,
  "Ġfinds": 20385,
  "rint": 20388,
  "bury": 20391,
  "health": 20392,
  "ĠRu": 20394,
  "Ġcoc": 20396,
  "ĠtrÃ¨s": 20403,
  "ĠScot": 20404,
  "Ġprofes": 20405,
  "Ã´t": 20407,
  "cket": 20409,
  "ĠCEO": 20410,
  "Ġinfrastructure": 20412,
  "ĠRadio": 20413,
  "Ġclim": 20414,
  "Ã¶z": 20415,
  "ĠCommun": 20416,
  "arte": 20418,
  "Ġlok": 20419,
  "Ġlips": 20420,
  "Ġblev": 20424,
  "jud": 20426,
  "Ġram": 20428,
  "Ġsending": 20429,
  "cker": 20430,
  "Ġillness": 20432,
  "ĠlÃŃ": 20433,
  "Ġdepression": 20434,
  "Ġdrawn": 20435,
  "Ġpron": 20436,
  "Ġpremium": 20437,
  "Total": 20439,
  "Today": 20442,
  "Ġcommitment": 20444,
  "Ä±s": 20446,
  "Run": 20448,
  "Ant": 20450,
  "Ġsearching": 20451,
  "Ġweird": 20452,
  "ĠKong": 20453,
  "Ġuncertain": 20454,
  "Ġstatements": 20455,
  "ancement": 20459,
  "Ġpropri": 20463,
  "Ġbay": 20466,
  "Ġsar": 20467,
  "ĠslÃ¤": 20468,
  "amiento": 20469,
  "ochem": 20471,
  "ĠPra": 20472,
  "eed": 20474,
  "Ġshooting": 20477,
  "ĠBang": 20478,
  "Ġmart": 20480,
  "Collection": 20481,
  "aly": 20482,
  "UID": 20483,
  "ĠVeg": 20484,
  "VE": 20491,
  "vr": 20492,
  "ĠApr": 20494,
  "_test": 20499,
  "Ġpandemic": 20500,
  "Her": 20502,
  "Ġmud": 20509,
  "Ġpersonality": 20510,
  "Ġali": 20512,
  "Ġcontents": 20513,
  "Ġcreates": 20515,
  "commit": 20518,
  "axy": 20519,
  "Ġremained": 20520,
  "rÃ¥": 20521,
  "Ġgradu": 20523,
  "Impl": 20525,
  "Ġcompliance": 20529,
  "Ġexpectations": 20530,
  "fc": 20535,
  "ĠPrim": 20536,
  "Ġfulf": 20537,
  "Ġdetected": 20541,
  "Ġloading": 20542,
  "ĠSale": 20544,
  "BM": 20545,
  "Ã§o": 20547,
  "clip": 20551,
  "ĠProfessor": 20553,
  "ĠTian": 20555,
  "Ġtmp": 20556,
  "results": 20557,
  "Ġinstruction": 20560,
  "RED": 20561,
  "Ġpipe": 20562,
  "Ġcoron": 20563,
  "ĠRub": 20564,
  "Ġsuite": 20565,
  "His": 20568,
  "Obj": 20569,
  "Ġgut": 20571,
  "aders": 20572,
  "eft": 20573,
  "Ġlogo": 20574,
  "Ġperforming": 20575,
  "orno": 20579,
  "ĠItaly": 20580,
  "Ġthorough": 20583,
  "anj": 20585,
  "Ġmga": 20586,
  "Ġconcepts": 20587,
  "ktet": 20589,
  "ÅĦsk": 20591,
  "Ġoppon": 20595,
  "Ġtahun": 20596,
  "ĠTech": 20598,
  "Ġhadn": 20600,
  "ĠPL": 20602,
  "ĠthÃłnh": 20603,
  "Ġpartnership": 20604,
  "Ġincredible": 20605,
  "ĠApplication": 20607,
  "Ġpermanent": 20609,
  "aptop": 20610,
  "ĠMicro": 20613,
  "Est": 20615,
  "rison": 20616,
  "holders": 20617,
  "Ġkv": 20618,
  "ĠER": 20619,
  "week": 20620,
  "ĠFord": 20622,
  "ipt": 20625,
  "omatic": 20630,
  "NULL": 20633,
  "Ġoccurr": 20634,
  "roduction": 20635,
  "Under": 20636,
  "Cap": 20638,
  "Ġml": 20639,
  "ulus": 20640,
  "Ġtow": 20641,
  "Ġcompound": 20642,
  "ĠInf": 20643,
  "Ġada": 20644,
  "inte": 20645,
  "ĠCro": 20646,
  "once": 20648,
  "Ġwondering": 20649,
  "otto": 20652,
  "ittel": 20654,
  "Ġguidelines": 20655,
  "olve": 20656,
  "Ġroutine": 20657,
  "ĠCorporation": 20662,
  "bn": 20664,
  "Ġantib": 20667,
  "oked": 20669,
  "Ġguidance": 20670,
  "riers": 20671,
  "agues": 20673,
  "itivity": 20674,
  "Ġflexible": 20675,
  "Ġoxygen": 20676,
  "Ġattribute": 20677,
  "ĠAdam": 20678,
  "Ġzm": 20679,
  "Ġguarantee": 20681,
  "ĠMarg": 20682,
  "ossa": 20685,
  "Ġsurvival": 20688,
  "ĠCook": 20689,
  "ÃŃan": 20690,
  "EXT": 20692,
  "uent": 20694,
  "Av": 20695,
  "Ġrepresentation": 20696,
  "Ġug": 20697,
  "Ġdib": 20698,
  "ĠTal": 20699,
  "Ġfoundation": 20700,
  "Ġtemps": 20701,
  "ppers": 20704,
  "axis": 20705,
  "Ġinformed": 20706,
  "Document": 20707,
  "Ġresearchers": 20710,
  "Ġnat": 20712,
  "pecific": 20713,
  "ĠvÅ¡": 20714,
  "icted": 20715,
  "ĠnÃº": 20716,
  "Full": 20717,
  "Ġah": 20718,
  "Ġeveryday": 20719,
  "ĠDark": 20721,
  "Ġentertainment": 20722,
  "Selector": 20723,
  "Ptr": 20725,
  "Best": 20727,
  "ĠIran": 20728,
  "Ġimproving": 20732,
  "Ġboot": 20734,
  "ĠMi": 20735,
  "ĠResponse": 20737,
  "Ġequation": 20738,
  "Ġyard": 20742,
  "rez": 20745,
  "Ġfert": 20746,
  "ĠSelf": 20747,
  "ĠÃ©galement": 20748,
  "ĠOhio": 20750,
  "Ġleague": 20751,
  "ĠQueen": 20752,
  "Ġrural": 20753,
  "ĠSelect": 20754,
  "_SIZE": 20755,
  "Ġrose": 20756,
  "Ġextend": 20760,
  "Price": 20762,
  "_int": 20763,
  "Ġhandling": 20764,
  "ĠCivil": 20766,
  "Ġsistema": 20767,
  "About": 20768,
  "Down": 20769,
  "ionale": 20771,
  "Ġpermission": 20772,
  "login": 20773,
  "Ġsebagai": 20774,
  "ĠTen": 20775,
  "lov": 20778,
  "Ġnecessarily": 20779,
  "Ġimmun": 20781,
  "Ġbáº¡n": 20785,
  "ĠVo": 20787,
  "Ġworldwide": 20788,
  "ĠBooks": 20789,
  "Ġargu": 20790,
  "Ġdeck": 20792,
  "izabeth": 20793,
  "Ġarchitecture": 20796,
  "Ġcomun": 20797,
  "power": 20800,
  "Ġfru": 20801,
  "Ġparams": 20803,
  "ĠLiter": 20804,
  "otted": 20805,
  "ĠBrand": 20806,
  "ĠMatt": 20807,
  "Ġfingers": 20808,
  "Ã¶tt": 20809,
  "GT": 20812,
  "Ġoral": 20813,
  "Ġstem": 20814,
  "Ġcasa": 20815,
  "Ġmechanical": 20816,
  "avid": 20820,
  "Ġshit": 20824,
  "Ġweiter": 20826,
  "bus": 20828,
  "yor": 20830,
  "ĠIss": 20833,
  "avel": 20834,
  "Ġticket": 20835,
  "World": 20836,
  "peror": 20837,
  "ĠContact": 20838,
  "Ġjam": 20839,
  "Ġcul": 20840,
  "Ġcaso": 20841,
  "Ġexecutive": 20843,
  "BP": 20844,
  "ensk": 20845,
  "adium": 20847,
  "Ġpowers": 20850,
  "Ãªm": 20851,
  "Ġfranc": 20852,
  "ĠStandard": 20853,
  "Auth": 20854,
  "rieg": 20858,
  "utor": 20860,
  "Effect": 20861,
  "Ġnome": 20863,
  "_se": 20864,
  "Ġinfect": 20867,
  "ialis": 20868,
  "Ġaside": 20869,
  "dc": 20870,
  "Font": 20872,
  "Because": 20873,
  "Helper": 20874,
  "Ġmolecular": 20878,
  "Ġpriority": 20879,
  "Hello": 20880,
  "Ġlogin": 20881,
  "Ġflood": 20882,
  "Ġwordt": 20884,
  "Ġcomprises": 20885,
  "Ġbinary": 20886,
  "Ġbiz": 20887,
  "Ġlies": 20890,
  "IME": 20891,
  "uras": 20893,
  "Enc": 20895,
  "Ġaccordance": 20899,
  "vÃ¡": 20900,
  "rowth": 20901,
  "ĠSciences": 20904,
  "ĠJu": 20906,
  "Ġdriven": 20907,
  "Ġcarrying": 20908,
  "ĠoÃ¹": 20910,
  "sim": 20912,
  "amt": 20913,
  "OO": 20915,
  "weg": 20917,
  "Ġgly": 20919,
  "Ġpuede": 20920,
  "Ġbeer": 20922,
  "Ġgall": 20925,
  "ĠÅŁi": 20926,
  "vc": 20927,
  "innen": 20928,
  "Ġvibr": 20930,
  "Values": 20931,
  "ĠIreland": 20932,
  "Ġabsence": 20933,
  "Ġvulner": 20934,
  "Ġworried": 20935,
  "Ġgreatly": 20937,
  "isting": 20938,
  "document": 20949,
  "ĠINTO": 20952,
  "Ġaccessible": 20953,
  "GF": 20954,
  "ĠVers": 20955,
  "Ġpela": 20957,
  "Ġmedications": 20958,
  "atile": 20960,
  "oric": 20961,
  "ĠDVD": 20962,
  "Ġcamb": 20964,
  "ĠEgypt": 20965,
  "ĠStill": 20967,
  "Ġdocumentation": 20969,
  "Anal": 20970,
  "Day": 20971,
  "Ident": 20972,
  "Properties": 20973,
  "Ġstages": 20974,
  "Ã¤ch": 20975,
  "Ġmanufacturer": 20976,
  "Ġessere": 20981,
  "Ġsemi": 20982,
  "Ġconversion": 20983,
  "orde": 20985,
  "Ġintelligence": 20986,
  "Ġresid": 20988,
  "Ġcoe": 20989,
  "Ġapro": 20991,
  "ĠDI": 20995,
  "Ġweapons": 20996,
  "Ġhub": 20997,
  "dan": 20998,
  "Ġcheese": 20999,
  "Ġcáº£": 21000,
  "ĠNeed": 21002,
  "ĠmÃ©": 21003,
  "Ġconventional": 21004,
  "elect": 21005,
  "chor": 21006,
  "opa": 21008,
  "ĠOpt": 21010,
  "ureau": 21011,
  "fÃ¶r": 21014,
  "Ġspectrum": 21021,
  "oby": 21024,
  "haus": 21026,
  "Ġgeneric": 21027,
  "Ġkin": 21028,
  "Ġstorm": 21029,
  "Ġabstract": 21032,
  "Ġregulations": 21033,
  "ograp": 21034,
  "Ġefter": 21035,
  "Dir": 21036,
  "ĠShop": 21038,
  "ĠTaylor": 21039,
  "ĠaÃ±o": 21040,
  "Ġsucceed": 21042,
  "Ġsj": 21043,
  "omi": 21046,
  "Ġconnections": 21048,
  "Ġchecking": 21049,
  "zenia": 21050,
  "Ġdirections": 21051,
  "arga": 21052,
  "ĠInteger": 21053,
  "raine": 21054,
  "á»Ļi": 21057,
  "vm": 21059,
  "target": 21060,
  "Ġestimate": 21064,
  "Ġmb": 21066,
  "ĠSmall": 21067,
  "Ġwireless": 21068,
  "Ġadds": 21071,
  "aration": 21072,
  "ĠPur": 21074,
  "unde": 21077,
  "Ġrevis": 21080,
  "ĠBell": 21082,
  "Ġgenu": 21084,
  "Ġquantity": 21086,
  "ĠPortug": 21088,
  "Ġmeny": 21089,
  "ĠHoly": 21090,
  "ilm": 21091,
  "Free": 21093,
  "zeich": 21094,
  "Ġtickets": 21095,
  "ĠogsÃ¥": 21096,
  "ĠAge": 21097,
  "inois": 21100,
  "ĠCatalogue": 21101,
  "Ġpuzz": 21102,
  "Ġned": 21103,
  "Ġolan": 21105,
  "ĠHans": 21106,
  "VP": 21108,
  "ĠArea": 21109,
  "Ġwis": 21111,
  "Ġenv": 21112,
  "Ġdining": 21113,
  "Ġspat": 21117,
  "placement": 21121,
  "bool": 21123,
  "Ġprinciple": 21124,
  "imen": 21125,
  "Ġderiv": 21126,
  "Ġgolden": 21128,
  "ĠFL": 21129,
  "Ġhasn": 21130,
  "Ġchap": 21131,
  "ĠKat": 21135,
[...]
