{
  "A": 35,
  "B": 36,
  "C": 37,
  "D": 38,
  "E": 39,
  "F": 40,
  "G": 41,
  "H": 42,
  "I": 43,
  "J": 44,
  "K": 45,
  "L": 46,
  "M": 47,
  "N": 48,
  "O": 49,
  "P": 50,
  "Q": 51,
  "R": 52,
  "S": 53,
  "T": 54,
  "U": 55,
  "V": 56,
  "W": 57,
  "X": 58,
  "Y": 59,
  "Z": 60,
  "a": 67,
  "b": 68,
  "c": 69,
  "d": 70,
  "e": 71,
  "f": 72,
  "g": 73,
  "h": 74,
  "i": 75,
  "j": 76,
  "k": 77,
  "l": 78,
  "m": 79,
  "n": 80,
  "o": 81,
  "p": 82,
  "q": 83,
  "r": 84,
  "s": 85,
  "t": 86,
  "u": 87,
  "v": 88,
  "w": 89,
  "x": 90,
  "y": 91,
  "z": 92,
  "Ġt": 259,
  "Ġa": 260,
  "in": 261,
  "he": 263,
  "er": 264,
  "on": 265,
  "re": 266,
  "en": 267,
  "at": 268,
  "Ġs": 269,
  "Ġthe": 270,
  "or": 272,
  "es": 273,
  "Ġc": 274,
  "an": 276,
  "Ġo": 277,
  "is": 278,
  "it": 279,
  "Ġp": 280,
  "Ġw": 281,
  "al": 282,
  "Ġd": 283,
  "ed": 284,
  "Ġf": 285,
  "ar": 287,
  "ing": 288,
  "nd": 289,
  "Ġb": 291,
  "Ġm": 292,
  "ou": 293,
  "Ġof": 294,
  "Ġin": 295,
  "ion": 296,
  "ic": 297,
  "le": 302,
  "Ġto": 304,
  "Ġand": 305,
  "as": 306,
  "ro": 307,
  "ent": 309,
  "Ġh": 310,
  "ct": 311,
  "Ġe": 312,
  "Ġn": 313,
  "Ġl": 314,
  "Ġth": 315,
  "om": 316,
  "el": 317,
  "st": 318,
  "et": 319,
  "il": 321,
  "Ġre": 322,
  "ĠS": 327,
  "im": 328,
  "id": 329,
  "ĠT": 330,
  "ol": 331,
  "ut": 333,
  "ĠA": 334,
  "Ġg": 336,
  "ra": 337,
  "iv": 340,
  "ation": 341,
  "ĠI": 342,
  "Ġis": 344,
  "ĠC": 345,
  "ur": 346,
  "ot": 347,
  "ch": 348,
  "us": 349,
  "ig": 350,
  "ce": 353,
  "am": 356,
  "ow": 359,
  "ad": 360,
  "Ġfor": 362,
  "ul": 363,
  "Ġbe": 366,
  "ly": 367,
  "Ġst": 370,
  "un": 371,
  "ĠM": 373,
  "Ġv": 374,
  "os": 376,
  "Ġon": 377,
  "ĠP": 380,
  "em": 381,
  "Ġy": 383,
  "ay": 386,
  "ers": 387,
  "ir": 388,
  "Ġde": 392,
  "if": 394,
  "um": 395,
  "Ġthat": 396,
  "Ġcon": 399,
  "ith": 400,
  "od": 401,
  "ter": 402,
  "qu": 403,
  "ĠB": 406,
  "ag": 409,
  "Ġan": 411,
  "Ġas": 412,
  "Ġpro": 413,
  "her": 414,
  "est": 416,
  "Ġwith": 418,
  "ĠD": 420,
  "Ġal": 423,
  "ab": 425,
  "ve": 427,
  "ver": 432,
  "ĠR": 433,
  "ate": 434,
  "ist": 435,
  "Ġit": 436,
  "ĠH": 437,
  "ac": 439,
  "Ġyou": 440,
  "res": 443,
  "ĠE": 446,
  "ĠF": 447,
  "ĠW": 448,
  "ess": 449,
  "ect": 454,
  "ĠThe": 455,
  "pp": 456,
  "and": 458,
  "Ġwh": 459,
  "ri": 460,
  "ĠL": 462,
  "th": 463,
  "Ġcom": 465,
  "se": 467,
  "Ġhe": 468,
  "Ġor": 469,
  "ĠN": 471,
  "Ġex": 472,
  "Ġk": 473,
  "ill": 475,
  "op": 476,
  "Ġare": 477,
  "ant": 479,
  "ak": 480,
  "ity": 481,
  "ort": 482,
  "oc": 484,
  "Ġse": 488,
  "ĠG": 489,
  "ment": 490,
  "ht": 491,
  "ore": 492,
  "Ġr": 494,
  "rom": 496,
  "Ġsu": 498,
  "ain": 499,
  "ie": 500,
  "ive": 505,
  "Ġat": 509,
  "Ġby": 513,
  "ld": 514,
  "Ġwas": 515,
  "ies": 517,
  "ud": 519,
  "og": 520,
  "art": 521,
  "Ġne": 522,
  "end": 523,
  "pt": 529,
  "Ġle": 532,
  "nt": 533,
  "ure": 534,
  "Ġha": 535,
  "ial": 536,
  "Ġch": 537,
  "Ġfrom": 538,
  "pl": 540,
  "ĠO": 541,
  "Ġu": 549,
  "Ġus": 550,
  "our": 551,
  "ĠJ": 552,
  "Ġnot": 554,
  "ang": 555,
  "pe": 559,
  "ine": 560,
  "ight": 564,
  "Ġthis": 566,
  "per": 567,
  "Ġsh": 568,
  "iz": 571,
  "ell": 574,
  "Ġen": 576,
  "ction": 577,
  "all": 578,
  "Ġwe": 579,
  "ber": 581,
  "ust": 583,
  "Ġcan": 588,
  "are": 591,
  "te": 592,
  "ard": 593,
  "ical": 595,
  "Ġj": 597,
  "ia": 601,
  "ost": 602,
  "ub": 604,
  "out": 606,
  "ult": 607,
  "Ġhave": 611,
  "Ġun": 612,
  "ue": 614,
  "age": 615,
  "ich": 616,
  "ff": 617,
  "rou": 620,
  "ass": 624,
  "ĠU": 628,
  "ap": 630,
  "ould": 631,
  "ip": 632,
  "ok": 633,
  "ans": 634,
  "ik": 635,
  "ated": 638,
  "Ġab": 639,
  "orm": 640,
  "Ġim": 641,
  "Ġqu": 645,
  "Ġpl": 646,
  "Ġwor": 647,
  "ast": 648,
  "int": 650,
  "act": 651,
  "ind": 655,
  "ĠK": 657,
  "ĠIn": 660,
  "ome": 661,
  "du": 664,
  "Ġcl": 667,
  "Ġad": 668,
  "cl": 670,
  "The": 671,
  "Ġcomp": 675,
  "Ġres": 676,
  "ence": 677,
  "Ġme": 678,
  "able": 679,
  "ide": 681,
  "ous": 684,
  "ions": 685,
  "ib": 686,
  "ire": 687,
  "Ġint": 688,
  "hen": 690,
  "ame": 691,
  "cc": 692,
  "Ġdo": 696,
  "port": 698,
  "ary": 699,
  "ong": 700,
  "ther": 702,
  "ge": 705,
  "ations": 706,
  "ear": 707,
  "Ġall": 710,
  "Ġcont": 712,
  "ack": 714,
  "Ġper": 716,
  "ere": 717,
  "ĠV": 721,
  "ice": 722,
  "ime": 723,
  "av": 724,
  "fer": 725,
  "ase": 726,
  "ru": 727,
  "con": 729,
  "ance": 730,
  "ry": 744,
  "ents": 749,
  "ign": 753,
  "ep": 755,
  "ach": 756,
  "ov": 757,
  "lic": 758,
  "Ġwill": 759,
  "ord": 763,
  "ens": 767,
  "Ġhas": 769,
  "ĠTh": 771,
  "gh": 772,
  "ĠSt": 774,
  "Ġwhich": 778,
  "ress": 781,
  "Ġyour": 782,
  "Ġpr": 784,
  "Ġar": 785,
  "Ġtheir": 786,
  "Ġdis": 787,
  "Ġbut": 790,
  "one": 791,
  "Ġhis": 793,
  "form": 794,
  "Ġout": 798,
  "Ġapp": 802,
  "ne": 803,
  "ace": 805,
  "ile": 806,
  "Ġgo": 807,
  "ors": 808,
  "ition": 810,
  "ks": 813,
  "ual": 814,
  "so": 821,
  "Ġte": 823,
  "Ġsa": 826,
  "xt": 829,
  "Ġso": 832,
  "Ġone": 834,
  "Ġman": 836,
  "Ġtr": 841,
  "ite": 845,
  "Ġla": 847,
  "urn": 849,
  "Ġmore": 850,
  "Ġthey": 851,
  "Ġpre": 852,
  "ook": 854,
  "Ġif": 855,
  "vel": 858,
  "ll": 862,
  "ose": 863,
  "ph": 866,
  "ory": 869,
  "ount": 870,
  "ake": 877,
  "Ġsp": 878,
  "ail": 879,
  "Ġwere": 881,
  "Ġup": 890,
  "ely": 891,
  "Ġpart": 892,
  "Ġnum": 893,
  "ĠY": 894,
  "ci": 895,
  "ces": 897,
  "ĠCh": 899,
  "ath": 901,
  "Ġdes": 904,
  "ree": 906,
  "erv": 908,
  "ater": 909,
  "Ġother": 915,
  "Ġinter": 916,
  "ata": 918,
  "Ġro": 920,
  "ys": 922,
  "ob": 924,
  "Ġev": 927,
  "de": 928,
  "Ġund": 932,
  "yst": 934,
  "Ġhad": 936,
  "Ġabout": 943,
  "now": 949,
  "ound": 952,
  "ew": 958,
  "Ġag": 960,
  "Ġz": 961,
  "ple": 962,
  "ĠRe": 963,
  "ject": 964,
  "ram": 966,
  "oll": 967,
  "com": 968,
  "Ġher": 969,
  "we": 971,
  "ric": 972,
  "ild": 975,
  "ian": 976,
  "cre": 977,
  "Ġem": 980,
  "ring": 981,
  "ĠIt": 983,
  "ific": 986,
  "Ġalso": 990,
  "ng": 992,
  "ish": 994,
  "Ġwho": 995,
  "ert": 997,
  "ck": 999,
  "erm": 1003,
  "olog": 1005,
  "aus": 1007,
  "Ġi": 1008,
  "Ġits": 1009,
  "reat": 1012,
  "ark": 1013,
  "Ġtime": 1014,
  "wo": 1015,
  "ays": 1016,
  "Ġnew": 1017,
  "ft": 1021,
  "Ġtra": 1022,
  "Ġcomm": 1024,
  "Ġmy": 1026,
  "rit": 1028,
  "Ġam": 1030,
  "Ġthere": 1031,
  "che": 1034,
  "ari": 1035,
  "here": 1036,
  "ont": 1039,
  "ike": 1040,
  "lect": 1044,
  "ings": 1045,
  "Ġbeen": 1047,
  "ystem": 1050,
  "ons": 1054,
  "Ġinto": 1055,
  "Ġover": 1060,
  "irst": 1061,
  "pec": 1065,
  "Ġthem": 1066,
  "elf": 1068,
  "iew": 1070,
  "row": 1072,
  "ates": 1074,
  "Ġwhen": 1082,
  "Ġacc": 1086,
  "eth": 1089,
  "Ġdif": 1090,
  "Ġsome": 1093,
  "Ġret": 1094,
  "ss": 1095,
  "rib": 1097,
  "Ġpe": 1098,
  "Ġthan": 1099,
  "ally": 1101,
  "clud": 1104,
  "Ġstud": 1105,
  "Ġbet": 1106,
  "ond": 1110,
  "und": 1111,
  "ublic": 1112,
  "Ġwould": 1114,
  "cess": 1115,
  "Ġwork": 1116,
  "Ġany": 1117,
  "Ġno": 1119,
  "Ġcons": 1120,
  "In": 1124,
  "Ġob": 1125,
  "Ġind": 1126,
  "Ġass": 1128,
  "old": 1129,
  "Ġour": 1132,
  "get": 1133,
  "Ġrel": 1135,
  "ood": 1138,
  "Ġyear": 1141,
  "Ġmay": 1142,
  "ink": 1143,
  "ps": 1149,
  "iss": 1151,
  "Ġknow": 1153,
  "les": 1154,
  "ement": 1156,
  "red": 1157,
  "Ġpo": 1159,
  "Ġval": 1161,
  "ĠThis": 1162,
  "Ġra": 1163,
  "own": 1164,
  "ah": 1165,
  "ĠHe": 1166,
  "Ġnumber": 1167,
  "Ġget": 1178,
  "Ġform": 1179,
  "ener": 1181,
  "ular": 1182,
  "ode": 1184,
  "hat": 1185,
  "ced": 1187,
  "ning": 1188,
  "ty": 1189,
  "Ġhow": 1192,
  "ick": 1193,
  "igh": 1194,
  "Ġpos": 1197,
  "ied": 1199,
  "io": 1200,
  "Ġbl": 1201,
  "Ġunder": 1202,
  "Ġwhat": 1205,
  "Ġexp": 1206,
  "Ġfl": 1208,
  "ities": 1209,
  "ery": 1212,
  "Ġact": 1214,
  "ating": 1217,
  "Ġco": 1218,
  "ics": 1219,
  "Ġshe": 1225,
  "ise": 1226,
  "Ġel": 1229,
  "Ġet": 1231,
  "Ġfe": 1233,
  "Ġtwo": 1234,
  "ility": 1235,
  "ef": 1238,
  "cy": 1239,
  "Ġsub": 1241,
  "fter": 1242,
  "Ġprov": 1243,
  "ative": 1246,
  "Ġreg": 1250,
  "pr": 1253,
  "Ġfirst": 1257,
  "Ġadd": 1258,
  "ract": 1259,
  "oy": 1260,
  "Ġmod": 1267,
  "ug": 1269,
  "Ġrec": 1270,
  "Ġbec": 1271,
  "ange": 1272,
  "ational": 1273,
  "Ġinv": 1276,
  "Ġlike": 1277,
  "Ġcol": 1278,
  "ĠCom": 1280,
  "ble": 1282,
  "rough": 1283,
  "ade": 1285,
  "ient": 1286,
  "ex": 1289,
  "als": 1290,
  "ĠUn": 1294,
  "pro": 1297,
  "Ġdi": 1298,
  "its": 1303,
  "Ġthese": 1305,
  "Ġeff": 1306,
  "ause": 1308,
  "Ġneed": 1309,
  "ments": 1310,
  "eng": 1311,
  "Ġclass": 1312,
  "tern": 1314,
  "ĠPro": 1317,
  "Ġph": 1319,
  "ax": 1325,
  "Ġtrans": 1331,
  "ution": 1332,
  "mer": 1336,
  "Ġsc": 1337,
  "Ġset": 1341,
  "ower": 1344,
  "Ġsuch": 1345,
  "Ġdiffer": 1346,
  "Ġuse": 1347,
  "ĠWe": 1350,
  "Ġdef": 1351,
  "Ġonly": 1353,
  "Ġreturn": 1354,
  "ock": 1355,
  "Ġsaid": 1359,
  "ople": 1363,
  "ec": 1366,
  "ove": 1370,
  "round": 1373,
  "ier": 1374,
  "Ġoff": 1375,
  "cept": 1377,
  "ased": 1381,
  "ren": 1382,
  "Ġpar": 1383,
  "ize": 1387,
  "itt": 1388,
  "Ġinclud": 1389,
  "Ġprodu": 1392,
  "oth": 1394,
  "Ġac": 1396,
  "ures": 1399,
  "St": 1400,
  "Ġfun": 1404,
  "Ġatt": 1405,
  "very": 1406,
  "Ġthrough": 1407,
  "put": 1408,
  "eg": 1411,
  "velop": 1416,
  "ĠAn": 1417,
  "Ġest": 1420,
  "ween": 1421,
  "ull": 1422,
  "ix": 1423,
  "ten": 1424,
  "up": 1425,
  "ible": 1429,
  "Ġpres": 1430,
  "ey": 1431,
  "Ġsur": 1432,
  "iel": 1434,
  "ict": 1435,
  "Ġjust": 1438,
  "Ġhim": 1440,
  "uch": 1444,
  "ough": 1446,
  "ues": 1447,
  "ork": 1448,
  "Ġresp": 1451,
  "Ġdet": 1452,
  "ident": 1455,
  "Ġrem": 1456,
  "ool": 1458,
  "ivers": 1459,
  "wn": 1461,
  "hed": 1462,
  "ek": 1465,
  "Ġpol": 1467,
  "Ġbetween": 1469,
  "Ġent": 1470,
  "Ġmost": 1473,
  "Ġpers": 1474,
  "ism": 1478,
  "Ġwhere": 1479,
  "ym": 1480,
  "Ġpeople": 1482,
  "sp": 1483,
  "Ġspec": 1485,
  "fore": 1486,
  "Ġsystem": 1487,
  "ife": 1493,
  "Ġcould": 1494,
  "to": 1495,
  "uc": 1497,
  "Ġsupp": 1498,
  "Ġdata": 1499,
  "arch": 1501,
  "uring": 1502,
  "ollow": 1504,
  "Ġused": 1505,
  "Ġhel": 1506,
  "gan": 1508,
  "ins": 1509,
  "cond": 1511,
  "der": 1514,
  "ful": 1518,
  "Ġsign": 1520,
  "az": 1521,
  "Ġend": 1522,
  "Ġque": 1526,
  "Ġx": 1527,
  "Ġpublic": 1528,
  "Ġresult": 1529,
  "Ġshould": 1531,
  "inal": 1534,
  "ection": 1535,
  "erg": 1538,
  "Ġthen": 1539,
  "Ġdel": 1543,
  "ĠAr": 1544,
  "Ġinst": 1546,
  "Ġmin": 1550,
  "tt": 1552,
  "Ġback": 1559,
  "ious": 1560,
  "Ġafter": 1561,
  "alth": 1562,
  "Ġsim": 1566,
  "Ġsm": 1567,
  "ruct": 1569,
  "ages": 1572,
  "Ġty": 1574,
  "iqu": 1575,
  "Ġfact": 1577,
  "Ġrequ": 1578,
  "ited": 1579,
  "formation": 1580,
  "ĠAl": 1582,
  "ĠSe": 1583,
  "Ġwell": 1585,
  "ily": 1586,
  "aj": 1587,
  "pos": 1589,
  "ale": 1590,
  "cent": 1591,
  "ann": 1592,
  "ices": 1593,
  "ien": 1594,
  "chn": 1595,
  "ctions": 1599,
  "Ġconst": 1600,
  "vent": 1601,
  "Ġexper": 1604,
  "Ġfollow": 1605,
  "Ġlong": 1606,
  "led": 1610,
  "ural": 1614,
  "ven": 1615,
  "ung": 1617,
  "ature": 1618,
  "ran": 1619,
  "tic": 1622,
  "Ġmany": 1623,
  "Ġvari": 1624,
  "ward": 1625,
  "Ġdevelop": 1627,
  "Ġequ": 1630,
  "any": 1631,
  "Ġdist": 1632,
  "Ġcur": 1633,
  "Ġcor": 1634,
  "Ġmake": 1635,
  "Th": 1636,
  "ider": 1638,
  "Ġche": 1639,
  "Ġed": 1640,
  "Ġdec": 1642,
  "Ġpat": 1643,
  "ĠQ": 1646,
  "ER": 1647,
  "ts": 1648,
  "aw": 1649,
  "Ġes": 1650,
  "ĠZ": 1653,
  "ines": 1656,
  "oci": 1658,
  "Ġeach": 1660,
  "Ġimport": 1662,
  "Ġsol": 1663,
  "uth": 1665,
  "Ġcar": 1666,
  "fl": 1668,
  "Ġhigh": 1669,
  "other": 1672,
  "hip": 1674,
  "ĠDe": 1675,
  "ern": 1676,
  "ology": 1677,
  "Ġchar": 1679,
  "Ġmed": 1685,
  "Ġdid": 1687,
  "Ġdifferent": 1688,
  "Ġbu": 1689,
  "aking": 1690,
  "Ġstr": 1691,
  "co": 1692,
  "Ġext": 1693,
  "Ġhelp": 1694,
  "imes": 1695,
  "Ġgener": 1696,
  "ets": 1697,
  "Ġprocess": 1699,
  "Ġmem": 1706,
  "Ġexam": 1708,
  "ants": 1709,
  "els": 1713,
  "ting": 1716,
  "ness": 1719,
  "Ġop": 1720,
  "ever": 1721,
  "Ġway": 1722,
  "Ġbel": 1727,
  "ĠHow": 1730,
  "ield": 1732,
  "Ġread": 1733,
  "Ġmon": 1734,
  "day": 1736,
  "Ġyears": 1737,
  "ator": 1741,
  "sw": 1743,
  "ved": 1744,
  "Ġlook": 1747,
  "Ġright": 1748,
  "Ġeven": 1749,
  "Ġevery": 1750,
  "au": 1751,
  "Ġpoint": 1752,
  "Ġbecause": 1754,
  "Ġgra": 1758,
  "Ġsee": 1762,
  "ethod": 1763,
  "view": 1764,
  "ĠEx": 1765,
  "ized": 1766,
  "ives": 1769,
  "ript": 1773,
  "let": 1775,
  "air": 1779,
  "Ġmat": 1781,
  "ute": 1782,
  "Ġfind": 1783,
  "yn": 1785,
  "Ġeffect": 1788,
  "par": 1789,
  "ĠCon": 1791,
  "read": 1795,
  "ional": 1796,
  "oid": 1797,
  "rent": 1800,
  "Ġshow": 1801,
  "Ġserv": 1802,
  "Ġav": 1804,
  "the": 1805,
  "ms": 1807,
  "ined": 1808,
  "Ġmet": 1811,
  "Ġusing": 1812,
  "Ġincre": 1813,
  "gram": 1816,
  "Ġser": 1819,
  "Ġagain": 1820,
  "sc": 1822,
  "ner": 1826,
  "app": 1827,
  "vers": 1829,
  "land": 1831,
  "ave": 1835,
  "line": 1836,
  "Ġstat": 1838,
  "Ġmain": 1840,
  "ivid": 1841,
  "rol": 1842,
  "Ġer": 1843,
  "ash": 1844,
  "Ġloc": 1849,
  "Ġpartic": 1852,
  "cul": 1854,
  "Ġvery": 1855,
  "Ġperson": 1856,
  "Ġappro": 1858,
  "uss": 1859,
  "eb": 1864,
  "ron": 1867,
  "oun": 1871,
  "ential": 1873,
  "ray": 1874,
  "ically": 1875,
  "ox": 1876,
  "ization": 1878,
  "val": 1879,
  "Ġsk": 1881,
  "ĠFor": 1884,
  "Ġcent": 1885,
  "Ġchild": 1888,
  "ĠAnd": 1890,
  "Ġsl": 1891,
  "Ġhand": 1893,
  "Ġgood": 1894,
  "Ġcount": 1895,
  "arm": 1896,
  "import": 1897,
  "arg": 1898,
  "Ġgu": 1899,
  "Ġwhile": 1901,
  "Ġbeing": 1902,
  "Ġstart": 1904,
  "chool": 1907,
  "ĠAd": 1908,
  "Ġdown": 1910,
  "ital": 1911,
  "irect": 1912,
  "Ġcre": 1914,
  "Ġdoes": 1918,
  "IN": 1922,
  "ĠAs": 1924,
  "ety": 1925,
  "Ġcall": 1926,
  "Ġnow": 1928,
  "ather": 1929,
  "min": 1930,
  "ars": 1933,
  "bers": 1934,
  "roup": 1935,
  "Ġbefore": 1936,
  "arn": 1937,
  "Ġgl": 1940,
  "Ġplay": 1946,
  "ared": 1947,
  "Ġthose": 1948,
  "Ġmuch": 1949,
  "Ġtest": 1950,
  "Ġinformation": 1951,
  "Ġboth": 1952,
  "Ġown": 1956,
  "Ġsecond": 1957,
  "Ġmade": 1960,
  "ross": 1962,
  "ON": 1964,
  "ision": 1969,
  "Ġwant": 1970,
  "Ġexpl": 1973,
  "Ġsame": 1975,
  "hes": 1976,
  "ank": 1981,
  "ral": 1985,
  "ases": 1986,
  "Ġlife": 1988,
  "oad": 1989,
  "Ġvalue": 1990,
  "Ġins": 1993,
  "ince": 1997,
  "Ġrep": 1998,
  "ĠWhat": 1999,
  "iven": 2001,
  "ody": 2003,
  "Ġword": 2004,
  "stand": 2005,
  "Ġfound": 2006,
  "ected": 2007,
  "ĠSh": 2009,
  "ĠNew": 2010,
  "ton": 2011,
  "Ġfam": 2013,
  "anc": 2014,
  "iness": 2015,
  "ember": 2016,
  "Ġfunction": 2019,
  "oh": 2020,
  "gg": 2023,
  "ĠCl": 2028,
  "amp": 2030,
  "ired": 2031,
  "ĠLe": 2033,
  "Ġconf": 2034,
  "Ġcommun": 2037,
  "Ġthree": 2038,
  "Ġreal": 2041,
  "ĠYou": 2042,
  "ght": 2046,
  "ij": 2047,
  "ES": 2048,
  "ateg": 2049,
  "ĠIf": 2052,
  "Ġquest": 2057,
  "Ġworld": 2058,
  "Ġtem": 2059,
  "Ġanal": 2060,
  "AT": 2063,
  "ole": 2065,
  "text": 2067,
  "Ġfin": 2068,
  "Ġlead": 2070,
  "ĠInd": 2071,
  "Ġele": 2072,
  "Ġdep": 2074,
  "way": 2077,
  "me": 2083,
  "Ġsom": 2085,
  "Ġdon": 2090,
  "ina": 2091,
  "Ġder": 2092,
  "urs": 2093,
  "ret": 2101,
  "uk": 2104,
  "It": 2107,
  "ames": 2110,
  "Ġterm": 2112,
  "Ġtechn": 2114,
  "alk": 2117,
  "Ġthink": 2118,
  "ually": 2119,
  "Ġmark": 2121,
  "Ġsupport": 2123,
  "Ġke": 2124,
  "ĠRes": 2127,
  "ving": 2128,
  "ior": 2129,
  "Ġdem": 2131,
  "Ġcour": 2132,
  "ists": 2133,
  "ĠX": 2137,
  "arly": 2138,
  "Ġmethod": 2142,
  "Ġprovid": 2145,
  "Ġposs": 2146,
  "ences": 2150,
  "Ġimp": 2151,
  "vern": 2152,
  "of": 2154,
  "Ġhere": 2155,
  "Ġgr": 2159,
  "man": 2160,
  "self": 2161,
  "ason": 2164,
  "Re": 2167,
  "Ġday": 2173,
  "Ġhum": 2174,
  "raph": 2175,
  "ration": 2176,
  "ability": 2178,
  "acter": 2182,
  "Ġduring": 2184,
  "Ġproble": 2185,
  "ense": 2187,
  "Ġtake": 2188,
  "Ġlevel": 2192,
  "Ġhealth": 2195,
  "ify": 2196,
  "li": 2198,
  "ocial": 2203,
  "iron": 2205,
  "Ġactiv": 2207,
  "meric": 2211,
  "ished": 2215,
  "Ġorgan": 2222,
  "Ġmust": 2231,
  "Ġpresent": 2236,
  "Ġwater": 2237,
  "ai": 2238,
  "Ġimportant": 2239,
  "ĠTe": 2242,
  "Ġlos": 2244,
  "oot": 2245,
  "ience": 2247,
  "ee": 2248,
  "for": 2251,
  "Ġcell": 2253,
  "Ġconsider": 2255,
  "ma": 2258,
  "Ġcontin": 2259,
  "tain": 2260,
  "Ġmult": 2261,
  "Ġdr": 2263,
  "ĠSp": 2268,
  "AR": 2271,
  "Ġfil": 2274,
  "ĠBut": 2275,
  "cript": 2276,
  "dition": 2278,
  "Ġoper": 2279,
  "Ġself": 2280,
  "Ġpass": 2281,
  "ĠWh": 2282,
  "Ġstudy": 2286,
  "lex": 2287,
  "itive": 2288,
  "ĠPh": 2289,
  "imal": 2291,
  "Ġcal": 2293,
  "iversity": 2301,
  "Ġbus": 2303,
  "be": 2304,
  "Ġprogram": 2305,
  "Ġprof": 2306,
  "Ġlist": 2310,
  "Ġcare": 2312,
  "att": 2313,
  "ote": 2314,
  "uro": 2316,
  "ze": 2317,
  "itions": 2318,
  "ource": 2319,
  "Ã³n": 2320,
  "ouse": 2322,
  "ĠPl": 2324,
  "Ġperform": 2325,
  "ium": 2327,
  "Ġname": 2329,
  "iving": 2331,
  "Ġvis": 2332,
  "Ġpower": 2333,
  "Ġgrow": 2334,
  "ccess": 2335,
  "Ġlast": 2336,
  "This": 2337,
  "Ġbook": 2339,
  "ients": 2340,
  "Ġcap": 2342,
  "lish": 2343,
  "duct": 2345,
  "ves": 2346,
  "swer": 2347,
  "ality": 2350,
  "Ġwrit": 2351,
  "Ġcase": 2352,
  "oint": 2354,
  "ĠIs": 2355,
  "ww": 2356,
  "akes": 2357,
  "ene": 2358,
  "ĠThey": 2359,
  "Ġref": 2362,
  "ining": 2367,
  "Ġopt": 2368,
  "Ġmov": 2373,
  "ĠEng": 2374,
  "Ġbre": 2375,
  "rid": 2379,
  "iver": 2380,
  "ument": 2381,
  "bs": 2382,
  "Ġpot": 2383,
  "eter": 2385,
  "EN": 2389,
  "ively": 2391,
  "yl": 2394,
  "Ġsmall": 2395,
  "ified": 2399,
  "Ġcle": 2400,
  "ploy": 2403,
  "vert": 2404,
  "Ġgreat": 2405,
  "Ġdisc": 2406,
  "atic": 2407,
  "Ġnon": 2408,
  "Ġpost": 2411,
  "Ġstill": 2413,
  "ived": 2419,
  "Ġmen": 2420,
  "nal": 2423,
  "Ch": 2425,
  "son": 2428,
  "ĠAmeric": 2429,
  "Ġdesign": 2430,
  "ulation": 2433,
  "Ġprot": 2436,
  "ke": 2438,
  "ination": 2439,
  "Ġadv": 2441,
  "Ġproper": 2443,
  "Ġplace": 2445,
  "Ġreport": 2446,
  "Ġaround": 2448,
  "orn": 2450,
  "less": 2452,
  "ST": 2453,
  "ĠThere": 2454,
  "Ġbest": 2455,
  "right": 2459,
  "Ġelect": 2460,
  "ĠEn": 2461,
  "ada": 2463,
  "Ġdie": 2464,
  "viron": 2465,
  "Ġstand": 2466,
  "irc": 2469,
  "Ġrese": 2470,
  "atch": 2471,
  "Ġinf": 2472,
  "Ġhist": 2474,
  "uthor": 2476,
  "Ġless": 2477,
  "conom": 2481,
  "Ġpop": 2482,
  "ĠOn": 2483,
  "Ġmil": 2486,
  "Ġident": 2488,
  "Ġbeh": 2489,
  "ror": 2492,
  "ought": 2493,
  "Ġorder": 2496,
  "Pro": 2497,
  "Ġproduct": 2499,
  "aterial": 2500,
  "Ġstate": 2501,
  "Ġfollowing": 2502,
  "Ġwithout": 2503,
  "med": 2504,
  "resent": 2506,
  "Ġsay": 2507,
  "OR": 2508,
  "Ġexample": 2511,
  "div": 2512,
  "Ġlet": 2513,
  "ament": 2517,
  "ID": 2518,
  "ends": 2521,
  "ird": 2523,
  "Ġopen": 2526,
  "omen": 2530,
  "ĠComm": 2531,
  "str": 2533,
  "Ġallow": 2534,
  "Ã£o": 2535,
  "gen": 2536,
  "Ġvol": 2538,
  "angu": 2545,
  "Ġpract": 2546,
  "ique": 2547,
  "Ġspe": 2548,
  "Ġwithin": 2549,
  "AN": 2551,
  "ĠTr": 2552,
  "Ġtri": 2557,
  "agn": 2558,
  "ane": 2561,
  "Ġline": 2562,
  "Ġinterest": 2565,
  "ĠShe": 2566,
  "ta": 2568,
  "AL": 2570,
  "rist": 2571,
  "Ġunderstand": 2572,
  "Ġcurrent": 2573,
  "Ġhead": 2578,
  "Ġinvest": 2580,
  "We": 2581,
  "arge": 2582,
  "apt": 2584,
  "ission": 2585,
  "undred": 2586,
  "por": 2587,
  "rac": 2589,
  "Ġbas": 2590,
  "Ġrest": 2591,
  "Ġdev": 2592,
  "ertain": 2594,
  "Ġsum": 2595,
  "ger": 2599,
  "ĠTo": 2600,
  "Ġiss": 2602,
  "Ġstudents": 2604,
  "Ġmill": 2607,
  "ention": 2610,
  "Ġtype": 2613,
  "Ġris": 2615,
  "ysis": 2617,
  "Ġincluding": 2622,
  "Ġdirect": 2624,
  "Ġaff": 2626,
  "ways": 2627,
  "yd": 2628,
  "ength": 2630,
  "Ġbo": 2631,
  "Ġrun": 2632,
  "Ġocc": 2633,
  "iter": 2634,
  "ividual": 2637,
  "ris": 2638,
  "Ġmeas": 2639,
  "ains": 2640,
  "igure": 2644,
  "Ġmodel": 2645,
  "Ġdiv": 2646,
  "Ġredu": 2647,
  "arent": 2652,
  "ately": 2653,
  "Ġtop": 2656,
  "Ġanother": 2658,
  "Ġschool": 2662,
  "Ġaut": 2667,
  "amb": 2668,
  "Ġopp": 2669,
  "rad": 2673,
  "Ġide": 2674,
  "ittle": 2675,
  "umber": 2676,
  "An": 2677,
  "Ġhome": 2680,
  "roll": 2686,
  "ples": 2687,
  "Ġfour": 2689,
  "rop": 2690,
  "Ġmanag": 2692,
  "Ġchang": 2694,
  "Ġsignific": 2696,
  "ĠPr": 2698,
  "face": 2699,
  "Ex": 2700,
  "Ġcontrol": 2703,
  "cur": 2704,
  "ĠOr": 2709,
  "go": 2710,
  "iment": 2713,
  "Ġmean": 2716,
  "Ġmus": 2718,
  "ression": 2719,
  "na": 2720,
  "ott": 2725,
  "AS": 2726,
  "Ġtoo": 2727,
  "ergy": 2732,
  "Ġtimes": 2734,
  "une": 2735,
  "Com": 2737,
  "work": 2739,
  "Ġgroup": 2740,
  "ards": 2742,
  "den": 2743,
  "iod": 2746,
  "itu": 2750,
  "ĠBl": 2751,
  "Ġcost": 2753,
  "Ġunt": 2754,
  "Ġchange": 2757,
  "raw": 2758,
  "Ġhundred": 2759,
  "ats": 2760,
  "ling": 2761,
  "ule": 2762,
  "Ġapplic": 2764,
  "Ġagainst": 2765,
  "Ġfew": 2767,
  "inc": 2769,
  "Ġstruct": 2771,
  "Ġlim": 2772,
  "Ġproject": 2775,
  "Ġprint": 2777,
  "Ġeng": 2778,
  "Ġart": 2783,
  "Ġmight": 2786,
  "Ġleg": 2790,
  "vironment": 2791,
  "Ġver": 2795,
  "af": 2797,
  "Ġsocial": 2799,
  "Ġpur": 2805,
  "ado": 2807,
  "Ġindividual": 2811,
  "Ġgre": 2814,
  "by": 2816,
  "Ġbusiness": 2818,
  "erc": 2819,
  "Ġcome": 2822,
  "ĠApp": 2824,
  "Ġmonth": 2826,
  "pon": 2829,
  "Ġrece": 2830,
  "Ġplan": 2831,
  "Ġdeterm": 2834,
  "ering": 2835,
  "Ġsever": 2836,
  "requ": 2837,
  "ference": 2838,
  "new": 2839,
  "Ġles": 2840,
  "Ġgovern": 2842,
  "Ġchildren": 2845,
  "IC": 2848,
  "ething": 2849,
  "ording": 2850,
  "name": 2852,
  "ĠQu": 2853,
  "ours": 2854,
  "Ġimpro": 2855,
  "org": 2857,
  "Ġturn": 2859,
  "crib": 2861,
  "Ġpa": 2864,
  "ially": 2865,
  "ĠBe": 2866,
  "hem": 2868,
  "not": 2869,
  "ĠCol": 2870,
  "Ġinc": 2871,
  "Ġobject": 2873,
  "ĠSch": 2874,
  "Ġview": 2880,
  "ubl": 2881,
  "Ġhuman": 2883,
  "ware": 2884,
  "ait": 2885,
  "ification": 2886,
  "Ġgoing": 2887,
  "ivate": 2888,
  "Ġtot": 2889,
  "Ġnext": 2894,
  "Ġcult": 2895,
  "Ġeas": 2898,
  "ĠAll": 2899,
  "Ġlight": 2900,
  "math": 2902,
  "urther": 2903,
  "Ġbuild": 2906,
  "IS": 2907,
  "ograph": 2909,
  "Ġgiven": 2910,
  "Ġlog": 2912,
  "ency": 2914,
  "Ġoften": 2915,
  "Ġden": 2917,
  "Ġsince": 2918,
  "Con": 2919,
  "Ġtreat": 2921,
  "ĠSystem": 2923,
  "Ġthings": 2924,
  "ny": 2928,
  "Ġfeel": 2929,
  "Ġben": 2930,
  "Ġeduc": 2931,
  "cer": 2932,
  "ser": 2933,
  "Ġdevelopment": 2934,
  "Ġdu": 2937,
  "Ġhapp": 2938,
  "ries": 2939,
  "Ġtyp": 2940,
  "Ġconn": 2943,
  "olution": 2944,
  "Ġda": 2945,
  "aut": 2947,
  "ister": 2948,
  "Ġlaw": 2950,
  "Ġbased": 2951,
  "Ġcommon": 2953,
  "ources": 2955,
  "ems": 2956,
  "icro": 2957,
  "Ġresearch": 2958,
  "outh": 2960,
  "Ġlittle": 2961,
  "ask": 2963,
  "ently": 2964,
  "ury": 2965,
  "plic": 2966,
  "uf": 2967,
  "Ġteam": 2968,
  "ream": 2969,
  "ĠWor": 2977,
  "ype": 2979,
  "Ġartic": 2981,
  "ustom": 2983,
  "Ġworks": 2984,
  "ope": 2986,
  "ised": 2987,
  "ches": 2990,
  "As": 2991,
  "IT": 2992,
  "Ġbetter": 2993,
  "Ġfield": 2994,
  "Ġorig": 2995,
  "Ġask": 2997,
  "ĠGod": 2998,
  "vious": 2999,
  "Ġleft": 3001,
  "Ġcho": 3002,
  "ĠUniversity": 3004,
  "Ġelse": 3006,
  "arning": 3008,
  "utes": 3009,
  "Ġsal": 3010,
  "ĠNo": 3011,
  "Ġaddition": 3012,
  "rap": 3015,
  "ĠSo": 3016,
  "AC": 3018,
  "Ġmaterial": 3022,
  "ĠIm": 3023,
  "play": 3026,
  "Ġfac": 3027,
  "ories": 3029,
  "ological": 3032,
  "iÃ³n": 3035,
  "sh": 3037,
  "aim": 3038,
  "ume": 3041,
  "Ġprom": 3044,
  "Ġtry": 3047,
  "tr": 3050,
  "Ġtext": 3051,
  "Ġprovide": 3052,
  "Ġcharacter": 3053,
  "To": 3054,
  "yle": 3055,
  "ailable": 3058,
  "Ġant": 3059,
  "Ġsomething": 3061,
  "ĠMan": 3062,
  "over": 3063,
  "Ġput": 3065,
  "Ġsing": 3066,
  "pect": 3068,
  "Ġold": 3072,
  "thing": 3074,
  "ĠUS": 3076,
  "Ġkey": 3077,
  "Ġarea": 3078,
  "Ġfree": 3080,
  "Ġresults": 3083,
  "What": 3085,
  "ances": 3088,
  "ĠAb": 3089,
  "ush": 3090,
  "rm": 3092,
  "yp": 3094,
  "Ġfamily": 3096,
  "rain": 3097,
  "print": 3098,
  "ga": 3100,
  "anguage": 3101,
  "Ġbelie": 3102,
  "use": 3103,
  "lease": 3106,
  "Ġshort": 3107,
  "ĠThese": 3109,
  "idence": 3114,
  "enc": 3116,
  "Ġna": 3119,
  "ĠMar": 3122,
  "Ġgen": 3123,
  "Ġve": 3125,
  "Ġinte": 3126,
  "ffic": 3127,
  "Ġstep": 3132,
  "cience": 3134,
  "rite": 3135,
  "Ġdays": 3137,
  "Ġkeep": 3144,
  "Ġreally": 3146,
  "Ġnet": 3150,
  "Ġbro": 3151,
  "Ġsi": 3152,
  "ots": 3153,
  "Ġland": 3155,
  "Ġlow": 3157,
  "He": 3158,
  "Ad": 3162,
  "Ġalways": 3165,
  "ĠAm": 3167,
  "Ġsignificant": 3168,
  "ogn": 3169,
  "fic": 3172,
  "Ġtre": 3173,
  "rag": 3174,
  "Ġinfl": 3176,
  "Ġsw": 3177,
  "Ġkm": 3179,
  "ides": 3181,
  "Ġter": 3183,
  "Ġbeg": 3187,
  "ably": 3188,
  "Ġmeans": 3189,
  "Ġparticular": 3191,
  "Ġmarket": 3194,
  "ended": 3195,
  "Ġbody": 3197,
  "action": 3198,
  "ocus": 3199,
  "Ġvers": 3201,
  "atural": 3204,
  "Ġsqu": 3205,
  "lection": 3206,
  "ables": 3208,
  "ĠAss": 3210,
  "ĠHowever": 3211,
  "Ġinvol": 3212,
  "Ġnever": 3214,
  "ills": 3215,
  "Ġexperience": 3217,
  "Ġwhe": 3223,
  "Ġlarge": 3226,
  "ids": 3227,
  "ura": 3228,
  "Ġhig": 3229,
  "ched": 3234,
  "osp": 3235,
  "itle": 3236,
  "ĠMed": 3238,
  "Ar": 3239,
  "Name": 3240,
  "Ġthought": 3241,
  "Ġbi": 3242,
  "Ġsuccess": 3244,
  "ĠWhen": 3245,
  "reg": 3248,
  "ajor": 3250,
  "Ġdig": 3251,
  "Ġcalled": 3252,
  "itor": 3253,
  "EC": 3255,
  "ĠAt": 3256,
  "ending": 3261,
  "ape": 3262,
  "ohn": 3263,
  "abor": 3264,
  "ux": 3269,
  "Ġeconom": 3271,
  "ler": 3272,
  "ych": 3273,
  "Ġfore": 3274,
  "Ġrad": 3275,
  "Ġlocal": 3277,
  "Ġaccess": 3278,
  "ĠSu": 3280,
  "Ġlearn": 3281,
  "Ġess": 3282,
  "Ġpotential": 3283,
  "set": 3284,
  "Ġperiod": 3285,
  "Ġanswer": 3287,
  "Ġrange": 3291,
  "Ġtrue": 3292,
  "Ġrepresent": 3293,
  "Ġproblem": 3295,
  "Ġvan": 3297,
  "oph": 3301,
  "orth": 3302,
  "Ġassoci": 3304,
  "Ġemploy": 3306,
  "Ġcond": 3307,
  "ica": 3309,
  "ED": 3316,
  "Ġside": 3317,
  "Ã©s": 3319,
  "clus": 3321,
  "add": 3327,
  "Ġlo": 3330,
  "que": 3331,
  "ka": 3332,
  "Ġpress": 3333,
  "Ġpatients": 3334,
  "ledge": 3336,
  "osed": 3337,
  "Ġpossible": 3338,
  "rie": 3339,
  "arget": 3340,
  "Ġang": 3341,
  "Ġenergy": 3342,
  "Ġfood": 3344,
  "Ġwords": 3345,
  "Cl": 3346,
  "cient": 3349,
  "oor": 3352,
  "Ġpay": 3353,
  "aster": 3356,
  "Ġmot": 3358,
  "ĠInt": 3359,
  "Ġcomb": 3363,
  "Ġfri": 3364,
  "emb": 3365,
  "Ġmar": 3367,
  "Ġphys": 3371,
  "Id": 3372,
  "za": 3373,
  "Ġhard": 3375,
  "ilar": 3379,
  "rodu": 3380,
  "ĠCont": 3381,
  "Ġarg": 3382,
  "ither": 3383,
  "comm": 3384,
  "Ġport": 3386,
  "ows": 3387,
  "ued": 3388,
  "alse": 3389,
  "ana": 3393,
  "Ġinclude": 3394,
  "Ġleast": 3396,
  "Ġcorre": 3397,
  "ortun": 3399,
  "Ġrelations": 3400,
  "ĠGo": 3401,
  "ET": 3402,
  "Ġut": 3404,
  "ext": 3405,
  "arl": 3406,
  "ousand": 3407,
  "ones": 3408,
  "utions": 3410,
  "Ġpercent": 3416,
  "Ġquestion": 3417,
  "Ġstring": 3418,
  "verage": 3419,
  "ili": 3421,
  "Ġfr": 3423,
  "earch": 3424,
  "ift": 3426,
  "ĠMe": 3428,
  "ley": 3429,
  "Ġenvironment": 3431,
  "II": 3432,
  "enn": 3433,
  "ĠChrist": 3436,
  "Ġens": 3438,
  "Ġenc": 3439,
  "col": 3441,
  "ara": 3444,
  "Ġcontent": 3445,
  "iet": 3446,
  "Ġinit": 3447,
  "ured": 3450,
  "Ġtotal": 3452,
  "Ġprim": 3455,
  "Ġsam": 3458,
  "Ġknown": 3459,
  "ĠMay": 3460,
  "def": 3465,
  "Ġcrit": 3468,
  "Ġweek": 3469,
  "uture": 3470,
  "aps": 3471,
  "yt": 3472,
  "ault": 3473,
  "lete": 3474,
  "Ġgive": 3475,
  "You": 3476,
  "Ġoffer": 3477,
  "Ġcertain": 3480,
  "Ġdescrib": 3482,
  "isc": 3487,
  "ites": 3489,
  "Ġmaking": 3490,
  "Ġil": 3493,
  "Ġable": 3495,
  "serv": 3498,
  "Ġanalysis": 3499,
  "Ġey": 3501,
  "Ġdiscuss": 3502,
  "rict": 3503,
  "Ġdue": 3504,
  "Ġrequire": 3506,
  "ered": 3507,
  "Al": 3509,
  "Ġavailable": 3510,
  "Ġindust": 3512,
  "Ġaccount": 3513,
  "Ġuntil": 3514,
  "Ġlove": 3518,
  "Ġsym": 3519,
  "Ġprob": 3521,
  "Ġarr": 3522,
  "String": 3524,
  "Ġair": 3525,
  "omet": 3527,
  "Ġindic": 3528,
  "Ġbenef": 3529,
  "Ġfull": 3530,
  "iple": 3535,
  "List": 3536,
  "rand": 3537,
  "ournal": 3538,
  "Ġcalcul": 3539,
  "ais": 3540,
  "bo": 3541,
  "Ġaway": 3543,
  "Ġhtt": 3544,
  "Ġpolit": 3545,
  "Ġlik": 3546,
  "iol": 3547,
  "pre": 3548,
  "Ġspecific": 3549,
  "cont": 3550,
  "Ġcreate": 3551,
  "ĠPol": 3552,
  "ĠDes": 3553,
  "Ġabove": 3554,
  "back": 3555,
  "Ġgot": 3557,
  "sel": 3559,
  "ett": 3562,
  "Ġcirc": 3564,
  "Ġcr": 3566,
  "no": 3567,
  "Ġfocus": 3568,
  "imate": 3569,
  "arr": 3570,
  "ored": 3571,
  "aring": 3572,
  "Ġcreat": 3573,
  "If": 3575,
  "Ġkind": 3576,
  "ival": 3578,
  "ION": 3579,
  "obal": 3580,
  "ivity": 3581,
  "ibility": 3582,
  "Ġpara": 3583,
  "Ġcourse": 3584,
  "Ġseveral": 3586,
  "ho": 3587,
  "Ġge": 3590,
  "ĠSc": 3591,
  "icy": 3595,
  "etic": 3596,
  "ava": 3602,
  "inter": 3603,
  "ĠCent": 3604,
  "Ġcolor": 3605,
  "Ġlearning": 3607,
  "Ġposition": 3609,
  "Ġamong": 3611,
  "htt": 3614,
  "Ġrole": 3615,
  "zy": 3616,
  "istic": 3617,
  "Ġpath": 3618,
  "inary": 3620,
  "ector": 3623,
  "Ġvarious": 3624,
  "abel": 3626,
  "Ġothers": 3628,
  "Ġmajor": 3631,
  "Ġgovernment": 3635,
  "Ġhaving": 3638,
  "aken": 3642,
  "Ġbecome": 3644,
  "Ġsure": 3645,
  "Ġmillion": 3646,
  "ĠEuro": 3651,
  "alf": 3652,
  "ators": 3653,
  "cle": 3654,
  "ained": 3659,
  "lement": 3662,
  "gether": 3665,
  "Ġsent": 3667,
  "Ġpast": 3669,
  "stit": 3670,
  "Ġtogether": 3672,
  "Ġexist": 3673,
  "RO": 3674,
  "pped": 3675,
  "Ġrecord": 3676,
  "Ġrespect": 3678,
  "ĠPer": 3679,
  "Ġann": 3680,
  "ĠCal": 3681,
  "_t": 3682,
  "Ġimpact": 3683,
  "ude": 3685,
  "Ġfactors": 3687,
  "Ġum": 3688,
  "Ġpor": 3689,
  "oney": 3690,
  "kt": 3691,
  "ober": 3692,
  "ato": 3693,
  "lev": 3694,
  "Ġdoc": 3696,
  "ians": 3697,
  "LL": 3699,
  "ste": 3700,
  "Ġsize": 3701,
  "ĠUnited": 3702,
  "Ġsens": 3704,
  "Ġcaus": 3705,
  "Ġfar": 3706,
  "ĠAmerican": 3707,
  "arth": 3708,
  "Res": 3709,
  "ĠWith": 3710,
  "Ġrate": 3711,
  "br": 3713,
  "ĠEm": 3714,
  "ĠBy": 3715,
  "Ġthousand": 3717,
  "ĠFl": 3718,
  "Ġmom": 3719,
  "ights": 3720,
  "ĠCan": 3721,
  "Ġauthor": 3725,
  "oss": 3726,
  "ilities": 3727,
  "Ġprivate": 3729,
  "ĠGu": 3731,
  "Ġdom": 3732,
  "ores": 3733,
  "Ġbig": 3734,
  "cription": 3736,
  "Ġnumbers": 3737,
  "opy": 3738,
  "atory": 3739,
  "Ġneg": 3742,
  "leg": 3743,
  "ĠGe": 3747,
  "hers": 3748,
  "ĠStud": 3751,
  "asing": 3752,
  "ĠCo": 3753,
  "Ġaddress": 3756,
  "Ġalong": 3758,
  "Ġrespons": 3759,
  "ails": 3760,
  "Ġsugg": 3763,
  "class": 3767,
  "Ġsaf": 3770,
  "Ġamount": 3772,
  "Ġfund": 3773,
  "Ġmeet": 3776,
  "Ġsuper": 3777,
  "bl": 3778,
  "this": 3779,
  "Ġfurther": 3780,
  "Ġdise": 3782,
  "Ġarticle": 3783,
  "Ġvalues": 3785,
  "oms": 3786,
  "ney": 3789,
  "ication": 3790,
  "Ġnecess": 3792,
  "ready": 3793,
  "NA": 3794,
  "Ġsuggest": 3797,
  "ump": 3798,
  "Ġap": 3799,
  "elt": 3805,
  "Ġearly": 3808,
  "ption": 3809,
  "Ġgeneral": 3810,
  "Ġbase": 3811,
  "rem": 3812,
  "odel": 3813,
  "ae": 3814,
  "Ġvoid": 3815,
  "Ġcompany": 3817,
  "Ġfive": 3818,
  "aces": 3823,
  "Ġsat": 3825,
  "RE": 3827,
  "Ġstrong": 3828,
  "Ġnorm": 3829,
  "ception": 3830,
  "bre": 3836,
  "ĠSte": 3840,
  "ĠThat": 3841,
  "Ġwomen": 3843,
  "Ġdat": 3844,
  "head": 3846,
  "apter": 3847,
  "atures": 3849,
  "urch": 3850,
  "Ġrisk": 3851,
  "Ġchall": 3852,
  "Ġtw": 3853,
  "elling": 3856,
  "ĠAct": 3858,
  "Ġlater": 3859,
  "ements": 3860,
  "Ġpain": 3861,
  "Ġreview": 3862,
  "Ġsubject": 3863,
  "US": 3865,
  "ties": 3869,
  "For": 3870,
  "aff": 3871,
  "ino": 3873,
  "Ġstrateg": 3875,
  "Ġstre": 3876,
  "ih": 3879,
  "ĠJohn": 3880,
  "Ġacross": 3881,
  "ero": 3884,
  "Ġemb": 3887,
  "Ġje": 3891,
  "essage": 3892,
  "Ġpred": 3894,
  "wards": 3895,
  "ĠIntern": 3897,
  "Ġconc": 3898,
  "word": 3899,
  "ogle": 3900,
  "Cont": 3901,
  "ĠMin": 3902,
  "Ġprofess": 3904,
  "epend": 3906,
  "Ġexc": 3908,
  "ĠEl": 3909,
  "Ġdeg": 3911,
  "uly": 3912,
  "return": 3916,
  "Ġgame": 3917,
  "Ġuna": 3919,
  "Ġwhether": 3920,
  "plement": 3921,
  "ĠRet": 3922,
  "Ġcountry": 3924,
  "acy": 3926,
  "chie": 3927,
  "Ġmind": 3928,
  "Ġlot": 3929,
  "though": 3931,
  "load": 3932,
  "Ġcustom": 3933,
  "Ġmor": 3935,
  "atter": 3937,
  "Ġwhy": 3939,
  "Ġcontrib": 3940,
  "Ġabs": 3941,
  "Ġcomput": 3944,
  "Ġworking": 3946,
  "ĠEnglish": 3947,
  "const": 3949,
  "uck": 3951,
  "Ġspecial": 3953,
  "ml": 3957,
  "Ġhold": 3959,
  "ĠCO": 3960,
  "eral": 3961,
  "erson": 3965,
  "idd": 3966,
  "Ġuser": 3967,
  "Ġinteg": 3969,
  "umn": 3970,
  "ĠNe": 3971,
  "AP": 3973,
  "ison": 3976,
  "Ġsystems": 3977,
  "public": 3978,
  "Ġmax": 3979,
  "Ġhistory": 3980,
  "Ġclaim": 3984,
  "Ġreason": 3986,
  "Ġspace": 3987,
  "Ġfuture": 3988,
  "Ġdone": 3989,
  "Ġtemper": 3990,
  "chan": 3991,
  "unt": 3992,
  "oman": 3994,
  "Ġlay": 3997,
  "Ġrelationship": 3998,
  "Ġterms": 3999,
  "AD": 4000,
  "Ġdidn": 4002,
  "Ġdou": 4005,
  "Ġalready": 4006,
  "Ġservice": 4008,
  "order": 4010,
  "Ġcells": 4011,
  "ĠJan": 4013,
  "side": 4014,
  "frac": 4015,
  "do": 4016,
  "Ġevent": 4018,
  "Ġpri": 4020,
  "Ġcommunity": 4022,
  "Ġobserv": 4026,
  "ales": 4028,
  "Ġsingle": 4031,
  "Ġsimilar": 4032,
  "Ġselect": 4033,
  "Ġlarg": 4034,
  "Ġur": 4039,
  "atal": 4046,
  "Ġyoung": 4047,
  "iam": 4049,
  "Ġbehav": 4052,
  "Ġson": 4053,
  "sk": 4056,
  "Ġlas": 4057,
  "ha": 4059,
  "ruction": 4060,
  "cing": 4061,
  "ried": 4062,
  "Ġlanguage": 4063,
  "Ġintern": 4064,
  "Ġappear": 4067,
  "most": 4070,
  "Ġrequired": 4072,
  "ibr": 4073,
  "alu": 4075,
  "Ġhigher": 4077,
  "using": 4079,
  "Ġsitu": 4081,
  "Ġheart": 4082,
  "_d": 4084,
  "Ġcheck": 4085,
  "Ġneeds": 4086,
  "Ġfinal": 4087,
  "On": 4089,
  "Ġapproach": 4090,
  "ios": 4091,
  "Ġstory": 4093,
  "Ġnatural": 4095,
  "Ġgrowth": 4096,
  "Ã§Ã£o": 4097,
  "Ġid": 4099,
  "Qu": 4100,
  "Ġsix": 4104,
  "Ġtool": 4105,
  "ĠStates": 4106,
  "Ġage": 4109,
  "izing": 4111,
  "ĠOne": 4114,
  "How": 4117,
  "my": 4120,
  "Ġste": 4121,
  "Ġchanges": 4123,
  "ening": 4124,
  "Ġjob": 4125,
  "pper": 4126,
  "Ġcame": 4127,
  "Ġenough": 4128,
  "AM": 4130,
  "iction": 4131,
  "Ġconditions": 4132,
  "Ġknowledge": 4134,
  "Ġtreatment": 4135,
  "onse": 4137,
  "Ġincrease": 4138,
  "uff": 4139,
  "ros": 4141,
  "ising": 4142,
  "But": 4146,
  "ĠDo": 4147,
  "View": 4149,
  "era": 4150,
  "hold": 4154,
  "Ġvir": 4159,
  "Ġill": 4160,
  "Ġdistrib": 4161,
  "ĠNot": 4165,
  "ender": 4166,
  "Ġbelow": 4167,
  "Ġbegin": 4170,
  "ula": 4171,
  "ĠEurope": 4174,
  "Ġoffic": 4175,
  "ĠLa": 4176,
  "Ġparticip": 4177,
  "ione": 4178,
  "ges": 4179,
  "Ġcode": 4181,
  "Ġservices": 4183,
  "Ġtable": 4184,
  "artment": 4185,
  "Ġbreak": 4189,
  "Ġcomplex": 4190,
  "ervice": 4194,
  "And": 4195,
  "Ġperformance": 4197,
  "ips": 4198,
  "Ġhouse": 4200,
  "ounds": 4201,
  "uit": 4202,
  "opt": 4203,
  "Ġthough": 4204,
  "place": 4205,
  "ĠIN": 4206,
  "ĠMy": 4207,
  "ancial": 4210,
  "Ġimm": 4212,
  "Ġwind": 4213,
  "fect": 4214,
  "Ġtarget": 4216,
  "Ġquestions": 4218,
  "Ġface": 4219,
  "ficult": 4221,
  "Ġparent": 4222,
  "Ġmanagement": 4227,
  "ĠPar": 4228,
  "Ġsays": 4230,
  "ĠReg": 4234,
  "roups": 4236,
  "unction": 4237,
  "ires": 4241,
  "Ġestab": 4244,
  "Ġfile": 4245,
  "There": 4246,
  "hel": 4247,
  "hib": 4248,
  "ules": 4249,
  "list": 4254,
  "Ġresponse": 4256,
  "sych": 4259,
  "iber": 4260,
  "Ġinflu": 4261,
  "duc": 4262,
  "Ġlower": 4263,
  "ii": 4268,
  "po": 4269,
  "Ġaction": 4271,
  "Ġmass": 4273,
  "ĠPart": 4275,
  "ĠNov": 4276,
  "ĠAf": 4278,
  "iff": 4280,
  "rug": 4281,
  "olar": 4282,
  "Ġcou": 4283,
  "Ġce": 4285,
  "wh": 4286,
  "aching": 4288,
  "iting": 4290,
  "Wh": 4291,
  "Ġyang": 4292,
  "ged": 4295,
  "ublished": 4297,
  "ension": 4298,
  "clude": 4300,
  "De": 4301,
  "Ġdan": 4303,
  "empt": 4304,
  "Ġprime": 4309,
  "Ġtook": 4310,
  "Ġmembers": 4312,
  "imum": 4315,
  "Ġtoday": 4316,
  "ico": 4317,
  "arc": 4319,
  "Ġconvert": 4321,
  "Ġpersonal": 4323,
  "Ġespec": 4325,
  "Ġseen": 4326,
  "Ġred": 4332,
  "Ġinde": 4333,
  "ĠComp": 4335,
  "arb": 4336,
  "Ġpositive": 4337,
  "Ġeither": 4338,
  "Ġeducation": 4342,
  "Ġhours": 4343,
  "istics": 4345,
  "Ġinput": 4346,
  "Ġachie": 4347,
  "Ġopportun": 4348,
  "aining": 4353,
  "Ġpoints": 4365,
  "Ġpage": 4366,
  "date": 4367,
  "Ġthing": 4368,
  "HE": 4369,
  "ilt": 4370,
  "ened": 4371,
  "nder": 4373,
  "Se": 4374,
  "En": 4378,
  "Ġbring": 4379,
  "Ġonce": 4387,
  "Ġphot": 4388,
  "ithm": 4391,
  "LE": 4392,
  "aciÃ³n": 4395,
  "ĠAg": 4396,
  "Ġcompet": 4397,
  "Ġdifficult": 4401,
  "Ġcompon": 4402,
  "ades": 4403,
  "ĠYork": 4404,
  "anced": 4408,
  "irm": 4409,
  "ground": 4411,
  "Ġprevious": 4412,
  "rel": 4419,
  "raft": 4420,
  "uj": 4421,
  "amm": 4422,
  "Ġdeb": 4423,
  "ĠState": 4426,
  "Ġfrequ": 4432,
  "Ġsurface": 4433,
  "Un": 4437,
  "itted": 4438,
  "Ġein": 4440,
  "eters": 4441,
  "Ġfail": 4442,
  "Ġblood": 4443,
  "Ġwhole": 4445,
  "Ġmonths": 4447,
  "gress": 4448,
  "Ġtalk": 4449,
  "oud": 4450,
  "atus": 4453,
  "Ġproblems": 4454,
  "Ġstructure": 4456,
  "ĠHis": 4457,
  "itation": 4458,
  "sequ": 4461,
  "Ġdire": 4462,
  "string": 4463,
  "ĠAng": 4464,
  "Ġupon": 4465,
  "ĠOct": 4466,
  "Ġpaper": 4468,
  "ĠPa": 4471,
  "Ġmeasure": 4472,
  "Ġvo": 4473,
  "Ġquality": 4474,
  "Ġsem": 4475,
  "Ġshown": 4476,
  "ĠLet": 4480,
  "No": 4484,
  "Ġcomplet": 4485,
  "Ġobtain": 4486,
  "ken": 4490,
  "Ġmakes": 4491,
  "IP": 4493,
  "Ġtax": 4494,
  "ĠWorld": 4495,
  "Ġprovided": 4496,
  "Ġhowever": 4499,
  "Ġsoft": 4500,
  "Ġareas": 4501,
  "Ġonline": 4502,
  "ociety": 4505,
  "AB": 4506,
  "Ġcover": 4508,
  "Ġaccording": 4509,
  "Ġassess": 4511,
  "Ġplant": 4514,
  "Ġassociated": 4515,
  "medi": 4516,
  "ony": 4517,
  "Ġclear": 4521,
  "ese": 4522,
  "Ġcoll": 4523,
  "Ġrelated": 4524,
  "itch": 4525,
  "UR": 4526,
  "ĠRep": 4527,
  "Ġdivis": 4529,
  "Data": 4532,
  "pose": 4535,
  "ella": 4537,
  "Ġshall": 4540,
  "Ġever": 4541,
  "ĠNational": 4545,
  "By": 4546,
  "Ġeffic": 4547,
  "ĠTra": 4550,
  "bol": 4552,
  "Ġseem": 4556,
  "la": 4558,
  "Ġwar": 4559,
  "ĠEd": 4560,
  "Ġrather": 4562,
  "Ġlevels": 4563,
  "mit": 4565,
  "Ġstudies": 4570,
  "Ġtell": 4575,
  "Ġactivity": 4577,
  "Ġparam": 4578,
  "istance": 4579,
  "bb": 4580,
  "Ġcy": 4582,
  "asc": 4583,
  "illed": 4585,
  "Ġconsum": 4587,
  "left": 4589,
  "ils": 4590,
  "Ġcity": 4593,
  "Type": 4595,
  "Ġcases": 4599,
  "Ġrefer": 4600,
  "Ġmoney": 4601,
  "ĠString": 4603,
  "Ġmicro": 4605,
  "Ġproduction": 4606,
  "cem": 4607,
  "Ġfall": 4608,
  "Ġimage": 4609,
  "type": 4611,
  "avor": 4612,
  "Sh": 4614,
  "Ġsy": 4615,
  "atur": 4616,
  "Val": 4617,
  "Ġcut": 4619,
  "ĠNumber": 4620,
  "da": 4623,
  "ief": 4624,
  "Ġdefin": 4625,
  "zen": 4626,
  "Ġvar": 4627,
  "eds": 4628,
  "Ġflow": 4629,
  "Ġsolution": 4630,
  "Ġoriginal": 4632,
  "selves": 4635,
  "Ġfactor": 4637,
  "Ġprote": 4638,
  "ĠAug": 4639,
  "Ġdam": 4640,
  "Ġdeath": 4641,
  "minist": 4643,
  "Ġpractice": 4646,
  "Ġunderstanding": 4647,
  "ĠApr": 4648,
  "ĠMon": 4649,
  "ida": 4650,
  "Ġexpress": 4651,
  "pri": 4652,
  "Ġissues": 4653,
  "Ġsimple": 4654,
  "Ġrecogn": 4657,
  "EL": 4659,
  "Ġwent": 4661,
  "Ġconvers": 4664,
  "Ġnight": 4666,
  "ius": 4667,
  "Ġbit": 4669,
  "Ġyet": 4671,
  "raction": 4675,
  "off": 4676,
  "Ġimplement": 4678,
  "uted": 4679,
  "Ġeffects": 4680,
  "Ġconduct": 4681,
  "Ġground": 4682,
  "OS": 4687,
  "Ġsource": 4688,
  "Ġways": 4689,
  "At": 4690,
  "Ġgroups": 4691,
  "ises": 4692,
  "alt": 4696,
  "Ġmo": 4698,
  "ama": 4699,
  "ĠPre": 4701,
  "inn": 4702,
  "comes": 4704,
  "idth": 4708,
  "pping": 4709,
  "rt": 4710,
  "Ġkg": 4711,
  "Ġmoment": 4712,
  "UT": 4713,
  "Ġdest": 4714,
  "kan": 4716,
  "ental": 4717,
  "Ġloss": 4721,
  "uel": 4722,
  "ĠGl": 4724,
  "aging": 4725,
  "ano": 4728,
  "ynam": 4729,
  "IG": 4730,
  "_s": 4731,
  "Ġod": 4734,
  "Ġlooking": 4735,
  "ĠTrans": 4736,
  "Ġtaken": 4737,
  "Ġconcept": 4738,
  "Ġdisease": 4745,
  "cover": 4746,
  "Ġhalf": 4747,
  "ĠPM": 4748,
  "Ġevalu": 4749,
  "iques": 4751,
  "ĠVal": 4752,
  "ĠCor": 4753,
  "ĠIS": 4756,
  "Ġbar": 4758,
  "ops": 4759,
  "Ġunit": 4761,
  "Ġapplication": 4762,
  "Ġexpect": 4765,
  "Ġinvestig": 4766,
  "Ġactivities": 4768,
  "Ġsepar": 4769,
  "www": 4771,
  "Ġroom": 4772,
  "rown": 4775,
  "Ġcause": 4776,
  "ĠDis": 4777,
  "ideo": 4778,
  "where": 4779,
  "cret": 4781,
  "Ġprovides": 4782,
  "Ġminutes": 4786,
  "Ġquick": 4787,
  "aling": 4788,
  "ya": 4789,
  "ĠDep": 4791,
  "lying": 4794,
  "uary": 4795,
  "Int": 4796,
  "ante": 4797,
  "Ġroot": 4798,
  "MM": 4799,
  "Ġcannot": 4800,
  "Tr": 4802,
  "Ġmechan": 4804,
  "osis": 4805,
  "hing": 4806,
  "Ġtechnology": 4807,
  "Ġintrodu": 4808,
  "Ġpropos": 4809,
  "pen": 4811,
  "Ġcorrect": 4813,
  "nÃŃ": 4814,
  "Ġtypes": 4815,
  "Col": 4816,
  "Ġprevent": 4819,
  "ĠInter": 4820,
  "icht": 4821,
  "When": 4823,
  "Ġthird": 4824,
  "Ġliter": 4826,
  "Ġteac": 4827,
  "Ġconcern": 4829,
  "oper": 4830,
  "iation": 4834,
  "book": 4835,
  "Ġmethods": 4836,
  "ĠCar": 4837,
  "ki": 4839,
  "Ã¡s": 4840,
  "ĠHealth": 4842,
  "Ġdoing": 4843,
  "Ġneeded": 4844,
  "EM": 4846,
  "Ġregard": 4847,
  "otal": 4848,
  "Ġshows": 4849,
  "Ġnear": 4851,
  "aves": 4853,
  "Ġnetwork": 4854,
  "Ġespecially": 4861,
  "ita": 4862,
  "Ġshare": 4863,
  "adem": 4864,
  "ĠDr": 4865,
  "Ġwritten": 4866,
  "Ġsection": 4868,
  "Ġasked": 4869,
  "ĠSouth": 4871,
  "Ġaud": 4874,
  "log": 4875,
  "ĠFran": 4878,
  "Ġsense": 4880,
  "Ġexperien": 4884,
  "Ġelement": 4885,
  "Ġlikely": 4888,
  "Ġlength": 4892,
  "umb": 4893,
  "OT": 4894,
  "ĠMore": 4895,
  "ĠPe": 4897,
  "vis": 4901,
  "irl": 4903,
  "Ġaccept": 4904,
  "Ġsus": 4906,
  "pond": 4908,
  "Ġoccur": 4909,
  "Is": 4910,
  "Ġstatic": 4911,
  "Ġlink": 4912,
  "Ġhab": 4917,
  "ounter": 4918,
  "iddle": 4920,
  "ster": 4921,
  "Ġfram": 4922,
  "Ġseries": 4923,
  "Ġmi": 4924,
  "met": 4925,
  "ND": 4928,
  "Ġessential": 4930,
  "Ġclos": 4931,
  "Ġevidence": 4933,
  "men": 4934,
  "Ġpressure": 4935,
  "Ġnature": 4936,
  "Ġequal": 4939,
  "Ġdocument": 4940,
  "_c": 4941,
  "come": 4942,
  "Ġeight": 4944,
  "Ġinform": 4946,
  "ects": 4950,
  "ING": 4951,
  "ĠSim": 4959,
  "Ġwalk": 4961,
  "Ġtold": 4962,
  "Ġskills": 4963,
  "ership": 4965,
  "uild": 4966,
  "aced": 4969,
  "Ġcamp": 4971,
  "ackage": 4974,
  "Ġalmost": 4975,
  "lo": 4979,
  "ini": 4981,
  "ĠBo": 4983,
  "ocal": 4984,
  "Ġwriting": 4985,
  "itude": 4986,
  "key": 4989,
  "Ġmultiple": 4990,
  "rieved": 4994,
  "Ġlive": 4995,
  "Ġhom": 4996,
  "Ġmaintain": 4997,
  "Ġmove": 5002,
  "Ġaverage": 5004,
  "ando": 5007,
  "ply": 5009,
  "Ġclose": 5010,
  "Ġbal": 5011,
  "Ġeffort": 5014,
  "estion": 5015,
  "ui": 5016,
  "iles": 5017,
  "Ġmit": 5018,
  "Le": 5019,
  "ĠBrit": 5021,
  "oring": 5022,
  "ditional": 5023,
  "Ġfinancial": 5024,
  "Ġtraining": 5026,
  "Ġseason": 5029,
  "Ġpattern": 5030,
  "ptember": 5032,
  "Ġnecessary": 5033,
  "ĠEr": 5034,
  "Ġfa": 5035,
  "Ġmatter": 5036,
  "Ġsite": 5037,
  "Ġproducts": 5039,
  "rix": 5040,
  "rim": 5041,
  "Ġhttps": 5042,
  "ref": 5044,
  "Ġdate": 5045,
  "Ġcross": 5046,
  "uration": 5049,
  "joy": 5051,
  "ixed": 5053,
  "urg": 5054,
  "CO": 5055,
  "Ġindustry": 5056,
  "ĠAfter": 5057,
  "Ġquant": 5059,
  "Ġseg": 5061,
  "Ġfalse": 5062,
  "ille": 5063,
  "ĠAfric": 5064,
  "aint": 5065,
  "ĠAust": 5066,
  "ĠCons": 5068,
  "uments": 5069,
  "ĠWill": 5070,
  "Ġresources": 5076,
  "ĠMarch": 5077,
  "Ġmer": 5079,
  "Ġsquare": 5080,
  "Ġreading": 5081,
  "Ġconsidered": 5083,
  "Ġago": 5084,
  "Ġwrite": 5085,
  "Ġchalleng": 5086,
  "CH": 5087,
  "mon": 5088,
  "Ġep": 5089,
  "Ġidea": 5090,
  "Ġcomes": 5095,
  "cal": 5096,
  "Ġdemand": 5097,
  "ided": 5098,
  "Ġnull": 5100,
  "ĠMark": 5101,
  "ĠMr": 5102,
  "Ġstandard": 5103,
  "ĠAc": 5108,
  "ctor": 5111,
  "ENT": 5113,
  "Ġprior": 5115,
  "Ġeyes": 5117,
  "Ġrequest": 5118,
  "nes": 5122,
  "Or": 5124,
  "ĠEduc": 5127,
  "lege": 5128,
  "Ġphysical": 5131,
  "ĠFeb": 5132,
  "just": 5134,
  "Ġrat": 5139,
  "Ġdraw": 5140,
  "curity": 5141,
  "fully": 5142,
  "Ġadded": 5144,
  "Ġinn": 5145,
  "Ġmusic": 5146,
  "Ġten": 5147,
  "Ġcontext": 5148,
  "Ġsil": 5152,
  "cember": 5153,
  "ja": 5154,
  "Ġhet": 5155,
  "Ġnov": 5156,
  "Ġmiles": 5157,
  "mod": 5158,
  "Ġblack": 5159,
  "astic": 5160,
  "Ġfront": 5161,
  "Im": 5162,
  "Ġma": 5164,
  "_id": 5165,
  "ĠMc": 5166,
  "Ġincreased": 5167,
  "gor": 5168,
  "Ġtemperature": 5169,
  "ras": 5171,
  "Ġspecies": 5172,
  "fo": 5175,
  "Ġtaking": 5177,
  "Ġregion": 5181,
  "Ġcollect": 5182,
  "ĠSome": 5183,
  "Ġconsist": 5184,
  "Ġpopulation": 5185,
  "lied": 5186,
  "Go": 5188,
  "va": 5193,
  "Ġpie": 5194,
  "value": 5197,
  "agement": 5204,
  "ua": 5207,
  "ĠJune": 5210,
  "include": 5211,
  "Ġdeep": 5212,
  "Ġnational": 5214,
  "ĠGerm": 5215,
  "Ġglobal": 5217,
  "Ġpolitical": 5218,
  "ĠGener": 5219,
  "Ġprice": 5220,
  "Ġentire": 5221,
  "_p": 5224,
  "ensive": 5226,
  "Ġdecision": 5227,
  "mar": 5228,
  "Ġitself": 5231,
  "ceed": 5232,
  "iat": 5233,
  "Ġoutput": 5238,
  "var": 5241,
  "Ġpolicy": 5242,
  "Ġindividuals": 5244,
  "ĠPost": 5245,
  "ached": 5246,
  "rast": 5248,
  "Ġsequ": 5250,
  "Ph": 5251,
  "IM": 5253,
  "ydro": 5255,
  "odes": 5258,
  "mary": 5259,
  "Ġincludes": 5260,
  "Ġensure": 5261,
  "data": 5263,
  "ĠNorth": 5264,
  "user": 5265,
  "anks": 5268,
  "Ġchem": 5269,
  "Ġstarted": 5271,
  "CT": 5272,
  "acc": 5273,
  "stract": 5274,
  "ĠCount": 5277,
  "Ġworkshe": 5278,
  "ĠPress": 5280,
  "Ġmeaning": 5281,
  "oved": 5283,
  "ĠRetrieved": 5285,
  "ira": 5287,
  "Ġweight": 5288,
  "ĠFin": 5290,
  "Ġdevice": 5291,
  "Ġusually": 5292,
  "light": 5296,
  "eks": 5297,
  "Ġrecomm": 5298,
  "Ġvon": 5299,
  "Ġactually": 5300,
  "Ġability": 5304,
  "Ġscre": 5305,
  "ĠAcc": 5306,
  "Ġdemon": 5307,
  "Ġcontact": 5310,
  "ming": 5312,
  "ager": 5313,
  "Ind": 5314,
  "IV": 5315,
  "Ġune": 5316,
  "ports": 5317,
  "Ġjud": 5318,
  "ĠSub": 5320,
  "Ġpour": 5321,
  "aving": 5323,
  "So": 5328,
  "Ġrev": 5330,
  "reed": 5331,
  "td": 5333,
  "ĠHer": 5334,
  "Ġdifference": 5335,
  "ĠUs": 5336,
  "vey": 5337,
  "ography": 5338,
  "bject": 5339,
  "ĠCour": 5340,
  "hr": 5341,
  "igen": 5342,
  "Ġbuilding": 5345,
  "apan": 5346,
  "Ġstudent": 5347,
  "ections": 5348,
  "clusion": 5350,
  "Ġsearch": 5351,
  "Ġdoesn": 5354,
  "actions": 5355,
  "from": 5356,
  "lin": 5360,
  "ĠResearch": 5362,
  "Ġmodels": 5363,
  "mission": 5369,
  "ĠSchool": 5370,
  "ares": 5371,
  "Ġnormal": 5374,
  "ĠYour": 5375,
  "Ġcompan": 5377,
  "andom": 5378,
  "Ġeffective": 5379,
  "Ġmedia": 5380,
  "Ġfeatures": 5381,
  "ĠApril": 5383,
  "ĠHist": 5385,
  "Ġeconomic": 5389,
  "Ġbill": 5390,
  "Ġstyle": 5392,
  "Ġdecl": 5393,
  "https": 5395,
  "Sub": 5399,
  "ĠdÃ©": 5400,
  "Ġexec": 5401,
  "Ġwhite": 5403,
  "ample": 5404,
  "Ġeen": 5405,
  "oke": 5406,
  "Ġcountries": 5407,
  "lim": 5410,
  "irit": 5411,
  "ln": 5413,
  "Ġhor": 5415,
  "uz": 5416,
  "Ġdivid": 5417,
  "Ġeasy": 5418,
  "ession": 5419,
  "Ã¼r": 5421,
  "Ġhistor": 5423,
  "Ġregul": 5424,
  "ĠII": 5425,
  "ging": 5426,
  "ĠChe": 5427,
  "Ġbelieve": 5429,
  "ech": 5430,
  "ĠPat": 5432,
  "Ġstay": 5434,
  "px": 5438,
  "cz": 5439,
  "ham": 5440,
  "ĠSm": 5443,
  "Ġfriends": 5446,
  "ults": 5447,
  "Ġcontinue": 5448,
  "ilit": 5449,
  "Ġissue": 5452,
  "ĠRead": 5453,
  "With": 5455,
  "hern": 5456,
  "upp": 5459,
  "itting": 5460,
  "swers": 5462,
  "Ġunique": 5463,
  "Ġenjoy": 5465,
  "Ġengine": 5466,
  "Ġproperties": 5470,
  "Ġflu": 5471,
  "Ġcard": 5474,
  "Ġcourt": 5476,
  "Ġpen": 5477,
  "Ġforce": 5478,
  "Ġmiss": 5479,
  "All": 5480,
  "ball": 5481,
  "Ġprec": 5482,
  "ko": 5483,
  "osition": 5484,
  "Ġfilm": 5485,
  "Ġelements": 5486,
  "Ġsch": 5491,
  "param": 5494,
  "ĠSer": 5495,
  "Ġstreng": 5498,
  "Ġgetting": 5499,
  "Ġstress": 5505,
  "leep": 5507,
  "Ġindex": 5508,
  "Ġconcent": 5509,
  "ĠList": 5512,
  "ĠJanuary": 5513,
  "Ġdisplay": 5514,
  "Ġevents": 5516,
  "istry": 5519,
  "lation": 5520,
  "Ġsett": 5521,
  "inate": 5523,
  "Ġsomeone": 5524,
  "oles": 5525,
  "Ġmach": 5526,
  "enty": 5529,
  "Ġliving": 5530,
  "ÃŃa": 5534,
  "ĠHar": 5535,
  "ronic": 5536,
  "Ġproperty": 5538,
  "Ġfoot": 5539,
  "ĠScience": 5540,
  "lig": 5544,
  "ught": 5546,
  "ĠAugust": 5548,
  "rial": 5550,
  "ĠTechn": 5552,
  "Ġcomplete": 5553,
  "Ġarray": 5554,
  "Ġqual": 5556,
  "Ġwebs": 5559,
  "Ġmagn": 5561,
  "ĉreturn": 5562,
  "CC": 5564,
  "Ġvia": 5566,
  "ding": 5567,
  "eta": 5568,
  "Ġpan": 5569,
  "ĠGra": 5570,
  "respond": 5571,
  "Ġcreated": 5572,
  "Ġbehind": 5573,
  "ĠWeb": 5575,
  "Ġdrug": 5576,
  "dom": 5577,
  "roy": 5580,
  "Ġplus": 5582,
  "Ġcred": 5588,
  "Ġjo": 5590,
  "ĠHere": 5592,
  "Ġsec": 5593,
  "Ġrecent": 5594,
  "Ġenh": 5596,
  "Ġsecurity": 5597,
  "_f": 5598,
  "inical": 5600,
  "ĠWar": 5602,
  "Ġblock": 5603,
  "Ġexpected": 5604,
  "ĠPres": 5605,
  "Ġgas": 5606,
  "Ġheld": 5607,
  "Ġsubst": 5609,
  "Ġerror": 5610,
  "Ġarch": 5613,
  "Ġviol": 5614,
  "hic": 5615,
  "cial": 5617,
  "Ġq": 5618,
  "Ġhimself": 5619,
  "Ġdas": 5620,
  "ĠJuly": 5622,
  "ogen": 5624,
  "ĠInternational": 5625,
  "ĠFr": 5626,
  "ucle": 5627,
  "ba": 5628,
  "ĠDec": 5629,
  "ependent": 5630,
  "sub": 5635,
  "je": 5636,
  "Ġmember": 5637,
  "room": 5638,
  "change": 5639,
  "Ġmother": 5642,
  "Ġrights": 5643,
  "Ġcru": 5644,
  "Ġwin": 5645,
  "Ġwon": 5646,
  "aries": 5647,
  "ĠData": 5651,
  "Ġdescribed": 5654,
  "Ġetc": 5655,
  "Ġpod": 5656,
  "Ġanything": 5657,
  "Ġdim": 5662,
  "xim": 5663,
  "Ġcondition": 5664,
  "Ġmulti": 5665,
  "Ġdivisors": 5666,
  "Ġcm": 5669,
  "oe": 5670,
  "Ġattention": 5671,
  "ĠOf": 5673,
  "sum": 5674,
  "Ġeverything": 5675,
  "Ġnumer": 5679,
  "Ġattack": 5682,
  "Ġquite": 5686,
  "Ġos": 5688,
  "Ġproced": 5690,
  "SC": 5692,
  "hens": 5695,
  "aily": 5698,
  "ky": 5701,
  "Ġprinc": 5702,
  "oul": 5703,
  "Ġcontinu": 5704,
  "rated": 5705,
  "Ġsound": 5706,
  "ĠAnt": 5707,
  "Ġload": 5709,
  "rapy": 5710,
  "Ġvisit": 5711,
  "ban": 5712,
  "ĠThen": 5715,
  "Pl": 5717,
  "Let": 5718,
  "Ġbehavior": 5720,
  "isf": 5722,
  "Ġcompared": 5724,
  "ĠJournal": 5726,
  "Ġpp": 5727,
  "verse": 5728,
  "Ġreceived": 5730,
  "ĠRel": 5731,
  "Ġperfect": 5732,
  "ĉif": 5733,
  "eful": 5735,
  "fficient": 5736,
  "App": 5737,
  "AG": 5743,
  "Ġthemselves": 5744,
  "gl": 5745,
  "rong": 5747,
  "orks": 5748,
  "Ġbecame": 5750,
  "Ġzu": 5751,
  "Ġox": 5753,
  "Ġaspect": 5754,
  "Ġstates": 5756,
  "atively": 5757,
  "Ġcapac": 5758,
  "Ġaccom": 5759,
  "Ġnothing": 5760,
  "Ġbad": 5763,
  "ategory": 5765,
  "Ġir": 5766,
  "Ġincreasing": 5767,
  "Ġreported": 5768,
  "ĠSeptember": 5773,
  "ternal": 5777,
  "abase": 5778,
  "Ġbr": 5779,
  "hemat": 5780,
  "ĠDav": 5781,
  "Ġfem": 5782,
  "Ġidentify": 5784,
  "Ġculture": 5785,
  "Ġdans": 5786,
  "ni": 5787,
  "Ġavoid": 5789,
  "pace": 5790,
  "Ġexpression": 5793,
  "ĠChina": 5794,
  "ĠFrom": 5795,
  "Ġgreater": 5798,
  "ĠVol": 5799,
  "yth": 5800,
  "mp": 5801,
  "Ġsort": 5803,
  "Ġbeaut": 5804,
  "onal": 5805,
  "Ġpublished": 5806,
  "Ġcapt": 5807,
  "uh": 5808,
  "ensity": 5811,
  "aches": 5813,
  "Ġsche": 5815,
  "part": 5821,
  "Ġdoor": 5823,
  "Ġtou": 5824,
  "Ġlonger": 5827,
  "Ġpatient": 5828,
  "Ġwanted": 5829,
  "Ġimprove": 5831,
  "Ġincluded": 5833,
  "ruary": 5834,
  "Ġregular": 5836,
  "ĠIndia": 5837,
  "fig": 5838,
  "New": 5840,
  "atform": 5845,
  "Ġsaw": 5847,
  "bt": 5849,
  "ĠRuss": 5850,
  "airs": 5851,
  "Ġheav": 5853,
  "Ġoutside": 5854,
  "Ġinstit": 5856,
  "ĠOctober": 5857,
  "Ġful": 5858,
  "ora": 5861,
  "ridge": 5862,
  "_m": 5864,
  "Ġfeed": 5865,
  "ĠBi": 5867,
  "IL": 5868,
  "net": 5872,
  "Ġdeveloped": 5873,
  "Ġpict": 5874,
  "ube": 5876,
  "pan": 5878,
  "Ġsimply": 5880,
  "Ġinsp": 5882,
  "ead": 5883,
  "Ġpopular": 5885,
  "but": 5887,
  "inks": 5891,
  "Ġutil": 5894,
  "OL": 5896,
  "Ġprep": 5897,
  "ĠDecember": 5899,
  "Ġsex": 5900,
  "Ġtravel": 5901,
  "Ġfire": 5902,
  "Med": 5904,
  "quest": 5905,
  "isions": 5907,
  "Ġhost": 5908,
  "Ġmaterials": 5909,
  "Ġexerc": 5912,
  "ivil": 5913,
  "ufact": 5914,
  "Ġscient": 5915,
  "gy": 5916,
  "fort": 5918,
  "df": 5920,
  "Ġhy": 5921,
  "Ġestim": 5923,
  "script": 5924,
  "SS": 5927,
  "Ġaltern": 5928,
  "ĠSpec": 5930,
  "Ġmedical": 5931,
  "Ġappropri": 5934,
  "rat": 5935,
  "ĠWest": 5937,
  "Ġcancer": 5939,
  "ondon": 5941,
  "ĠCity": 5942,
  "empl": 5945,
  "wa": 5946,
  "ĠVer": 5948,
  "Ġparts": 5949,
  "Ġemerg": 5950,
  "ocation": 5952,
  "Ġcomo": 5955,
  "Ġanim": 5956,
  "Ġtrying": 5958,
  "Ġemot": 5959,
  "sole": 5963,
  "Ġaim": 5965,
  "Ġwond": 5969,
  "Ġmodern": 5970,
  "Ġrelig": 5972,
  "Node": 5973,
  "Ġadditional": 5974,
  "vest": 5975,
  "pi": 5976,
  "ados": 5977,
  "ĠFirst": 5978,
  "_n": 5980,
  "cos": 5982,
  "anger": 5983,
  "Ġinvolved": 5984,
  "Ġorganiz": 5985,
  "equ": 5986,
  "ĠSw": 5987,
  "unch": 5990,
  "Ġfigure": 5991,
  "ĠAmerica": 5992,
  "ees": 5993,
  "iency": 5995,
  "Ġprefer": 5996,
  "ĠNovember": 5997,
  "Ġdemonstr": 5999,
  "bit": 6000,
  "ĠWhile": 6001,
  "mm": 6002,
  "Ġdecre": 6003,
  "Ġpsych": 6004,
  "Ġbegan": 6006,
  "Ġappe": 6008,
  "Ġpick": 6009,
  "ĠOF": 6010,
  "ponse": 6012,
  "Ġversion": 6013,
  "ĠDef": 6016,
  "input": 6018,
  "span": 6019,
  "OD": 6024,
  "Ġhot": 6025,
  "Ġtakes": 6026,
  "Ġcarb": 6028,
  "Ġsun": 6029,
  "zi": 6030,
  "omin": 6031,
  "Ġknew": 6033,
  "ford": 6037,
  "Ġattempt": 6041,
  "Ġdouble": 6042,
  "ĠNet": 6044,
  "ĠMat": 6045,
  "lick": 6046,
  "dis": 6047,
  "Ã©e": 6049,
  "rought": 6051,
  "aker": 6055,
  "igned": 6057,
  "Ġforward": 6058,
  "Ġlat": 6059,
  "pat": 6060,
  "ework": 6062,
  "och": 6065,
  "Ġist": 6067,
  "Ġinitial": 6069,
  "urt": 6070,
  "Ġwall": 6072,
  "Ġgraph": 6073,
  "Ġprimary": 6074,
  "Ġcorrespond": 6075,
  "ido": 6076,
  "amin": 6083,
  "omy": 6084,
  "Ġcontract": 6085,
  "Ġhon": 6086,
  "Ġcu": 6087,
  "bf": 6088,
  "Ġfelt": 6090,
  "oma": 6091,
  "Ġreflect": 6093,
  "Ġbuy": 6097,
  "Ġhands": 6099,
  "cast": 6100,
  "Ġqui": 6101,
  "Ġcapital": 6102,
  "Ġoil": 6103,
  "Ġtowards": 6104,
  "rench": 6106,
  "Ġcommand": 6107,
  "ospital": 6108,
  "Ġpas": 6109,
  "One": 6111,
  "arter": 6112,
  "DF": 6115,
  "Ġfriend": 6117,
  "Ġdetermine": 6119,
  "pha": 6120,
  "ĠForm": 6121,
  "roller": 6122,
  "amed": 6123,
  "ĠBook": 6125,
  "Ġinternational": 6128,
  "Ġtheory": 6129,
  "ias": 6132,
  "with": 6135,
  "Ã¶r": 6136,
  "Ġcompanies": 6137,
  "Ġber": 6138,
  "OC": 6139,
  "arily": 6140,
  "Ġautom": 6144,
  "Time": 6145,
  "ario": 6146,
  "ĠArch": 6148,
  "inct": 6149,
  "itte": 6150,
  "ĠClass": 6153,
  "Ġlives": 6156,
  "Ġni": 6157,
  "ederal": 6159,
  "ously": 6160,
  "Ġprobably": 6162,
  "Ġweeks": 6167,
  "Ġlack": 6168,
  "Ġseven": 6170,
  "index": 6174,
  "urance": 6175,
  "resh": 6176,
  "Ġfunctions": 6177,
  "elle": 6178,
  "Ġseems": 6179,
  "BN": 6180,
  "ika": 6183,
  "cil": 6185,
  "rate": 6187,
  "irth": 6188,
  "ibrary": 6191,
  "Ġled": 6192,
  "Ġnews": 6193,
  "ĠHigh": 6195,
  "AA": 6196,
  "oz": 6198,
  "ective": 6199,
  "More": 6203,
  "SE": 6204,
  "ĠTest": 6205,
  "Ġprop": 6211,
  "Ġheat": 6212,
  "Ġvideo": 6217,
  "Ġlate": 6218,
  "Ġclean": 6219,
  "coming": 6224,
  "Ġcompl": 6228,
  "ĠCommun": 6234,
  "Ġpredict": 6235,
  "Ġsust": 6236,
  "gn": 6237,
  "Ġmag": 6238,
  "ader": 6239,
  "Ġinstead": 6240,
  "ĠOther": 6241,
  "Ġcontain": 6242,
  "Ġlines": 6243,
  "Ġconstant": 6245,
  "ĠRed": 6247,
  "Ġreduce": 6252,
  "Ġtherefore": 6253,
  "ĠSupp": 6255,
  "pa": 6256,
  "vement": 6257,
  "Ġcommunication": 6258,
  "ĠST": 6259,
  "Ġreve": 6260,
  "atives": 6261,
  "Ġscience": 6262,
  "ĠGre": 6264,
  "aged": 6265,
  "ĠWorks": 6266,
  "Ġdetail": 6271,
  "ĠKing": 6272,
  "Ġlooked": 6273,
  "egin": 6275,
  "Ġspeed": 6276,
  "usion": 6279,
  "term": 6283,
  "Ġbenefits": 6286,
  "Get": 6287,
  "uman": 6288,
  "Ġcompar": 6289,
  "IR": 6290,
  "Ġfast": 6292,
  "idad": 6293,
  "Ġgrand": 6294,
  "ĠEducation": 6297,
  "Ġsituation": 6299,
  "orage": 6300,
  "Ġacid": 6301,
  "Ġfeet": 6302,
  "Ġmessage": 6304,
  "ĠDevelop": 6305,
  "lt": 6306,
  "Ġstra": 6307,
  "ria": 6309,
  "ĠJapan": 6310,
  "Des": 6311,
  "ĠAnal": 6312,
  "ĠSum": 6313,
  "Ġdirection": 6315,
  "Ġpack": 6316,
  "Ġstatus": 6317,
  "Ġbott": 6318,
  "Ġexact": 6319,
  "Ġom": 6320,
  "len": 6321,
  "Ġsignal": 6323,
  "des": 6324,
  "ĠAustral": 6325,
  "Ġaw": 6326,
  "Ġcosts": 6329,
  "Ġexperiment": 6331,
  "ĠEst": 6332,
  "rest": 6333,
  "rab": 6336,
  "Ġroad": 6337,
  "Ã¡n": 6339,
  "Add": 6340,
  "Ġcomputer": 6341,
  "Not": 6343,
  "lor": 6344,
  "Ġhope": 6345,
  "Ġinside": 6352,
  "Ġcenter": 6354,
  "pite": 6356,
  "oly": 6357,
  "ette": 6358,
  "Ġcry": 6359,
  "Ġremember": 6360,
  "Ġwait": 6361,
  "Ġnames": 6362,
  "hi": 6366,
  "ĠTHE": 6367,
  "Ġpal": 6368,
  "Ġfather": 6369,
  "Ġau": 6377,
  "oo": 6379,
  "Ġdistribution": 6380,
  "Ġallows": 6382,
  "Ã³w": 6383,
  "ev": 6384,
  "Ã©n": 6385,
  "ĠSol": 6386,
  "Ġdeal": 6388,
  "Ġparents": 6390,
  "roid": 6393,
  "Ġbooks": 6394,
  "ĠMus": 6395,
  "ĠFebruary": 6396,
  "Ġdog": 6397,
  "Ġimmedi": 6398,
  "Ġsn": 6400,
  "icon": 6401,
  "Ġmap": 6403,
  "Ġvalid": 6405,
  "Ġdark": 6406,
  "Ġtitle": 6407,
  "Ġstop": 6409,
  "ala": 6411,
  "esus": 6413,
  "Ġsoon": 6415,
  "Ġmut": 6416,
  "Ġmole": 6417,
  "Ġtransfer": 6418,
  "Ġbed": 6422,
  "Ġnut": 6423,
  "mat": 6424,
  "Ġpurpose": 6425,
  "ĠScholar": 6427,
  "Ġdefined": 6428,
  "Ġinj": 6429,
  "Ġmid": 6431,
  "aur": 6433,
  "haps": 6435,
  "Ġdiagn": 6437,
  "omb": 6438,
  "more": 6439,
  "Ġparticularly": 6440,
  "Ġadminist": 6442,
  "Ġthroughout": 6443,
  "PS": 6446,
  "rig": 6448,
  "Ġdepend": 6450,
  "pret": 6452,
  "nown": 6456,
  "ali": 6457,
  "FF": 6459,
  "Ġsoftware": 6460,
  "Ġlimit": 6461,
  "alle": 6462,
  "ĠLear": 6463,
  "Ġmemory": 6464,
  "ĠArt": 6465,
  "Ġslow": 6470,
  "Ġthus": 6473,
  "asons": 6475,
  "Ġrespond": 6476,
  "Ġwer": 6478,
  "Ġwebsite": 6480,
  "Ġgirl": 6482,
  "void": 6483,
  "Form": 6484,
  "Ġbox": 6485,
  "Ġprogress": 6486,
  "Ġca": 6488,
  "Ġsuff": 6489,
  "Ġcritical": 6490,
  "Ġoverall": 6492,
  "Ġfavor": 6495,
  "Ġnm": 6496,
  "used": 6497,
  "ani": 6498,
  "iverse": 6499,
  "Ġple": 6500,
  "Ġwhose": 6501,
  "Ġnga": 6503,
  "ĠPhys": 6504,
  "Ġeth": 6505,
  "edia": 6507,
  "Ġemp": 6510,
  "board": 6513,
  "ponent": 6514,
  "bar": 6515,
  "ĠOur": 6516,
  "Ġdigital": 6517,
  "Ġtas": 6518,
  "Ġdistance": 6520,
  "Ġmis": 6521,
  "ĠAre": 6529,
  "izes": 6530,
  "Ġsteps": 6531,
  "Ġapplications": 6532,
  "see": 6534,
  "Ġoptions": 6536,
  "Ġlegal": 6537,
  "quare": 6538,
  "cia": 6539,
  "Ġcoming": 6540,
  "html": 6541,
  "Ġlimited": 6543,
  "ca": 6544,
  "Ġweb": 6545,
  "erve": 6548,
  "Ġequation": 6550,
  "ULL": 6552,
  "Ġax": 6553,
  "Ġsafety": 6555,
  "Ġbound": 6556,
  "Ġsurv": 6557,
  "Ġdesigned": 6558,
  "Ġleave": 6559,
  "aren": 6560,
  "Ġinstall": 6564,
  "Ġdro": 6567,
  "Ġvehic": 6568,
  "Ġbasic": 6569,
  "Ġog": 6570,
  "Ġdynam": 6574,
  "ĠSee": 6575,
  "Ġtal": 6577,
  "Ġdirectly": 6578,
  "Ġprocesses": 6579,
  "exp": 6580,
  "oon": 6582,
  "ĠNow": 6583,
  "Ġbasis": 6584,
  "Ġspect": 6585,
  "ĠInstit": 6586,
  "vention": 6587,
  "BC": 6588,
  "vo": 6589,
  "ocks": 6590,
  "Ġsociety": 6591,
  "vol": 6593,
  "ords": 6596,
  "Ġwatch": 6599,
  "Ġenter": 6601,
  "itable": 6603,
  "ĠCourt": 6605,
  "ĠDel": 6607,
  "rew": 6608,
  "Ġsin": 6609,
  "Ġlic": 6610,
  "ĠFe": 6611,
  "Ġalgor": 6612,
  "ĠMod": 6613,
  "Ġmatch": 6614,
  "active": 6615,
  "Ġball": 6616,
  "oken": 6618,
  "cd": 6621,
  "Ġou": 6622,
  "Ġuses": 6623,
  "ĠDi": 6625,
  "Ġwoman": 6626,
  "Ġusers": 6628,
  "ellow": 6629,
  "Ġstru": 6630,
  "Ġstage": 6632,
  "ache": 6634,
  "Google": 6635,
  "ĠDet": 6636,
  "ashing": 6637,
  "Ġemail": 6638,
  "Ġacqu": 6639,
  "Ġlost": 6644,
  "Ġremain": 6645,
  "Ġleading": 6646,
  "ku": 6648,
  "Ġdiscover": 6649,
  "Ġvolume": 6651,
  "Ġpret": 6652,
  "Ġadvant": 6653,
  "Ġassum": 6654,
  "iers": 6659,
  "Ġeveryone": 6660,
  "Ġmm": 6667,
  "Ġdos": 6669,
  "Ġrates": 6671,
  "Ġcentral": 6672,
  "ags": 6673,
  "Ġcook": 6674,
  "Ġcit": 6675,
  "ĠEarth": 6677,
  "dated": 6679,
  "lands": 6681,
  "Ġcentury": 6683,
  "Ġones": 6684,
  "Value": 6685,
  "Ġprofessional": 6687,
  "ĠJust": 6688,
  "Pr": 6689,
  "Ġactive": 6690,
  "ĠLondon": 6693,
  "iring": 6694,
  "next": 6695,
  "ĠDepartment": 6697,
  "Ġcas": 6698,
  "Ġrelev": 6699,
  "gar": 6700,
  "Ġanaly": 6703,
  "Ġtools": 6704,
  "pid": 6705,
  "Ġproviding": 6706,
  "Ġstri": 6707,
  "Ġadapt": 6708,
  "Ġextra": 6712,
  "Ġgave": 6718,
  "Ġrandom": 6719,
  "Ġparty": 6721,
  "Ġdefault": 6723,
  "Ġgreen": 6726,
  "ancy": 6728,
  "EE": 6729,
  "Ġmention": 6731,
  "Ġmob": 6733,
  "Ġerr": 6734,
  "ĠFact": 6736,
  "She": 6737,
  "Ġnegative": 6740,
  "Figure": 6741,
  "uge": 6743,
  "Ġdetails": 6744,
  "ati": 6746,
  "Ġsomet": 6748,
  "Ġchoice": 6749,
  "Ġstaff": 6752,
  "Ab": 6754,
  "User": 6756,
  "ĠGet": 6757,
  "Ġnode": 6758,
  "My": 6759,
  "iful": 6760,
  "Ġband": 6762,
  "Ġcos": 6764,
  "Ġseek": 6767,
  "Ġimag": 6769,
  "estern": 6771,
  "Ġbrain": 6773,
  "inder": 6774,
  "mitted": 6777,
  "Ġtransform": 6779,
  "Ġtrack": 6781,
  "Ġord": 6782,
  "Ġprograms": 6783,
  "ĠMor": 6784,
  "ĠJe": 6790,
  "Ġboard": 6791,
  "TO": 6792,
  "ague": 6794,
  "isation": 6797,
  "Ġappropriate": 6798,
  "Ġbur": 6799,
  "ses": 6802,
  "Ġapplied": 6803,
  "Ġofficial": 6805,
  "MP": 6806,
  "Ġorigin": 6808,
  "Ġstatement": 6809,
  "Ġsample": 6810,
  "item": 6813,
  "Ġtour": 6814,
  "olic": 6815,
  "Ġexcept": 6816,
  "Ġturned": 6818,
  "Ġencou": 6819,
  "ĠReview": 6820,
  "Ġmechanism": 6822,
  "Ġforms": 6823,
  "Ġplatform": 6824,
  "Ġsatisf": 6825,
  "ecause": 6826,
  "attle": 6829,
  "Ġlocation": 6830,
  "ocol": 6832,
  "Ġtim": 6833,
  "angle": 6834,
  "ĠDay": 6835,
  "rote": 6839,
  "Ġentre": 6840,
  "aled": 6841,
  "Ġhyp": 6842,
  "uy": 6843,
  "Ġtransport": 6844,
  "Ġtrust": 6845,
  "ente": 6846,
  "ena": 6848,
  "Ġstd": 6849,
  "Ġinfluence": 6853,
  "Ġtree": 6855,
  "Ġhour": 6857,
  "enge": 6859,
  "Ġcand": 6862,
  "ĠPublic": 6864,
  "Ġpresence": 6865,
  "Ġing": 6866,
  "itary": 6867,
  "ums": 6868,
  "berg": 6870,
  "Ġplants": 6873,
  "Ġbud": 6874,
  "Ġpet": 6875,
  "Ġult": 6876,
  "Ġround": 6877,
  "State": 6878,
  "Ġjour": 6879,
  "ona": 6880,
  "Ġpurch": 6882,
  "illing": 6885,
  "Ġprotein": 6886,
  "Ġquickly": 6889,
  "Ġvariety": 6890,
  "ĠProgram": 6891,
  "Ġthinking": 6892,
  "Ġmanufact": 6896,
  "http": 6900,
  "UN": 6901,
  "ĠLaw": 6902,
  "Ġft": 6903,
  "ĠOver": 6904,
  "ouncil": 6905,
  "reement": 6908,
  "ĠJesus": 6910,
  "Ġreference": 6915,
  "ams": 6916,
  "rief": 6918,
  "ĠEuropean": 6919,
  "rc": 6921,
  "wise": 6922,
  "Ġuseful": 6923,
  "mes": 6925,
  "Ġstrength": 6926,
  "Of": 6932,
  "Ġrunning": 6934,
  "ĠSan": 6935,
  "hood": 6936,
  "ĠPark": 6938,
  "Ġbank": 6939,
  "agram": 6940,
  "plit": 6941,
  "Ġdoi": 6943,
  "isher": 6945,
  "Ġrow": 6946,
  "ĠUse": 6948,
  "Ġtown": 6949,
  "Ġbackground": 6951,
  "ĠOut": 6952,
  "ĠGovern": 6953,
  "Ġdegree": 6954,
  "Ġcam": 6961,
  "Em": 6962,
  "iding": 6965,
  "Ġideas": 6968,
  "bor": 6971,
  "Er": 6973,
  "Ġpow": 6978,
  "cho": 6981,
  "ĠTime": 6982,
  "ĠBar": 6983,
  "annel": 6987,
  "position": 6988,
  "Ġaffect": 6990,
  "ĠAssoci": 6993,
  "inese": 6994,
  "Ã©t": 6996,
  "Ġworth": 7001,
  "ears": 7002,
  "ilos": 7003,
  "ĠProf": 7005,
  "Ġcomment": 7006,
  "Ġopportunity": 7008,
  "Ġproduce": 7009,
  "Ġletter": 7010,
  "Ġformer": 7017,
  "fe": 7019,
  "Ġwasn": 7020,
  "Ġcompre": 7022,
  "Ġhydro": 7023,
  "init": 7025,
  "ECT": 7026,
  "Ġrules": 7027,
  "Ġoffice": 7032,
  "lished": 7034,
  "rack": 7035,
  "pert": 7038,
  "Ġheight": 7039,
  "chen": 7040,
  "CE": 7042,
  "ĠAdd": 7043,
  "Ġgives": 7047,
  "unk": 7048,
  "Ġvirt": 7049,
  "Ġwide": 7050,
  "uthors": 7052,
  "Ġsleep": 7053,
  "From": 7054,
  "rage": 7056,
  "Ġaware": 7058,
  "Ġswe": 7059,
  "force": 7060,
  "ji": 7063,
  "Ġspeak": 7065,
  "Ġpoor": 7066,
  "Ġbrought": 7068,
  "Ġoffers": 7070,
  "Ġconstruct": 7073,
  "Ġtraditional": 7075,
  "Ġgoal": 7076,
  "iments": 7078,
  "jo": 7079,
  "Ġfeature": 7080,
  "ĠInc": 7081,
  "unc": 7082,
  "Ġobtained": 7083,
  "eria": 7084,
  "Ġhar": 7088,
  "ĠAP": 7089,
  "omas": 7092,
  "Ġfight": 7096,
  "Ġsometimes": 7097,
  "Ġaf": 7099,
  "Ġmovement": 7100,
  "ologies": 7101,
  "Ġlayer": 7104,
  "Ġkil": 7106,
  "ellig": 7107,
  "Ġmys": 7108,
  "Ġphase": 7110,
  "Ġshowed": 7111,
  "cles": 7114,
  "Key": 7115,
  "Ġfamil": 7116,
  "amente": 7117,
  "ĠGeneral": 7120,
  "ĠSci": 7122,
  "usiness": 7125,
  "alam": 7127,
  "Ġfollowed": 7128,
  "mo": 7129,
  "Ġunits": 7130,
  "ĠOff": 7131,
  "asi": 7132,
  "Ġcolumn": 7133,
  "Ġlabor": 7134,
  "Ġgames": 7135,
  "ao": 7136,
  "Ġwrong": 7139,
  "Ġvoice": 7140,
  "Ġchallenges": 7142,
  "Ġskin": 7147,
  "ĠUp": 7148,
  "urb": 7150,
  "ivo": 7151,
  "ĠDem": 7152,
  "Be": 7153,
  "cks": 7154,
  "Ġnote": 7155,
  "ingu": 7158,
  "Ġhighly": 7159,
  "Ġlett": 7160,
  "Ġserious": 7162,
  "Ġexamples": 7165,
  "iny": 7166,
  "ĠAM": 7167,
  "Ġpages": 7169,
  "iance": 7170,
  "Ġrequirements": 7172,
  "ĠBen": 7173,
  "Ġgenerally": 7175,
  "Ġimportance": 7176,
  "Ġbey": 7177,
  "Ġimages": 7178,
  "ĠTable": 7179,
  "ady": 7181,
  "otes": 7183,
  "Ġtend": 7184,
  "Ġeasily": 7186,
  "Ġrot": 7188,
  "Ġtechniques": 7189,
  "SP": 7190,
  "body": 7193,
  "ĠWork": 7194,
  "Ġorganization": 7195,
  "iva": 7197,
  "inding": 7198,
  "Ġobserved": 7199,
  "ĠrÃ©": 7202,
  "Ġdivided": 7203,
  "Ġvict": 7204,
  "Ġbeyond": 7208,
  "arlier": 7209,
  "Ġsympt": 7211,
  "Ġtoward": 7212,
  "ĠFrench": 7213,
  "ĠMet": 7214,
  "mi": 7216,
  "Ġthreat": 7217,
  "ĠBritish": 7218,
  "ito": 7221,
  "ĠDate": 7222,
  "Ġsong": 7223,
  "XX": 7224,
  "Ġfollows": 7226,
  "avig": 7227,
  "nie": 7228,
  "Ġpull": 7229,
  "That": 7230,
  "Ġtask": 7231,
  "ĠWilliam": 7232,
  "Text": 7233,
  "xx": 7234,
  "Ġsources": 7236,
  "Ġchoose": 7238,
  "OM": 7239,
  "ulated": 7240,
  "uan": 7243,
  "Ġfra": 7244,
  "Ġillust": 7246,
  "ĠDist": 7248,
  "package": 7249,
  "ĠPaul": 7250,
  "ĠChar": 7251,
  "Ġinnov": 7252,
  "Ġalthough": 7254,
  "Ġamb": 7255,
  "Ġcomponents": 7257,
  "ĠPort": 7258,
  "Ġapply": 7263,
  "Ġspirit": 7266,
  "Ġcultural": 7267,
  "Ġcontains": 7272,
  "Ġdaily": 7274,
  "itory": 7275,
  "ĠMich": 7276,
  "utive": 7278,
  "itect": 7279,
  "ĠMicro": 7280,
  "Ġhttp": 7283,
  "Ġoption": 7284,
  "Ġkids": 7286,
  "arrow": 7287,
  "ĠView": 7288,
  "cular": 7289,
  "ĠItal": 7290,
  "Ġlarger": 7294,
  "Rep": 7296,
  "Ġdead": 7299,
  "ructure": 7300,
  "zer": 7301,
  "_P": 7302,
  "Ġreceive": 7306,
  "abet": 7307,
  "ittee": 7309,
  "Ġorg": 7312,
  "Ġlab": 7314,
  "Ġitems": 7316,
  "orge": 7317,
  "Service": 7319,
  "ĠPal": 7320,
  "encies": 7321,
  "Ġpi": 7323,
  "mathrm": 7326,
  "Ġfif": 7327,
  "ipal": 7328,
  "Ġpoly": 7329,
  "Ġdeliver": 7330,
  "Ġmal": 7332,
  "ests": 7333,
  "Ġnucle": 7337,
  "iones": 7338,
  "Ġsold": 7340,
  "Ġnine": 7341,
  "osure": 7343,
  "hesis": 7347,
  "hest": 7348,
  "Ġsolutions": 7352,
  "box": 7353,
  "kl": 7355,
  "Ġprojects": 7363,
  "ĠUK": 7364,
  "Table": 7366,
  "Ġisn": 7367,
  "ferences": 7369,
  "Ġfair": 7370,
  "vi": 7372,
  "Ġjava": 7373,
  "Ġsupply": 7376,
  "Ġfit": 7377,
  "Ġbuilt": 7379,
  "Ġsymbol": 7380,
  "ancing": 7381,
  "array": 7386,
  "Ġitem": 7389,
  "Ġrequires": 7391,
  "ulations": 7394,
  "ulture": 7395,
  "Ġflex": 7397,
  "ML": 7398,
  "ista": 7399,
  "iling": 7400,
  "Ġyourself": 7405,
  "Ġbeginning": 7407,
  "Ġoperation": 7408,
  "Ġinstance": 7409,
  "Ste": 7410,
  "band": 7412,
  "ĠHouse": 7419,
  "Ġalt": 7423,
  "ael": 7424,
  "Ġmeeting": 7425,
  "Ġharm": 7426,
  "Ġprotect": 7427,
  "Ġheard": 7431,
  "ige": 7433,
  "iot": 7434,
  "ĠPresident": 7436,
  "Ġbes": 7442,
  "icine": 7443,
  "Ġproduced": 7444,
  "Ġestablish": 7445,
  "Ġmas": 7447,
  "export": 7449,
  "Ġcollection": 7450,
  "Ġperformed": 7451,
  "Ġclinical": 7452,
  "irt": 7453,
  "ĠSen": 7454,
  "Ġcarry": 7457,
  "wer": 7458,
  "ĠMal": 7463,
  "rees": 7465,
  "Ġded": 7466,
  "rupt": 7467,
  "ĠGr": 7468,
  "Ġmorning": 7469,
  "CD": 7470,
  "Ġalone": 7472,
  "aa": 7478,
  "ĠBlack": 7479,
  "Ġblog": 7481,
  "Ġcharacteristics": 7483,
  "Ġmiddle": 7484,
  "Ġadjust": 7486,
  "Ġgi": 7487,
  "ipment": 7488,
  "Ġcurrently": 7491,
  "ĠWhy": 7492,
  "ania": 7494,
  "Ġrule": 7498,
  "Ġdetermined": 7499,
  "Number": 7501,
  "ĠIndian": 7502,
  "Ġpractices": 7503,
  "hol": 7504,
  "ĠChem": 7507,
  "Sc": 7508,
  "ĠId": 7509,
  "Ġincor": 7510,
  "Ġteaching": 7512,
  "ruit": 7514,
  "Ġvariable": 7515,
  "ago": 7518,
  "Item": 7519,
  "ĠBer": 7522,
  "ĠCenter": 7525,
  "char": 7526,
  "Ġsolid": 7527,
  "La": 7529,
  "Ġconnection": 7530,
  "Ġhelps": 7531,
  "Ġrele": 7532,
  "Ġbul": 7535,
  "Ġfish": 7536,
  "Ġenvironmental": 7537,
  "Ġcat": 7539,
  "unn": 7541,
  "oat": 7542,
  "ĠAut": 7543,
  "oto": 7544,
  "ĠDiv": 7545,
  "eration": 7546,
  "Object": 7547,
  "standing": 7548,
  "Ġgrowing": 7551,
  "Ġcomponent": 7552,
  "Ġmental": 7553,
  "ĠAND": 7554,
  "osite": 7555,
  "ĠDavid": 7558,
  "Ġreach": 7561,
  "ds": 7562,
  "ĠCur": 7564,
  "ĠWik": 7566,
  "Ġauf": 7567,
  "akan": 7568,
  "Ġcarbon": 7569,
  "ĠBro": 7570,
  "Ġsignificantly": 7572,
  "Ġoperations": 7574,
  "Mod": 7579,
  "Ġstore": 7580,
  "works": 7584,
  "Ġrepe": 7585,
  "ĠLife": 7586,
  "Ġstrategies": 7587,
  "Ġpresented": 7589,
  "Ġgrade": 7591,
  "cons": 7592,
  "Ġconv": 7594,
  "bra": 7595,
  "ĠSal": 7600,
  "Ġinterpret": 7602,
  "Ġincome": 7604,
  "phas": 7605,
  "Ġcareer": 7609,
  "Ġcopy": 7610,
  "ĠNews": 7612,
  "ĠMill": 7613,
  "Ġfarm": 7615,
  "Man": 7616,
  "Ġscale": 7617,
  "Ġgradu": 7618,
  "ĠRev": 7619,
  "ola": 7621,
  "Ġestablished": 7622,
  "ĠID": 7627,
  "ounced": 7628,
  "Ġtrade": 7629,
  "Ġmel": 7630,
  "Ġdiss": 7631,
  "ync": 7632,
  "Ġshape": 7633,
  "Ġearth": 7634,
  "Ġsen": 7637,
  "ocr": 7638,
  "Ġelectric": 7639,
  "ayer": 7642,
  "ĠSk": 7643,
  "Ġsurpr": 7644,
  "ĠLi": 7645,
  "ĠHistory": 7646,
  "Ġguid": 7647,
  "Ġcrucial": 7648,
  "ifying": 7649,
  "Ġmyself": 7653,
  "Ġratio": 7655,
  "Ġsurround": 7656,
  "Ref": 7657,
  "Ġchemical": 7658,
  "zo": 7660,
  "ĠRec": 7662,
  "Ġkom": 7663,
  "ultural": 7665,
  "lication": 7666,
  "ĠInformation": 7667,
  "Ġspread": 7670,
  "ĠAnn": 7674,
  "comp": 7675,
  "Ġcreating": 7676,
  "Ġcaused": 7677,
  "Ġmount": 7679,
  "Ġsafe": 7681,
  "sec": 7684,
  "rael": 7685,
  "Ġcele": 7687,
  "augh": 7688,
  "urity": 7689,
  "Ġhop": 7690,
  "RA": 7691,
  "Ġready": 7692,
  "ĠSocial": 7693,
  "ĠOpen": 7697,
  "Ġinteresting": 7699,
  "Ġrob": 7700,
  "Ġanswers": 7701,
  "ĠAI": 7703,
  "Ġmath": 7704,
  "ela": 7705,
  "Ġbecomes": 7706,
  "ĠRem": 7708,
  "Up": 7709,
  "ĠBr": 7711,
  "Ġvisual": 7713,
  "ĠMath": 7716,
  "Ġactual": 7717,
  "Ġwel": 7719,
  "MS": 7720,
  "Ġwarm": 7722,
  "Ġrelevant": 7723,
  "Ġproposed": 7724,
  "ĠEast": 7726,
  "ĠGroup": 7727,
  "Ġearlier": 7728,
  "lam": 7731,
  "point": 7736,
  "Ġbroad": 7739,
  "ĠDon": 7740,
  "inci": 7741,
  "Ġcool": 7745,
  "Ġhear": 7746,
  "mark": 7747,
  "ĠKe": 7749,
  "Ġesc": 7750,
  "Ġperspect": 7751,
  "Ġdifferences": 7752,
  "sch": 7753,
  "_l": 7755,
  "Ġmonitor": 7757,
  "ĉpublic": 7761,
  "Ġfat": 7762,
  "Ġdamage": 7763,
  "Ġopportunities": 7765,
  "Ġdecimal": 7767,
  "Ġcapacity": 7768,
  "Ġclimate": 7769,
  "ded": 7770,
  "umer": 7771,
  "het": 7772,
  "SU": 7773,
  "scrib": 7775,
  "Date": 7778,
  "reate": 7780,
  "ĠPlan": 7781,
  "rical": 7782,
  "ATION": 7785,
  "pm": 7787,
  "ĠSam": 7789,
  "Ġfrequency": 7791,
  "Ġapproxim": 7793,
  "ĠThus": 7794,
  "rd": 7795,
  "Ġrepl": 7796,
  "Ġmg": 7797,
  "ĠUnder": 7798,
  "Ġgoals": 7800,
  "ĠLord": 7801,
  "Answer": 7805,
  "aÃ§Ã£o": 7808,
  "Ġmeasures": 7809,
  "ĠSur": 7814,
  "abil": 7816,
  "Ġadopt": 7817,
  "Ġdrive": 7818,
  "OP": 7819,
  "Ġhous": 7820,
  "Ġstrategy": 7822,
  "Ġresource": 7823,
  "known": 7825,
  "dy": 7828,
  "acters": 7829,
  "abilities": 7830,
  "Ġallowed": 7837,
  "Ġplayers": 7838,
  "Ġlocated": 7840,
  "Ġsoil": 7842,
  "Ġdevices": 7845,
  "aby": 7847,
  "ester": 7848,
  "ĠDirect": 7851,
  "reci": 7852,
  "Over": 7853,
  "Ġfields": 7855,
  "Ġlif": 7857,
  "Ġmemb": 7863,
  "Ġmarg": 7869,
  "Ġresid": 7870,
  "Ġpolic": 7871,
  "Ġconnect": 7872,
  "Ġplanning": 7874,
  "Ġta": 7875,
  "Ġsuccessful": 7877,
  "Ġselected": 7878,
  "Ġwat": 7880,
  "Ġgoes": 7881,
  "pty": 7884,
  "Bl": 7886,
  "bal": 7887,
  "Ġsetting": 7888,
  "ĠGoogle": 7889,
  "Ġsynt": 7890,
  "ĠChinese": 7891,
  "Ġplaces": 7892,
  "rier": 7893,
  "Ġsustain": 7895,
  "ĠGen": 7896,
  "Ġthrow": 7897,
  "Exception": 7898,
  "Ġroll": 7900,
  "irty": 7902,
  "ende": 7905,
  "ĠEv": 7906,
  "_name": 7907,
  "Ġworked": 7911,
  "Ġworksheets": 7912,
  "Ġplans": 7914,
  "Ġuns": 7915,
  "url": 7916,
  "Ġrelease": 7917,
  "Ġanyone": 7918,
  "down": 7919,
  "Ġals": 7920,
  "Ġneigh": 7921,
  "Ġcoord": 7922,
  "Ġremains": 7926,
  "ogue": 7927,
  "ĠWorkshe": 7928,
  "ĠsiÄĻ": 7930,
  "Ġarm": 7931,
  "field": 7933,
  "Ã¤r": 7935,
  "Ġnovel": 7936,
  "Ġkn": 7937,
  "miss": 7938,
  "ĠMult": 7940,
  "Ġbalance": 7941,
  "Ġwww": 7942,
  "ĠMart": 7943,
  "Ġoptim": 7944,
  "Ġcommunic": 7945,
  "ĠCounty": 7946,
  "Ġreaction": 7947,
  "IF": 7948,
  "ĠSun": 7949,
  "Ġanimals": 7951,
  "Ġschools": 7954,
  "Ġchanged": 7956,
  "test": 7958,
  "Ġstock": 7960,
  "ĠDevelopment": 7961,
  "Ġbond": 7963,
  "ademic": 7964,
  "ĠManagement": 7967,
  "qrt": 7968,
  "olid": 7969,
  "Ġtiss": 7970,
  "ĠMost": 7973,
  "UL": 7975,
  "riday": 7977,
  "Ġliqu": 7979,
  "Ġinternal": 7982,
  "Ġbirth": 7984,
  "ĠStat": 7985,
  "raz": 7987,
  "eline": 7988,
  "EP": 7989,
  "ĠBas": 7991,
  "Ġbeautiful": 7992,
  "illa": 7994,
  "oute": 7997,
  "ĠSund": 7999,
  "CR": 8002,
  "Ġguide": 8003,
  "iled": 8004,
  "Ġstream": 8007,
  "ashington": 8010,
  "Ġsummer": 8012,
  "Ġexpand": 8013,
  "ĠCompany": 8015,
  "Ġopin": 8016,
  "std": 8017,
  "ĠEqu": 8018,
  "aign": 8019,
  "itter": 8020,
  "cel": 8024,
  "ĠfÃ¼r": 8025,
  "rip": 8027,
  "Ġrecently": 8028,
  "Ġstarting": 8029,
  "Ġconstruction": 8031,
  "Per": 8032,
  "Ġplease": 8033,
  "Ġprocessing": 8037,
  "Ġcharge": 8039,
  "Do": 8041,
  "Ġsav": 8042,
  "Ġdecided": 8043,
  "Ġidentified": 8045,
  "ride": 8046,
  "Ġexisting": 8049,
  "Ġrout": 8050,
  "Ġcollabor": 8052,
  "Ġwa": 8054,
  "iforn": 8057,
  "Ġcounter": 8058,
  "Ġvs": 8062,
  "Ġcomfort": 8063,
  "Ġcompletely": 8064,
  "ners": 8066,
  "Ġmoving": 8067,
  "Ġfully": 8068,
  "ander": 8069,
  "ĠFree": 8071,
  "iable": 8072,
  "ĠSince": 8074,
  "ĠWed": 8075,
  "orial": 8076,
  "ĠChapter": 8077,
  "Ġhair": 8078,
  "cious": 8082,
  "ĠAlthough": 8083,
  "xi": 8084,
  "util": 8085,
  "vec": 8086,
  "zie": 8087,
  "DA": 8088,
  "isk": 8089,
  "ima": 8091,
  "Ġwood": 8092,
  "Ġinvestment": 8094,
  "Us": 8095,
  "duction": 8096,
  "Ġrecommend": 8100,
  "Ġactions": 8102,
  "file": 8104,
  "Ġconsequ": 8105,
  "Ed": 8106,
  "iveness": 8111,
  "Ġhealthy": 8112,
  "ĠAtt": 8113,
  "Ġmig": 8116,
  "Ġconflic": 8117,
  "Ġwid": 8118,
  "rum": 8124,
  "Ġmachine": 8126,
  "Ġreduced": 8130,
  "Ġpun": 8131,
  "emp": 8137,
  "Ġcontroll": 8138,
  "roph": 8143,
  "ĠMethod": 8145,
  "Ġcold": 8147,
  "ĠFigure": 8148,
  "ĠChristian": 8149,
  "ython": 8150,
  "roduction": 8155,
  "Ġbrand": 8156,
  "Read": 8158,
  "hematics": 8160,
  "Ġbillion": 8163,
  "ront": 8164,
  "Ġtom": 8166,
  "Ġmaximum": 8173,
  "Ġsaying": 8174,
  "ĠSl": 8175,
  "Ġgiving": 8176,
  "ĠDan": 8177,
  "Ġplayed": 8178,
  "Ġexperiences": 8179,
  "Ġhit": 8180,
  "Ġindependent": 8181,
  "Ġeye": 8183,
  "ĠBel": 8186,
  "una": 8187,
  "atin": 8188,
  "ello": 8189,
  "Ġattrib": 8190,
  "care": 8191,
  "Ġmilitary": 8193,
  "Ġwonder": 8194,
  "api": 8195,
  "ulate": 8196,
  "Now": 8197,
  "Ġfig": 8199,
  "Ġbenefit": 8200,
  "cher": 8203,
  "Ġsequence": 8205,
  "ĠFig": 8207,
  "Ġfine": 8209,
  "Ġconversion": 8213,
  "Ġdry": 8214,
  "Ġformed": 8216,
  "Ġreasons": 8218,
  "Post": 8219,
  "engan": 8220,
  "Ġinterview": 8222,
  "Ġtrou": 8223,
  "Ġconfig": 8224,
  "ĠText": 8227,
  "ĠElect": 8228,
  "After": 8229,
  "Ġpriv": 8231,
  "Ġassist": 8233,
  "Ġwild": 8235,
  "ubMed": 8237,
  "ĠEven": 8239,
  "Acc": 8241,
  "Ã©m": 8242,
  "Ã¤n": 8243,
  "Ġteachers": 8246,
  "Ġstrugg": 8248,
  "Ġdistinct": 8250,
  "Ġphen": 8251,
  "Ġparameters": 8252,
  "Ġfirm": 8253,
  "Ġtried": 8259,
  "eger": 8260,
  "Ġchapter": 8261,
  "Ġnie": 8263,
  "rick": 8264,
  "ĠAS": 8267,
  "ĠSet": 8269,
  "Par": 8270,
  "doi": 8271,
  "CL": 8272,
  "Ġtesting": 8273,
  "Am": 8275,
  "php": 8276,
  "begin": 8277,
  "rome": 8278,
  "ĠSecond": 8279,
  "Ġefficient": 8281,
  "Ġpromot": 8282,
  "Ġmort": 8284,
  "Ġvel": 8285,
  "efore": 8286,
  "ete": 8288,
  "Ġfresh": 8289,
  "Ġign": 8292,
  "ĠStre": 8293,
  "lections": 8294,
  "Ġblue": 8295,
  "Ġworkers": 8296,
  "ĠDie": 8297,
  "CM": 8299,
  "ibly": 8303,
  "ĠEngland": 8304,
  "IA": 8305,
  "Ġfeeling": 8306,
  "Ġtrial": 8307,
  "code": 8308,
  "OW": 8309,
  "Ġefforts": 8310,
  "ĠLand": 8311,
  "ervices": 8312,
  "ildren": 8313,
  "Ġanti": 8314,
  "ĠCong": 8315,
  "Ġsyn": 8317,
  "gu": 8320,
  "Ġrelative": 8321,
  "time": 8322,
  "ĠAfrica": 8323,
  "TS": 8324,
  "struct": 8325,
  "venue": 8327,
  "Ġprepar": 8329,
  "ĠSec": 8330,
  "Ġstories": 8331,
  "Ġinstr": 8333,
  "ĠAir": 8334,
  "Ġdin": 8335,
  "ami": 8336,
  "ben": 8338,
  "alpha": 8339,
  "Ġdella": 8340,
  "Ġtruth": 8341,
  "Ġsea": 8343,
  "ĠSing": 8344,
  "EF": 8345,
  "Ġtwenty": 8346,
  "err": 8347,
  "Ġfamilies": 8348,
  "onday": 8349,
  "enses": 8350,
  "Ã©r": 8354,
  "Ġdeveloping": 8357,
  "ervation": 8358,
  "Ġslight": 8359,
  "Ġgain": 8360,
  "Ġcontinued": 8361,
  "ĠNULL": 8363,
  "Ġrapid": 8365,
  "rane": 8366,
  "ĠEngine": 8367,
  "Ġresponsible": 8368,
  "Ġchance": 8369,
  "Ġrespectively": 8370,
  "Ġpretty": 8371,
  "Ġfaith": 8373,
  "ifornia": 8374,
  "System": 8375,
  "Ġfinally": 8377,
  "Ġearn": 8378,
  "CP": 8379,
  "mas": 8380,
  "ticle": 8381,
  "Ġlaws": 8384,
  "Set": 8386,
  "ĠCH": 8387,
  "osing": 8388,
  "Ġmes": 8389,
  "Ġzero": 8390,
  "fs": 8391,
  "Ġcredit": 8392,
  "Ġmess": 8394,
  "Ġemployees": 8395,
  "Ġformula": 8397,
  "Ġwrote": 8398,
  "ĠMac": 8399,
  "ĠRober": 8402,
  "oi": 8408,
  "Ġvariables": 8409,
  "itar": 8410,
  "Ġwidth": 8411,
  "Ġstorage": 8412,
  "ĠJames": 8415,
  "ota": 8416,
  "Ġcouple": 8417,
  "arithm": 8418,
  "Ġpoll": 8419,
  "Count": 8420,
  "Ġtrend": 8421,
  "Pre": 8423,
  "erved": 8425,
  "Inter": 8426,
  "ĠTherefore": 8427,
  "Ġpassed": 8428,
  "Ġpul": 8430,
  "odies": 8431,
  "Ġsales": 8432,
  "anation": 8433,
  "Ġconnected": 8434,
  "Ġobjects": 8435,
  "ema": 8436,
  "ikan": 8437,
  "Ġclient": 8438,
  "Ġabsol": 8439,
  "si": 8441,
  "gra": 8442,
  "mente": 8443,
  "Ġtherapy": 8444,
  "Ġsymptoms": 8447,
  "Ġcandid": 8448,
  "Model": 8449,
  "orrow": 8450,
  "Ġmatrix": 8452,
  "bi": 8453,
  "Ġcharacters": 8454,
  "zt": 8456,
  "Ġsave": 8461,
  "Ġserve": 8463,
  "ĠIsrael": 8466,
  "apping": 8468,
  "Ġplayer": 8469,
  "Ġexplain": 8470,
  "wood": 8471,
  "Ġscore": 8472,
  "Ġcomprehens": 8473,
  "They": 8474,
  "Ġdatabase": 8476,
  "Ġcivil": 8478,
  "Ġforeign": 8479,
  "Array": 8480,
  "Ġsend": 8481,
  "NS": 8487,
  "rs": 8492,
  "ĠMarket": 8493,
  "Ġgold": 8495,
  "Ġexplore": 8497,
  "Ġtests": 8499,
  "Ġyield": 8500,
  "ici": 8502,
  "apers": 8503,
  "Ġprotection": 8505,
  "ĠCollege": 8507,
  "Ġexercise": 8509,
  "Ġpron": 8510,
  "ters": 8513,
  "ĠEnd": 8516,
  "Ã¡l": 8518,
  "soft": 8520,
  "Ġpiece": 8521,
  "VID": 8524,
  "ijn": 8526,
  "Ġconstit": 8530,
  "Ġpolice": 8531,
  "CA": 8533,
  "ying": 8534,
  "Ġeconomy": 8536,
  "arden": 8538,
  "Ġcommunities": 8540,
  "Ġachieve": 8541,
  "ressed": 8544,
  "Request": 8546,
  "ormal": 8548,
  "Ġstraight": 8550,
  "Ġhospital": 8551,
  "Ġemphas": 8554,
  "Ġdecisions": 8556,
  "ĠExpl": 8557,
  "ĠIP": 8559,
  "Ġanimal": 8560,
  "Ġrelationships": 8561,
  "MA": 8564,
  "amily": 8565,
  "ographic": 8566,
  "Ġvector": 8568,
  "Ġtouch": 8571,
  "Ġjourney": 8572,
  "Ġcompris": 8573,
  "Ġsmaller": 8577,
  "Ġassessment": 8581,
  "current": 8582,
  "EST": 8585,
  "El": 8587,
  "orb": 8588,
  "Ġnation": 8589,
  "Ġhref": 8590,
  "ker": 8592,
  "ĠMa": 8595,
  "eld": 8597,
  "Ġmoved": 8599,
  "Ġtypically": 8600,
  "inated": 8601,
  "table": 8603,
  "hal": 8604,
  "Ġeat": 8605,
  "ĠIT": 8606,
  "ĠLog": 8608,
  "Ġdiet": 8611,
  "Ġsecret": 8613,
  "adi": 8616,
  "style": 8618,
  "Ġcustomer": 8619,
  "Ġequipment": 8622,
  "RI": 8624,
  "Ġbra": 8625,
  "Ġpeace": 8626,
  "Ġpicture": 8628,
  "Ġdoll": 8629,
  "Ġrock": 8630,
  "iden": 8632,
  "rations": 8637,
  "Ġchurch": 8638,
  "Ġcircuit": 8639,
  "ĠGerman": 8640,
  "cm": 8641,
  "ĠCanada": 8642,
  "reme": 8643,
  "ĠCouncil": 8646,
  "ĠMany": 8647,
  "Ġsurg": 8651,
  "bert": 8653,
  "EG": 8655,
  "ĠJos": 8656,
  "Ġportion": 8657,
  "ĠDNA": 8661,
  "indows": 8663,
  "Ġbottom": 8666,
  "Ġwindow": 8667,
  "Ġcore": 8668,
  "ASA": 8670,
  "Ġcircum": 8671,
  "cimal": 8672,
  "Ġplaying": 8678,
  "like": 8679,
  "Ġstim": 8680,
  "Ġaspects": 8681,
  "Ġcombination": 8682,
  "oding": 8686,
  "porary": 8687,
  "unic": 8690,
  "ĠInstitute": 8691,
  "Ġclasses": 8695,
  "ĠJew": 8696,
  "Ġphone": 8697,
  "BA": 8698,
  "ĠExp": 8699,
  "function": 8701,
  "oration": 8702,
  "ĠWashington": 8703,
  "kin": 8705,
  "Test": 8707,
  "Ġbehavi": 8712,
  "Ġlogarithm": 8713,
  "Ġlabel": 8715,
  "Ġcontrast": 8716,
  "Ġcauses": 8718,
  "Ġassert": 8719,
  "acing": 8721,
  "cipl": 8724,
  "Ġplaced": 8728,
  "uv": 8729,
  "Ġdiff": 8730,
  "ilosoph": 8731,
  "Ġsusp": 8732,
  "Ġcast": 8733,
  "Ġmetal": 8734,
  "Ġimpos": 8735,
  "Ġcustomers": 8737,
  "Ġexpert": 8739,
  "Ġhighest": 8740,
  "Ġsto": 8742,
  "Ġseemed": 8743,
  "ranch": 8744,
  "Ġtum": 8746,
  "ifier": 8748,
  "Ġpresident": 8749,
  "zym": 8750,
  "Ġforces": 8753,
  "omic": 8754,
  "trans": 8755,
  "ĠRich": 8756,
  "ungen": 8757,
  "Ġvert": 8758,
  "ĠFore": 8759,
  "ĠFrance": 8760,
  "Ġteacher": 8761,
  "ĠAD": 8762,
  "Ġcatch": 8764,
  "ĠIl": 8769,
  "Ġreplace": 8771,
  "perty": 8772,
  "Ġreports": 8773,
  "anguages": 8774,
  "asion": 8775,
  "Ġlooks": 8777,
  "ĠFriday": 8779,
  "ivalent": 8781,
  "ERT": 8782,
  "Ãµes": 8784,
  "Ġcomments": 8785,
  "Ġformat": 8786,
  "ĠSection": 8787,
  "ĠOrgan": 8788,
  "Ġnearly": 8791,
  "zed": 8794,
  "Ġprem": 8795,
  "ĠProject": 8796,
  "Ġcert": 8797,
  "ĠAv": 8798,
  "Ġpatterns": 8804,
  "embly": 8805,
  "Ġnotice": 8806,
  "well": 8807,
  "Ġperhaps": 8808,
  "Ġbrother": 8809,
  "tes": 8812,
  "ĠService": 8814,
  "Base": 8816,
  "Ġimmediately": 8817,
  "Ġvit": 8818,
  "ĠTwo": 8819,
  "nic": 8820,
  "names": 8821,
  "ĠCheck": 8824,
  "Index": 8826,
  "Ġfear": 8828,
  "ĠEach": 8829,
  "ĠMain": 8830,
  "ĠHel": 8832,
  "reek": 8833,
  "TP": 8835,
  "ĠCalifornia": 8836,
  "Ġdescription": 8837,
  "Ġlearned": 8838,
  "ĠTw": 8839,
  "TH": 8840,
  "Ġstructures": 8843,
  "itis": 8845,
  "Ġhappy": 8846,
  "ĠFurther": 8847,
  "while": 8848,
  "oday": 8849,
  "ĠStep": 8850,
  "Ġchallenge": 8851,
  "Ġcouldn": 8852,
  "ĠpÅĻ": 8853,
  "Ġstandards": 8855,
  "ĠPower": 8856,
  "Ġclick": 8857,
  "gest": 8858,
  "Ã¨re": 8859,
  "Ġresistance": 8860,
  "ye": 8863,
  "inger": 8867,
  "inciples": 8871,
  "Ġpurs": 8876,
  "aft": 8881,
  "Ġdies": 8882,
  "Ġmode": 8883,
  "Ġgene": 8886,
  "ĠCD": 8888,
  "olve": 8889,
  "Ġscen": 8892,
  "isa": 8893,
  "Ġuma": 8895,
  "Ġast": 8896,
  "asure": 8897,
  "Ġvolt": 8898,
  "Ġshared": 8900,
  "mathbf": 8901,
  "rams": 8903,
  "ĠEconom": 8906,
  "ĠSunday": 8907,
  "plications": 8908,
  "azione": 8910,
  "ĠBusiness": 8911,
  "Ġadvantage": 8912,
  "Ġmais": 8913,
  "ersion": 8914,
  "ĠTer": 8915,
  "ensions": 8917,
  "ĠComput": 8920,
  "estic": 8924,
  "Ġsites": 8926,
  "ĠCalcul": 8927,
  "Ġcommit": 8929,
  "ditionally": 8933,
  "anging": 8934,
  "Ġkin": 8937,
  "ville": 8938,
  "Ġliterature": 8945,
  "Ġunf": 8946,
  "Ġclearly": 8947,
  "GB": 8948,
  "Ġauthors": 8951,
  "Ġswitch": 8953,
  "Ġrich": 8954,
  "oom": 8956,
  "han": 8958,
  "Ġpowerful": 8959,
  "Ġaccur": 8960,
  "Ġsud": 8962,
  "Ġvent": 8965,
  "Ġtro": 8966,
  "Ġexcell": 8967,
  "ownload": 8969,
  "gal": 8970,
  "ĠType": 8971,
  "ĠChurch": 8973,
  "Ġfailure": 8977,
  "Ġinterface": 8980,
  "sl": 8981,
  "Ġlov": 8982,
  "Ġmotion": 8984,
  "Ġdownload": 8986,
  "Ġpm": 8987,
  "uer": 8988,
  "itÃ©": 8989,
  "Ġrestrict": 8998,
  "Error": 9000,
  "result": 9001,
  "antic": 9002,
  "Ġviews": 9003,
  "Ġunivers": 9004,
  "Ġsich": 9005,
  "anged": 9007,
  "itors": 9008,
  "osph": 9009,
  "osen": 9012,
  "Ġconsult": 9015,
  "Ġdra": 9019,
  "EX": 9022,
  "Ġcarried": 9023,
  "Ġnin": 9024,
  "Ġkept": 9026,
  "Ġdengan": 9027,
  "Ġbelong": 9028,
  "onic": 9033,
  "olf": 9034,
  "ĠFind": 9035,
  "ĠFound": 9036,
  "Line": 9038,
  "ĠZe": 9039,
  "Ġregarding": 9041,
  "Ġvill": 9043,
  "Ġexactly": 9045,
  "conn": 9046,
  "max": 9047,
  "Ġstar": 9051,
  "ĠDig": 9052,
  "Ġelectro": 9055,
  "root": 9056,
  "Ġvot": 9057,
  "Ġfinding": 9058,
  "Ġrise": 9059,
  "OST": 9060,
  "Ġefficiency": 9062,
  "ĠBank": 9063,
  "ignment": 9067,
  "Ġpair": 9069,
  "Ġwife": 9070,
  "ĠCap": 9072,
  "ypes": 9073,
  "ĠKey": 9075,
  "rian": 9076,
  "Ġorganizations": 9077,
  "Ġfraction": 9078,
  "ĠHuman": 9079,
  "Ġlen": 9080,
  "ĠAfrican": 9081,
  "Ġthr": 9082,
  "ĠAlso": 9085,
  "Ġinhib": 9088,
  "ifically": 9089,
  "inking": 9095,
  "Ġformation": 9096,
  "Ġimpl": 9097,
  "Ġtu": 9100,
  "Ġclosed": 9101,
  "imb": 9103,
  "Ġoz": 9104,
  "Ã©d": 9106,
  "Ġok": 9109,
  "itud": 9110,
  "Ġenhance": 9111,
  "Ġrelatively": 9113,
  "ĠSociety": 9114,
  "Ġdefinition": 9116,
  "Ġsector": 9117,
  "Ġpaid": 9118,
  "Ġleaves": 9120,
  "Ġsz": 9122,
  "Te": 9123,
  "TC": 9124,
  "related": 9125,
  "Ġoccup": 9126,
  "ĠCommission": 9129,
  "Me": 9130,
  "Ġinteger": 9132,
  "aturday": 9133,
  "ĠAssociation": 9134,
  "Ġcommerc": 9136,
  "uesday": 9138,
  "ns": 9140,
  "osa": 9141,
  "nesday": 9142,
  "Ġpray": 9143,
  "Ġbird": 9145,
  "Ġremove": 9150,
  "Ġlargest": 9152,
  "ĠGovernment": 9157,
  "mu": 9159,
  "izer": 9160,
  "Ġdiscussion": 9162,
  "ĠStand": 9163,
  "Ġeine": 9165,
  "ĠUN": 9167,
  "cycl": 9169,
  "ambda": 9170,
  "Class": 9173,
  "Ġinsurance": 9174,
  "Ġfol": 9175,
  "Ġmaster": 9176,
  "Ġexhib": 9179,
  "ĠLeg": 9180,
  "_b": 9181,
  "ĠIts": 9182,
  "Ġspent": 9185,
  "Ġextrem": 9189,
  "aan": 9191,
  "iliar": 9192,
  "ische": 9193,
  "Out": 9194,
  "Ġweak": 9196,
  "ĠEvery": 9198,
  "Ġaus": 9200,
  "Ġdream": 9202,
  "tre": 9204,
  "Trans": 9205,
  "Ġsets": 9206,
  "itz": 9208,
  "ĠIns": 9210,
  "lem": 9211,
  "ĠGreen": 9214,
  "aks": 9216,
  "Ġseparate": 9217,
  "ĠMonday": 9219,
  "Ġglass": 9220,
  "ĠSy": 9221,
  "Sp": 9223,
  "aria": 9224,
  "Ġcycle": 9225,
  "ĠDesign": 9226,
  "hent": 9231,
  "Ġcir": 9233,
  "Ġinterested": 9234,
  "Ġalternative": 9235,
  "Ġtherm": 9236,
  "Ġappears": 9238,
  "idden": 9239,
  "Ġisol": 9240,
  "lies": 9242,
  "aughter": 9243,
  "Ġembod": 9244,
  "Ġpark": 9245,
  "Ġfundament": 9246,
  "onym": 9249,
  "Ġtrain": 9251,
  "ador": 9253,
  "Ġincorpor": 9255,
  "Ġresulting": 9257,
  "Ġcorpor": 9258,
  "PL": 9259,
  "ursday": 9261,
  "Ġletters": 9263,
  "Ġjournal": 9264,
  "ĠLong": 9266,
  "else": 9267,
  "Ġresearc": 9268,
  "Ġmix": 9271,
  "Ġsurvey": 9272,
  "fall": 9273,
  "ĠMag": 9274,
  "gi": 9275,
  "ĠUsing": 9276,
  "etric": 9277,
  "ĠHome": 9278,
  "ĠCreat": 9279,
  "Ġcris": 9280,
  "File": 9282,
  "ulf": 9284,
  "Ġgets": 9285,
  "Ġmedium": 9286,
  "ako": 9287,
  "Ġborn": 9288,
  "gin": 9290,
  "Ġproport": 9293,
  "asy": 9294,
  "ĠMem": 9295,
  "Ġbudget": 9296,
  "uses": 9297,
  "ÅĽci": 9300,
  "Ġpra": 9302,
  "Ġnom": 9303,
  "Ġfixed": 9305,
  "Ġnamed": 9306,
  "Ġnor": 9311,
  "Ġcop": 9314,
  "Ġcampaign": 9316,
  "Ġregister": 9318,
  "Ġfloor": 9319,
  "ĠPan": 9324,
  "anges": 9325,
  "content": 9326,
  "ĠGreat": 9327,
  "Ġvehicle": 9329,
  "can": 9332,
  "Ġattract": 9333,
  "Ġdepth": 9335,
  "that": 9336,
  "emic": 9337,
  "ĠAustralia": 9338,
  "Ġpolicies": 9340,
  "Ġthick": 9341,
  "reedom": 9342,
  "prime": 9344,
  "anda": 9345,
  "Ġtransl": 9346,
  "Ġincreases": 9347,
  "Ġprepared": 9348,
  "artic": 9349,
  "ĠOb": 9351,
  "Ġcalculate": 9352,
  "Ġgeneration": 9353,
  "Ġvalu": 9354,
  "hetic": 9355,
  "Ġscientific": 9356,
  "how": 9357,
  "Ġreached": 9359,
  "ĠAnswer": 9361,
  "Ġwaste": 9362,
  "rect": 9363,
  "Ġforest": 9364,
  "Ġhappen": 9365,
  "TER": 9368,
  "water": 9372,
  "Ġgrant": 9374,
  "ĠRepublic": 9375,
  "orders": 9378,
  "Ġmanner": 9379,
  "Ġrace": 9380,
  "PM": 9381,
  "outhern": 9385,
  "Ġhappened": 9388,
  "Ġexternal": 9390,
  "Ġshap": 9392,
  "state": 9395,
  "ĠTop": 9396,
  "ĠNa": 9397,
  "ĠISBN": 9399,
  "Ġreleased": 9400,
  "oria": 9401,
  "Ġolder": 9403,
  "Ġfiles": 9405,
  "ivery": 9408,
  "Ġpercentage": 9409,
  "otic": 9410,
  "Ġtut": 9411,
  "Ġconver": 9415,
  "ti": 9417,
  "Ġagreement": 9418,
  "yr": 9419,
  "Ġvoor": 9420,
  "Ġscreen": 9421,
  "DP": 9422,
  "igma": 9423,
  "ishing": 9424,
  "ĠSa": 9425,
  "iform": 9426,
  "resents": 9427,
  "Ġshift": 9428,
  "ĠLearning": 9431,
  "ori": 9432,
  "ells": 9433,
  "Ġmeng": 9435,
  "Ã¨s": 9437,
  "Ġsimpl": 9438,
  "Ġedge": 9449,
  "Ġfilter": 9450,
  "Ġcorresponding": 9453,
  "ĠQuest": 9455,
  "Ġliquid": 9457,
  "Ġfederal": 9458,
  "endo": 9460,
  "ĠBre": 9464,
  "ifications": 9465,
  "Ġstation": 9466,
  "While": 9468,
  "Ġjoint": 9469,
  "Ġmist": 9470,
  "Ġprofession": 9471,
  "ĠWhite": 9472,
  "plication": 9473,
  "oyal": 9474,
  "Ġmentioned": 9475,
  "Ġcloud": 9476,
  "Ġpreviously": 9479,
  "ĠmÃ¡s": 9480,
  "Ġsolve": 9487,
  "ooth": 9490,
  "Ġborder": 9491,
  "Ġbacter": 9493,
  "Ġhandle": 9495,
  "Ġrare": 9497,
  "ĠAccording": 9498,
  "Ġappreci": 9499,
  "Ġupdate": 9502,
  "ĠEff": 9504,
  "eder": 9505,
  "elta": 9506,
  "Ġupper": 9509,
  "iem": 9510,
  "ĠRob": 9512,
  "ĠJack": 9513,
  "ungs": 9515,
  "ĠProv": 9516,
  "Ġargument": 9517,
  "product": 9520,
  "Ġdied": 9521,
  "Log": 9522,
  "link": 9523,
  "Ġri": 9527,
  "allel": 9528,
  "iro": 9529,
  "ĠEnt": 9530,
  "Ġlegis": 9532,
  "Ġminimum": 9533,
  "ĠTechnology": 9536,
  "Total": 9538,
  "Ġsubstant": 9539,
  "scribe": 9541,
  "Ġdanger": 9542,
  "Here": 9544,
  "Ġtransition": 9545,
  "check": 9547,
  "Ġlinear": 9548,
  "Ġregions": 9551,
  "Ġliber": 9556,
  "Ġze": 9558,
  "ciÃ³n": 9562,
  "ila": 9563,
  "Ġparticipants": 9564,
  "Ġextends": 9565,
  "Ġobvious": 9566,
  "ĠMary": 9569,
  "ĠExper": 9570,
  "Ġsamples": 9571,
  "Ġprices": 9572,
  "Ġli": 9573,
  "Ġnotes": 9575,
  "ĠCare": 9577,
  "CS": 9578,
  "Ġselection": 9581,
  "itness": 9584,
  "rame": 9585,
  "Ġexchange": 9587,
  "idade": 9588,
  "ĠJul": 9593,
  "then": 9594,
  "note": 9595,
  "Ġhistorical": 9600,
  "what": 9602,
  "Ġsac": 9604,
  "Ġwave": 9605,
  "Ġserver": 9607,
  "iced": 9608,
  "Ġangle": 9609,
  "ĠGood": 9611,
  "Sum": 9612,
  "Ġarchitect": 9613,
  "Ġequals": 9615,
  "Ġfacts": 9616,
  "Ġnas": 9619,
  "ql": 9620,
  "Ġburn": 9622,
  "Ġspring": 9623,
  "ĠBoard": 9624,
  "ATE": 9625,
  "label": 9628,
  "Ġdiscussed": 9629,
  "Ġintellig": 9631,
  "Ġoperating": 9633,
  "Ġhus": 9635,
  "ĠPeople": 9637,
  "Ġleaders": 9638,
  "Ġidentity": 9639,
  "Ġrain": 9641,
  "Ġwhom": 9642,
  "Ġgone": 9643,
  "nya": 9644,
  "ivation": 9645,
  "las": 9646,
  "Ġapproximately": 9648,
  "ĠInst": 9649,
  "olean": 9650,
  "Ġseconds": 9651,
  "Ġbatter": 9653,
  "Ġveget": 9654,
  "Ġeducational": 9656,
  "atever": 9657,
  "ĠReport": 9658,
  "ocument": 9660,
  "ĠModel": 9662,
  "ĠAccess": 9665,
  "Ġweather": 9670,
  "Act": 9673,
  "ĠRoman": 9675,
  "Ġonto": 9676,
  "Ġdensity": 9677,
  "Ġconducted": 9680,
  "Ġsubs": 9681,
  "ĠRad": 9683,
  "ĠWater": 9684,
  "Ġbreath": 9687,
  "oj": 9688,
  "ĠPract": 9689,
  "Ġtrees": 9693,
  "Ġotherwise": 9694,
  "mun": 9695,
  "ĠIII": 9698,
  "Ġpush": 9702,
  "lich": 9703,
  "going": 9704,
  "arp": 9705,
  "Ġprotected": 9706,
  "Ġtn": 9707,
  "Ġbrief": 9708,
  "ĠTheir": 9710,
  "version": 9713,
  "Ġencourag": 9716,
  "ilter": 9718,
  "Ġmotor": 9719,
  "Ġmeasured": 9720,
  "Ġcitiz": 9722,
  "Ġmac": 9724,
  "Ġmeant": 9725,
  "ĠPsych": 9728,
  "error": 9730,
  "uries": 9731,
  "ĠÂµm": 9732,
  "Ġdescribe": 9734,
  "Ġconcentration": 9735,
  "Ġbusinesses": 9736,
  "ĠBecause": 9737,
  "Ġja": 9739,
  "mosp": 9741,
  "ublisher": 9744,
  "Ġdut": 9746,
  "adas": 9749,
  "sen": 9750,
  "Ġheavy": 9754,
  "BS": 9755,
  "Ġcollege": 9756,
  "Ġvary": 9757,
  "ipp": 9760,
  "pass": 9762,
  "Ġnoted": 9764,
  "orthern": 9766,
  "aux": 9770,
  "Ġreality": 9773,
  "olved": 9774,
  "ĠTH": 9777,
  "Ġcup": 9778,
  "icks": 9780,
  "Ass": 9782,
  "ĠWil": 9785,
  "poses": 9786,
  "dd": 9787,
  "Ġcateg": 9788,
  "ĠMex": 9791,
  "Ġcov": 9792,
  "Ġspeech": 9793,
  "Ġrepresents": 9794,
  "ĠLou": 9796,
  "ouble": 9800,
  "uest": 9801,
  "elines": 9802,
  "elled": 9803,
  "ĠIll": 9804,
  "Ġka": 9806,
  "ĠTom": 9807,
  "which": 9808,
  "Ġju": 9810,
  "ĠUSA": 9813,
  "raint": 9815,
  "ĠVis": 9817,
  "umin": 9818,
  "UM": 9820,
  "ĠJo": 9822,
  "ĠUnion": 9829,
  "Step": 9832,
  "anned": 9834,
  "Ent": 9836,
  "ĠName": 9838,
  "arts": 9839,
  "mt": 9841,
  "Ġeffectively": 9842,
  "Ġannual": 9843,
  "Ġprocedure": 9844,
  "Ġadding": 9845,
  "Ġgenerated": 9846,
  "imeter": 9847,
  "gs": 9848,
  "Ġfindings": 9851,
  "crete": 9857,
  "ĠAnalysis": 9858,
  "path": 9860,
  "Ġera": 9861,
  "ĠHol": 9863,
  "ĠThomas": 9866,
  "Ġsubt": 9868,
  "ructions": 9872,
  "cis": 9873,
  "ĠAlex": 9874,
  "ĠRiver": 9875,
  "Ãªn": 9877,
  "Ã©es": 9880,
  "Ġdial": 9882,
  "sqrt": 9884,
  "organ": 9885,
  "king": 9886,
  "display": 9887,
  "Ġtrig": 9892,
  "ĠAdv": 9893,
  "abled": 9895,
  "Eng": 9896,
  "xy": 9897,
  "ĠInternet": 9898,
  "ted": 9899,
  "eles": 9900,
  "ischen": 9901,
  "anish": 9904,
  "Ġinches": 9905,
  "ĠEs": 9906,
  "ĠCode": 9909,
  "Ġcolon": 9910,
  "ĠMad": 9912,
  "Context": 9914,
  "Ġparties": 9915,
  "Ġboy": 9916,
  "Ġspot": 9917,
  "Ġaffected": 9919,
  "Ġcommercial": 9920,
  "uns": 9921,
  "ĠBase": 9922,
  "Ġmobile": 9924,
  "Ġraised": 9927,
  "Ġsufficient": 9930,
  "Ġcelebr": 9933,
  "Ġoutcomes": 9935,
  "Ġtechnique": 9936,
  "anta": 9937,
  "long": 9938,
  "cht": 9941,
  "nce": 9942,
  "Ġmajority": 9944,
  "Code": 9945,
  "Ġgro": 9947,
  "osc": 9948,
  "ĠColor": 9949,
  "open": 9951,
  "ĠNone": 9952,
  "ĉfor": 9955,
  "Controller": 9957,
  "PubMed": 9959,
  "Ġrelation": 9960,
  "under": 9961,
  "Ġimplementation": 9963,
  "Ġadvanced": 9965,
  "Ġteams": 9966,
  "Ġdefend": 9967,
  "Ġexpressed": 9971,
  "ĠSuper": 9973,
  "ĠDen": 9974,
  "cean": 9975,
  "Are": 9976,
  "Ġton": 9978,
  "ĠMer": 9979,
  "icial": 9980,
  "Ġreligious": 9983,
  "ĠPo": 9984,
  "Ġnan": 9985,
  "Ġbow": 9988,
  "Fig": 9989,
  "ĠMiss": 9996,
  "Ġdomain": 9998,
  "Ġworksheet": 9999,
  "Ġuntuk": 10003,
  "Ġhat": 10004,
  "Ġking": 10005,
  "aming": 10006,
  "ramework": 10007,
  "ĠOper": 10008,
  "Reg": 10009,
  "ĠQue": 10011,
  "Ġsed": 10012,
  "enced": 10013,
  "uster": 10014,
  "inst": 10016,
  "Ġtasks": 10017,
  "rition": 10019,
  "post": 10020,
  "Ġtechnical": 10021,
  "ĠHam": 10022,
  "atan": 10024,
  "nen": 10026,
  "Ġcontaining": 10027,
  "create": 10028,
  "orld": 10030,
  "Mat": 10031,
  "Your": 10032,
  "eller": 10033,
  "Ġegg": 10035,
  "ĠUser": 10037,
  "Ġfemale": 10038,
  "Ġdisapp": 10039,
  "Ġbag": 10041,
  "iy": 10042,
  "ald": 10044,
  "Ġinvolves": 10045,
  "Ġchanging": 10046,
  "Ġgar": 10047,
  "Ġvision": 10048,
  "Ġadvance": 10055,
  "ĠTuesday": 10056,
  "ĠSaturday": 10058,
  "Ġwants": 10059,
  "Ġnicht": 10060,
  "uting": 10063,
  "num": 10064,
  "fol": 10066,
  "ĠWednesday": 10068,
  "last": 10071,
  "Ġelev": 10072,
  "Ġtit": 10074,
  "Equ": 10075,
  "Ġclaims": 10076,
  "Ġcovered": 10077,
  "Ġconcerns": 10078,
  "ytes": 10080,
  "Ġhelped": 10082,
  "Ġopening": 10083,
  "Page": 10085,
  "teen": 10086,
  "Ġrecords": 10087,
  "azing": 10088,
  "Ġremov": 10089,
  "Ġquarter": 10090,
  "Ġsevent": 10091,
  "ĠStudy": 10096,
  "Ġintroduced": 10097,
  "ĠCle": 10099,
  "Ġimproved": 10103,
  "ĠPerson": 10106,
  "flow": 10107,
  "Ġreduction": 10109,
  "SA": 10111,
  "Ġcub": 10113,
  "aka": 10118,
  "ĠGlobal": 10119,
  "jet": 10120,
  "Ġoccurs": 10122,
  "PP": 10124,
  "iner": 10129,
  "aph": 10130,
  "iger": 10131,
  "Ġagric": 10133,
  "ĠHen": 10134,
  "Rec": 10135,
  "These": 10137,
  "Cross": 10138,
  "Ġdw": 10139,
  "Ġhuge": 10140,
  "ĠVir": 10141,
  "ancer": 10142,
  "Ġperspective": 10143,
  "Ġtalking": 10144,
  "ubb": 10145,
  "Ġfib": 10150,
  "Ġsoci": 10154,
  "Ġcompleted": 10156,
  "Ġtopic": 10158,
  "Ġalgorithm": 10159,
  "ĠMichael": 10161,
  "ĠGeorge": 10163,
  "Ġlatest": 10164,
  "Ġcards": 10165,
  "Ġsupported": 10166,
  "opyright": 10171,
  "Ġfont": 10173,
  "Ġsentence": 10175,
  "ĠJud": 10178,
  "Ġhabit": 10180,
  "Ġmanage": 10181,
  "ĠCOVID": 10182,
  "Ġdram": 10185,
  "cknow": 10190,
  "ĠThursday": 10191,
  "ĠMo": 10192,
  "ĠNO": 10195,
  "atically": 10196,
  "ameter": 10198,
  "Ġpractical": 10200,
  "ĠSmith": 10201,
  "Ġtreated": 10202,
  "Ġfill": 10203,
  "Ġappoint": 10205,
  "Ġmission": 10206,
  "img": 10208,
  "Ġsides": 10210,
  "hav": 10211,
  "title": 10212,
  "ocket": 10213,
  "igan": 10214,
  "Path": 10215,
  "ĠStr": 10217,
  "ĠMass": 10219,
  "Component": 10220,
  "Def": 10222,
  "PA": 10223,
  "Ġcontinues": 10224,
  "Map": 10225,
  "Ġoffered": 10226,
  "Ġallowing": 10228,
  "riage": 10229,
  "Color": 10232,
  "Ġplate": 10233,
  "iki": 10234,
  "Ġfre": 10236,
  "aya": 10237,
  "Yes": 10240,
  "Ġunc": 10241,
  "ĠGold": 10243,
  "Ġsel": 10246,
  "iate": 10249,
  "ĠCentral": 10252,
  "image": 10253,
  "awa": 10258,
  "ME": 10259,
  "Ġfuel": 10260,
  "Ġminor": 10262,
  "ĠTV": 10265,
  "Ġmultip": 10266,
  "Ġelim": 10267,
  "ĠPet": 10268,
  "Ġtheore": 10269,
  "Ġshowing": 10270,
  "ĠDuring": 10272,
  "Size": 10273,
  "Ġreturned": 10274,
  "riting": 10278,
  "house": 10281,
  "abs": 10284,
  "wide": 10285,
  "Ġmur": 10288,
  "iant": 10289,
  "ĠTO": 10290,
  "Ġauthority": 10296,
  "ptions": 10297,
  "Ġhusband": 10299,
  "Ġahead": 10300,
  "Ġideal": 10302,
  "Ġframework": 10303,
  "Ġevolution": 10304,
  "ESS": 10307,
  "Ġreb": 10308,
  "ĠAst": 10310,
  "HT": 10311,
  "rence": 10312,
  "Ġdespite": 10313,
  "Ġwish": 10315,
  "ĠHall": 10316,
  "Ġminute": 10317,
  "First": 10318,
  "ĠGermany": 10322,
  "color": 10323,
  "valu": 10324,
  "object": 10325,
  "ĠHand": 10327,
  "ĠTur": 10332,
  "cohol": 10333,
  "Ġnavig": 10337,
  "hand": 10338,
  "Field": 10339,
  "Ġreturns": 10340,
  "isp": 10341,
  "Ġpurposes": 10342,
  "ethyl": 10343,
  "icit": 10344,
  "Ġchannel": 10346,
  "Ġbaby": 10347,
  "Ġlinks": 10348,
  "ĠWord": 10349,
  "Cal": 10353,
  "itative": 10354,
  "Ġarticles": 10355,
  "rav": 10356,
  "othing": 10358,
  "iana": 10359,
  "ĠServices": 10360,
  "ĠOffice": 10364,
  "oster": 10365,
  "Ġvacc": 10366,
  "Ġserved": 10367,
  "ĠYear": 10368,
  "Ġtissue": 10370,
  "eph": 10371,
  "Ġpel": 10372,
  "Question": 10375,
  "stitution": 10376,
  "uls": 10378,
  "EO": 10380,
  "Ġcertainly": 10381,
  "tenance": 10383,
  "ĠPeter": 10384,
  "riend": 10385,
  "dule": 10388,
  "ictionary": 10389,
  "ÃŃn": 10390,
  "ĠLu": 10391,
  "Ġcontribute": 10392,
  "Ġaudience": 10396,
  "Ġfunctional": 10397,
  "Supp": 10398,
  "ĠMont": 10399,
  "Ġwherein": 10400,
  "Ġleads": 10401,
  "Ġacademic": 10402,
  "ĠNon": 10403,
  "Ġclub": 10404,
  "Å¼e": 10406,
  "ĠFood": 10409,
  "Ġframe": 10411,
  "ĠBet": 10412,
  "enth": 10415,
  "anner": 10417,
  "yles": 10418,
  "ogy": 10420,
  "Ġloved": 10423,
  "ugh": 10427,
  "Ġped": 10428,
  "imens": 10430,
  "ez": 10431,
  "Ġcircumst": 10432,
  "ĠAuthor": 10433,
  "Ġsit": 10434,
  "Ġinteraction": 10436,
  "Ġsubsequ": 10438,
  "rend": 10441,
  "Ġcro": 10443,
  "ĠDO": 10444,
  "Ġdiverse": 10445,
  "eler": 10446,
  "Ġequivalent": 10448,
  "Ġleadership": 10449,
  "Ġantib": 10450,
  "Ġentry": 10451,
  "Ġprinciples": 10452,
  "raf": 10453,
  "ĠAbout": 10454,
  "iffer": 10456,
  "eless": 10458,
  "ometric": 10459,
  "Ġinfection": 10460,
  "Ġmarked": 10461,
  "Ġmale": 10462,
  "Ġnorth": 10463,
  "irk": 10464,
  "Ġalb": 10465,
  "Ġeasier": 10466,
  "ĠSpe": 10467,
  "ĠSpring": 10468,
  "oir": 10473,
  "See": 10478,
  "Ġsexual": 10479,
  "iler": 10480,
  "ishes": 10483,
  "Ġtid": 10484,
  "Ġmouth": 10485,
  "ĠTex": 10487,
  "asa": 10489,
  "ERS": 10494,
  "ĠCommon": 10496,
  "ibilities": 10497,
  "ĠRobert": 10498,
  "count": 10499,
  "enu": 10500,
  "Ġcomprehensive": 10501,
  "Ġagree": 10502,
  "Ġinvention": 10504,
  "ĠDescription": 10505,
  "Ġlandsc": 10506,
  "eding": 10511,
  "ono": 10512,
  "start": 10513,
  "ublish": 10516,
  "ads": 10518,
  "Ġevaluation": 10520,
  "encia": 10522,
  "Ġcash": 10524,
  "DS": 10525,
  "Ġslightly": 10526,
  "Ġfluid": 10527,
  "ĠSquare": 10528,
  "Ġcombined": 10530,
  "Ġextract": 10532,
  "Ġtemp": 10533,
  "ĠCatal": 10534,
  "phone": 10536,
  "Ġexposure": 10537,
  "alled": 10546,
  "pling": 10548,
  "Ġbutton": 10549,
  "ĠSil": 10550,
  "Ġfab": 10551,
  "Ġexperienced": 10552,
  "ĠStreet": 10553,
  "request": 10554,
  "Ġlanguages": 10555,
  "ĠProt": 10556,
  "Ġlie": 10557,
  "Ġgenerate": 10559,
  "ĠCommittee": 10560,
  "Ġsie": 10561,
  "Ġchain": 10562,
  "QL": 10564,
  "lock": 10566,
  "Ge": 10568,
  "Ġexcellent": 10570,
  "uracy": 10571,
  "kg": 10572,
  "ĠPDF": 10573,
  "iene": 10574,
  "Ġinstitutions": 10575,
  "Ġapproaches": 10576,
  "Ġthirty": 10577,
  "ĠCongress": 10578,
  "ĠBa": 10579,
  "Ġtele": 10585,
  "Ġopinion": 10588,
  "ipped": 10592,
  "ĠInvest": 10593,
  "words": 10595,
  "atu": 10599,
  "Ġradio": 10600,
  "Ġjudg": 10601,
  "Ġneut": 10603,
  "amma": 10604,
  "ulum": 10605,
  "Ġdrop": 10607,
  "ĠPop": 10608,
  "Ġinsert": 10609,
  "Result": 10610,
  "izz": 10611,
  "Ġemotional": 10613,
  "Ġtang": 10615,
  "orter": 10616,
  "js": 10617,
  "ĠProfess": 10618,
  "Ġhypot": 10620,
  "uto": 10621,
  "Ġinterests": 10623,
  "icated": 10624,
  "stream": 10628,
  "Ġrecept": 10629,
  "Ġjed": 10632,
  "True": 10634,
  "Ġaux": 10635,
  "Ġextent": 10636,
  "ijk": 10637,
  "Ġice": 10639,
  "Ġreact": 10640,
  "Ġindustrial": 10641,
  "Ġdynamic": 10643,
  "PE": 10644,
  "Ġsont": 10646,
  "ĠAny": 10649,
  "ĠEnvironment": 10651,
  "Ã©g": 10652,
  "Ġdriving": 10654,
  "Ġdetailed": 10659,
  "Ġsand": 10661,
  "Ġplays": 10662,
  "isms": 10666,
  "Ġexcess": 10671,
  "xture": 10672,
  "adow": 10675,
  "Ġfell": 10677,
  "Ġthoughts": 10680,
  "Ġrank": 10681,
  "ĠLes": 10683,
  "PC": 10688,
  "vector": 10689,
  "Ġcalculated": 10690,
  "kip": 10691,
  "Ġresist": 10692,
  "Ġvac": 10693,
  "Ġalter": 10694,
  "pet": 10698,
  "Ġcalls": 10699,
  "ĠBay": 10700,
  "Some": 10701,
  "Ġsobre": 10703,
  "Ġdegrees": 10704,
  "Ã¶n": 10708,
  "ĠObs": 10711,
  "Ġini": 10712,
  "Ġnarr": 10713,
  "Ġtak": 10715,
  "covery": 10718,
  "blem": 10719,
  "Input": 10720,
  "Ġnice": 10722,
  "Ser": 10723,
  "Ġmetab": 10724,
  "Ġopened": 10725,
  "Author": 10726,
  "stead": 10732,
  "ĠWestern": 10734,
  "Ġterrit": 10735,
  "Ġcin": 10737,
  "Ġtrip": 10741,
  "iento": 10742,
  "Ġble": 10743,
  "Ġinjury": 10744,
  "Info": 10745,
  "Ġfacilit": 10746,
  "Pa": 10749,
  "PR": 10750,
  "IST": 10753,
  "ĠOl": 10754,
  "Ġjoin": 10764,
  "Ġparameter": 10767,
  "ĠNor": 10769,
  "ectors": 10771,
  "Sim": 10772,
  "Ġdalam": 10775,
  "Ġdepending": 10777,
  "ounce": 10781,
  "Ġleader": 10782,
  "times": 10783,
  "ismo": 10784,
  "Ġexplained": 10785,
  "Ġindicate": 10788,
  "eren": 10789,
  "ĠCa": 10790,
  "Ġfocused": 10792,
  "ĠIntroduction": 10793,
  "Ġmaybe": 10796,
  "Ġtechnologies": 10799,
  "akt": 10800,
  "rastructure": 10801,
  "Ġnone": 10803,
  "iano": 10811,
  "Ġvul": 10812,
  "Ġvirtual": 10814,
  "Ġfailed": 10815,
  "ĠPage": 10816,
  "Ġdoctor": 10817,
  "Ġcatal": 10818,
  "iated": 10823,
  "amento": 10824,
  "Ġho": 10825,
  "Ġwerden": 10827,
  "Ġsouth": 10828,
  "anto": 10829,
  "Ġvoc": 10830,
  "Ã¤t": 10832,
  "Ġoch": 10835,
  "Ġteach": 10836,
  "Ġcogn": 10837,
  "ygen": 10840,
  "Ġdiseases": 10841,
  "Ġstated": 10844,
  "Ġsevere": 10845,
  "alah": 10847,
  "Ġfeedback": 10853,
  "ĠEnergy": 10854,
  "aten": 10858,
  "ĠEss": 10860,
  "ĠclassName": 10863,
  "map": 10865,
  "ioni": 10867,
  "Ġconcepts": 10869,
  "Ġcomparison": 10870,
  "Ã¡t": 10871,
  "akers": 10872,
  "owa": 10874,
  "Ġment": 10875,
  "Ġva": 10879,
  "Book": 10880,
  "Ġfamiliar": 10881,
  "ĠFund": 10882,
  "Ġproperly": 10883,
  "ĠBud": 10886,
  "Ġdocuments": 10888,
  "rows": 10889,
  "Ġnos": 10890,
  "amples": 10892,
  "Ġlock": 10896,
  "ĠMA": 10899,
  "ĠLanguage": 10900,
  "olds": 10901,
  "Ġadults": 10902,
  "Ġdirector": 10904,
  "Ġsuggests": 10905,
  "Ġiron": 10906,
  "istan": 10907,
  "Ġcommonly": 10908,
  "button": 10911,
  "Ġtip": 10913,
  "Foot": 10914,
  "sin": 10915,
  "agen": 10917,
  "Ġprocedures": 10918,
  "Point": 10919,
  "Ġsecure": 10920,
  "Ġvoltage": 10921,
  "rency": 10922,
  "Ġdigits": 10923,
  "Ġrom": 10926,
  "ĠEp": 10927,
  "Ġprobability": 10928,
  "second": 10930,
  "Ġapparent": 10932,
  "ĠJun": 10933,
  "erse": 10935,
  "Ġmovie": 10937,
  "Ġatmosp": 10938,
  "faces": 10939,
  "Ġurban": 10940,
  "Ġshot": 10941,
  "ĠValue": 10944,
  "ĠPhil": 10945,
  "owe": 10947,
  "ĠZh": 10948,
  "Ġadministration": 10952,
  "irmed": 10955,
  "Ġformal": 10956,
  "Ġsuggested": 10957,
  "Ġindu": 10959,
  "Ġgod": 10961,
  "hips": 10964,
  "Ġspend": 10965,
  "ĠSpanish": 10968,
  "namespace": 10972,
  "LO": 10973,
  "ĠBur": 10974,
  "ls": 10975,
  "Ġresearchers": 10977,
  "ĠKore": 10979,
  "Event": 10980,
  "Ġleaving": 10981,
  "ĠMean": 10983,
  "Ġintegr": 10984,
  "PT": 10986,
  "ĠBill": 10987,
  "ĠMax": 10988,
  "Ġfort": 10989,
  "Ġsudden": 10990,
  "Ġul": 10991,
  "_S": 10993,
  "Last": 10994,
  "ĠCamp": 10995,
  "Ġsession": 10997,
  "Ġbecoming": 10998,
  "ĠJapanese": 10999,
  "Ġconclusion": 11000,
  "ĠProduct": 11001,
  "Ġell": 11002,
  "Ġcourses": 11003,
  "Ġmarketing": 11004,
  "Ġdoubt": 11005,
  "define": 11006,
  "Ġvaluable": 11007,
  "Ġec": 11009,
  "ansion": 11012,
  "HA": 11013,
  "Ġagent": 11014,
  "Det": 11017,
  "Ġadult": 11021,
  "Ġnetworks": 11024,
  "weight": 11026,
  "Ġrisks": 11027,
  "angan": 11029,
  "output": 11030,
  "emy": 11031,
  "Ġalle": 11036,
  "SN": 11037,
  "ĠKnow": 11039,
  "ĉint": 11041,
  "fa": 11045,
  "Ġtrad": 11046,
  "ĠBest": 11047,
  "ĠSign": 11048,
  "Ġnumerous": 11050,
  "Ġfrag": 11051,
  "Ġwouldn": 11052,
  "Ġconsistent": 11055,
  "Ġconsole": 11056,
  "Ġdivision": 11057,
  "lu": 11058,
  "LC": 11059,
  "ĠIr": 11060,
  "Ġdisp": 11062,
  "Ġsigns": 11064,
  "Ne": 11067,
  "Att": 11069,
  "ĠSolution": 11070,
  "ĠOh": 11073,
  "ipedia": 11075,
  "Ġot": 11078,
  "spring": 11079,
  "edy": 11083,
  "pes": 11084,
  "Ġimmun": 11088,
  "ĠStudies": 11090,
  "etch": 11093,
  "Ġorient": 11095,
  "Ġtables": 11096,
  "ĠObject": 11098,
  "ĠDev": 11099,
  "Ġcomposition": 11100,
  "Ġtail": 11104,
  "ffee": 11106,
  "abetes": 11107,
  "cluded": 11108,
  "Ġveloc": 11109,
  "ifies": 11110,
  "ĠParis": 11111,
  "Ġoblig": 11114,
  "ĠWell": 11116,
  "Ġtrib": 11117,
  "ĠTor": 11118,
  "umbers": 11119,
  "Ġdelivery": 11120,
  "ĠAR": 11121,
  "Ag": 11124,
  "ĠOR": 11125,
  "rics": 11126,
  "Ġfinished": 11127,
  "Ġsalt": 11128,
  "Ġremoved": 11130,
  "ĠCard": 11133,
  "inating": 11134,
  "Ġreducing": 11135,
  "Ġrepresentation": 11137,
  "Stud": 11138,
  "mic": 11139,
  "hline": 11141,
  "ĠColl": 11142,
  "Ġfavorite": 11145,
  "ĠOnce": 11146,
  "Ġconflict": 11147,
  "Ġkan": 11148,
  "ascular": 11149,
  "Ġancient": 11150,
  "ĠWhich": 11152,
  "ĠControl": 11155,
  "ithub": 11156,
  "ttp": 11160,
  "TR": 11161,
  "othe": 11162,
  "ĠMil": 11164,
  "Ġfunds": 11165,
  "Ġwire": 11167,
  "Ġmixed": 11168,
  "Response": 11169,
  "asp": 11170,
  "DE": 11173,
  "Ġdari": 11179,
  "Ġauto": 11180,
  "Ġempty": 11181,
  "ova": 11183,
  "rec": 11184,
  "iration": 11186,
  "ĠBack": 11187,
  "Ġtruly": 11189,
  "Ġsist": 11191,
  "ÅĤa": 11192,
  "Ġjobs": 11193,
  "Ġconsumption": 11197,
  "Ġconfidence": 11198,
  "Ġreferred": 11200,
  "Ġont": 11201,
  "Ġlibrary": 11202,
  "ĠTim": 11204,
  "Ġpregn": 11205,
  "Ġauch": 11207,
  "CI": 11208,
  "ĠProcess": 11211,
  "Ġhumans": 11212,
  "hether": 11214,
  "Fe": 11215,
  "Ġhighlight": 11217,
  "Ġdiagram": 11218,
  "Ġscene": 11219,
  "Ġkid": 11221,
  "Ġfav": 11225,
  "Ġmeasurement": 11226,
  "ĠSi": 11230,
  "Ġverb": 11231,
  "ĠRussian": 11232,
  "Ġcities": 11234,
  "summary": 11235,
  "orph": 11238,
  "Ġdiscovered": 11239,
  "Ġavec": 11240,
  "Ġrh": 11242,
  "rant": 11243,
  "Ġappeared": 11244,
  "Ã§Ãµes": 11245,
  "ashion": 11246,
  "Ġinvent": 11247,
  "ceived": 11248,
  "Ġsolar": 11250,
  "ĠGrade": 11254,
  "Ġrevealed": 11255,
  "Ġrecip": 11256,
  "anie": 11259,
  "Ġrepresented": 11260,
  "Ġsoul": 11263,
  "Ġfundamental": 11264,
  "Ġresponsibility": 11265,
  "Ġderiv": 11266,
  "Dis": 11271,
  "Ġcolors": 11273,
  "Ġfreedom": 11275,
  "race": 11276,
  "ĠCON": 11278,
  "Ġpromote": 11280,
  "ĠMinister": 11282,
  "adecimal": 11283,
  "Ġfix": 11284,
  "Ġans": 11286,
  "Ġsugar": 11288,
  "ĠExt": 11289,
  "clusive": 11290,
  "Ġsho": 11291,
  "Ġgoods": 11292,
  "cin": 11294,
  "Ġpieces": 11295,
  "Ġvirus": 11296,
  "Ġtroy": 11297,
  "ĠPR": 11298,
  "Ġattend": 11299,
  "Ġfilled": 11300,
  "Ġsan": 11303,
  "Ġarms": 11304,
  "Ġsuitable": 11305,
  "Ġjest": 11306,
  "inations": 11307,
  "arian": 11308,
  "ĠBoth": 11309,
  "Ġscript": 11314,
  "ĠShow": 11315,
  "Ġsmooth": 11316,
  "LA": 11318,
  "Ġship": 11319,
  "ĠArticle": 11320,
  "stein": 11321,
  "Ġinstitution": 11325,
  "Ġzijn": 11326,
  "Web": 11328,
  "Ġkit": 11332,
  "ĠOx": 11333,
  "ÃŃt": 11334,
  "Ġupdated": 11336,
  "ĠStart": 11337,
  "ĠMedical": 11338,
  "Ġgender": 11339,
  "Co": 11340,
  "ĠWhere": 11343,
  "Ġstuff": 11344,
  "Ġdetection": 11347,
  "Ġdefine": 11348,
  "Ġestimated": 11349,
  "Ġsweet": 11350,
  "erd": 11351,
  "sm": 11352,
  "Ġintended": 11353,
  "icol": 11354,
  "valid": 11356,
  "ĠAN": 11358,
  "Ġspecifically": 11359,
  "inity": 11361,
  "Ġminim": 11362,
  "ĠFrank": 11363,
  "Ġpure": 11367,
  "Ġdrugs": 11368,
  "Ġwinter": 11369,
  "Ġadj": 11372,
  "Button": 11374,
  "web": 11375,
  "gency": 11376,
  "ometry": 11378,
  "ĠAbstract": 11379,
  "oses": 11380,
  "Ġherself": 11381,
  "ĠPoint": 11383,
  "Ġlived": 11385,
  "tex": 11386,
  "ĠNOT": 11388,
  "Ġadvice": 11389,
  "Ġthank": 11390,
  "ĠIndust": 11391,
  "olit": 11392,
  "Ġexplanation": 11394,
  "CF": 11395,
  "Ġhappens": 11396,
  "HS": 11397,
  "ativ": 11398,
  "Ġsmart": 11399,
  "nam": 11400,
  "Ġwilling": 11401,
  "Ġsubjects": 11404,
  "lected": 11406,
  "Ġpartner": 11408,
  "Image": 11411,
  "vertis": 11413,
  "nÃ©": 11414,
  "Ġperm": 11418,
  "ifest": 11420,
  "iche": 11421,
  "Ġsou": 11422,
  "Ġgenes": 11423,
  "Ġdigit": 11424,
  "ois": 11425,
  "Our": 11428,
  "Ġpand": 11429,
  "_list": 11431,
  "db": 11432,
  "uilding": 11434,
  "Ġalleg": 11438,
  "Ġstudied": 11442,
  "Ġproceed": 11443,
  "atabase": 11444,
  "Ġhealthcare": 11445,
  "Ġguess": 11446,
  "icing": 11447,
  "Ġneuro": 11449,
  "IO": 11450,
  "Ġcircumstances": 11451,
  "agon": 11452,
  "olars": 11455,
  "Ġknows": 11457,
  "ushed": 11460,
  "Box": 11461,
  "Ġmanager": 11466,
  "hab": 11469,
  "Ġinstrument": 11471,
  "ĠON": 11473,
  "stood": 11475,
  "true": 11476,
  "Ġfrequently": 11477,
  "uma": 11479,
  "ĠConn": 11480,
  "Ġunless": 11482,
  "Ġreject": 11483,
  "burg": 11484,
  "ĠTrue": 11485,
  "Ġcrim": 11491,
  "Ġmonitoring": 11492,
  "Ġraise": 11493,
  "Ġreform": 11494,
  "ĠBig": 11497,
  "ĠEngineering": 11498,
  "Ġremaining": 11499,
  "ĠMot": 11501,
  "Ġhelpful": 11502,
  "uing": 11506,
  "actory": 11507,
  "Ġphilosoph": 11509,
  "win": 11510,
  "ĠArab": 11511,
  "Ġrecorded": 11516,
  "ĠConf": 11517,
  "riz": 11518,
  "Ġannounced": 11521,
  "Ġoffering": 11523,
  "Ġcart": 11527,
  "sz": 11528,
  "hy": 11530,
  "Ġbright": 11533,
  "Next": 11534,
  "Ġlb": 11535,
  "Ġcreation": 11536,
  "Ġcoun": 11539,
  "chi": 11540,
  "oral": 11542,
  "Ġinner": 11544,
  "Ġseeing": 11545,
  "Ġgenetic": 11548,
  "Ġparallel": 11550,
  "Ġdaughter": 11551,
  "Ġnil": 11553,
  "Ġdesc": 11556,
  "ĠSie": 11559,
  "opic": 11564,
  "ĠTimes": 11566,
  "Ġru": 11567,
  "Ġconcerned": 11568,
  "Ġdelay": 11570,
  "Ġvictim": 11575,
  "ailed": 11577,
  "ĠLic": 11580,
  "ymbol": 11581,
  "Ġindepend": 11582,
  "Ġsecondary": 11586,
  "Ġaward": 11587,
  "ĠFil": 11589,
  "ĠSecurity": 11590,
  "Ġring": 11592,
  "Ġhoriz": 11594,
  "ĠTexas": 11595,
  "Ġstack": 11596,
  "reated": 11598,
  "Ġelectron": 11599,
  "ĠMel": 11601,
  "Ġwaiting": 11602,
  "Ġampl": 11606,
  "ĠAsia": 11607,
  "ĠYes": 11608,
  "ĠSpecial": 11609,
  "Ġprincipal": 11610,
  "Ġrend": 11611,
  "Ret": 11614,
  "ĠDE": 11617,
  "imately": 11619,
  "Ġphenomen": 11622,
  "Ġcoe": 11623,
  "Ġmargin": 11624,
  "Ġapart": 11625,
  "igu": 11626,
  "Ġoxygen": 11627,
  "Vol": 11628,
  "Ġholding": 11630,
  "ĠMount": 11631,
  "Ġresponses": 11632,
  "Ġcontinuous": 11635,
  "Ġcategory": 11640,
  "Ġaz": 11641,
  "Ġextremely": 11644,
  "su": 11646,
  "di": 11648,
  "ĠInf": 11649,
  "Click": 11650,
  "Ġreco": 11651,
  "Ġwitness": 11654,
  "ĠDisc": 11656,
  "host": 11657,
  "cules": 11659,
  "Ġnit": 11660,
  "cluding": 11661,
  "lements": 11663,
  "unte": 11665,
  "gypt": 11666,
  "uke": 11667,
  "ĠNatural": 11668,
  "Ġfruit": 11670,
  "abe": 11672,
  "ployment": 11673,
  "zing": 11674,
  "case": 11675,
  "ĠDu": 11677,
  "Ġbinary": 11680,
  "Ġforg": 11681,
  "rich": 11682,
  "plete": 11684,
  "Why": 11687,
  "ĠCamb": 11688,
  "antly": 11689,
  "ourse": 11690,
  "Ġran": 11693,
  "Ġbattle": 11694,
  "Ġkill": 11695,
  "ĠHy": 11697,
  "UE": 11698,
  "ĠMuse": 11700,
  "Ġequations": 11702,
  "DR": 11704,
  "mal": 11706,
  "Ġcoast": 11707,
  "Source": 11709,
  "Ġdestroy": 11710,
  "greg": 11712,
  "nel": 11713,
  "ading": 11714,
  "ĠDigital": 11718,
  "Ġachieved": 11719,
  "ĠFull": 11720,
  "Ġorganic": 11723,
  "rog": 11724,
  "ĠOld": 11726,
  "Ġdetect": 11729,
  "Ġpayment": 11730,
  "flu": 11734,
  "Ġcollected": 11735,
  "Ġcompetition": 11736,
  "Ġwidely": 11737,
  "email": 11738,
  "anal": 11739,
  "ĠCy": 11740,
  "uta": 11741,
  "Ġflat": 11747,
  "iti": 11748,
  "Ġpu": 11749,
  "Ġeste": 11751,
  "ĠReferences": 11752,
  "Ġbelieved": 11754,
  "Ġmostly": 11755,
  "ĠTR": 11756,
  "nÄĽ": 11757,
  "ository": 11758,
  "However": 11759,
  "Ġpool": 11761,
  "Ġeventually": 11764,
  "Ġci": 11765,
  "Ġsquared": 11768,
  "Ġcitizens": 11772,
  "wi": 11775,
  "Ġdepends": 11776,
  "Ġkeeping": 11779,
  "ĠWho": 11780,
  "Ġinternet": 11781,
  "Ġwhatever": 11782,
  "Ġaccurate": 11784,
  "Ġcrisis": 11785,
  "Ġrecommended": 11786,
  "Ġpositions": 11788,
  "Ġviolence": 11789,
  "ĠPrime": 11791,
  "Ġdepartment": 11792,
  "Ġvital": 11797,
  "icious": 11798,
  "Ġseeking": 11800,
  "Ġkon": 11801,
  "Che": 11805,
  "Ġmarkets": 11807,
  "Ġgal": 11808,
  "Ġassets": 11809,
  "ĠPrint": 11810,
  "Ġrul": 11811,
  "ego": 11812,
  "Fl": 11813,
  "Ġecho": 11818,
  "emplate": 11819,
  "emporary": 11821,
  "rypt": 11825,
  "inition": 11826,
  "Ġextended": 11828,
  "ĠUnivers": 11829,
  "Ġdecrease": 11830,
  "isi": 11832,
  "Ġconven": 11835,
  "ĠLim": 11837,
  "mathcal": 11838,
  "Ġtraffic": 11843,
  "ĠStudents": 11845,
  "Ġmol": 11847,
  "Ġgreatest": 11849,
  "displaystyle": 11850,
  "III": 11851,
  "Ġhearing": 11852,
  "_D": 11853,
  "etry": 11855,
  "Ġrein": 11856,
  "Ġdistrict": 11860,
  "Ġcardi": 11861,
  "Ġhelping": 11862,
  "Ġargs": 11863,
  "Ġawait": 11864,
  "ĠIdent": 11867,
  "Ġengineering": 11868,
  "ĠLook": 11869,
  "Ġfourth": 11871,
  "itas": 11873,
  "Ġpurchase": 11876,
  "icago": 11877,
  "holders": 11878,
  "ĠPers": 11880,
  "Ġdf": 11881,
  "Ġdomin": 11884,
  "Ġfold": 11885,
  "ĠSaf": 11887,
  "ĠGal": 11889,
  "rank": 11890,
  "iten": 11894,
  "ĠConst": 11895,
  "Ġdebt": 11896,
  "oli": 11898,
  "Ġrid": 11900,
  "ventional": 11902,
  "Ġindicated": 11903,
  "nov": 11904,
  "ĠNote": 11905,
  "ĠFace": 11906,
  "Ġsounds": 11907,
  "cell": 11908,
  "IB": 11910,
  "Ġmainly": 11911,
  "Ġperman": 11915,
  "Ġphr": 11916,
  "Ġrent": 11917,
  "ĠFOR": 11918,
  "ĠJava": 11919,
  "size": 11920,
  "Ġpossess": 11921,
  "Ġantic": 11923,
  "ĠWorksheets": 11927,
  "Ġdesire": 11930,
  "OK": 11932,
  "Ġexistence": 11933,
  "ĠSciences": 11934,
  "Ġplane": 11938,
  "ĠCA": 11941,
  "vin": 11943,
  "Ġsituations": 11950,
  "ĠRussia": 11951,
  "ayout": 11956,
  "Ġcrow": 11957,
  "mann": 11958,
  "ĠRichard": 11960,
  "ques": 11961,
  "ĠCarol": 11962,
  "ampions": 11963,
  "Ġmuscle": 11964,
  "Ġdil": 11965,
  "Ġsell": 11966,
  "Ġstatements": 11968,
  "sible": 11970,
  "uzz": 11971,
  "isch": 11972,
  "encing": 11973,
  "issions": 11975,
  "Hand": 11976,
  "aran": 11977,
  "ĠSuch": 11978,
  "apat": 11979,
  "arsh": 11980,
  "acher": 11982,
  "ĠnÃ£o": 11984,
  "Ã½ch": 11986,
  "ĠFoundation": 11988,
  "Ġtox": 11989,
  "EW": 11991,
  "ĠPlease": 11992,
  "esis": 11993,
  "Ġjustice": 11994,
  "uce": 11999,
  "ahan": 12000,
  "Ġrefers": 12001,
  "ician": 12004,
  "Ġconsists": 12005,
  "gt": 12006,
  "Ġbreast": 12007,
  "Ġnod": 12009,
  "ĠÃ©t": 12010,
  "Ġclients": 12011,
  "Ġinteractions": 12013,
  "Ġensuring": 12014,
  "Ġsind": 12015,
  "Ġaid": 12018,
  "Ġbodies": 12020,
  "ĠIV": 12021,
  "Ġpersons": 12023,
  "ĠMake": 12025,
  "ĠSystems": 12026,
  "uts": 12027,
  "config": 12028,
  "xiety": 12029,
  "Ġchosen": 12033,
  "istical": 12034,
  "Ġkilled": 12035,
  "Ġexists": 12036,
  "Ġspecified": 12038,
  "Ġtick": 12039,
  "uality": 12041,
  "Ġug": 12043,
  "Ġmanaged": 12044,
  "ressive": 12045,
  "Ġprinciple": 12047,
  "Ġhousing": 12048,
  "ĠAmericans": 12050,
  "Ġmilk": 12053,
  "Ġfunding": 12054,
  "Ġsurgery": 12055,
  "ĠPolicy": 12056,
  "Ġwie": 12057,
  "Ġfer": 12058,
  "Ġaan": 12060,
  "TA": 12061,
  "Ġforty": 12062,
  "ĠIsland": 12063,
  "query": 12066,
  "Ġmyst": 12068,
  "Ġalcohol": 12069,
  "Ġmissing": 12070,
  "iÃ³": 12071,
  "Ġaccuracy": 12075,
  "ĠConference": 12076,
  "Ġshoot": 12077,
  "ROM": 12080,
  "Ġprz": 12081,
  "format": 12082,
  "Ġcer": 12084,
  "Ġsegment": 12085,
  "Ġnurs": 12087,
  "ĠTotal": 12089,
  "Ġol": 12090,
  "Ġproteins": 12091,
  "Ġcontrolled": 12092,
  "Ġprotocol": 12093,
  "nership": 12095,
  "iginal": 12096,
  "yan": 12098,
  "Ġfifty": 12099,
  "Ġzone": 12101,
  "Ġplot": 12103,
  "perties": 12104,
  "eln": 12105,
  "uilder": 12106,
  "Ġdepos": 12107,
  "Ġended": 12110,
  "Ġsustainable": 12111,
  "Ġaccompl": 12112,
  "ĠGrand": 12115,
  "Footnote": 12119,
  "Ġregional": 12120,
  "Ġemployee": 12121,
  "Ġruns": 12122,
  "Ġerrors": 12123,
  "Ġmodule": 12124,
  "Ġrepro": 12125,
  "Ġpued": 12127,
  "imer": 12129,
  "Ġcompare": 12131,
  "adian": 12133,
  "ĠIslam": 12136,
  "Ġelectronic": 12137,
  "Ġrecovery": 12138,
  "Ġhyper": 12139,
  "amos": 12140,
  "Ġagreed": 12141,
  "brid": 12142,
  "ĠWH": 12144,
  "ĠAdditionally": 12148,
  "enter": 12150,
  "ĠWomen": 12151,
  "Ġconsidering": 12153,
  "Ġmaintenance": 12154,
  "aine": 12156,
  "ĠLee": 12157,
  "Ġprev": 12158,
  "PD": 12159,
  "kins": 12162,
  "urns": 12163,
  "Ġtransmission": 12164,
  "Ġexperimental": 12165,
  "Cur": 12166,
  "ĠJer": 12170,
  "olor": 12171,
  "Ġcryst": 12174,
  "Ġloop": 12175,
  "parent": 12176,
  "ochem": 12177,
  "Ġtopics": 12179,
  "Ġyouth": 12181,
  "Ġmechanisms": 12187,
  "Ġbone": 12188,
  "Ġnoise": 12189,
  "ificial": 12190,
  "chedul": 12194,
  "ĠLos": 12195,
  "Ġcreative": 12196,
  "CrossRef": 12200,
  "Ġtempl": 12202,
  "Ġmedic": 12204,
  "ĠFrancis": 12205,
  "itÃł": 12206,
  "imento": 12207,
  "rot": 12209,
  "Ġacknow": 12212,
  "Ġdepart": 12215,
  "azon": 12217,
  "Ġimprovement": 12218,
  "Ġthin": 12220,
  "ĠCommunity": 12221,
  "Ġdoct": 12226,
  "Ġsettings": 12227,
  "ĠBrown": 12229,
  "Ġoutcome": 12230,
  "ĠRos": 12231,
  "aire": 12235,
  "Ġopposite": 12236,
  "Ġhomes": 12238,
  "Ġroute": 12240,
  "ĠImp": 12241,
  "Ġcriteria": 12245,
  "Ġcompens": 12246,
  "Ġanalys": 12248,
  "Ġfloat": 12249,
  "ingly": 12250,
  "Ġimper": 12251,
  "Ġrecognition": 12252,
  "Ġgirls": 12253,
  "ĠAdminist": 12256,
  "erman": 12257,
  "ellect": 12260,
  "Can": 12262,
  "vas": 12265,
  "Ġlinked": 12268,
  "ĠCam": 12269,
  "Ġbool": 12270,
  "Ġamazing": 12274,
  "Ġprompt": 12275,
  "ĠDirector": 12276,
  "Ġcooper": 12277,
  "ART": 12281,
  "ĠNetwork": 12282,
  "Ġderived": 12283,
  "oted": 12284,
  "Ġrect": 12285,
  "Ġstanding": 12286,
  "Ġtill": 12287,
  "Ġclar": 12288,
  "indu": 12290,
  "Ġconj": 12291,
  "otype": 12292,
  "ĠAff": 12296,
  "Config": 12297,
  "Product": 12299,
  "Ġsoc": 12303,
  "ĠHT": 12305,
  "Ġcritic": 12306,
  "Load": 12311,
  "pons": 12312,
  "ocratic": 12314,
  "Ġlesson": 12316,
  "phi": 12317,
  "Ġsharing": 12318,
  "ĠCr": 12319,
  "ortunately": 12320,
  "close": 12322,
  "rogen": 12324,
  "gent": 12327,
  "Ġsignificance": 12328,
  "Status": 12329,
  "Ġza": 12331,
  "Ġfigures": 12332,
  "Ġstood": 12333,
  "Ġriver": 12334,
  "Ġchief": 12335,
  "icians": 12336,
  "pled": 12338,
  "private": 12339,
  "ĠDer": 12341,
  "Ġappearance": 12343,
  "Ġlatter": 12345,
  "ĠLine": 12348,
  "gr": 12349,
  "inen": 12353,
  "Ġuncertain": 12354,
  "width": 12356,
  "Ġaccord": 12357,
  "ĠConvert": 12360,
  "Ġresolution": 12361,
  "ĠPass": 12362,
  "Char": 12363,
  "rey": 12365,
  "Ġwy": 12366,
  "ĠDistrict": 12368,
  "DB": 12369,
  "ĠRE": 12370,
  "ĠChristmas": 12374,
  "INE": 12376,
  "Ġdesired": 12377,
  "Ġreceiving": 12378,
  "Ġcaught": 12379,
  "eme": 12381,
  "lla": 12382,
  "ĠBal": 12383,
  "ket": 12384,
  "Search": 12386,
  "Ġaccounts": 12387,
  "has": 12390,
  "Ġinvestigation": 12392,
  "ĠPot": 12393,
  "Ġprison": 12394,
  "Ġdefinit": 12396,
  "Ġdiscipl": 12397,
  "py": 12403,
  "rons": 12404,
  "Ġaren": 12406,
  "Ġrestaur": 12407,
  "ĠIss": 12409,
  "ĠCharles": 12410,
  "Oh": 12412,
  "Ġdispos": 12413,
  "ĠCR": 12414,
  "Ġaccepted": 12415,
  "Ġprofile": 12416,
  "Ġmoral": 12417,
  "Ġinsights": 12418,
  "strong": 12419,
  "ifts": 12421,
  "Ġunderstood": 12423,
  "Ġquiet": 12426,
  "agraph": 12427,
  "Ġthousands": 12429,
  "Ġlip": 12430,
  "irms": 12432,
  "Ġstability": 12434,
  "Ã©l": 12436,
  "ĠFun": 12437,
  "Ġcommitment": 12438,
  "Ġchronic": 12439,
  "Ġlisten": 12440,
  "Message": 12441,
  "ĠRequ": 12443,
  "Ġstarts": 12444,
  "ĠTem": 12445,
  "aper": 12446,
  "ĠEth": 12449,
  "Ġprosp": 12450,
  "Ġsports": 12452,
  "iology": 12453,
  "anz": 12455,
  "rative": 12456,
  "Ġtor": 12459,
  "Ġrelax": 12460,
  "reen": 12461,
  "Ġdiagnosis": 12463,
  "OH": 12465,
  "ĠMach": 12466,
  "orough": 12468,
  "Ã§a": 12469,
  "Ġcz": 12470,
  "Ġoccurred": 12471,
  "Ġsignals": 12472,
  "Please": 12473,
  "Ġpreced": 12474,
  "Ġregist": 12475,
  "Ġsrc": 12477,
  "Ġcout": 12478,
  "claim": 12479,
  "Ġprofit": 12480,
  "aste": 12481,
  "Ġcab": 12482,
  "xty": 12483,
  "Ġemployment": 12484,
  "Ġelectrical": 12486,
  "Ġven": 12487,
  "gebra": 12488,
  "pecific": 12489,
  "km": 12492,
  "Ġsnow": 12494,
  "urer": 12497,
  "ĠMicrosoft": 12500,
  "Manager": 12501,
  "Ġofficials": 12502,
  "kov": 12503,
  "ĠSecret": 12504,
  "Ġstreet": 12505,
  "ĠLeague": 12506,
  "uje": 12507,
  "ĠCath": 12509,
  "Ġvulner": 12510,
  "Ġtips": 12511,
  "Ġbuff": 12512,
  "ĠAp": 12513,
  "oa": 12514,
  "Ġprimarily": 12515,
  "tÃ³": 12516,
  "Ġwealth": 12520,
  "Conn": 12521,
  "Ġforced": 12522,
  "Ġlocations": 12525,
  "ĠFlor": 12526,
  "FA": 12527,
  "Dr": 12528,
  "Ġrepeated": 12529,
  "look": 12533,
  "Ġenable": 12535,
  "eting": 12539,
  "Ġdomestic": 12541,
  "ĠCommons": 12544,
  "Ġdrawing": 12545,
  "alls": 12548,
  "Ġindeed": 12549,
  "ĠOnline": 12551,
  "ĠPlay": 12552,
  "May": 12553,
  "ĠLike": 12554,
  "Ġlimits": 12555,
  "sis": 12556,
  "Ġcorner": 12560,
  "Ġtight": 12561,
  "Ġlose": 12564,
  "ĠThrough": 12565,
  "Ġgest": 12567,
  "Ġguar": 12569,
  "Ġstars": 12570,
  "ĠMartin": 12572,
  "Ġtypical": 12573,
  "ĠCirc": 12575,
  "imm": 12576,
  "Ġconversation": 12577,
  "Ġlit": 12578,
  "ĠfÃ¶r": 12579,
  "ĠCost": 12581,
  "Ġevaluate": 12582,
  "Ġjump": 12583,
  "ĠReading": 12585,
  "Cons": 12586,
  "Ġmagnetic": 12587,
  "Ġoder": 12589,
  "Ġreaders": 12592,
  "Ġvast": 12596,
  "Ġgarden": 12597,
  "Ġsupporting": 12598,
  "Ġeating": 12599,
  "Ġbegins": 12600,
  "Ġodd": 12601,
  "Element": 12602,
  "Ġstable": 12603,
  "Ġstored": 12604,
  "ndrome": 12605,
  "ĠOnly": 12606,
  "GR": 12607,
  "Ġafford": 12608,
  "assert": 12609,
  "Ġnerv": 12610,
  "unning": 12611,
  "Ġroles": 12612,
  "Ġnuclear": 12613,
  "Ġhal": 12615,
  "ĠRef": 12616,
  "Ġassistance": 12619,
  "ĠCarl": 12620,
  "Ġdistingu": 12621,
  "iu": 12622,
  "oose": 12623,
  "Ġthread": 12625,
  "Ġalign": 12628,
  "ĠCast": 12631,
  "Ġvote": 12632,
  "Ġexperiments": 12637,
  "UB": 12638,
  "Ġplural": 12639,
  "Ġaqu": 12641,
  "func": 12642,
  "rape": 12643,
  "Ġpossibility": 12644,
  "Ġhousehold": 12646,
  "Ġregulations": 12647,
  "Ġindicates": 12649,
  "ĠMen": 12651,
  "Ġremained": 12652,
  "ĠScott": 12655,
  "Ġcoverage": 12656,
  "obe": 12661,
  "Ġparticles": 12663,
  "Ġfacilities": 12666,
  "etime": 12669,
  "Gener": 12670,
  "ĠLast": 12673,
  "Ġcamera": 12674,
  "lines": 12678,
  "Subscribe": 12679,
  "Ġpada": 12680,
  "Ġassociation": 12684,
  "ped": 12685,
  "Ġhier": 12687,
  "According": 12688,
  "INS": 12689,
  "ĠFederal": 12691,
  "Ġagency": 12693,
  "Ġinformed": 12695,
  "Ġskill": 12697,
  "ĠLess": 12699,
  "ston": 12700,
  "_T": 12704,
  "ĠCell": 12705,
  "Ġdecades": 12706,
  "anti": 12707,
  "Ġsky": 12709,
  "Ġsv": 12710,
  "ipping": 12712,
  "Ġguard": 12713,
  "ĠMoreover": 12719,
  "Ġcloser": 12721,
  "ĠCreate": 12722,
  "Ġingred": 12723,
  "Ġpil": 12724,
  "Inst": 12726,
  "ĠCS": 12727,
  "itivity": 12730,
  "sv": 12731,
  "esch": 12733,
  "Ġfamous": 12734,
  "aciones": 12735,
  "Ġentered": 12736,
  "Ġinstruction": 12740,
  "ĠPri": 12741,
  "ĠQuestion": 12742,
  "_in": 12743,
  "Ġweap": 12744,
  "Ġproof": 12745,
  "ĠChildren": 12746,
  "orry": 12749,
  "vements": 12752,
  "ĠPolit": 12753,
  "Ġintent": 12756,
  "ĠWindows": 12757,
  "Ġfle": 12758,
  "Ġbiggest": 12759,
  "Ġknowing": 12761,
  "enda": 12764,
  "Ġear": 12765,
  "ĠLouis": 12766,
  "Ġwear": 12767,
  "ensus": 12768,
  "Ġtheme": 12769,
  "Ġwriter": 12770,
  "ateral": 12772,
  "Ġdistributed": 12775,
  "theta": 12778,
  "Ġscan": 12779,
  "Ġnur": 12780,
  "iser": 12781,
  "ĠTri": 12782,
  "icate": 12784,
  "Ġpackage": 12787,
  "ĠEU": 12788,
  "Ġdriver": 12789,
  "Ġreader": 12791,
  "ĠOp": 12793,
  "Ġdiversity": 12794,
  "ĠUr": 12795,
  "ĠTreat": 12796,
  "arse": 12798,
  "aven": 12800,
  "Ġobjective": 12801,
  "Ġends": 12802,
  "Ġassume": 12803,
  "Ġinject": 12804,
  "ĠEgypt": 12805,
  "Ġdemonstrated": 12806,
  "Ġinfrastructure": 12807,
  "Then": 12808,
  "ĠVari": 12811,
  "ribution": 12812,
  "road": 12813,
  "Ġchair": 12817,
  "Ġnative": 12818,
  "Ġuniversity": 12819,
  "Ġpou": 12820,
  "iente": 12821,
  "Ġphotos": 12822,
  "Abstract": 12823,
  "Ġneighb": 12824,
  "Ġtab": 12826,
  "Ġprove": 12827,
  "Ġwhereas": 12828,
  "you": 12829,
  "Ġmolecular": 12832,
  "_data": 12833,
  "ĠOpt": 12834,
  "aked": 12835,
  "Ġrecognized": 12836,
  "ĠLiter": 12841,
  "Ġplastic": 12843,
  "Ġinstructions": 12846,
  "Ġgram": 12848,
  "ithms": 12849,
  "ĠpÃ¥": 12851,
  "Ġstopped": 12852,
  "Ġcoffee": 12855,
  "ĠSupport": 12856,
  "Ġpictures": 12859,
  "aneous": 12861,
  "ĠWood": 12864,
  "Ġforth": 12866,
  "ĠLake": 12867,
  "ĠPRO": 12868,
  "bel": 12870,
  "ĠCorpor": 12871,
  "sa": 12872,
  "ĠExample": 12873,
  "AV": 12875,
  "UD": 12876,
  "Ġtrav": 12877,
  "Ġelection": 12878,
  "Ġowner": 12880,
  "Ġlaugh": 12881,
  "Ġvi": 12883,
  "arten": 12887,
  "Note": 12888,
  "Ġagents": 12890,
  "Oct": 12892,
  "Ġwalking": 12893,
  "Ġconsequences": 12894,
  "cor": 12896,
  "omes": 12897,
  "ademy": 12901,
  "ĠVict": 12902,
  "Ġnarrow": 12903,
  "ested": 12904,
  "Ġclosely": 12905,
  "ĠÃ¤r": 12906,
  "ĠMaterial": 12908,
  "Ġsheet": 12909,
  "armac": 12910,
  "Ġchrom": 12911,
  "Ġgap": 12912,
  "utor": 12913,
  "ĠRoad": 12914,
  "Ġtamb": 12915,
  "ÅĤo": 12916,
  "Ġbat": 12919,
  "ĠGreek": 12920,
  "Ġcapable": 12921,
  "ega": 12924,
  "Ġstret": 12925,
  "Ġholds": 12927,
  "Ġchart": 12928,
  "Ġremark": 12930,
  "alm": 12932,
  "tica": 12933,
  "ĠPen": 12934,
  "Back": 12939,
  "ĠVan": 12941,
  "ĠLibrary": 12942,
  "AND": 12943,
  "Ġfunc": 12947,
  "Ur": 12948,
  "Ġnu": 12949,
  "Ġdei": 12950,
  "Ġtil": 12952,
  "utt": 12953,
  "Ġpanel": 12954,
  "Ġrough": 12960,
  "ĠParty": 12961,
  "Ġstick": 12964,
  "roke": 12965,
  "Ġartist": 12966,
  "Ġintelligence": 12967,
  "icity": 12970,
  "Ġseed": 12971,
  "FL": 12973,
  "kes": 12974,
  "RL": 12975,
  "ĠSearch": 12976,
  "ĠResults": 12979,
  "Ġinteract": 12982,
  "ĠGuide": 12983,
  "ws": 12984,
  "Ġion": 12985,
  "Ġdell": 12986,
  "Ġspeaking": 12987,
  "Ġmanufacturing": 12988,
  "main": 12993,
  "Ġarrang": 12994,
  "Ġpounds": 12995,
  "omer": 12996,
  "bsp": 12997,
  "plex": 12999,
  "astern": 13000,
  "Ġphosph": 13003,
  "Length": 13004,
  "ĠLab": 13005,
  "Ġyellow": 13009,
  "Ġlandscape": 13010,
  "ĠNASA": 13011,
  "arbon": 13012,
  "Ġcraft": 13013,
  "Ġclassroom": 13018,
  "ĠSP": 13019,
  "ÃŃm": 13020,
  "reshold": 13021,
  "ĠAnother": 13023,
  "ontal": 13025,
  "Ġunknown": 13026,
  "racy": 13028,
  "Ġpaint": 13030,
  "Part": 13032,
  "obile": 13033,
  "QU": 13037,
  "Ġpassion": 13038,
  "ĠGame": 13039,
  "olo": 13041,
  "Ġevening": 13044,
  "Ġdecide": 13047,
  "Ġhem": 13049,
  "hop": 13050,
  "ĠPMID": 13052,
  "Ã©c": 13054,
  "Ġconfiguration": 13055,
  "ĠTen": 13056,
  "Ġoperator": 13057,
  "Ġfaster": 13058,
  "Ġninety": 13063,
  "Ġsale": 13065,
  "Ġban": 13066,
  "ĠQuestions": 13068,
  "Ġasking": 13070,
  "Ġfoods": 13075,
  "lambda": 13077,
  "oda": 13078,
  "Other": 13079,
  "riculum": 13080,
  "MMMM": 13082,
  "_st": 13088,
  "ĠCross": 13090,
  "prise": 13093,
  "Net": 13094,
  "Ġadequ": 13099,
  "oni": 13102,
  "Ġcurve": 13104,
  "inds": 13106,
  "ername": 13109,
  "BI": 13111,
  "Ġly": 13116,
  "Ġroz": 13117,
  "Ġscheme": 13120,
  "ymph": 13121,
  "ulty": 13125,
  "oking": 13126,
  "Ġprintf": 13128,
  "Ġtaste": 13132,
  "Ġvess": 13133,
  "Ġeta": 13136,
  "night": 13137,
  "igration": 13138,
  "ĠMiddle": 13139,
  "group": 13140,
  "ĠMexico": 13141,
  "Ġgall": 13143,
  "ĠFurthermore": 13144,
  "ĠIndex": 13145,
  "vy": 13146,
  "Ġepis": 13149,
  "Ġguidance": 13150,
  "Ġtan": 13152,
  "olving": 13153,
  "ÃŃs": 13154,
  "ĠEnter": 13158,
  "pload": 13159,
  "Ġexpansion": 13163,
  "Ġbroken": 13167,
  "idity": 13168,
  "Ġconsumer": 13169,
  "Ġsenior": 13170,
  "ĠFour": 13171,
  "throp": 13172,
  "utter": 13173,
  "iox": 13174,
  "rade": 13175,
  "Ġcompound": 13176,
  "ĠSche": 13178,
  "Ġmand": 13180,
  "ĠHa": 13181,
  "Ġbeauty": 13182,
  "Ġadvent": 13186,
  "Ġgather": 13187,
  "Ġlisted": 13190,
  "onia": 13191,
  "Rel": 13192,
  "plicated": 13193,
  "Ġinnovation": 13194,
  "Ġnums": 13196,
  "ĠktÃ³": 13198,
  "Ġgrid": 13200,
  "istent": 13201,
  "angular": 13205,
  "OV": 13209,
  "Ġsuccessfully": 13211,
  "first": 13213,
  "lementary": 13214,
  "hus": 13215,
  "ĠObserv": 13216,
  "Exp": 13217,
  "Ġplas": 13218,
  "ifer": 13219,
  "Don": 13222,
  "orption": 13223,
  "ĠAz": 13224,
  "Ġconfirmed": 13226,
  "Ġfeelings": 13227,
  "Enter": 13228,
  "Ġsport": 13229,
  "Ġkilomet": 13231,
  "Ġawareness": 13232,
  "rays": 13233,
  "iders": 13235,
  "Ġestimate": 13236,
  "Ġchoices": 13239,
  "Ġclassification": 13240,
  "eries": 13241,
  "ĠLo": 13244,
  "eur": 13245,
  "nych": 13246,
  "ĠPC": 13248,
  "Ġenzym": 13249,
  "Ġchallenging": 13250,
  "iri": 13251,
  "ĠToday": 13253,
  "Ġcarefully": 13254,
  "Ġcircle": 13256,
  "Ġslowly": 13257,
  "Ġsurvival": 13260,
  "Ġrenew": 13263,
  "ilib": 13265,
  "react": 13266,
  "hl": 13267,
  "Ġimproving": 13271,
  "Ġrecover": 13272,
  "Repository": 13277,
  "ĠPac": 13278,
  "aintiff": 13279,
  "Ġappeal": 13281,
  "Ġmatters": 13287,
  "Ġdefense": 13289,
  "antes": 13290,
  "Ġengage": 13291,
  "Ġtub": 13292,
  "ĠSand": 13293,
  "Ġforget": 13294,
  "Ġwet": 13297,
  "Start": 13298,
  "adding": 13300,
  "Ġrig": 13301,
  "enz": 13303,
  "ulating": 13304,
  "atial": 13306,
  "Ġdescribes": 13308,
  "ruck": 13309,
  "Ġintegration": 13311,
  "Ġdrink": 13312,
  "Ġsupposed": 13313,
  "bin": 13314,
  "formance": 13315,
  "wan": 13316,
  "Ġoptimal": 13317,
  "Ġissued": 13319,
  "bag": 13322,
  "Ġnegot": 13323,
  "Ġourselves": 13325,
  "ju": 13326,
  "ĠConsider": 13327,
  "subscript": 13329,
  "Ġbear": 13330,
  "Ġemergency": 13331,
  "Ġhero": 13334,
  "abul": 13335,
  "cdot": 13336,
  "MT": 13337,
  "rio": 13339,
  "Ġconference": 13340,
  "ustomer": 13341,
  "ĠSS": 13342,
  "nia": 13346,
  "Ġjur": 13350,
  "Ġses": 13353,
  "idae": 13354,
  "inates": 13355,
  "ĠSem": 13356,
  "Ġrevolution": 13359,
  "Ġspiritual": 13360,
  "Atom": 13363,
  "Ġuniform": 13364,
  "levision": 13367,
  "ĠClick": 13368,
  "ĠMedicine": 13369,
  "Ġtested": 13372,
  "Ġaccum": 13373,
  "Ġmixture": 13376,
  "ĠMedia": 13378,
  "Ġresidents": 13379,
  "Ġrevenue": 13381,
  "rance": 13382,
  "Ġdivers": 13386,
  "outs": 13387,
  "aud": 13389,
  "Ġdefic": 13390,
  "anya": 13392,
  "Ġpotentially": 13394,
  "Ġhaven": 13396,
  "ools": 13397,
  "beta": 13400,
  "Ġintroduction": 13401,
  "Ġcrime": 13403,
  "Ġsubstr": 13405,
  "Ġwatching": 13408,
  "ĠFinally": 13409,
  "ĠNav": 13412,
  "Ġprepare": 13413,
  "Ġenviron": 13415,
  "dc": 13417,
  "arks": 13419,
  "Ġshock": 13421,
  "ilarly": 13422,
  "FC": 13428,
  "ĠLocal": 13429,
  "Comp": 13431,
  "Ġdemonstrate": 13432,
  "til": 13433,
  "ĠTeam": 13434,
  "Ġprofessionals": 13435,
  "idential": 13436,
  "forcement": 13437,
  "ĠDivision": 13438,
  "ĠAB": 13439,
  "ĠLin": 13440,
  "Ġencounter": 13442,
  "Ġliv": 13444,
  "Ġrational": 13445,
  "aron": 13447,
  "outer": 13448,
  "Ġmeasurements": 13453,
  "ACT": 13455,
  "Ġesp": 13457,
  "Ġdollars": 13459,
  "Su": 13462,
  "_M": 13467,
  "Ġamounts": 13469,
  "Ġvelocity": 13473,
  "Ġmarriage": 13474,
  "ĠThree": 13475,
  "ĠStrateg": 13477,
  "Ġclin": 13478,
  "Ġfinish": 13480,
  "ifferent": 13481,
  "Ġthanks": 13482,
  "emia": 13483,
  "ican": 13484,
  "hered": 13486,
  "umes": 13487,
  "amil": 13490,
  "annels": 13492,
  "ĠComments": 13493,
  "ĠFIG": 13496,
  "ribute": 13498,
  "ostic": 13499,
  "rij": 13500,
  "ometimes": 13501,
  "AI": 13503,
  "eps": 13504,
  "imensional": 13505,
  "Ġsitting": 13507,
  "SO": 13508,
  "Dec": 13511,
  "Ġspending": 13512,
  "azine": 13513,
  "Ġpy": 13516,
  "Ġgift": 13517,
  "Ġacts": 13519,
  "ĠReal": 13521,
  "Ġexperts": 13523,
  "hu": 13524,
  "Ġmeters": 13525,
  "Ġanxiety": 13526,
  "Ġpresentation": 13527,
  "Ġincreasingly": 13528,
  "van": 13530,
  "aze": 13532,
  "Ġdefinitely": 13533,
  "IPT": 13534,
  "Ġauthent": 13536,
  "Ġinflamm": 13539,
  "Ġplanet": 13540,
  "Ġdress": 13541,
  "Fin": 13542,
  "unci": 13545,
  "ĠHill": 13547,
  "ĠInstead": 13548,
  "Well": 13549,
  "aki": 13550,
  "Ġmoder": 13553,
  "Ġfashion": 13556,
  "ĠAL": 13558,
  "ĠFile": 13559,
  "Integer": 13560,
  "DO": 13562,
  "Ġfest": 13563,
  "Ġspaces": 13564,
  "ailability": 13565,
  "Ġroots": 13566,
  "imp": 13569,
  "ĠRelated": 13571,
  "riter": 13572,
  "ekt": 13573,
  "quir": 13574,
  "Ġwalked": 13577,
  "ĠChicago": 13579,
  "Ġsight": 13581,
  "Ġentirely": 13583,
  "Ġsuc": 13585,
  "ĠCase": 13586,
  "opp": 13590,
  "ĠApplication": 13591,
  "creen": 13592,
  "enza": 13593,
  "Å¼y": 13596,
  "Ġnach": 13598,
  "Ġneighbor": 13599,
  "ÅĤy": 13601,
  "ĠFre": 13602,
  "eper": 13603,
  "ĠTerm": 13605,
  "Ġimpossible": 13606,
  "Ġquery": 13607,
  "ĠRights": 13608,
  "ĠOffic": 13610,
  "Ġmir": 13611,
  "Spec": 13613,
  "Ġstructural": 13615,
  "Ġfert": 13616,
  "onald": 13617,
  "Ġreligion": 13621,
  "Ġtoler": 13622,
  "Ġadvoc": 13624,
  "lik": 13626,
  "aset": 13627,
  "upy": 13628,
  "Ġremote": 13629,
  "idos": 13630,
  "Ġemployed": 13631,
  "Ġjudgment": 13632,
  "Ġdivide": 13633,
  "eties": 13634,
  "idents": 13637,
  "Ġya": 13639,
  "iar": 13640,
  "Ġjoy": 13642,
  "ĠMov": 13643,
  "normal": 13644,
  "Ġoccasion": 13646,
  "real": 13648,
  "Ġcontrols": 13649,
  "Ġabsence": 13651,
  "plant": 13652,
  "Ġwalls": 13654,
  "arest": 13655,
  "Ġstages": 13656,
  "ĠCP": 13657,
  "ĠAnswers": 13658,
  "CN": 13663,
  "Ġtalent": 13664,
  "ajÄħ": 13665,
  "inu": 13667,
  "Hz": 13670,
  "Ġvillage": 13671,
  "Ġsummary": 13672,
  "ĠVirgin": 13674,
  "Ġmedicine": 13677,
  "Ġcycl": 13678,
  "bur": 13679,
  "Ġscope": 13680,
  "Ġfulf": 13683,
  "enta": 13684,
  "ĠWal": 13685,
  "Ġarrest": 13686,
  "Ġwonderful": 13687,
  "Ġintervention": 13688,
  "Ġbehaviour": 13689,
  "ĠFamily": 13690,
  "Ġstake": 13691,
  "ship": 13693,
  "Ġsurrounding": 13694,
  "ahr": 13695,
  "Ġmaintaining": 13696,
  "icken": 13698,
  "Ġwird": 13699,
  "ĠMur": 13700,
  "rowser": 13702,
  "onom": 13703,
  "Ġhur": 13704,
  "Ġtradition": 13705,
  "Ġcognitive": 13707,
  "Ġreviews": 13712,
  "Ġcompounds": 13713,
  "ĠJohnson": 13715,
  "Ġunderlying": 13716,
  "Ġfan": 13717,
  "Another": 13718,
  "oin": 13719,
  "Ġarrived": 13721,
  "ĠDoes": 13724,
  "aman": 13727,
  "ĠJac": 13728,
  "riers": 13729,
  "ĠEX": 13731,
  "Ġreasonable": 13732,
  "ograf": 13733,
  "Ġgran": 13734,
  "Ġshares": 13735,
  "ometer": 13736,
  "ĠGeorg": 13737,
  "Ġturns": 13738,
  "ĠChange": 13739,
  "apped": 13740,
  "Ġconfirm": 13742,
  "cosystem": 13743,
  "Ġfabric": 13744,
  "Ġsensor": 13746,
  "Prov": 13748,
  "amber": 13749,
  "Ġsections": 13750,
  "ogene": 13751,
  "Ġstone": 13754,
  "ALL": 13755,
  "zn": 13756,
  "Ġdogs": 13757,
  "Ġcategories": 13759,
  "Ġfasc": 13765,
  "ele": 13768,
  "Ġbrown": 13769,
  "ptr": 13770,
  "entes": 13772,
  "hematical": 13773,
  "ĠRock": 13774,
  "fit": 13775,
  "Ġny": 13777,
  "Ġinterval": 13778,
  "ĠLink": 13781,
  "Ġguidelines": 13782,
  "liament": 13784,
  "ĠÃ¼ber": 13785,
  "ĠSoft": 13788,
  "Ġcomposite": 13791,
  "Ġcommitted": 13792,
  "Ġjun": 13793,
  "cs": 13794,
  "ĠCreative": 13795,
  "Ġtwice": 13796,
  "ĠHenry": 13799,
  "Ġbuildings": 13800,
  "Ġatmosphere": 13801,
  "Ġpump": 13806,
  "ivated": 13807,
  "Ġstands": 13809,
  "ĠLabor": 13810,
  "Ġbinding": 13811,
  "Content": 13812,
  "Ġfant": 13815,
  "Ġadalah": 13816,
  "ibli": 13817,
  "Ġjoined": 13818,
  "Ġhun": 13821,
  "ĠWay": 13823,
  "Ġnam": 13828,
  "ĠFacebook": 13829,
  "Ġfootball": 13831,
  "Ġtaught": 13833,
  "Client": 13834,
  "quad": 13835,
  "AY": 13836,
  "Ġvertical": 13838,
  "ĠClub": 13839,
  "Ġmarried": 13841,
  "ĠFollow": 13845,
  "Ġgrav": 13846,
  "Rem": 13847,
  "Ġtemperatures": 13848,
  "ĠLatin": 13851,
  "Ġdiscrim": 13852,
  "ĠChen": 13857,
  "Ġsuit": 13858,
  "Ġvehicles": 13859,
  "ĠFlorida": 13860,
  "Ġtod": 13861,
  "ĠFort": 13864,
  "Ġtur": 13865,
  "MC": 13867,
  "Ġofficer": 13868,
  "cie": 13870,
  "utch": 13871,
  "Ġeditor": 13872,
  "ĠTax": 13873,
  "Ġhex": 13874,
  "elen": 13876,
  "ĠEmp": 13877,
  "ucky": 13878,
  "Ġradiation": 13879,
  "Ġvariation": 13882,
  "Ã¡r": 13884,
  "Ġentertain": 13885,
  "Ġpolitics": 13886,
  "ĠProm": 13887,
  "ĠItalian": 13890,
  "Ġmanifest": 13891,
  "Ġaxis": 13893,
  "apa": 13894,
  "ĠWords": 13896,
  "Ġspl": 13899,
  "Ġlargely": 13900,
  "Select": 13901,
  "Pe": 13902,
  "utely": 13903,
  "ventions": 13904,
  "NO": 13909,
  "cipe": 13910,
  "aga": 13913,
  "Ġpicked": 13915,
  "ĠWikipedia": 13916,
  "Chapter": 13918,
  "Ġencourage": 13919,
  "End": 13920,
  "Ġcausing": 13922,
  "ĠMuseum": 13924,
  "Ġspin": 13925,
  "RS": 13926,
  "Ġenerg": 13927,
  "ĠSup": 13928,
  "Ġfro": 13929,
  "hist": 13930,
  "ĠMS": 13931,
  "select": 13933,
  "rium": 13934,
  "oro": 13935,
  "ĠSar": 13936,
  "Ġsister": 13939,
  "ĠAnnual": 13940,
  "ĠFactor": 13941,
  "Since": 13942,
  "imeters": 13945,
  "Ġnel": 13946,
  "ipher": 13947,
  "tery": 13948,
  "ups": 13953,
  "ĠOxford": 13955,
  "Ġlies": 13956,
  "Ġdisorder": 13957,
  "Ġsixty": 13961,
  "rapeut": 13963,
  "Ġye": 13965,
  "ĠOrder": 13966,
  "irus": 13967,
  "KE": 13969,
  "rod": 13971,
  "ĠAtl": 13972,
  "Ġarchitecture": 13973,
  "Ġstrategic": 13974,
  "rary": 13975,
  "Ġillness": 13976,
  "Ġimmune": 13977,
  "Expl": 13978,
  "vertisement": 13979,
  "Ġexception": 13981,
  "tical": 13982,
  "ĠRom": 13983,
  "Ġflood": 13987,
  "ande": 13988,
  "Ġlicens": 13990,
  "cias": 13993,
  "ulin": 13996,
  "ĠLevel": 13999,
  "Ġhonest": 14001,
  "partial": 14004,
  "Ġincred": 14005,
  "Journal": 14006,
  "Ġmic": 14009,
  "ede": 14010,
  "Ġbattery": 14011,
  "Ġisland": 14012,
  "edge": 14013,
  "Ġpossibly": 14016,
  "omal": 14018,
  "Ġkinds": 14021,
  "Ġsigned": 14023,
  "Ġtells": 14024,
  "zz": 14026,
  "arios": 14028,
  "ĠAustralian": 14030,
  "Ġreverse": 14031,
  "ĠTake": 14033,
  "orted": 14035,
  "Ġassigned": 14037,
  "Ġproportion": 14038,
  "irection": 14040,
  "Ġhorm": 14044,
  "uli": 14045,
  "Ġmine": 14046,
  "ĠPosts": 14050,
  "Ġprogramming": 14051,
  "Ġbah": 14052,
  "VI": 14053,
  "Ġtidak": 14054,
  "Ġgrass": 14057,
  "Ġconsideration": 14058,
  "ĠArray": 14060,
  "Ġintellect": 14061,
  "mid": 14062,
  "Ġdar": 14063,
  "Ġsad": 14064,
  "bu": 14066,
  "Ġcontro": 14067,
  "Ġschedule": 14069,
  "Ġsensitive": 14071,
  "Order": 14073,
  "Ġnp": 14074,
  "rates": 14075,
  "inson": 14076,
  "plot": 14077,
  "Ġfeels": 14078,
  "Ġdiabetes": 14081,
  "Ġdraft": 14083,
  "Ġhall": 14085,
  "Ġhan": 14086,
  "Ġsmile": 14088,
  "ĠTre": 14090,
  "Ġcentre": 14092,
  "ĠEN": 14093,
  "Override": 14094,
  "Ġrural": 14095,
  "Ġconsumers": 14096,
  "Ġmere": 14097,
  "Ġraw": 14099,
  "ponents": 14100,
  "page": 14101,
  "endar": 14103,
  "Ġembodiment": 14106,
  "ĠDa": 14107,
  "Ġpassage": 14108,
  "Ġmeat": 14110,
  "Ġappar": 14111,
  "Ġpresents": 14112,
  "ĠÃ©s": 14113,
  "Ġvisible": 14114,
  "Ġtransformation": 14115,
  "Ġtrends": 14116,
  "Ġrecognize": 14122,
  "Ġtumor": 14123,
  "eed": 14124,
  "atre": 14125,
  "omial": 14126,
  "Ġworry": 14129,
  "Ġnutri": 14130,
  "sup": 14131,
  "Ġaccident": 14132,
  "Ġcalling": 14134,
  "eling": 14135,
  "ĠExec": 14136,
  "ukan": 14137,
  "Ġusual": 14139,
  "uten": 14140,
  "Ġalbum": 14143,
  "ALU": 14144,
  "ĠJewish": 14146,
  "isted": 14147,
  "Ġabsolute": 14148,
  "hm": 14150,
  "Ġintegrated": 14151,
  "Ġregulation": 14152,
  "ĠUk": 14153,
  "Ġcriminal": 14154,
  "author": 14155,
  "cientific": 14156,
  "ether": 14158,
  "ĠWeek": 14159,
  "Ġneither": 14160,
  "Ġapproved": 14163,
  "oga": 14166,
  "ITY": 14167,
  "Ġnatur": 14173,
  "ĠPlant": 14174,
  "Ġlayers": 14177,
  "Ġphoto": 14179,
  "Ġfans": 14182,
  "imo": 14183,
  "athy": 14186,
  "ĠSon": 14187,
  "Ġlogic": 14188,
  "Ġinvolving": 14191,
  "Ġseat": 14192,
  "ĠAT": 14193,
  "Ġperiods": 14194,
  "Ġdrawn": 14195,
  "Ġmeter": 14199,
  "circ": 14200,
  "orical": 14202,
  "ĠPay": 14203,
  "ublishing": 14204,
  "pg": 14207,
  "Ġauthorities": 14216,
  "Ġital": 14217,
  "ĠArchived": 14219,
  "Ġpip": 14220,
  "Ġlib": 14221,
  "Ġabund": 14227,
  "mathbb": 14229,
  "Ġadm": 14231,
  "ĠField": 14233,
  "itudes": 14234,
  "_C": 14235,
  "Red": 14238,
  "_F": 14239,
  "aved": 14240,
  "Ġsplit": 14241,
  "Ġpopulations": 14243,
  "ĠMaster": 14244,
  "Ġnob": 14246,
  "idation": 14247,
  "ĠItaly": 14251,
  "Ġbiological": 14252,
  "iture": 14253,
  "Ġrelief": 14254,
  "udo": 14255,
  "insert": 14256,
  "Ġbrings": 14257,
  "Ġextension": 14261,
  "Ġfilms": 14263,
  "BD": 14265,
  "ĠSat": 14266,
  "Ġmembrane": 14267,
  "terior": 14268,
  "Ġdisorders": 14269,
  "Ġcomfortable": 14270,
  "Ġcorrel": 14273,
  "etal": 14274,
  "Ã¥n": 14275,
  "Ġuniverse": 14277,
  "tab": 14278,
  "Ġgrad": 14279,
  "Ġmessages": 14280,
  "Ġupd": 14281,
  "Ac": 14283,
  "Ġconstraint": 14284,
  "life": 14285,
  "Ġbacteria": 14287,
  "ĠCambridge": 14288,
  "amine": 14290,
  "ĠAccount": 14292,
  "Ġpreparation": 14293,
  "Ġmu": 14294,
  "ĠSpace": 14295,
  "ĠLight": 14297,
  "Ġassign": 14299,
  "cerning": 14300,
  "stra": 14302,
  "Ġcompetitive": 14303,
  "Ġreserv": 14306,
  "Ġdepression": 14307,
  "Ġsteel": 14308,
  "itage": 14310,
  "ilon": 14312,
  "Ġdenomin": 14314,
  "Ġimplemented": 14315,
  "Ġtag": 14316,
  "Ġobser": 14317,
  "Ġcommission": 14318,
  "Ġsubsequent": 14319,
  "aires": 14321,
  "Ġstem": 14322,
  "Ġextensive": 14325,
  "Ġpassing": 14327,
  "Ġconvertion": 14328,
  "Ġexplo": 14330,
  "Ġrealized": 14338,
  "Description": 14340,
  "Ġturning": 14342,
  "Ġkne": 14343,
  "search": 14346,
  "draw": 14347,
  "Ġexposed": 14348,
  "Ġflight": 14349,
  "Ġcircul": 14351,
  "tn": 14352,
  "Ġvous": 14353,
  "Ġoptical": 14354,
  "ĠNode": 14355,
  "Ġcars": 14356,
  "Ġputting": 14359,
  "number": 14360,
  "ĠInteg": 14362,
  "Ġflag": 14364,
  "Ġdit": 14365,
  "ĠDC": 14366,
  "sten": 14367,
  "Ġcubic": 14368,
  "Public": 14369,
  "clusions": 14370,
  "yo": 14371,
  "Ġscientists": 14374,
  "ĠPages": 14375,
  "Ġgrown": 14376,
  "ulo": 14377,
  "okes": 14378,
  "lets": 14379,
  "Ġdedicated": 14381,
  "nero": 14385,
  "ĠCivil": 14386,
  "Ġmolecules": 14387,
  "ĠMusic": 14388,
  "Ġofficers": 14389,
  "ĠYoung": 14390,
  "gun": 14391,
  "Ps": 14393,
  "Ġwine": 14394,
  "ĠAssess": 14395,
  "Ġadopted": 14398,
  "ĠJob": 14400,
  "ĠYet": 14402,
  "Ġworse": 14403,
  "Ġbei": 14404,
  "Ġimmediate": 14405,
  "Ġconventional": 14406,
  "acional": 14407,
  "Ġtempor": 14408,
  "Ġpandemic": 14409,
  "Ġhidden": 14414,
  "odo": 14415,
  "Ġattacks": 14416,
  "Ġcort": 14417,
  "ĠHor": 14421,
  "Ġlect": 14422,
  "UI": 14423,
  "Ġbirds": 14426,
  "was": 14428,
  "Ġreactions": 14429,
  "ĠBra": 14430,
  "ĠFire": 14432,
  "Ġfoundation": 14433,
  "ĠDid": 14434,
  "ideos": 14435,
  "Ġscholars": 14436,
  "ĠSea": 14438,
  "GC": 14439,
  "John": 14441,
  "Ġshell": 14444,
  "Ġattached": 14445,
  "Cor": 14446,
  "ĠKind": 14448,
  "Ġsupports": 14449,
  "Ġmoments": 14450,
  "Ġyes": 14452,
  "Ġserves": 14455,
  "Ġemotions": 14457,
  "Ġconnections": 14458,
  "Ġcounsel": 14459,
  "ĠKingdom": 14460,
  "rell": 14463,
  "Ġboolean": 14468,
  "Ġsick": 14469,
  "Ġidentification": 14470,
  "Ġincident": 14471,
  "ĠPractice": 14472,
  "Ġduration": 14473,
  "ching": 14474,
  "AF": 14475,
  "igin": 14477,
  "ĠFunction": 14478,
  "json": 14479,
  "Ġboys": 14480,
  "razil": 14481,
  "otation": 14482,
  "fast": 14484,
  "Ġnodes": 14485,
  "Ġlots": 14487,
  "contain": 14489,
  "ĠReact": 14490,
  "herent": 14492,
  "ĠNext": 14493,
  "idades": 14494,
  "Ġneur": 14496,
  "Ġcontribution": 14498,
  "ĠEll": 14499,
  "Ġscores": 14500,
  "Ġbio": 14502,
  "quis": 14504,
  "Hel": 14505,
  "mand": 14506,
  "ĠBible": 14507,
  "Ġpartnership": 14509,
  "ĠHaw": 14510,
  "ĠINTO": 14511,
  "rans": 14513,
  "Ġhyd": 14515,
  "acer": 14516,
  "avel": 14517,
  "Ġloan": 14518,
  "Ġdynamics": 14520,
  "ĠIndones": 14521,
  "Ġrail": 14523,
  "Ġstrict": 14528,
  "IX": 14530,
  "Ġbranch": 14531,
  "Ġmassive": 14534,
  "Open": 14540,
  "Ġcontained": 14541,
  "poon": 14542,
  "ĠWall": 14543,
  "Ġneck": 14544,
  "Ġlig": 14547,
  "Ġpartners": 14550,
  "Ġsole": 14551,
  "Ġparte": 14558,
  "ĠpH": 14559,
  "Ġstorm": 14560,
  "ĠMrs": 14563,
  "Ġshel": 14564,
  "aba": 14566,
  "ĠJoseph": 14567,
  "_B": 14568,
  "Ġeiner": 14569,
  "ĠAC": 14570,
  "ĠHospital": 14575,
  "Ġposit": 14579,
  "Ġconscious": 14580,
  "essions": 14582,
  "ĠBooks": 14583,
  "ĠFalse": 14584,
  "Ġbread": 14586,
  "args": 14588,
  "Ġpowers": 14589,
  "Ġcomposed": 14591,
  "inh": 14593,
  "Ġspoke": 14595,
  "person": 14596,
  "dev": 14599,
  "ĠSpecies": 14600,
  "roud": 14601,
  "Ġongoing": 14602,
  "Ġobservations": 14605,
  "cies": 14606,
  "sim": 14608,
  "oston": 14609,
  "Ġcolle": 14611,
  "ogram": 14614,
  "ĠWang": 14616,
  "ĠRen": 14619,
  "Ġgun": 14621,
  "Module": 14623,
  "upyter": 14624,
  "Ġcandidate": 14626,
  "Ġmga": 14627,
  "Ġposts": 14628,
  "Ġusage": 14629,
  "tan": 14634,
  "Ġimplications": 14635,
  "Ġholid": 14636,
  "chem": 14637,
  "iko": 14638,
  "ĠKen": 14640,
  "ERE": 14641,
  "ĠBritain": 14642,
  "RNA": 14644,
  "ĠStandard": 14645,
  "holder": 14646,
  "Ġrapidly": 14647,
  "Ġvolunte": 14649,
  "ĠWhether": 14650,
  "aylor": 14651,
  "Ġorders": 14653,
  "Ġseventy": 14657,
  "ĠCancer": 14658,
  "Ġsono": 14659,
  "vere": 14660,
  "Ġmechanical": 14661,
  "Ġbanks": 14664,
  "ĠLearn": 14665,
  "ĠLicense": 14667,
  "Link": 14668,
  "Ġweekend": 14669,
  "OU": 14671,
  "Ġcyt": 14672,
  "ĠFac": 14673,
  "Ġmurder": 14674,
  "ĠHim": 14675,
  "ĠRest": 14676,
  "Ġassembly": 14677,
  "udi": 14680,
  "Ġdangerous": 14681,
  "ologist": 14686,
  "ighter": 14687,
  "etics": 14688,
  "ĠCurrent": 14689,
  "ellen": 14691,
  "Ġflowers": 14692,
  "Ġpulled": 14694,
  "yer": 14696,
  "Ġfractions": 14697,
  "Ġquantity": 14700,
  "Ġinvestors": 14701,
  "ĠWorksheet": 14702,
  "Ġinterpretation": 14703,
  "Ġmodified": 14705,
  "base": 14707,
  "ĠVe": 14709,
  "war": 14710,
  "Ġvor": 14711,
  "Ġmoves": 14712,
  "esse": 14714,
  "chron": 14715,
  "conds": 14716,
  "Ġdirected": 14717,
  "ĠSep": 14722,
  "ĠSeries": 14723,
  "Ġtall": 14725,
  "expected": 14728,
  "Ġao": 14729,
  "emos": 14730,
  "rine": 14731,
  "ĠComputer": 14733,
  "lib": 14734,
  "Many": 14737,
  "Ġexpensive": 14738,
  "ĠTree": 14739,
  "Ġunable": 14740,
  "Ġdetermining": 14741,
  "Ġgate": 14742,
  "Ġpreferred": 14743,
  "uid": 14744,
  "Ġfault": 14745,
  "ĠHot": 14746,
  "Ġcharacterized": 14747,
  "ĠNS": 14748,
  "ĠUnit": 14749,
  "ropical": 14751,
  "GA": 14752,
  "owing": 14753,
  "Ġbless": 14757,
  "ISBN": 14758,
  "Ġbij": 14761,
  "github": 14765,
  "Ġcollaboration": 14766,
  "Ġbon": 14767,
  "Ġexpectations": 14768,
  "Ġcutting": 14770,
  "ensor": 14772,
  "ĠAcademy": 14773,
  "Ġdiscl": 14774,
  "ĠDaniel": 14775,
  "wing": 14776,
  "Ġdelle": 14777,
  "mg": 14780,
  "ĠStudent": 14782,
  "Min": 14783,
  "Ġhydrogen": 14786,
  "sigma": 14787,
  "adv": 14788,
  "Ġpartial": 14790,
  "she": 14791,
  "Ġicon": 14792,
  "ĠLat": 14794,
  "west": 14795,
  "Ġmetabol": 14796,
  "abulary": 14797,
  "Ġdose": 14799,
  "ĠLtd": 14800,
  "ĠMD": 14801,
  "Ġparticipation": 14802,
  "Ġpapers": 14803,
  "framework": 14804,
  "Ġtrouble": 14805,
  "har": 14806,
  "aped": 14807,
  "Ġboost": 14808,
  "Ġaims": 14810,
  "FT": 14811,
  "Ġmanip": 14812,
  "Ġreliable": 14814,
  "ĠBlue": 14817,
  "Delete": 14818,
  "Ġaccordance": 14819,
  "Ġteeth": 14821,
  "Ġpolar": 14822,
  "Ġuit": 14824,
  "ilipp": 14825,
  "Just": 14827,
  "Ġobst": 14828,
  "ĠSpirit": 14830,
  "Ġcoach": 14831,
  "Ġbis": 14832,
  "ĠHead": 14833,
  "Ġdur": 14834,
  "Ġultimately": 14835,
  "mond": 14837,
  "Ġenjoyed": 14838,
  "Ġjudge": 14839,
  "Ġpassword": 14841,
  "Ġversus": 14842,
  "ĠNature": 14844,
  "Ġedition": 14845,
  "Ġgel": 14846,
  "Ġreporting": 14847,
  "ĠGi": 14850,
  "option": 14851,
  "Ġlessons": 14852,
  "rak": 14854,
  "ihan": 14855,
  "Ġbien": 14856,
  "Ġengagement": 14857,
  "ĠOs": 14860,
  "rades": 14862,
  "merican": 14863,
  "Ġfran": 14870,
  "asar": 14874,
  "ĠBefore": 14875,
  "Ġheter": 14876,
  "oder": 14880,
  "Ġforma": 14881,
  "imary": 14883,
  "Use": 14885,
  "rif": 14886,
  "height": 14888,
  "Ġblocks": 14889,
  "Ġtranslation": 14891,
  "adt": 14893,
  "Ġoral": 14894,
  "rowth": 14896,
  "ĠpiÃ¹": 14897,
  "Ġdependent": 14898,
  "Ġintensity": 14899,
  "Ġpin": 14900,
  "Ġdefe": 14901,
  "Ġarguments": 14904,
  "Ġfly": 14906,
  "Token": 14907,
  "Ġanticip": 14908,
  "ĠIran": 14909,
  "Ġcompos": 14911,
  "emon": 14913,
  "Ġserving": 14914,
  "ĠLove": 14920,
  "orem": 14921,
  "fin": 14922,
  "EA": 14924,
  "Ġath": 14927,
  "lder": 14929,
  "Ġtrigger": 14930,
  "ĠGall": 14931,
  "ynt": 14932,
  "Ġaudio": 14934,
  "ĠLow": 14935,
  "Gen": 14938,
  "rating": 14940,
  "ALUES": 14942,
  "ĠJim": 14943,
  "Ġbath": 14946,
  "ĠHu": 14947,
  "Ġcel": 14951,
  "Ġnutrition": 14952,
  "Ġcorporate": 14953,
  "Ġquad": 14955,
  "Mon": 14956,
  "ĠRh": 14957,
  "Ġbutter": 14958,
  "Two": 14959,
  "Ġcapture": 14961,
  "Find": 14965,
  "Title": 14966,
  "Ġsyndrome": 14968,
  "Ġdass": 14969,
  "bles": 14971,
  "Ġstruggle": 14975,
  "Intern": 14978,
  "default": 14979,
  "Ġadmin": 14980,
  "Ġram": 14982,
  "ĠCall": 14983,
  "aws": 14986,
  "indow": 14988,
  "det": 14990,
  "INSERT": 14991,
  "Ġsought": 14992,
  "Ġthreshold": 14993,
  "noon": 14994,
  "Ġapplicable": 14996,
  "ĠImage": 14997,
  "ĠChild": 14999,
  "Ġhorse": 15000,
  "Ġparticipate": 15005,
  "Ġduty": 15006,
  "ocracy": 15008,
  "orney": 15010,
  "Ġpeak": 15011,
  "Ġcontainer": 15012,
  "Ġps": 15014,
  "Ġgru": 15015,
  "Ġlaunch": 15020,
  "Ġgrew": 15021,
  "Ġlowest": 15022,
  "ĠCrit": 15024,
  "ĠMethods": 15025,
  "Ġrealize": 15026,
  "occ": 15029,
  "Ġthermal": 15031,
  "big": 15032,
  "Ġdebate": 15033,
  "Ġaccommod": 15035,
  "este": 15036,
  "ĠTour": 15037,
  "ĠDownload": 15040,
  "GE": 15042,
  "Ġdys": 15043,
  "ikk": 15045,
  "Ġexcited": 15046,
  "Ġmovements": 15048,
  "andon": 15049,
  "Ġinfo": 15051,
  "Ġdurch": 15052,
  "Ġenvironments": 15053,
  "Ġagencies": 15054,
  "Gl": 15055,
  "istant": 15059,
  "ĠPath": 15062,
  "enger": 15063,
  "Ġfi": 15065,
  "Ġmater": 15067,
  "Although": 15068,
  "Ġtelling": 15070,
  "Ġsubstance": 15074,
  "Ġextreme": 15075,
  "ottom": 15076,
  "bro": 15077,
  "Group": 15079,
  "Ġliver": 15080,
  "charge": 15082,
  "Ġnecessarily": 15084,
  "Ġtout": 15088,
  "Ġabstract": 15089,
  "Ġfing": 15092,
  "_to": 15093,
  "Ġlang": 15096,
  "ĠStar": 15097,
  "ĠSaint": 15099,
  "Category": 15100,
  "Ġgent": 15104,
  "Ġwest": 15106,
  "nis": 15108,
  "Ġwaves": 15110,
  "Ġexamine": 15111,
  "Ġfurn": 15112,
  "idi": 15113,
  "Ġclot": 15114,
  "mediate": 15117,
  "undo": 15122,
  "prene": 15123,
  "Ang": 15125,
  "Ġgeb": 15127,
  "Ġartists": 15129,
  "bed": 15130,
  "Ġtea": 15131,
  "Ġsuperior": 15132,
  "_type": 15136,
  "ĠPak": 15139,
  "azz": 15140,
  "Ġecosystem": 15141,
  "Ġchest": 15142,
  "ĠBell": 15143,
  "Ġsul": 15144,
  "Ġthorough": 15146,
  "Ġowners": 15151,
  "Ġpes": 15152,
  "iatric": 15153,
  "Ġurl": 15156,
  "Ġspr": 15157,
  "Ġtent": 15162,
  "Ġdelivered": 15163,
  "unit": 15165,
  "Est": 15167,
  "ĠCup": 15168,
  "ĠEt": 15169,
  "Ġcreates": 15170,
  "Dep": 15172,
  "ahl": 15173,
  "Ġsentences": 15174,
  "Ġbare": 15175,
  "Ġlift": 15176,
  "ĠAk": 15177,
  "Ġhung": 15179,
  "Ġlung": 15180,
  "ĠSource": 15184,
  "Ġstrongly": 15187,
  "ĠPL": 15188,
  "ĠIre": 15192,
  "Ġaer": 15194,
  "odium": 15195,
  "Ġfacing": 15199,
  "Ġadvantages": 15200,
  "ĠArmy": 15201,
  "Ġmice": 15202,
  "cers": 15204,
  "Check": 15205,
  "card": 15207,
  "Ġapparatus": 15208,
  "Stream": 15210,
  "vision": 15214,
  "Ġrub": 15215,
  "uct": 15216,
  "ĠEin": 15218,
  "lie": 15223,
  "ĠEarly": 15225,
  "Pat": 15229,
  "ĠResources": 15230,
  "Ġreplacement": 15231,
  "ĠExamples": 15233,
  "Ġjug": 15237,
  "ĠSummary": 15239,
  "ĠFar": 15240,
  "ĠManager": 15242,
  "missions": 15244,
  "Ġjak": 15247,
  "enti": 15248,
  "Ġfinds": 15249,
  "erk": 15250,
  "ĠPython": 15255,
  "ĠCanadian": 15256,
  "agues": 15258,
  "Ġsimult": 15261,
  "ĠKim": 15262,
  "Ġmathematics": 15263,
  "Ġniet": 15266,
  "Ġengaging": 15267,
  "Ġundert": 15270,
  "Ġfu": 15271,
  "ĠBul": 15272,
  "Ġeighty": 15274,
  "rep": 15277,
  "uen": 15280,
  "Ġexplicit": 15281,
  "ĠSov": 15283,
  "Ġcomprising": 15286,
  "hn": 15288,
  "Ġarmy": 15291,
  "Ġrepair": 15292,
  "Ġsubstantial": 15293,
  "gers": 15294,
  "Ġcompliance": 15295,
  "Ġschedul": 15297,
  "Ġrevers": 15298,
  "Ġconserv": 15299,
  "emble": 15300,
  "ĠRoyal": 15301,
  "ĠComment": 15302,
  "pie": 15303,
  "Ġabuse": 15305,
  "Ġcoal": 15307,
  "Ġvisited": 15313,
  "Ġdinner": 15314,
  "ĠHave": 15315,
  "ractions": 15317,
  "Ġordered": 15320,
  "lights": 15322,
  "ulus": 15324,
  "ĠAge": 15326,
  "oren": 15327,
  "response": 15329,
  "ĠPlace": 15330,
  "uits": 15331,
  "Ġconfigure": 15335,
  "Ġexecutive": 15339,
  "Ġforecast": 15340,
  "Ġalla": 15342,
  "apse": 15344,
  "Ġestate": 15345,
  "ployee": 15346,
  "lymp": 15347,
  "Ġkitchen": 15350,
  "oven": 15352,
  "ĠChief": 15353,
  "ASE": 15354,
  "ĠestÃ¡": 15355,
  "URL": 15356,
  "eff": 15357,
  "Ã±os": 15359,
  "Ġconcrete": 15360,
  "ĠWrite": 15361,
  "Ġparagraph": 15363,
  "Art": 15364,
  "ĠPrice": 15366,
  "Ġcharged": 15370,
  "ĠCompar": 15377,
  "Ġorganized": 15378,
  "non": 15379,
  "ĠCond": 15380,
  "ircraft": 15381,
  "Where": 15382,
  "ĠHard": 15383,
  "Ġeffectiveness": 15385,
  "OG": 15387,
  "Ġasp": 15388,
  "Ġcommittee": 15389,
  "Ġmillions": 15390,
  "Ġshop": 15391,
  "Ġdetermination": 15394,
  "Builder": 15395,
  "Ġcharges": 15396,
  "ĠTrump": 15397,
  "Ġbug": 15398,
  "stone": 15399,
  "Ġautomatically": 15400,
  "ynamic": 15401,
  "Ġpag": 15402,
  "ĠJones": 15404,
  "Ġreson": 15407,
  "inar": 15409,
  "Location": 15411,
  "Ġacute": 15412,
  "Ġcontributions": 15413,
  "ĠNeuro": 15414,
  "HP": 15416,
  "Ġobjectives": 15417,
  "Ġterror": 15418,
  "oric": 15421,
  "earing": 15423,
  "Ġcorrelation": 15427,
  "Ġplatforms": 15431,
  "ĠPed": 15432,
  "Ġlegisl": 15433,
  "Case": 15434,
  "FR": 15435,
  "Ġconcerning": 15436,
  "Ġexamination": 15439,
  "Ġzur": 15440,
  "Ġspectrum": 15441,
  "Ġobj": 15443,
  "False": 15444,
  "ĠCL": 15449,
  "Ġmerely": 15450,
  "Ġmenu": 15451,
  "Ġnoun": 15454,
  "Phone": 15455,
  "ĠNotes": 15467,
  "ruption": 15468,
  "ĠDar": 15470,
  "Ġsomewhat": 15471,
  "Ġmanaging": 15473,
  "Ġplanned": 15474,
  "Sl": 15475,
  "Ġpublication": 15476,
  "Ġregularly": 15478,
  "after": 15479,
  "Which": 15480,
  "ORD": 15481,
  "cu": 15483,
  "Ġreplaced": 15484,
  "break": 15485,
  "ruits": 15486,
  "ĠÂµg": 15487,
  "oded": 15488,
  "Ġba": 15489,
  "Ġinfer": 15490,
  "UP": 15492,
  "cout": 15493,
  "ĠProfessor": 15494,
  "ĠStock": 15496,
  "Ġrod": 15497,
  "ELECT": 15499,
  "ĠMO": 15502,
  "SON": 15503,
  "gression": 15504,
  "Ġfirms": 15505,
  "ĠCentre": 15508,
  "Ġsubstit": 15509,
  "Ġbelief": 15510,
  "ĠWilliams": 15513,
  "static": 15514,
  "ĠMas": 15517,
  "Ġscr": 15518,
  "aland": 15519,
  "Ġsua": 15520,
  "Ã±o": 15521,
  "ĠNY": 15522,
  "Ġreput": 15524,
  "Ġinstruct": 15526,
  "Ġsig": 15527,
  "Vis": 15528,
  "Ġhole": 15534,
  "rin": 15535,
  "Ġdriven": 15538,
  "Ġcalculation": 15540,
  "idget": 15541,
  "Ġdwt": 15544,
  "iller": 15545,
  "Ġinvolve": 15546,
  "ĠCopyright": 15547,
  "nik": 15549,
  "SCR": 15553,
  "Ġanc": 15556,
  "ĠBased": 15557,
  "BB": 15558,
  "Ġanalyt": 15560,
  "Ġpit": 15561,
  "ĠBes": 15562,
  "Ġoct": 15564,
  "ĠUnderstanding": 15565,
  "empty": 15566,
  "Ġlistening": 15567,
  "Ġoriginally": 15568,
  "MENT": 15569,
  "Ġocean": 15571,
  "Ġstatistics": 15572,
  "ĠPartic": 15574,
  "Ġextend": 15575,
  "ANT": 15576,
  "Ġbringing": 15579,
  "ĠSoc": 15582,
  "Ġlimitations": 15588,
  "Ġpointed": 15589,
  "Ġyounger": 15590,
  "acent": 15591,
  "Format": 15593,
  "ĠTrust": 15594,
  "ivities": 15595,
  "Ġalgorithms": 15598,
  "Ġcomplexity": 15599,
  "ĠAppro": 15600,
  "ski": 15602,
  "Ġbeat": 15603,
  "Pass": 15604,
  "Ġtemplate": 15605,
  "Ġmultipl": 15606,
  "Ġretail": 15607,
  "Ġemissions": 15610,
  "igo": 15612,
  "Ġfut": 15615,
  "Ġunion": 15616,
  "inte": 15618,
  "Ġsolo": 15619,
  "Ġincl": 15621,
  "Ġstrengthen": 15624,
  "printf": 15626,
  "Query": 15628,
  "ĠFactors": 15629,
  "jud": 15630,
  "raine": 15632,
  "erior": 15633,
  "ĠSym": 15635,
  "Ġtrading": 15640,
  "onder": 15641,
  "Ġimaging": 15642,
  "FS": 15643,
  "Ġcandidates": 15644,
  "Ġchannels": 15645,
  "Ġric": 15647,
  "Ġwarn": 15648,
  "Ġguy": 15650,
  "embre": 15654,
  "ĠCatholic": 15655,
  "Action": 15656,
  "Sm": 15660,
  "fty": 15661,
  "eping": 15663,
  "omatic": 15665,
  "Ġapplying": 15666,
  "Ġak": 15667,
  "Ġindustries": 15668,
  "rolled": 15669,
  "een": 15671,
  "ĠAPI": 15673,
  "aza": 15674,
  "Ġhaz": 15675,
  "achel": 15677,
  "asts": 15678,
  "ĠWild": 15679,
  "irement": 15681,
  "ĠBrazil": 15682,
  "ĠTheory": 15683,
  "car": 15684,
  "oice": 15686,
  "ĠIL": 15687,
  "context": 15689,
  "asta": 15691,
  "chaft": 15694,
  "Ġatau": 15695,
  "acci": 15697,
  "ĠMah": 15698,
  "Ġeveryday": 15699,
  "afe": 15702,
  "ĠAction": 15703,
  "Ġpenal": 15704,
  "BO": 15707,
  "osh": 15708,
  "Ġclock": 15714,
  "MR": 15715,
  "node": 15717,
  "Http": 15718,
  "run": 15721,
  "Ġnous": 15722,
  "Hist": 15723,
  "Ġmusical": 15726,
  "ĠClin": 15727,
  "ĠThose": 15728,
  "Ġcovers": 15736,
  "values": 15737,
  "Ġmoist": 15738,
  "Ġaccessible": 15739,
  "Ġfur": 15740,
  "Ġengaged": 15741,
  "ĠGar": 15742,
  "Ġneutral": 15744,
  "ĠBern": 15745,
  "iral": 15746,
  "Ġsummar": 15747,
  "ĠJustice": 15748,
  "Publisher": 15750,
  "actor": 15753,
  "ĠDise": 15755,
  "Ġdetected": 15756,
  "Ġacting": 15757,
  "Ġtelevision": 15758,
  "ĠRight": 15759,
  "Ġcrypt": 15763,
  "Ġdiameter": 15764,
  "ĠFA": 15766,
  "Ġdeeper": 15768,
  "Ġpromise": 15769,
  "Ġyards": 15770,
  "ĠAmazon": 15772,
  "ĠPur": 15776,
  "ĠSE": 15777,
  "Ġimagine": 15778,
  "haust": 15779,
  "Ġcream": 15780,
  "Ġcha": 15782,
  "Ġprovision": 15784,
  "Ġarbit": 15785,
  "ĠPaper": 15789,
  "Tree": 15791,
  "Ġcorrectly": 15792,
  "aret": 15793,
  "Ġfacility": 15794,
  "Ġessay": 15795,
  "Ġinvestigate": 15797,
  "rait": 15799,
  "ABLE": 15800,
  "atie": 15802,
  "Ġroutine": 15805,
  "ĠFather": 15807,
  "_g": 15810,
  "zione": 15811,
  "ĠPacific": 15813,
  "ĠMit": 15814,
  "Ġexpenses": 15815,
  "ieren": 15816,
  "ĠKil": 15817,
  "Ġlaun": 15819,
  "isd": 15820,
  "esterday": 15821,
  "Ġsongs": 15822,
  "ĠCN": 15823,
  "ĠBasic": 15824,
  "Ġcultures": 15825,
  "Ġoperate": 15826,
  "abeth": 15827,
  "Ġcomme": 15830,
  "ĠSuppose": 15832,
  "Ġingredients": 15833,
  "Ġandroid": 15838,
  "ĠMap": 15840,
  "Ġdecreased": 15842,
  "Ġmarks": 15844,
  "ĠNat": 15845,
  "Ġrecommendations": 15846,
  "Ġinters": 15848,
  "Ġnormally": 15850,
  "Ġrising": 15852,
  "Method": 15855,
  "Ġradius": 15857,
  "Ġfaced": 15859,
  "Ġsle": 15860,
  "Ġdecline": 15861,
  "Ġproducing": 15863,
  "section": 15865,
  "izations": 15866,
  "ibl": 15869,
  "ĠEconomic": 15871,
  "Ġpreval": 15872,
  "Ġcontemporary": 15874,
  "Ġeggs": 15876,
  "oca": 15877,
  "ĠImpact": 15878,
  "omain": 15880,
  "ĠTown": 15882,
  "Each": 15884,
  "Ġhonor": 15886,
  "process": 15888,
  "ĠEnvironmental": 15889,
  "Ġhybrid": 15890,
  "float": 15891,
  "ĠBon": 15892,
  "neg": 15893,
  "phabet": 15897,
  "Delta": 15898,
  "Ver": 15899,
  "zes": 15901,
  "Ġdealing": 15902,
  "ename": 15903,
  "Entity": 15906,
  "ĠDespite": 15907,
  "ĠHIV": 15908,
  "cciÃ³n": 15910,
  "acity": 15912,
  "Ġrecon": 15915,
  "INT": 15918,
  "Ġshapes": 15919,
  "ĠAud": 15920,
  "Ġdisput": 15922,
  "SL": 15923,
  "Ġouter": 15924,
  "ĠFinancial": 15925,
  "Ġelectricity": 15927,
  "ĠEnero": 15929,
  "ORT": 15930,
  "Ãªncia": 15931,
  "Ġdict": 15932,
  "Ġnewsp": 15933,
  "DU": 15935,
  "Ġfiled": 15937,
  "Ġsuddenly": 15939,
  "Ġchlor": 15940,
  "Ġpert": 15941,
  "Ġwheel": 15942,
  "nu": 15943,
  "Ġdescript": 15944,
  "Volume": 15947,
  "ĠNut": 15949,
  "Any": 15951,
  "Ġcharacteristic": 15952,
  "Ġconstitution": 15958,
  "ĠLead": 15959,
  "Calcul": 15963,
  "aneously": 15964,
  "Ġsharp": 15965,
  "Ġtone": 15967,
  "ainer": 15968,
  "Ġreserved": 15969,
  "uffer": 15973,
  "legal": 15975,
  "Script": 15976,
  "dr": 15979,
  "Ġinflation": 15981,
  "Ġsucceed": 15982,
  "Ġdir": 15983,
  "ĠFoot": 15984,
  "Ġdifficulty": 15985,
  "Ġbridge": 15986,
  "Ġinnovative": 15988,
  "Ġassumed": 15990,
  "elles": 15992,
  "ĠArts": 15993,
  "Ġchildhood": 15995,
  "undle": 15997,
  "izar": 15998,
  "Ġplug": 16001,
  "atar": 16002,
  "Ġsouthern": 16003,
  "MI": 16004,
  "Ġfaces": 16005,
  "Ġbran": 16007,
  "Ġaggreg": 16008,
  "Ġcapabilities": 16009,
  "Ġlegs": 16010,
  "plan": 16013,
  "bes": 16014,
  "Ġimpacts": 16018,
  "Ġcra": 16019,
  "Ġsuffering": 16021,
  "ĠMol": 16023,
  "alla": 16025,
  "Ġclaimed": 16026,
  "Ġexceed": 16027,
  "ĠShort": 16028,
  "Ġexport": 16029,
  "Posted": 16030,
  "Ġspatial": 16031,
  "ĠApple": 16032,
  "Ġmaxim": 16033,
  "Ġdelete": 16035,
  "rants": 16036,
  "Max": 16038,
  "icted": 16040,
  "Ġfighting": 16041,
  "null": 16042,
  "ths": 16043,
  "acks": 16044,
  "lichen": 16047,
  "update": 16051,
  "Ġacquis": 16052,
  "high": 16053,
  "Ġplenty": 16054,
  "Ġproviders": 16055,
  "Ġshut": 16056,
  "Ġexamined": 16058,
  "ĠStan": 16059,
  "SD": 16060,
  "leq": 16061,
  "Ġlicense": 16062,
  "Ġrobust": 16064,
  "Ġresulted": 16065,
  "ĠTitle": 16066,
  "ĠVirginia": 16069,
  "Ġrecording": 16071,
  "anna": 16072,
  "ĠSir": 16073,
  "zia": 16075,
  "Ġdia": 16076,
  "_i": 16077,
  "ĠMoon": 16078,
  "cf": 16079,
  "ologists": 16082,
  "elli": 16084,
  "ovÃ¡": 16085,
  "Ġinch": 16086,
  "ĉf": 16087,
  "ĠArea": 16088,
  "rik": 16089,
  "Ġentity": 16090,
  "Ã¼n": 16092,
  "Ġpermanent": 16093,
  "Ġexciting": 16095,
  "Ġvictory": 16100,
  "illy": 16102,
  "Sty": 16103,
  "athan": 16108,
  "Every": 16109,
  "Ġdiscount": 16110,
  "Ġeast": 16115,
  "ĠMcC": 16117,
  "Ġcere": 16119,
  "cium": 16120,
  "ĠWriting": 16121,
  "Sign": 16123,
  "Ġreward": 16124,
  "Ã¡m": 16125,
  "top": 16126,
  "Ġfees": 16127,
  "aden": 16129,
  "Ġblank": 16130,
  "weet": 16131,
  "only": 16132,
  "Ġseeds": 16134,
  "ĠSO": 16139,
  "Ġsaved": 16141,
  "Ġkick": 16143,
  "folio": 16144,
  "Ġnarrative": 16145,
  "Ġrice": 16150,
  "Ġestimates": 16152,
  "Ġacceler": 16155,
  "inf": 16156,
  "ĠPhot": 16158,
  "ĠRo": 16159,
  "Property": 16160,
  "Ġhotel": 16161,
  "Ġdance": 16163,
  "Ġmuse": 16164,
  "Ġabsorb": 16165,
  "Ġanalyze": 16166,
  "Ġlegislation": 16167,
  "ĠPag": 16168,
  "IZ": 16169,
  "Ġterminal": 16170,
  "Ġprovider": 16171,
  "ĠWat": 16173,
  "Ġderivative": 16174,
  "Ġhell": 16175,
  "through": 16176,
  "ĠJon": 16177,
  "Ġdecor": 16178,
  "Ġbought": 16180,
  "Ġdisturb": 16183,
  "ĠMuslim": 16184,
  "Most": 16186,
  "Ġwur": 16188,
  "Ġprogramme": 16189,
  "ctu": 16190,
  "igation": 16191,
  "Ġidentifying": 16192,
  "Ġradical": 16193,
  "Ġhouses": 16196,
  "Ġnations": 16197,
  "ĠSouthern": 16198,
  "Ġhurt": 16201,
  "Ġpromin": 16202,
  "Ġrose": 16205,
  "Ġcolour": 16206,
  "otted": 16207,
  "Ġtrials": 16209,
  "ogs": 16210,
  "itan": 16213,
  "iga": 16214,
  "Ġanalyses": 16217,
  "Example": 16221,
  "iative": 16223,
  "ĠValley": 16225,
  "Ġafternoon": 16232,
  "Ġbiom": 16233,
  "ĠRome": 16235,
  "Ġcommunicate": 16237,
  "lers": 16239,
  "ĠJeff": 16240,
  "Ġtheoretical": 16242,
  "Ġnoticed": 16243,
  "Que": 16247,
  "Ġconsent": 16248,
  "zÄħ": 16250,
  "iku": 16251,
  "ĠBoston": 16253,
  "omega": 16254,
  "MD": 16255,
  "istence": 16257,
  "Ġobservation": 16261,
  "Ġparad": 16262,
  "Ġalert": 16265,
  "acht": 16268,
  "Ġcarrying": 16269,
  "fix": 16270,
  "Ġprivacy": 16276,
  "Ġactivation": 16277,
  "ĠVALUES": 16278,
  "Ġanalyzed": 16280,
  "ĠMarg": 16281,
  "inction": 16282,
  "iratory": 16284,
  "ĠGer": 16285,
  "angers": 16286,
  "Ġexpertise": 16288,
  "iÄĻ": 16294,
  "Ġphilosophy": 16296,
  "ĠRod": 16297,
  "ĠHo": 16298,
  "Ġfiber": 16299,
  "ĠDou": 16302,
  "Ġvibr": 16304,
  "SCRIPT": 16306,
  "Bar": 16311,
  "Ġdecade": 16312,
  "Ġdefendant": 16313,
  "Ġintegral": 16315,
  "oids": 16316,
  "Ġpriority": 16317,
  "Ġleaf": 16319,
  "ands": 16324,
  "ĠHan": 16325,
  "Ġconcentrations": 16328,
  "ĠSus": 16329,
  "Ġdemands": 16330,
  "idas": 16332,
  "cn": 16333,
  "Ġhundreds": 16337,
  "Ġprincip": 16338,
  "Ġpayments": 16339,
  "Ġwelcome": 16340,
  "itate": 16341,
  "cha": 16342,
  "Ġevil": 16343,
  "Ġpsychological": 16345,
  "Ġadvert": 16347,
  "ĠIreland": 16352,
  "Ġpairs": 16354,
  "Ġregulatory": 16356,
  "cence": 16357,
  "ĠBob": 16358,
  "Ġlosses": 16360,
  "Ġich": 16363,
  "Ġenthus": 16364,
  "achment": 16365,
  "Ġelig": 16366,
  "etary": 16367,
  "awan": 16370,
  "Ġcareful": 16372,
  "zk": 16374,
  "aning": 16375,
  "Ġproud": 16376,
  "Ġasync": 16377,
  "owers": 16378,
  "ĠRam": 16379,
  "Ġrequirement": 16381,
  "ĠCT": 16382,
  "Ã¤nd": 16385,
  "plus": 16386,
  "Ġcrack": 16390,
  "Ġveter": 16391,
  "Ġperforming": 16392,
  "cludes": 16393,
  "Ġgluc": 16394,
  "Ġprze": 16397,
  "ĠSom": 16399,
  "EEE": 16400,
  "Ġml": 16401,
  "Ġeuro": 16403,
  "ogether": 16404,
  "Ġdropped": 16405,
  "Ġnamespace": 16406,
  "iste": 16407,
  "Ġescape": 16408,
  "AGE": 16412,
  "arters": 16416,
  "ĠDam": 16417,
  "iley": 16418,
  "ĠTask": 16420,
  "Create": 16421,
  "Even": 16422,
  "Ġalloc": 16423,
  "ango": 16424,
  "Ġdust": 16425,
  "Ġexplains": 16428,
  "Ġboundary": 16429,
  "Ġclimb": 16430,
  "ĠDeterm": 16431,
  "iert": 16436,
  "Ġexpon": 16439,
  "Ġmountain": 16440,
  "MB": 16443,
  "Ġdimension": 16444,
  "heit": 16445,
  "ĠSupreme": 16446,
  "otion": 16447,
  "zone": 16448,
  "ĠInteger": 16449,
  "ĠModern": 16450,
  "Ġclassic": 16453,
  "ĠEvent": 16454,
  "Ġevaluated": 16456,
  "imet": 16457,
  "rooms": 16458,
  "ĠSelf": 16463,
  "Ġmeal": 16464,
  "elly": 16466,
  "iological": 16470,
  "door": 16473,
  "aded": 16474,
  "Ġproved": 16477,
  "Ġsup": 16479,
  "Ã³g": 16480,
  "Ġbin": 16482,
  "rapeutic": 16483,
  "Ġoverw": 16485,
  "ĠMic": 16488,
  "theless": 16489,
  "elijk": 16490,
  "Download": 16492,
  "Ġinitially": 16494,
  "ĠHon": 16495,
  "Ġmask": 16496,
  "Ġartificial": 16500,
  "asters": 16501,
  "uda": 16502,
  "ounded": 16503,
  "ishment": 16504,
  "Ġpermit": 16506,
  "Ġintroduce": 16507,
  "Ġregistered": 16509,
  "ĠScot": 16513,
  "Ġinstant": 16515,
  "rica": 16516,
  "ĠPresent": 16517,
  "yes": 16520,
  "tml": 16522,
  "Ġstudying": 16523,
  "ĠCharl": 16524,
  "Ġbusy": 16527,
  "ĠColumb": 16529,
  "Ġworldwide": 16531,
  "asis": 16532,
  "Published": 16534,
  "urers": 16535,
  "Ġremind": 16536,
  "Ġthereby": 16537,
  "Ġtreatments": 16538,
  "conf": 16540,
  "nament": 16541,
  "Ġesta": 16542,
  "raid": 16543,
  "ĠThanks": 16544,
  "ritten": 16545,
  "Ġdimensions": 16546,
  "Ġrib": 16549,
  "block": 16555,
  "abb": 16556,
  "Ġstrain": 16559,
  "Aut": 16560,
  "Ġnorthern": 16561,
  "Change": 16563,
  "Ġguys": 16564,
  "Ġsurprise": 16567,
  "Ġdiscovery": 16570,
  "ilibrium": 16572,
  "Ġpropag": 16573,
  "rÃ³": 16575,
  "Ġtransportation": 16577,
  "ĠSD": 16578,
  "Ġintellectual": 16579,
  "Ġgranted": 16581,
  "ĠDecimal": 16582,
  "Ġhence": 16583,
  "Ġnotation": 16584,
  "HR": 16586,
  "URE": 16588,
  "ĠKn": 16589,
  "Ġgreatly": 16592,
  "Ġaimed": 16595,
  "dt": 16597,
  "oxy": 16598,
  "Ġinvestigated": 16599,
  "Once": 16600,
  "ĠSpain": 16603,
  "Ġbits": 16604,
  "Ġattempts": 16607,
  "Ġpregnancy": 16608,
  "Ġwinning": 16609,
  "Ġdop": 16611,
  "Ġcontents": 16612,
  "Ġtargets": 16613,
  "ĠCook": 16615,
  "ACK": 16617,
  "Ġride": 16618,
  "Ġreceptor": 16620,
  "tion": 16621,
  "Ġcurriculum": 16622,
  "Ġdirections": 16623,
  "ĠGraph": 16624,
  "Ġsubstrate": 16626,
  "Ġwis": 16629,
  "nh": 16633,
  "ÃŃst": 16634,
  "apes": 16635,
  "Ġfellow": 16636,
  "ificate": 16637,
  "Ġcontrovers": 16638,
  "ĠNumbers": 16639,
  "mult": 16640,
  "ĠCorporation": 16641,
  "Ġfo": 16642,
  "ĠFri": 16643,
  "ĠCarolina": 16646,
  "wart": 16648,
  "Ġrequests": 16649,
  "ĠApplic": 16650,
  "rh": 16651,
  "HD": 16654,
  "Ġiz": 16655,
  "Ġcoron": 16657,
  "ĠLeave": 16659,
  "ĠRNA": 16661,
  "Ġenhanced": 16662,
  "Ġabandon": 16663,
  "Ke": 16664,
  "Ġbias": 16665,
  "emat": 16666,
  "Ġflour": 16668,
  "rous": 16670,
  "Ġpig": 16672,
  "Es": 16675,
  "client": 16676,
  "liche": 16677,
  "Ġmaintained": 16678,
  "elih": 16679,
  "isen": 16682,
  "ĠViet": 16683,
  "cat": 16686,
  "Ġcette": 16687,
  "eman": 16689,
  "Ġtube": 16692,
  "Ġsurve": 16694,
  "ĠNever": 16696,
  "Right": 16697,
  "onto": 16699,
  "iej": 16701,
  "ĠShare": 16702,
  "eli": 16705,
  "Ġparticle": 16706,
  "born": 16707,
  "ĠFred": 16708,
  "Ġmorph": 16710,
  "Ġsensitivity": 16712,
  "ĠSelect": 16714,
  "Ġplasma": 16715,
  "Ġconstantly": 16716,
  "pol": 16717,
  "Ġhadn": 16719,
  "ĠJr": 16720,
  "fil": 16722,
  "Ġstatistical": 16724,
  "eras": 16725,
  "Ġagricultural": 16726,
  "Work": 16727,
  "Ġbil": 16731,
  "Ġacids": 16733,
  "Mr": 16735,
  "ĠSecretary": 16738,
  "asty": 16739,
  "ĠCub": 16744,
  "ologie": 16746,
  "Ġattitude": 16752,
  "Ġkl": 16753,
  "Ġaffects": 16754,
  "Ġtaxes": 16755,
  "atz": 16758,
  "ĠRa": 16759,
  "ilation": 16762,
  "Ġstores": 16765,
  "enÃŃ": 16766,
  "Ġequally": 16768,
  "ĠAsian": 16769,
  "Thread": 16770,
  "header": 16771,
  "Ġflo": 16773,
  "Ġcav": 16777,
  "ĠAgric": 16778,
  "Ġpermission": 16780,
  "Ġsynthesis": 16782,
  "Ġgly": 16784,
  "_POST": 16787,
  "Ġbigger": 16788,
  "Ġchose": 16789,
  "itled": 16791,
  "ĠLiber": 16793,
  "endment": 16795,
  "Ġremoval": 16800,
  "range": 16801,
  "riendly": 16802,
  "Ġadds": 16803,
  "Ġabsolutely": 16808,
  "During": 16810,
  "Ġevident": 16811,
  "Ġwatched": 16818,
  "Ġng": 16819,
  "Ġmeetings": 16820,
  "hire": 16822,
  "itals": 16823,
  "article": 16825,
  "ĠClinical": 16828,
  "Ġflexible": 16830,
  "ĠBour": 16832,
  "iah": 16833,
  "ĠBC": 16835,
  "Ġsurfaces": 16838,
  "Ġzum": 16840,
  "ĠAgain": 16841,
  "ĠLas": 16842,
  "oked": 16843,
  "Ġmeg": 16844,
  "Ġexecution": 16846,
  "Ġkann": 16847,
  "Ġprovisions": 16848,
  "Mar": 16849,
  "ĠCat": 16850,
  "Ġik": 16852,
  "ĠEvalu": 16853,
  "Ġale": 16854,
  "Current": 16856,
  "Under": 16858,
  "Ġfrust": 16859,
  "END": 16860,
  "ĠLew": 16861,
  "Ġstom": 16863,
  "Ġsimulation": 16864,
  "Ġarts": 16865,
  "nej": 16866,
  "ĠAndrew": 16867,
  "ĠAus": 16868,
  "ked": 16869,
  "ĠKar": 16870,
  "Sur": 16872,
  "Die": 16874,
  "ĠAstron": 16875,
  "Ġwra": 16877,
  "Ġinequ": 16878,
  "Ġalk": 16880,
  "ĠSwed": 16881,
  "Ġrepresenting": 16882,
  "Ġrender": 16883,
  "Ġshoulder": 16884,
  "Ġacknowled": 16885,
  "Ġcurrency": 16886,
  "gage": 16887,
  "ĠLittle": 16888,
  "ĠLeb": 16889,
  "Ġlists": 16893,
  "ologic": 16894,
  "Ġselling": 16896,
  "Ġexit": 16897,
  "Ġbeliefs": 16900,
  "itial": 16903,
  "Ġdestination": 16907,
  "imental": 16908,
  "Ġdip": 16911,
  "cribed": 16912,
  "Ġhypothesis": 16915,
  "Ġgovernments": 16916,
  "Home": 16920,
  "asant": 16921,
  "Ġages": 16922,
  "Column": 16927,
  "Ġpolymer": 16928,
  "Ġole": 16930,
  "uri": 16931,
  "lan": 16934,
  "Ġoun": 16936,
  "Ġrespective": 16938,
  "older": 16939,
  "aat": 16941,
  "roat": 16944,
  "Ġinfections": 16947,
  "rus": 16949,
  "ĠHoly": 16950,
  "Ġwal": 16952,
  "cio": 16953,
  "ĠfrÃ¥n": 16958,
  "Ġanswered": 16961,
  "ĠConstitution": 16962,
  "Ġwed": 16964,
  "Ġcalculations": 16966,
  "Label": 16967,
  "Ġminister": 16968,
  "ograp": 16969,
  "ogenic": 16971,
  "Ġasset": 16972,
  "Ġms": 16974,
  "Ġsilver": 16975,
  "leton": 16977,
  "Ġwindows": 16979,
  "ĠProblem": 16981,
  "Ġcomprom": 16983,
  "ĠJean": 16984,
  "Ġwaters": 16985,
  "Ġfarmers": 16988,
  "Stack": 16990,
  "Ġdetermin": 16997,
  "Ġisolated": 17000,
  "Thanks": 17003,
  "Ġsalary": 17004,
  "Before": 17005,
  "ergarten": 17006,
  "Ġswim": 17008,
  "ĠNorthern": 17009,
  "Ãºn": 17010,
  "Ġinsight": 17016,
  "Ġdispl": 17017,
  "ĠDOI": 17018,
  "Ġstronger": 17020,
  "rained": 17021,
  "Ġcontroller": 17023,
  "Ġtrained": 17024,
  "aje": 17028,
  "Ġhappening": 17029,
  "Gu": 17033,
  "Ġmunic": 17035,
  "Ġbol": 17036,
  "Num": 17037,
  "ĠResponse": 17038,
  "Lear": 17040,
  "ĠOlymp": 17043,
  "Ġorganis": 17046,
  "ĠVen": 17047,
  "ĠAward": 17049,
  "Ġvisitors": 17051,
  "icide": 17053,
  "Ġmathematical": 17055,
  "Ġdal": 17056,
  "Il": 17057,
  "access": 17063,
  "Ġmanagers": 17064,
  "ASS": 17066,
  "Ġprecis": 17069,
  "ĠMagn": 17071,
  "Ġworst": 17072,
  "Ġexercises": 17073,
  "Den": 17074,
  "Ġconverted": 17077,
  "Ġfinance": 17079,
  "ĠPenn": 17080,
  "Ġmail": 17081,
  "ĠForce": 17084,
  "owed": 17087,
  "Ġdish": 17089,
  "Ġquantum": 17090,
  "Thank": 17093,
  "Ġpros": 17094,
  "ned": 17095,
  "Url": 17098,
  "ĠCu": 17099,
  "Ġgained": 17100,
  "ĠKorea": 17101,
  "Tube": 17102,
  "ĠWalk": 17103,
  "ĠConclusion": 17105,
  "Ġadoles": 17109,
  "ĠImpro": 17112,
  "ĠTaylor": 17114,
  "igenous": 17115,
  "wick": 17116,
  "Ġcomputing": 17117,
  "Ġaddressed": 17118,
  "ĠBlood": 17119,
  "umps": 17120,
  "DD": 17121,
  "elve": 17123,
  "Off": 17125,
  "herlands": 17127,
  "ĠER": 17128,
  "havior": 17129,
  "Ġphrase": 17132,
  "orous": 17133,
  "Ġprofessor": 17135,
  "TT": 17136,
  "Ġtransaction": 17138,
  "Ġovers": 17139,
  "Ġvariations": 17142,
  "Ġavailability": 17143,
  "Ġrecipe": 17144,
  "ĠPMC": 17147,
  "Ġcomprises": 17149,
  "ĠFuture": 17150,
  "ĠTurn": 17155,
  "Ġreferences": 17157,
  "Ġtough": 17158,
  "Equal": 17159,
  "Ġiter": 17162,
  "aration": 17164,
  "Ġexhaust": 17167,
  "Ġtiny": 17168,
  "ĠPA": 17169,
  "aro": 17170,
  "Ġtank": 17171,
  "aja": 17172,
  "items": 17173,
  "pu": 17174,
  "vals": 17175,
  "ĠProperties": 17181,
  "ĠConsole": 17182,
  "Ġdrag": 17183,
  "Ġdeeply": 17185,
  "ipt": 17186,
  "gb": 17187,
  "onna": 17190,
  "Ġdisplayed": 17192,
  "enden": 17194,
  "Ġmad": 17196,
  "alo": 17198,
  "orie": 17200,
  "Ġdapat": 17201,
  "Ãªme": 17202,
  "_POSTSU": 17203,
  "icos": 17204,
  "ĠWas": 17207,
  "lectric": 17208,
  "ĠMulti": 17209,
  "Ġinfluenced": 17210,
  "Ġboat": 17212,
  "iest": 17213,
  "Ġacquired": 17214,
  "Ġfrequent": 17215,
  "Ġlifest": 17221,
  "ylv": 17222,
  "Ġgast": 17224,
  "ĠKh": 17226,
  "Ġinstalled": 17228,
  "Ġordinary": 17229,
  "Ġfairly": 17230,
  "Skip": 17231,
  "Ġpersonality": 17235,
  "cap": 17237,
  "_L": 17239,
  "Ġlogical": 17241,
  "Ġborrow": 17242,
  "Ġfavour": 17244,
  "Ġlaid": 17246,
  "Ġbonds": 17247,
  "appy": 17248,
  "Ġcodes": 17249,
  "apor": 17251,
  "duate": 17252,
  "ĠHelp": 17253,
  "Ġrit": 17254,
  "Good": 17259,
  "ĠSoftware": 17260,
  "Ġpoem": 17261,
  "Ġdent": 17271,
  "Ġclothes": 17273,
  "ĠDraw": 17274,
  "Handler": 17275,
  "Ġcooking": 17276,
  "Ġpover": 17277,
  "Ġaircraft": 17279,
  "Ġfinger": 17280,
  "Ġdesigns": 17281,
  "ĠPhilipp": 17282,
  "ĠSC": 17283,
  "Area": 17284,
  "Ġwir": 17286,
  "ĠRain": 17289,
  "Ġmultiply": 17290,
  "Ġconservation": 17291,
  "ĠSoviet": 17292,
  "elihood": 17293,
  "icas": 17295,
  "Ġalive": 17296,
  "ĉt": 17299,
  "Ġproduces": 17300,
  "Ġnearest": 17301,
  "ĠIndonesia": 17302,
  "ĠHum": 17303,
  "aints": 17304,
  "Ġib": 17306,
  "ĠMid": 17307,
  "Ġappreciate": 17308,
  "ĠUt": 17310,
  "Ġadvis": 17314,
  "Str": 17315,
  "Ġhorizontal": 17316,
  "Ġconsiderable": 17319,
  "inda": 17320,
  "Ġlaboratory": 17321,
  "Ġinher": 17322,
  "ĠPortug": 17323,
  "ĠPut": 17324,
  "ĠFed": 17325,
  "IE": 17327,
  "mb": 17330,
  "Ġmanus": 17333,
  "Ġpromoting": 17334,
  "Ãºmer": 17335,
  "Ġreveal": 17336,
  "Ġembed": 17337,
  "ĠPrem": 17338,
  "Ġmachines": 17341,
  "agger": 17343,
  "Ġadequate": 17344,
  "arv": 17345,
  "Ġcompensation": 17346,
  "Ġremainder": 17347,
  "Ġaug": 17355,
  "iatives": 17356,
  "console": 17362,
  "Ġhandling": 17363,
  "induced": 17367,
  "Ġflash": 17370,
  "obj": 17371,
  "rea": 17373,
  "Ġsang": 17374,
  "Ġfalling": 17377,
  "Names": 17378,
  "ĠURL": 17386,
  "gel": 17388,
  "Ġflower": 17390,
  "ĠHas": 17393,
  "Ġcolumns": 17397,
  "rator": 17399,
  "izabeth": 17400,
  "Ġpix": 17402,
  "Ġmortality": 17406,
  "ĠZealand": 17407,
  "Ġmoon": 17408,
  "Ġclust": 17409,
  "ĠkÃ¶n": 17411,
  "Ġcada": 17415,
  "Ġscatter": 17417,
  "amer": 17420,
  "Ġfract": 17423,
  "ologia": 17424,
  "Ġenemy": 17425,
  "ustain": 17426,
  "atern": 17428,
  "ĠNeg": 17430,
  "Ġasc": 17431,
  "ĠVolume": 17433,
  "area": 17434,
  "parse": 17436,
  "Ġbuffer": 17437,
  "blems": 17439,
  "ĠIde": 17440,
  "ĠSn": 17441,
  "yal": 17444,
  "Ġovercome": 17445,
  "Ġuniversal": 17446,
  "Ġaccounting": 17448,
  "Ġlaser": 17450,
  "Ġdow": 17451,
  "Ġvideos": 17452,
  "Ġrepresentative": 17453,
  "Ġinterior": 17455,
  "Ġapproval": 17458,
  "Ġprintable": 17459,
  "ĠBox": 17460,
  "_h": 17462,
  "Ġsine": 17463,
  "usal": 17464,
  "Ġko": 17465,
  "Jan": 17468,
  "ĠCEO": 17471,
  "ĠPrinc": 17472,
  "including": 17473,
  "Ġfocuses": 17474,
  "His": 17475,
  "Oper": 17477,
  "ĠSA": 17478,
  "Ġaside": 17479,
  "rible": 17481,
  "ĠKon": 17482,
  "esso": 17485,
  "Ġroof": 17489,
  "Ġboundaries": 17490,
  "Ġhardware": 17491,
  "Ġepid": 17492,
  "Ġphotograph": 17493,
  "Ġneighborhood": 17494,
  "Ġdrinking": 17497,
  "Tra": 17498,
  "cule": 17502,
  "Ġbehaviors": 17503,
  "Ġcounty": 17504,
  "Ġindicating": 17505,
  "_size": 17507,
  "Ġpronounced": 17510,
  "ĠBY": 17511,
  "ĠFa": 17512,
  "Ġcoefficient": 17514,
  "Ġminimal": 17515,
  "Ġprzy": 17516,
  "VD": 17517,
  "ĠContent": 17518,
  "ĠMaybe": 17519,
  "ographical": 17521,
  "matic": 17522,
  "Ġrating": 17525,
  "English": 17530,
  "Ġforming": 17531,
  "ĠOk": 17535,
  "elfare": 17537,
  "Advertisement": 17538,
  "Ġpace": 17543,
  "pson": 17547,
  "Ġnav": 17551,
  "Ġstroke": 17552,
  "Ġtel": 17553,
  "Ġfee": 17554,
  "_path": 17555,
  "nost": 17556,
  "Ġresil": 17557,
  "Ġfingers": 17558,
  "orne": 17559,
  "Ġchicken": 17562,
  "Mark": 17567,
  "ĠLett": 17568,
  "Ġlaunched": 17569,
  "ĠÅ¼e": 17570,
  "ĠTwitter": 17572,
  "Ġsoldiers": 17573,
  "Ġnaturally": 17574,
  "ĠBerlin": 17575,
  "Ġpollution": 17577,
  "ocolate": 17579,
  "Ġcontra": 17581,
  "amas": 17586,
  "Ġmetric": 17588,
  "Ġposted": 17593,
  "front": 17596,
  "ĠRay": 17598,
  "Ġtension": 17599,
  "Rad": 17600,
  "Ġafraid": 17601,
  "Ġplain": 17603,
  "Ã¡v": 17604,
  "Ġemerging": 17605,
  "Ġfriendly": 17608,
  "ĉthis": 17610,
  "Ġcalculator": 17612,
  "Ġpoverty": 17616,
  "ARY": 17617,
  "Ġcoc": 17618,
  "ĠKirk": 17619,
  "Ġinspired": 17621,
  "Ġham": 17626,
  "Ġmood": 17628,
  "edit": 17632,
  "ĠAdministration": 17633,
  "Ġcyl": 17634,
  "ĠCore": 17635,
  "_code": 17636,
  "Ġpropri": 17637,
  "ĠQuant": 17639,
  "IVE": 17640,
  "Ġheads": 17642,
  "anno": 17643,
  "Ġbene": 17645,
  "mail": 17647,
  "Ġgrace": 17648,
  "Ġbeam": 17651,
  "edly": 17653,
  "Ġprevention": 17654,
  "ĠNations": 17657,
  "ussion": 17658,
  "Na": 17659,
  "Ġbeneficial": 17660,
  "ĠBuilding": 17661,
  "Ġmeasuring": 17663,
  "Ġmanual": 17665,
  "ĠCalculate": 17666,
  "ĠSafety": 17667,
  "ithmetic": 17673,
  "atoes": 17676,
  "Ġdb": 17681,
  "cribe": 17682,
  "zh": 17684,
  "OUR": 17686,
  "Ġintention": 17687,
  "Ġenables": 17689,
  "rolog": 17690,
  "ĠLA": 17691,
  "Ġonder": 17692,
  "LS": 17698,
  "Ġproductivity": 17699,
  "Ġlymph": 17701,
  "ĠNetherlands": 17705,
  "lia": 17706,
  "Ġfalls": 17707,
  "ĠSav": 17710,
  "rÃ©": 17713,
  "Ġedges": 17714,
  "Ġtangent": 17716,
  "Ob": 17718,
  "Ġrows": 17721,
  "role": 17722,
  "Ġgli": 17724,
  "ĠImport": 17725,
  "Ant": 17728,
  "anted": 17731,
  "Ġturb": 17738,
  "Ġwestern": 17739,
  "ĠAmong": 17740,
  "Ġupdates": 17745,
  "Ġunus": 17747,
  "uminate": 17751,
  "Ġsizes": 17754,
  "Ġemphasis": 17755,
  "lag": 17756,
  "irtual": 17758,
  "Ġstrange": 17759,
  "ĠIncre": 17760,
  "Ġtherap": 17763,
  "Ġclassical": 17765,
  "Ġconstructed": 17769,
  "Ġtack": 17772,
  "redit": 17773,
  "Will": 17774,
  "Ġdismiss": 17775,
  "Ġcenters": 17777,
  "rison": 17778,
  "Ã¤h": 17779,
  "Ġpainting": 17780,
  "find": 17782,
  "Ġsubmitted": 17785,
  "NASA": 17787,
  "istered": 17788,
  "Ġdeclared": 17789,
  "Ġconvey": 17792,
  "Ġtet": 17794,
  "Ġmissed": 17795,
  "Output": 17797,
  "Ġitu": 17798,
  "Ġtheories": 17800,
  "Ġpowder": 17802,
  "Ã©ri": 17803,
  "Ġlights": 17807,
  "Ġcluster": 17808,
  "auf": 17810,
  "ĠKl": 17811,
  "Ġinjuries": 17812,
  "Ġpaying": 17814,
  "ÄĻd": 17816,
  "Ġwriters": 17818,
  "Ġsessions": 17819,
  "env": 17821,
  "Ġperfectly": 17822,
  "Ġstrike": 17824,
  "Ã¢n": 17826,
  "adel": 17827,
  "Ġsuffer": 17828,
  "ĠAvailable": 17829,
  "Ġmigration": 17830,
  "apters": 17832,
  "ĠEastern": 17834,
  "ĠObservations": 17835,
  "quer": 17836,
  "vens": 17838,
  "Ġtoken": 17840,
  "Ġcenturies": 17841,
  "Ġinstruments": 17843,
  "ea": 17844,
  "Ġscal": 17845,
  "operative": 17849,
  "FIG": 17851,
  "Ġlens": 17853,
  "qual": 17854,
  "_e": 17856,
  "ĠJackson": 17860,
  "ennis": 17863,
  "Ġcomplicated": 17869,
  "iability": 17870,
  "oves": 17871,
  "Ġsatisfaction": 17873,
  "ĠSmall": 17874,
  "ĠBol": 17876,
  "Di": 17877,
  "Ġsemi": 17878,
  "rado": 17879,
  "ĠIC": 17880,
  "Ġregardless": 17883,
  "ceive": 17884,
  "Ms": 17887,
  "STR": 17888,
  "ĠTraining": 17890,
  "ĠCit": 17892,
  "Ġsupplement": 17896,
  "clear": 17897,
  "Ġmenj": 17901,
  "ĠZhang": 17902,
  "Ġrecur": 17903,
  "Ġessentially": 17905,
  "illion": 17907,
  "inner": 17910,
  "Ġattributes": 17911,
  "Ġmouse": 17912,
  "ĠFrancisco": 17913,
  "Ġequity": 17914,
  "Ġpom": 17915,
  "ĠThank": 17918,
  "Ġseparated": 17919,
  "Ġren": 17921,
  "fortunately": 17925,
  "Ġfond": 17926,
  "gener": 17930,
  "Ġmedi": 17931,
  "ipe": 17932,
  "ĠFROM": 17934,
  "ĠBrand": 17935,
  "Ġplurality": 17936,
  "Ġlosing": 17937,
  "Ġproposal": 17941,
  "Ġmaps": 17942,
  "ĠCharacter": 17943,
  "Ġethnic": 17944,
  "angel": 17945,
  "Ġpersonnel": 17946,
  "Ġzen": 17947,
  "md": 17949,
  "gle": 17950,
  "Ġemotion": 17951,
  "_H": 17953,
  "Ġker": 17955,
  "Ġsurprising": 17956,
  "Ġmuscles": 17957,
  "worth": 17960,
  "Top": 17962,
  "such": 17964,
  "Ext": 17965,
  "Ġmagic": 17966,
  "ĠHundred": 17967,
  "ĠHal": 17968,
  "IES": 17969,
  "agonal": 17970,
  "Ġargue": 17972,
  "Ġsymmet": 17975,
  "Ã¡g": 17977,
  "ĠHence": 17978,
  "Ġlunch": 17980,
  "olecular": 17982,
  "ograms": 17983,
  "ĠGiven": 17988,
  "mos": 17990,
  "GO": 17992,
  "DC": 17994,
  "ĠLy": 17999,
  "ysical": 18000,
  "Ġnervous": 18001,
  "Ġakan": 18002,
  "ĠRelations": 18003,
  "inet": 18011,
  "ĠPhysics": 18012,
  "white": 18013,
  "Ġrotation": 18015,
  "VER": 18016,
  "bagai": 18019,
  "onacci": 18020,
  "ĠJoe": 18021,
  "acts": 18022,
  "Ġnewly": 18023,
  "Ġoverl": 18027,
  "Ġdipl": 18029,
  "Ġbuying": 18032,
  "ĠDas": 18034,
  "ĠAngeles": 18035,
  "Sch": 18039,
  "Ġexploring": 18040,
  "Ġgentle": 18041,
  "MO": 18042,
  "Ġsulf": 18044,
  "stud": 18047,
  "pril": 18049,
  "ĠForest": 18050,
  "Ġinduced": 18051,
  "uw": 18052,
  "Ġblind": 18054,
  "Ġeinen": 18055,
  "Bo": 18056,
  "archy": 18060,
  "Ġtransactions": 18061,
  "ĠExecutive": 18064,
  "ĠAgreement": 18065,
  "Ġsolving": 18068,
  "Ġkter": 18069,
  "ĠSel": 18070,
  "Application": 18071,
  "icular": 18073,
  "rise": 18074,
  "Ġburden": 18075,
  "Ġethical": 18077,
  "Ġoc": 18078,
  "perature": 18079,
  "rar": 18080,
  "Ġteen": 18082,
  "uran": 18083,
  "Ġabilities": 18087,
  "Ġcourts": 18088,
  "WH": 18089,
  "ajo": 18090,
  "Ġease": 18091,
  "Ġpeng": 18093,
  "raq": 18094,
  "aca": 18099,
  "inite": 18101,
  "ansas": 18102,
  "Ġregression": 18103,
  "Ġjs": 18105,
  "kom": 18107,
  "ahren": 18109,
  "common": 18110,
  "Ġplaintiff": 18111,
  "Ġreconst": 18113,
  "Ġperception": 18115,
  "rint": 18117,
  "acle": 18118,
  "gressive": 18120,
  "ĠChall": 18122,
  "Ġoverview": 18125,
  "Ġopposition": 18126,
  "Ġcommunications": 18128,
  "DT": 18129,
  "ĠRevolution": 18132,
  "Ġpeut": 18133,
  "Ġdiscussions": 18134,
  "IONS": 18135,
  "Ġseparation": 18136,
  "requency": 18138,
  "Ġboot": 18139,
  "ocy": 18140,
  "ĠBiol": 18142,
  "Ġprohib": 18144,
  "ĠStory": 18145,
  "ĠBang": 18149,
  "Ġdollar": 18151,
  "Ġbrowser": 18153,
  "unes": 18155,
  "stat": 18157,
  "Ġanywhere": 18159,
  "Ġreaching": 18160,
  "ĠSH": 18161,
  "Ġconsec": 18162,
  "ĠMP": 18163,
  "ĠHig": 18165,
  "Like": 18166,
  "ĠUTC": 18169,
  "Ġatoms": 18170,
  "Ġmagnitude": 18171,
  "Ġbreaking": 18174,
  "ĠChampions": 18175,
  "Ġprayer": 18176,
  "images": 18179,
  "Ġoperational": 18180,
  "Ġclim": 18181,
  "ulas": 18183,
  "Ġintens": 18186,
  "ĠTry": 18192,
  "Ġhealing": 18194,
  "Ġsci": 18195,
  "Ġfocusing": 18198,
  "heast": 18199,
  "Ġll": 18200,
  "Ġinvolvement": 18202,
  "Ġmemories": 18208,
  "ocs": 18209,
  "Ġoccas": 18210,
  "bell": 18211,
  "Ġcollective": 18212,
  "Ġvida": 18215,
  "Level": 18217,
  "Ġzw": 18219,
  "Ġcomple": 18220,
  "Ġkeys": 18222,
  "Ġexpressions": 18224,
  "Ġbatt": 18226,
  "Ġprivile": 18228,
  "pository": 18231,
  "ĠMinutes": 18233,
  "Ġmonthly": 18235,
  "ceptions": 18236,
  "ĠUpdate": 18238,
  "Year": 18239,
  "Ġdelight": 18242,
  "Ġaber": 18248,
  "Ġending": 18249,
  "UG": 18252,
  "late": 18254,
  "click": 18255,
  "tabular": 18257,
  "Ã¨me": 18260,
  "beit": 18261,
  "Article": 18264,
  "ĠAltern": 18267,
  "ĉprivate": 18269,
  "Ġflav": 18271,
  "erscript": 18273,
  "Ġrely": 18276,
  "Port": 18277,
  "model": 18278,
  "isting": 18279,
  "ĠIssue": 18280,
  "owie": 18281,
  "Ġrestaurant": 18282,
  "abling": 18284,
  "Ġcul": 18287,
  "Ġargued": 18288,
  "Ġflows": 18290,
  "Ġstir": 18291,
  "iÃ©n": 18293,
  "ĠHeart": 18294,
  "ĠOpp": 18297,
  "Ġcheese": 18298,
  "Ġconstitu": 18302,
  "eterm": 18305,
  "ĠPor": 18306,
  "Ġneural": 18308,
  "Ġnearby": 18310,
  "Ġpap": 18311,
  "ugar": 18313,
  "_w": 18314,
  "issance": 18315,
  "Ġloud": 18319,
  "Ġsequences": 18323,
  "Ġdifficulties": 18330,
  "iscal": 18331,
  "Ġversions": 18333,
  "unciation": 18334,
  "Ġsurprised": 18336,
  "Ġnotion": 18340,
  "heid": 18342,
  "XXXX": 18344,
  "Updated": 18346,
  "ĠFest": 18347,
  "redict": 18349,
  "Ġgard": 18352,
  "Ġcolleagues": 18354,
  "Ġexploration": 18355,
  "Ġviewed": 18356,
  "Ġsupplies": 18357,
  "Ġwarning": 18358,
  "Ġtotally": 18360,
  "imiento": 18361,
  "bury": 18364,
  "ĠsÃ©": 18371,
  "Ġcontributed": 18374,
  "ĠMinistry": 18376,
  "Ġthickness": 18377,
  "ĠCapt": 18378,
  "opher": 18379,
  "Ġrooms": 18380,
  "Ġpeu": 18382,
  "opes": 18383,
  "Ġpend": 18385,
  "ĠMachine": 18386,
  "Who": 18387,
  "Ġmicrosc": 18388,
  "Ġintegers": 18392,
  "Ġbasket": 18393,
  "ĠMatt": 18394,
  "Ġstyles": 18395,
  "comfort": 18397,
  "Ġphenomenon": 18399,
  "Her": 18400,
  "eleration": 18401,
  "ĠSanta": 18404,
  "WS": 18405,
  "atile": 18407,
  "Ġfacilitate": 18411,
  "Ġster": 18412,
  "auto": 18414,
  "Pol": 18415,
  "Ġpens": 18418,
  "Ġfewer": 18419,
  "asse": 18420,
  "del": 18421,
  "otten": 18423,
  "ĠcÃ³": 18424,
  "Mult": 18426,
  "irical": 18427,
  "Ġliked": 18428,
  "Ġindirect": 18429,
  "Ġoverwhel": 18430,
  "ĠSurg": 18431,
  "Ġentreprene": 18434,
  "Ġcovering": 18435,
  "Ġjurisd": 18436,
  "dx": 18437,
  "ĠServer": 18440,
  "ĠRecent": 18443,
  "Suppose": 18444,
  "Ġmatches": 18445,
  "isme": 18446,
  "kat": 18447,
  "Ġchoosing": 18449,
  "imals": 18450,
  "Ġverd": 18453,
  "Ġook": 18454,
  "ĠLuc": 18455,
  "grade": 18456,
  "ĠSenate": 18457,
  "Ġsystematic": 18458,
  "Ġglad": 18459,
  "ivi": 18463,
  "ĠGru": 18464,
  "Ġthy": 18466,
  "ĠJews": 18469,
  "ĠAdam": 18470,
  "Ã¸r": 18472,
  "Ġconfront": 18473,
  "ĠKom": 18475,
  "ĠBarb": 18477,
  "gamma": 18480,
  "Ġharvest": 18481,
  "Ġces": 18484,
  "placement": 18486,
  "ĠVisual": 18487,
  "Ġinvestments": 18488,
  "Ġeinem": 18489,
  "Ġtexts": 18490,
  "ĠPhysical": 18491,
  "ryst": 18493,
  "ameters": 18494,
  "bled": 18495,
  "Ġbench": 18496,
  "rable": 18497,
  "ĠSeg": 18498,
  "_output": 18499,
  "ĠMajor": 18501,
  "ĠEmer": 18503,
  "Ġqueue": 18505,
  "orses": 18506,
  "ITH": 18510,
  "Ġcontinuing": 18514,
  "Address": 18516,
  "ÄĽt": 18519,
  "Call": 18520,
  "Ġrac": 18525,
  "otherapy": 18526,
  "axis": 18527,
  "ĠIrish": 18532,
  "Ġentitled": 18533,
  "Ġangles": 18534,
  "OB": 18535,
  "Ġmeaningful": 18537,
  "Ġassignment": 18538,
  "ĠMaterials": 18539,
  "Ġwearing": 18540,
  "ĠAgency": 18542,
  "Ġfifth": 18543,
  "Ġcrowd": 18544,
  "Ġaccompan": 18545,
  "issa": 18547,
  "inals": 18549,
  "Ġdifferential": 18550,
  "ĠCulture": 18552,
  "Ġscenario": 18553,
  "Ġpuede": 18554,
  "ĠTal": 18556,
  "Ġinitiatives": 18557,
  "Ġknock": 18558,
  "ĠTs": 18559,
  "Ġweapons": 18560,
  "Ġcum": 18562,
  "itat": 18563,
  "Ġteas": 18564,
  "aci": 18566,
  "Ġinteractive": 18567,
  "GF": 18569,
  "ĠHTML": 18570,
  "Ġdates": 18571,
  "ĠFront": 18578,
  "amps": 18581,
  "Ġprol": 18583,
  "peed": 18584,
  "Ġdisk": 18585,
  "apore": 18587,
  "rices": 18588,
  "ĠMember": 18590,
  "ĠDefinition": 18591,
  "ĠFall": 18595,
  "Ġdisappoint": 18597,
  "_re": 18598,
  "ĠHex": 18603,
  "ĠNC": 18604,
  "ĠSimilar": 18605,
  "Ġdominant": 18606,
  "Ġpuzz": 18608,
  "Ġorth": 18613,
  "Update": 18618,
  "ĠExchange": 18624,
  "ĠAssessment": 18626,
  "Ġmud": 18628,
  "center": 18631,
  "Ġwarr": 18637,
  "Ġvegetables": 18638,
  "lessly": 18639,
  "ĠQueen": 18640,
  "Ġindivid": 18641,
  "Ġconstraints": 18643,
  "Ġpiv": 18644,
  "Ġprotest": 18645,
  "delta": 18650,
  "emen": 18652,
  "Second": 18653,
  "Ġreflection": 18654,
  "conomic": 18655,
  "dat": 18657,
  "Ġtemporary": 18658,
  "iza": 18659,
  "Ġobviously": 18661,
  "akh": 18662,
  "Ġrepeat": 18664,
  "ĠSometimes": 18668,
  "ductor": 18669,
  "Ġdp": 18670,
  "Ġdegrad": 18673,
  "Ġproven": 18674,
  "EB": 18675,
  "iii": 18677,
  "keit": 18680,
  "ĠEdition": 18682,
  "Ġworden": 18683,
  "Ġih": 18684,
  "ols": 18687,
  "ĠDrug": 18688,
  "bid": 18689,
  "Reader": 18690,
  "ĠCM": 18691,
  "ĠHun": 18694,
  "ĠIF": 18696,
  "ordan": 18697,
  "Ġgenerations": 18698,
  "Ġacquisition": 18699,
  "YPE": 18700,
  "Ġcombat": 18702,
  "Ġintegrity": 18704,
  "Ã¡z": 18706,
  "types": 18707,
  "Ġimpressive": 18711,
  "rho": 18714,
  "Ġcalm": 18715,
  "ĠHay": 18716,
  "ĠVersion": 18717,
  "ceeds": 18721,
  "Ġgrams": 18722,
  "Ġatom": 18723,
  "Ġyesterday": 18726,
  "ĠRequired": 18728,
  "ĠWilson": 18729,
  "Hex": 18733,
  "ĠMike": 18734,
  "ĠISSN": 18737,
  "Ġobserve": 18738,
  "ĠBudd": 18741,
  "font": 18742,
  "Ġstabil": 18745,
  "ĠAnimal": 18748,
  "Ġreduces": 18749,
  "overs": 18753,
  "jects": 18756,
  "Ġcoupled": 18757,
  "ĠSher": 18760,
  "Ġperf": 18761,
  "Ġlifestyle": 18762,
  "Div": 18763,
  "Ġrum": 18764,
  "ICE": 18768,
  "igt": 18770,
  "Ġphysics": 18771,
  "ysts": 18772,
  "Ġshr": 18774,
  "Ins": 18776,
  "_x": 18778,
  "hor": 18779,
  "Ġconcluded": 18783,
  "Ġflavor": 18784,
  "price": 18785,
  "Ġjson": 18786,
  "Ġadministrative": 18787,
  "ĠMonitor": 18788,
  "ĠVill": 18789,
  "ĠBru": 18794,
  "appro": 18795,
  "Ġopposed": 18796,
  "help": 18799,
  "Ġprediction": 18800,
  "Ġassessed": 18805,
  "Ġleur": 18807,
  "Command": 18808,
  "ĠMechan": 18810,
  "Ġske": 18811,
  "Ġstreets": 18814,
  "bul": 18815,
  "Ġej": 18816,
  "UTC": 18817,
  "amination": 18823,
  "ĠBrad": 18824,
  "ĠExerc": 18825,
  "admin": 18828,
  "sey": 18829,
  "antee": 18833,
  "dir": 18834,
  "Ġresc": 18835,
  "Ġmedication": 18836,
  "ĠMaria": 18837,
  "Ġapparently": 18841,
  "Ġcompat": 18842,
  "echo": 18843,
  "ĠJacob": 18844,
  "Ġexempl": 18845,
  "Ġgenu": 18846,
  "Ġsurvive": 18848,
  "Because": 18850,
  "Ġmile": 18854,
  "Ġmild": 18857,
  "mitt": 18860,
  "ĠPakistan": 18861,
  "Car": 18863,
  "GS": 18864,
  "Ġuncertainty": 18867,
  "Ġempower": 18871,
  "emo": 18872,
  "ĠFair": 18875,
  "Ġmodeling": 18877,
  "athered": 18880,
  "ĠHarry": 18881,
  "Ġcleaning": 18882,
  "Ġadjacent": 18885,
  "Ġpredicted": 18888,
  "ById": 18891,
  "bn": 18892,
  "Sw": 18895,
  "Ġstakeholders": 18896,
  "Ġremarkable": 18898,
  "Ġdrivers": 18899,
  "Ġidentical": 18902,
  "ĠCapital": 18904,
  "achers": 18907,
  "Ġtriangle": 18908,
  "bial": 18909,
  "About": 18911,
  "ĠMess": 18913,
  "ovascular": 18914,
  "NE": 18916,
  "quiry": 18918,
  "Ġdenominator": 18919,
  "Ġpitch": 18920,
  "Types": 18921,
  "Ġsubmit": 18922,
  "Ġanche": 18923,
  "Ġlingu": 18925,
  "Ġannounce": 18931,
  "Ġintense": 18934,
  "anol": 18936,
  "ĠNig": 18941,
  "Ġpreferences": 18943,
  "ĠKong": 18945,
  "ifting": 18947,
  "Look": 18948,
  "FO": 18950,
  "Ġinstances": 18951,
  "ĠRepresent": 18952,
  "Ġpadding": 18953,
  "Ġkeeps": 18954,
  "Ġshadow": 18955,
  "ĠExperience": 18957,
  "Ġdeux": 18958,
  "ĠSud": 18959,
  "Ã©ho": 18961,
  "Ġcot": 18963,
  "Ġcompletion": 18967,
  "asm": 18969,
  "auc": 18970,
  "ĠSyn": 18972,
  "Ġflexibility": 18976,
  "cr": 18977,
  "Ġprofound": 18978,
  "ĠPerformance": 18982,
  "adores": 18984,
  "berry": 18985,
  "Card": 18986,
  "lined": 18987,
  "had": 18988,
  "Ġbeach": 18992,
  "Ġtalked": 18993,
  "Ġterritory": 18995,
  "Ġowned": 18998,
  "Ġzm": 18999,
  "Ġfruits": 19000,
  "Ġconform": 19001,
  "Si": 19003,
  "Ġhay": 19008,
  "erts": 19009,
  "TE": 19010,
  "queue": 19013,
  "_R": 19014,
  "ĠKeep": 19018,
  "Ġmamm": 19019,
  "iop": 19021,
  "Ġbalanced": 19022,
  "ĠInterest": 19023,
  "Ġnumerical": 19026,
  "status": 19027,
  "ĠVideo": 19028,
  "isl": 19030,
  "nego": 19031,
  "ceedings": 19033,
  "essa": 19034,
  "isons": 19035,
  "ĠRog": 19036,
  "ĠOhio": 19040,
  "Ġprecise": 19041,
  "Ġdoors": 19043,
  "Ġliterary": 19044,
  "Ġlabour": 19046,
  "ĠSW": 19047,
  "rz": 19048,
  "Ġvie": 19049,
  "Ident": 19052,
  "_text": 19053,
  "Ġsorry": 19054,
  "ĠChemistry": 19055,
  "Ġearned": 19056,
  "Ġsampling": 19058,
  "chers": 19059,
  "local": 19060,
  "Factory": 19065,
  "random": 19066,
  "Ġdocumentation": 19067,
  "Ġzo": 19069,
  "ĠSever": 19070,
  "Ġprecip": 19071,
  "Av": 19072,
  "Ġimprovements": 19073,
  "Ġtrick": 19075,
  "Ġsees": 19076,
  "ĠArk": 19077,
  "Ġillustrated": 19080,
  "thew": 19084,
  "_file": 19086,
  "Ġindependence": 19088,
  "aban": 19089,
  "apit": 19091,
  "acon": 19092,
  "Math": 19094,
  "ĠGram": 19095,
  "ĠEffect": 19096,
  "Ġlag": 19099,
  "onymous": 19100,
  "Ġconfident": 19102,
  "Ġnerve": 19104,
  "ĠRub": 19105,
  "Ġpoetry": 19106,
  "Ġoverride": 19107,
  "ĠOrganization": 19109,
  "kk": 19110,
  "Ġkiss": 19112,
  "Ġembodiments": 19113,
  "ushing": 19114,
  "Ġcosine": 19115,
  "ĠCourse": 19117,
  "Ġduties": 19118,
  "Ġhosp": 19119,
  "ĠAsh": 19120,
  "angang": 19122,
  "Ġlegit": 19125,
  "Ġseriously": 19131,
  "Ġelif": 19132,
  "atura": 19133,
  "split": 19134,
  "ĠCountry": 19136,
  "advant": 19137,
  "hort": 19139,
  "Ġtact": 19140,
  "Ġconfigured": 19142,
  "Ġlearners": 19144,
  "esome": 19146,
  "Ġsab": 19147,
  "ishop": 19148,
  "Ġrestrictions": 19149,
  "Ġreflected": 19150,
  "Ġbroke": 19152,
  "BP": 19156,
  "Ġimplementing": 19157,
  "Ġunw": 19158,
  "Ġpup": 19159,
  "ĠFinal": 19160,
  "ĠHR": 19162,
  "Ġig": 19165,
  "Ġbelieves": 19166,
  "anes": 19167,
  "Ġrapp": 19169,
  "ĠPriv": 19170,
  "Ġtap": 19171,
  "req": 19173,
  "ĠSin": 19174,
  "PDF": 19175,
  "Ġscreening": 19181,
  "UC": 19183,
  "ĠEC": 19185,
  "Row": 19186,
  "ĠHong": 19188,
  "Ã¤st": 19190,
  "Ġheating": 19194,
  "Ġownership": 19195,
  "Ġads": 19196,
  "Ġrelating": 19197,
  "iously": 19198,
  "thur": 19199,
  "Ġitalic": 19202,
  "ogl": 19203,
  "letter": 19205,
  "ĠCos": 19207,
  "Ġsustainability": 19209,
  "ortion": 19210,
  "Ġutility": 19213,
  "Ġequilibrium": 19214,
  "ĠvÃ½": 19216,
  "Ġthemes": 19219,
  "Ġdot": 19223,
  "Ġendl": 19225,
  "Ã¼ck": 19227,
  "ĠEsp": 19229,
  "ĠNorm": 19230,
  "Ġperceived": 19231,
  "Ġloading": 19233,
  "Ġheaven": 19234,
  "Ã¼h": 19235,
  "ĠPersonal": 19237,
  "ĠVi": 19239,
  "ettings": 19240,
  "imi": 19241,
  "Ġagriculture": 19242,
  "Ġud": 19247,
  "Using": 19248,
  "ĠElizabeth": 19254,
  "ften": 19257,
  "Ġgut": 19259,
  "Ġsatell": 19260,
  "mentation": 19262,
  "Ġholiday": 19264,
  "Ġdevelopers": 19265,
  "ureau": 19266,
  "about": 19267,
  "Ġdrain": 19268,
  "ĠEL": 19269,
  "ĠsÃ£o": 19270,
  "_back": 19271,
  "ILL": 19274,
  "Ġtomorrow": 19276,
  "ebut": 19278,
  "Ġnad": 19280,
  "ija": 19281,
  "ĠTa": 19282,
  "indi": 19283,
  "Ġpathway": 19285,
  "Ġartik": 19286,
  "Ġuno": 19289,
  "Ġincent": 19290,
  "ĠWithout": 19291,
  "Ġvictims": 19293,
  "ĠProp": 19294,
  "Ġpad": 19295,
  "Ġwithdraw": 19298,
  "Ġfait": 19299,
  "Ġvotes": 19301,
  "ĠCloud": 19302,
  "eneration": 19303,
  "Ġsomewhere": 19305,
  "Ġleague": 19307,
  "Ġvocabulary": 19308,
  "Instance": 19309,
  "Ġdisrupt": 19310,
  "Loading": 19313,
  "Ġstomach": 19316,
  "BM": 19318,
  "eny": 19319,
  "ĠCC": 19320,
  "Ġinterventions": 19321,
  "ĠArm": 19322,
  "Unit": 19323,
  "ĠSales": 19326,
  "Ġregime": 19327,
  "Ġwider": 19328,
  "ril": 19329,
  "ĠUnd": 19330,
  "VC": 19333,
  "ĠInput": 19334,
  "asarangang": 19335,
  "cyclop": 19336,
  "Ġapplies": 19338,
  "ĠGames": 19339,
  "Section": 19342,
  "ĠIraq": 19343,
  "Ġdeploy": 19345,
  "Ġhi": 19346,
  "aly": 19347,
  "Ġtodo": 19348,
  "ĠThird": 19350,
  "ĠMoh": 19351,
  "Ġtherapeutic": 19353,
  "ĠGa": 19354,
  "ĠPolice": 19356,
  "Ġgradually": 19360,
  "Nov": 19361,
  "Ġadoption": 19362,
  "Ġprosec": 19363,
  "ibration": 19365,
  "Ġpushed": 19367,
  "Ġspan": 19369,
  "Ut": 19370,
  "Ġheavily": 19372,
  "Ġfactorization": 19373,
  "Ġestud": 19374,
  "utors": 19377,
  "rosc": 19378,
  "Ġpetition": 19379,
  "ĠDaily": 19383,
  "GL": 19385,
  "ĠSong": 19386,
  "forward": 19388,
  "ellular": 19390,
  "Ġnavigate": 19392,
  "ĠBinary": 19393,
  "ATH": 19394,
  "ĠBow": 19396,
  "Ġsurely": 19398,
  "Ġalgebra": 19401,
  "ĠGeorgia": 19402,
  "ĠQuality": 19403,
  "Ġaddresses": 19409,
  "Height": 19410,
  "Eff": 19411,
  "ĠReply": 19414,
  "ĠCI": 19415,
  "Review": 19417,
  "Ġensures": 19419,
  "ĠBlog": 19422,
  "Ġspons": 19424,
  "ingle": 19425,
  "ĠShould": 19431,
  "Ġexpanded": 19432,
  "SR": 19434,
  "Ġsymbols": 19435,
  "ĠHash": 19436,
  "Ã³s": 19438,
  "Ġhol": 19439,
  "Ġspoken": 19441,
  "ĠBio": 19445,
  "DI": 19446,
  "ilty": 19448,
  "ĠChris": 19449,
  "ĠPalest": 19450,
  "VA": 19454,
  "column": 19456,
  "Ġchamber": 19457,
  "Ġloans": 19458,
  "books": 19459,
  "ĠGro": 19460,
  "osta": 19461,
  "Show": 19462,
  "ethe": 19464,
  "remove": 19466,
  "geb": 19467,
  "atching": 19468,
  "Ġoffset": 19469,
  "ubble": 19474,
  "ĠDocument": 19475,
  "Ġmayor": 19478,
  "ĠOd": 19481,
  "Ġedit": 19482,
  "elcome": 19485,
  "ĠComb": 19487,
  "ĠIndeed": 19488,
  "inator": 19489,
  "Ġoppon": 19490,
  "asks": 19491,
  "ĠGree": 19492,
  "Ġcurs": 19493,
  "ĠPercent": 19494,
  "Ġfm": 19495,
  "Ġprominent": 19496,
  "agg": 19498,
  "ĠThousand": 19501,
  "Ġmineral": 19504,
  "Ġdual": 19506,
  "odd": 19512,
  "hell": 19513,
  "ĠCoast": 19514,
  "ĠBenef": 19515,
  "Ġvulnerable": 19516,
  "Ġprecision": 19521,
  "Previous": 19522,
  "_v": 19525,
  "Ġmovies": 19526,
  "lar": 19529,
  "Ġfounded": 19531,
  "Ġforever": 19532,
  "Ġorientation": 19534,
  "week": 19536,
  "uis": 19538,
  "ĠNE": 19539,
  "Ġslope": 19541,
  "Ġinstallation": 19544,
  "cycle": 19545,
  "ĠTransport": 19546,
  "craft": 19548,
  "ĠDif": 19551,
  "ĠScientific": 19553,
  "Ġnombre": 19554,
  "Ġseu": 19555,
  "ĠPi": 19556,
  "Ġproc": 19557,
  "adium": 19558,
  "PER": 19559,
  "Ġalg": 19560,
  "rada": 19561,
  "Ġintra": 19562,
  "Ġdevelopments": 19563,
  "Ġspelling": 19565,
  "wen": 19566,
  "Full": 19568,
  "Ġepisode": 19569,
  "Ġglucose": 19571,
  "Ġemerged": 19572,
  "infty": 19573,
  "Ġcontracts": 19576,
  "low": 19577,
  "Ġcomputers": 19578,
  "Ġbranches": 19580,
  "Ġvend": 19581,
  "visor": 19582,
  "Ġmotivation": 19583,
  "Ġdeaths": 19584,
  "SH": 19586,
  "Ġpic": 19588,
  "ĠSurvey": 19592,
[...]
