{
  "A": 32,
  "B": 33,
  "C": 34,
  "D": 35,
  "E": 36,
  "F": 37,
  "G": 38,
  "H": 39,
  "I": 40,
  "J": 41,
  "K": 42,
  "L": 43,
  "M": 44,
  "N": 45,
  "O": 46,
  "P": 47,
  "Q": 48,
  "R": 49,
  "S": 50,
  "T": 51,
  "U": 52,
  "V": 53,
  "W": 54,
  "X": 55,
  "Y": 56,
  "Z": 57,
  "a": 64,
  "b": 65,
  "c": 66,
  "d": 67,
  "e": 68,
  "f": 69,
  "g": 70,
  "h": 71,
  "i": 72,
  "j": 73,
  "k": 74,
  "l": 75,
  "m": 76,
  "n": 77,
  "o": 78,
  "p": 79,
  "q": 80,
  "r": 81,
  "s": 82,
  "t": 83,
  "u": 84,
  "v": 85,
  "w": 86,
  "x": 87,
  "y": 88,
  "z": 89,
  "Ġt": 244,
  "Ġa": 245,
  "in": 246,
  "he": 247,
  "re": 248,
  "on": 249,
  "er": 250,
  "Ġs": 252,
  "at": 253,
  "Ġthe": 254,
  "en": 255,
  "or": 256,
  "es": 257,
  "Ġc": 258,
  "Ġw": 259,
  "it": 260,
  "an": 261,
  "is": 262,
  "Ġd": 263,
  "ou": 264,
  "Ġp": 265,
  "al": 266,
  "Ġf": 267,
  "ar": 268,
  "Ġo": 269,
  "Ġb": 270,
  "ed": 271,
  "ing": 272,
  "Ġm": 273,
  "Ġan": 274,
  "le": 275,
  "Ġto": 276,
  "ion": 277,
  "ic": 278,
  "Ġin": 279,
  "Ġof": 280,
  "as": 281,
  "el": 282,
  "om": 283,
  "Ġl": 284,
  "Ġand": 285,
  "Ġh": 286,
  "Ġth": 288,
  "ent": 289,
  "et": 290,
  "Ġn": 291,
  "st": 292,
  "ro": 295,
  "ct": 296,
  "il": 297,
  "Ġre": 299,
  "Ġe": 300,
  "ot": 301,
  "am": 302,
  "ĠI": 303,
  "id": 304,
  "ac": 305,
  "Ġg": 306,
  "ad": 307,
  "im": 308,
  "un": 309,
  "ig": 311,
  "ve": 312,
  "ol": 313,
  "Ġde": 314,
  "ut": 316,
  "Ġis": 317,
  "us": 319,
  "Ġy": 320,
  "ow": 322,
  "ĠT": 323,
  "ĠS": 324,
  "ly": 326,
  "Ġfor": 327,
  "qu": 328,
  "ver": 329,
  "Ġbe": 330,
  "Ġon": 331,
  "ur": 332,
  "ay": 333,
  "ation": 335,
  "ĠA": 338,
  "ĠC": 339,
  "Ġyou": 340,
  "ul": 341,
  "Ġthat": 344,
  "se": 346,
  "ce": 347,
  "ir": 348,
  "ith": 349,
  "if": 351,
  "Ġst": 352,
  "Ġv": 353,
  "od": 355,
  "ab": 356,
  "ch": 358,
  "Ġit": 359,
  "Ġal": 360,
  "ag": 361,
  "Ġhe": 362,
  "ĠM": 363,
  "Ġcon": 364,
  "Ġwith": 365,
  "ter": 366,
  "ri": 368,
  "em": 369,
  "est": 370,
  "Ġas": 372,
  "ap": 373,
  "ĠP": 375,
  "Ġwh": 376,
  "um": 377,
  "os": 378,
  "res": 379,
  "ĠB": 380,
  "Ġpro": 381,
  "ist": 382,
  "ht": 383,
  "and": 384,
  "Ġcom": 385,
  "Ġse": 386,
  "ate": 387,
  "pe": 388,
  "ill": 389,
  "ess": 390,
  "th": 392,
  "up": 393,
  "Ġwe": 394,
  "her": 396,
  "ke": 399,
  "ant": 400,
  "ra": 401,
  "ld": 402,
  "Ġun": 403,
  "oc": 404,
  "out": 406,
  "ers": 407,
  "end": 408,
  "Ġor": 409,
  "Ġex": 410,
  "ĠL": 412,
  "ĠD": 413,
  "ĠH": 414,
  "our": 415,
  "ĠF": 416,
  "Ġare": 417,
  "ore": 419,
  "rom": 420,
  "Ġha": 421,
  "ĠW": 422,
  "op": 424,
  "nd": 425,
  "ĠE": 426,
  "Ġr": 427,
  "ĠThe": 428,
  "Ġat": 429,
  "iv": 430,
  "art": 431,
  "ĠR": 432,
  "nt": 434,
  "all": 435,
  "Ġthis": 437,
  "Ġwas": 438,
  "ort": 439,
  "Ġnot": 441,
  "Ġne": 442,
  "ain": 444,
  "Ġqu": 445,
  "Ġla": 446,
  "ight": 447,
  "pl": 449,
  "Ġus": 450,
  "ction": 451,
  "ĠG": 452,
  "ure": 453,
  "te": 454,
  "Ġen": 456,
  "Ġby": 457,
  "ub": 458,
  "Ġi": 460,
  "ĠN": 461,
  "pt": 462,
  "Ġhave": 463,
  "ity": 465,
  "Ġel": 466,
  "Ġsh": 467,
  "ass": 468,
  "ment": 469,
  "ame": 471,
  "ould": 472,
  "Ġfrom": 473,
  "ies": 476,
  "ine": 480,
  "ia": 481,
  "Ġcan": 482,
  "ust": 484,
  "ud": 485,
  "ell": 487,
  "ive": 488,
  "age": 490,
  "ge": 491,
  "ard": 492,
  "og": 493,
  "Ġch": 494,
  "Ġcl": 495,
  "ome": 496,
  "ial": 497,
  "ect": 498,
  "ue": 499,
  "ack": 500,
  "red": 504,
  "ost": 505,
  "ĠO": 506,
  "able": 508,
  "ath": 509,
  "Ġper": 511,
  "ich": 512,
  "ind": 513,
  "ip": 515,
  "Ġle": 516,
  "Ġyour": 518,
  "Ġall": 519,
  "ie": 520,
  "Ġj": 521,
  "per": 522,
  "Ġme": 523,
  "Ġtr": 526,
  "av": 527,
  "Ġk": 528,
  "iz": 529,
  "xt": 530,
  "ans": 531,
  "ult": 532,
  "Ġdo": 533,
  "cl": 535,
  "ff": 536,
  "ast": 537,
  "rou": 538,
  "Ġwill": 540,
  "ok": 541,
  "Ġwhe": 542,
  "ide": 543,
  "Ġab": 544,
  "Ġbut": 545,
  "The": 546,
  "ite": 547,
  "Ġwor": 548,
  "ib": 551,
  "are": 554,
  "Ġso": 555,
  "ak": 556,
  "port": 557,
  "orm": 558,
  "ions": 559,
  "Ġif": 562,
  "con": 564,
  "ĠJ": 565,
  "cc": 566,
  "Ġpl": 568,
  "int": 569,
  "ĠU": 574,
  "ice": 575,
  "to": 577,
  "Ġup": 578,
  "Ġdel": 579,
  "der": 580,
  "de": 581,
  "ace": 582,
  "Ġhis": 583,
  "Ġwhich": 585,
  "ase": 587,
  "Ġcomp": 588,
  "ime": 590,
  "one": 591,
  "ong": 592,
  "Ġres": 593,
  "ally": 594,
  "Ġmy": 597,
  "Ġad": 598,
  "ile": 601,
  "ther": 603,
  "Ġam": 604,
  "eg": 609,
  "Ġgo": 610,
  "ated": 612,
  "ign": 617,
  "act": 618,
  "Ġim": 619,
  "ous": 621,
  "urn": 624,
  "Ġap": 626,
  "ĠV": 627,
  "Ġone": 629,
  "Ġcont": 630,
  "Ġout": 631,
  "ref": 632,
  "gh": 633,
  "ne": 634,
  "ire": 636,
  "Ġno": 637,
  "Ġhas": 638,
  "very": 639,
  "Ġlo": 640,
  "Ġque": 641,
  "ll": 642,
  "iÃ³": 644,
  "ance": 645,
  "ake": 647,
  "tr": 648,
  "Ġthey": 653,
  "ep": 654,
  "ob": 656,
  "ens": 657,
  "Ġhad": 658,
  "ft": 659,
  "math": 660,
  "ary": 662,
  "Ġman": 664,
  "ere": 665,
  "Ġar": 666,
  "pro": 667,
  "the": 668,
  "ang": 669,
  "ry": 670,
  "so": 671,
  "ĠTh": 673,
  "du": 674,
  "Ġsu": 675,
  "ail": 676,
  "ach": 679,
  "ĠIn": 680,
  "ix": 681,
  "Ġany": 683,
  "com": 685,
  "Ġmore": 686,
  "ose": 687,
  "form": 688,
  "ord": 689,
  "ph": 690,
  "Ġdis": 691,
  "Ġpart": 692,
  "Ġser": 694,
  "ition": 695,
  "ber": 696,
  "ress": 698,
  "Ġtheir": 699,
  "Ġdes": 700,
  "ear": 702,
  "get": 703,
  "own": 704,
  "ks": 705,
  "Ġher": 706,
  "Ġes": 707,
  "ents": 708,
  "ors": 710,
  "Ġli": 713,
  "ple": 714,
  "ations": 715,
  "ĠK": 716,
  "ount": 717,
  "ence": 720,
  "ound": 724,
  "row": 725,
  "ely": 728,
  "ru": 729,
  "Ġsp": 731,
  "ma": 732,
  "Ġsa": 733,
  "ode": 734,
  "ical": 735,
  "Ġsome": 738,
  "Ġwould": 740,
  "Ġthere": 741,
  "Ġfe": 745,
  "Ġother": 746,
  "ata": 747,
  "Ġget": 748,
  "Ġwhen": 750,
  "Ġsc": 752,
  "ject": 753,
  "ree": 754,
  "Ġev": 755,
  "Ġnew": 756,
  "Ġclass": 757,
  "vers": 758,
  "Ġtime": 761,
  "Ġthem": 763,
  "Ġour": 764,
  "ĠY": 765,
  "ick": 767,
  "ype": 768,
  "In": 769,
  "ert": 770,
  "low": 771,
  "Ġwere": 773,
  "Ġwho": 774,
  "sp": 776,
  "Ã©s": 778,
  "reat": 779,
  "elf": 781,
  "Ġabout": 782,
  "lo": 785,
  "ings": 787,
  "turn": 788,
  "Ġpr": 789,
  "ex": 790,
  "ink": 792,
  "ays": 793,
  "ory": 795,
  "ener": 797,
  "Ġbeen": 798,
  "Ġte": 799,
  "Ġag": 800,
  "ĠIt": 804,
  "li": 805,
  "nc": 806,
  "lic": 807,
  "Ġro": 809,
  "ck": 810,
  "ef": 811,
  "ari": 813,
  "ta": 816,
  "Ġva": 817,
  "text": 818,
  "Ġob": 820,
  "aus": 823,
  "Ġfun": 825,
  "Ġwork": 826,
  "Ġkn": 827,
  "we": 828,
  "ps": 829,
  "ual": 830,
  "Ġlike": 833,
  "Ġshe": 834,
  "Ġalso": 835,
  "Ġpre": 836,
  "Ġoff": 838,
  "old": 839,
  "ish": 840,
  "Ġset": 841,
  "Ġbo": 842,
  "rib": 843,
  "wo": 844,
  "vel": 845,
  "Ġthan": 849,
  "Ġinst": 850,
  "Ġover": 851,
  "Ġwhat": 852,
  "Ġhim": 853,
  "ild": 854,
  "Ġest": 855,
  "ark": 856,
  "irst": 857,
  "eth": 858,
  "anc": 859,
  "ont": 860,
  "fr": 861,
  "itt": 862,
  "iff": 863,
  "ec": 865,
  "sc": 866,
  "ock": 867,
  "hed": 870,
  "Ġspe": 871,
  "ov": 872,
  "les": 873,
  "ons": 875,
  "gr": 877,
  "Ġinto": 878,
  "Ġval": 879,
  "ys": 882,
  "tern": 883,
  "Ġonly": 885,
  "erm": 890,
  "Ġits": 891,
  "ull": 893,
  "Ġsup": 895,
  "ĠSt": 896,
  "enc": 897,
  "ove": 899,
  "ĠCh": 903,
  "Ġacc": 904,
  "ug": 905,
  "ific": 906,
  "Ġcol": 907,
  "als": 909,
  "lect": 911,
  "Ġgr": 912,
  "yst": 913,
  "put": 915,
  "fter": 919,
  "ade": 920,
  "ss": 925,
  "egin": 926,
  "Ġneed": 927,
  "Ġcomm": 929,
  "Ġthen": 930,
  "Ġuse": 931,
  "hat": 936,
  "pos": 937,
  "ize": 938,
  "Ġhow": 940,
  "ng": 944,
  "begin": 946,
  "Ġjust": 948,
  "bo": 952,
  "any": 953,
  "erv": 954,
  "Ġmod": 955,
  "Ġadd": 957,
  "app": 958,
  "ics": 959,
  "iew": 960,
  "ble": 961,
  "oint": 962,
  "ystem": 963,
  "ict": 965,
  "Ġreturn": 967,
  "fig": 968,
  "equ": 969,
  "Ġmay": 970,
  "Ġdef": 972,
  "Ġbet": 973,
  "iss": 974,
  "Ġco": 975,
  "pect": 976,
  "err": 977,
  "Ġtwo": 979,
  "ates": 980,
  "ning": 981,
  "Ġcons": 982,
  "ater": 983,
  "Ġpos": 984,
  "Ġent": 985,
  "Ġrec": 986,
  "ian": 987,
  "Ġsaid": 989,
  "of": 990,
  "clud": 991,
  "Ġem": 992,
  "Ġbl": 993,
  "ublic": 994,
  "ty": 995,
  "ular": 996,
  "ĠThis": 997,
  "ĠWe": 998,
  "cess": 999,
  "Ġknow": 1001,
  "ough": 1002,
  "Ġpe": 1003,
  "ER": 1004,
  "ient": 1005,
  "pr": 1006,
  "ise": 1007,
  "Ġyear": 1008,
  "Ġdiff": 1009,
  "ption": 1010,
  "Ġass": 1011,
  "aciÃ³": 1012,
  "igh": 1014,
  "unt": 1015,
  "Ġsee": 1016,
  "Ġform": 1017,
  "Ġfirst": 1019,
  "Ġshould": 1020,
  "Ġfin": 1022,
  "Ġcould": 1023,
  "line": 1027,
  "ause": 1029,
  "oth": 1030,
  "right": 1031,
  "round": 1033,
  "Ġop": 1034,
  "abel": 1036,
  "sh": 1037,
  "Ġles": 1038,
  "ats": 1040,
  "Ġreg": 1042,
  "its": 1043,
  "Ġact": 1045,
  "Ġuna": 1046,
  "iel": 1047,
  "cal": 1048,
  "ible": 1049,
  "ied": 1050,
  "Ġbec": 1052,
  "ange": 1053,
  "amb": 1056,
  "par": 1058,
  "Ġback": 1060,
  "ĠHe": 1061,
  "ada": 1062,
  "Ġamb": 1063,
  "Ġwhere": 1064,
  "wn": 1065,
  "Ġlook": 1066,
  "Ġthese": 1067,
  "Ġfol": 1072,
  "uch": 1074,
  "Ġvery": 1078,
  "ource": 1079,
  "Th": 1080,
  "Ġke": 1082,
  "Ġrel": 1084,
  "ful": 1085,
  "ring": 1087,
  "ond": 1088,
  "Ġunder": 1089,
  "Ġrem": 1091,
  "Ġprov": 1092,
  "Ġmost": 1093,
  "Ġsub": 1096,
  "Ġint": 1097,
  "Ġmake": 1098,
  "ax": 1099,
  "ious": 1103,
  "hen": 1105,
  "rough": 1106,
  "cre": 1107,
  "div": 1108,
  "Ġsuch": 1109,
  "ield": 1110,
  "io": 1112,
  "set": 1113,
  "Ġpar": 1114,
  "Ġdon": 1115,
  "Ġsim": 1117,
  "Ġph": 1118,
  "ood": 1119,
  "Ġwant": 1120,
  "frac": 1121,
  "Ġcur": 1126,
  "ating": 1128,
  "Ġevery": 1129,
  "Ġnow": 1130,
  "Ġcor": 1132,
  "Ġconst": 1133,
  "Ġwell": 1134,
  "riv": 1137,
  "imes": 1138,
  "arg": 1139,
  "Ġway": 1141,
  "rit": 1142,
  "oy": 1143,
  "rm": 1144,
  "ave": 1146,
  "erson": 1149,
  "Ġtrans": 1150,
  "ople": 1151,
  "ues": 1152,
  "IN": 1154,
  "Ġfunction": 1155,
  "other": 1156,
  "Ġsm": 1159,
  "let": 1160,
  "Ġgener": 1162,
  "ren": 1163,
  "Ġafter": 1164,
  "Ġbu": 1165,
  "ures": 1166,
  "ica": 1168,
  "resent": 1169,
  "ower": 1173,
  "ork": 1175,
  "Ġatt": 1176,
  "ution": 1177,
  "ments": 1178,
  "Ġfollow": 1179,
  "self": 1180,
  "Ġnum": 1181,
  "Ġthrough": 1182,
  "eq": 1185,
  "read": 1187,
  "cite": 1188,
  "Ġdata": 1189,
  "Ġdiffere": 1190,
  "rent": 1192,
  "Ġinter": 1193,
  "Ġsol": 1196,
  "ĠUn": 1198,
  "Ġhel": 1199,
  "St": 1201,
  "Ġprodu": 1204,
  "Ġgood": 1205,
  "label": 1206,
  "ward": 1207,
  "Ġname": 1208,
  "ily": 1211,
  "led": 1212,
  "Ġdid": 1213,
  "Ġdoes": 1214,
  "hes": 1215,
  "ract": 1216,
  "quest": 1217,
  "ices": 1218,
  "Ġused": 1219,
  "Ġdown": 1221,
  "Ġend": 1223,
  "air": 1224,
  "eng": 1225,
  "Ġgreat": 1226,
  "ray": 1227,
  "Ġresult": 1228,
  "ev": 1229,
  "plic": 1230,
  "ins": 1231,
  "Ġlong": 1232,
  "Ġeven": 1234,
  "atch": 1235,
  "ON": 1236,
  "mathb": 1237,
  "uc": 1238,
  "ife": 1239,
  "ility": 1240,
  "Ġgu": 1241,
  "Ġusing": 1242,
  "Ġpeople": 1243,
  "Ġsame": 1244,
  "Ġels": 1245,
  "ative": 1249,
  "eta": 1250,
  "fore": 1251,
  "rap": 1252,
  "ting": 1253,
  "ym": 1254,
  "ĠYou": 1255,
  "ident": 1257,
  "ash": 1258,
  "Ġdet": 1259,
  "ool": 1260,
  "Ġac": 1262,
  "not": 1263,
  "Ġmuch": 1264,
  "Ġcre": 1265,
  "nce": 1266,
  "ts": 1267,
  "ator": 1268,
  "Ġpublic": 1270,
  "ĠIf": 1271,
  "Ġread": 1272,
  "Ġfind": 1273,
  "ars": 1274,
  "Ġserv": 1275,
  "Ġfl": 1276,
  "Ġcap": 1277,
  "arch": 1278,
  "ament": 1279,
  "Ġcall": 1280,
  "Ġhere": 1283,
  "val": 1284,
  "ities": 1288,
  "els": 1289,
  "amp": 1290,
  "ern": 1292,
  "Ġshow": 1294,
  "Ġhand": 1295,
  "ages": 1296,
  "irect": 1298,
  "over": 1299,
  "Ġspec": 1300,
  "Ġdist": 1302,
  "ince": 1303,
  "ew": 1305,
  "ĠAnd": 1306,
  "Ġagain": 1308,
  "Ġext": 1309,
  "Ġmany": 1311,
  "bre": 1312,
  "ml": 1313,
  "col": 1314,
  "Ġsystem": 1315,
  "Ġeach": 1317,
  "ght": 1319,
  "mer": 1320,
  "Ġbefore": 1321,
  "Ġloc": 1324,
  "Ġref": 1325,
  "ier": 1326,
  "Ġright": 1327,
  "Ġstart": 1328,
  "ased": 1330,
  "Ġcar": 1334,
  "essage": 1335,
  "Ġinv": 1336,
  "ner": 1337,
  "be": 1338,
  "ined": 1339,
  "Ġhelp": 1341,
  "ript": 1343,
  "Ġmin": 1344,
  "Ġline": 1348,
  "left": 1349,
  "day": 1351,
  "Ġeff": 1352,
  "ever": 1353,
  "Ġtra": 1355,
  "da": 1356,
  "ween": 1360,
  "era": 1362,
  "ather": 1363,
  "Ġbel": 1364,
  "ĠCom": 1366,
  "Ġbecause": 1368,
  "RE": 1369,
  "ement": 1370,
  "Ġx": 1371,
  "Ġown": 1372,
  "Ġthink": 1373,
  "aking": 1374,
  "We": 1375,
  "ĠPro": 1378,
  "Ġpol": 1379,
  "It": 1380,
  "olog": 1382,
  "atic": 1384,
  "mathcal": 1385,
  "ature": 1387,
  "ho": 1389,
  "Ġinclud": 1390,
  "ĠAl": 1391,
  "AT": 1392,
  "ead": 1395,
  "Ġmade": 1396,
  "tt": 1398,
  "ms": 1400,
  "Ġstr": 1401,
  "pend": 1402,
  "Ġche": 1403,
  "Ġrun": 1404,
  "way": 1406,
  "Ġaut": 1408,
  "man": 1409,
  "cond": 1411,
  "oid": 1413,
  "Ġpoint": 1414,
  "ider": 1415,
  "ute": 1416,
  "Ġfr": 1417,
  "la": 1419,
  "Ġgiv": 1420,
  "ton": 1421,
  "ale": 1422,
  "tain": 1424,
  "ery": 1425,
  "Pro": 1426,
  "ruct": 1427,
  "ST": 1428,
  "Ġbeing": 1430,
  "ittle": 1431,
  "Ġvalue": 1432,
  "Ġbetween": 1433,
  "ank": 1434,
  "equation": 1436,
  "ĠX": 1439,
  "Ġrep": 1441,
  "Ġdifferent": 1442,
  "Ġtype": 1443,
  "ines": 1444,
  "Ġpass": 1445,
  "ants": 1446,
  "Ġdec": 1450,
  "Ġcase": 1452,
  "Ġhigh": 1453,
  "Ġthose": 1454,
  "Ġmon": 1455,
  "Ġfam": 1456,
  "ness": 1457,
  "ots": 1458,
  "for": 1459,
  "Ġed": 1460,
  "tring": 1461,
  "Ġfil": 1462,
  "iqu": 1464,
  "Ġsign": 1465,
  "ĠEl": 1466,
  "ĠBut": 1468,
  "ric": 1469,
  "Ġwhile": 1470,
  "Ġexper": 1471,
  "pon": 1473,
  "Ġsay": 1474,
  "press": 1476,
  "ctions": 1477,
  "formation": 1478,
  "roup": 1479,
  "Ġinte": 1480,
  "ĠÃ©s": 1483,
  "Ġav": 1484,
  "Ġperson": 1485,
  "Ġday": 1486,
  "ĠFor": 1487,
  "Ex": 1488,
  "Ġvari": 1490,
  "ethod": 1491,
  "Ġdi": 1492,
  "ually": 1493,
  "ames": 1495,
  "Ġfound": 1496,
  "ample": 1501,
  "me": 1505,
  "til": 1507,
  "ouse": 1508,
  "Ġequ": 1509,
  "Ġstud": 1510,
  "dd": 1511,
  "Ġproble": 1512,
  "min": 1513,
  "vent": 1515,
  "ces": 1516,
  "Ġlist": 1517,
  "Ġsom": 1519,
  "Ġtake": 1521,
  "AR": 1522,
  "name": 1523,
  "Con": 1525,
  "Ġmust": 1526,
  "here": 1527,
  "ited": 1528,
  "Ġplay": 1530,
  "LE": 1535,
  "ody": 1536,
  "rest": 1538,
  "Ġind": 1539,
  "Ġposs": 1540,
  "span": 1541,
  "ets": 1542,
  "ĠQ": 1543,
  "Ġhav": 1544,
  "und": 1545,
  "uring": 1546,
  "Ġyears": 1547,
  "def": 1551,
  "itat": 1553,
  "Ġlast": 1554,
  "Ġchar": 1555,
  "Ġinstall": 1556,
  "Ġrequ": 1557,
  "iness": 1558,
  "This": 1559,
  "less": 1560,
  "land": 1561,
  "this": 1563,
  "Ġboth": 1564,
  "ought": 1566,
  "ĠAr": 1567,
  "pre": 1568,
  "Ġsur": 1569,
  "Ġbr": 1571,
  "Ġerr": 1572,
  "untu": 1573,
  "Ġmat": 1575,
  "Ġlittle": 1576,
  "aut": 1577,
  "inc": 1578,
  "ional": 1579,
  "sub": 1580,
  "Ġreal": 1582,
  "gan": 1583,
  "Ġstill": 1584,
  "ired": 1586,
  "ument": 1587,
  "inal": 1588,
  "work": 1589,
  "ense": 1590,
  "Ġnumber": 1594,
  "ves": 1596,
  "cept": 1597,
  "Ġbest": 1598,
  "Ġrest": 1600,
  "idth": 1602,
  "ized": 1603,
  "indow": 1605,
  "Ġbus": 1606,
  "Ġdisc": 1607,
  "alk": 1612,
  "Ġdels": 1613,
  "Ã¨nc": 1614,
  "ational": 1616,
  "cent": 1617,
  "pha": 1619,
  "part": 1621,
  "ply": 1623,
  "Ġlet": 1624,
  "ee": 1626,
  "Ġinf": 1627,
  "ava": 1629,
  "ience": 1630,
  "Ġmem": 1631,
  "Ġterm": 1632,
  "ĠAn": 1633,
  "irc": 1636,
  "bl": 1638,
  "ced": 1639,
  "Ġcurrent": 1642,
  "gram": 1644,
  "br": 1645,
  "Ġtoo": 1646,
  "Ġgl": 1649,
  "Ġvol": 1650,
  "Ġwr": 1654,
  "ason": 1656,
  "Ġpartic": 1658,
  "Ġimport": 1659,
  "Ġmight": 1660,
  "arn": 1661,
  "Ġins": 1663,
  "Ġwithout": 1666,
  "ared": 1667,
  "ault": 1668,
  "Ġvis": 1669,
  "Ġz": 1670,
  "Ġtry": 1675,
  "bar": 1677,
  "ote": 1679,
  "ĠLa": 1682,
  "Ġcount": 1683,
  "Ġtem": 1684,
  "ser": 1685,
  "ways": 1687,
  "alpha": 1688,
  "ina": 1689,
  "ades": 1691,
  "OR": 1692,
  "pec": 1693,
  "Ġprocess": 1694,
  "tic": 1696,
  "Com": 1698,
  "aj": 1702,
  "Ġll": 1703,
  "Ġele": 1704,
  "Ġold": 1705,
  "Ġdirect": 1706,
  "Ġfact": 1707,
  "velop": 1708,
  "ten": 1709,
  "ters": 1710,
  "rop": 1711,
  "Ġhome": 1712,
  "Ġopen": 1714,
  "ven": 1715,
  "Ġve": 1716,
  "ĠHow": 1717,
  "Ġtest": 1719,
  "Ġlife": 1720,
  "ĠAs": 1725,
  "Ġword": 1726,
  "Ġappro": 1728,
  "ext": 1730,
  "ething": 1731,
  "EN": 1732,
  "co": 1733,
  "td": 1735,
  "Ġmen": 1736,
  "Name": 1737,
  "ann": 1738,
  "Ġmed": 1739,
  "ished": 1740,
  "Ġcle": 1742,
  "AL": 1743,
  "Ġseem": 1744,
  "orn": 1745,
  "rol": 1746,
  "Ġinformation": 1748,
  "az": 1750,
  "Ġsmall": 1752,
  "Ġfile": 1753,
  "ior": 1754,
  "ried": 1757,
  "Ġpost": 1758,
  "ross": 1759,
  "add": 1761,
  "oci": 1762,
  "erg": 1763,
  "ases": 1764,
  "arm": 1765,
  "au": 1766,
  "riend": 1767,
  "load": 1768,
  "akes": 1770,
  "oot": 1771,
  "ved": 1773,
  "Ġdesc": 1774,
  "ĠSh": 1775,
  "bs": 1777,
  "yp": 1778,
  "html": 1779,
  "inu": 1780,
  "Ġself": 1781,
  "thing": 1782,
  "Ġcent": 1783,
  "mod": 1784,
  "ek": 1785,
  "Ġquest": 1786,
  "va": 1788,
  "Ġcour": 1789,
  "elta": 1792,
  "alse": 1793,
  "arc": 1794,
  "ambda": 1795,
  "ID": 1796,
  "pi": 1797,
  "Ġconf": 1798,
  "Ġplace": 1799,
  "ives": 1801,
  "ustom": 1803,
  "ides": 1804,
  "gg": 1806,
  "ĠmÃ©s": 1808,
  "Ġra": 1809,
  "lease": 1810,
  "Ġdesign": 1811,
  "ware": 1812,
  "Ġpower": 1813,
  "ĠCon": 1814,
  "Ġproper": 1816,
  "Ġpresent": 1819,
  "view": 1820,
  "nect": 1823,
  "Id": 1825,
  "Ġorder": 1826,
  "sum": 1828,
  "new": 1829,
  "Ġeas": 1830,
  "trans": 1831,
  "Ġhapp": 1832,
  "Ġcr": 1834,
  "Ġworld": 1835,
  "rem": 1836,
  "If": 1840,
  "atur": 1844,
  "Ġthree": 1846,
  "Ġsupport": 1848,
  "ivers": 1849,
  "ĠFr": 1851,
  "arge": 1852,
  "Ġfew": 1853,
  "ĠCl": 1854,
  "ertain": 1855,
  "Ġsecond": 1856,
  "Ġcome": 1857,
  "Ġnever": 1858,
  "Ġchild": 1859,
  "ccess": 1860,
  "Ġtop": 1861,
  "cur": 1862,
  "amma": 1863,
  "Ġgoing": 1864,
  "Ġsomething": 1866,
  "El": 1869,
  "apt": 1870,
  "SE": 1871,
  "umn": 1872,
  "lation": 1873,
  "ered": 1874,
  "Ġoper": 1875,
  "uss": 1876,
  "alth": 1877,
  "amet": 1878,
  "back": 1879,
  "var": 1881,
  "arly": 1883,
  "Ġfollowing": 1884,
  "Ġide": 1885,
  "vert": 1887,
  "Ġbre": 1888,
  "To": 1889,
  "version": 1890,
  "ped": 1891,
  "import": 1892,
  "ality": 1893,
  "ify": 1895,
  "Ġsl": 1896,
  "Ġet": 1898,
  "ream": 1900,
  "raph": 1901,
  "Ġanother": 1903,
  "source": 1905,
  "Ġdev": 1906,
  "Ġhead": 1907,
  "ency": 1908,
  "esc": 1910,
  "Ġreally": 1912,
  "ik": 1913,
  "Ġhref": 1914,
  "Ch": 1915,
  "ĠRe": 1916,
  "Ġtrue": 1917,
  "Ġprof": 1918,
  "Type": 1920,
  "Ġsk": 1922,
  "ists": 1923,
  "reg": 1928,
  "itor": 1929,
  "Ġeffect": 1930,
  "Ġproduct": 1932,
  "yn": 1933,
  "AN": 1934,
  "mu": 1935,
  "Ġturn": 1936,
  "Ġopt": 1941,
  "Ġpur": 1943,
  "ĠThey": 1945,
  "by": 1946,
  "Ġput": 1947,
  "Ġalways": 1948,
  "wh": 1951,
  "Ġsince": 1952,
  "reen": 1957,
  "Ġmain": 1959,
  "Ġsw": 1961,
  "ott": 1963,
  "ger": 1964,
  "Ar": 1966,
  "Ġstate": 1967,
  "Ġelse": 1969,
  "comm": 1970,
  "ĠZ": 1971,
  "ĠSe": 1972,
  "Ġaround": 1973,
  "ask": 1974,
  "Ġid": 1975,
  "Ġinde": 1976,
  "ĠDe": 1977,
  "For": 1978,
  "att": 1979,
  "son": 1980,
  "arent": 1981,
  "Cl": 1982,
  "date": 1984,
  "Ġmark": 1985,
  "por": 1987,
  "chool": 1988,
  "ism": 1990,
  "ien": 1991,
  "mathbb": 1993,
  "sw": 1994,
  "ining": 1995,
  "ĠNew": 1996,
  "message": 1997,
  "Ġallow": 1998,
  "yle": 1999,
  "Ġmet": 2000,
  "Ġthings": 2001,
  "item": 2002,
  "itz": 2003,
  "String": 2005,
  "str": 2006,
  "Ġbetter": 2007,
  "Ġmodel": 2008,
  "stand": 2009,
  "Ġfield": 2010,
  "Ġlead": 2012,
  "ole": 2013,
  "ope": 2014,
  "med": 2015,
  "chn": 2016,
  "Ġgiven": 2017,
  "Al": 2018,
  "roll": 2019,
  "ering": 2020,
  "Ġadv": 2021,
  "log": 2022,
  "ization": 2023,
  "raw": 2024,
  "igma": 2026,
  "Ġstand": 2027,
  "Ġcond": 2028,
  "ified": 2030,
  "Ġprogram": 2031,
  "Ġdevelop": 2034,
  "play": 2035,
  "ength": 2036,
  "Ġsure": 2037,
  "Ġmethod": 2040,
  "You": 2042,
  "loc": 2043,
  "eps": 2045,
  "Ġmean": 2047,
  "Ġseg": 2048,
  "Ġtot": 2049,
  "Ġcare": 2050,
  "ah": 2051,
  "ither": 2052,
  "Ġupon": 2053,
  "Ġproblem": 2054,
  "Ġvan": 2056,
  "Ġpat": 2057,
  "Ġpres": 2058,
  "ĠThere": 2059,
  "Ġhard": 2062,
  "omen": 2063,
  "Res": 2064,
  "ception": 2065,
  "ĠEx": 2066,
  "oss": 2067,
  "CT": 2068,
  "cul": 2073,
  "ĠSo": 2074,
  "Ġask": 2076,
  "Ġsing": 2079,
  "Ġfree": 2082,
  "ule": 2083,
  "Ġsit": 2084,
  "oh": 2085,
  "serv": 2086,
  "ral": 2087,
  "Ġappe": 2088,
  "Ġgive": 2090,
  "ential": 2091,
  "Ġbusiness": 2093,
  "ailable": 2095,
  "ital": 2097,
  "cont": 2098,
  "Ġperform": 2099,
  "Ġnext": 2100,
  "ron": 2102,
  "Ġwon": 2103,
  "Ġleft": 2104,
  "IT": 2105,
  "ctor": 2106,
  "hor": 2107,
  "code": 2108,
  "htt": 2109,
  "Ġlog": 2110,
  "As": 2111,
  "Ġlove": 2113,
  "Ġprim": 2114,
  "ĠIs": 2115,
  "ately": 2117,
  "ĠShe": 2118,
  "Ġkey": 2119,
  "ria": 2122,
  "Ġbook": 2123,
  "return": 2125,
  "ively": 2126,
  "Ġfriend": 2127,
  "che": 2128,
  "ĠTr": 2131,
  "Ġsent": 2132,
  "Ġexpl": 2133,
  "Ġten": 2135,
  "ele": 2137,
  "Ġgot": 2138,
  "type": 2139,
  "uff": 2140,
  "ook": 2141,
  "Ġlight": 2144,
  "ane": 2145,
  "ĠTo": 2147,
  "Ġobject": 2148,
  "SS": 2150,
  "Ġexpect": 2151,
  "ateg": 2152,
  "bol": 2153,
  "aster": 2154,
  "org": 2156,
  "Ġnon": 2159,
  "itions": 2160,
  "bf": 2161,
  "Ġiss": 2162,
  "ache": 2164,
  "Ġcou": 2165,
  "width": 2166,
  "align": 2167,
  "ey": 2169,
  "ĠWh": 2170,
  "ush": 2171,
  "rivate": 2172,
  "Ġcal": 2173,
  "Val": 2174,
  "class": 2176,
  "ably": 2178,
  "Ġerror": 2179,
  "Ġinterest": 2180,
  "Ġcomple": 2182,
  "Ġcho": 2184,
  "ĠMr": 2185,
  "phi": 2186,
  "Ġpossible": 2188,
  "section": 2190,
  "aps": 2191,
  "Ġfull": 2192,
  "mathbf": 2193,
  "Ġexample": 2194,
  "itle": 2195,
  "erc": 2197,
  "ains": 2200,
  "met": 2203,
  "Ġmar": 2204,
  "Ġfeel": 2205,
  "Ġthought": 2207,
  "An": 2211,
  "fe": 2213,
  "hip": 2214,
  "Ġconsider": 2216,
  "lish": 2217,
  "ety": 2218,
  "ries": 2219,
  "lambda": 2221,
  "ically": 2223,
  "Ref": 2224,
  "Ġcorre": 2225,
  "Ġdat": 2227,
  "bers": 2228,
  "ling": 2229,
  "ĠCol": 2230,
  "Ġkeep": 2231,
  "Ġmult": 2232,
  "erence": 2233,
  "where": 2234,
  "Ġincre": 2235,
  "Ġless": 2236,
  "opt": 2237,
  "Ġable": 2238,
  "Ġvar": 2241,
  "Ġseu": 2242,
  "cd": 2243,
  "ww": 2244,
  "List": 2245,
  "RO": 2246,
  "Ġdri": 2247,
  "Ġlevel": 2248,
  "Ġport": 2249,
  "ume": 2250,
  "Ġchange": 2252,
  "aces": 2255,
  "net": 2257,
  "aw": 2258,
  "ided": 2259,
  "Ġrece": 2260,
  "ances": 2261,
  "inter": 2263,
  "ently": 2264,
  "Ġbro": 2265,
  "ift": 2267,
  "En": 2269,
  "And": 2270,
  "rist": 2271,
  "arget": 2272,
  "box": 2273,
  "ability": 2274,
  "face": 2276,
  "top": 2277,
  "param": 2280,
  "den": 2281,
  "ĠEng": 2282,
  "unic": 2283,
  "ĠPl": 2284,
  "ida": 2285,
  "Ġcost": 2286,
  "with": 2287,
  "Ġbuild": 2288,
  "ED": 2289,
  "Ġnet": 2290,
  "Ġlocal": 2291,
  "Ġaway": 2292,
  "rr": 2293,
  "go": 2294,
  "ana": 2298,
  "Ġproject": 2299,
  "Ġstat": 2302,
  "util": 2303,
  "fo": 2305,
  "ember": 2306,
  "Ġlarge": 2307,
  "Ġduring": 2310,
  "mon": 2311,
  "ention": 2314,
  "Ġavailable": 2315,
  "Ġocc": 2317,
  "Ġpo": 2318,
  "Ġfinal": 2319,
  "Ġlim": 2320,
  "Ġabove": 2321,
  "ision": 2323,
  "Ġtre": 2324,
  "ĠInd": 2325,
  "Ġcirc": 2326,
  "Ġmom": 2327,
  "Ġenc": 2328,
  "figure": 2331,
  "Ġcheck": 2332,
  "ology": 2333,
  "Ġview": 2334,
  "Ġpot": 2335,
  "ised": 2336,
  "acter": 2337,
  "ived": 2340,
  "ado": 2341,
  "ĠEn": 2344,
  "Ġwater": 2345,
  "use": 2346,
  "ready": 2347,
  "AM": 2348,
  "ĠAp": 2351,
  "Ġnull": 2352,
  "alt": 2353,
  "Ġchang": 2355,
  "asure": 2356,
  "ĠNo": 2357,
  "Ġfar": 2358,
  "Ġdone": 2359,
  "LL": 2360,
  "ission": 2362,
  "Ġcame": 2363,
  "Ġimportant": 2364,
  "Ġtable": 2365,
  "most": 2366,
  "ables": 2368,
  "ird": 2369,
  "but": 2370,
  "unity": 2371,
  "Ġwithin": 2372,
  "Ġapplic": 2373,
  "Ġcustom": 2374,
  "ilon": 2375,
  "Ġside": 2376,
  "Ġbeh": 2377,
  "Ġpack": 2379,
  "ocument": 2380,
  "head": 2381,
  "Ġaff": 2382,
  "fun": 2384,
  "But": 2385,
  "ges": 2386,
  "vious": 2387,
  "Ġgeneral": 2391,
  "ails": 2392,
  "angle": 2395,
  "Ġdr": 2397,
  "Ġsize": 2398,
  "Ġprob": 2399,
  "Ġtell": 2400,
  "dis": 2401,
  "ĠGr": 2404,
  "iment": 2405,
  "lection": 2406,
  "uit": 2407,
  "Ġservice": 2408,
  "ona": 2410,
  "Ġthing": 2411,
  "Ġinc": 2412,
  "Ġcalled": 2414,
  "Ġorig": 2415,
  "ĠOn": 2416,
  "ga": 2417,
  "ĠAll": 2418,
  "Ġhum": 2419,
  "ait": 2420,
  "ET": 2421,
  "Ġtext": 2422,
  "Ġnom": 2424,
  "aper": 2425,
  "Ġmov": 2426,
  "Ġver": 2427,
  "ager": 2428,
  "uck": 2429,
  "Cont": 2431,
  "ours": 2432,
  "Ġpop": 2434,
  "Ġkind": 2436,
  "Ġplan": 2438,
  "He": 2439,
  "Ġthough": 2440,
  "Ġhist": 2441,
  "Ġapp": 2442,
  "Ġseva": 2443,
  "Ġmeans": 2445,
  "Ġconnect": 2446,
  "key": 2447,
  "data": 2448,
  "Ġart": 2449,
  "ĠWhat": 2450,
  "Ġaccess": 2451,
  "Ġintern": 2452,
  "atal": 2454,
  "ially": 2455,
  "no": 2459,
  "ieve": 2460,
  "Ġresults": 2461,
  "ĠWhen": 2463,
  "duct": 2468,
  "Ġlib": 2469,
  "Ġagainst": 2470,
  "Ġanal": 2471,
  "Ġmonth": 2472,
  "fect": 2473,
  "ribut": 2474,
  "Ġtechn": 2475,
  "Tr": 2476,
  "Ġey": 2477,
  "ĠOr": 2478,
  "na": 2479,
  "array": 2482,
  "Ġlow": 2485,
  "beta": 2486,
  "Ġhaving": 2487,
  "ĠSc": 2488,
  "pose": 2490,
  "Ġfre": 2491,
  "atter": 2492,
  "list": 2493,
  "Ġvoid": 2494,
  "Ġbas": 2495,
  "Ġprom": 2496,
  "Ġdays": 2498,
  "Ġreport": 2499,
  "sigma": 2502,
  "Ġquestion": 2503,
  "aven": 2504,
  "DE": 2505,
  "itive": 2506,
  "Ġspace": 2507,
  "Ġdepend": 2508,
  "ploy": 2509,
  "alf": 2510,
  "translation": 2511,
  "oney": 2512,
  "Ġcommand": 2514,
  "Ġfalse": 2515,
  "Ġenough": 2516,
  "ponse": 2518,
  "Ġprote": 2519,
  "buntu": 2520,
  "gl": 2521,
  "Ġevent": 2525,
  "vern": 2526,
  "px": 2527,
  "IC": 2530,
  "ister": 2531,
  "ium": 2533,
  "ret": 2534,
  "II": 2536,
  "ĠMar": 2537,
  "ards": 2539,
  "Ġgrow": 2544,
  "Ġsum": 2545,
  "Ġteam": 2547,
  "Ġhouse": 2548,
  "pm": 2549,
  "Ġonce": 2551,
  "Ġweek": 2552,
  "Ġroom": 2553,
  "Ġrepresent": 2554,
  "roid": 2555,
  "Ġbig": 2557,
  "iron": 2558,
  "Ġcertain": 2559,
  "ape": 2560,
  "Ġalready": 2561,
  "Ã¨ncies": 2562,
  "that": 2564,
  "ĠSp": 2566,
  "Ġshort": 2567,
  "Ġunderstand": 2569,
  "ler": 2570,
  "lu": 2572,
  "ination": 2573,
  "bt": 2574,
  "ĠAmer": 2575,
  "includ": 2576,
  "irt": 2577,
  "ples": 2579,
  "Ġparticular": 2580,
  "mathrm": 2581,
  "Ġgroup": 2582,
  "pond": 2584,
  "AC": 2585,
  "itional": 2586,
  "action": 2587,
  "iles": 2588,
  "my": 2589,
  "Ġtimes": 2591,
  "Ġlot": 2592,
  "Ġorgan": 2593,
  "Ġcreate": 2594,
  "Ġcompany": 2595,
  "ĠThat": 2596,
  "ĠPr": 2597,
  "ĠAd": 2598,
  "string": 2600,
  "ĠUS": 2604,
  "Ġfamily": 2605,
  "Ġyet": 2606,
  "rc": 2607,
  "Col": 2608,
  "ession": 2609,
  "Ġpay": 2610,
  "ended": 2611,
  "Ġgame": 2612,
  "indows": 2614,
  "Ġversion": 2615,
  "Ġcourse": 2617,
  "Ġmus": 2618,
  "Ġexc": 2619,
  "ground": 2620,
  "ilar": 2621,
  "af": 2623,
  "Ġsuccess": 2624,
  "Ġben": 2625,
  "Ġexist": 2627,
  "What": 2628,
  "Ġret": 2629,
  "Ġwhy": 2630,
  "Ġu": 2631,
  "Ġuntil": 2632,
  "Ġmor": 2633,
  "Ġever": 2634,
  "sq": 2635,
  "outh": 2636,
  "Ġrespect": 2637,
  "itch": 2638,
  "Ġnight": 2639,
  "Ġaccount": 2640,
  "ĠPh": 2644,
  "Ġsat": 2645,
  "umber": 2647,
  "ius": 2648,
  "Ġstring": 2649,
  "script": 2650,
  "ox": 2652,
  "Ġelect": 2656,
  "ador": 2657,
  "opy": 2658,
  "ĠLe": 2660,
  "Ġwent": 2661,
  "ription": 2663,
  "Ġuser": 2664,
  "iter": 2666,
  "Ġfore": 2667,
  "ĠMy": 2669,
  "Ġbit": 2670,
  "Ġfour": 2672,
  "word": 2674,
  "Ġcontrol": 2675,
  "ero": 2678,
  "aken": 2679,
  "istr": 2680,
  "Ġworking": 2681,
  "Ġschool": 2682,
  "Ġbeg": 2684,
  "Ġtyp": 2690,
  "Ġmot": 2691,
  "gamma": 2692,
  "ĠUbuntu": 2693,
  "ients": 2694,
  "Ob": 2695,
  "ffic": 2696,
  "Ġlooking": 2697,
  "Ġcomput": 2698,
  "hing": 2699,
  "aterial": 2700,
  "arrow": 2701,
  "By": 2704,
  "atures": 2706,
  "ones": 2708,
  "Ġworks": 2709,
  "ique": 2710,
  "ci": 2711,
  "IS": 2713,
  "Data": 2714,
  "Ġalong": 2715,
  "side": 2716,
  "aring": 2717,
  "ES": 2718,
  "ping": 2719,
  "Ġselect": 2721,
  "ories": 2722,
  "ley": 2723,
  "ls": 2724,
  "ording": 2726,
  "Ġgovern": 2727,
  "lem": 2728,
  "Ġident": 2729,
  "ĠRes": 2730,
  "Ġarg": 2731,
  "ips": 2733,
  "ĠBe": 2735,
  "Ġexp": 2736,
  "ION": 2738,
  "Ġprivate": 2740,
  "Ġoften": 2741,
  "Ġlaw": 2742,
  "Ġleast": 2743,
  "ĠCan": 2744,
  "iver": 2745,
  "Ġleg": 2747,
  "ura": 2748,
  "urs": 2750,
  "Ġlay": 2751,
  "Ġeng": 2752,
  "Ġmind": 2753,
  "vol": 2754,
  "urther": 2755,
  "ormal": 2756,
  "ajor": 2757,
  "Ph": 2758,
  "ills": 2759,
  "ĠGod": 2760,
  "Ã³n": 2761,
  "Ġprovide": 2764,
  "Re": 2767,
  "orth": 2768,
  "Ġmoment": 2771,
  "rip": 2772,
  "Ġinput": 2773,
  "HE": 2774,
  "Ġexperience": 2775,
  "Ġhold": 2776,
  "Ġshall": 2777,
  "OT": 2778,
  "ubuntu": 2779,
  "sec": 2781,
  "mp": 2782,
  "ocial": 2783,
  "Ġstruct": 2784,
  "now": 2785,
  "Ġmag": 2788,
  "ĠBl": 2789,
  "Ġparamet": 2790,
  "posed": 2791,
  "Ġhealth": 2792,
  "ĠAt": 2793,
  "mit": 2795,
  "Ġreason": 2796,
  "ĠMan": 2797,
  "mb": 2798,
  "file": 2800,
  "ohn": 2802,
  "ista": 2803,
  "Ġsingle": 2805,
  "test": 2806,
  "Ġeither": 2807,
  "How": 2808,
  "rror": 2809,
  "Ġwrit": 2810,
  "Ġinit": 2811,
  "Ġyoung": 2812,
  "ogle": 2813,
  "Ġmill": 2814,
  "Ġseen": 2815,
  "Ġoutput": 2816,
  "aph": 2820,
  "udo": 2821,
  "itud": 2822,
  "Ġsever": 2823,
  "value": 2824,
  "iod": 2825,
  "Un": 2826,
  "inst": 2827,
  "Ġsoft": 2829,
  "AP": 2831,
  "rho": 2832,
  "Ġsuper": 2833,
  "const": 2834,
  "Ġdoesn": 2835,
  "Ġansw": 2836,
  "Ġincluding": 2837,
  "leq": 2838,
  "wards": 2839,
  "gether": 2841,
  "Ġbased": 2842,
  "Ġtogether": 2843,
  "ouble": 2844,
  "Ġexpress": 2845,
  "delta": 2846,
  "do": 2848,
  "Ġitem": 2849,
  "order": 2851,
  "ification": 2852,
  "Ġenerg": 2853,
  "acions": 2855,
  "Ġhi": 2856,
  "ambÃ©": 2857,
  "iving": 2858,
  "Ã¨ncia": 2859,
  "ivity": 2860,
  "ĠCar": 2862,
  "ideo": 2865,
  "Ġfix": 2866,
  "Ġbelow": 2867,
  "sel": 2868,
  "big": 2871,
  "Ġpast": 2872,
  "Ġmaking": 2873,
  "oman": 2874,
  "lib": 2875,
  "La": 2878,
  "ĠGu": 2881,
  "Ġmarket": 2882,
  "ored": 2884,
  "Ġsitu": 2885,
  "fort": 2886,
  "leg": 2887,
  "incip": 2889,
  "Ġclos": 2890,
  "ales": 2892,
  "Ġobtain": 2893,
  "ources": 2894,
  "Ġera": 2895,
  "body": 2898,
  "theta": 2899,
  "ai": 2901,
  "ican": 2904,
  "Ġalt": 2906,
  "Ġcorrect": 2907,
  "search": 2908,
  "ules": 2909,
  "On": 2910,
  "Ġcomplet": 2912,
  "acy": 2913,
  "Ġlik": 2914,
  "time": 2915,
  "Ġcomb": 2916,
  "ĠThen": 2917,
  "Ġmass": 2918,
  "angu": 2920,
  "Ġinvest": 2921,
  "table": 2922,
  "tau": 2925,
  "Ġphot": 2926,
  "Ġmove": 2927,
  "Ġenv": 2928,
  "ids": 2929,
  "ulation": 2931,
  "refore": 2932,
  "Value": 2933,
  "ĠUnivers": 2934,
  "Ġpract": 2936,
  "uro": 2937,
  "ymbol": 2938,
  "sk": 2939,
  "Ġhtt": 2941,
  "ened": 2942,
  "Ġstrong": 2943,
  "ĉif": 2944,
  "Ġrepl": 2946,
  "dev": 2947,
  "There": 2948,
  "ched": 2949,
  "OS": 2951,
  "Ġhig": 2953,
  "una": 2955,
  "Ġentre": 2957,
  "Ġpob": 2958,
  "off": 2959,
  "Ġsays": 2960,
  "Ġseveral": 2961,
  "Sh": 2962,
  "Ġbreak": 2963,
  "Set": 2964,
  "aim": 2965,
  "Ġsimple": 2966,
  "Ġcannot": 2967,
  "iques": 2968,
  "times": 2969,
  "empt": 2970,
  "Ġredu": 2971,
  "Ġmeet": 2972,
  "que": 2973,
  "Ġcode": 2974,
  "Ġdest": 2976,
  "Ġrequire": 2977,
  "ĠWith": 2980,
  "ams": 2981,
  "Ġnecess": 2982,
  "Ġaddress": 2983,
  "Ġcas": 2984,
  "Ġheart": 2986,
  "Ġdiv": 2987,
  "Ġfut": 2988,
  "Ġwhole": 2989,
  "ump": 2990,
  "erÃ¨ncies": 2991,
  "ocus": 2992,
  "uration": 2993,
  "aint": 2994,
  "init": 2995,
  "cle": 2996,
  "Ġdeterm": 2997,
  "Ã¨s": 2998,
  "nu": 3000,
  "Ġnothing": 3001,
  "Im": 3004,
  "ison": 3005,
  "idual": 3007,
  "CO": 3008,
  "bu": 3009,
  "Ġimpro": 3010,
  "Ġchildren": 3011,
  "ĠChrist": 3012,
  "iar": 3014,
  "size": 3017,
  "Ġonline": 3019,
  "tes": 3020,
  "arning": 3021,
  "Ġpage": 3024,
  "ury": 3025,
  "rodu": 3026,
  "Ġspecial": 3028,
  "Ġvalues": 3029,
  "Ġcolor": 3032,
  "ene": 3033,
  "Ġmax": 3034,
  "ailed": 3035,
  "Ġarea": 3036,
  "eqref": 3040,
  "Ġspecific": 3041,
  "Ġmoney": 3042,
  "ĠPer": 3043,
  "arr": 3046,
  "Ġface": 3048,
  "Ġcontinu": 3049,
  "Ġtook": 3050,
  "oud": 3052,
  "Ġcommon": 3053,
  "Ġsound": 3055,
  "ĠBr": 3057,
  "Ġstop": 3058,
  "Ġlearn": 3059,
  "Ġothers": 3060,
  "Ġwords": 3061,
  "Ġred": 3062,
  "Ġtalk": 3063,
  "ising": 3064,
  "Ġsense": 3066,
  "Ġcreat": 3067,
  "Ġbound": 3068,
  "sm": 3069,
  "Ġsimilar": 3071,
  "Ġpel": 3072,
  "Ġcountry": 3073,
  "anks": 3074,
  "ball": 3075,
  "Ġpath": 3076,
  "Ġsugg": 3078,
  "Ġcontent": 3082,
  "ung": 3086,
  "rix": 3088,
  "ino": 3089,
  "ians": 3091,
  "Ġrequest": 3092,
  "Ġabs": 3095,
  "imal": 3096,
  "Is": 3098,
  "Ġhowever": 3099,
  "Ġjob": 3100,
  "mat": 3101,
  "Ġland": 3102,
  "ending": 3104,
  "Get": 3106,
  "Ġdom": 3107,
  "Ġalg": 3108,
  "une": 3109,
  "Ġbody": 3110,
  "Ġdescrib": 3112,
  "ĠPar": 3113,
  "Ġsuggest": 3115,
  "Ġsource": 3117,
  "ĠDo": 3119,
  "Ġvolt": 3120,
  "atural": 3121,
  "color": 3122,
  "ReferÃ¨ncies": 3123,
  "resh": 3124,
  "ĠTe": 3125,
  "So": 3127,
  "ĠQu": 3130,
  "ension": 3131,
  "xi": 3132,
  "Ġmajor": 3133,
  "partial": 3136,
  "Ġquite": 3138,
  "View": 3140,
  "ained": 3144,
  "AS": 3146,
  "Ġobserv": 3147,
  "ĠHowever": 3149,
  "omega": 3152,
  "fty": 3153,
  "from": 3154,
  "Ġenergy": 3155,
  "Ġesc": 3156,
  "agement": 3157,
  "Ġrange": 3160,
  "Or": 3161,
  "Ġtw": 3162,
  "iction": 3164,
  "ured": 3166,
  "Ġhimself": 3167,
  "mand": 3168,
  "room": 3169,
  "Ġcamp": 3171,
  "irm": 3173,
  "Ġknown": 3174,
  "omet": 3175,
  "ued": 3177,
  "Ġmakes": 3179,
  "Ġconc": 3180,
  "ences": 3181,
  "Ġfiles": 3182,
  "position": 3185,
  "rows": 3186,
  "Ġcharacter": 3188,
  "fully": 3189,
  "Ġwhether": 3192,
  "Ġpod": 3193,
  "light": 3194,
  "AD": 3195,
  "Ġair": 3196,
  "Ġbeaut": 3197,
  "Ap": 3198,
  "Se": 3199,
  "cm": 3203,
  "ba": 3205,
  "Ġespec": 3206,
  "Ġdoing": 3207,
  "With": 3209,
  "Ġindiv": 3210,
  "Ġhalf": 3211,
  "Ġtotal": 3212,
  "Ġperfect": 3213,
  "rt": 3214,
  "icro": 3215,
  "Ġvisit": 3218,
  "UT": 3219,
  "IM": 3220,
  "No": 3221,
  "book": 3222,
  "Ġals": 3223,
  "Wh": 3224,
  "oll": 3225,
  "Ġaquest": 3226,
  "aged": 3227,
  "nection": 3230,
  "Ġeasy": 3232,
  "Ġacross": 3233,
  "ival": 3234,
  "Ġservices": 3235,
  "Ġvi": 3237,
  "ches": 3238,
  "Ġstre": 3239,
  "Ġbase": 3240,
  "Ġbar": 3241,
  "Ġear": 3244,
  "Ġidea": 3245,
  "Ġbecome": 3248,
  "which": 3249,
  "aced": 3250,
  "Ġamong": 3251,
  "ols": 3252,
  "Ġdue": 3253,
  "joy": 3254,
  "Ġrunning": 3255,
  "Ġanything": 3257,
  "Ġmeasure": 3258,
  "Ġrather": 3259,
  "path": 3261,
  "ĠCent": 3262,
  "utes": 3263,
  "Ġneeds": 3264,
  "ilt": 3265,
  "field": 3267,
  "quad": 3268,
  "Ġflo": 3269,
  "ĠString": 3270,
  "Ġcaus": 3271,
  "Ġprincip": 3272,
  "When": 3274,
  "Ġtrad": 3275,
  "Ġfav": 3276,
  "Ġfill": 3278,
  "Ġden": 3279,
  "Ġfa": 3280,
  "ney": 3281,
  "Ind": 3283,
  "Mod": 3284,
  "Ġposition": 3286,
  "Ġsite": 3289,
  "Ġdiscuss": 3290,
  "space": 3291,
  "plement": 3293,
  "Ġqual": 3294,
  "Ġalmost": 3295,
  "mm": 3297,
  "Ġlos": 3298,
  "Ġload": 3299,
  "All": 3301,
  "lex": 3302,
  "rs": 3303,
  "tilde": 3304,
  "Exception": 3305,
  "Ġdidn": 3306,
  "Ġpaper": 3308,
  "UR": 3309,
  "Ġimage": 3310,
  "ita": 3311,
  "ĠJohn": 3312,
  "Ġpress": 3313,
  "Ġstatic": 3314,
  "infty": 3316,
  "Ġrad": 3318,
  "ief": 3319,
  "Ġnetwork": 3320,
  "ze": 3321,
  "ING": 3322,
  "AB": 3323,
  "Ġimp": 3326,
  "ural": 3327,
  "Ġnear": 3329,
  "mary": 3331,
  "imum": 3332,
  "Ġann": 3333,
  "Ġseems": 3336,
  "rew": 3338,
  "icial": 3340,
  "Ġmaterial": 3341,
  "Ġcontin": 3342,
  "function": 3344,
  "Ġdefault": 3346,
  "though": 3347,
  "Ġsearch": 3348,
  "Ġactually": 3353,
  "rown": 3354,
  "see": 3355,
  "Ġhom": 3356,
  "imate": 3357,
  "Ġcorres": 3359,
  "ties": 3360,
  "Ġrecord": 3361,
  "Ġwebs": 3362,
  "Qu": 3363,
  "ara": 3367,
  "odes": 3368,
  "igure": 3369,
  "Ġetc": 3371,
  "Int": 3373,
  "bit": 3374,
  "pen": 3375,
  "http": 3376,
  "osp": 3378,
  "ĠIN": 3379,
  "Ġstyle": 3381,
  "sim": 3382,
  "Ġquick": 3383,
  "isf": 3385,
  "urant": 3386,
  "rain": 3387,
  "CH": 3388,
  "obal": 3390,
  "icy": 3391,
  "Ġtarget": 3393,
  "ĠThese": 3394,
  "Ġdocument": 3396,
  "icult": 3397,
  "Ġclose": 3399,
  "ators": 3400,
  "ike": 3401,
  "Ġsolution": 3402,
  "Ġground": 3403,
  "ĉreturn": 3404,
  "asc": 3405,
  "Ġcut": 3407,
  "Ġfund": 3408,
  "Ġfood": 3411,
  "Ġneg": 3412,
  "eb": 3413,
  "Ġrequired": 3414,
  "rary": 3415,
  "Ġinclude": 3417,
  "Error": 3419,
  "icon": 3420,
  "Ġstudy": 3421,
  "Ġblack": 3422,
  "Ġaction": 3423,
  "gu": 3425,
  "Ġgetting": 3426,
  "Ġtaken": 3427,
  "cciÃ³": 3428,
  "Ġsoon": 3429,
  "Delta": 3430,
  "lim": 3431,
  "Ġcomes": 3436,
  "Ġindividual": 3437,
  "Ġoptions": 3438,
  "ervice": 3439,
  "Object": 3440,
  "ires": 3442,
  "Ġstep": 3443,
  "Ġgir": 3444,
  "Ġflow": 3445,
  "ibility": 3446,
  "Ġconfig": 3447,
  "Ġperiod": 3448,
  "Ġtro": 3449,
  "Ġfall": 3452,
  "iful": 3453,
  "Ġlater": 3455,
  "Ġbuy": 3456,
  "ĠCont": 3458,
  "ĠOne": 3459,
  "fl": 3461,
  "Ġemploy": 3463,
  "Ġoption": 3464,
  "elt": 3467,
  "clus": 3468,
  "atus": 3469,
  "isk": 3470,
  "ached": 3471,
  "Ġpoints": 3472,
  "Ġbegin": 3473,
  "Ġhab": 3474,
  "ruction": 3475,
  "js": 3476,
  "ram": 3477,
  "ternal": 3478,
  "location": 3479,
  "aving": 3481,
  "raf": 3482,
  "QL": 3483,
  "ega": 3484,
  "lement": 3486,
  "Ġmatter": 3487,
  "ĠSer": 3489,
  "Ġsaw": 3490,
  "abase": 3491,
  "Ġtrying": 3492,
  "Ġexact": 3493,
  "ceed": 3494,
  "Ġanswer": 3495,
  "nb": 3496,
  "Ġquality": 3497,
  "inary": 3498,
  "idd": 3499,
  "Def": 3501,
  "ĠEnglish": 3502,
  "rup": 3503,
  "ribute": 3504,
  "down": 3506,
  "oke": 3507,
  "ribution": 3508,
  "Ã§a": 3510,
  "Add": 3511,
  "ĠAss": 3512,
  "Ġresp": 3513,
  "url": 3514,
  "selves": 3515,
  "Ġlive": 3516,
  "ĠDes": 3517,
  "Test": 3519,
  "Ġartic": 3520,
  "Ġshows": 3521,
  "gress": 3524,
  "ged": 3526,
  "Ġtold": 3527,
  "unch": 3528,
  "Ġeyes": 3530,
  "index": 3531,
  "Ġcompon": 3533,
  "tings": 3534,
  "Ġfac": 3535,
  "Ġhot": 3536,
  "ĠtambÃ©": 3537,
  "Ġindic": 3539,
  "empl": 3540,
  "ironment": 3542,
  "lev": 3543,
  "aff": 3544,
  "cho": 3545,
  "ster": 3546,
  "cdot": 3547,
  "olution": 3548,
  "ving": 3549,
  "ĠBy": 3550,
  "ends": 3551,
  "Ġlarg": 3553,
  "At": 3554,
  "verage": 3557,
  "Ġtoday": 3558,
  "Ġfurther": 3559,
  "Ġtreat": 3561,
  "Ġder": 3562,
  "ND": 3563,
  "Ġsepar": 3565,
  "public": 3566,
  "itted": 3567,
  "Ġexec": 3568,
  "lay": 3569,
  "Ġphys": 3570,
  "orem": 3571,
  "ĠEst": 3572,
  "Ġproperty": 3574,
  "Ġprevious": 3577,
  "Ġpret": 3578,
  "Ġmap": 3579,
  "Ġorg": 3581,
  "anguage": 3583,
  "input": 3584,
  "ns": 3585,
  "link": 3587,
  "ĠVal": 3588,
  "Ġhor": 3589,
  "ario": 3590,
  "Ġsubject": 3592,
  "Ġmil": 3593,
  "tab": 3594,
  "Ġmiss": 3597,
  "Ġsocial": 3601,
  "Ġinstead": 3603,
  "oin": 3604,
  "Ġissue": 3605,
  "urch": 3606,
  "igu": 3608,
  "ux": 3609,
  "ottom": 3611,
  "comp": 3612,
  "Ġassoci": 3613,
  "abor": 3614,
  "ando": 3615,
  "uth": 3616,
  "idence": 3617,
  "ony": 3618,
  "user": 3619,
  "Ġoriginal": 3620,
  "ograph": 3621,
  "Ġbelieve": 3622,
  "Ġlink": 3624,
  "Ġasked": 3625,
  "ĠMay": 3626,
  "Ġprint": 3628,
  "itten": 3630,
  "ells": 3632,
  "iding": 3633,
  "abled": 3634,
  "Not": 3635,
  "medi": 3637,
  "umer": 3638,
  "ĠSystem": 3639,
  "oon": 3640,
  "Ġhope": 3643,
  "Ġtried": 3645,
  "ĠGo": 3647,
  "US": 3648,
  "ĠInst": 3649,
  "Ġclear": 3650,
  "Ġpref": 3651,
  "pack": 3652,
  "IG": 3654,
  "Ġwalk": 3655,
  "prÃ©s": 3656,
  "uments": 3657,
  "Ġtri": 3659,
  "My": 3662,
  "Ġsil": 3663,
  "isc": 3664,
  "Ġpersonal": 3665,
  "ops": 3666,
  "Class": 3667,
  "Ġfuture": 3669,
  "OM": 3670,
  "Ġwhite": 3671,
  "sup": 3672,
  "Ġoffer": 3675,
  "ĠNot": 3678,
  "iu": 3680,
  "FF": 3681,
  "Ġpri": 3682,
  "Ġindust": 3683,
  "Ġstory": 3684,
  "Ġeverything": 3685,
  "Ġhost": 3686,
  "Ġsignific": 3687,
  "Ġelement": 3688,
  "ĠChe": 3689,
  "Ġdeg": 3690,
  "Par": 3693,
  "Ġenjoy": 3695,
  "Ġshown": 3696,
  "Ġwrite": 3697,
  "Ġserver": 3698,
  "Ġdevice": 3699,
  "istic": 3701,
  "raft": 3702,
  "Ġpara": 3703,
  "Ġsens": 3707,
  "Ġapplication": 3708,
  "Ġsobre": 3709,
  "ĠCal": 3710,
  "utions": 3711,
  "ogn": 3712,
  "ula": 3713,
  "Ġestab": 3714,
  "eqn": 3715,
  "Text": 3716,
  "ĠInt": 3717,
  "Ġcontact": 3718,
  "ores": 3719,
  "Ġill": 3720,
  "Ġcontext": 3723,
  "Ġsort": 3724,
  "ĠSte": 3725,
  "rid": 3726,
  "ags": 3727,
  "wise": 3729,
  "men": 3730,
  "inux": 3731,
  "Ġamount": 3733,
  "conom": 3734,
  "Ġadded": 3735,
  "Ġprobably": 3737,
  "Ġpict": 3739,
  "ĠSup": 3740,
  "Ġspeak": 3741,
  "Ġcorrespond": 3743,
  "Ġpa": 3744,
  "Ġtitle": 3746,
  "pace": 3747,
  "ledge": 3749,
  "Ġindex": 3750,
  "ĠEd": 3751,
  "Ġvia": 3752,
  "nbsp": 3753,
  "aves": 3754,
  "Ġant": 3756,
  "Ġterms": 3757,
  "Ġpobl": 3760,
  "ites": 3761,
  "Ġvoltage": 3766,
  "Ġweb": 3767,
  "Ġcontain": 3768,
  "Ġreview": 3771,
  "point": 3772,
  "Ġens": 3773,
  "fra": 3774,
  "Ġcity": 3775,
  "ands": 3776,
  "Ġpred": 3777,
  "Ġsi": 3778,
  "Ġperformance": 3779,
  "Ġbring": 3780,
  "ha": 3781,
  "Ġmach": 3782,
  "asing": 3783,
  "Ġhavia": 3784,
  "Ġdrive": 3785,
  "Ġdisplay": 3786,
  "Ġexam": 3787,
  "rel": 3788,
  "ysis": 3789,
  "Key": 3790,
  "Ġess": 3791,
  "Ġfeatures": 3792,
  "Ġstarted": 3793,
  "Ġbad": 3794,
  "Ġhuman": 3795,
  "rite": 3797,
  "Ġfocus": 3798,
  "rec": 3799,
  "mega": 3800,
  "haps": 3802,
  "Ġbenef": 3804,
  "ustr": 3805,
  "Ġprop": 3806,
  "board": 3809,
  "Ġhours": 3810,
  "Ġdeal": 3811,
  "Ġcolumn": 3812,
  "ĠGe": 3813,
  "Ġwait": 3814,
  "Ġfrequ": 3816,
  "uf": 3818,
  "lished": 3819,
  "Ġpor": 3820,
  "iciÃ³": 3823,
  "ULL": 3824,
  "Ġpie": 3825,
  "ciÃ³": 3827,
  "Ġprofess": 3828,
  "Ġstudents": 3829,
  "Ġple": 3832,
  "Ġwomen": 3833,
  "Ġintegr": 3834,
  "sl": 3836,
  "ĠHis": 3837,
  "Ġintrodu": 3838,
  "Ġblock": 3839,
  "Ġbed": 3842,
  "Ġauthor": 3844,
  "Man": 3845,
  "ellow": 3846,
  "Ġinvol": 3848,
  "Ġwonder": 3849,
  "Ġmol": 3850,
  "Ġcases": 3851,
  "Ġfront": 3853,
  "ĠCor": 3854,
  "PE": 3855,
  "ports": 3856,
  "Ġarray": 3857,
  "ĠCo": 3858,
  "perty": 3859,
  "Ġhigher": 3860,
  "bed": 3861,
  "Ġactiv": 3863,
  "Ġsem": 3864,
  "ection": 3865,
  "Ġsatisf": 3866,
  "ias": 3869,
  "Ġparent": 3872,
  "Ġcrit": 3875,
  "Requ": 3876,
  "Ġautom": 3877,
  "Ġresist": 3879,
  "itting": 3880,
  "Ġnatural": 3881,
  "File": 3882,
  "olds": 3883,
  "Ġwin": 3885,
  "Ġsection": 3886,
  "lia": 3887,
  "Ġproducts": 3888,
  "Ġsomeone": 3889,
  "Ġaccept": 3890,
  "oper": 3891,
  "Ġquant": 3893,
  "ii": 3894,
  "ĠFl": 3895,
  "urope": 3896,
  "xim": 3898,
  "ouch": 3900,
  "TER": 3901,
  "Ġdire": 3902,
  "Ġentire": 3903,
  "Time": 3904,
  "Ġvideo": 3905,
  "Ġdifficult": 3906,
  "TR": 3907,
  "iple": 3909,
  "Ġclean": 3910,
  "Ġwebsite": 3911,
  "group": 3912,
  "Ġearly": 3913,
  "Ġsimply": 3915,
  "Ġlower": 3916,
  "enn": 3918,
  "oad": 3919,
  "roller": 3920,
  "Ġrate": 3923,
  "ounc": 3924,
  "Ġcomplete": 3928,
  "ĠMed": 3929,
  "Ġinstance": 3930,
  "Ġfou": 3931,
  "LO": 3932,
  "df": 3934,
  "Ġlimit": 3935,
  "Ġvarious": 3936,
  "Ġarch": 3938,
  "Ġtaking": 3939,
  "nav": 3942,
  "urg": 3943,
  "Ġapproach": 3944,
  "ilities": 3945,
  "Ġcalcul": 3946,
  "Ġsche": 3947,
  "ĠLet": 3948,
  "LA": 3949,
  "Ġhon": 3950,
  "Ġitself": 3952,
  "Ġmessage": 3953,
  "Ġpotential": 3956,
  "mar": 3957,
  "https": 3959,
  "Ġlength": 3960,
  "ui": 3963,
  "Ġappear": 3964,
  "Ġresearch": 3965,
  "max": 3966,
  "Ġupdate": 3967,
  "Omega": 3968,
  "orld": 3970,
  "Ġinstalled": 3972,
  "Ġcult": 3973,
  "lÃŃ": 3974,
  "yl": 3975,
  "was": 3976,
  "ĠReg": 3980,
  "Ġcard": 3981,
  "eral": 3983,
  "Ġfriends": 3984,
  "Ġmembers": 3986,
  "Sc": 3987,
  "iet": 3988,
  "Ġutil": 3990,
  "sequ": 3992,
  "inition": 3993,
  "fer": 3994,
  "ATE": 3996,
  "ening": 3998,
  "itude": 3999,
  "Inst": 4001,
  "ender": 4002,
  "Ġcreated": 4003,
  "mission": 4004,
  "Ġcompet": 4005,
  "like": 4006,
  "map": 4008,
  "oice": 4009,
  "ij": 4012,
  "error": 4014,
  "That": 4015,
  "py": 4016,
  "node": 4017,
  "Ġeduc": 4018,
  "Ġrecomm": 4019,
  "ios": 4020,
  "Ġdownload": 4022,
  "andom": 4023,
  "ÃŃt": 4024,
  "lt": 4025,
  "Ġfine": 4026,
  "Ġmusic": 4027,
  "epsilon": 4030,
  "Ġang": 4031,
  "Ġfire": 4033,
  "From": 4034,
  "ync": 4036,
  "Ġfive": 4037,
  "Ġpers": 4038,
  "dom": 4039,
  "textbf": 4041,
  "capt": 4042,
  "ena": 4043,
  "Ã¨c": 4044,
  "Ġhands": 4045,
  "overed": 4046,
  "Ġnormal": 4048,
  "ĠUniversity": 4049,
  "inks": 4050,
  "Ġexpected": 4052,
  "Ġminutes": 4054,
  "amed": 4056,
  "Ġplease": 4058,
  "Ġneeded": 4059,
  "Ġwindow": 4062,
  "ĠSant": 4065,
  "raphics": 4066,
  "Ġseries": 4068,
  "Ġround": 4069,
  "mber": 4070,
  "Ġconstant": 4071,
  "IP": 4072,
  "Ġsal": 4073,
  "Ġago": 4074,
  "Ġbox": 4075,
  "ĠIm": 4076,
  "Ġhttp": 4077,
  "Ġprotect": 4078,
  "Ġge": 4079,
  "uly": 4081,
  "length": 4082,
  "ises": 4086,
  "Ġmodels": 4087,
  "Ġcondition": 4089,
  "Ġaud": 4090,
  "Ġsud": 4091,
  "Ġheard": 4092,
  "leep": 4093,
  "Ġcompan": 4094,
  "ĠperÃ²": 4095,
  "astic": 4096,
  "ils": 4097,
  "Ġste": 4099,
  "Ġdrop": 4100,
  "come": 4101,
  "uns": 4103,
  "Of": 4104,
  "Ġprice": 4105,
  "Ġmount": 4106,
  "Ġthus": 4108,
  "hel": 4109,
  "ÃŃs": 4110,
  "Ġcommunity": 4113,
  "ĠMac": 4114,
  "ĠAmerican": 4115,
  "Ad": 4118,
  "Ġshare": 4121,
  "ĠAfter": 4122,
  "anced": 4123,
  "lla": 4124,
  "airs": 4125,
  "Ġesp": 4126,
  "Ġlooked": 4127,
  "print": 4128,
  "Ġlikely": 4129,
  "config": 4130,
  "Ġsoftware": 4131,
  "ken": 4132,
  "Ġregard": 4133,
  "Ġbackground": 4134,
  "Ġmother": 4137,
  "Ġboot": 4138,
  "eneral": 4140,
  "Ġscreen": 4141,
  "Ġgraph": 4144,
  "Event": 4145,
  "Ġstay": 4146,
  "www": 4147,
  "Ġextra": 4149,
  "Ġrelations": 4152,
  "Ġfer": 4153,
  "Let": 4154,
  "orith": 4155,
  "ging": 4156,
  "ota": 4157,
  "Ġdim": 4158,
  "bin": 4159,
  "Ġdoor": 4160,
  "plied": 4161,
  "Ġfeature": 4162,
  "oken": 4163,
  "Ġbeautiful": 4164,
  "Ġlonger": 4165,
  "ĠIntern": 4166,
  "Ġmatch": 4168,
  "under": 4169,
  "ros": 4171,
  "psilon": 4172,
  "psi": 4173,
  "Ġdig": 4174,
  "Ġstandard": 4176,
  "Ġchanges": 4177,
  "Ġtrack": 4178,
  "db": 4179,
  "Ġhol": 4180,
  "just": 4181,
  "Ġtraining": 4182,
  "lock": 4183,
  "oun": 4185,
  "elling": 4186,
  "ograf": 4187,
  "Ġproblems": 4188,
  "ĠPol": 4189,
  "Ġopport": 4193,
  "ĠNow": 4195,
  "ĠAb": 4196,
  "rought": 4197,
  "istes": 4198,
  "Ġdevelopment": 4199,
  "ya": 4200,
  "Ġtemper": 4201,
  "Ġfather": 4203,
  "ama": 4204,
  "Ġfins": 4206,
  "Ġprec": 4207,
  "ENT": 4208,
  "you": 4209,
  "Ġvers": 4210,
  "Ġdefined": 4212,
  "Ġband": 4213,
  "sqrt": 4215,
  "Ġmonths": 4217,
  "Ġparticip": 4218,
  "Ġdos": 4219,
  "Ġach": 4221,
  "curity": 4224,
  "ĠWill": 4225,
  "ĠMe": 4226,
  "Ġcross": 4227,
  "irtual": 4228,
  "Ġful": 4229,
  "Ġwall": 4230,
  "Ġlat": 4232,
  "Ġpretty": 4236,
  "Ġwoman": 4237,
  "PI": 4239,
  "Ġdecl": 4240,
  "count": 4241,
  "Ġregular": 4242,
  "aging": 4243,
  "Ġsystems": 4244,
  "Ġpan": 4245,
  "Ġloss": 4246,
  "ynam": 4247,
  "result": 4248,
  "nia": 4250,
  "Ġaw": 4252,
  "ĠOur": 4253,
  "cup": 4254,
  "ĠDr": 4255,
  "Ġnode": 4256,
  "Ġisn": 4257,
  "ĠWindows": 4260,
  "vare": 4262,
  "nces": 4263,
  "Ġson": 4266,
  "Ġsun": 4269,
  "Ġleave": 4271,
  "ML": 4272,
  "irit": 4273,
  "Ġprovided": 4274,
  "sing": 4276,
  "bm": 4277,
  "Ġdate": 4278,
  "more": 4279,
  "Ġclick": 4280,
  "ĠAdd": 4282,
  "Ġdetails": 4283,
  "Ġweight": 4285,
  "Ġcomplex": 4287,
  "Ġaccording": 4288,
  "Ġsym": 4289,
  "Ġlines": 4290,
  "ĠMin": 4291,
  "Ġdraw": 4293,
  "subsection": 4294,
  "ĠBo": 4295,
  "Ġusually": 4296,
  "Ġcause": 4297,
  "Ġinitial": 4298,
  "Ġfast": 4299,
  "Ġforward": 4300,
  "Ġquestions": 4301,
  "fil": 4302,
  "Ġremov": 4303,
  "Ġactual": 4304,
  "Ġaddition": 4305,
  "Ġwhose": 4306,
  "ourn": 4307,
  "ĠpoblaciÃ³": 4308,
  "Ġcoming": 4309,
  "rav": 4310,
  "umb": 4313,
  "Ġseason": 4314,
  "Ġstructure": 4315,
  "ilder": 4316,
  "Over": 4317,
  "Ed": 4321,
  "Ġdifference": 4322,
  "caption": 4323,
  "ora": 4325,
  "Gamma": 4326,
  "Ġrespons": 4327,
  "Ġenvironment": 4329,
  "Ġroot": 4330,
  "kn": 4331,
  "Ġhistory": 4332,
  "hers": 4333,
  "Ġnote": 4334,
  "ĠsÃ³n": 4335,
  "Ġwatch": 4336,
  "Ġdeath": 4337,
  "non": 4338,
  "Ġclaim": 4339,
  "Ġchoose": 4340,
  "Ġimplement": 4341,
  "Ġpick": 4342,
  "eter": 4343,
  "Ġfit": 4344,
  "orage": 4345,
  "Ġapply": 4346,
  "Ġwrong": 4347,
  "UN": 4348,
  "Ġslow": 4351,
  "urb": 4352,
  "Ġmention": 4353,
  "Ġgave": 4354,
  "Ġmyself": 4355,
  "rad": 4357,
  "cor": 4358,
  "pres": 4359,
  "izing": 4360,
  "Ġparts": 4361,
  "Ġnecessary": 4362,
  "Ġimprove": 4365,
  "Ġevents": 4366,
  "igned": 4367,
  "Ġgives": 4368,
  "Ġcam": 4370,
  "rim": 4371,
  "orks": 4372,
  "ĠPart": 4373,
  "Now": 4375,
  "summary": 4376,
  "can": 4377,
  "annel": 4378,
  "ners": 4379,
  "eqnarray": 4383,
  "Ġri": 4385,
  "Ġespecially": 4386,
  "Ġdeep": 4387,
  "Ġresponse": 4388,
  "varepsilon": 4389,
  "anger": 4390,
  "Ġgovernment": 4391,
  "Ġgen": 4392,
  "nder": 4393,
  "Item": 4395,
  "ĠRep": 4396,
  "Request": 4397,
  "iddle": 4399,
  "Ġfoot": 4401,
  "CE": 4402,
  "Ġpub": 4404,
  "efore": 4407,
  "Ġmorning": 4408,
  "Ġassert": 4409,
  "style": 4410,
  "Ġspect": 4411,
  "Ġdark": 4413,
  "Ġwar": 4416,
  "Ġassum": 4417,
  "ooth": 4419,
  "ĠYork": 4420,
  "ponent": 4421,
  "Ġbehind": 4422,
  "Fr": 4423,
  "Ġknew": 4424,
  "State": 4425,
  "bor": 4426,
  "Ġmode": 4428,
  "terns": 4429,
  "Ġthird": 4430,
  "php": 4431,
  "Ġfollows": 4432,
  "Ġcapac": 4433,
  "Ġthemselves": 4436,
  "unicip": 4438,
  "Ġpain": 4439,
  "De": 4440,
  "Do": 4441,
  "Ġca": 4443,
  "Ġwriting": 4445,
  "Ġdam": 4446,
  "Ġissues": 4447,
  "Ġfavor": 4449,
  "ĠSet": 4450,
  "ĠHere": 4451,
  "vis": 4453,
  "Ġplant": 4454,
  "Bu": 4456,
  "Field": 4457,
  "osa": 4458,
  "ĠMon": 4459,
  "Ġdiag": 4460,
  "Ġwritten": 4462,
  "TE": 4463,
  "uel": 4465,
  "egraphics": 4467,
  "includegraphics": 4468,
  "Ġconditions": 4469,
  "IL": 4470,
  "Element": 4471,
  "Ġsix": 4473,
  "Ġsignificant": 4474,
  "Ġcopy": 4475,
  "ministr": 4476,
  "ĠGet": 4477,
  "Ġcoll": 4479,
  "true": 4481,
  "Form": 4483,
  "Ġswe": 4484,
  "Ġconsist": 4485,
  "Ġtakes": 4486,
  "plies": 4487,
  "ola": 4488,
  "Ġage": 4489,
  "earch": 4490,
  "Ġreceived": 4492,
  "Ġpopular": 4493,
  "Ġsn": 4494,
  "ille": 4497,
  "proof": 4498,
  "sudo": 4499,
  "Ġremain": 4500,
  "Ġpurch": 4501,
  "erra": 4502,
  "used": 4504,
  "Ġcircuit": 4505,
  "ĠYour": 4506,
  "ride": 4507,
  "Le": 4508,
  "Ġbuilding": 4509,
  "tot": 4510,
  "hab": 4511,
  "Ġrelated": 4512,
  "Ġcred": 4514,
  "Ġlearning": 4515,
  "yd": 4516,
  "oo": 4517,
  "ici": 4518,
  "Ġknowledge": 4519,
  "Ġworth": 4520,
  "ĠII": 4521,
  "emph": 4522,
  "ady": 4524,
  "ografia": 4525,
  "cion": 4526,
  "hib": 4527,
  "Ġupd": 4529,
  "Ġturned": 4530,
  "Ġcomputer": 4531,
  "Ġci": 4533,
  "object": 4534,
  "PS": 4538,
  "ĠComp": 4540,
  "ĠPa": 4541,
  "po": 4542,
  "Ġsus": 4543,
  "cret": 4544,
  "pri": 4545,
  "eed": 4548,
  "Ġpet": 4549,
  "Ġroad": 4550,
  "md": 4554,
  "Ġgrad": 4558,
  "hand": 4560,
  "Ġindepend": 4561,
  "Ġmeaning": 4562,
  "void": 4563,
  "Ġfail": 4564,
  "Ġwidth": 4565,
  "Ġtherefore": 4566,
  "des": 4568,
  "Ġframe": 4569,
  "rict": 4570,
  "Ġwanted": 4571,
  "ming": 4572,
  "orts": 4573,
  "Ġspeed": 4575,
  "Ġadditional": 4577,
  "Ġheld": 4578,
  "ĠNULL": 4579,
  "Info": 4580,
  "Map": 4581,
  "Equ": 4582,
  "roups": 4583,
  "AG": 4584,
  "ĠEurope": 4586,
  "thon": 4588,
  "Ġready": 4590,
  "ca": 4591,
  "ĠMore": 4592,
  "ernel": 4593,
  "olean": 4594,
  "cast": 4596,
  "Ġstates": 4597,
  "Ġmultiple": 4598,
  "Ġliter": 4600,
  "Node": 4601,
  "abla": 4602,
  "valid": 4605,
  "Ġprovides": 4606,
  "oph": 4607,
  "Ġsave": 4608,
  "place": 4609,
  "ĠOb": 4610,
  "She": 4613,
  "Read": 4614,
  "ying": 4617,
  "iting": 4618,
  "illa": 4619,
  "Ġment": 4620,
  "Then": 4621,
  "Up": 4622,
  "Ġchall": 4623,
  "su": 4624,
  "plication": 4627,
  "Ġvalid": 4629,
  "ensive": 4630,
  "chi": 4632,
  "ĠBar": 4633,
  "idered": 4634,
  "Ġpolit": 4636,
  "Ġaccom": 4638,
  "Ġinside": 4640,
  "verse": 4641,
  "Ġfamil": 4643,
  "fin": 4647,
  "ĠAm": 4648,
  "Ġtown": 4650,
  "Ġclient": 4651,
  "Ġq": 4652,
  "Ġimmedi": 4653,
  "icle": 4655,
  "lege": 4658,
  "iana": 4659,
  "java": 4660,
  "Ġeasily": 4661,
  "select": 4663,
  "ifier": 4664,
  "Be": 4665,
  "ensity": 4669,
  "dt": 4670,
  "Index": 4671,
  "anch": 4672,
  "Ġseus": 4673,
  "Ġincrease": 4675,
  "Ġdou": 4678,
  "center": 4679,
  "ordin": 4680,
  "Ġblog": 4682,
  "mult": 4684,
  "Ġsqu": 4685,
  "api": 4687,
  "atform": 4688,
  "Ġinform": 4689,
  "Ġways": 4691,
  "Ġhear": 4692,
  "Path": 4693,
  "Ġlanguage": 4694,
  "ocs": 4695,
  "itats": 4696,
  "Ġparty": 4697,
  "One": 4699,
  "Ġtax": 4700,
  "Ġconnection": 4702,
  "Ġlooks": 4704,
  "Ġbecom": 4705,
  "Ġarticle": 4706,
  "IR": 4708,
  "plit": 4709,
  "enty": 4710,
  "Ġdirectly": 4712,
  "Ġmis": 4715,
  "Ġswitch": 4716,
  "Ġunique": 4718,
  "Ġliving": 4719,
  "Ġbegan": 4720,
  "Ġcast": 4721,
  "rupt": 4723,
  "hood": 4725,
  "Ġlost": 4726,
  "Ġusers": 4728,
  "ĠSm": 4729,
  "Ġstore": 4730,
  "Ġblo": 4732,
  "Ġsec": 4733,
  "ĠState": 4734,
  "uk": 4735,
  "Ġfelt": 4736,
  "Ġassist": 4737,
  "Ġanalysis": 4738,
  "Pl": 4739,
  "title": 4740,
  "ĠSome": 4741,
  "ĠdesprÃ©s": 4743,
  "Ġscript": 4744,
  "Ent": 4745,
  "Ġseemed": 4747,
  "Ġremove": 4748,
  "call": 4749,
  "escription": 4751,
  "ĠfamÃŃ": 4752,
  "Ġrecogn": 4753,
  "undred": 4754,
  "Ġsomet": 4756,
  "Ġapt": 4757,
  "Ġyourself": 4758,
  "Ġfair": 4759,
  "ĠGl": 4760,
  "Ġnames": 4761,
  "host": 4762,
  "ĠCount": 4763,
  "Ġdir": 4764,
  "apter": 4765,
  "ship": 4766,
  "Ġpackage": 4768,
  "iam": 4769,
  "illed": 4774,
  "Ġmethods": 4775,
  "ught": 4776,
  "Ġattempt": 4777,
  "ĠPe": 4778,
  "start": 4779,
  "Ã²ria": 4780,
  "ham": 4781,
  "ĠUnited": 4783,
  "Ġwish": 4785,
  "next": 4786,
  "geq": 4787,
  "obile": 4791,
  "ĠDep": 4793,
  "anya": 4796,
  "Ġformat": 4797,
  "ĠAct": 4798,
  "inner": 4799,
  "ĠFrom": 4800,
  "iny": 4801,
  "erent": 4802,
  "ĠSim": 4803,
  "oring": 4804,
  "pass": 4805,
  "gs": 4806,
  "atives": 4810,
  "Ġbehav": 4811,
  "OD": 4812,
  "Ġparameters": 4814,
  "rangle": 4815,
  "Ġinflu": 4816,
  "Ġsend": 4817,
  "Ġconsidered": 4818,
  "Ġimag": 4819,
  "rightarrow": 4820,
  "hi": 4821,
  "Ġcover": 4822,
  "Ġbrought": 4823,
  "pression": 4824,
  "Ġsignal": 4825,
  "iant": 4826,
  "Context": 4828,
  "Ġwood": 4829,
  "ding": 4830,
  "lete": 4831,
  "Ser": 4832,
  "draw": 4833,
  "Ġstrateg": 4834,
  "Result": 4835,
  "acion": 4839,
  "ocks": 4840,
  "Ġsuff": 4842,
  "New": 4843,
  "OL": 4845,
  "gy": 4846,
  "Ġboard": 4847,
  "reate": 4849,
  "Ġchoice": 4850,
  "ĠMod": 4851,
  "Ġattack": 4852,
  "Ġmedia": 4855,
  "Ġpositive": 4856,
  "Ġones": 4858,
  "ĠRob": 4859,
  "Ġaffect": 4860,
  "Ġbal": 4862,
  "Ġmachine": 4863,
  "itect": 4864,
  "change": 4865,
  "Ġmillion": 4866,
  "Ġestim": 4868,
  "Act": 4869,
  "iva": 4870,
  "Ġoutside": 4871,
  "Ġcontinue": 4873,
  "ĠJan": 4874,
  "Ġtravel": 4875,
  "Ġmemory": 4876,
  "zz": 4877,
  "default": 4878,
  "quot": 4879,
  "pty": 4880,
  "nes": 4881,
  "Ġord": 4882,
  "ĠRec": 4883,
  "parent": 4884,
  "Ġsubst": 4886,
  "check": 4887,
  "Here": 4888,
  "Ġelements": 4889,
  "wid": 4891,
  "Ġdatabase": 4892,
  "Ġconnected": 4893,
  "info": 4895,
  "Ġreading": 4898,
  "boot": 4899,
  "Ġfunctions": 4900,
  "Ġnature": 4902,
  "based": 4904,
  "Ġdriv": 4905,
  "base": 4907,
  "ateix": 4909,
  "band": 4910,
  "Ġnews": 4911,
  "Ġpoor": 4912,
  "Ġlocation": 4913,
  "known": 4914,
  "ĠCons": 4915,
  "usr": 4916,
  "Ġregion": 4917,
  "Ġbuilt": 4918,
  "gen": 4920,
  "ĠCap": 4921,
  "ema": 4922,
  "using": 4923,
  "Ġeconom": 4924,
  "Ġcommunic": 4925,
  "Config": 4926,
  "Ġsequ": 4927,
  "ĠEm": 4928,
  "aching": 4929,
  "Ġmit": 4930,
  "Ġir": 4931,
  "anes": 4933,
  "Ġavoid": 4934,
  "ĠDon": 4935,
  "ĠOf": 4936,
  "ktop": 4937,
  "Ġgran": 4939,
  "gener": 4940,
  "MS": 4941,
  "Ġequip": 4942,
  "atre": 4943,
  "ĠBu": 4945,
  "Ġmodern": 4946,
  "vi": 4948,
  "alu": 4949,
  "ella": 4950,
  "Ġgames": 4951,
  "cer": 4952,
  "Ġfixed": 4953,
  "arcel": 4954,
  "ĠAg": 4955,
  "rar": 4956,
  "Ġrecent": 4957,
  "ĠAS": 4958,
  "ocal": 4959,
  "Ġdistribution": 4960,
  "iers": 4961,
  "avy": 4963,
  "Ġdouble": 4964,
  "Ġsentence": 4965,
  "Ġhappy": 4966,
  "state": 4968,
  "CC": 4970,
  "ĠJust": 4972,
  "Ġcapt": 4974,
  "chan": 4975,
  "Ġlabel": 4976,
  "Ġlas": 4977,
  "Ġwhom": 4978,
  "oe": 4979,
  "conf": 4980,
  "create": 4981,
  "ĠID": 4982,
  "Ġcollect": 4983,
  "Ġoffice": 4984,
  "Code": 4987,
  "Ġemail": 4989,
  "itar": 4990,
  "MA": 4993,
  "rench": 4994,
  "Ġsetting": 4995,
  "block": 4996,
  "Ġtypes": 4997,
  "ufact": 4998,
  "Ġrole": 4999,
  "eks": 5000,
  "Ġdistance": 5001,
  "Ġgoes": 5002,
  "what": 5003,
  "vec": 5004,
  "Ġanyone": 5006,
  "Ġcy": 5008,
  "wide": 5011,
  "Ġitems": 5012,
  "Ġsometimes": 5013,
  "Ġdog": 5014,
  "acing": 5015,
  "ements": 5016,
  "oul": 5017,
  "ĠChar": 5018,
  "Ġdead": 5019,
  "Ġandroid": 5020,
  "Ġcompos": 5021,
  "Att": 5022,
  "UL": 5023,
  "Service": 5024,
  "Ġpercent": 5026,
  "ĠEls": 5027,
  "overline": 5028,
  "Ġserve": 5029,
  "After": 5031,
  "she": 5032,
  "ĠKing": 5033,
  "ĠTHE": 5034,
  "ights": 5037,
  "orithm": 5040,
  "option": 5041,
  "lient": 5042,
  "Ġdivers": 5043,
  "varphi": 5045,
  "Big": 5046,
  "apache": 5047,
  "Ġhour": 5048,
  "Ġtim": 5049,
  "Ġnor": 5050,
  "ĠHer": 5051,
  "Out": 5052,
  "pan": 5053,
  "ĠSun": 5054,
  "Array": 5055,
  "Ġmix": 5057,
  "Ġgirl": 5058,
  "Ġexperi": 5059,
  "ĠIS": 5060,
  "unk": 5061,
  "Ġpassed": 5062,
  "Ġprior": 5063,
  "content": 5064,
  "ÃŃa": 5065,
  "requ": 5066,
  "Ġindustry": 5067,
  "eturn": 5068,
  "Ġexcept": 5069,
  "hol": 5070,
  "si": 5071,
  "nic": 5072,
  "xy": 5073,
  "Ġjava": 5075,
  "Ġengine": 5076,
  "bolds": 5077,
  "enced": 5078,
  "OP": 5080,
  "Ġsaf": 5081,
  "Ġexactly": 5082,
  "circ": 5083,
  "pat": 5085,
  "ocol": 5086,
  "aste": 5088,
  "inally": 5089,
  "igo": 5090,
  "boldsymbol": 5091,
  "Ġcand": 5092,
  "ously": 5093,
  "aches": 5094,
  "urance": 5096,
  "Ġcateg": 5097,
  "ĠStates": 5098,
  "eix": 5100,
  "Ġjud": 5102,
  "his": 5104,
  "Reg": 5105,
  "frak": 5107,
  "Ġprevent": 5108,
  "Ġideas": 5109,
  "Ġsrc": 5110,
  "Ġciut": 5111,
  "query": 5112,
  "alle": 5113,
  "Ġdetect": 5115,
  "ĠSee": 5117,
  "Per": 5118,
  "Ġuses": 5119,
  "ql": 5120,
  "xx": 5121,
  "Ġcurrently": 5122,
  "Ġrefer": 5123,
  "Ġtowards": 5124,
  "Ġvoice": 5125,
  "Ġaverage": 5126,
  "Table": 5127,
  "Ġanys": 5128,
  "overn": 5129,
  "Ġball": 5130,
  "Ġfeet": 5132,
  "idge": 5134,
  "Log": 5136,
  "Ġsupply": 5138,
  "Ġsold": 5140,
  "fficient": 5141,
  "Size": 5142,
  "IV": 5143,
  "ĠLond": 5144,
  "gn": 5145,
  "ĠLord": 5146,
  "Ġtransform": 5147,
  "Ġcop": 5149,
  "Ġviol": 5150,
  "Ġquery": 5151,
  "Ġcook": 5152,
  "vey": 5153,
  "Trans": 5155,
  "Ġprofessional": 5156,
  "Ġoffers": 5157,
  "Ġworked": 5158,
  "Hand": 5159,
  "Ġglobal": 5160,
  "Ġeren": 5161,
  "iday": 5162,
  "Ġdeb": 5163,
  "Ġparameter": 5164,
  "Ġremember": 5165,
  "Ġcompar": 5166,
  "ĠSouth": 5168,
  "uge": 5169,
  "Ġallows": 5170,
  "Ġinn": 5171,
  "Ġbatter": 5172,
  "ĠCity": 5174,
  "itc": 5175,
  "Ġcell": 5176,
  "Ġcomfort": 5177,
  "attle": 5178,
  "Ġlate": 5179,
  "ĠPC": 5180,
  "Ġimm": 5181,
  "Ġoccur": 5182,
  "Ġprep": 5183,
  "ĠEs": 5184,
  "ological": 5185,
  "Ġdepart": 5186,
  "Ġhundred": 5187,
  "Ġfeed": 5190,
  "Ġcatal": 5191,
  "ĠSch": 5192,
  "soft": 5193,
  "Ġforce": 5194,
  "uffer": 5196,
  "ili": 5197,
  "ersion": 5198,
  "Ġuns": 5199,
  "Ġcompanies": 5201,
  "mas": 5202,
  "ĠMiss": 5203,
  "grad": 5204,
  "Ġperhaps": 5205,
  "ques": 5206,
  "Est": 5207,
  "igation": 5208,
  "Ġreceive": 5209,
  "ration": 5210,
  "hline": 5212,
  "Ġenter": 5213,
  "ĠRev": 5214,
  "Ġship": 5215,
  "ĠNorth": 5216,
  "flow": 5217,
  "active": 5218,
  "reet": 5220,
  "ĠMark": 5221,
  "Ġdif": 5222,
  "ancial": 5224,
  "Ġrandom": 5226,
  "Ġcharg": 5227,
  "ĠCatal": 5228,
  "ĠAut": 5229,
  "FI": 5232,
  "Ġded": 5233,
  "ecause": 5235,
  "pret": 5236,
  "Ġnone": 5237,
  "ĠBrit": 5239,
  "System": 5240,
  "unction": 5241,
  "Ġphone": 5242,
  "Ġalone": 5243,
  "ĠPres": 5244,
  "Ġthrow": 5245,
  "foot": 5246,
  "Ã§os": 5247,
  "Ġmanagement": 5248,
  "Ġmulti": 5249,
  "ROM": 5251,
  "argin": 5252,
  "Ġagre": 5255,
  "Ġtask": 5256,
  "lin": 5260,
  "local": 5262,
  "bra": 5263,
  "ĠMc": 5264,
  "itable": 5265,
  "Ġtool": 5268,
  "Ġtal": 5269,
  "itter": 5270,
  "atge": 5271,
  "Ġimages": 5272,
  "Ġcomment": 5273,
  "sf": 5274,
  "ĠDE": 5275,
  "sole": 5276,
  "Ġcompl": 5278,
  "pol": 5282,
  "install": 5283,
  "cap": 5285,
  "ĠGerm": 5286,
  "Ġconcern": 5287,
  "ĠHar": 5288,
  "Ġproperties": 5289,
  "Ġgold": 5290,
  "cing": 5291,
  "include": 5292,
  "Ġcenter": 5293,
  "mark": 5294,
  "LECT": 5295,
  "encies": 5296,
  "Ġrelationship": 5297,
  "iments": 5298,
  "Manager": 5299,
  "Ġaltern": 5300,
  "Ġstreng": 5301,
  "Ġincludes": 5302,
  "izes": 5303,
  "ĠAnt": 5304,
  "Ġphysical": 5305,
  "button": 5306,
  "Ġnumer": 5310,
  "Ġbecame": 5311,
  "atically": 5312,
  "uda": 5313,
  "dered": 5314,
  "ĠSec": 5316,
  "Inter": 5317,
  "Ġassociated": 5318,
  "Ġtree": 5319,
  "Ġabsol": 5320,
  "Ġresol": 5321,
  "server": 5323,
  "ĠFig": 5324,
  "ares": 5325,
  "ĠTrans": 5326,
  "iven": 5327,
  "miss": 5328,
  "Ġobtained": 5329,
  "ĠAust": 5330,
  "well": 5331,
  "EE": 5332,
  "Ġneigh": 5333,
  "TS": 5335,
  "Ġyes": 5336,
  "aix": 5337,
  "Ġestat": 5338,
  "acional": 5339,
  "ĠDis": 5340,
  "Ġrout": 5341,
  "Ġut": 5344,
  "Ġanim": 5346,
  "Ġaix": 5348,
  "ech": 5349,
  "Ġcharge": 5350,
  "Ġstra": 5353,
  "Ġsaying": 5354,
  "eful": 5356,
  "idden": 5357,
  "Ġletter": 5359,
  "ĠOF": 5360,
  "etc": 5362,
  "ociety": 5364,
  "uster": 5366,
  "Ġattention": 5367,
  "Ġarr": 5369,
  "ĠNet": 5371,
  "abs": 5372,
  "orge": 5373,
  "Ġwife": 5377,
  "aily": 5378,
  "ny": 5379,
  "Ġhomes": 5380,
  "Ġstar": 5382,
  "Ġquickly": 5384,
  "define": 5388,
  "Ġtouch": 5389,
  "Message": 5390,
  "raint": 5391,
  "Ġdesigned": 5392,
  "Ġcele": 5393,
  "Ġdurant": 5394,
  "Ġwind": 5395,
  "Ġcontains": 5396,
  "Ġsurpr": 5397,
  "DB": 5398,
  "AA": 5399,
  "mathfrak": 5401,
  "ibly": 5402,
  "Ġgone": 5403,
  "iring": 5404,
  "ja": 5406,
  "Ġaf": 5407,
  "ipe": 5410,
  "Ġsecurity": 5411,
  "Ġled": 5413,
  "ĠWorld": 5414,
  "Ġaccur": 5415,
  "adors": 5416,
  "ĠHol": 5417,
  "ĠNe": 5419,
  "ĠMrs": 5421,
  "Ġpull": 5423,
  "Ġsituation": 5425,
  "Ġsurface": 5426,
  "Ġproced": 5427,
  "ĠSw": 5428,
  "ini": 5429,
  "Ġrisk": 5430,
  "Ġtrust": 5431,
  "mo": 5433,
  "isme": 5434,
  "Ġbur": 5435,
  "Ġconvert": 5436,
  "Ġrow": 5439,
  "Ġprimer": 5441,
  "Ġimpact": 5442,
  "Ġdriver": 5443,
  "post": 5444,
  "Ġcouple": 5445,
  "Ġareas": 5446,
  "Ġrom": 5448,
  "Ġcontract": 5449,
  "Ġensure": 5450,
  "Ġeffective": 5451,
  "Ġchanged": 5452,
  "Ġrecently": 5453,
  "ĠMad": 5454,
  "Ġactive": 5455,
  "year": 5456,
  "ube": 5457,
  "ancy": 5458,
  "Ġmort": 5459,
  "Es": 5460,
  "ocket": 5462,
  "Ġsleep": 5463,
  "ugh": 5465,
  "how": 5466,
  "Ġreference": 5467,
  "image": 5468,
  "Ġma": 5469,
  "ĠSchool": 5470,
  "Ġheight": 5471,
  "Ġinteresting": 5472,
  "Rec": 5473,
  "Ġpurpose": 5474,
  "Ġdirection": 5476,
  "They": 5477,
  "Ġmateix": 5479,
  "Ġtechnology": 5481,
  "Ġfollowed": 5482,
  "Ġresta": 5483,
  "ĠPat": 5484,
  "dat": 5485,
  "mes": 5486,
  "Ġblue": 5487,
  "Ġdep": 5488,
  "ĠPal": 5490,
  "Ġwide": 5491,
  "ynt": 5492,
  "ĠAug": 5493,
  "cs": 5494,
  "long": 5495,
  "gt": 5497,
  "ĠSince": 5498,
  "ptions": 5499,
  "Ġeveryone": 5500,
  "Ġbooks": 5501,
  "Our": 5502,
  "Ġstatus": 5503,
  "Ġchance": 5504,
  "TH": 5505,
  "MP": 5506,
  "Ġdemand": 5507,
  "Ġcompletely": 5508,
  "core": 5510,
  "ivil": 5511,
  "Ġep": 5512,
  "ĠUp": 5516,
  "Ġsea": 5518,
  "Ġmi": 5519,
  "rep": 5520,
  "Ġcoun": 5521,
  "Ġnice": 5524,
  "Ġhair": 5525,
  "apping": 5526,
  "ĠAng": 5528,
  "Ġstream": 5531,
  "mitted": 5536,
  "ĠUSB": 5537,
  "fs": 5538,
  "Ġshop": 5540,
  "Ġdisk": 5541,
  "web": 5542,
  "ameter": 5543,
  "ĠHigh": 5544,
  "Ġcool": 5545,
  "Ġpractice": 5546,
  "Ãºs": 5547,
  "ĠNational": 5549,
  "uts": 5550,
  "ĠSE": 5551,
  "Ġsolutions": 5552,
  "ĠPort": 5553,
  "Che": 5554,
  "ensions": 5555,
  "struct": 5556,
  "Ġrelig": 5558,
  "Ġcustomers": 5559,
  "ford": 5560,
  "Ġgreen": 5561,
  "Ġmaintain": 5562,
  "Ġrecommend": 5563,
  "Ġpen": 5564,
  "Ġlarger": 5565,
  "ĠDav": 5567,
  "lÃŃcul": 5569,
  "Ġfresh": 5570,
  "pa": 5571,
  "css": 5572,
  "Ġconduct": 5573,
  "Ġpolicy": 5574,
  "Ġtheory": 5575,
  "Ġvariable": 5578,
  "ĠAcc": 5579,
  "Ġconstruct": 5580,
  "Ġfully": 5582,
  "Ġtip": 5583,
  "ĠAND": 5584,
  "Ġincluded": 5585,
  "page": 5586,
  "Ġthous": 5588,
  "ocation": 5590,
  "Ġstru": 5591,
  "icient": 5593,
  "ĠGoogle": 5594,
  "car": 5596,
  "Ġpal": 5597,
  "Ġsteps": 5598,
  "Ġrat": 5599,
  "Ġmember": 5601,
  "poss": 5602,
  "uct": 5604,
  "NS": 5605,
  "Ġfigure": 5606,
  "run": 5608,
  "main": 5609,
  "Count": 5611,
  "small": 5612,
  "Ġevalu": 5613,
  "Ġterr": 5615,
  "uciÃ³": 5616,
  "Ġuseful": 5617,
  "Ass": 5618,
  "ĠStud": 5619,
  "yond": 5620,
  "Ġunit": 5621,
  "Ġfields": 5622,
  "Ġbill": 5623,
  "Ġprogress": 5624,
  "Ġproof": 5626,
  "Ġpartition": 5627,
  "eff": 5628,
  "langle": 5632,
  "dir": 5634,
  "ĠSan": 5635,
  "Date": 5636,
  "has": 5640,
  "Ġreturned": 5641,
  "Ġcarry": 5642,
  "ĠWest": 5643,
  "ico": 5644,
  "Ġsong": 5645,
  "model": 5646,
  "augh": 5649,
  "tered": 5651,
  "Yes": 5652,
  "ncia": 5654,
  "Ġfear": 5655,
  "atever": 5656,
  "ĠRem": 5658,
  "Ġmess": 5659,
  "jo": 5661,
  "Ġslight": 5663,
  "otes": 5664,
  "assert": 5666,
  "Ġformer": 5669,
  "semb": 5672,
  "embre": 5673,
  "Ġfet": 5674,
  "Ġmunicip": 5675,
  "Ġprincipal": 5676,
  "aquest": 5677,
  "names": 5678,
  "eria": 5681,
  "Call": 5682,
  "FA": 5684,
  "ashing": 5686,
  "wood": 5687,
  "Ġincl": 5688,
  "Ġpair": 5689,
  "Ġsav": 5690,
  "Ġgets": 5691,
  "Ġphase": 5693,
  "itation": 5694,
  "Ġestaven": 5695,
  "Ġdynam": 5696,
  "unities": 5697,
  "Lambda": 5698,
  "textit": 5699,
  "ldots": 5700,
  "cons": 5704,
  "Ġmal": 5705,
  "Ġquar": 5708,
  "Color": 5709,
  "ishing": 5710,
  "Ġunivers": 5711,
  "Ġveh": 5712,
  "ua": 5713,
  "note": 5715,
  "Sub": 5716,
  "Ġstaff": 5717,
  "lang": 5718,
  "User": 5719,
  "Lay": 5720,
  "had": 5721,
  "eny": 5722,
  "Ġsafe": 5723,
  "ialog": 5724,
  "aciÃ³n": 5725,
  "Ġaltres": 5726,
  "Ġboy": 5727,
  "Ġdescribed": 5728,
  "inct": 5729,
  "Ġbottom": 5730,
  "ABLE": 5731,
  "Ġmaster": 5732,
  "Ġinsp": 5735,
  "ulations": 5736,
  "arily": 5737,
  "Ġpicture": 5738,
  "iled": 5739,
  "ounds": 5740,
  "appa": 5741,
  "Ġfont": 5742,
  "Ġgiving": 5743,
  "Ġnumbers": 5744,
  "aker": 5745,
  "Ġweeks": 5746,
  "hern": 5748,
  "ĠApr": 5749,
  "exp": 5750,
  "Ġdegree": 5751,
  "Ġmer": 5753,
  "Ġscale": 5755,
  "Ġexpression": 5756,
  "ĠPost": 5757,
  "Ġcert": 5758,
  "Ġthinking": 5759,
  "det": 5760,
  "Ġeffects": 5761,
  "irth": 5762,
  "rief": 5764,
  "Ġcatch": 5765,
  "UE": 5766,
  "UM": 5767,
  "ĠRed": 5768,
  "works": 5769,
  "atory": 5771,
  "asons": 5772,
  "Ġcry": 5774,
  "Ġacqu": 5775,
  "ĠGeneral": 5776,
  "ials": 5779,
  "arden": 5780,
  "aby": 5781,
  "Ġspirit": 5783,
  "rive": 5784,
  "Ġcomponent": 5785,
  "build": 5786,
  "ĠNOT": 5787,
  "Ġamaz": 5788,
  "Ġborder": 5789,
  "ĠVa": 5791,
  "Ġexecut": 5793,
  "urt": 5794,
  "Model": 5795,
  "Ġcollection": 5796,
  "ocr": 5797,
  "Ġmes": 5798,
  "Ġalthough": 5799,
  "ees": 5801,
  "ĠWhile": 5804,
  "Ġcada": 5806,
  "Ġbi": 5808,
  "OW": 5809,
  "deb": 5810,
  "ova": 5811,
  "Ġviv": 5813,
  "Ġgas": 5814,
  "aling": 5815,
  "home": 5816,
  "ĠOct": 5819,
  "cp": 5820,
  "Ġdirectory": 5822,
  "current": 5824,
  "acer": 5825,
  "Ġhop": 5826,
  "ky": 5831,
  "ĠBro": 5832,
  "Ġpiece": 5833,
  "unes": 5834,
  "rie": 5835,
  "artment": 5838,
  "ensure": 5839,
  "Ġopportunity": 5840,
  "citep": 5841,
  "Ġbroad": 5842,
  "VER": 5843,
  "look": 5845,
  "erences": 5847,
  "ename": 5848,
  "Ġinj": 5850,
  "Ġmanufact": 5851,
  "Ġmatrix": 5852,
  "oma": 5853,
  "Ġzero": 5854,
  "ĠDef": 5855,
  "Ġgroups": 5856,
  "Ġbutton": 5857,
  "ugin": 5858,
  "ellent": 5863,
  "Ġarm": 5865,
  "Ġrepe": 5866,
  "Ġstarting": 5869,
  "Ġarriv": 5871,
  "Ġdress": 5872,
  "ald": 5873,
  "Ġfort": 5874,
  "case": 5875,
  "orrow": 5876,
  "Ġleading": 5877,
  "ĠRE": 5878,
  "itants": 5879,
  "Ġconv": 5881,
  "ka": 5883,
  "person": 5885,
  "ĠLes": 5887,
  "pected": 5888,
  "Ġign": 5890,
  "ĠList": 5891,
  "Ġbeyond": 5892,
  "Phi": 5893,
  "Can": 5895,
  "Ġlatest": 5896,
  "char": 5897,
  "ĠWhy": 5898,
  "ĠFirst": 5899,
  "ĠSub": 5900,
  "Ġhit": 5901,
  "ĠPark": 5902,
  "Des": 5903,
  "Ġter": 5904,
  "Ġproduction": 5905,
  "google": 5906,
  "ilde": 5907,
  "istics": 5908,
  "Ġroll": 5909,
  "Ġdoubt": 5910,
  "za": 5911,
  "arcelona": 5913,
  "Ġtruth": 5915,
  "ĠLondon": 5918,
  "Ġthroughout": 5919,
  "ĠVol": 5920,
  "adem": 5921,
  "Ġequal": 5923,
  "oms": 5925,
  "Ġsam": 5926,
  "Ġblood": 5927,
  "Ġdefine": 5928,
  "Ġreach": 5929,
  "king": 5931,
  "cles": 5932,
  "Ġcorresponding": 5933,
  "Ġedge": 5935,
  "Ġtempor": 5936,
  "Ġtemperature": 5937,
  "ALL": 5938,
  "Ġcat": 5939,
  "Ġmid": 5940,
  "Ġforma": 5941,
  "Ġapplications": 5942,
  "Ġopin": 5943,
  "Ġmicro": 5944,
  "sa": 5946,
  "child": 5947,
  "actory": 5948,
  "Ġinternal": 5949,
  "only": 5950,
  "TD": 5951,
  "Ġadvant": 5953,
  "open": 5954,
  "Ġrend": 5955,
  "oni": 5956,
  "EX": 5957,
  "inn": 5958,
  "Pr": 5959,
  "Client": 5960,
  "fol": 5961,
  "Ġsettings": 5962,
  "ĠSal": 5963,
  "iling": 5964,
  "itchen": 5965,
  "cher": 5966,
  "Ġpued": 5967,
  "actions": 5968,
  "Ġvict": 5969,
  "SP": 5971,
  "uary": 5974,
  "ĠSQL": 5975,
  "Ġkept": 5976,
  "dist": 5977,
  "ows": 5978,
  "Ġfailed": 5979,
  "ago": 5980,
  "llaÃ§os": 5981,
  "ano": 5982,
  "Ġallowed": 5983,
  "ĠHouse": 5985,
  "gar": 5986,
  "iced": 5987,
  "event": 5988,
  "Ġvac": 5989,
  "Dis": 5991,
  "agon": 5994,
  "Query": 5995,
  "ups": 5996,
  "Ġcelebr": 5997,
  "Ġconfiguration": 6001,
  "house": 6002,
  "ido": 6004,
  "iform": 6005,
  "ague": 6006,
  "client": 6008,
  "Ġeye": 6009,
  "sem": 6010,
  "anged": 6011,
  "othing": 6012,
  "ĠFrench": 6013,
  "Note": 6014,
  "End": 6015,
  "CD": 6016,
  "nabla": 6018,
  "atively": 6019,
  "Oh": 6020,
  "subset": 6021,
  "eline": 6022,
  "Ġgrowth": 6023,
  "Ġessential": 6024,
  "Ġoffic": 6025,
  "Ġindeed": 6028,
  "aly": 6029,
  "dim": 6030,
  "Ġtreatment": 6031,
  "Ġja": 6033,
  "Ġearth": 6034,
  "rect": 6035,
  "Ġexterns": 6036,
  "usion": 6038,
  "Ġstraight": 6039,
  "oria": 6040,
  "itors": 6041,
  "Ġassume": 6044,
  "Ġgenerally": 6045,
  "Ġfight": 6047,
  "Ġentry": 6048,
  "UP": 6049,
  "ĠOff": 6050,
  "Ġexists": 6051,
  "iÃł": 6052,
  "Ġmaximum": 6054,
  "lying": 6056,
  "Ġcertainly": 6057,
  "mbox": 6058,
  "kappa": 6059,
  "Ġgent": 6060,
  "HT": 6062,
  "Ġmolt": 6063,
  "oto": 6064,
  "Ġplaying": 6066,
  "ĠAlso": 6067,
  "Ġprefer": 6068,
  "Ġequival": 6069,
  "Ġappropri": 6071,
  "Ġoptim": 6073,
  "ests": 6074,
  "Ġcapital": 6075,
  "Ġclosed": 6076,
  "Ġhabitat": 6077,
  "ishes": 6078,
  "Ġserious": 6079,
  "rey": 6080,
  "false": 6082,
  "Ġfactor": 6084,
  "Ġconsult": 6085,
  "Ġeducation": 6086,
  "then": 6087,
  "Ġciutat": 6088,
  "rees": 6089,
  "erior": 6090,
  "Ġhappen": 6091,
  "ĠAmerica": 6092,
  "Ġexperiment": 6096,
  "first": 6097,
  "contain": 6098,
  "ĠOS": 6099,
  "isions": 6100,
  "roy": 6102,
  "Ab": 6103,
  "EnllaÃ§os": 6105,
  "Ġlives": 6106,
  "height": 6107,
  "btn": 6108,
  "Ġmechan": 6109,
  "CK": 6111,
  "Ġapproxim": 6112,
  "ĠSol": 6116,
  "Ġcu": 6117,
  "asion": 6118,
  "rase": 6119,
  "Ġlevels": 6120,
  "ĠAc": 6121,
  "Ġfig": 6122,
  "Ġnearly": 6123,
  "PU": 6124,
  "Ġfilm": 6126,
  "rd": 6127,
  "Ġvector": 6129,
  "Ġpare": 6130,
  "lier": 6131,
  "Ġappre": 6132,
  "ulate": 6133,
  "Ġprem": 6134,
  "grade": 6135,
  "android": 6136,
  "Ġtres": 6137,
  "Ġheat": 6138,
  "Ġdecided": 6139,
  "AME": 6140,
  "rowser": 6141,
  "Ġgreater": 6142,
  "oted": 6144,
  "Ġconver": 6145,
  "ris": 6146,
  "ĠClass": 6147,
  "itory": 6148,
  "Ġfeeling": 6149,
  "Ġtreball": 6150,
  "igen": 6151,
  "ithub": 6152,
  "itution": 6154,
  "INE": 6155,
  "Ġcold": 6156,
  "bert": 6157,
  "Ġstatement": 6158,
  "Sup": 6159,
  "uls": 6160,
  "Ġimmediately": 6161,
  "Ġtools": 6162,
  "Ġmanner": 6164,
  "lig": 6166,
  "rum": 6167,
  "Ġcomponents": 6168,
  "Ġplaces": 6169,
  "Ġcomo": 6170,
  "oes": 6171,
  "ÃŃst": 6172,
  "Ġdatas": 6173,
  "Ġfirm": 6174,
  "ĠMarch": 6175,
  "TO": 6176,
  "Ġresources": 6177,
  "ython": 6178,
  "Hz": 6180,
  "otimes": 6181,
  "omb": 6182,
  "Ġsex": 6183,
  "Ġability": 6184,
  "Ġbank": 6185,
  "ensuremath": 6186,
  "Ġindependent": 6187,
  "Ġpriv": 6188,
  "null": 6189,
  "Aut": 6191,
  "Ġobserved": 6193,
  "Ġdiss": 6195,
  "Ġsin": 6196,
  "Ġsolid": 6199,
  "Ġjo": 6201,
  "sql": 6204,
  "ĠCenter": 6205,
  "Ġgoal": 6206,
  "Ġcompared": 6207,
  "Ġing": 6208,
  "ima": 6209,
  "Ġdevices": 6211,
  "level": 6217,
  "mail": 6218,
  "Ġconsum": 6219,
  "erve": 6220,
  "Ġskin": 6221,
  "Ġanaly": 6223,
  "Ġoperation": 6225,
  "Ġfilter": 6226,
  "cel": 6228,
  "Ġsets": 6229,
  "Ġmodule": 6230,
  "SQL": 6231,
  "anys": 6233,
  "Ġrequires": 6234,
  "Ġsummer": 6237,
  "ĠMag": 6242,
  "Ġbrand": 6243,
  "Ġmeeting": 6244,
  "Ġoil": 6245,
  "rer": 6247,
  "ĠWeb": 6248,
  "hest": 6250,
  "Ġcustomer": 6251,
  "istry": 6252,
  "Ġbrother": 6253,
  "ctors": 6254,
  "icense": 6255,
  "Ġrelease": 6256,
  "izer": 6257,
  "Ġplatform": 6259,
  "sy": 6262,
  "Ġkernel": 6264,
  "Ġtend": 6265,
  "Ġvariety": 6266,
  "Ġappears": 6267,
  "Ġdream": 6268,
  "Ġofficial": 6270,
  "Ġlayer": 6271,
  "ournal": 6275,
  "dot": 6277,
  "Ġbeginning": 6279,
  "aries": 6280,
  "have": 6281,
  "ĠMart": 6282,
  "cos": 6283,
  "Ġstd": 6284,
  "Ġwarm": 6285,
  "Ġauto": 6287,
  "Ġlocated": 6288,
  "Ġexisting": 6289,
  "Ġselected": 6291,
  "Ġrule": 6292,
  "Ġgrand": 6294,
  "Ġcos": 6295,
  "ĠAny": 6296,
  "ĠMus": 6298,
  "spec": 6299,
  "connect": 6300,
  "Ġrot": 6301,
  "ĠMor": 6302,
  "ĠfamÃŃlia": 6303,
  "ĠOpen": 6304,
  "zy": 6305,
  "plicit": 6306,
  "Ġvel": 6307,
  "First": 6308,
  "method": 6310,
  "Ġtill": 6311,
  "ĠBarcelona": 6312,
  "Ġinterface": 6313,
  "Ġlinear": 6314,
  "Ġstrength": 6315,
  "ieved": 6316,
  "Ġapplied": 6318,
  "png": 6320,
  "ĠCamp": 6321,
  "ulated": 6322,
  "Ġgain": 6323,
  "ĠJo": 6325,
  "undle": 6327,
  "Override": 6328,
  "Ġwindows": 6329,
  "Select": 6330,
  "Ġpredict": 6331,
  "Ġcentral": 6332,
  "Ġpow": 6333,
  "antic": 6334,
  "ĠLem": 6335,
  "Ġsample": 6336,
  "pc": 6338,
  "Ġfinally": 6339,
  "Ġfinancial": 6340,
  "aled": 6341,
  "Ġequation": 6342,
  "Ġrob": 6343,
  "Ġrele": 6347,
  "context": 6349,
  "Ġmentioned": 6350,
  "Ġachieve": 6351,
  "levant": 6352,
  "Property": 6353,
  "ĠBlack": 6354,
  "Ġstage": 6355,
  "ds": 6356,
  "Ġdecision": 6357,
  "last": 6358,
  "Ġmitj": 6359,
  "Ġrespectively": 6360,
  "ael": 6362,
  "appro": 6363,
  "Ġsudden": 6365,
  "oding": 6366,
  "ĠOut": 6369,
  "ĠWar": 6370,
  "amily": 6371,
  "Ġmenu": 6372,
  "Ġwire": 6375,
  "Ġhus": 6377,
  "Ġproposed": 6378,
  "img": 6379,
  "EL": 6380,
  "Ġinfo": 6382,
  "Ġhighly": 6383,
  "Ġguess": 6384,
  "itary": 6385,
  "Ġtransfer": 6386,
  "find": 6387,
  "icks": 6388,
  "Ġmist": 6389,
  "initely": 6390,
  "Sigma": 6391,
  "ville": 6392,
  "Ġecho": 6393,
  "PC": 6397,
  "Ġfrequency": 6398,
  "enge": 6400,
  "SC": 6403,
  "arant": 6405,
  "Ġking": 6406,
  "Ġconcept": 6407,
  "Ġconstruction": 6408,
  "ĠST": 6410,
  "static": 6412,
  "Ġdescription": 6413,
  "service": 6414,
  "ĠApple": 6415,
  "Ġextrem": 6416,
  "Ġlimited": 6417,
  "ributed": 6418,
  "Ġjoin": 6419,
  "Ġexerc": 6420,
  "package": 6422,
  "Ġfem": 6423,
  "Ġdensity": 6424,
  "Fil": 6425,
  "Ġmas": 6426,
  "rote": 6427,
  "ĠLib": 6428,
  "Ġhandle": 6429,
  "emplate": 6430,
  "Ġconstru": 6431,
  "Net": 6432,
  "ĠFranc": 6434,
  "ĠEngland": 6435,
  "yles": 6436,
  "Bar": 6437,
  "Ġbattery": 6438,
  "dots": 6439,
  "Ġclasses": 6441,
  "Part": 6442,
  "Ġkids": 6443,
  "len": 6446,
  "orph": 6447,
  "overy": 6448,
  "write": 6449,
  "rat": 6450,
  "Ġhar": 6451,
  "ingu": 6452,
  "Ġgal": 6453,
  "ĠPlease": 6456,
  "aris": 6458,
  "Ġbecomes": 6459,
  "while": 6460,
  "display": 6461,
  "Ġbasis": 6462,
  "Ġbright": 6464,
  "Ġtor": 6465,
  "ntic": 6467,
  "Ġdesp": 6471,
  "ĠRead": 6472,
  "acle": 6473,
  "pers": 6474,
  "Ġnotice": 6475,
  "Ġnil": 6476,
  "ĠAre": 6477,
  "pet": 6479,
  "ashion": 6480,
  "apped": 6481,
  "centering": 6482,
  "cha": 6484,
  "Ġhttps": 6486,
  "num": 6487,
  "Ġsecret": 6488,
  "Ġsudo": 6489,
  "ĠServer": 6490,
  "Ġdemon": 6493,
  "flo": 6494,
  "ĠBen": 6495,
  "ĠPhil": 6497,
  "Line": 6498,
  "ĠData": 6499,
  "Ext": 6500,
  "Method": 6501,
  "However": 6502,
  "ĠSM": 6503,
  "ributes": 6504,
  "raction": 6505,
  "RA": 6506,
  "DF": 6507,
  "Ġstuff": 6509,
  "ĠAquest": 6510,
  "ĠON": 6511,
  "ĠApril": 6512,
  "CON": 6513,
  "pling": 6514,
  "Ġclients": 6515,
  "adding": 6516,
  "Ġmiddle": 6517,
  "ĠTest": 6518,
  "Ġcourt": 6519,
  "ifying": 6521,
  "Response": 6522,
  "Ġpassword": 6523,
  "Ġeight": 6524,
  "Ġdefinition": 6525,
  "him": 6526,
  "Ġincor": 6527,
  "Ġobj": 6528,
  "Ġlock": 6529,
  "Ġvolume": 6530,
  "ĠestÃł": 6531,
  "Ġampl": 6532,
  "Ġdaugh": 6535,
  "Start": 6536,
  "ĠStr": 6537,
  "Ġprimera": 6538,
  "ibli": 6540,
  "Ġeat": 6541,
  "github": 6543,
  "Ġrules": 6544,
  "rely": 6545,
  "Input": 6546,
  "Ġmoving": 6547,
  "Ġcab": 6548,
  "pdf": 6550,
  "Ġcru": 6551,
  "request": 6555,
  "Ġinvestig": 6556,
  "Ġinterested": 6557,
  "ĠHam": 6558,
  "frame": 6559,
  "Ġcredit": 6560,
  "rics": 6561,
  "Ġtenia": 6563,
  "ĠJune": 6565,
  "Ġnoise": 6566,
  "PO": 6567,
  "Why": 6569,
  "ĠTV": 6570,
  "ords": 6571,
  "Ġmaterials": 6572,
  "Source": 6573,
  "ober": 6574,
  "widet": 6575,
  "Ãºb": 6576,
  "Ġenem": 6577,
  "ĠEvery": 6578,
  "ERT": 6579,
  "Ġsales": 6580,
  "Ġreve": 6582,
  "Ġbud": 6583,
  "ĠAir": 6584,
  "Ġdigital": 6585,
  "Ġsweet": 6586,
  "Ġconvers": 6587,
  "Ġweak": 6588,
  "ĠThus": 6589,
  "Ġscen": 6590,
  "Ġinvolved": 6592,
  "SD": 6593,
  "Ġplayers": 6594,
  "Ġmiles": 6595,
  "urrent": 6596,
  "ĠArt": 6597,
  "ĠSept": 6598,
  "Ġfloor": 6599,
  "ĠRuss": 6600,
  "ĠGovern": 6601,
  "Ġprograms": 6602,
  "cks": 6603,
  "ims": 6604,
  "Ġselection": 6605,
  "Ġpresented": 6606,
  "Ġrev": 6607,
  "inte": 6608,
  "clusion": 6610,
  "Ġwel": 6611,
  "Ġsmaller": 6612,
  "Ġcandid": 6613,
  "ums": 6614,
  "Ġerrors": 6615,
  "hold": 6616,
  "Ġotherwise": 6617,
  "ĠDay": 6618,
  "Stream": 6620,
  "prime": 6621,
  "ln": 6622,
  "Str": 6624,
  "Ġmanera": 6625,
  "Ġstood": 6627,
  "swe": 6628,
  "Ġhappened": 6629,
  "free": 6630,
  "Ġbul": 6631,
  "Ġvirtual": 6632,
  "Ġobjects": 6633,
  "fill": 6634,
  "Image": 6635,
  "Well": 6637,
  "inding": 6638,
  "night": 6639,
  "inger": 6640,
  "Ġnegative": 6641,
  "Ġmaybe": 6643,
  "Ġteac": 6644,
  "they": 6645,
  "iation": 6646,
  "Ġstock": 6647,
  "Ġnorm": 6648,
  "ĠCour": 6649,
  "ruit": 6652,
  "Ġprove": 6653,
  "empor": 6654,
  "bon": 6656,
  "HER": 6657,
  "ĠMa": 6658,
  "Ġexternal": 6659,
  "ĠInter": 6660,
  "thm": 6663,
  "Ġprimary": 6666,
  "olf": 6667,
  "Ġearn": 6668,
  "Ġproduce": 6669,
  "Ġsession": 6670,
  "IF": 6671,
  "Ġclub": 6672,
  "ĠRo": 6673,
  "Ġtransport": 6674,
  "Ġcommit": 6675,
  "usiness": 6677,
  "elled": 6679,
  "umin": 6685,
  "Ġquan": 6686,
  "Ġplans": 6687,
  "Ġhelps": 6688,
  "iler": 6689,
  "Ġnombre": 6690,
  "GB": 6691,
  "itute": 6692,
  "Ġwat": 6693,
  "ĠAugust": 6694,
  "Ġdedic": 6695,
  "ĠComm": 6696,
  "widetilde": 6698,
  "Ġglass": 6699,
  "Ġintent": 6701,
  "Ġappreci": 6702,
  "Ġreported": 6703,
  "nonumber": 6705,
  "Ġplayer": 6706,
  "target": 6707,
  "scale": 6708,
  "ĠFeb": 6710,
  "Ġexcellent": 6711,
  "Ġstudent": 6712,
  "Ġalgorithm": 6713,
  "system": 6714,
  "Ġunderstanding": 6715,
  "Ġexplain": 6717,
  "Ġpero": 6718,
  "Ġhistor": 6719,
  "ĠCO": 6720,
  "Ġherself": 6721,
  "These": 6723,
  "Ġrights": 6724,
  "Group": 6725,
  "ĠTra": 6726,
  "ĠMat": 6727,
  "Ġnational": 6728,
  "Ġaspect": 6729,
  "Ġreflect": 6730,
  "Pol": 6731,
  "options": 6732,
  "Ġincreasing": 6733,
  "aign": 6734,
  "otion": 6735,
  "icrosoft": 6736,
  "Ġaware": 6737,
  "Ġfab": 6738,
  "claim": 6739,
  "Ġwasn": 6740,
  "arp": 6741,
  "ran": 6743,
  "ĠMich": 6744,
  "Ġplaced": 6746,
  "after": 6747,
  "Ġheavy": 6751,
  "Ġprot": 6753,
  "Ġbasic": 6754,
  "Ġdues": 6755,
  "Ġseves": 6756,
  "Ġprojects": 6757,
  "Ġargument": 6758,
  "Ġult": 6760,
  "Ġsett": 6762,
  "Ġwild": 6763,
  "Ġsufficient": 6764,
  "ĠPresident": 6765,
  "Ġdut": 6766,
  "ĠPaul": 6767,
  "Ġpages": 6768,
  "ĠJes": 6770,
  "ĠTom": 6771,
  "Ġdoc": 6773,
  "Ġshape": 6774,
  "Us": 6775,
  "Ġinterpret": 6776,
  "Acc": 6777,
  "Ġstorage": 6778,
  "never": 6779,
  "ecut": 6780,
  "Ġpels": 6781,
  "Ġchalleng": 6782,
  "Ġevening": 6784,
  "Ġcloud": 6785,
  "CL": 6787,
  "Ġhuge": 6788,
  "Ġcomments": 6789,
  "Ġdaily": 6790,
  "Ġnav": 6791,
  "Ġrock": 6793,
  "alla": 6794,
  "Ġsmooth": 6796,
  "Ġterminal": 6797,
  "ĠMont": 6798,
  "Ġsale": 6800,
  "ervices": 6802,
  "Ġlack": 6803,
  "Ġtalking": 6804,
  "ĠEven": 6806,
  "ĠDirect": 6807,
  "osen": 6808,
  "XX": 6809,
  "Ġforms": 6810,
  "netic": 6811,
  "Ġdise": 6813,
  "Ġcreating": 6814,
  "Ġbuff": 6815,
  "Ġadministr": 6816,
  "eds": 6817,
  "ifest": 6818,
  "Ġtrain": 6819,
  "ĠtÃ©": 6822,
  "Ġresource": 6823,
  "ounced": 6824,
  "ĠMal": 6825,
  "certain": 6826,
  "ĠJap": 6827,
  "Ġfaith": 6829,
  "ĉpublic": 6831,
  "stream": 6832,
  "Ġchurch": 6834,
  "ĠSection": 6836,
  "Ġunless": 6838,
  "Ġguard": 6839,
  "nica": 6844,
  "lor": 6845,
  "km": 6846,
  "Ġpresident": 6847,
  "erved": 6848,
  "Ġmotor": 6849,
  "rial": 6850,
  "Ġwhatever": 6851,
  "Ġmeas": 6852,
  "ĠDev": 6853,
  "Ġappropriate": 6854,
  "Ġkill": 6856,
  "SON": 6858,
  "PA": 6859,
  "IO": 6860,
  "ĠSir": 6862,
  "acters": 6864,
  "Ġhy": 6865,
  "Ġparents": 6866,
  "fa": 6868,
  "Ġbehavior": 6873,
  "Ġfurn": 6874,
  "uid": 6875,
  "edia": 6876,
  "pg": 6877,
  "Ġej": 6878,
  "Ġsupported": 6879,
  "append": 6880,
  "Ġsources": 6881,
  "Ġreduce": 6882,
  "Ġthank": 6883,
  "Ġrap": 6884,
  "aren": 6886,
  "Ġwave": 6887,
  "aud": 6888,
  "anÃ§a": 6889,
  "Ġreached": 6890,
  "tex": 6891,
  "ĠRef": 6892,
  "Ġdemonstr": 6893,
  "Ġbelong": 6894,
  "ĠInc": 6895,
  "Ge": 6896,
  "Ġstri": 6897,
  "ĠJack": 6898,
  "Ġopened": 6899,
  "IST": 6900,
  "Ãłria": 6901,
  "Any": 6902,
  "tabular": 6903,
  "ĠJuly": 6904,
  "Ġsequence": 6905,
  "Ġcore": 6907,
  "Ġdeveloped": 6908,
  "Ġencour": 6909,
  "Ġupper": 6910,
  "Ġremoved": 6911,
  "clos": 6913,
  "Ġyield": 6916,
  "Ġactivities": 6917,
  "iance": 6919,
  "Ġbool": 6921,
  "ĠTable": 6922,
  "Ġskills": 6923,
  "Ġsafety": 6924,
  "Ġfolder": 6925,
  "apers": 6926,
  "Ġsell": 6927,
  "eless": 6929,
  "Ġactivity": 6930,
  "ĠTime": 6931,
  "json": 6932,
  "Builder": 6934,
  "Rem": 6936,
  "ĠCounty": 6937,
  "Ġmoved": 6938,
  "Ġcircum": 6939,
  "ĠKe": 6941,
  "Ġrelative": 6942,
  "Ġpeace": 6943,
  "Ġpresence": 6944,
  "ĠHist": 6945,
  "prop": 6946,
  "strong": 6947,
  "Ġorigin": 6948,
  "Ġtrav": 6949,
  "īs": 6950,
  "ospital": 6951,
  "Pos": 6952,
  "Ġdecor": 6956,
  "Ġsuccessful": 6958,
  "ĠAfr": 6959,
  "process": 6960,
  "Box": 6961,
  "root": 6962,
  "Ġindu": 6963,
  "Ġgenerated": 6964,
  "Status": 6965,
  "Ġhusband": 6966,
  "Ġdones": 6967,
  "Âłanys": 6968,
  "ART": 6969,
  "Me": 6970,
  "force": 6971,
  "Ġcoordin": 6972,
  "Ġamazing": 6973,
  "Ġpaid": 6974,
  "Ġtour": 6975,
  "ĠTw": 6976,
  "ĠLog": 6977,
  "Ġdie": 6978,
  "Ġprotected": 6979,
  "Ġdomain": 6980,
  "ĠOR": 6982,
  "ĠGreat": 6984,
  "Ġdetermine": 6985,
  "ears": 6986,
  "Ġcomen": 6987,
  "Ġexamples": 6989,
  "Ġdry": 6991,
  "Ġlegal": 6992,
  "Ġagree": 6993,
  "Ġnovel": 6994,
  "ĠAustral": 6995,
  "Ġmedical": 6997,
  "Desc": 6998,
  "defined": 6999,
  "ĠNote": 7000,
  "Ġpressure": 7001,
  "berg": 7003,
  "possible": 7004,
  "ĠDel": 7005,
  "bel": 7007,
  "dl": 7008,
  "Ġhous": 7009,
  "rier": 7010,
  "there": 7011,
  "Ġinsurance": 7012,
  "Ġvert": 7013,
  "depend": 7014,
  "coming": 7015,
  "Thanks": 7017,
  "alls": 7018,
  "Ġpublished": 7019,
  "ography": 7021,
  "ĠService": 7022,
  "Ġproceed": 7024,
  "Ġcosts": 7025,
  "YPE": 7029,
  "ĠSk": 7030,
  "UB": 7032,
  "vest": 7033,
  "Ġcountries": 7034,
  "ĠCr": 7035,
  "ĠBel": 7036,
  "Ġmargin": 7037,
  "Ġeffort": 7038,
  "Ġseparate": 7039,
  "Ġnord": 7040,
  "kg": 7041,
  "Ġtrip": 7043,
  "Ġpray": 7044,
  "Ġcouldn": 7045,
  "Ġnamed": 7046,
  "Ġaquesta": 7047,
  "Ġwrote": 7048,
  "ala": 7049,
  "ĠFile": 7050,
  "Ġdamage": 7052,
  "Ġrank": 7053,
  "Ġguide": 7054,
  "xml": 7056,
  "Ġspot": 7057,
  "Ġproviding": 7058,
  "column": 7060,
  "burg": 7062,
  "iber": 7065,
  "ĠOther": 7066,
  "Ġdirector": 7067,
  "ĠsegÃ¼": 7068,
  "Ġpatients": 7070,
  "Ġhappens": 7071,
  "Ġcontra": 7072,
  "Ãłt": 7073,
  "Ġevidence": 7074,
  "Ġleaders": 7080,
  "Ġfavorite": 7081,
  "allel": 7082,
  "Ġfellow": 7083,
  "inet": 7084,
  "Ġdanger": 7085,
  "Ġpolitical": 7086,
  "Ġinternet": 7087,
  "Ġmissing": 7088,
  "Ġoperator": 7089,
  "Ã¡s": 7090,
  "igger": 7091,
  "ivo": 7093,
  "ĠlÃŃ": 7094,
  "Ġcontinued": 7095,
  "Ġinsert": 7097,
  "Since": 7098,
  "gest": 7099,
  "cat": 7101,
  "ĠBer": 7102,
  "iol": 7104,
  "ĠBook": 7105,
  "Ġinstallation": 7106,
  "Ġbes": 7107,
  "anging": 7109,
  "dr": 7111,
  "imin": 7112,
  "Check": 7115,
  "ded": 7116,
  "TP": 7118,
  "Ġmonitor": 7119,
  "Ġcounter": 7120,
  "Ġspecified": 7122,
  "outer": 7124,
  "Ġvariables": 7125,
  "DD": 7127,
  "habitants": 7128,
  "Ġseeing": 7129,
  "Ġdetermined": 7130,
  "Ġpopulation": 7131,
  "jar": 7133,
  "ĠDavid": 7134,
  "Ġloved": 7136,
  "Ġpanel": 7137,
  "Ġspent": 7138,
  "Ġdem": 7139,
  "ĠSeg": 7141,
  "Off": 7142,
  "Ġempty": 7143,
  "ovember": 7144,
  "Ġpark": 7145,
  "ĠHealth": 7146,
  "Ġthick": 7147,
  "Ġobvious": 7148,
  "Ġcentre": 7150,
  "asks": 7151,
  "ĠMo": 7152,
  "Ġcontr": 7153,
  "ĠOh": 7155,
  "ĠCast": 7156,
  "Ãºblic": 7157,
  "EM": 7160,
  "ĠHome": 7161,
  "stract": 7162,
  "Ġmur": 7163,
  "uest": 7164,
  "ĠFe": 7165,
  "ĠSpec": 7166,
  "phone": 7167,
  "CA": 7168,
  "ector": 7170,
  "Ġharm": 7171,
  "Ġconsequ": 7172,
  "ĠConst": 7173,
  "will": 7174,
  "args": 7175,
  "cember": 7177,
  "othes": 7178,
  "ensor": 7179,
  "Ġburn": 7180,
  "Ġideal": 7181,
  "IA": 7183,
  "Ġelectron": 7184,
  "hentic": 7188,
  "Base": 7190,
  "Ġdescribe": 7191,
  "font": 7193,
  "Hist": 7194,
  "appe": 7195,
  "ĠMost": 7196,
  "Ġsigu": 7199,
  "idents": 7200,
  "Ġsymbol": 7201,
  "Ġmeant": 7202,
  "dy": 7205,
  "ĠBritish": 7206,
  "Util": 7207,
  "GL": 7208,
  "Ġchannel": 7210,
  "fast": 7212,
  "Ġmine": 7213,
  "Ġtables": 7214,
  "ĠIP": 7215,
  "Ġpurchase": 7216,
  "Ġlearned": 7218,
  "Ġadjust": 7223,
  "cell": 7224,
  "Ġplayed": 7226,
  "Ġconserv": 7227,
  "Em": 7230,
  "Ġadding": 7231,
  "ani": 7233,
  "Ġbath": 7234,
  "Ġtoward": 7235,
  "endo": 7236,
  "cit": 7237,
  "Ġcritical": 7238,
  "Ġearlier": 7239,
  "ĠCalif": 7240,
  "ĠFrance": 7243,
  "Post": 7245,
  "tra": 7246,
  "riage": 7247,
  "Ġboolean": 7248,
  "module": 7249,
  "icol": 7250,
  "cr": 7251,
  "Ġcant": 7252,
  "mem": 7253,
  "Ġsen": 7255,
  "Create": 7256,
  "ĠSen": 7257,
  "should": 7258,
  "Ġreasons": 7260,
  "Content": 7261,
  "Ġthread": 7262,
  "Ġquiet": 7263,
  "ĠFree": 7264,
  "iders": 7265,
  "ĠHel": 7266,
  "Ġgar": 7268,
  "unya": 7269,
  "aments": 7270,
  "Ġrequirements": 7271,
  "Last": 7272,
  "ĠUs": 7273,
  "mid": 7274,
  "ĠVer": 7275,
  "Ġtrade": 7276,
  "Ġgra": 7277,
  "Ġdepends": 7279,
  "ĠHT": 7281,
  "Ġfell": 7282,
  "Ġbra": 7284,
  "Ġran": 7285,
  "Ġvill": 7286,
  "xa": 7287,
  "Ġparticularly": 7288,
  "fortun": 7289,
  "anÃ§": 7291,
  "AV": 7294,
  "rome": 7295,
  "Ġwonderful": 7296,
  "ĠJanuary": 7297,
  "Ġeasier": 7298,
  "Ġadvantage": 7299,
  "ae": 7300,
  "header": 7301,
  "show": 7304,
  "zeta": 7305,
  "Ġdecre": 7306,
  "ictionary": 7307,
  "rypt": 7308,
  "ĠJose": 7309,
  "ĠUse": 7310,
  "func": 7312,
  "Ġspread": 7313,
  "Ġkitchen": 7315,
  "Point": 7316,
  "ĠUK": 7317,
  "urity": 7318,
  "Ġinstant": 7319,
  "Ġlatter": 7320,
  "sembly": 7321,
  "Ġspin": 7322,
  "river": 7323,
  "jav": 7324,
  "Ġincreased": 7325,
  "ĠLaw": 7326,
  "Ġsites": 7327,
  "inder": 7328,
  "ercial": 7329,
  "namespace": 7332,
  "Ġdomin": 7334,
  "Ġmagn": 7335,
  "Ġsurround": 7336,
  "when": 7337,
  "ĠFace": 7338,
  "Ġcareer": 7340,
  "Ġproduced": 7341,
  "ude": 7342,
  "star": 7343,
  "Ġda": 7345,
  "Ġtick": 7347,
  "CP": 7350,
  "Ġtempl": 7351,
  "Ġelectric": 7352,
  "Go": 7354,
  "Arg": 7355,
  "Ġrich": 7356,
  "Ġmobile": 7358,
  "ancing": 7359,
  "vari": 7360,
  "Ġwouldn": 7361,
  "ĠCong": 7362,
  "src": 7364,
  "ĠCheck": 7365,
  "Ġshowed": 7366,
  "Ġtorn": 7369,
  "Ġdrink": 7371,
  "Ġfinished": 7372,
  "ensional": 7373,
  "ĠMil": 7374,
  "Ġflat": 7375,
  "adata": 7376,
  "Ġren": 7378,
  "Ġcivil": 7379,
  "idad": 7380,
  "ederal": 7382,
  "ĠDem": 7383,
  "ĠAssoci": 7385,
  "ĠWell": 7386,
  "ĠTheorem": 7387,
  "acement": 7388,
  "zen": 7389,
  "perties": 7391,
  "Don": 7392,
  "cy": 7393,
  "Ġbirth": 7394,
  "Ste": 7395,
  "Spec": 7396,
  "command": 7397,
  "Ġhaven": 7401,
  "Ġestud": 7403,
  "Ġadvice": 7405,
  "edge": 7406,
  "Rep": 7407,
  "Ġped": 7408,
  "ĠMount": 7412,
  "Ġpictures": 7413,
  "ĠMary": 7414,
  "Sim": 7415,
  "Ġpaint": 7416,
  "Ġdear": 7418,
  "Ġpros": 7419,
  "Ġmut": 7420,
  "ucle": 7422,
  "ĠSam": 7423,
  "enu": 7424,
  "bottom": 7425,
  "Ġdaughter": 7426,
  "Are": 7427,
  "close": 7428,
  "Ġpun": 7429,
  "status": 7430,
  "Ġrespond": 7431,
  "ĠFROM": 7432,
  "Ġholds": 7433,
  "ributions": 7434,
  "Ġpool": 7435,
  "Ġequipment": 7437,
  "Ġshowing": 7440,
  "ATION": 7441,
  "ĠMet": 7442,
  "ĠEq": 7443,
  "ila": 7444,
  "Ġcharacters": 7445,
  "ĠChurch": 7448,
  "ĠEX": 7449,
  "Head": 7451,
  "Ġcarried": 7452,
  "ĠUnits": 7453,
  "REE": 7454,
  "aria": 7455,
  "Ġer": 7456,
  "ĠTor": 7457,
  "Default": 7459,
  "ads": 7460,
  "BC": 7461,
  "layout": 7462,
  "Ġbow": 7463,
  "Ġbenefits": 7464,
  "skip": 7465,
  "ourney": 7466,
  "Ġknows": 7467,
  "Ġpin": 7468,
  "oles": 7469,
  "Ġshot": 7470,
  "Ġexception": 7472,
  "fit": 7473,
  "Ġforg": 7474,
  "Fe": 7475,
  "Ġfan": 7476,
  "Command": 7477,
  "ĠThanks": 7478,
  "Ġgrowing": 7479,
  "oca": 7480,
  "ĠType": 7481,
  "Ġshared": 7483,
  "Ġopinion": 7485,
  "eries": 7486,
  "Ġwid": 7487,
  "ribe": 7489,
  "Ġund": 7490,
  "Ġbroken": 7491,
  "Ġdatos": 7492,
  "swered": 7493,
  "Ġhighest": 7495,
  "ĠIndia": 7496,
  "Ġfarm": 7497,
  "Ġemerg": 7498,
  "ĠStreet": 7499,
  "Ġconj": 7501,
  "Ġrace": 7502,
  "Ġphotos": 7503,
  "Ġiter": 7505,
  "Ġlibrary": 7506,
  "SELECT": 7507,
  "Ġdefin": 7508,
  "finished": 7509,
  "ĠIII": 7511,
  "aming": 7512,
  "Ġrates": 7513,
  "Ġwaiting": 7514,
  "Ġruns": 7516,
  "Fl": 7517,
  "Some": 7518,
  "reme": 7519,
  "ĠJames": 7520,
  "omin": 7521,
  "Ġefficient": 7522,
  "Ġrent": 7523,
  "Ġtu": 7524,
  "Ġresolution": 7525,
  "Ġstars": 7526,
  "ologia": 7527,
  "Ġfinding": 7528,
  "itzar": 7529,
  "Ġmac": 7530,
  "Component": 7532,
  "Ġverb": 7533,
  "ĠRich": 7535,
  "Ġstudies": 7536,
  "ste": 7537,
  "ĠTherefore": 7538,
  "adow": 7539,
  "ĠGreen": 7540,
  "win": 7541,
  "Ġoffered": 7543,
  "Ġremains": 7545,
  "Ġremark": 7546,
  "Ġminimum": 7547,
  "Ġdru": 7549,
  "who": 7550,
  "abilities": 7551,
  "Instance": 7552,
  "rÃł": 7553,
  "Ġmir": 7554,
  "itu": 7556,
  "AND": 7557,
  "Ġocup": 7560,
  "Ġmarketing": 7563,
  "Ġarrib": 7564,
  "ĠSeptember": 7565,
  "Ġillustr": 7566,
  "ĠGood": 7567,
  "rl": 7569,
  "Ġhorse": 7570,
  "tee": 7571,
  "Ġwants": 7573,
  "alg": 7574,
  "Ġshut": 7575,
  "fess": 7576,
  "KE": 7577,
  "private": 7578,
  "Ġreturns": 7579,
  "ĠOctober": 7580,
  "Token": 7581,
  "Ġta": 7583,
  "Ġfuncion": 7586,
  "Ġmedic": 7587,
  "Ġhacer": 7588,
  "ĠYes": 7589,
  "Ġanswered": 7591,
  "Sp": 7592,
  "Ġfinite": 7593,
  "Ġprepar": 7595,
  "di": 7596,
  "Ġspend": 7597,
  "ashington": 7599,
  "ĠFigure": 7600,
  "Ġprobability": 7602,
  "ownload": 7603,
  "Ġdoctor": 7604,
  "Gener": 7605,
  "ĠPre": 7606,
  "ĠPet": 7607,
  "Ġeste": 7608,
  "ruary": 7610,
  "bro": 7611,
  "before": 7613,
  "Oper": 7614,
  "Ġtag": 7615,
  "Ġequivalent": 7616,
  "Ġvs": 7617,
  "Ġpackages": 7618,
  "Your": 7619,
  "Ġinternational": 7620,
  "Ġusual": 7621,
  "Open": 7622,
  "duc": 7624,
  "Ġsymmet": 7625,
  "Ġax": 7626,
  "More": 7627,
  "ÃŃc": 7629,
  "ĠLinux": 7630,
  "Ġstress": 7631,
  "icious": 7632,
  "Ġcaused": 7633,
  "ĠObject": 7635,
  "lands": 7636,
  "element": 7637,
  "Ġtrees": 7640,
  "Ġhabitatges": 7642,
  "Ġadm": 7644,
  "Am": 7645,
  "ĠSu": 7646,
  "Ġsounds": 7647,
  "sg": 7648,
  "Bl": 7649,
  "Ġtract": 7650,
  "ĠGal": 7651,
  "ror": 7652,
  "Ġdied": 7653,
  "Phone": 7654,
  "ĠCatalunya": 7656,
  "Ġdefinitely": 7657,
  "Ġforget": 7658,
  "Ġexhib": 7660,
  "front": 7661,
  "control": 7662,
  "Ġpure": 7663,
  "ston": 7664,
  "Ġseconds": 7665,
  "bles": 7666,
  "iente": 7667,
  "Ġcovered": 7670,
  "Ġsimpl": 7672,
  "While": 7673,
  "Ġstation": 7674,
  "number": 7675,
  "doc": 7676,
  "Action": 7677,
  "Ġstrugg": 7678,
  "rate": 7679,
  "Ġindividuals": 7680,
  "Ġappeared": 7681,
  "Ġexpand": 7682,
  "term": 7683,
  "Ġadapt": 7684,
  "Ġconstraint": 7685,
  "Ġguarant": 7686,
  "Ġthr": 7687,
  "Ġrelevant": 7688,
  "Ġglad": 7689,
  "PR": 7690,
  "ĠInternational": 7691,
  "make": 7695,
  "format": 7697,
  "exec": 7698,
  "Ġconven": 7699,
  "Ġtransl": 7700,
  "Ġenh": 7701,
  "Ġurl": 7702,
  "ULT": 7704,
  "aptop": 7705,
  "some": 7707,
  "Ġsight": 7708,
  "ĠSur": 7710,
  "Ġoverall": 7711,
  "emp": 7712,
  "Ġcart": 7714,
  "Ġmanager": 7715,
  "ĠChristian": 7716,
  "Ġexpert": 7718,
  "Ġrows": 7719,
  "nÃŃ": 7721,
  "textwidth": 7722,
  "han": 7723,
  "Ġanc": 7725,
  "PT": 7727,
  "Min": 7729,
  "Ġborn": 7730,
  "terior": 7731,
  "Ġlloc": 7732,
  "Ġubuntu": 7733,
  "Ġveloc": 7735,
  "else": 7736,
  "common": 7737,
  "ometry": 7738,
  "Ġstrategy": 7739,
  "ĠFound": 7740,
  "ushed": 7741,
  "Back": 7742,
  "ĠForm": 7743,
  "Hel": 7746,
  "ĠNone": 7747,
  "Ġsquare": 7748,
  "heet": 7749,
  "gin": 7750,
  "Ġmotion": 7751,
  "aturday": 7752,
  "vo": 7753,
  "DA": 7754,
  "Ġthanks": 7755,
  "gebra": 7756,
  "Ġtab": 7758,
  "Sty": 7760,
  "UI": 7761,
  "apa": 7762,
  "Ġautomatically": 7763,
  "mt": 7764,
  "sche": 7765,
  "Ġye": 7767,
  "Ġcit": 7768,
  "Ġlaugh": 7769,
  "Ġcrow": 7770,
  "crete": 7772,
  "Ġclearly": 7773,
  "poses": 7774,
  "Ġluck": 7775,
  "del": 7776,
  "Handler": 7777,
  "Ġstick": 7778,
  "Ġoperations": 7780,
  "Ġpert": 7781,
  "Ġoccup": 7782,
  "Ġenable": 7783,
  "ascript": 7786,
  "ellig": 7787,
  "estern": 7788,
  "Ġrelation": 7789,
  "Ġopening": 7791,
  "Ġcampaign": 7797,
  "inf": 7799,
  "Ġproperly": 7802,
  "Ġsac": 7804,
  "ĠcÃ³": 7805,
  "Ġdu": 7806,
  "ĠGroup": 7807,
  "SI": 7810,
  "Ġadvance": 7811,
  "Ġarchitect": 7812,
  "enses": 7814,
  "Ġextract": 7815,
  "Pre": 7816,
  "split": 7818,
  "update": 7819,
  "ounce": 7821,
  "DC": 7822,
  "ĠChina": 7823,
  "ĠLou": 7826,
  "Load": 7827,
  "iors": 7828,
  "icles": 7829,
  "Ã¨t": 7830,
  "edding": 7831,
  "engo": 7832,
  "ĠMem": 7833,
  "Link": 7834,
  "izations": 7835,
  "ĠPlay": 7836,
  "ĠQue": 7837,
  "Ġvent": 7838,
  "Ġsoul": 7841,
  "ĠArm": 7842,
  "ĠDet": 7843,
  "Ġbenefit": 7844,
  "Ġloop": 7845,
  "Ġdoll": 7847,
  "Ġattract": 7850,
  "Ġfif": 7852,
  "posite": 7853,
  "Ġlinks": 7854,
  "iture": 7856,
  "vider": 7857,
  "Ġgrav": 7858,
  "rot": 7859,
  "ras": 7860,
  "ĠFil": 7863,
  "Ġprofile": 7864,
  "Ġthou": 7865,
  "Ġbird": 7867,
  "allow": 7869,
  "ĠAM": 7870,
  "Ġspl": 7871,
  "Ġslightly": 7873,
  "ĠDec": 7875,
  "Cell": 7877,
  "Options": 7878,
  "Ġbytes": 7879,
  "ĠCollege": 7880,
  "ĠFin": 7881,
  "Ġrestrict": 7882,
  "ĠPM": 7884,
  "Ġpush": 7886,
  "Ġfranc": 7887,
  "itzaciÃ³": 7888,
  "Ġsetup": 7889,
  "bb": 7890,
  "anted": 7891,
  "Ġnation": 7892,
  "ĠWhite": 7894,
  "ONT": 7895,
  "utely": 7898,
  "ental": 7902,
  "ems": 7903,
  "ombre": 7904,
  "ĠReturn": 7909,
  "Ġcried": 7910,
  "Ã²g": 7911,
  "Please": 7912,
  "ĠEnt": 7913,
  "Ġorganization": 7914,
  "Ġperformed": 7915,
  "menu": 7916,
  "Ġdeliver": 7917,
  "Ġtransition": 7919,
  "ĠcomenÃ§": 7920,
  "orry": 7921,
  "Resource": 7923,
  "eder": 7924,
  "ĠEach": 7925,
  "Next": 7926,
  "property": 7927,
  "Null": 7928,
  "RL": 7930,
  "Ġarms": 7931,
  "Number": 7932,
  "ette": 7934,
  "ĠSunday": 7937,
  "Ġinfluence": 7938,
  "Ġicon": 7939,
  "ĠTechn": 7941,
  "ingly": 7942,
  "rael": 7943,
  "Ġleaving": 7944,
  "member": 7945,
  "anges": 7946,
  "acc": 7948,
  "Ġpattern": 7949,
  "asy": 7950,
  "Ġplanning": 7951,
  "ĠRobert": 7952,
  "ether": 7956,
  "ĠCompany": 7958,
  "bum": 7959,
  "ĠDC": 7961,
  "ĠEstats": 7962,
  "ĠEast": 7963,
  "ĠNovember": 7964,
  "ĠJer": 7966,
  "bound": 7968,
  "Ġvisual": 7969,
  "Ġseven": 7970,
  "Ġprices": 7971,
  "vere": 7973,
  "Ġreleased": 7974,
  "lections": 7975,
  "ifi": 7976,
  "widehat": 7978,
  "Ġhotel": 7980,
  "reek": 7981,
  "Det": 7983,
  "Page": 7984,
  "Ġsuc": 7985,
  "ĠDan": 7986,
  "Ġregist": 7987,
  "ĠTH": 7990,
  "ĠDecember": 7991,
  "Ġupdated": 7992,
  "Ãłr": 7993,
  "ĠThom": 7994,
  "Ġring": 7996,
  "ĠLo": 7997,
  "Ġdetail": 7998,
  "Ġchanging": 7999,
  "ĠWhe": 8000,
  "diff": 8002,
  "Ġassign": 8004,
  "ĠMill": 8005,
  "Ġextremely": 8006,
  "Ġappoint": 8008,
  "Ġcompleted": 8009,
  "Ġfrag": 8010,
  "Ġassess": 8011,
  "Ġsir": 8012,
  "real": 8014,
  "ĠPrem": 8015,
  "SH": 8019,
  "ivery": 8021,
  "FT": 8022,
  "Ġtesting": 8023,
  "click": 8024,
  "Ġtant": 8029,
  "Listener": 8030,
  "Ġvalor": 8031,
  "Ã¨r": 8032,
  "Ġjun": 8035,
  "Attribute": 8036,
  "Ġsmart": 8039,
  "Ġreli": 8040,
  "See": 8041,
  "Ġtemps": 8043,
  "Ġchief": 8046,
  "Ġdiferent": 8047,
  "clude": 8049,
  "cdots": 8050,
  "Ġonto": 8051,
  "Ġtraditional": 8054,
  "PRO": 8056,
  "Const": 8057,
  "Ġthoughts": 8058,
  "Ġprocesses": 8059,
  "ĉvar": 8060,
  "Char": 8061,
  "Ġpossess": 8063,
  "product": 8065,
  "Ġthy": 8066,
  "Click": 8067,
  "ructions": 8070,
  "Ġmo": 8071,
  "asant": 8072,
  "Ġextension": 8073,
  "ĠChristmas": 8074,
  "Ġphrase": 8077,
  "Ġphoto": 8078,
  "Ġregarding": 8079,
  "uce": 8080,
  "ĠOver": 8081,
  "mic": 8082,
  "Ġweather": 8083,
  "Ġcircumst": 8084,
  "Ġspring": 8085,
  "were": 8087,
  "ĠPo": 8088,
  "etime": 8089,
  "Ġoccasion": 8091,
  "ornia": 8092,
  "van": 8093,
  "Ġcorner": 8096,
  "ĠHen": 8097,
  "lemma": 8098,
  "Nav": 8099,
  "Ġaqu": 8101,
  "Ġquals": 8102,
  "Ġfactors": 8103,
  "Ġolder": 8105,
  "Ġinstr": 8106,
  "Ġtruly": 8107,
  "Version": 8110,
  "their": 8111,
  "Ġcalls": 8113,
  "Ġleads": 8114,
  "INT": 8115,
  "meta": 8116,
  "Ġplus": 8117,
  "Ġnative": 8118,
  "ĠHot": 8119,
  "Ġgirls": 8120,
  "Ġextends": 8121,
  "Els": 8122,
  "Block": 8123,
  "PL": 8124,
  "Ġbaby": 8125,
  "ixer": 8126,
  "Ġsist": 8127,
  "Ġneut": 8128,
  "Ġscore": 8129,
  "project": 8130,
  "ameters": 8131,
  "ĠRel": 8132,
  "Ġnou": 8134,
  "Ġscene": 8135,
  "Ag": 8138,
  "Ġintroduced": 8139,
  "volution": 8140,
  "Ġpowerful": 8141,
  "bour": 8142,
  "Ġestablished": 8143,
  "Ġvehicle": 8144,
  "Ġreplied": 8145,
  "Label": 8146,
  "ĠLED": 8147,
  "ker": 8148,
  "Ġriver": 8151,
  "Ġdelete": 8152,
  "Ġapart": 8153,
  "Ġfilled": 8155,
  "friend": 8156,
  "Ġsand": 8158,
  "ashed": 8160,
  "omorph": 8161,
  "Ġpieces": 8162,
  "output": 8164,
  "Ġsecure": 8166,
  "ncy": 8167,
  "Ġfamilies": 8169,
  "Ġlady": 8170,
  "Ġthreat": 8171,
  "Ġconeg": 8172,
  "Ġtrouble": 8173,
  "standing": 8174,
  "Ġfashion": 8175,
  "graph": 8176,
  "agger": 8177,
  "True": 8179,
  "lis": 8180,
  "Ġcombination": 8181,
  "Ġusage": 8182,
  "ĠWork": 8185,
  "Ġbug": 8186,
  "produ": 8187,
  "Server": 8188,
  "ounter": 8189,
  "Ġpas": 8192,
  "Ġstories": 8193,
  "IB": 8194,
  "Ġforth": 8195,
  "mathsf": 8196,
  "onday": 8197,
  "ERR": 8198,
  "dule": 8199,
  "Ġwine": 8200,
  "ueix": 8201,
  "Ġrapid": 8202,
  "ĠWashington": 8203,
  "ĠCas": 8206,
  "Ġpatient": 8207,
  "ĠAC": 8208,
  "aa": 8209,
  "Ġdro": 8210,
  "ĠFriday": 8211,
  "ĠDi": 8212,
  "MM": 8213,
  "Ġscience": 8214,
  "Ġprocedure": 8215,
  "Ġviews": 8216,
  "Ġpersones": 8217,
  "ĠGeorge": 8218,
  "isation": 8219,
  "Ġsociety": 8220,
  "onic": 8221,
  "tw": 8222,
  "Ġspecies": 8224,
  "desc": 8227,
  "Ġaren": 8229,
  "Ġaim": 8230,
  "Ġchosen": 8231,
  "Ġscope": 8232,
  "Ġflex": 8233,
  "ĠUniversitat": 8235,
  "operator": 8237,
  "ĠCam": 8238,
  "Frame": 8239,
  "Ġconcent": 8243,
  "yr": 8245,
  "ĠDepartment": 8246,
  "push": 8247,
  "Ġfat": 8248,
  "Ġlad": 8249,
  "Ġleaves": 8250,
  "ĠCle": 8251,
  "Ġprotection": 8252,
  "Ġcolors": 8255,
  "estival": 8257,
  "comple": 8259,
  "Ġneighbor": 8260,
  "Ġlaws": 8262,
  "ologies": 8263,
  "lam": 8265,
  "Ġsuppose": 8266,
  "HERE": 8269,
  "Ġprofession": 8270,
  "ĠGold": 8271,
  "Ġmovie": 8272,
  "Ġimplies": 8273,
  "ĠAtt": 8274,
  "FO": 8275,
  "Ġforces": 8277,
  "NE": 8278,
  "ĠView": 8281,
  "Ġstreet": 8282,
  "ito": 8283,
  "Psi": 8284,
  "ĠProgram": 8285,
  "Ġveg": 8286,
  "ĠFacebook": 8288,
  "Ġlots": 8289,
  "Ġmig": 8290,
  "Ġadopt": 8291,
  "Ġshift": 8292,
  "Ġcells": 8293,
  "Factory": 8295,
  "Ġgift": 8296,
  "Ġgenerate": 8297,
  "Ġce": 8298,
  "Ġcentury": 8299,
  "Ġafford": 8301,
  "Ġcommunication": 8302,
  "Ġminute": 8303,
  "maz": 8304,
  "Fig": 8306,
  "oday": 8308,
  "Ġlab": 8309,
  "Ġrise": 8310,
  "Ġmovement": 8311,
  "ĠClub": 8312,
  "Ġinterview": 8316,
  "hens": 8317,
  "Ġfinish": 8318,
  "Ġdiscussion": 8320,
  "ĠInternet": 8321,
  "NO": 8322,
  "stood": 8323,
  "Web": 8324,
  "Ġgarden": 8325,
  "ander": 8326,
  "ĠMuse": 8327,
  "Ġdra": 8328,
  "ĠExt": 8329,
  "ses": 8330,
  "CR": 8333,
  "ORT": 8334,
  "totype": 8335,
  "Ġinnov": 8336,
  "description": 8338,
  "ixed": 8339,
  "kit": 8341,
  "env": 8343,
  "Ġfi": 8344,
  "fic": 8345,
  "Ġrepresentation": 8348,
  "Ġestablish": 8349,
  "qquad": 8350,
  "Ġbeauty": 8351,
  "Ġattend": 8352,
  "seg": 8353,
  "ĠBay": 8357,
  "Book": 8358,
  "Ġthousand": 8359,
  "ato": 8360,
  "Ġprou": 8362,
  "Ġadult": 8363,
  "iga": 8364,
  "equiv": 8365,
  "Ġgate": 8366,
  "isiÃ³": 8367,
  "ĠMer": 8368,
  "Ġimpress": 8370,
  "digo": 8371,
  "tag": 8372,
  "Ġchain": 8373,
  "Ġactions": 8374,
  "unfinished": 8375,
  "Ġpolice": 8376,
  "Ġforeign": 8377,
  "otic": 8378,
  "Ġcollege": 8379,
  "Ġcin": 8380,
  "itness": 8382,
  "uer": 8383,
  "uman": 8384,
  "Run": 8386,
  "std": 8387,
  "Ġowner": 8388,
  "icions": 8390,
  "ĠEnd": 8391,
  "Ġstrange": 8392,
  "Ġreplace": 8394,
  "eler": 8395,
  "ĠJesus": 8396,
  "atin": 8397,
  "Ġpoder": 8398,
  "ĠDesign": 8399,
  "Ġlargest": 8402,
  "Ġjourney": 8403,
  "weight": 8404,
  "Ġentered": 8405,
  "Ġdelay": 8406,
  "scious": 8407,
  "Ġquarter": 8409,
  "amin": 8410,
  "asp": 8412,
  "ategory": 8414,
  "ĠMany": 8415,
  "Equal": 8417,
  "ws": 8421,
  "Button": 8422,
  "indent": 8423,
  "Ġhyp": 8424,
  "Rel": 8425,
  "Ġtenien": 8426,
  "Ġbudget": 8427,
  "Ġcapacity": 8428,
  "Ġprocessing": 8430,
  "ĠLeg": 8431,
  "acks": 8432,
  "endar": 8433,
  "oct": 8434,
  "arth": 8436,
  "Ġlose": 8437,
  "avor": 8438,
  "Ġkeeping": 8439,
  "cut": 8440,
  "BA": 8443,
  "Ġchem": 8445,
  "App": 8446,
  "ifications": 8449,
  "DO": 8451,
  "Ġahead": 8454,
  "Ġversions": 8455,
  "support": 8457,
  "expected": 8458,
  "Update": 8459,
  "jection": 8460,
  "Cons": 8462,
  "lowing": 8463,
  "mys": 8465,
  "ĠOnce": 8466,
  "Ġreports": 8467,
  "Ġanimals": 8469,
  "entry": 8470,
  "Ġconsole": 8473,
  "Ġthrows": 8474,
  "Ġraised": 8475,
  "Ġraise": 8477,
  "Ġshell": 8478,
  "Ġprepared": 8480,
  "Child": 8482,
  "ese": 8485,
  "Ġsnow": 8486,
  "ril": 8487,
  "roc": 8488,
  "Ġreduced": 8489,
  "aped": 8490,
  "ĠIndian": 8492,
  "Ġdistinct": 8493,
  "dp": 8496,
  "Comp": 8497,
  "ĠLO": 8499,
  "Ġdiagram": 8500,
  "example": 8501,
  "Ġstarts": 8502,
  "would": 8503,
  "emple": 8504,
  "Gr": 8508,
  "REF": 8509,
  "edom": 8510,
  "Ġtit": 8511,
  "Sec": 8512,
  "Ġdinner": 8515,
  "Ġcoff": 8516,
  "Column": 8517,
  "ĠMake": 8518,
  "Te": 8519,
  "HP": 8520,
  "ĠTO": 8521,
  "ĠFebruary": 8522,
  "Ġtwenty": 8523,
  "ben": 8524,
  "Ġapparent": 8525,
  "Ġpreviously": 8526,
  "Dat": 8527,
  "BU": 8529,
  "ĠEsp": 8532,
  "orial": 8533,
  "ĠBre": 8534,
  "ĠNetwork": 8535,
  "Ġneither": 8536,
  "Buffer": 8538,
  "Ġpropos": 8539,
  "Ġclock": 8540,
  "Ġestimate": 8542,
  "Ġdriving": 8543,
  "Init": 8544,
  "ira": 8545,
  "Ġtroba": 8546,
  "sey": 8547,
  "Ġresistance": 8548,
  "ypes": 8549,
  "Ġsupposed": 8550,
  "unc": 8551,
  "Ġregions": 8554,
  "Ġgrup": 8557,
  "ĠServices": 8558,
  "Ġposted": 8559,
  "drop": 8560,
  "Ġperfectly": 8561,
  "ttp": 8562,
  "untime": 8564,
  "gers": 8566,
  "ifts": 8567,
  "ĠGerman": 8568,
  "door": 8570,
  "ĠPublic": 8571,
  "Ġpunt": 8572,
  "ĠsegÃ¼ent": 8575,
  "Style": 8576,
  "Ġesta": 8577,
  "Ġaudio": 8578,
  "Ġhelped": 8579,
  "Ġur": 8580,
  "ĠCD": 8582,
  "ĠSil": 8583,
  "ĠSpr": 8584,
  "Ġstopped": 8585,
  "Met": 8586,
  "Ġgall": 8587,
  "ĠnomÃ©s": 8588,
  "oder": 8589,
  "Ġhence": 8590,
  "even": 8591,
  "ĠCourt": 8592,
  "Ġratio": 8593,
  "allet": 8594,
  "III": 8596,
  "Ġbat": 8597,
  "Ġbot": 8598,
  "ĠLife": 8600,
  "Ġscheme": 8602,
  "Ġmouth": 8604,
  "Ġcamera": 8605,
  "ĠPower": 8606,
  "care": 8607,
  "Ġhealthy": 8608,
  "rian": 8609,
  "Ġsurv": 8610,
  "obj": 8612,
  "Format": 8613,
  "Ġdepending": 8614,
  "apes": 8616,
  "Ġlaptop": 8617,
  "Ver": 8618,
  "Ġalternative": 8619,
  "Ġschools": 8620,
  "Ãłc": 8621,
  "ffff": 8623,
  "riter": 8624,
  "FS": 8625,
  "Mat": 8626,
  "Ġho": 8628,
  "arks": 8629,
  "iciency": 8630,
  "container": 8631,
  "Ġimpossible": 8632,
  "Ġhidden": 8633,
  "xspace": 8635,
  "oting": 8636,
  "Ġquantum": 8637,
  "Ġeditor": 8638,
  "rence": 8639,
  "Ġplug": 8645,
  "Ġcup": 8646,
  "Ġpartners": 8647,
  "NAME": 8648,
  "Mr": 8649,
  "osc": 8650,
  "Ġwa": 8651,
  "tat": 8652,
  "ĠLemma": 8654,
  "Ġunits": 8655,
  "NN": 8656,
  "ĠSaturday": 8657,
  "Ġchair": 8658,
  "Ġtots": 8659,
  "Ġcommercial": 8662,
  "Ġpossibly": 8663,
  "Ġcontrast": 8664,
  "ĠWilliam": 8665,
  "andon": 8666,
  "Ġwear": 8667,
  "Ġlived": 8668,
  "filter": 8669,
  "Ġstone": 8670,
  "aks": 8671,
  "Ġdisease": 8672,
  "iverse": 8673,
  "Ġtall": 8675,
  "ĉthis": 8679,
  "remove": 8680,
  "Ġwinter": 8682,
  "Ġbattle": 8684,
  "ansion": 8685,
  "ĠConf": 8686,
  "Ġjug": 8687,
  "SL": 8688,
  "Ġscient": 8689,
  "ĠAPI": 8690,
  "navbar": 8691,
  "Ġnorth": 8692,
  "ĠAlex": 8693,
  "Ġspeech": 8694,
  "ĠMax": 8695,
  "Ġlabor": 8696,
  "anda": 8697,
  "Ġmanufacture": 8699,
  "ĠCalifornia": 8700,
  "Vis": 8702,
  "Mon": 8704,
  "Ġfish": 8705,
  "ynch": 8706,
  "Ġtur": 8708,
  "oded": 8709,
  "stack": 8710,
  "Ġsolve": 8711,
  "Ġadvert": 8712,
  "ĠArch": 8713,
  "yes": 8714,
  "ĠCH": 8716,
  "ĠEuropean": 8717,
  "black": 8718,
  "Ġlisted": 8719,
  "kind": 8720,
  "Ġdrivers": 8721,
  "Ġserved": 8722,
  "attr": 8723,
  "Ġauth": 8724,
  "Ġgradu": 8725,
  "Ġmission": 8726,
  "Ġfamiliar": 8727,
  "Filter": 8728,
  "Ġkeys": 8729,
  "Ġrecords": 8730,
  "Ġrose": 8731,
  "lines": 8734,
  "Ġentirely": 8735,
  "ername": 8737,
  "ĠTur": 8738,
  "etch": 8739,
  "Ġrelax": 8740,
  "ideos": 8741,
  "Ġasking": 8742,
  "pective": 8743,
  "ĠAnn": 8746,
  "bur": 8747,
  "imer": 8748,
  "Ġcorpor": 8750,
  "envol": 8751,
  "Ã²n": 8753,
  "Ġbrief": 8754,
  "Dev": 8755,
  "ĠVir": 8756,
  "ett": 8757,
  "Ġiron": 8758,
  "Ġappearance": 8759,
  "normal": 8760,
  "linux": 8762,
  "ĠUN": 8763,
  "Ġdesired": 8764,
  "Ġdepth": 8766,
  "riptor": 8767,
  "acity": 8768,
  "vention": 8769,
  "Ġtenir": 8770,
  "Ġcategory": 8771,
  "iration": 8774,
  "Ġpassion": 8775,
  "sin": 8776,
  "Ġgentle": 8777,
  "ĠIns": 8778,
  "Output": 8780,
  "Layout": 8781,
  "ĠBusiness": 8782,
  "Ġhonest": 8784,
  "Ġdirig": 8785,
  "Pat": 8788,
  "ulse": 8789,
  "Âłhabitants": 8790,
  "Ġodd": 8792,
  "Ġboundary": 8793,
  "matrix": 8795,
  "eger": 8796,
  "Ġmanage": 8800,
  "Ġowners": 8801,
  "Ġshoot": 8802,
  "Ġplain": 8803,
  "Ġje": 8804,
  "Ġsector": 8805,
  "Ġnodes": 8806,
  "esome": 8807,
  "ĠWil": 8809,
  "ouncil": 8810,
  "Ġjoy": 8812,
  "Ġoffset": 8813,
  "Ġcash": 8814,
  "response": 8815,
  "Ġculture": 8817,
  "Ġelectr": 8819,
  "olar": 8822,
  "Ġboys": 8824,
  "Ġlaunch": 8825,
  "Ġdispos": 8826,
  "ifact": 8827,
  "lÃŃcula": 8829,
  "ĠStart": 8830,
  "udio": 8831,
  "ĠcÃ³digo": 8832,
  "Ġmagnetic": 8835,
  "pad": 8836,
  "Ġdesire": 8837,
  "Ġexperienced": 8838,
  "rolled": 8839,
  "unn": 8840,
  "ĠSmith": 8841,
  "ĠHD": 8843,
  "Ġsynt": 8844,
  "Ġidentify": 8845,
  "nections": 8846,
  "Ġorient": 8849,
  "sd": 8850,
  "Ġil": 8851,
  "ĠJul": 8852,
  "ĠKey": 8853,
  "fortunately": 8854,
  "ĠAL": 8855,
  "ptr": 8856,
  "inese": 8859,
  "Ġyouth": 8860,
  "glÃ©s": 8861,
  "Dep": 8862,
  "Also": 8863,
  "scr": 8864,
  "going": 8866,
  "Ġcards": 8867,
  "Ġsouth": 8870,
  "Ġintended": 8871,
  "Ġbag": 8872,
  "ĠParis": 8873,
  "Ġresponsible": 8874,
  "ORD": 8875,
  "ĠFranÃ§a": 8877,
  "Ġdecide": 8878,
  "anned": 8880,
  "Ġsuperior": 8881,
  "onom": 8882,
  "ciÃ³n": 8883,
  "ĠWhere": 8884,
  "Ġstrict": 8885,
  "ĠPack": 8886,
  "Ġcontroller": 8888,
  "ĠWho": 8890,
  "Ġcompare": 8891,
  "ĠDevelop": 8892,
  "SO": 8893,
  "Ġcontaining": 8896,
  "iples": 8897,
  "May": 8898,
  "document": 8899,
  "Ġbeat": 8900,
  "ĠProject": 8901,
  "Ġpolic": 8902,
  "Ġstanding": 8903,
  "Ġconce": 8904,
  "ĠCanada": 8905,
  "olic": 8906,
  "Ġemployees": 8907,
  "och": 8908,
  "ented": 8909,
  "ĠCall": 8910,
  "missions": 8911,
  "aked": 8912,
  "ĠFlor": 8913,
  "Ġfabric": 8914,
  "ĠPlan": 8915,
  "Ġextended": 8916,
  "tml": 8917,
  "Ġchallenge": 8918,
  "Ġcomparison": 8919,
  "cache": 8920,
  "Ġspoke": 8921,
  "Ġgerm": 8922,
  "Max": 8924,
  "Return": 8925,
  "gle": 8926,
  "Ġintr": 8927,
  "edy": 8928,
  "iat": 8929,
  "sor": 8930,
  "rule": 8931,
  "Ġhardware": 8932,
  "Ġmilitary": 8934,
  "Ġencara": 8935,
  "lles": 8936,
  "Ġbon": 8937,
  "Ġequations": 8938,
  "ĠUsing": 8939,
  "Ġregister": 8941,
  "Ġbought": 8942,
  "Ġagent": 8945,
  "ĠPress": 8946,
  "Ġfle": 8947,
  "Ġnatur": 8949,
  "Ġadvanced": 8950,
  "water": 8951,
  "agn": 8952,
  "about": 8953,
  "Ġefforts": 8954,
  "Top": 8955,
  "envolup": 8956,
  "Ġconflic": 8958,
  "Ġtherm": 8959,
  "Ġreader": 8960,
  "yg": 8962,
  "odo": 8963,
  "Ġupdates": 8964,
  "Ġsuddenly": 8965,
  "Ġboat": 8966,
  "Ġtrend": 8967,
  "ĠMain": 8968,
  "ĠLook": 8969,
  "bi": 8970,
  "background": 8972,
  "Ġformal": 8974,
  "icate": 8975,
  "Controller": 8976,
  "abil": 8978,
  "Ġopportunities": 8979,
  "Ġgeneration": 8982,
  "Ġalign": 8983,
  "Ġbear": 8984,
  "Ġpartir": 8985,
  "amente": 8986,
  "Ġupgrade": 8988,
  "Mem": 8989,
  "ccion": 8990,
  "vid": 8991,
  "Ġmetal": 8992,
  "Ġvary": 8993,
  "serve": 8994,
  "LASS": 8995,
  "Ġdual": 8996,
  "Ġsomewhat": 8997,
  "Ġuniform": 8998,
  "Ġfavour": 8999,
  "vas": 9001,
  "Ġdesktop": 9002,
  "Ġbreath": 9003,
  "Ġkm": 9004,
  "Ġmant": 9008,
  "je": 9009,
  "ĠJe": 9010,
  "Ġfant": 9011,
  "RI": 9012,
  "Eng": 9013,
  "cial": 9014,
  "power": 9015,
  "Ġcomfortable": 9016,
  "icans": 9017,
  "appy": 9018,
  "sect": 9021,
  "ometimes": 9022,
  "Ġtele": 9023,
  "Ġrepair": 9024,
  "ye": 9025,
  "ubre": 9027,
  "Ġelimin": 9028,
  "ĠBecause": 9029,
  "Ġlisten": 9031,
  "Car": 9032,
  "Ġspeaking": 9034,
  "ĠBest": 9035,
  "Ġsust": 9036,
  "ĠCON": 9038,
  "ĠCa": 9039,
  "Pack": 9040,
  "umerate": 9041,
  "bal": 9042,
  "sur": 9043,
  "ĠaixÃŃ": 9045,
  "ĠNews": 9046,
  "Ġhur": 9047,
  "ifies": 9048,
  "ilos": 9051,
  "Ġexplicit": 9053,
  "Ġgoals": 9054,
  "ĠLong": 9056,
  "Script": 9057,
  "hetic": 9058,
  "Ġimportance": 9059,
  "Ġtemplate": 9063,
  "Ġanomen": 9065,
  "ontal": 9067,
  "URL": 9068,
  "Ġbackup": 9072,
  "Ġhonor": 9074,
  "Ġcheap": 9079,
  "sign": 9080,
  "Write": 9083,
  "Ġrecon": 9084,
  "ĠVis": 9085,
  "Person": 9086,
  "Ġbalance": 9087,
  "itut": 9091,
  "Ġought": 9092,
  "Address": 9094,
  "empres": 9096,
  "ĠSing": 9098,
  "files": 9099,
  "ACK": 9101,
  "Thank": 9102,
  "Ġarguments": 9104,
  "Ġsuggested": 9106,
  "Ġsharing": 9107,
  "Ġmunicipi": 9109,
  "Ġrough": 9110,
  "Ġhighlight": 9111,
  "eting": 9113,
  "rible": 9115,
  "Function": 9116,
  "faces": 9117,
  "Ġpron": 9119,
  "Ġnucle": 9120,
  "Ġenabled": 9122,
  "lies": 9123,
  "Ġfailure": 9124,
  "road": 9128,
  "Ġduty": 9129,
  "ogether": 9130,
  "Ġcompat": 9131,
  "Ġtests": 9132,
  "plications": 9134,
  "Ġoblig": 9135,
  "Co": 9136,
  "Use": 9138,
  "Ġprompt": 9139,
  "ĠLl": 9140,
  "Ġoffering": 9141,
  "ĠResearch": 9143,
  "ĠSum": 9144,
  "Ġconfirm": 9145,
  "hav": 9147,
  "Ġdiscussed": 9148,
  "Ġcauses": 9150,
  "reens": 9151,
  "ĠApp": 9152,
  "kin": 9153,
  "pp": 9154,
  "Ġfaster": 9157,
  "Ġarticles": 9161,
  "ĠEv": 9162,
  "SA": 9163,
  "bet": 9164,
  "ĠTop": 9165,
  "Ġorders": 9166,
  "Ġformed": 9167,
  "onal": 9168,
  "ilton": 9169,
  "ĠCE": 9170,
  "Ġrect": 9171,
  "strap": 9172,
  "Po": 9173,
  "Ġcycle": 9174,
  "icion": 9175,
  "Ġdiscover": 9176,
  "osh": 9178,
  "Ġdelight": 9179,
  "Ġmessages": 9180,
  "ĠNor": 9183,
  "Ġeconomic": 9184,
  "obert": 9185,
  "Ġtraffic": 9186,
  "ĠÃīs": 9187,
  "Ġtypically": 9188,
  "Ġdocuments": 9189,
  "Ġletters": 9191,
  "Ġaccompl": 9193,
  "Ġoperating": 9194,
  "ĠTheir": 9195,
  "ĠFrank": 9197,
  "ĠLu": 9198,
  "Ġexistence": 9199,
  "ĠBas": 9201,
  "Ġtelev": 9202,
  "Ġok": 9203,
  "Ġvisible": 9205,
  "prec": 9206,
  "persones": 9207,
  "ĠMichael": 9208,
  "iki": 9209,
  "Ġqued": 9212,
  "Ġdenote": 9214,
  "cknow": 9215,
  "Row": 9216,
  "ted": 9217,
  "step": 9218,
  "Ġexcited": 9219,
  "tree": 9221,
  "los": 9222,
  "sn": 9224,
  "idel": 9225,
  "resents": 9226,
  "Ġtasks": 9227,
  "Ġbusinesses": 9228,
  "Ġsides": 9229,
  "Ġgalax": 9230,
  "isters": 9231,
  "Âłpersones": 9232,
  "ternoon": 9234,
  "ĠGran": 9235,
  "orig": 9236,
  "Ġsister": 9237,
  "endif": 9239,
  "Ġturns": 9240,
  "Ġquad": 9241,
  "rend": 9242,
  "amm": 9245,
  "Ġuncertain": 9246,
  "ĠHall": 9247,
  "exas": 9248,
  "Ġjobs": 9249,
  "Ġreviews": 9250,
  "Ġannounced": 9251,
  "eness": 9252,
  "ĠDiv": 9253,
  "values": 9254,
  "citet": 9255,
  "Ġunknown": 9257,
  "clusive": 9258,
  "otal": 9260,
  "MO": 9261,
  "Ġevolution": 9262,
  "ĠBig": 9263,
  "linear": 9266,
  "ĠiPhone": 9267,
  "Just": 9268,
  "Ġnotes": 9270,
  "Ġobst": 9272,
  "Ġabsolutely": 9274,
  "tical": 9275,
  "ĠRoy": 9276,
  "Ġcolour": 9277,
  "Ġaccident": 9278,
  "Ġentertain": 9281,
  "Ġlie": 9282,
  "Dec": 9283,
  "ĠSl": 9284,
  "Ġtechniques": 9285,
  "ĠAngel": 9289,
  "Ġsuitable": 9290,
  "card": 9291,
  "ĠCouncil": 9292,
  "Ġbrain": 9294,
  "ĠAv": 9295,
  "Ġtopic": 9297,
  "ĠError": 9298,
  "Ġsetembre": 9300,
  "Ġlogin": 9301,
  "AGE": 9302,
  "pled": 9303,
  "ĠTwo": 9304,
  "Ġnoticed": 9305,
  "ĠPeter": 9306,
  "mac": 9307,
  "neq": 9308,
  "Ġparallel": 9310,
  "BO": 9311,
  "ĠDate": 9312,
  "txt": 9313,
  "ading": 9314,
  "Ġprison": 9317,
  "Ġderiv": 9319,
  "ĠOnly": 9320,
  "Ġincorpor": 9321,
  "Ġcaught": 9322,
  "Ġradio": 9324,
  "ĠOld": 9325,
  "ĠRiver": 9326,
  "Ġputting": 9327,
  "prim": 9328,
  "ĠMA": 9330,
  "Ġremaining": 9331,
  "Ġproud": 9332,
  "Ġmentre": 9333,
  "Ġsle": 9334,
  "ÃŃn": 9335,
  "Ġconfigure": 9336,
  "Ġdar": 9337,
  "ĠGener": 9338,
  "Ġdetailed": 9339,
  "Ġya": 9340,
  "Ġwelcome": 9341,
  "Ġresulting": 9342,
  "tx": 9344,
  "ĠLove": 9346,
  "ĠMonday": 9347,
  "yal": 9348,
  "etes": 9350,
  "break": 9351,
  "Ġcontinuous": 9352,
  "second": 9353,
  "Ġflag": 9355,
  "Ġconversation": 9357,
  "Ġdiscovered": 9358,
  "Ġllarg": 9359,
  "bul": 9360,
  "segu": 9361,
  "Ġcoffee": 9363,
  "Ġemb": 9365,
  "Ġembed": 9366,
  "ados": 9367,
  "CM": 9370,
  "uled": 9371,
  "Ġagreement": 9372,
  "arian": 9373,
  "Ġsitting": 9374,
  "Ġrid": 9377,
  "Valid": 9378,
  "Ġconsistent": 9381,
  "ĠGL": 9382,
  "ĠSanta": 9383,
  "Bo": 9384,
  "ridge": 9385,
  "onym": 9386,
  "Ġmanaged": 9387,
  "Ġtransaction": 9390,
  "Ġtechnical": 9392,
  "lets": 9393,
  "direct": 9394,
  "generic": 9395,
  "Ġhelpful": 9396,
  "ez": 9399,
  "ĠaixÃ²": 9400,
  "Ġthee": 9401,
  "Ġlif": 9403,
  "Ġice": 9405,
  "ĠnÃº": 9407,
  "ĠSoft": 9408,
  "Length": 9409,
  "Ġslowly": 9411,
  "apple": 9413,
  "Ġremote": 9415,
  "Ġblocks": 9416,
  "Ġcommands": 9418,
  "ĠOffice": 9419,
  "Ġstored": 9420,
  "Ġbuffer": 9421,
  "unit": 9423,
  "Ġsamples": 9425,
  "Ġcens": 9427,
  "Ã¯t": 9428,
  "ĠFort": 9429,
  "Ġinvestment": 9430,
  "ĠGen": 9431,
  "author": 9432,
  "hy": 9433,
  "ĠNE": 9435,
  "bres": 9436,
  "ĠMicrosoft": 9439,
  "wrap": 9440,
  "Ġsad": 9442,
  "iously": 9445,
  "ĠAT": 9446,
  "Mode": 9447,
  "terday": 9449,
  "Ġmeasures": 9450,
  "Ġmail": 9451,
  "Ġapps": 9452,
  "ccions": 9453,
  "Ġven": 9454,
  "buf": 9455,
  "Ġpoden": 9456,
  "Direct": 9457,
  "Ġformula": 9458,
  "uses": 9459,
  "Ġinstructions": 9460,
  "Ġtaste": 9461,
  "Ġstable": 9462,
  "Ġantic": 9464,
  "Ġdesenvolup": 9465,
  "izar": 9466,
  "Mar": 9468,
  "Ġfloat": 9472,
  "Ġenemy": 9473,
  "Ġteams": 9474,
  "Ġweekend": 9477,
  "device": 9478,
  "Ġguany": 9483,
  "Ġaward": 9484,
  "Enc": 9485,
  "amental": 9486,
  "ĠMass": 9488,
  "ello": 9489,
  "cf": 9490,
  "high": 9491,
  "such": 9492,
  "opl": 9493,
  "Ġhan": 9495,
  "spe": 9496,
  "Ġvalu": 9497,
  "ĠAlthough": 9498,
  "ĠDu": 9499,
  "icing": 9500,
  "two": 9502,
  "NA": 9503,
  "eper": 9504,
  "ĠSa": 9505,
  "ainer": 9506,
  "hspace": 9507,
  "ĠFore": 9509,
  "Ġworse": 9510,
  "Ġfills": 9511,
  "Ġsucceed": 9513,
  "Gu": 9514,
  "OK": 9516,
  "Cal": 9517,
  "Ġsiguiente": 9518,
  "Access": 9521,
  "Ġvess": 9522,
  "params": 9523,
  "Ġanti": 9525,
  "Ġinner": 9526,
  "Ġegg": 9527,
  "Ġholding": 9528,
  "rev": 9529,
  "Ġpayment": 9531,
  "ĠCA": 9532,
  "mode": 9533,
  "Ġabsolute": 9534,
  "Ġnetworks": 9535,
  "ĠLike": 9536,
  "iene": 9537,
  "Ġreality": 9538,
  "Ġanimal": 9542,
  "Ġsky": 9543,
  "pop": 9544,
  "Ġopposite": 9545,
  "riz": 9546,
  "ĠBet": 9549,
  "lÃŃcules": 9550,
  "ĠIsrael": 9553,
  "Ġmarried": 9555,
  "ĠGovernment": 9558,
  "Ġarrived": 9561,
  "LC": 9562,
  "Ġspr": 9565,
  "Ġmostly": 9566,
  "anta": 9568,
  "Ġconfidence": 9569,
  "Ġkilled": 9571,
  "MI": 9572,
  "Ġplenty": 9573,
  "altres": 9574,
  "hered": 9576,
  "ĠJew": 9577,
  "Ġspaces": 9578,
  "Ġmedium": 9579,
  "Ġwriter": 9580,
  "rich": 9581,
  "octubre": 9583,
  "Ġfeedback": 9584,
  "Task": 9585,
  "emon": 9587,
  "scope": 9588,
  "sych": 9589,
  "Ġjoint": 9593,
  "Ġminim": 9594,
  "ĠFrancis": 9595,
  "Where": 9596,
  "Ġdistrict": 9598,
  "orough": 9599,
  "Ġacon": 9600,
  "Ġexplan": 9601,
  "ĠIV": 9602,
  "uan": 9603,
  "Ġconsidering": 9605,
  "Ġfruit": 9606,
  "ĠManagement": 9608,
  "Ġcalling": 9609,
  "Look": 9610,
  "javascript": 9611,
  "Ġllib": 9613,
  "ĠBill": 9614,
  "ponents": 9616,
  "Ġnumerous": 9617,
  "norm": 9618,
  "Ġsch": 9619,
  "ĠPan": 9620,
  "Ġtow": 9621,
  "Ġrepresents": 9622,
  "isl": 9623,
  "Ġforest": 9625,
  "reshold": 9626,
  "Ke": 9627,
  "sol": 9628,
  "greg": 9631,
  "Ġwedding": 9632,
  "Ġplane": 9633,
  "Ġhero": 9634,
  "ĠBack": 9636,
  "Ġsaved": 9637,
  "omething": 9638,
  "actor": 9639,
  "life": 9640,
  "Ġcod": 9641,
  "Ġexplained": 9642,
  "DS": 9643,
  "oom": 9644,
  "ĠScience": 9645,
  "Ġcamb": 9646,
  "GE": 9647,
  "ĠSi": 9648,
  "CI": 9650,
  "ĠCentral": 9652,
  "oses": 9653,
  "Ġcluster": 9654,
  "Ġdur": 9655,
  "Ã³s": 9657,
  "Ġspectrum": 9658,
  "Ãºblica": 9660,
  "Ġquatre": 9661,
  "ÃŃm": 9662,
  "ĠRoman": 9663,
  "Ġmajority": 9665,
  "Ġincreases": 9666,
  "Ġcoe": 9667,
  "offset": 9668,
  "Ġtheme": 9669,
  "instance": 9670,
  "ĠMaria": 9671,
  "llustr": 9673,
  "Ġcombined": 9674,
  "osing": 9676,
  "kes": 9677,
  "Ġimplementation": 9678,
  "izontal": 9679,
  "Ġeth": 9680,
  "window": 9681,
  "Ġfamous": 9682,
  "Ġcontempor": 9683,
  "ĠWed": 9684,
  "Ġtwice": 9685,
  "ĠRepublic": 9687,
  "ĠsÃ¨": 9688,
  "Ġvir": 9689,
  "Ġmusical": 9690,
  "mut": 9691,
  "Case": 9692,
  "venue": 9694,
  "esa": 9696,
  "Ġparties": 9697,
  "reference": 9698,
  "Ġcorrectly": 9699,
  "ĠGrand": 9700,
  "Ġwatching": 9701,
  "Ġdestroy": 9702,
  "layer": 9704,
  "dest": 9705,
  "hist": 9707,
  "Ġresistor": 9708,
  "craft": 9710,
  "ĠReal": 9711,
  "Ġveget": 9712,
  "Ġespany": 9714,
  "ĠName": 9715,
  "ĠReview": 9716,
  "Ġadvent": 9717,
  "teen": 9718,
  "ursday": 9721,
  "Ġrooms": 9723,
  "COL": 9725,
  "eller": 9726,
  "Ġbrowser": 9727,
  "achine": 9729,
  "ĠAssociation": 9730,
  "vm": 9732,
  "Bibli": 9735,
  "Seg": 9736,
  "Process": 9738,
  "Ġexercise": 9739,
  "war": 9740,
  "Ġpractical": 9743,
  "ĠEduc": 9744,
  "Ġnarrow": 9747,
  "atges": 9748,
  "Ġdelivery": 9749,
  "Ġaccuracy": 9750,
  "Ġmarc": 9751,
  "SET": 9752,
  "Ġsota": 9753,
  "enumerate": 9754,
  "Ġvirt": 9758,
  "ITH": 9760,
  "Ġfriendly": 9762,
  "Ġvida": 9763,
  "itemize": 9764,
  "Equals": 9765,
  "Ġrub": 9767,
  "Ġended": 9768,
  "arts": 9769,
  "ĠAR": 9771,
  "uesday": 9772,
  "Ġmad": 9774,
  "CS": 9775,
  "ĠMel": 9777,
  "Ġcable": 9778,
  "them": 9779,
  "Ġemph": 9780,
  "Ġkeyboard": 9781,
  "ĠPen": 9782,
  "ĠBY": 9784,
  "Ġban": 9785,
  "bling": 9787,
  "Ġcompact": 9788,
  "outhern": 9789,
  "ĠCreate": 9790,
  "Ġanswers": 9791,
  "ĠCorpor": 9792,
  "iner": 9794,
  "theorem": 9795,
  "ĠArray": 9797,
  "Ġentr": 9798,
  "noindent": 9800,
  "ĠSocial": 9801,
  "styles": 9802,
  "ĠStar": 9803,
  "ĠespÃ¨c": 9805,
  "Ġsingular": 9806,
  "tenance": 9807,
  "Ġwilling": 9809,
  "Ġinfin": 9811,
  "ĠEqu": 9812,
  "Ġrain": 9813,
  "Ġbits": 9814,
  "Ġsignificantly": 9815,
  "tn": 9816,
  "ĠBal": 9817,
  "Ġsplit": 9818,
  "ĠAmaz": 9819,
  "iest": 9820,
  "aire": 9821,
  "Ġpoet": 9822,
  "Ġframework": 9823,
  "Ġempres": 9825,
  "Ġproblema": 9826,
  "ĠIr": 9827,
  "ĠId": 9828,
  "CTION": 9829,
  "rated": 9831,
  "estic": 9833,
  "idae": 9835,
  "unte": 9836,
  "Ġlov": 9837,
  "Ġmaps": 9838,
  "ĠJava": 9840,
  "Ġlaid": 9841,
  "uint": 9842,
  "ĠInformation": 9843,
  "Ġhelping": 9845,
  "Ġrepeated": 9847,
  "ĠDoes": 9848,
  "Ġdimension": 9849,
  "Ġidentity": 9850,
  "Ġgreatest": 9851,
  "Ġseek": 9852,
  "ĠBoth": 9853,
  "FONT": 9856,
  "Sche": 9857,
  "ĠOper": 9858,
  "Ġourselves": 9860,
  "Ġarbit": 9861,
  "Ġevol": 9862,
  "Ġisland": 9864,
  "Ġturning": 9865,
  "ĠRoad": 9867,
  "Ġnut": 9868,
  "bas": 9872,
  "Ġannual": 9873,
  "Ġvend": 9874,
  "full": 9875,
  "Rev": 9878,
  "debug": 9880,
  "Ġexchange": 9881,
  "ĠSuper": 9882,
  "Ġsalt": 9883,
  "Ġmeasured": 9884,
  "Ġincome": 9886,
  "zer": 9888,
  "TC": 9889,
  "ĠIntel": 9890,
  "Ġbread": 9891,
  "via": 9892,
  "Ġseat": 9893,
  "Ġvivien": 9894,
  "ĠMaster": 9895,
  "Ġsan": 9896,
  "Fi": 9897,
  "Ġunable": 9898,
  "Ġcraft": 9902,
  "ZE": 9903,
  "Description": 9904,
  "Ġclim": 9906,
  "Ġcitiz": 9907,
  "ĠIts": 9909,
  "notation": 9910,
  "ĠTambÃ©": 9911,
  "Ġwalls": 9912,
  "Edit": 9913,
  "Port": 9915,
  "Ġpleasure": 9916,
  "Ġroof": 9917,
  "umes": 9918,
  "Ãłn": 9921,
  "ĠBur": 9922,
  "Ġshel": 9923,
  "ATH": 9924,
  "Ġclar": 9926,
  "CRE": 9927,
  "parse": 9928,
  "DW": 9929,
  "Ġespecial": 9933,
  "pes": 9934,
  "ĠLouis": 9935,
  "Ġanalog": 9936,
  "Ġcircumstances": 9937,
  "Ġexpos": 9938,
  "ĠBoard": 9939,
  "Ġpartner": 9940,
  "Ġroute": 9941,
  "Ġpython": 9942,
  "Ġafternoon": 9943,
  "Ġattribute": 9945,
  "obs": 9946,
  "Ġsistema": 9947,
  "Ġdegrees": 9948,
  "Ġinqu": 9950,
  "Ġstret": 9951,
  "Ġdiagn": 9953,
  "icture": 9954,
  "odies": 9955,
  "range": 9956,
  "ĠCharles": 9958,
  "akers": 9961,
  "Ġbott": 9962,
  "Ġmel": 9964,
  "Ġtail": 9965,
  "Ġstated": 9966,
  "Ġplants": 9967,
  "Ġfro": 9968,
  "isted": 9969,
  "iano": 9970,
  "Ġcad": 9971,
  "Ġprime": 9972,
  "Ġpint": 9973,
  "Ġterritor": 9975,
  "Ġpm": 9976,
  "Control": 9977,
  "Ġsmile": 9978,
  "Ġwaste": 9979,
  "pert": 9980,
  "annels": 9982,
  "cean": 9983,
  "Ġclin": 9984,
  "Ġcircle": 9985,
  "float": 9986,
  "Ġpersons": 9987,
  "Ġbless": 9988,
  "avors": 9989,
  "IE": 9990,
  "Ġpassing": 9991,
  "oute": 9993,
  "Ġescol": 9994,
  "alo": 9995,
  "Ġpurposes": 9996,
  "operatorname": 9997,
  "amer": 9998,
  "white": 9999,
  "IGN": 10000,
  "dimensional": 10001,
  "Ġpil": 10002,
  "ĠThomas": 10004,
  "your": 10005,
  "Each": 10008,
  "Ġhabit": 10009,
  "orses": 10010,
  "Ġna": 10012,
  "ĠAustralia": 10013,
  "ĠSoc": 10015,
  "xic": 10016,
  "isms": 10017,
  "ĠBra": 10019,
  "jud": 10020,
  "require": 10021,
  "media": 10023,
  "Ġsched": 10024,
  "Ġexplore": 10028,
  "Ġtermin": 10030,
  "nesday": 10031,
  "inent": 10033,
  "Ġregul": 10036,
  "Ġrecommended": 10038,
  "ĠThank": 10039,
  "shot": 10040,
  "master": 10041,
  "Ġbinary": 10042,
  "organ": 10043,
  "oured": 10044,
  "yer": 10045,
  "Ġcache": 10048,
  "Ġvision": 10049,
  "Ġincred": 10051,
  "Ġsolo": 10053,
  "ĠRad": 10055,
  "Ġarmy": 10056,
  "icolumn": 10057,
  "Ġinterior": 10058,
  "Current": 10059,
  "Ġcompre": 10060,
  "cope": 10061,
  "ĠFol": 10063,
  "matic": 10065,
  "ĠAccording": 10068,
  "ĠSpe": 10069,
  "fraid": 10070,
  "vspace": 10071,
  "ĠCard": 10072,
  "Ġabsor": 10074,
  "iger": 10075,
  "Ġtrial": 10076,
  "Ġhat": 10077,
  "Ġestate": 10078,
  "Ġcontainer": 10079,
  "Ġaudience": 10080,
  "GR": 10081,
  "Ġsuccessfully": 10082,
  "ĠWood": 10083,
  "Ġcollabor": 10084,
  "Ac": 10085,
  "Ġdataset": 10086,
  "Ġpropi": 10087,
  "Ġrecovery": 10088,
  "ceived": 10089,
  "Ġessay": 10090,
  "Ġcav": 10092,
  "multicolumn": 10093,
  "Ġinteraction": 10094,
  "approx": 10096,
  "ĠBi": 10097,
  "Ġbecoming": 10100,
  "peres": 10101,
  "atura": 10102,
  "Ġposts": 10105,
  "ĠCustom": 10107,
  "match": 10108,
  "Ġtips": 10109,
  "fi": 10110,
  "Ġscal": 10112,
  "agraph": 10113,
  "ĠChinese": 10114,
  "Ġcolumns": 10115,
  "Ġdiversos": 10116,
  "Ġunderstood": 10118,
  "Ġmanual": 10119,
  "Ġgod": 10120,
  "ariant": 10121,
  "Right": 10123,
  "Ġperman": 10124,
  "mbre": 10125,
  "Ã²r": 10127,
  "Ã¡n": 10128,
  "riev": 10129,
  "Ġfold": 10131,
  "VAL": 10132,
  "Les": 10133,
  "ĠregiÃ³": 10134,
  "Ġepis": 10135,
  "rera": 10136,
  "Ġordered": 10138,
  "ĠGir": 10140,
  "ĠIT": 10141,
  "ME": 10142,
  "ĠTexas": 10144,
  "arios": 10145,
  "ori": 10146,
  "Ġpapers": 10147,
  "Ġvideos": 10148,
  "Ġplot": 10149,
  "Ġbusy": 10151,
  "Ġmatters": 10152,
  "Ġwalking": 10153,
  "THE": 10154,
  "Lib": 10155,
  "ARY": 10157,
  "images": 10158,
  "Ġdating": 10162,
  "GA": 10163,
  "ipped": 10164,
  "Ġdelet": 10166,
  "Ġrestart": 10167,
  "xture": 10168,
  "Ġboost": 10170,
  "Ġleader": 10173,
  "ÃŃtica": 10174,
  "Ġexpensive": 10175,
  "ĠRet": 10176,
  "Dr": 10177,
  "Ġtherap": 10179,
  "hr": 10180,
  "Ġends": 10181,
  "Ġteacher": 10182,
  "Ġintellig": 10183,
  "Ġspecifically": 10184,
  "Ġbridge": 10185,
  "Ġbrown": 10186,
  "glÃ©sia": 10187,
  "Bibliografia": 10188,
  "ĠJoan": 10189,
  "uzz": 10190,
  "istent": 10191,
  "Ġdropped": 10192,
  "sys": 10194,
  "Ġweap": 10197,
  "Cache": 10198,
  "Ġrestaur": 10199,
  "ĠfrancÃ¨s": 10200,
  "Ã²m": 10201,
  "lat": 10202,
  "Ġexceed": 10203,
  "Dele": 10204,
  "ki": 10205,
  "aning": 10206,
  "urop": 10207,
  "plug": 10208,
  "anim": 10209,
  "esp": 10211,
  "ĠPR": 10214,
  "Ġstack": 10215,
  "ATA": 10216,
  "Another": 10217,
  "Ġtypical": 10218,
  "ĠLuc": 10219,
  "claimed": 10220,
  "dec": 10221,
  "Ġefficiency": 10224,
  "Ġthin": 10226,
  "Ġjoined": 10227,
  "ĠFoundation": 10228,
  "emplo": 10229,
  "Ġangle": 10231,
  "ĠCare": 10232,
  "ĠText": 10236,
  "icken": 10237,
  "ANT": 10238,
  "Ġneck": 10239,
  "Ġiniti": 10240,
  "ificaciÃ³": 10241,
  "aqu": 10242,
  "Ġfee": 10244,
  "found": 10246,
  "ĠPeople": 10247,
  "Ġterme": 10248,
  "etat": 10249,
  "Ġcreative": 10250,
  "ĠChild": 10251,
  "Ġdrawn": 10253,
  "gence": 10256,
  "Ġsubsc": 10257,
  "ĠLand": 10260,
  "Ġdifferences": 10261,
  "ĠHand": 10262,
  "Ġaffected": 10263,
  "Ġcurve": 10264,
  "Ġportion": 10265,
  "Ġflowers": 10266,
  "aded": 10267,
  "Names": 10269,
  "stat": 10270,
  "ĠProv": 10271,
  "prise": 10272,
  "mi": 10276,
  "Ġfreedom": 10279,
  "Location": 10280,
  "ĠBank": 10281,
  "unning": 10282,
  "ĠAndroid": 10283,
  "Ġdiferents": 10284,
  "Ġfurniture": 10285,
  "ĠLake": 10286,
  "Search": 10289,
  "Ġalgebra": 10291,
  "uario": 10292,
  "Ġfans": 10293,
  "aga": 10294,
  "Ġanywhere": 10295,
  "END": 10296,
  "ĠUnder": 10297,
  "Ġmillor": 10298,
  "bing": 10299,
  "stone": 10302,
  "rooms": 10303,
  "edit": 10304,
  "Ġrelatively": 10305,
  "Ġprev": 10306,
  "wr": 10307,
  "ais": 10308,
  "Ġdust": 10309,
  "Ġscan": 10310,
  "Ġafraid": 10312,
  "Ġvelocity": 10313,
  "oved": 10314,
  "ĠElect": 10316,
  "Gl": 10317,
  "Ġworry": 10318,
  "session": 10321,
  "IX": 10322,
  "URE": 10323,
  "auge": 10324,
  "outs": 10325,
  "don": 10328,
  "Ġhyd": 10329,
  "ĠWord": 10330,
  "Ġthousands": 10331,
  "Ġgrew": 10332,
  "Ġproport": 10333,
  "Target": 10334,
  "Ġpec": 10335,
  "share": 10337,
  "hus": 10338,
  "ĠFurther": 10340,
  "ĠmarÃ§": 10341,
  "Ġdisput": 10342,
  "ĠRom": 10343,
  "Ġdin": 10344,
  "ĠProfess": 10345,
  "Ġteaching": 10346,
  "ĠJim": 10348,
  "ĠPass": 10349,
  "Ġpix": 10351,
  "ĠSpace": 10352,
  "Ġproved": 10353,
  "Ġderived": 10354,
  "ĠRam": 10356,
  "ĠCre": 10357,
  "Ġfrequently": 10358,
  "Ġindicate": 10360,
  "Ġrail": 10361,
  "ĠmÃł": 10362,
  "Ġflux": 10363,
  "Ġtard": 10365,
  "BS": 10366,
  "ĠHave": 10367,
  "ulous": 10368,
  "Ġintel": 10369,
  "Ġaccurate": 10370,
  "Ġlovely": 10372,
  "ader": 10373,
  "mosp": 10374,
  "Ġapare": 10375,
  "ĠAN": 10376,
  "Ġedit": 10379,
  "istration": 10380,
  "prototype": 10381,
  "Ġcallback": 10382,
  "cluded": 10383,
  "good": 10384,
  "hop": 10385,
  "ĠmÃ³n": 10386,
  "Ġexpressed": 10387,
  "Ġguys": 10388,
  "ĠTim": 10389,
  "security": 10390,
  "Ġbaix": 10391,
  "irty": 10392,
  "bat": 10393,
  "Ġsick": 10394,
  "ĠMusic": 10395,
  "Ġliqu": 10396,
  "ĠBuild": 10397,
  "Ġdistingu": 10399,
  "ĠOnline": 10400,
  "buffer": 10401,
  "Ġrei": 10402,
  "Ġmoments": 10403,
  "ĠNS": 10404,
  "Ġlen": 10405,
  "ante": 10406,
  "uries": 10407,
  "WE": 10408,
  "ĠRichard": 10409,
  "Every": 10410,
  "bind": 10411,
  "Ġcris": 10412,
  "ĠRequ": 10413,
  "ĠLight": 10415,
  "Ġminor": 10416,
  "template": 10417,
  "ĠJO": 10418,
  "Ġhast": 10419,
  "ĠLicense": 10420,
  "scape": 10421,
  "Ġvillage": 10422,
  "quÃ¨": 10423,
  "morrow": 10424,
  "Ġwalked": 10425,
  "lap": 10426,
  "alysis": 10427,
  "APTER": 10428,
  "pref": 10429,
  "Ġlic": 10430,
  "ĠNO": 10431,
  "through": 10432,
  "ĠTerm": 10433,
  "final": 10435,
  "Ġhouses": 10436,
  "Ġyellow": 10437,
  "words": 10438,
  "ĠColor": 10439,
  "ivered": 10440,
  "TYPE": 10441,
  "Ġlaun": 10442,
  "ĠEngine": 10443,
  "Ġtreated": 10449,
  "orthern": 10450,
  "Ġsusp": 10453,
  "Window": 10454,
  "olly": 10455,
  "Ġfault": 10456,
  "auss": 10457,
  "holder": 10458,
  "DR": 10459,
  "Ġpip": 10461,
  "Ġaccepted": 10463,
  "orter": 10465,
  "pository": 10466,
  "Ġhole": 10467,
  "ĠInstitute": 10468,
  "Op": 10469,
  "Url": 10470,
  "ĠHenry": 10471,
  "modal": 10472,
  "Ġrecall": 10474,
  "omic": 10475,
  "ĠBrown": 10476,
  "sv": 10477,
  "Ġdeclar": 10478,
  "ilarly": 10479,
  "ĠUser": 10481,
  "Ġemot": 10482,
  "Ġremained": 10484,
  "Ġfairly": 10485,
  "Ġaccounts": 10487,
  "ĠSociety": 10488,
  "oration": 10490,
  "ĠURL": 10492,
  "ĠProduct": 10493,
  "Ġpadding": 10494,
  "Ġcancer": 10495,
  "Ġabans": 10496,
  "ĠWater": 10497,
  "Ġdb": 10499,
  "Ġhospital": 10501,
  "ĠTrue": 10502,
  "Once": 10503,
  "ko": 10504,
  "Ġmerc": 10505,
  "made": 10508,
  "Ġsubt": 10509,
  "Ġtells": 10510,
  "Ġsegons": 10511,
  "Ġforgot": 10512,
  "ĠStand": 10513,
  "pons": 10514,
  "Ġride": 10515,
  "otted": 10516,
  "Ġdrag": 10517,
  "utils": 10518,
  "empty": 10519,
  "Fol": 10520,
  "uplic": 10521,
  "ĠHill": 10522,
  "Ġallowing": 10523,
  "ĠIsland": 10524,
  "actual": 10525,
  "clear": 10527,
  "Ġosc": 10530,
  "Ġexcess": 10531,
  "ĠHa": 10532,
  "Level": 10533,
  "azz": 10534,
  "Ne": 10537,
  "ĠAP": 10538,
  "endent": 10539,
  "address": 10540,
  "unci": 10541,
  "Ġmarked": 10542,
  "Ġsou": 10543,
  "ĠMap": 10544,
  "Ġbillion": 10545,
  "access": 10546,
  "vidia": 10547,
  "Ġrecip": 10548,
  "Ġmediana": 10549,
  "Ġschedule": 10550,
  "Ġknowing": 10552,
  "Ġnove": 10553,
  "ĠNova": 10554,
  "Ġsurvey": 10557,
  "Ġclaims": 10558,
  "etooth": 10559,
  "Ġoficial": 10560,
  "Ġbond": 10561,
  "aca": 10562,
  "Ġattached": 10563,
  "ĠSuch": 10564,
  "Ġmouse": 10565,
  "VE": 10568,
  "Ġemphas": 10570,
  "Ġexperiences": 10571,
  "law": 10572,
  "MB": 10573,
  "Ġsports": 10575,
  "Ġhyper": 10576,
  "Ġru": 10577,
  "Ġdesembre": 10579,
  "ĠPop": 10580,
  "Ġfly": 10581,
  "obe": 10583,
  "prod": 10584,
  "ById": 10586,
  "ĠCode": 10587,
  "may": 10588,
  "Ġpla": 10589,
  "Ġeleg": 10590,
  "Ġlocations": 10591,
  "amples": 10592,
  "Ġsteel": 10594,
  "icago": 10595,
  "Ġqui": 10596,
  "icker": 10597,
  "Pass": 10598,
  "Ġliterature": 10600,
  "Ġbranch": 10601,
  "ĠRock": 10602,
  "Ġauthors": 10607,
  "Ġforced": 10608,
  "ctr": 10609,
  "Ġexport": 10610,
  "Ġtight": 10611,
  "Width": 10612,
  "forward": 10615,
  "Ġexperiments": 10616,
  "Ġjul": 10617,
  "ynchron": 10618,
  "Ġconnections": 10619,
  "ÃŃtol": 10620,
  "success": 10621,
  "Ġlle": 10623,
  "ĠTry": 10624,
  "Ġmental": 10625,
  "Cor": 10627,
  "Ġarc": 10629,
  "watch": 10630,
  "quare": 10631,
  "Ġlift": 10633,
  "untament": 10636,
  "ĠVan": 10637,
  "Ġobservations": 10639,
  "Ġtotally": 10640,
  "ffect": 10642,
  "dep": 10643,
  "Ġblow": 10644,
  "into": 10645,
  "minus": 10646,
  "Bundle": 10647,
  "Ġadj": 10648,
  "inations": 10649,
  "Ġdram": 10651,
  "Ġancient": 10652,
  "Ġdedicated": 10653,
  "Ġchecked": 10654,
  "Pi": 10656,
  "pool": 10659,
  "Ġmarriage": 10660,
  "ni": 10661,
  "Provider": 10662,
  "Ġinstalling": 10663,
  "related": 10664,
  "Ġlayers": 10665,
  "Ġcarefully": 10666,
  "Ġmixed": 10667,
  "Ġlux": 10668,
  "appoint": 10669,
  "hot": 10670,
  "mathscr": 10671,
  "Ġmerely": 10672,
  "STR": 10673,
  "Ġmotiv": 10674,
  "Ġconsists": 10675,
  "ĠLear": 10676,
  "Ġpromise": 10679,
  "Vert": 10681,
  "Ġwitness": 10683,
  "alian": 10684,
  "Ġdies": 10687,
  "iour": 10688,
  "Ġingred": 10690,
  "Copy": 10693,
  "ĠModel": 10694,
  "Ġacadem": 10695,
  "try": 10696,
  "ĠJac": 10699,
  "ĠEnter": 10700,
  "Ġnoted": 10701,
  "Ġelev": 10704,
  "Ġchallenges": 10705,
  "Defn": 10707,
  "ogrÃł": 10708,
  "Ve": 10709,
  "Ġisol": 10710,
  "Thread": 10711,
  "ĠMadrid": 10712,
  "Ġworkers": 10713,
  "Ġoperators": 10715,
  "ĠCarol": 10716,
  "email": 10717,
  "Ġcalculated": 10720,
  "ificate": 10722,
  "RS": 10724,
  "Ġmaig": 10725,
  "Ġsegment": 10727,
  "kins": 10728,
  "custom": 10729,
  "ĠAfrica": 10730,
  "ourse": 10731,
  "nam": 10732,
  "Ġscr": 10733,
  "Ġartist": 10734,
  "Ġgun": 10735,
  "Ġtoken": 10736,
  "Product": 10737,
  "Ġidentified": 10738,
  "Ġaid": 10739,
  "ilit": 10740,
  "erves": 10741,
  "VD": 10743,
  "Ġsolar": 10744,
  "ĠHence": 10745,
  "Dist": 10747,
  "Ġdia": 10748,
  "Ġfigures": 10750,
  "Ġimagine": 10751,
  "Ã©n": 10752,
  "ixen": 10753,
  "Ġnovembre": 10754,
  "ETTER": 10756,
  "ycl": 10757,
  "Ġapproximately": 10759,
  "Ġcars": 10760,
  "Ġreset": 10762,
  "Ġcrear": 10764,
  "Ġcoast": 10765,
  "ĠMex": 10766,
  "Ġstead": 10768,
  "Ġedges": 10769,
  "iveness": 10770,
  "keys": 10773,
  "Local": 10774,
  "Ġguests": 10775,
  "asi": 10776,
  "ĠCLASS": 10777,
  "mount": 10778,
  "tim": 10779,
  "atial": 10782,
  "gate": 10783,
  "Dem": 10784,
  "ipl": 10787,
  "irmed": 10788,
  "Ġstandards": 10789,
  "Ġescape": 10792,
  "mond": 10793,
  "ĠBlue": 10794,
  "Ġsurprise": 10796,
  "Will": 10797,
  "Ġdeveloping": 10798,
  "Ġsigned": 10799,
  "tmp": 10801,
  "quer": 10802,
  "Ãłncia": 10803,
  "legal": 10804,
  "Ãłlia": 10806,
  "Ġintroduce": 10807,
  "iendo": 10808,
  "Change": 10809,
  "uj": 10810,
  "wing": 10811,
  "Ġvertical": 10812,
  "shift": 10813,
  "Ġextent": 10814,
  "Ãºsica": 10815,
  "icons": 10816,
  "ĠFlorida": 10817,
  "Ġauthority": 10818,
  "rant": 10819,
  "Ġtone": 10822,
  "ĠDen": 10824,
  "enter": 10825,
  "Ġjav": 10826,
  "Ġgather": 10827,
  "Ġkinds": 10828,
  "Connection": 10830,
  "ĠVict": 10831,
  "Ġton": 10833,
  "ĠfamÃŃlies": 10834,
  "Ġeventually": 10837,
  "Ġguy": 10838,
  "LS": 10839,
  "Ġdiverses": 10840,
  "erts": 10841,
  "Pel": 10842,
  "ITY": 10843,
  "Ġdins": 10844,
  "Ġmetric": 10845,
  "MC": 10847,
  "Ġemp": 10848,
  "Before": 10849,
  "ĠLos": 10851,
  "FAULT": 10852,
  "Ġclust": 10853,
  "Ġvote": 10854,
  "ĠAmb": 10855,
  "Tag": 10856,
  "estion": 10859,
  "Ġtea": 10860,
  "Ġacab": 10861,
  "het": 10862,
  "Ġreply": 10864,
  "ĠdÃ¨c": 10865,
  "adv": 10867,
  "Ġconcerned": 10868,
  "ĠLady": 10869,
  "Ġcra": 10870,
  "Parameter": 10871,
  "Ġheav": 10872,
  "ĠScott": 10873,
  "ĠSO": 10874,
  "Ġlogic": 10877,
  "Ġinteger": 10878,
  "auto": 10879,
  "avant": 10884,
  "Ġsubsequ": 10885,
  "Work": 10888,
  "Ġfacts": 10889,
  "Ġstrongly": 10890,
  "imp": 10891,
  "angular": 10892,
  "Ġdent": 10893,
  "ORM": 10894,
  "Ġstudied": 10895,
  "ĠJud": 10896,
  "Interface": 10898,
  "Ġsupports": 10899,
  "Ġreplaced": 10900,
  "Ġoptimal": 10901,
  "than": 10902,
  "tect": 10904,
  "enta": 10906,
  "ĠMen": 10908,
  "Ġsuit": 10909,
  "Ġphen": 10911,
  "Ġdrawing": 10912,
  "ĠSar": 10914,
  "Ġagreed": 10915,
  "Ġbiggest": 10919,
  "IME": 10920,
  "Ġsugar": 10921,
  "Ġtut": 10923,
  "been": 10924,
  "Ġos": 10925,
  "Ġstores": 10927,
  "Ġcultural": 10929,
  "vector": 10930,
  "Ġpossibility": 10931,
  "Ġbuying": 10932,
  "Ġcreation": 10933,
  "Ġstructures": 10935,
  "Ġargs": 10936,
  "Ġrestaurant": 10937,
  "Ġhearing": 10938,
  "Ġbare": 10939,
  "agost": 10940,
  "ĠStep": 10941,
  "amd": 10943,
  "Ġdistributed": 10944,
  "Ġuint": 10945,
  "site": 10946,
  "ĠHREF": 10947,
  "blue": 10948,
  "Ġproc": 10949,
  "Ġinstit": 10950,
  "Ġimproved": 10952,
  "iche": 10954,
  "Tree": 10955,
  "osis": 10956,
  "Ġbrings": 10957,
  "resa": 10958,
  "rÃŃ": 10959,
  "Ġsy": 10961,
  "echo": 10963,
  "Ġabandon": 10964,
  "Ġeconomy": 10966,
  "Ġcities": 10967,
  "Ġauthentic": 10968,
  "ĠLETTER": 10969,
  "Ġretain": 10970,
  "ĠYear": 10971,
  "Ãłm": 10972,
  "req": 10973,
  "Ġstorm": 10974,
  "Ġoccurs": 10976,
  "bool": 10977,
  "ERROR": 10978,
  "essions": 10979,
  "brer": 10981,
  "ĠTR": 10982,
  "Ġcoverage": 10983,
  "ĠThursday": 10985,
  "Ġenjoyed": 10986,
  "ĠOp": 10987,
  "Ġkne": 10988,
  "Ġassistance": 10989,
  "ĠClick": 10990,
  "effect": 10991,
  "Ġsizes": 10992,
  "ĠSud": 10993,
  "Ġcharged": 10994,
  "estat": 10995,
  "Other": 10996,
  "Ġdynamic": 10999,
  "Ġhardly": 11001,
  "Ġwhenever": 11002,
  "ĠTuesday": 11003,
  "Ġtrained": 11004,
  "construct": 11005,
  "Ġdespite": 11006,
  "Ġtipus": 11007,
  "anese": 11008,
  "Ġsatisfied": 11009,
  "Ġpra": 11011,
  "Ġlimits": 11012,
  "Ġexpansion": 11013,
  "Ġguerra": 11014,
  "Ġreform": 11015,
  "Ãłct": 11016,
  "Ġexit": 11017,
  "Ġvast": 11018,
  "cular": 11020,
  "ynom": 11021,
  "abril": 11023,
  "Ġwaves": 11025,
  "Ġnormally": 11027,
  "Ġfederal": 11029,
  "iÃ³n": 11030,
  "Ġcontained": 11031,
  "Ġlies": 11032,
  "ĠHTML": 11033,
  "Ġphilos": 11035,
  "Module": 11036,
  "Ġflash": 11038,
  "Ġacknow": 11039,
  "Hi": 11041,
  "iences": 11042,
  "ymmet": 11043,
  "HistÃ²ria": 11044,
  "Option": 11045,
  "Http": 11046,
  "esta": 11047,
  "Ġplate": 11048,
  "Ġreasonable": 11050,
  "ĠBE": 11051,
  "bes": 11052,
  "acs": 11053,
  "Ġcapture": 11054,
  "fica": 11055,
  "Ġdip": 11057,
  "Entry": 11058,
  "Ġprinciple": 11059,
  "Using": 11060,
  "Ġsilver": 11064,
  "ĠMoreover": 11066,
  "ĠAdv": 11068,
  "ulo": 11069,
  "arse": 11070,
  "Ġserial": 11071,
  "Ġtelling": 11073,
  "Ġspeaker": 11075,
  "ĠMult": 11076,
  "Document": 11077,
  "Ãłs": 11079,
  "obl": 11080,
  "ĠAtl": 11081,
  "Vol": 11082,
  "illy": 11083,
  "ĠSand": 11085,
  "CODE": 11087,
  "inciples": 11088,
  "azine": 11090,
  "rior": 11091,
  "Ġdisappe": 11092,
  "ĠHard": 11093,
  "could": 11094,
  "GS": 11096,
  "Ġmountain": 11097,
  "ĠBob": 11098,
  "bot": 11103,
  "Types": 11104,
  "Ġdeix": 11107,
  "Good": 11108,
  "Ġjuliol": 11110,
  "Ġevident": 11111,
  "ression": 11112,
  "ĠCentre": 11113,
  "OME": 11115,
  "ĠShow": 11116,
  "Ġclassic": 11117,
  "ampions": 11118,
  "ĠPoint": 11119,
  "Ã©t": 11120,
  "Ġrepresented": 11121,
  "Red": 11122,
  "Ġindicates": 11123,
  "pay": 11124,
  "Ġheader": 11125,
  "Ġapproaches": 11126,
  "Container": 11127,
  "Ġcompetition": 11128,
  "Ġcontinues": 11129,
  "worth": 11130,
  "hem": 11131,
  "ĠMur": 11132,
  "ĠCongress": 11133,
  "Ġproperes": 11134,
  "Ġdetection": 11135,
  "Ġdesigns": 11139,
  "Ġcream": 11140,
  "aws": 11141,
  "Range": 11142,
  "Ġreligious": 11143,
  "FC": 11144,
  "world": 11145,
  "stop": 11146,
  "Ġbreakfast": 11147,
  "Ġstands": 11148,
  "His": 11149,
  "Ġloan": 11150,
  "Ġoccurred": 11152,
  "password": 11154,
  "ĠUSA": 11156,
  "Sm": 11159,
  "GREE": 11160,
  "None": 11161,
  "equal": 11162,
  "DATE": 11163,
  "tocol": 11164,
  "Json": 11166,
  "ĠWal": 11168,
  "Ġtrigger": 11169,
  "Step": 11170,
  "ĠcomenÃ§ar": 11171,
  "Br": 11173,
  "lik": 11177,
  "Ġconference": 11178,
  "Ġgrid": 11179,
  "rency": 11180,
  "Ġsomewhere": 11181,
  "ĠAmazon": 11183,
  "Ġchoices": 11184,
  "Ġlleng": 11185,
  "Ġsnap": 11186,
  "agram": 11187,
  "ela": 11188,
  "Ġcausa": 11189,
  "Ġshock": 11190,
  "Ġrare": 11191,
  "auth": 11193,
  "Ġobserve": 11194,
  "ĠYet": 11196,
  "Ġwealth": 11198,
  "ĠDirector": 11200,
  "Mark": 11201,
  "ĠPub": 11204,
  "Ġimper": 11205,
  "Ġdecisions": 11206,
  "Ġcere": 11208,
  "Ġdollars": 11209,
  "returns": 11210,
  "Ġestimated": 11212,
  "Ġbeach": 11213,
  "ĠTwitter": 11214,
  "ĠCPU": 11215,
  "Ġjournal": 11216,
  "Ġrevol": 11217,
  "ĠEvent": 11218,
  "amps": 11220,
  "oggle": 11221,
  "Ġteach": 11222,
  "pub": 11225,
  "store": 11226,
  "ĠUnion": 11229,
  "semble": 11230,
  "Ġsab": 11231,
  "estamp": 11232,
  "Mult": 11233,
  "ĠCirc": 11234,
  "Ġyesterday": 11235,
  "Long": 11236,
  "Ġvon": 11237,
  "Ġtou": 11238,
  "POST": 11239,
  "ban": 11240,
  "Ġpurs": 11242,
  "textrm": 11244,
  "Ãłnia": 11246,
  "Ġdrug": 11247,
  "called": 11248,
  "asket": 11249,
  "classes": 11253,
  "screen": 11254,
  "Ġskill": 11255,
  "istrict": 11256,
  "blem": 11257,
  "Ġofficer": 11258,
  "bled": 11259,
  "Ġbelief": 11260,
  "Ġcapable": 11261,
  "ibles": 11262,
  "Ġmm": 11263,
  "bered": 11264,
  "ools": 11265,
  "Ġposterior": 11266,
  "Pe": 11267,
  "Ġatmosp": 11268,
  "Ġpolar": 11269,
  "eping": 11270,
  "Ġlinux": 11271,
  "Ġgreatly": 11272,
  "Ġsport": 11273,
  "Ġexperts": 11274,
  "Ġoscill": 11276,
  "Ġbelie": 11277,
  "ĠGuerra": 11279,
  "underline": 11280,
  "Ġmenys": 11282,
  "Ġeating": 11284,
  "nombre": 11285,
  "amber": 11287,
  "ÃŃncia": 11288,
  "Ġholiday": 11289,
  "Ġsigns": 11290,
  "Sl": 11291,
  "ighter": 11293,
  "ĠWHERE": 11294,
  "Ġfunds": 11296,
  "Ġtrem": 11297,
  "ĠVirgin": 11299,
  "ellar": 11301,
  "Ġpositions": 11302,
  "ounded": 11305,
  "BE": 11306,
  "transform": 11307,
  "great": 11308,
  "ĠSD": 11309,
  "osta": 11310,
  "Configuration": 11312,
  "GREEK": 11313,
  "Offset": 11315,
  "Ġbin": 11316,
  "HO": 11317,
  "Ġaconsegu": 11318,
  "ĠTake": 11319,
  "Ġpeak": 11320,
  "Ġinstrument": 11321,
  "Ġprepare": 11322,
  "mann": 11323,
  "ĠDig": 11324,
  "iden": 11326,
  "Ġpermet": 11327,
  "ĠEr": 11328,
  "ĠWednesday": 11329,
  "pressed": 11330,
  "iece": 11331,
  "enth": 11332,
  "Ġeigen": 11334,
  "Ġtrick": 11335,
  "Ġworst": 11336,
  "Que": 11337,
  "Ã¨ne": 11338,
  "Ġot": 11339,
  "VID": 11340,
  "ĠDemocr": 11341,
  "Ġju": 11342,
  "ĠSMALL": 11343,
  "Ġprovider": 11344,
  "isely": 11345,
  "ĠPage": 11347,
  "Ġcontribution": 11348,
  "wa": 11349,
  "Ġthorough": 11350,
  "Ġnine": 11352,
  "Fut": 11353,
  "oz": 11354,
  "proto": 11356,
  "Ġnecessarily": 11357,
  "tool": 11358,
  "Va": 11359,
  "Ġdiscount": 11360,
  "Ġofficers": 11361,
  "ĠPerson": 11362,
  "Ġdialog": 11363,
  "python": 11364,
  "ĠperquÃ¨": 11365,
  "erred": 11366,
  "ĠCanad": 11367,
  "romise": 11368,
  "Ġprofessionals": 11369,
  "Med": 11370,
  "ACE": 11371,
  "none": 11373,
  "Make": 11374,
  "Ġwest": 11375,
  "aquesta": 11376,
  "ĠManager": 11377,
  "aml": 11379,
  "ĠCommit": 11380,
  "ĠLast": 11381,
  "GET": 11383,
  "ĠGermany": 11384,
  "Ġremind": 11385,
  "Ġorganizations": 11386,
  "tons": 11387,
  "Ġtrace": 11389,
  "ĠquÃ¨": 11390,
  "ativa": 11391,
  "Ġfourth": 11392,
  "ician": 11393,
  "ometric": 11394,
  "ĠFire": 11395,
  "ĠGar": 11397,
  "Ġjuny": 11400,
  "ĠSeries": 11401,
  "Ġcomplic": 11402,
  "ĠControl": 11403,
  "ĠEducation": 11404,
  "Ġlayout": 11405,
  "erman": 11407,
  "Ġtrou": 11408,
  "ĠHistory": 11409,
  "ĠCaptain": 11412,
  "Ġgrass": 11415,
  "archive": 11416,
  "ĠFull": 11417,
  "ĠSecond": 11419,
  "Ġdoors": 11420,
  "ĠcatalÃł": 11422,
  "eli": 11423,
  "ĠDuring": 11427,
  "Ġcommunities": 11428,
  "jpg": 11430,
  "iser": 11431,
  "send": 11432,
  "rimoni": 11433,
  "Ġblank": 11434,
  "Ġreb": 11435,
  "Ġplays": 11436,
  "Ġretail": 11437,
  "arest": 11438,
  "Ġsoci": 11439,
  "Sw": 11440,
  "Ġparticles": 11442,
  "enes": 11443,
  "oking": 11444,
  "MENT": 11445,
  "help": 11446,
  "onder": 11447,
  "geu": 11449,
  "ĠFind": 11451,
  "LP": 11452,
  "Stat": 11453,
  "Ġshopping": 11456,
  "Ġfebrer": 11457,
  "arer": 11458,
  "antly": 11459,
  "ĠTour": 11461,
  "Have": 11462,
  "Project": 11463,
  "Ġdifficulty": 11464,
  "rw": 11465,
  "ĠsÃ¨rie": 11466,
  "Ġmatching": 11467,
  "idential": 11468,
  "Ġtested": 11469,
  "metres": 11470,
  "itionally": 11471,
  "Ġclothes": 11472,
  "subseteq": 11473,
  "ĠSoftware": 11474,
  "wall": 11476,
  "Ġexecution": 11477,
  "texttt": 11478,
  "activ": 11479,
  "Ġsharp": 11480,
  "Entity": 11481,
  "Ġmeasurements": 11482,
  "ĠDB": 11483,
  "artifact": 11484,
  "hard": 11485,
  "cloud": 11486,
  "Ġreput": 11487,
  "Ġcalculate": 11489,
  "Ġenhance": 11491,
  "aret": 11494,
  "Ġflight": 11495,
  "Ġconvenient": 11497,
  "Ġchemical": 11498,
  "qÃ¼": 11499,
  "task": 11500,
  "Ġgap": 11501,
  "Su": 11502,
  "ĠWall": 11503,
  "Ġguest": 11504,
  "anish": 11506,
  "away": 11507,
  "Ġcm": 11508,
  "Ġig": 11509,
  "Ġhall": 11510,
  "CHAPTER": 11511,
  "deg": 11512,
  "Âłkm": 11513,
  "eto": 11514,
  "coin": 11515,
  "Ġclosely": 11516,
  "Illustr": 11517,
  "Ġtrib": 11519,
  "Ġlights": 11520,
  "Build": 11521,
  "UID": 11522,
  "Ġutilitz": 11523,
  "rivial": 11524,
  "ested": 11526,
  "Ġdisabled": 11527,
  "Ġinterval": 11528,
  "Morts": 11529,
  "Ġsustain": 11531,
  "Core": 11532,
  "iem": 11533,
  "ĠLim": 11534,
  "Ġbelieved": 11538,
  "searc": 11539,
  "erring": 11540,
  "Ġmilk": 11541,
  "Ġreward": 11542,
  "Ġexplanation": 11543,
  "Ġdriven": 11544,
  "cript": 11545,
  "Ġmaintenance": 11546,
  "oked": 11547,
  "settings": 11548,
  "Sign": 11549,
  "Ġwarning": 11550,
  "API": 11552,
  "Ġkeeps": 11553,
  "ĠHor": 11555,
  "Ġaccommod": 11557,
  "ĠSign": 11561,
  "Ġease": 11562,
  "FL": 11563,
  "dm": 11564,
  "Ġgrant": 11565,
  "modules": 11566,
  "Ġgrat": 11567,
  "Ġmassive": 11568,
  "ĠMS": 11569,
  "ĠReturns": 11570,
  "live": 11571,
  "Ġsorry": 11572,
  "empreses": 11573,
  "Ġhorses": 11574,
  "ĠInstall": 11575,
  "Ġmodified": 11576,
  "ĠHamilton": 11577,
  "patch": 11578,
  "Ġfocused": 11579,
  "unting": 11580,
  "Ġsignals": 11581,
  "join": 11582,
  "Many": 11587,
  "arl": 11589,
  "Ġbroke": 11590,
  "Ġinvent": 11592,
  "ĠSche": 11593,
  "ĠBon": 11594,
  "curs": 11595,
  "ĠDie": 11597,
  "Ġdepartment": 11598,
  "ĠJSON": 11599,
  "illing": 11600,
  "Ġdogs": 11601,
  "ĠPS": 11602,
  "every": 11603,
  "Ã²nia": 11605,
  "Ġdetermin": 11606,
  "Ġtengo": 11608,
  "Ġinterests": 11609,
  "Ġsail": 11610,
  "Ġarchitecture": 11612,
  "hom": 11614,
  "Ġrealize": 11616,
  "Ġminimal": 11618,
  "inking": 11619,
  "Ġindustrial": 11620,
  "Ġvaluable": 11621,
  "neg": 11624,
  "models": 11625,
  "Host": 11626,
  "Ġcontents": 11627,
  "Who": 11628,
  "Ã¨rc": 11631,
  "Ġresid": 11633,
  "ĠGi": 11634,
  "ĉfor": 11635,
  "uta": 11636,
  "Ġbutter": 11637,
  "Ġneighborhood": 11638,
  "Ġconstraints": 11639,
  "Ġsuggests": 11642,
  "token": 11644,
  "roduction": 11645,
  "Ġrig": 11647,
  "ĠHi": 11648,
  "plugin": 11649,
  "ĠAccess": 11650,
  "export": 11651,
  "Ġdispl": 11652,
  "iate": 11653,
  "oral": 11654,
  "Ġevil": 11655,
  "ĠFamily": 11656,
  "GO": 11657,
  "PN": 11658,
  "acon": 11659,
  "ĠCorporation": 11660,
  "Font": 11661,
  "Ġpoble": 11663,
  "Ġassumed": 11666,
  "ibilities": 11668,
  "Ġhook": 11670,
  "onel": 11673,
  "Height": 11674,
  "ĠSaint": 11676,
  "ĠMethod": 11677,
  "verb": 11679,
  "ĠCommission": 11680,
  "Ġraw": 11681,
  "Ġexecute": 11682,
  "aux": 11683,
  "docs": 11684,
  "Ġconvent": 11685,
  "Ġnaturally": 11686,
  "Ġimprovement": 11687,
  "DP": 11690,
  "Ġdades": 11691,
  "elles": 11692,
  "istan": 11693,
  "Ġrecipe": 11694,
  "total": 11695,
  "ĠMartin": 11696,
  "Ġdiet": 11697,
  "agu": 11699,
  "weet": 11700,
  "footnote": 11701,
  "ĠDat": 11703,
  "BR": 11704,
  "Ġalbum": 11705,
  "ucion": 11706,
  "Ġtaught": 11708,
  "Ġcommitted": 11710,
  "ensed": 11711,
  "ĠEarth": 11712,
  "Ġsongs": 11713,
  "Cap": 11715,
  "Ġfemale": 11716,
  "ĠWhich": 11717,
  "Most": 11719,
  "Ġsheet": 11721,
  "Ġdimensions": 11723,
  "Ġrecover": 11726,
  "ĠTeam": 11727,
  "TA": 11728,
  "Ġheaven": 11729,
  "Ġhung": 11730,
  "Ġinstances": 11731,
  "Ġlicense": 11732,
  "Ġgro": 11734,
  "Ġarrest": 11736,
  "Ġwheel": 11737,
  "ĠChicago": 11738,
  "ĠField": 11739,
  "quet": 11742,
  "Theta": 11743,
  "Ġpleased": 11744,
  "Ġfacilities": 11745,
  "ployment": 11746,
  "Only": 11748,
  "entity": 11749,
  "Ġreaders": 11751,
  "ĠAnother": 11752,
  "idget": 11754,
  "lg": 11755,
  "ĠCreat": 11756,
  "Device": 11757,
  "Ġmanifest": 11759,
  "Ġsimulation": 11760,
  "ĠSecret": 11761,
  "Ġreferred": 11763,
  "Application": 11764,
  "Ġinterf": 11766,
  "plan": 11767,
  "orro": 11768,
  "icked": 11769,
  "Ġmeasurement": 11770,
  "Ġcompute": 11771,
  "emper": 11772,
  "Ġacts": 11773,
  "igua": 11774,
  "Ġhtml": 11775,
  "Ġbg": 11777,
  "Ġaxis": 11778,
  "Ġeffectively": 11779,
  "Ġdebt": 11780,
  "Position": 11781,
  "Ġvolunte": 11782,
  "ĠCat": 11783,
  "ĠNov": 11784,
  "PRE": 11787,
  "Ġcloser": 11788,
  "ĠSELECT": 11789,
  "Ġextend": 11790,
  "Ġell": 11791,
  "copy": 11792,
  "Ġlit": 11793,
  "Ġdepos": 11796,
  "ango": 11797,
  "Ġtheorem": 11798,
  "Ġpoc": 11799,
  "Thus": 11800,
  "linewidth": 11801,
  "Ġhash": 11802,
  "setminus": 11803,
  "clip": 11804,
  "ĠInit": 11805,
  "Ġrelationships": 11806,
  "Ġfeels": 11807,
  "Ġcuando": 11810,
  "ĠGR": 11811,
  "Settings": 11812,
  "fold": 11813,
  "Ġpolicies": 11814,
  "Ġxml": 11815,
  "Menu": 11816,
  "Ġregistered": 11817,
  "Ġbold": 11819,
  "Ġbanda": 11820,
  "ERS": 11821,
  "Tra": 11822,
  "ĠPay": 11823,
  "Ġgrown": 11824,
  "Ġcrowd": 11825,
  "Ġdelivered": 11828,
  "GIS": 11829,
  "Ġtrop": 11830,
  "ĠFund": 11832,
  "Ġstatist": 11833,
  "Ġmole": 11834,
  "Num": 11835,
  "aligned": 11836,
  "AY": 11837,
  "anguages": 11838,
  "Ġacceler": 11839,
  "iral": 11840,
  "Ġpatterns": 11841,
  "Ġcleaning": 11842,
  "okes": 11843,
  "Ġconcerns": 11844,
  "asts": 11845,
  "ĠFit": 11846,
  "ĠDist": 11848,
  "icians": 11850,
  "Header": 11851,
  "resol": 11852,
  "ĠDevelopment": 11853,
  "gage": 11854,
  "Ġstrategies": 11855,
  "Ant": 11856,
  "bits": 11857,
  "Ġabund": 11858,
  "mal": 11859,
  "ĠiP": 11860,
  "shall": 11862,
  "Ġnomen": 11863,
  "Utils": 11864,
  "ĠTABLE": 11866,
  "Ġalguns": 11867,
  "Serial": 11868,
  "again": 11869,
  "Ġterror": 11870,
  "Ġradius": 11871,
  "orithms": 11875,
  "BN": 11876,
  "Custom": 11878,
  "Ġpreced": 11879,
  "isa": 11880,
  "Ġpleasant": 11881,
  "Ġloaded": 11882,
  "Ġvehicles": 11884,
  "oston": 11885,
  "ĠFred": 11886,
  "ishment": 11887,
  "pu": 11889,
  "widget": 11890,
  "Lo": 11891,
  "Ġdangerous": 11892,
  "Ġaspects": 11893,
  "Ġestava": 11894,
  "Ġentries": 11895,
  "Ġreboot": 11896,
  "ĠJournal": 11898,
  "Ġparticle": 11900,
  "Ġgrace": 11902,
  "Ġfilename": 11903,
  "Ġwireless": 11905,
  "Ã¨m": 11906,
  "nome": 11907,
  "Ġdecay": 11908,
  "Ġassumption": 11909,
  "Has": 11910,
  "Ġclassical": 11911,
  "ushing": 11912,
  "Art": 11913,
  "PH": 11914,
  "Ġesto": 11915,
  "OUT": 11916,
  "NOT": 11917,
  "Ġspending": 11918,
  "ĠAcadem": 11919,
  "Ġteachers": 11921,
  "Empty": 11922,
  "PM": 11923,
  "clock": 11924,
  "admin": 11925,
  "theless": 11926,
  "Ġchannels": 11927,
  "gent": 11928,
  "roke": 11930,
  "Ġrender": 11932,
  "Ġbench": 11933,
  "Ġvisitors": 11936,
  "definition": 11937,
  "Unit": 11938,
  "Callback": 11939,
  "amos": 11940,
  "Ġwarn": 11941,
  "Ġshr": 11942,
  "riting": 11943,
  "uler": 11944,
  "Ġstruck": 11945,
  "Ġblind": 11946,
  "aver": 11947,
  "Ġimped": 11948,
  "stylesheet": 11950,
  "ĠMedia": 11952,
  "Ġrenda": 11953,
  "Ġresolve": 11954,
  "ugment": 11955,
  "delete": 11959,
  "Ġapro": 11960,
  "comes": 11961,
  "loop": 11963,
  "Store": 11964,
  "erenc": 11965,
  "irection": 11966,
  "ĠCop": 11967,
  "Av": 11968,
  "Ġrestore": 11971,
  "short": 11972,
  "Ġpropag": 11973,
  "Ġarrang": 11974,
  "internal": 11975,
  "ropy": 11976,
  "Ġawesome": 11977,
  "Ġsending": 11978,
  "Ġcareful": 11980,
  "Ġjudg": 11981,
  "ICE": 11982,
  "Ġquantity": 11983,
  "Ġchip": 11984,
  "Ġreduction": 11985,
  "Ġpractices": 11986,
  "ĠNumber": 11988,
  "Pref": 11989,
  "ĠCamb": 11991,
  "ĠBern": 11992,
  "INS": 11993,
  "multi": 11994,
  "Ġpermission": 11995,
  "Ġlists": 11996,
  "ĠPrice": 11997,
  "ĠnÃºmer": 11998,
  "Ġbringing": 11999,
  "Ġupload": 12000,
  "oest": 12001,
  "ĠSaf": 12002,
  "lie": 12003,
  "Ġpointed": 12005,
  "Ġwondering": 12006,
  "WS": 12007,
  "ificar": 12008,
  "plements": 12009,
  "Ġinjury": 12010,
  "Ġgoods": 12011,
  "Ġbigger": 12012,
  "ĠInstead": 12013,
  "Ġmodes": 12016,
  "Ġcomprehens": 12017,
  "Ġheads": 12018,
  "Illustration": 12019,
  "ĠMas": 12020,
  "cases": 12021,
  "Ġtechnique": 12022,
  "ĠhistÃ²ria": 12024,
  "Ġdestination": 12025,
  "ĠLINE": 12027,
  "fire": 12028,
  "Ġfo": 12029,
  "Ġjson": 12030,
  "ĠNext": 12031,
  "Ġagents": 12038,
  "vironment": 12039,
  "John": 12040,
  "Ġbrill": 12041,
  "Ġpairs": 12042,
  "ih": 12044,
  "ilst": 12045,
  "Ġundefined": 12046,
  "PORT": 12047,
  "tar": 12048,
  "lista": 12049,
  "Ġmatches": 12050,
  "Ġdynamics": 12051,
  "een": 12052,
  "ĠQueen": 12053,
  "Ġoverride": 12054,
  "resource": 12055,
  "ophy": 12056,
  "zero": 12057,
  "Ġsubset": 12059,
  "agers": 12060,
  "Ġappreciate": 12061,
  "Ġtheore": 12062,
  "Ġreceiving": 12065,
  "Mac": 12066,
  "pid": 12067,
  "Ġcasa": 12068,
  "ĠRoyal": 12069,
  "ket": 12071,
  "mag": 12072,
  "Ġsituat": 12073,
  "Ġfraction": 12074,
  "Ġsubstant": 12075,
  "ĠXX": 12076,
  "ocker": 12077,
  "Ġvertex": 12078,
  "insert": 12079,
  "Ġsurprised": 12081,
  "stable": 12082,
  "Reference": 12083,
  "umps": 12084,
  "Ġpowers": 12085,
  "Ġachieved": 12086,
  "ÃŃstiques": 12087,
  "Ġhappening": 12088,
  "webkit": 12089,
  "Ġcharges": 12090,
  "sos": 12091,
  "Ġejemplo": 12092,
  "ĠPRO": 12093,
  "focus": 12094,
  "lov": 12095,
  "Ġgeneric": 12096,
  "ĠLine": 12097,
  "Ġphenomen": 12100,
  "atrix": 12103,
  "lers": 12104,
  "Ġlips": 12106,
  "Ġsensor": 12107,
  "Ġjustice": 12108,
  "hemat": 12109,
  "Ġsed": 12110,
  "ipp": 12111,
  "Ġgauge": 12112,
  "Ã²p": 12113,
  "Ġcrim": 12114,
  "ĠProcess": 12116,
  "Ġcandidate": 12117,
  "Amer": 12118,
  "ĠCab": 12119,
  "ski": 12120,
  "Ġgrans": 12121,
  "Ġpolynom": 12122,
  "ĠdÃ¨cada": 12123,
  "Ġsearching": 12125,
  "ĠVen": 12126,
  "controller": 12128,
  "Ġnarr": 12129,
  "Ġthreshold": 12131,
  "Sum": 12133,
  "Ġdona": 12134,
  "Ġris": 12135,
  "Ġmachines": 12136,
  "berry": 12137,
  "Ġrecognized": 12138,
  "Ġconstantly": 12139,
  "bootstrap": 12140,
  "Ġurb": 12141,
  "Ġsurg": 12142,
  "Ġsilence": 12143,
  "Ġlinked": 12144,
  "Ġdance": 12145,
  "ĠCath": 12146,
  "Ġarribar": 12147,
  "Finally": 12148,
  "Ġvul": 12149,
  "charge": 12150,
  "Ġselling": 12151,
  "Ġsys": 12156,
  "Ġwhereas": 12157,
  "ĠThose": 12158,
  "Cle": 12160,
  "Ġmeal": 12161,
  "ĠGall": 12164,
  "elle": 12165,
  "ĠReport": 12166,
  "ĠPac": 12167,
  "points": 12168,
  "Ġpartial": 12169,
  "Ġnoun": 12170,
  "Ġprofessor": 12171,
  "Ġhang": 12172,
  "Ġdocumentation": 12175,
  "Ġusar": 12176,
  "Ġsuperv": 12178,
  "EC": 12179,
  "ĠValue": 12180,
  "area": 12181,
  "Ġcritic": 12182,
  "Ġaside": 12183,
  "erer": 12184,
  "ĠMir": 12185,
  "NT": 12189,
  "Ġbegins": 12190,
  "uropa": 12191,
  "Ġformation": 12192,
  "ĠComput": 12193,
  "cale": 12194,
  "ĠCore": 12195,
  "Section": 12196,
  "Ġpp": 12197,
  "artifactId": 12198,
  "arca": 12199,
  "ĠDesprÃ©s": 12200,
  "Ġplastic": 12201,
  "ĠSecurity": 12202,
  "Ġresearc": 12203,
  "ĠfunciÃ³n": 12205,
  "ĠSy": 12206,
  "Ġstrip": 12207,
  "Ġcastell": 12208,
  "Ġcoach": 12209,
  "ĠSupport": 12210,
  "Comple": 12211,
  "Ġscenario": 12213,
  "border": 12214,
  "Ġresidents": 12216,
  "Ġfool": 12217,
  "itan": 12218,
  "Ġkid": 12219,
  "According": 12222,
  "ĠCur": 12223,
  "oker": 12224,
  "dated": 12225,
  "Two": 12226,
  "lan": 12227,
  "ilib": 12229,
  "ulture": 12230,
  "git": 12232,
  "ĠFOR": 12234,
  "hash": 12236,
  "Ġestabl": 12237,
  "west": 12238,
  "without": 12239,
  "Ġgram": 12240,
  "nergy": 12241,
  "Ġjudge": 12244,
  "ĠFestival": 12245,
  "Ġcot": 12248,
  "usher": 12249,
  "Ġordinary": 12250,
  "Ġmanually": 12251,
  "ĠFinally": 12252,
  "dx": 12253,
  "formance": 12254,
  "ronic": 12255,
  "ocolate": 12256,
  "ĠDevice": 12257,
  "Ġcategories": 12258,
  "Ġattributes": 12261,
  "ĠGame": 12263,
  "ĠMuseum": 12265,
  "Ġliked": 12266,
  "QU": 12267,
  "erty": 12269,
  "ĠVAL": 12270,
  "Ġinstruction": 12271,
  "Ġhay": 12273,
  "Esp": 12274,
  "ĠJun": 12275,
  "uten": 12277,
  "Ġupgrad": 12278,
  "hora": 12279,
  "ĠEll": 12280,
  "ĠTre": 12283,
  "Ġriu": 12284,
  "Ġadmin": 12285,
  "Ġreliable": 12286,
  "ographic": 12287,
  "Figure": 12288,
  "imately": 12289,
  "Ġinterrupt": 12291,
  "Ġfunc": 12293,
  "Ġexperimental": 12294,
  "RR": 12295,
  "ĠBud": 12296,
  "Main": 12297,
  "Ġstuck": 12298,
  "Ġbounded": 12299,
  "Ġfootball": 12300,
  "Ġsatisfy": 12301,
  "Ġcosa": 12302,
  "ĠArts": 12305,
  "ĠMot": 12306,
  "Ġfra": 12307,
  "stal": 12310,
  "Err": 12311,
  "ĠScot": 12312,
  "Ġparse": 12313,
  "Ġdisplayed": 12315,
  "ĠWi": 12317,
  "ĠBase": 12318,
  "ÃŃtic": 12319,
  "cohol": 12320,
  "ĠSpanish": 12322,
  "cb": 12324,
  "Deb": 12325,
  "Ġmask": 12326,
  "Loc": 12329,
  "Ġprivile": 12331,
  "Left": 12332,
  "ĠDownload": 12333,
  "Ġconsideration": 12334,
  "component": 12335,
  "Foot": 12338,
  "subfigure": 12339,
  "Ġprotocol": 12340,
  "dem": 12341,
  "Ġmeat": 12342,
  "replace": 12343,
  "Ġmand": 12345,
  "Ġcompatible": 12348,
  "Ġsacr": 12349,
  "ysical": 12350,
  "Non": 12353,
  "thread": 12355,
  "late": 12356,
  "Ġmainly": 12357,
  "ĠBefore": 12358,
  "ĠpaÃŃs": 12359,
  "dagger": 12360,
  "Ġemployed": 12362,
  "Ġclause": 12363,
  "Ġgre": 12364,
  "ĠMaybe": 12365,
  "Ġanyway": 12366,
  "Ġsole": 12367,
  "uality": 12368,
  "quitect": 12371,
  "Ġexciting": 12372,
  "Ġresponsibility": 12374,
  "ĠSpecial": 12375,
  "green": 12377,
  "being": 12378,
  "Ġmechanism": 12379,
  "Ġvib": 12380,
  "ONE": 12381,
  "ĠCommunity": 12382,
  "Ġaplic": 12383,
  "Ġsecondary": 12386,
  "Ġdish": 12387,
  "ECT": 12388,
  "agen": 12389,
  "UD": 12390,
  "Ġswim": 12391,
  "enda": 12393,
  "Ġhaver": 12395,
  "utch": 12396,
  "Ġapproximation": 12397,
  "Ġast": 12398,
  "Ġsenior": 12400,
  "Ġconfigur": 12401,
  "ĠPhot": 12402,
  "Ġoh": 12403,
  "ĠMath": 12404,
  "parameter": 12407,
  "ĠCommittee": 12409,
  "account": 12410,
  "Ġpicked": 12412,
  "Ġhurt": 12414,
  "Ġimmediate": 12415,
  "Ġapplying": 12418,
  "ĠAlg": 12420,
  "RC": 12421,
  "Ġperspective": 12422,
  "Ġapparently": 12423,
  "Ġbuildings": 12424,
  "Ġbtn": 12426,
  "ĠPDF": 12427,
  "rium": 12428,
  "eling": 12429,
  "msg": 12430,
  "Ġcitizens": 12431,
  "ĠVersion": 12432,
  "disc": 12434,
  "family": 12436,
  "Ġdrew": 12437,
  "Ġfunctional": 12438,
  "OU": 12439,
  "Show": 12441,
  "Ġguarantee": 12442,
  "Ġrequests": 12443,
  "ĠTrump": 12445,
  "Ġpsych": 12446,
  "elly": 12447,
  "HTML": 12448,
  "Order": 12450,
  "Ġhide": 12452,
  "foo": 12453,
  "ĠtÃŃtol": 12454,
  "Ġreligion": 12456,
  "ali": 12457,
  "Ġplanet": 12458,
  "Ġcommonly": 12459,
  "riu": 12460,
  "Properties": 12461,
  "groupId": 12462,
  "erning": 12463,
  "Ġsentences": 12464,
  "ĠOK": 12465,
  "uv": 12466,
  "oplus": 12467,
  "ĠZe": 12468,
  "global": 12469,
  "Ġeast": 12470,
  "ĠconstrucciÃ³": 12471,
  "secut": 12472,
  "ĠAix": 12474,
  "Ġparticipants": 12476,
  "Ġbyte": 12477,
  "Ġalert": 12478,
  "Ġextreme": 12479,
  "ĠNacional": 12480,
  "know": 12482,
  "rog": 12483,
  "Ġfeelings": 12484,
  "Ġchat": 12485,
  "Ġteeth": 12486,
  "Ġtub": 12488,
  "Ġtemp": 12490,
  "Ġfaces": 12492,
  "Ġpup": 12493,
  "Ġwrap": 12494,
  "Ġinfr": 12495,
  "ĠFre": 12496,
  "avel": 12497,
  "wait": 12498,
  "ĠHaw": 12499,
  "Ġmoral": 12500,
  "tics": 12501,
  "Ġpag": 12502,
  "Ġfantastic": 12505,
  "dia": 12506,
  "Ġdeclared": 12507,
  "Ġplugin": 12508,
  "Ġseeking": 12509,
  "ipping": 12510,
  "ctx": 12511,
  "Ġdisable": 12512,
  "ĠWay": 12513,
  "dk": 12514,
  "Ġmarkets": 12515,
  "zed": 12516,
  "Ġcro": 12517,
  "angers": 12519,
  "Ġmuse": 12521,
  "Ġprincipals": 12522,
  "Ġtransformation": 12523,
  "usted": 12524,
  "herent": 12525,
  "Ġsections": 12526,
  "limits": 12527,
  "Ġcollected": 12528,
  "ĠprovÃŃncia": 12530,
  "creen": 12532,
  "ructure": 12534,
  "labor": 12535,
  "Ġvo": 12536,
  "erals": 12537,
  "large": 12539,
  "etic": 12540,
  "ĠLin": 12541,
  "Ġdeck": 12542,
  "ĠRome": 12543,
  "attice": 12545,
  "results": 12547,
  "Ġscientific": 12548,
  "uir": 12549,
  "ĠHead": 12550,
  "children": 12552,
  "network": 12553,
  "Ġpresents": 12554,
  "Ġsympt": 12555,
  "interest": 12559,
  "pur": 12563,
  "Ġdonar": 12565,
  "Session": 12566,
  "Ġequally": 12567,
  "ĠXV": 12568,
  "Ġedition": 12570,
  "ingers": 12571,
  "Ġzona": 12572,
  "each": 12573,
  "ĠPrim": 12574,
  "oment": 12575,
  "ĠWITH": 12576,
  "Ġhundreds": 12577,
  "Windows": 12578,
  "oga": 12579,
  "valu": 12581,
  "Ġmomentum": 12582,
  "Ġsituations": 12584,
  "Install": 12585,
  "ĠWhether": 12587,
  "inity": 12588,
  "yntax": 12589,
  "Ġinspired": 12590,
  "cn": 12591,
  "ĠRod": 12592,
  "attering": 12595,
  "render": 12596,
  "Hash": 12597,
  "cas": 12598,
  "enger": 12599,
  "ĠNever": 12600,
  "Ġnoble": 12601,
  "Ġcompr": 12602,
  "Ġcasino": 12603,
  "Ġprotest": 12604,
  "Ġcapacitor": 12605,
  "Ġfib": 12606,
  "Ġcov": 12608,
  "sit": 12610,
  "grat": 12612,
  "Ev": 12613,
  "aved": 12614,
  "toString": 12617,
  "idenc": 12618,
  "Ġcoinc": 12619,
  "Ġtabla": 12620,
  "ĠValley": 12622,
  "bus": 12623,
  "ifici": 12624,
  "prov": 12625,
  "arrant": 12627,
  "yan": 12628,
  "Ġmere": 12630,
  "acket": 12631,
  "Ġclimate": 12632,
  "ĠMinister": 12633,
  "profile": 12634,
  "ĠSocorro": 12635,
  "Params": 12636,
  "igan": 12637,
  "bug": 12639,
  "ĠLive": 12640,
  "Ġneces": 12641,
  "Ġmale": 12642,
  "Ġpit": 12644,
  "handle": 12646,
  "irs": 12647,
  "Ġwebsites": 12648,
  "ois": 12652,
  "Ġevaluation": 12653,
  "Ġrealized": 12654,
  "ĠLINEAR": 12655,
  "Ġtiny": 12656,
  "Ġobres": 12657,
  "NG": 12658,
  "ĠFrancisco": 12659,
  "ĠGB": 12660,
  "Ġfacility": 12663,
  "Ġdisappoint": 12665,
  "ĠFather": 12666,
  "Ġmodules": 12667,
  "Ġhumans": 12668,
  "aussian": 12669,
  "Ġdre": 12670,
  "Ġcompens": 12671,
  "ĠcÃłr": 12673,
  "Ã¨rcit": 12674,
  "tools": 12675,
  "Second": 12676,
  "Ġunion": 12677,
  "ervation": 12678,
  "Ġobservation": 12680,
  "Ġserving": 12681,
  "Ġmunt": 12682,
  "ester": 12683,
  "Ġcreates": 12685,
  "poca": 12686,
  "disabled": 12687,
  "Sk": 12689,
  "Ġengaged": 12690,
  "Expression": 12691,
  "Kind": 12692,
  "HS": 12693,
  "ĠJean": 12694,
  "Ġintegral": 12695,
  "DIR": 12696,
  "Ġwinning": 12697,
  "Ġconsiderable": 12698,
  "zing": 12699,
  "Ġbuck": 12700,
  "Press": 12701,
  "Ġartists": 12702,
  "Ġbos": 12703,
  "tip": 12704,
  "println": 12705,
  "hover": 12706,
  "tion": 12707,
  "orne": 12708,
  "ĠMarc": 12709,
  "rea": 12710,
  "udi": 12712,
  "Ġzone": 12713,
  "necess": 12715,
  "ĠLee": 12716,
  "Ġcoupling": 12717,
  "ĠDisc": 12718,
  "Ġseed": 12720,
  "Ġfuel": 12722,
  "ĠJapan": 12723,
  "Ġrising": 12728,
  "tera": 12729,
  "Ġsupplies": 12731,
  "Ġcalm": 12732,
  "lar": 12733,
  "Ġreprodu": 12734,
  "Ġcinc": 12735,
  "ĠTimes": 12736,
  "Ġconscious": 12737,
  "Ġcourses": 12738,
  "ĠTown": 12741,
  "ĠUnit": 12742,
  "uri": 12743,
  "peri": 12744,
  "Ġdining": 12745,
  "Ġutter": 12746,
  "Ġpaying": 12747,
  "Ġjump": 12748,
  "Ġinputs": 12749,
  "Ġagency": 12750,
  "Ġsegle": 12751,
  "quis": 12752,
  "heart": 12754,
  "Ġloud": 12755,
  "Title": 12756,
  "Ġyours": 12757,
  "orders": 12758,
  "Ġlunch": 12759,
  "agment": 12761,
  "ĠWestern": 12762,
  "ishop": 12763,
  "Ġlistening": 12764,
  "Ġimplemented": 12766,
  "stein": 12767,
  "icular": 12771,
  "Ġpreferred": 12772,
  "Ã²b": 12773,
  "ancer": 12774,
  "Ġbehaviour": 12775,
  "Ġtan": 12778,
  "olÃ²g": 12779,
  "Ġqueries": 12780,
  "spring": 12781,
  "application": 12783,
  "Ġsymmetry": 12784,
  "ĠSon": 12787,
  "ĠmÃºsica": 12789,
  "Ġingredients": 12790,
  "Si": 12791,
  "ao": 12792,
  "upon": 12793,
  "Ġfundamental": 12795,
  "Ġarchivo": 12796,
  "Ġfails": 12797,
  "Ġavail": 12798,
  "Ġincident": 12799,
  "Ġreject": 12800,
  "Ġdens": 12801,
  "Ġafterwards": 12803,
  "Ġcovers": 12804,
  "Ġprinciples": 12805,
  "Ġhate": 12806,
  "Ġconclusion": 12807,
  "ĠRun": 12808,
  "Ġcorresponds": 12810,
  "Ġparams": 12812,
  "Ġmoon": 12813,
  "Ġtenen": 12814,
  "Ġcolle": 12815,
  "Does": 12817,
  "ĠBit": 12820,
  "ĠDid": 12821,
  "ĠEp": 12822,
  "Ġbirds": 12823,
  "Ġrecorded": 12824,
  "ĠBeach": 12825,
  "Ġbodies": 12826,
  "panel": 12827,
  "inv": 12828,
  "ĠJoseph": 12829,
  "fall": 12830,
  "Collection": 12831,
  "Ġtast": 12832,
  "ĠDO": 12833,
  "gypt": 12834,
  "Download": 12835,
  "Ġconve": 12838,
  "ceive": 12839,
  "zo": 12840,
  "Ġestimates": 12841,
  "ĠFood": 12842,
  "Ġassigned": 12843,
  "Ġmini": 12844,
  "elect": 12845,
  "FR": 12847,
  "ĠArc": 12848,
  "ĠLink": 12851,
  "ĠShould": 12852,
  "Ah": 12853,
  "ĠRos": 12855,
  "FE": 12856,
  "exist": 12857,
  "Ġprograma": 12858,
  "Bi": 12860,
  "Ġmaxim": 12861,
  "ĠperÃŃ": 12862,
  "ĠHim": 12863,
  "desktop": 12864,
  "Found": 12865,
  "ĠLittle": 12868,
  "herit": 12869,
  "ismo": 12870,
  "Ġwatched": 12871,
  "rous": 12873,
  "Ġstatements": 12874,
  "Ġsuggestions": 12875,
  "orney": 12876,
  "ĠWomen": 12877,
  "ĠtravÃ©s": 12879,
  "Ġsele": 12880,
  "mysql": 12881,
  "jective": 12883,
  "Ġemission": 12884,
  "ĠCond": 12885,
  "Ġadds": 12886,
  "encing": 12887,
  "important": 12888,
  "Ġvot": 12889,
  "Ġcual": 12891,
  "ograp": 12893,
  "comment": 12894,
  "ji": 12896,
  "Ġleadership": 12897,
  "take": 12898,
  "Ġtears": 12899,
  "ati": 12900,
  "Activity": 12901,
  "Impl": 12903,
  "Ġshouldn": 12904,
  "Exec": 12906,
  "ĠResult": 12907,
  "Operation": 12908,
  "Ġverify": 12909,
  "Ġsync": 12910,
  "Ġpill": 12912,
  "Ġcaracter": 12913,
  "Ġexemple": 12914,
  "Ġouter": 12915,
  "Ġlegs": 12916,
  "ĠTechnology": 12918,
  "Ġextensive": 12919,
  "Ġpaths": 12921,
  "Ġinteract": 12922,
  "ĠDistrict": 12923,
  "Ġmissed": 12925,
  "ĠCla": 12927,
  "FILE": 12929,
  "Ġfinest": 12930,
  "ĠLibrary": 12931,
  "Ġsuspect": 12933,
  "Ġdetected": 12934,
  "Ġterrible": 12938,
  "flu": 12940,
  "Argument": 12941,
  "Ġconsequence": 12943,
  "Ġmostra": 12945,
  "archar": 12947,
  "rained": 12948,
  "Ġniv": 12949,
  "ĠEU": 12951,
  "Ġoriginally": 12952,
  "ĠPremi": 12953,
  "Dialog": 12954,
  "ĠImage": 12955,
  "Ġrepeat": 12956,
  "ĠPot": 12957,
  "Ġbasically": 12958,
  "Integer": 12959,
  "ĠGeorg": 12960,
  "gres": 12961,
  "Ġtransist": 12962,
  "Ġgraphics": 12963,
  "lÃŃmp": 12965,
  "Ġobra": 12967,
  "ĠAnton": 12968,
  "Ġrapidly": 12970,
  "Ġabstract": 12971,
  "ĠDom": 12973,
  "owed": 12974,
  "ĠSem": 12975,
  "forms": 12976,
  "Async": 12977,
  "athered": 12978,
  "liament": 12980,
  "ĠException": 12982,
  "Ġarbitrary": 12983,
  "lements": 12985,
  "video": 12986,
  "Ġnova": 12987,
  "ĠLocal": 12988,
  "Ġbreast": 12989,
  "utter": 12990,
  "Ġbedroom": 12991,
  "vals": 12993,
  "bury": 12994,
  "Ġhill": 12997,
  "Vegeu": 12998,
  "Although": 12999,
  "Find": 13000,
  "Ġcrime": 13001,
  "Ġnumerical": 13002,
  "ĠPython": 13003,
  "ĠRight": 13004,
  "refox": 13005,
  "Ġdirected": 13006,
  "brace": 13007,
  "Del": 13008,
  "Ang": 13009,
  "ĠMB": 13010,
  "Ġobjective": 13011,
  "Ġdirections": 13012,
  "IVE": 13013,
  "erry": 13015,
  "Ġmolts": 13016,
  "ribed": 13017,
  "Ġpresc": 13018,
  "Ġentity": 13019,
  "Ġcinema": 13020,
  "Ġaddresses": 13021,
  "Ġtod": 13022,
  "Ġremem": 13023,
  "Ġstatistics": 13024,
  "Ġdescribes": 13025,
  "Ġdict": 13026,
  "ĠAbout": 13028,
  "Ġital": 13029,
  "ĠJord": 13030,
  "uits": 13031,
  "Alt": 13032,
  "ĠJohnson": 13033,
  "iero": 13034,
  "Ġbreaking": 13035,
  "arser": 13036,
  "ĠCOM": 13037,
  "ĠNord": 13038,
  "lemanya": 13039,
  "ĠLeague": 13040,
  "ĠRussian": 13041,
  "ĠOrgan": 13042,
  "Ġintegrated": 13045,
  "ĠBO": 13046,
  "Ġalgorithms": 13048,
  "ĠFlo": 13049,
  "Ġoutdoor": 13052,
  "uction": 13053,
  "Ġcorrupt": 13054,
  "interface": 13055,
  "ĠGlobal": 13056,
  "dict": 13057,
  "Ġadministration": 13059,
  "Ġsatisfies": 13061,
  "undial": 13062,
  "SU": 13063,
  "PP": 13065,
  "Ġcolon": 13066,
  "ympt": 13067,
  "Did": 13069,
  "Ġelectronic": 13070,
  "Ġbranc": 13073,
  "ĠItalian": 13075,
  "picture": 13076,
  "ĠAgain": 13077,
  "Ġquote": 13078,
  "Ġpurchased": 13079,
  "ĠMarg": 13080,
  "wedge": 13082,
  "Ġtrading": 13083,
  "onical": 13084,
  "ĠNY": 13086,
  "ĠIre": 13089,
  "ĠFou": 13090,
  "ĠMajor": 13091,
  "fields": 13092,
  "Ġdelicious": 13093,
  "Ġsuffer": 13094,
  "bad": 13095,
  "orted": 13096,
  "Ġchose": 13097,
  "Ġfunding": 13098,
  "since": 13101,
  "Ġinequ": 13102,
  "Ġcurious": 13103,
  "types": 13104,
  "Reader": 13105,
  "Ġcausing": 13106,
  "grid": 13107,
  "Ġadvoc": 13108,
  "Ġsubmit": 13109,
  "Ġshoes": 13111,
  "Ġcoordinates": 13113,
  "ĠLead": 13114,
  "chain": 13115,
  "ĠCopy": 13116,
  "Ġhistorical": 13118,
  "hs": 13119,
  "Even": 13120,
  "ĠFar": 13121,
  "ĠLie": 13122,
  "agr": 13125,
  "Like": 13126,
  "COLOR": 13127,
  "aser": 13128,
  "Ġuniversal": 13129,
  "Ġrobust": 13130,
  "ulf": 13131,
  "Ġcutting": 13132,
  "loom": 13133,
  "Ġpassage": 13134,
  "Ġcaptain": 13135,
  "Schema": 13138,
  "ĠMO": 13140,
  "Ġsilent": 13141,
  "igs": 13142,
  "Ġsensitive": 13143,
  "bigg": 13144,
  "framework": 13145,
  "Ġwet": 13146,
  "ĠBad": 13147,
  "ĠJoe": 13148,
  "ĠToday": 13149,
  "driver": 13150,
  "Ġpermanent": 13151,
  "Ġasc": 13152,
  "esty": 13153,
  "Ġinvalid": 13154,
  "VM": 13155,
  "acher": 13156,
  "Ġinfinite": 13158,
  "Ġrequested": 13159,
  "Ġreplacement": 13161,
  "Ġcandidates": 13162,
  "Ġdefect": 13163,
  "ĠBoston": 13164,
  "ĠMySQL": 13165,
  "ĠSelect": 13167,
  "ilation": 13168,
  "ĠSat": 13170,
  "ĠHotel": 13173,
  "Ġalleg": 13176,
  "Parameters": 13178,
  "Ġdestac": 13179,
  "ĠJocs": 13180,
  "ĠespÃ¨cie": 13181,
  "Ġconcerning": 13182,
  "ĠIll": 13183,
  "Ġuniversity": 13186,
  "Ġspatial": 13187,
  "Ġfutbol": 13189,
  "ĠUpdate": 13190,
  "Ġattach": 13191,
  "Pan": 13192,
  "Ġmodify": 13193,
  "born": 13195,
  "whe": 13197,
  "DL": 13198,
  "ĠIC": 13199,
  "Ġmoder": 13201,
  "Ġcontributions": 13202,
  "Ġidi": 13203,
  "ualment": 13204,
  "Ġbgcolor": 13205,
  "Ġstreets": 13206,
  "Ġath": 13207,
  "Ġmistake": 13208,
  "Ġconducted": 13209,
  "Ġfrances": 13210,
  "emed": 13212,
  "Ġthrown": 13213,
  "Ġdump": 13214,
  "har": 13215,
  "Ġinches": 13217,
  "Ġempresa": 13218,
  "vin": 13219,
  "Ġflu": 13220,
  "Ġattacks": 13221,
  "Ġprecise": 13223,
  "Ġmorir": 13224,
  "ollary": 13226,
  "PECT": 13227,
  "Handle": 13228,
  "Ġsignature": 13229,
  "Ġages": 13230,
  "Ġsimulations": 13231,
  "plugins": 13232,
  "elve": 13234,
  "cam": 13236,
  "mediate": 13238,
  "ĠStore": 13239,
  "Ġestar": 13240,
  "Ġchapter": 13241,
  "ĠSn": 13242,
  "Ġinformed": 13243,
  "ĠSP": 13244,
  "Ġrelief": 13245,
  "Ġara": 13248,
  "anna": 13249,
  "ĠMedic": 13250,
  "Ġannounce": 13251,
  "Ġalter": 13252,
  "ĠSearch": 13253,
  "Ġenvironmental": 13255,
  "Ġcontrolled": 13256,
  "Ġdebug": 13257,
  "Ġspecify": 13258,
  "Ġfees": 13259,
  "oster": 13260,
  "Ġawait": 13261,
  "acious": 13262,
  "Ġvegada": 13263,
  "ĠIO": 13265,
  "clam": 13266,
  "oving": 13268,
  "ĠNav": 13269,
  "double": 13270,
  "uous": 13272,
  "nex": 13273,
  "acking": 13274,
  "Ġenthus": 13275,
  "anche": 13277,
  "Ġwhis": 13279,
  "Ġsurrounding": 13280,
  "DM": 13281,
  "Ġrenew": 13282,
  "Ġkiss": 13283,
  "Ġpulled": 13284,
  "Ġmounted": 13285,
  "Ġalive": 13286,
  "abeth": 13287,
  "redit": 13288,
  "plus": 13289,
  "elcome": 13290,
  "rolling": 13291,
  "ĠVill": 13293,
  "CHAR": 13294,
  "Ġliquid": 13295,
  "Ġcomun": 13296,
  "igate": 13298,
  "Ins": 13299,
  "Parent": 13300,
  "looking": 13301,
  "Ġunus": 13303,
  "Ġobt": 13304,
  "Ġshipping": 13305,
  "domain": 13307,
  "ĠHy": 13308,
  "Ġincorrect": 13310,
  "little": 13311,
  "Ġfighting": 13313,
  "lad": 13315,
  "leton": 13317,
  "ĠOk": 13318,
  "ĠYoung": 13319,
  "fix": 13320,
  "Ġlista": 13321,
  "Ġreverse": 13322,
  "lower": 13323,
  "dig": 13324,
  "ĠiOS": 13325,
  "ĠAssert": 13326,
  "itza": 13328,
  "brid": 13329,
  "Ġissued": 13331,
  "Ġchoosing": 13332,
  "pkg": 13333,
  "ti": 13334,
  "disk": 13335,
  "Ġsaving": 13336,
  "Ġriv": 13337,
  "trl": 13338,
  "Ġsemi": 13339,
  "because": 13340,
  "Ġvit": 13341,
  "Ġsoil": 13342,
  "astructure": 13344,
  "Ġscreens": 13345,
  "oli": 13347,
  "oves": 13348,
  "Ġdecom": 13349,
  "Ġdefe": 13350,
  "aneous": 13352,
  "Ġadults": 13353,
  "Ġgaz": 13354,
  "Ġburst": 13355,
  "Ġgentleman": 13358,
  "izon": 13360,
  "ĠSpring": 13364,
  "Posted": 13365,
  "Ġstronger": 13366,
  "ĠIndex": 13367,
  "Ġrecognize": 13369,
  "plot": 13371,
  "ĠCart": 13375,
  "Ġcontrols": 13376,
  "Ġchart": 13377,
  "ricte": 13381,
  "ulating": 13383,
  "itudes": 13384,
  "Ġabsence": 13386,
  "Ġhint": 13387,
  "regular": 13388,
  "ĠCross": 13390,
  "ialize": 13391,
  "Ġwww": 13392,
  "Ġelection": 13393,
  "Ġtalked": 13394,
  "Ġinvolve": 13395,
  "Ġcul": 13396,
  "Ġangles": 13398,
  "Ġmasses": 13400,
  "Dir": 13401,
  "Ġfinds": 13402,
  "CREATE": 13403,
  "remark": 13404,
  "ĠGra": 13405,
  "gre": 13408,
  "ĠEnc": 13409,
  "Ġimpl": 13410,
  "Ġmob": 13412,
  "bec": 13413,
  "Ġinteractions": 13415,
  "Exp": 13416,
  "nn": 13417,
  "Ġsubjects": 13418,
  "igible": 13419,
  "Ġvisited": 13420,
  "ĠCR": 13421,
  "Miss": 13423,
  "ĠPerhaps": 13424,
  "Vari": 13425,
  "Stack": 13427,
  "Ġtired": 13430,
  "ĠAuthor": 13431,
  "Ãłl": 13432,
  "aining": 13433,
  "ĠLatin": 13436,
  "ĠHuman": 13437,
  "Ġvig": 13439,
  "paper": 13441,
  "wl": 13443,
  "Ġmoves": 13444,
  "ned": 13446,
  "SM": 13447,
  "jquery": 13449,
  "ĠJones": 13450,
  "Display": 13451,
  "Ġinact": 13452,
  "ĠFair": 13453,
  "axis": 13454,
  "fficients": 13455,
  "Ġshadow": 13456,
  "Ġgrade": 13457,
  "ummy": 13460,
  "Ġconegut": 13461,
  "Ġdivided": 13462,
  "Ġwise": 13463,
  "Ġencourage": 13465,
  "equals": 13466,
  "Ġrefers": 13467,
  "month": 13468,
  "Ġessentially": 13469,
  "ĠHon": 13470,
  "ĠStat": 13472,
  "ĠConnect": 13475,
  "Ġdraft": 13476,
  "Ġperm": 13478,
  "ĠPrince": 13479,
  "Ãłtica": 13480,
  "father": 13481,
  "Ġsupporting": 13482,
  "Ġgoogle": 13483,
  "Record": 13484,
  "Ġspoken": 13485,
  "Ġdefend": 13486,
  "Ġconsumer": 13489,
  "manager": 13490,
  "Flo": 13492,
  "ĠItaly": 13494,
  "jor": 13496,
  "Ã¨ixer": 13499,
  "asm": 13502,
  "Ġcorrelation": 13503,
  "Ġsake": 13506,
  "rg": 13507,
  "Ġappend": 13508,
  "Ġadopted": 13509,
  "Ġsoldiers": 13510,
  "Ġconstructed": 13511,
  "ospit": 13512,
  "Ġsuport": 13513,
  "Ġtensor": 13514,
  "ughed": 13516,
  "comput": 13517,
  "Ġcommission": 13520,
  "Dom": 13521,
  "Ġangl": 13523,
  "Ġobviously": 13524,
  "dates": 13526,
  "Ġtrig": 13527,
  "Ġbis": 13528,
  "EY": 13529,
  "Ġeverywhere": 13530,
  "Ġspan": 13531,
  "EXT": 13532,
  "awn": 13533,
  "ĠAmericans": 13534,
  "ĠAquesta": 13535,
  "Ġacademic": 13536,
  "fn": 13538,
  "Ġsomehow": 13539,
  "Ġecon": 13540,
  "Ġthermal": 13541,
  "omatic": 13542,
  "Ġatmosphere": 13543,
  "Ġsexual": 13544,
  "prob": 13545,
  "ĠOffic": 13546,
  "IND": 13547,
  "ownt": 13548,
  "Ġcomplement": 13549,
  "Results": 13550,
  "Ġprofit": 13551,
  "Ġfalling": 13555,
  "xford": 13557,
  "Ġinstruct": 13558,
  "Ġlect": 13559,
  "enny": 13561,
  "Ġnamespace": 13562,
  "toggle": 13563,
  "Ġfinger": 13564,
  "Ġreferences": 13565,
  "Ġdates": 13567,
  "Ġforever": 13568,
  "Ġdomestic": 13569,
  "Ġbathroom": 13570,
  "ĠFA": 13571,
  "Ġade": 13573,
  "Ã¯sos": 13574,
  "TL": 13575,
  "ivament": 13577,
  "Ġcodes": 13578,
  "Definition": 13580,
  "Ġpuede": 13581,
  "iams": 13582,
  "ĠParty": 13584,
  "Ġcarrying": 13586,
  "Ġnewly": 13587,
  "ĠParÃŃs": 13588,
  "Ġregularly": 13590,
  "Ġconfirmed": 13591,
  "Ġrevealed": 13592,
  "move": 13593,
  "Icon": 13595,
  "Ġstruggle": 13597,
  "Ġjur": 13598,
  "category": 13599,
  "Ġtoler": 13601,
  "Ġsummary": 13602,
  "Ġmysql": 13603,
  "ĠLE": 13604,
  "ifer": 13606,
  "Ġsearc": 13607,
  "Ġchecking": 13608,
  "done": 13609,
  "Ġalloc": 13610,
  "margin": 13613,
  "Ġcorporate": 13614,
  "Ġnewsp": 13615,
  "Ġpresentation": 13616,
  "Ġfolks": 13617,
  "ĠIndust": 13618,
  "Ġstir": 13619,
  "Ġwidely": 13620,
  "ĠBG": 13621,
  "Ġintegration": 13622,
  "esides": 13623,
  "ipt": 13624,
  "Ġreson": 13627,
  "Ġlying": 13628,
  "Ġspectral": 13630,
  "Ġvertices": 13631,
  "aters": 13632,
  "Ġpublish": 13633,
  "blog": 13634,
  "Ġapproved": 13635,
  "ĠAfrican": 13636,
  "Ġreads": 13637,
  "Ġdeals": 13638,
  "ynamic": 13639,
  "raries": 13640,
  "Ġcomplicated": 13641,
  "Helper": 13642,
  "earing": 13643,
  "Ġassuming": 13644,
  "oner": 13645,
  "Ġoccas": 13646,
  "Her": 13647,
  "adora": 13648,
  "Ġdependent": 13650,
  "Ġpermissions": 13651,
  "Ġbene": 13652,
  "ĠIde": 13653,
  "Ġrear": 13655,
  "sda": 13656,
  "Ġinequality": 13657,
  "Ġladies": 13658,
  "Ġoptimization": 13659,
  "Ġslot": 13660,
  "Ġtopics": 13662,
  "RES": 13663,
  "Ġgalaxies": 13665,
  "Ġloves": 13666,
  "rices": 13667,
  "Ġcomputed": 13668,
  "umnes": 13669,
  "Esc": 13671,
  "Ġduration": 13672,
  "Ġprinted": 13675,
  "Ġacting": 13676,
  "also": 13677,
  "ĠProposition": 13678,
  "Ġsimult": 13679,
  "Ġunsigned": 13680,
  "Ġestan": 13681,
  "Ġaugment": 13682,
  "oped": 13683,
  "ĠHom": 13684,
  "ĠOption": 13685,
  "ĠCL": 13686,
  "ĠBoot": 13687,
  "ĠWin": 13688,
  "sen": 13689,
  "Ġswit": 13690,
  "Ġpromote": 13692,
  "pite": 13693,
  "ĠSus": 13694,
  "About": 13695,
  "Ġalarm": 13696,
  "Ġperforming": 13697,
  "Ġstability": 13699,
  "ĠGreek": 13700,
  "Ġjew": 13703,
  "Ġsuppl": 13705,
  "Ġpocket": 13707,
  "ĠNon": 13710,
  "Ġcoal": 13711,
  "textsc": 13713,
  "enciÃ³": 13714,
  "ĠLy": 13715,
  "ĠFitxa": 13716,
  "Ġtreballar": 13717,
  "Doc": 13718,
  "Decl": 13719,
  "ĠJOIN": 13721,
  "Ġofficials": 13723,
  "ĠWH": 13725,
  "orous": 13727,
  "Ġcord": 13729,
  "ĠJeff": 13731,
  "aylor": 13732,
  "Ġvisiting": 13733,
  "Ġresolved": 13734,
  "Ġunderlying": 13735,
  "Ġowned": 13736,
  "Ġii": 13737,
  "ĠSav": 13740,
  "amely": 13742,
  "radius": 13743,
  "ĠBat": 13745,
  "Ġbanks": 13748,
  "uy": 13749,
  "Ġnurs": 13751,
  "ĠCurrent": 13752,
  "ogene": 13753,
  "aine": 13754,
  "aul": 13755,
  "Ġservers": 13756,
  "ĠOrig": 13757,
  "SY": 13759,
  "ĠJapanese": 13760,
  "Ġsevere": 13761,
  "yard": 13762,
  "Ġconnecting": 13763,
  "byte": 13764,
  "Ġaccessible": 13765,
  "save": 13766,
  "ĠRAM": 13767,
  "Ã¨rica": 13768,
  "Ġdefense": 13769,
  "onda": 13770,
  "Ġble": 13771,
  "Ġlowest": 13772,
  "Ġnic": 13774,
  "LY": 13775,
  "ĠmÃ¡s": 13776,
  "Ġni": 13778,
  "general": 13779,
  "ĠSH": 13781,
  "ĠSometimes": 13782,
  "Ġdol": 13783,
  "ARD": 13784,
  "Ġlli": 13785,
  "connected": 13786,
  "idi": 13787,
  "Ġusb": 13788,
  "Ġyields": 13789,
  "ĠRog": 13790,
  "ĠPere": 13793,
  "Ġcostat": 13795,
  "icket": 13796,
  "Ġparelles": 13798,
  "Ġapplicable": 13799,
  "omorphism": 13801,
  "Storage": 13802,
  "Ġtough": 13804,
  "acles": 13805,
  "Cloud": 13806,
  "ĠEND": 13807,
  "Connect": 13809,
  "Because": 13811,
  "Ġcooper": 13812,
  "Ġpant": 13813,
  "ucl": 13814,
  "say": 13815,
  "Ġevaluate": 13818,
  "closed": 13821,
  "Ġshares": 13822,
  "obr": 13823,
  "ĠIndeed": 13824,
  "Ġtrail": 13825,
  "Ġplanta": 13827,
  "eties": 13829,
  "icio": 13830,
  "Network": 13831,
  "present": 13832,
  "Ġpounds": 13834,
  "amil": 13835,
  "Ġcurves": 13836,
  "Ġindicated": 13838,
  "TV": 13839,
  "ĠCommand": 13840,
  "Free": 13842,
  "develop": 13843,
  "hal": 13845,
  "Ġlabels": 13846,
  "ulty": 13847,
  "False": 13849,
  "cert": 13850,
  "ĠSC": 13856,
  "asa": 13858,
  "Ġarts": 13859,
  "asse": 13860,
  "Ġpatch": 13863,
  "HECK": 13864,
  "protect": 13865,
  "ĠPA": 13866,
  "Ġlanguages": 13867,
  "ripciÃ³": 13869,
  "forall": 13870,
  "Ġdifferential": 13871,
  "Layer": 13872,
  "bullet": 13874,
  "Ġacid": 13876,
  "ĠVirginia": 13877,
  "Ġdefens": 13878,
  "sto": 13879,
  "Ġexcit": 13881,
  "lectual": 13883,
  "Ġwearing": 13884,
  "Ġsyn": 13885,
  "onia": 13886,
  "Ġfactory": 13887,
  "Great": 13891,
  "Ġclassification": 13895,
  "Ãłries": 13896,
  "Ġguid": 13897,
  "Ġtranslation": 13898,
  "Ġbulk": 13899,
  "Ġpriority": 13900,
  "Hol": 13901,
  "Ġcomprehensive": 13902,
  "UNT": 13904,
  "Ġsegona": 13906,
  "Ġrequirement": 13907,
  "Ġbeside": 13908,
  "cmd": 13911,
  "ĠThrough": 13912,
  "subsubsection": 13913,
  "ĠEgypt": 13915,
  "getElement": 13916,
  "ĠInn": 13917,
  "itivity": 13918,
  "Ġpride": 13920,
  "ĠRepÃºblica": 13921,
  "ĠUna": 13922,
  "Ġsoles": 13923,
  "Ġconvertir": 13924,
  "Ġspiritual": 13926,
  "Ġthirty": 13929,
  "ĠBul": 13931,
  "Ġprecisely": 13935,
  "Ġprivacy": 13936,
  "plicity": 13938,
  "stra": 13939,
  "chant": 13940,
  "entials": 13941,
  "Full": 13942,
  "Ġoperate": 13944,
  "Ġmagic": 13945,
  "ĠRussia": 13946,
  "lot": 13947,
  "ĠJos": 13948,
  "pot": 13949,
  "ierarch": 13951,
  "ulator": 13953,
  "Ġcomplexity": 13954,
  "Ġbrit": 13955,
  "General": 13956,
  "Ġlosing": 13957,
  "tor": 13958,
  "Ġcow": 13959,
  "Ġremoving": 13961,
  "Ġengineering": 13963,
  "Ġemergency": 13964,
  "ĠLow": 13966,
  "Ġmile": 13967,
  "Ġgest": 13969,
  "ĠTele": 13970,
  "Ġcarbon": 13971,
  "Ġbounds": 13972,
  "sat": 13973,
  "ĠTurn": 13974,
  "Ãłg": 13975,
  "Ġtransmission": 13977,
  "ĠAlt": 13978,
  "Ġsubs": 13981,
  "Ġsufficiently": 13982,
  "bd": 13983,
  "Ġchap": 13984,
  "rient": 13985,
  "essages": 13988,
  "Ġmock": 13989,
  "Ġdiscipl": 13990,
  "pton": 13991,
  "Ġsurely": 13992,
  "Ġidentical": 13993,
  "ĠbÃ©": 13995,
  "Ġtap": 13996,
  "xit": 13997,
  "Ġdistributions": 13998,
  "ogen": 14001,
  "Ġinvestigation": 14003,
  "Ġlaunched": 14004,
  "colon": 14005,
  "ĠRose": 14006,
  "High": 14007,
  "vs": 14008,
  "Ġvictory": 14009,
  "apos": 14011,
  "rod": 14012,
  "numer": 14015,
  "Ġcharacteristics": 14016,
  "Feature": 14018,
  "Bas": 14019,
  "these": 14020,
  "Ġignore": 14022,
  "ĠBible": 14023,
  "Ptr": 14025,
  "Ġrating": 14026,
  "Ġdealing": 14029,
  "bn": 14030,
  "ching": 14031,
  "ĠHope": 14032,
  "Ġrevenue": 14034,
  "Ġpump": 14035,
  "Ġsessions": 14036,
  "NC": 14037,
  "ĠLtd": 14039,
  "pered": 14040,
  "Ġanticip": 14043,
  "ĠLi": 14044,
  "Ġcalculation": 14045,
  "Ġyounger": 14046,
  "ĠEsc": 14048,
  "Ġparking": 14049,
  "ĠVirtual": 14050,
  "connection": 14051,
  "Ġutility": 14052,
  "ĠINTO": 14054,
  "anny": 14059,
  "LOG": 14060,
  "ĠBell": 14061,
  "Ġexclaimed": 14062,
  "ĠmitjÃł": 14063,
  "obra": 14064,
  "bash": 14065,
  "Ġswitching": 14069,
  "clusions": 14070,
  "onymous": 14071,
  "hu": 14072,
  "DI": 14073,
  "ĠSource": 14075,
  "Ġvice": 14076,
  "Pal": 14077,
  "Ġlaughed": 14078,
  "days": 14079,
  "Ġhappiness": 14081,
  "rogen": 14083,
  "ĠMarket": 14084,
  "Ġnuclear": 14085,
  "formed": 14086,
  "Body": 14087,
  "Ġmarks": 14089,
  "Ġoptical": 14090,
  "FROM": 14092,
  "Ġconversion": 14094,
  "ĠPHP": 14096,
  "izabeth": 14097,
  "ione": 14098,
  "Ġemployee": 14100,
  "Ġpulse": 14101,
  "riure": 14103,
  "Ġhell": 14104,
  "Ġunto": 14105,
  "newcommand": 14106,
  "ĠWeek": 14107,
  "Database": 14108,
  "hips": 14110,
  "Ġcel": 14111,
  "Draw": 14112,
  "Ġtickets": 14113,
  "ĠStill": 14114,
  "Orig": 14115,
  "Christ": 14116,
  "deven": 14117,
  "Vector": 14118,
  "edly": 14120,
  "ifiers": 14121,
  "Ġsegon": 14122,
  "Ġsuffering": 14123,
  "phant": 14124,
  "ĠNight": 14125,
  "Ġyards": 14126,
  "Ġrib": 14127,
  "Ġfacing": 14128,
  "orable": 14129,
  "Ġamer": 14130,
  "Ġfur": 14131,
  "Ġdot": 14133,
  "Ġsymptoms": 14134,
  "Ġkick": 14135,
  "Args": 14136,
  "Ġsolved": 14137,
  "Ġoptional": 14138,
  "Di": 14139,
  "ĠAh": 14140,
  "Ġopens": 14141,
  "rick": 14142,
  "padding": 14143,
  "xiety": 14144,
  "ĠBand": 14146,
  "Ġdivision": 14147,
  "Ġpins": 14148,
  "mente": 14149,
  "atern": 14150,
  "KEY": 14153,
  "Ġreturning": 14154,
  "Ġprobable": 14155,
  "Ġfits": 14156,
  "Ġarrive": 14157,
  "Ġactor": 14158,
  "Ġscalar": 14160,
  "ĠFel": 14162,
  "items": 14163,
  "Ġexha": 14164,
  "ĠRen": 14165,
  "Ġthro": 14166,
  "ĠBlu": 14168,
  "super": 14170,
  "Ġanterior": 14171,
  "Ġcheese": 14172,
  "Pobl": 14174,
  "Ġanymore": 14176,
  "ĠALL": 14177,
  "Ġcub": 14178,
  "Ġcharacteristic": 14179,
  "virtual": 14180,
  "Ġcatalog": 14181,
  "ordinary": 14183,
  "erk": 14184,
  "argo": 14185,
  "Ġsought": 14187,
  "ĠSab": 14188,
  "ĠAccount": 14189,
  "Ġcounty": 14190,
  "Ġspeakers": 14191,
  "Ġshower": 14194,
  "Ġcrew": 14195,
  "Ġcake": 14196,
  "Template": 14198,
  "Ġwallet": 14199,
  "aka": 14201,
  "Ġapplies": 14202,
  "Ġeager": 14203,
  "ĠAngeles": 14204,
  "Ġimpression": 14206,
  "ĠAdministr": 14207,
  "Iter": 14208,
  "Ġdebut": 14210,
  "Ġappreciated": 14211,
  "Ġcontribute": 14214,
  "Ġbeneath": 14215,
  "Values": 14216,
  "Ġconflict": 14217,
  "ultural": 14219,
  "Ġtroops": 14220,
  "Total": 14221,
  "Widget": 14222,
  "Ġchecks": 14223,
  "Ġrebre": 14224,
  "Ġtechnologies": 14227,
  "ĠBa": 14228,
  "acciÃ³": 14229,
  "chor": 14230,
  "Ġuniverse": 14231,
  "Ġintroduction": 14232,
  "Active": 14233,
  "bow": 14234,
  "Ġconclude": 14235,
  "ĠContact": 14236,
  "Ġinduced": 14237,
  "Ġinline": 14238,
  "inction": 14239,
  "Ġpir": 14241,
  "Ġnegot": 14242,
  "Ġgeometry": 14243,
  "Ġprogramming": 14244,
  "Ġappeal": 14247,
  "Tab": 14249,
  "Ġcoefficients": 14250,
  "Ġadmit": 14251,
  "Ġpale": 14252,
  "ĠMedical": 14254,
  "anz": 14255,
  "Ġtrob": 14256,
  "aints": 14257,
  "ĠObama": 14258,
  "Ġpersona": 14259,
  "Ġdeleg": 14260,
  "Ġappl": 14261,
  "once": 14262,
  "ifold": 14263,
  "Ġvivint": 14264,
  "Ġcrucial": 14265,
  "ĠArab": 14268,
  "ifferent": 14270,
  "idor": 14271,
  "Ġdesert": 14272,
  "Ġfis": 14275,
  "Ġproven": 14276,
  "Ġduplic": 14277,
  "Ġmapping": 14278,
  "fly": 14279,
  "Ġprocedures": 14280,
  "Delete": 14281,
  "Ġmovies": 14282,
  "SION": 14284,
  "SR": 14285,
  "ĠComple": 14286,
  "ĉcase": 14288,
  "iro": 14289,
  "ĠCup": 14290,
  "Ġtornar": 14292,
  "Ġboxes": 14293,
  "ĠRay": 14294,
  "lessly": 14296,
  "Ġgray": 14297,
  "ILL": 14298,
  "ĠMic": 14299,
  "argument": 14300,
  "ogy": 14301,
  "UST": 14302,
  "izz": 14303,
  "itzat": 14304,
  "Ġfond": 14305,
  "uliar": 14307,
  "Ġrotation": 14309,
  "Ġcapabilities": 14310,
  "Ġseriously": 14311,
  "rose": 14313,
  "alloc": 14314,
  "ĠDaniel": 14317,
  "ĠAD": 14318,
  "Ġformul": 14322,
  "Ġhandling": 14326,
  "changed": 14328,
  "Ġrestaurants": 14329,
  "Ġplanned": 14330,
  "decl": 14331,
  "isdom": 14332,
  "mother": 14333,
  "must": 14334,
  "continu": 14335,
  "footer": 14336,
  "ĠperÃŃode": 14337,
  "Ġdrives": 14341,
  "Ret": 14342,
  "ĠMid": 14343,
  "Ġviolence": 14344,
  "Ġshoulder": 14345,
  "Ġintention": 14346,
  "Ġcooking": 14347,
  "PATH": 14348,
  "endor": 14349,
  "Ġbias": 14350,
  "unct": 14351,
  "Ġstyles": 14353,
  "sort": 14355,
  "ĠKEY": 14356,
  "uling": 14357,
  "floor": 14360,
  "Spe": 14361,
  "Eq": 14362,
  "ĠWalk": 14363,
  "ĠConsider": 14364,
  "Footnote": 14365,
  "ĠVM": 14366,
  "Disc": 14368,
  "did": 14369,
  "ĠJon": 14371,
  "Ġtemporary": 14373,
  "material": 14374,
  "odge": 14375,
  "Ġsees": 14376,
  "Ġperturb": 14377,
  "erest": 14380,
  "Ġfot": 14381,
  "las": 14382,
  "Conf": 14386,
  "Ġnod": 14387,
  "Ġknock": 14388,
  "Ġaltre": 14390,
  "Ġmateixa": 14391,
  "Ġprospect": 14392,
  "Ġcer": 14394,
  "Policy": 14395,
  "ĠCi": 14396,
  "Ġrepresenting": 14397,
  "Ġchallenging": 14398,
  "ĠGuide": 14399,
  "ĠPed": 14400,
  "ĠFurthermore": 14401,
  "folio": 14402,
  "Ġusuario": 14403,
  "Ġcalculations": 14404,
  "izable": 14405,
  "IES": 14406,
  "Home": 14407,
  "Ġstim": 14408,
  "Ġelectrical": 14409,
  "ĠCook": 14410,
  "Ġtong": 14411,
  "letter": 14412,
  "ĠLTS": 14413,
  "uma": 14415,
  "agues": 14416,
  "ĠVideo": 14417,
  "fact": 14418,
  "astern": 14419,
  "Ġtum": 14420,
  "nel": 14423,
  "ĠExper": 14424,
  "ĠBow": 14425,
  "Ġcaso": 14427,
  "Ġhopes": 14428,
  "JECT": 14430,
  "Ġdenotes": 14431,
  "Ġorganized": 14432,
  "During": 14433,
  "ĠSpirit": 14434,
  "Ġpartit": 14436,
  "aug": 14439,
  "uen": 14440,
  "uent": 14441,
  "ige": 14442,
  "Ġloading": 14444,
  "Ġstrings": 14445,
  "Ġpersonally": 14449,
  "ucks": 14450,
  "issions": 14451,
  "ĠMah": 14452,
  "Whe": 14455,
  "ĠIreland": 14458,
  "observ": 14459,
  "ajax": 14460,
  "eding": 14461,
  "ĠMachine": 14463,
  "uum": 14464,
  "mc": 14465,
  "yy": 14466,
  "ĠDefault": 14467,
  "Ġpour": 14468,
  "Ġdependence": 14471,
  "Ġinvolves": 14472,
  "Google": 14473,
  "Rest": 14474,
  "ongo": 14475,
  "irms": 14476,
  "Ġms": 14479,
  "aneously": 14480,
  "ĠWas": 14481,
  "Ġtotes": 14483,
  "Ġcounc": 14486,
  "Ġpainting": 14487,
  "aje": 14488,
  "Ġchicken": 14489,
  "Ġresc": 14490,
  "Ġobten": 14491,
  "Ġshore": 14493,
  "Ġjum": 14494,
  "Ġvital": 14496,
  "olid": 14497,
  "ateful": 14500,
  "Ġcoat": 14501,
  "Ġmillions": 14502,
  "Ġlegisl": 14503,
  "Ġsmoke": 14504,
  "Ã¨l": 14505,
  "ĠBox": 14507,
  "Pub": 14508,
  "ARN": 14509,
  "rical": 14510,
  "ĠFederal": 14511,
  "Ġadventure": 14512,
  "osity": 14513,
  "Ġgained": 14515,
  "Dels": 14516,
  "Ġprin": 14517,
  "ipher": 14519,
  "Ġexpressions": 14521,
  "Ġunexpected": 14522,
  "Ġlocally": 14523,
  "encia": 14524,
  "ea": 14526,
  "Ġcovering": 14529,
  "ipage": 14531,
  "Ġcaps": 14532,
  "Ġdread": 14533,
  "Ã¨nere": 14535,
  "Ġnearby": 14536,
  "Therefore": 14539,
  "Ġhearts": 14540,
  "ĠFi": 14541,
  "Debug": 14543,
  "Ġmountains": 14544,
  "ĠBall": 14545,
  "Ġears": 14546,
  "Ġlogical": 14547,
  "ĠHarry": 14548,
  "Invalid": 14551,
  "kw": 14552,
  "alous": 14554,
  "contr": 14555,
  "Ġaffordable": 14556,
  "too": 14559,
  "Ġspons": 14560,
  "Ġgrey": 14561,
  "uple": 14563,
  "ĠRa": 14564,
  "three": 14565,
  "inar": 14566,
  "Ġwarrant": 14567,
  "Down": 14568,
  "Ġtiene": 14569,
  "said": 14570,
  "Ġbottle": 14571,
  "itative": 14573,
  "Ġangular": 14574,
  "Ġceremon": 14575,
  "Ġmerg": 14576,
  "Ġconfigured": 14578,
  "Ġphotograph": 14579,
  "Ġtemperatures": 14580,
  "Futbol": 14581,
  "ĠSize": 14582,
  "ĠOlÃŃmp": 14583,
  "Ġgolden": 14585,
  "Ġcontrad": 14586,
  "complete": 14587,
  "Ġcorrel": 14588,
  "NULL": 14589,
  "Ġfest": 14590,
  "BB": 14591,
  "JSON": 14592,
  "ĠestÃ¡": 14594,
  "Ġgrab": 14596,
  "Ġbirthday": 14597,
  "Ġentering": 14599,
  "ĠInvest": 14600,
  "Ġflour": 14602,
  "NavBar": 14603,
  "Root": 14604,
  "ĠFa": 14605,
  "Ġpotentially": 14606,
  "enable": 14608,
  "Ġfoundation": 14609,
  "Ġleaf": 14610,
  "Ġproviders": 14613,
  "Ġcabin": 14614,
  "Enabled": 14615,
  "Ġarrival": 14616,
  "ĠMP": 14617,
  "Ġmajoria": 14618,
  "Ġaconseguir": 14619,
  "quia": 14620,
  "Ġshout": 14622,
  "Ġcriminal": 14625,
  "Ġwaters": 14626,
  "Ġbrilliant": 14627,
  "inat": 14630,
  "Ġconeix": 14631,
  "ĠAsia": 14632,
  "pare": 14635,
  "irl": 14636,
  "Ġtransactions": 14640,
  "game": 14641,
  "Ġworship": 14642,
  "Ġhoping": 14643,
  "Ġps": 14644,
  "Ġremarkable": 14645,
  "Ġhousing": 14646,
  "ĠOrder": 14647,
  "Ġregardless": 14648,
  "Ġfru": 14649,
  "quar": 14650,
  "Enter": 14651,
  "NR": 14652,
  "Ġsel": 14653,
  "Ġprediction": 14654,
  "odb": 14655,
  "issue": 14656,
  "Demografia": 14657,
  "Ġemployment": 14658,
  "Ġexposed": 14660,
  "ĠKitt": 14661,
  "ĠBed": 14662,
  "Ġreserved": 14663,
  "Ġassembly": 14664,
  "Ġbasket": 14665,
  "oda": 14666,
  "Files": 14667,
  "Ġprecision": 14669,
  "Ġapartment": 14672,
  "Ġvariation": 14673,
  "Ġexped": 14674,
  "xious": 14675,
  "ĠKore": 14678,
  "Ġadvertising": 14681,
  "Ġaggreg": 14682,
  "Ġbars": 14684,
  "ikip": 14686,
  "Ġtraject": 14687,
  "Ġcrown": 14688,
  "ĠnÃºmero": 14689,
  "Ġleather": 14690,
  "Ġneighb": 14691,
  "Ġbeam": 14692,
  "Ġdecades": 14693,
  "Ġfancy": 14694,
  "Ġneutral": 14695,
  "tik": 14696,
  "Ġassets": 14697,
  "ashes": 14698,
  "getElementById": 14699,
  "Ġgenu": 14700,
  "ĠIl": 14701,
  "Ġexecuted": 14702,
  "MT": 14703,
  "ĠWould": 14704,
  "Bus": 14705,
  "Ġguitar": 14706,
  "cost": 14708,
  "ĠMexico": 14709,
  "ĠAward": 14710,
  "Ġeducational": 14711,
  "Ġalcohol": 14712,
  "Ġreaction": 14714,
  "ĠCivil": 14715,
  "Ġserves": 14716,
  "Ġtalent": 14717,
  "BI": 14718,
  "Sing": 14719,
  "icted": 14720,
  "condition": 14721,
  "Prim": 14722,
  "ders": 14723,
  "dependency": 14725,
  "perp": 14726,
  "ĠFalse": 14729,
  "tri": 14730,
  "Ġconcrete": 14731,
  "Support": 14732,
  "uz": 14733,
  "Ġsty": 14734,
  "Ġregional": 14740,
  "Ġwhilst": 14741,
  "Ġfunny": 14744,
  "minipage": 14745,
  "autiful": 14746,
  "Ġexpertise": 14747,
  "Ġminister": 14748,
  "Ġdisp": 14749,
  "ĠPlus": 14751,
  "ificial": 14752,
  "Ġcombat": 14753,
  "around": 14754,
  "Ġdepartament": 14755,
  "Ġpassar": 14757,
  "ĠKeep": 14759,
  "ĠAcademy": 14760,
  "Ġconsumers": 14762,
  "Ġcoc": 14763,
  "Ġtracks": 14764,
  "Ġhonour": 14765,
  "Ġbundle": 14766,
  "Ġlattice": 14767,
  "Ġinstitutions": 14768,
  "Ġslave": 14769,
  "Ġjavax": 14771,
  "Ġdeleted": 14773,
  "ĉprivate": 14774,
  "primary": 14775,
  "Ġpointer": 14776,
  "ĠJa": 14777,
  "pmatrix": 14778,
  "Ġske": 14779,
  "avour": 14781,
  "Ġperd": 14784,
  "selected": 14786,
  "four": 14787,
  "Ġdial": 14788,
  "cpp": 14789,
  "ĠDou": 14790,
  "Meta": 14792,
  "posing": 14793,
  "Ġuncertainty": 14794,
  "Ġapi": 14796,
  "Ġthinks": 14797,
  "Ġmultip": 14798,
  "Ġay": 14799,
  "pred": 14801,
  "ĠRest": 14802,
  "Ġmyst": 14803,
  "Ġpse": 14804,
  "ĠCarolina": 14806,
  "ĠTri": 14808,
  "Ġprohib": 14809,
  "Ġeggs": 14810,
  "unicipis": 14811,
  "Ġdil": 14812,
  "hidden": 14813,
  "Ġconfident": 14814,
  "arcely": 14815,
  "Ġadequ": 14816,
  "Ġss": 14817,
  "Ġfingers": 14818,
  "Ġbesides": 14819,
  "Ġcorn": 14820,
  "MD": 14821,
  "Ġwriters": 14823,
  "lab": 14824,
  "BUG": 14826,
  "ĠEconom": 14827,
  "Ġdecrease": 14828,
  "Writer": 14830,
  "ĠDVD": 14831,
  "Ġattended": 14833,
  "Ġcrack": 14834,
  "unta": 14835,
  "Ġcompetitive": 14836,
  "Futbolistes": 14837,
  "ancel": 14838,
  "mn": 14839,
  "MAX": 14840,
  "Ġclip": 14842,
  "Ġseparated": 14843,
  "Ġradi": 14844,
  "Ġoutputs": 14846,
  "sime": 14847,
  "Ġpossession": 14848,
  "ÃŃtics": 14849,
  "Ġgranted": 14850,
  "Ġcir": 14852,
  "Ġaddressed": 14856,
  "Ġmagnitude": 14857,
  "Ġretire": 14858,
  "Ġaccompan": 14859,
  "Ġpermit": 14860,
  "Ġfragment": 14861,
  "ĠÃºlt": 14862,
  "Ġveter": 14863,
  "Ġquart": 14864,
  "Ġmanten": 14865,
  "country": 14866,
  "ĠPut": 14867,
  "Ġlikes": 14868,
  "agg": 14871,
  "ju": 14872,
  "Ġprimers": 14873,
  "Ġcursor": 14875,
  "Ġaquests": 14876,
  "notes": 14877,
  "fc": 14879,
  "rin": 14880,
  "Ġchest": 14881,
  "Job": 14882,
  "ĠSpain": 14883,
  "rada": 14884,
  "Ġcancel": 14886,
  "simeq": 14888,
  "between": 14889,
  "Ġfallen": 14890,
  "pecially": 14891,
  "Ġmixture": 14893,
  "Ġbind": 14894,
  "ĠAction": 14895,
  "Term": 14896,
  "Ġfunctionality": 14898,
  "ikipedia": 14899,
  "iry": 14902,
  "ĠProfessor": 14903,
  "Ġmic": 14904,
  "Ġfavourite": 14906,
  "Ġterc": 14907,
  "ĠDigital": 14908,
  "ĠFriend": 14909,
  "ĠThree": 14910,
  "aC": 14911,
  "Ġfasc": 14912,
  "Ġtransparent": 14914,
  "Ġterritori": 14915,
  "Ġwrites": 14916,
  "Ġlighting": 14917,
  "BL": 14918,
  "ĠCould": 14919,
  "roph": 14920,
  "temp": 14921,
  "Send": 14922,
  "abling": 14923,
  "uture": 14924,
  "itled": 14926,
  "ITE": 14928,
  "Ġjudgment": 14931,
  "Ident": 14932,
  "Ġmedicine": 14934,
  "Ġcommittee": 14936,
  "Ġpipe": 14937,
  "ĠHas": 14938,
  "Tim": 14940,
  "Ġtemporada": 14941,
  "Ġfeat": 14944,
  "utf": 14946,
  "ĠMiddle": 14947,
  "ĠBol": 14948,
  "editor": 14951,
  "Ġbunch": 14953,
  "ructura": 14954,
  "Ġdesde": 14955,
  "Ġsurgery": 14957,
  "Ġllavors": 14958,
  "Ġsatisfaction": 14960,
  "ÃŃstica": 14962,
  "Ġmirror": 14963,
  "ĠEnergy": 14964,
  "ĠasÃŃ": 14965,
  "UES": 14966,
  "Ġchocolate": 14967,
  "Ġenemies": 14970,
  "ĠKnow": 14972,
  "irable": 14973,
  "Ġbike": 14974,
  "adament": 14975,
  "kÃ½": 14976,
  "ĠPrint": 14977,
  "Ġneglect": 14978,
  "Ġconsumption": 14979,
  "FFFF": 14981,
  "Ġcomposition": 14984,
  "Ġlake": 14985,
  "Ġpercentage": 14986,
  "Ġtun": 14988,
  "Package": 14989,
  "ĠFun": 14990,
  "aciones": 14992,
  "Ġreputation": 14993,
  "Ġregistration": 14995,
  "Ġdependencies": 14997,
  "ucky": 14999,
  "athan": 15000,
  "Ġdependency": 15001,
  "bsite": 15002,
  "Ġgrep": 15004,
  "ĠpolÃŃtica": 15005,
  "Ġagreg": 15006,
  "schema": 15007,
  "Ġtrobar": 15008,
  "ĠrÃł": 15009,
  "Jan": 15010,
  "adi": 15011,
  "Ġsettled": 15012,
  "Example": 15013,
  "anca": 15014,
  "ĠSta": 15015,
  "Ġconfused": 15016,
  "Ġrecognition": 15017,
  "Ġrod": 15018,
  "rell": 15019,
  "Cond": 15020,
  "Ġexclusive": 15021,
  "ASE": 15023,
  "ĠKn": 15024,
  "Ġpoll": 15026,
  "Ġgenerator": 15028,
  "Ġproduces": 15029,
  "ĠIrish": 15032,
  "Ġappointment": 15033,
  "vy": 15037,
  "mind": 15039,
  "Ġnue": 15040,
  "best": 15041,
  "Ġtrim": 15042,
  "download": 15043,
  "Ġmonthly": 15044,
  "aping": 15045,
  "UTF": 15046,
  "Ġguanyar": 15048,
  "rowse": 15050,
  "ĠHoly": 15051,
  "Take": 15053,
  "ĠmÃ©t": 15056,
  "Ġticket": 15057,
  "Ġships": 15058,
  "Ġskip": 15059,
  "Ġende": 15060,
  "urar": 15061,
  "aigua": 15062,
  "uming": 15064,
  "icl": 15066,
  "atar": 15067,
  "making": 15068,
  "ĠUP": 15069,
  "Ġsuperf": 15070,
  "Ġproxy": 15072,
  "addr": 15073,
  "uate": 15076,
  "ĠAz": 15077,
  "ĠCert": 15078,
  "gex": 15079,
  "ĠHig": 15080,
  "Ġclinical": 15081,
  "Ġrecurs": 15082,
  "Ġprotein": 15083,
  "Ġgolf": 15084,
  "hl": 15085,
  "Ġcourage": 15087,
  "Ġdemocr": 15090,
  "DT": 15091,
  "ĠMike": 15092,
  "Ġcoordinate": 15094,
  "Ġwal": 15095,
  "attribute": 15097,
  "ilitat": 15101,
  "Ġlargely": 15103,
  "Ġdesk": 15104,
  "ĠConference": 15105,
  "equip": 15107,
  "bold": 15108,
  "ĠThough": 15112,
  "Ġexplicitly": 15113,
  "Ġconjunt": 15114,
  "bell": 15115,
  "Ġbrands": 15116,
  "Ġaux": 15117,
  "Ġsauce": 15118,
  "Ġip": 15121,
  "Ġregime": 15122,
  "Ġcriteria": 15124,
  "hire": 15125,
  "Ġextr": 15126,
  "language": 15127,
  "Ġcrisis": 15129,
  "bserv": 15130,
  "Ġincredible": 15131,
  "Ġaccord": 15134,
  "urd": 15136,
  "Ġnerv": 15137,
  "Ġcheer": 15138,
  "ĠPO": 15139,
  "Ġfifty": 15140,
  "Ġautomatic": 15141,
  "tk": 15142,
  "idelines": 15143,
  "Ġefect": 15145,
  "Ġlandscape": 15147,
  "shape": 15148,
  "Ġholes": 15149,
  "Ġregarded": 15150,
  "iento": 15151,
  "ĠPy": 15152,
  "Ġmanufacturing": 15153,
  "Metadata": 15155,
  "ĠPlace": 15156,
  "ĠDar": 15157,
  "Ġcomputation": 15158,
  "ĠEmp": 15159,
  "udes": 15160,
  "Ġstudio": 15161,
  "eca": 15162,
  "Ġpregn": 15163,
  "ami": 15164,
  "shell": 15166,
  "exports": 15167,
  "Ġvegades": 15168,
  "Param": 15169,
  "ĠFour": 15170,
  "zone": 15171,
  "tp": 15172,
  "Ġtruck": 15173,
  "Ġpremium": 15174,
  "eda": 15175,
  "Ġfluid": 15176,
  "Ġdownloaded": 15177,
  "Tool": 15178,
  "Ġmood": 15179,
  "Xml": 15180,
  "Tube": 15181,
  "Ġlongitud": 15184,
  "track": 15185,
  "Ġtherapy": 15186,
  "pin": 15188,
  "Ġinvariant": 15190,
  "Ġham": 15191,
  "later": 15192,
  "Ġachie": 15193,
  "Ġintelligence": 15194,
  "Ãºn": 15195,
  "Ġspir": 15197,
  "charg": 15198,
  "acionals": 15199,
  "expl": 15200,
  "Ġnotion": 15202,
  "login": 15209,
  "emes": 15210,
  "Ġentrance": 15211,
  "ĠCho": 15213,
  "Ġimply": 15214,
  "Ġencoding": 15216,
  "Ġsummar": 15217,
  "ĠCy": 15218,
  "Ġpep": 15219,
  "hour": 15221,
  "rers": 15223,
  "ĠConfig": 15224,
  "orgeous": 15225,
  "Ġsuspend": 15226,
  "Ġinch": 15227,
  "Ġconform": 15228,
  "ĠCru": 15229,
  "Ġswap": 15230,
  "XT": 15232,
  "ĠVall": 15233,
  "ĠLA": 15234,
  "Ġopposed": 15235,
  "username": 15236,
  "Ġthrew": 15237,
  "execute": 15238,
  "ĠKar": 15239,
  "TEST": 15241,
  "Ġunf": 15243,
  "ĠRoom": 15245,
  "ILE": 15246,
  "ĠcÃłrrec": 15247,
  "Ġburning": 15249,
  "Ġsurprising": 15250,
  "uper": 15251,
  "Ġsuffered": 15252,
  "Ġbands": 15253,
  "odi": 15255,
  "ticle": 15256,
  "Ġstrike": 15257,
  "half": 15258,
  "Users": 15259,
  "Ġfacilit": 15260,
  "Ġtemple": 15262,
  "ponential": 15263,
  "fd": 15264,
  "Classes": 15265,
[...]
