{
  "in": 473,
  "▁t": 474,
  "er": 475,
  "▁a": 476,
  "on": 477,
  "re": 478,
  "en": 479,
  "he": 480,
  "an": 481,
  "at": 482,
  "or": 483,
  "es": 484,
  "▁s": 485,
  "ar": 486,
  "ti": 487,
  "te": 488,
  "th": 489,
  "st": 490,
  "nd": 491,
  "al": 492,
  "▁o": 493,
  "le": 494,
  "de": 495,
  "▁i": 496,
  "se": 497,
  "▁c": 498,
  "▁d": 499,
  "it": 500,
  "nt": 501,
  "is": 502,
  "▁p": 503,
  "me": 504,
  "ri": 505,
  "ra": 506,
  "ou": 507,
  "as": 508,
  "ed": 509,
  "ne": 510,
  "to": 511,
  "ng": 512,
  "▁w": 513,
  "ro": 514,
  "li": 515,
  "ta": 516,
  "▁f": 517,
  "▁b": 518,
  "▁m": 519,
  "ic": 520,
  "el": 521,
  "la": 522,
  "et": 523,
  "ve": 524,
  "ur": 525,
  "▁e": 526,
  "ha": 527,
  "co": 528,
  "ll": 529,
  "ch": 530,
  "▁h": 531,
  "ce": 532,
  "▁l": 533,
  "ma": 534,
  "ea": 535,
  "io": 536,
  "om": 537,
  "tr": 538,
  "id": 539,
  "il": 540,
  "ge": 541,
  "si": 542,
  "di": 543,
  "hi": 544,
  "lo": 545,
  "ec": 546,
  "ie": 547,
  "▁r": 548,
  "un": 549,
  "ac": 550,
  "ct": 551,
  "▁n": 552,
  "us": 553,
  "pe": 554,
  "be": 555,
  "na": 556,
  "ca": 557,
  "ns": 558,
  "of": 559,
  "ut": 560,
  "ol": 561,
  "ot": 562,
  "am": 563,
  "ss": 564,
  "em": 565,
  "ad": 566,
  "po": 567,
  "os": 568,
  "pa": 569,
  "▁S": 570,
  "im": 571,
  "ho": 572,
  "▁the": 573,
  "ing": 574,
  "▁in": 575,
  "▁of": 576,
  "▁to": 577,
  "▁and": 578,
  "ent": 579,
  "▁th": 580,
  "▁de": 581,
  "▁re": 582,
  "▁g": 583,
  "▁T": 584,
  "▁C": 585,
  "▁A": 586,
  "ion": 587,
  "tion": 588,
  "▁I": 590,
  "qu": 592,
  "▁v": 593,
  "▁M": 595,
  "▁P": 596,
  "▁y": 597,
  "ver": 598,
  "▁B": 599,
  "um": 600,
  "ul": 601,
  "ig": 602,
  "▁is": 603,
  "▁for": 604,
  "ly": 605,
  "▁u": 606,
  "ate": 607,
  "▁D": 608,
  "ow": 609,
  "ter": 610,
  "▁on": 611,
  "▁wi": 613,
  "▁be": 614,
  "end": 615,
  "ir": 616,
  "ts": 617,
  "ers": 618,
  "ue": 619,
  "hat": 620,
  "ati": 621,
  "ine": 622,
  "ck": 623,
  "res": 624,
  "▁R": 625,
  "ay": 626,
  "gh": 628,
  "▁L": 629,
  "ons": 630,
  "men": 631,
  "▁con": 632,
  "▁F": 633,
  "int": 635,
  "cti": 636,
  "▁E": 637,
  "▁k": 638,
  "and": 639,
  "▁H": 640,
  "ort": 641,
  "our": 642,
  "od": 643,
  "est": 644,
  "▁N": 646,
  "▁W": 647,
  "if": 648,
  "ht": 650,
  "The": 651,
  "ith": 652,
  "▁G": 653,
  "ere": 654,
  "ke": 655,
  "▁pro": 656,
  "ub": 657,
  "pp": 658,
  "▁en": 659,
  "ble": 660,
  "▁ha": 661,
  "▁it": 665,
  "oo": 666,
  "ci": 667,
  "all": 668,
  "ess": 669,
  "ab": 670,
  "▁an": 671,
  "ret": 672,
  "ation": 673,
  "▁that": 674,
  "▁with": 675,
  "ction": 676,
  "ment": 677,
  "▁j": 678,
  "▁ne": 679,
  "▁st": 680,
  "▁com": 681,
  "▁me": 682,
  "▁la": 683,
  "ity": 684,
  "▁as": 685,
  "tem": 686,
  "▁O": 687,
  "▁or": 689,
  "urn": 690,
  "ted": 691,
  "▁you": 692,
  "▁he": 693,
  "ist": 694,
  "rom": 695,
  "▁at": 696,
  "▁ex": 698,
  "▁se": 699,
  "▁qu": 700,
  "mp": 701,
  "▁li": 702,
  "line": 703,
  "per": 704,
  "▁mo": 705,
  "ld": 706,
  "port": 707,
  "▁are": 708,
  "▁le": 709,
  "ure": 711,
  "▁so": 712,
  "▁J": 713,
  "▁The": 714,
  "op": 715,
  "iz": 716,
  "▁al": 717,
  "▁ma": 718,
  "ass": 719,
  "lic": 720,
  "xt": 721,
  "ore": 722,
  "ite": 725,
  "▁was": 729,
  "▁by": 731,
  "age": 732,
  "▁wh": 733,
  "ame": 734,
  "ard": 735,
  "▁this": 736,
  "ag": 737,
  "ak": 738,
  "ust": 739,
  "ia": 740,
  "ant": 741,
  "▁su": 742,
  "hl": 743,
  "▁V": 744,
  "out": 745,
  "for": 746,
  "▁K": 747,
  "▁un": 748,
  "▁do": 749,
  "ap": 750,
  "▁di": 751,
  "▁U": 752,
  "ath": 753,
  "ang": 754,
  "▁par": 755,
  "ty": 756,
  "ord": 757,
  "ber": 758,
  "con": 759,
  "art": 760,
  "ff": 761,
  "ys": 762,
  "du": 763,
  "ome": 764,
  "tu": 765,
  "ze": 766,
  "ind": 767,
  "▁po": 769,
  "ex": 770,
  "mat": 771,
  "las": 772,
  "return": 773,
  "▁from": 774,
  "hline": 776,
  "gin": 778,
  "ans": 779,
  "▁not": 780,
  "rou": 781,
  "av": 782,
  "▁we": 783,
  "ata": 784,
  "one": 785,
  "cl": 786,
  "ack": 787,
  "▁ch": 788,
  "ther": 790,
  "▁have": 791,
  "au": 792,
  "▁no": 793,
  "ase": 795,
  "ould": 796,
  "ich": 797,
  "▁can": 798,
  "▁tr": 799,
  "sed": 800,
  "sp": 801,
  "tic": 802,
  "ud": 803,
  "ote": 804,
  "ublic": 805,
  "ell": 806,
  "▁id": 807,
  "ong": 808,
  "import": 809,
  "ep": 810,
  "ect": 811,
  "ks": 812,
  "▁ar": 813,
  "ght": 815,
  "oc": 816,
  "sion": 817,
  "get": 818,
  "ous": 819,
  "ru": 820,
  "▁el": 822,
  "mo": 825,
  "▁lo": 826,
  "ran": 827,
  "ary": 828,
  "cc": 830,
  "ry": 831,
  "▁all": 832,
  "ps": 833,
  "ount": 834,
  "▁ad": 835,
  "ph": 836,
  "ork": 837,
  "lass": 838,
  "ound": 839,
  "ated": 840,
  "▁ab": 841,
  "▁per": 842,
  "lock": 843,
  "ire": 844,
  "ear": 845,
  "▁sp": 847,
  "▁des": 848,
  "ER": 849,
  "ven": 850,
  "ance": 851,
  "va": 852,
  "lu": 853,
  "red": 854,
  "ult": 855,
  "iew": 856,
  "erv": 857,
  "ally": 858,
  "▁your": 861,
  "ile": 862,
  "ice": 863,
  "che": 864,
  "der": 866,
  "▁sa": 867,
  "▁z": 868,
  "og": 869,
  "fer": 870,
  "▁go": 871,
  "com": 872,
  "ON": 873,
  "row": 874,
  "▁es": 875,
  "ence": 876,
  "▁will": 877,
  "▁In": 878,
  "public": 879,
  "ign": 880,
  "set": 881,
  "ime": 882,
  "this": 883,
  "item": 884,
  "In": 886,
  "able": 887,
  "▁new": 888,
  "ize": 889,
  "▁Y": 890,
  "ull": 891,
  "vi": 893,
  "vel": 894,
  "are": 895,
  "ont": 896,
  "ast": 897,
  "▁ro": 899,
  "ple": 900,
  "▁but": 901,
  "begin": 902,
  "ations": 903,
  "▁Th": 904,
  "▁uid": 906,
  "▁que": 907,
  "▁up": 908,
  "tring": 909,
  "▁co": 910,
  "ight": 911,
  "div": 913,
  "ide": 914,
  "ces": 915,
  "▁man": 916,
  "▁us": 917,
  "ial": 918,
  "▁has": 919,
  "▁out": 921,
  "block": 923,
  "ies": 924,
  "lay": 925,
  "▁his": 926,
  "section": 927,
  "IN": 928,
  "ory": 929,
  "▁und": 930,
  "so": 931,
  "sel": 932,
  "ook": 933,
  "val": 934,
  "ft": 935,
  "ill": 936,
  "log": 937,
  "ption": 938,
  "ded": 939,
  "ni": 940,
  "▁comp": 942,
  "▁sh": 943,
  "ree": 944,
  "quote": 945,
  "Th": 946,
  "▁get": 947,
  "▁which": 948,
  "ater": 950,
  "▁pid": 951,
  "ens": 952,
  "▁pre": 953,
  "no": 956,
  "iv": 957,
  "Con": 958,
  "▁ti": 959,
  "pri": 960,
  "form": 961,
  "par": 964,
  "ten": 965,
  "we": 966,
  "ach": 967,
  "wer": 969,
  "▁my": 970,
  "ond": 971,
  "▁ver": 972,
  "blockquote": 973,
  "▁one": 974,
  "ors": 976,
  "mer": 977,
  "▁more": 978,
  "ink": 979,
  "EN": 980,
  "les": 982,
  "▁they": 984,
  "ain": 985,
  "ystem": 986,
  "Re": 987,
  "ES": 988,
  "▁dis": 989,
  "ents": 990,
  "ild": 991,
  "▁au": 992,
  "RE": 993,
  "mb": 995,
  "▁St": 997,
  "ms": 999,
  "ew": 1000,
  "bu": 1001,
  "ark": 1002,
  "▁res": 1004,
  "▁ag": 1005,
  "▁tra": 1006,
  "▁cont": 1007,
  "▁et": 1008,
  "▁some": 1009,
  "pro": 1010,
  "ga": 1012,
  "▁if": 1013,
  "ings": 1014,
  "▁imp": 1015,
  "AT": 1016,
  "min": 1017,
  "cri": 1018,
  "▁fo": 1019,
  "del": 1020,
  "up": 1021,
  "old": 1022,
  "ob": 1023,
  "▁their": 1024,
  "gra": 1025,
  "▁ri": 1026,
  "▁Re": 1027,
  "AR": 1028,
  "ef": 1029,
  "ST": 1030,
  "now": 1032,
  "lan": 1033,
  "▁fe": 1034,
  "ular": 1035,
  "▁bo": 1036,
  "cre": 1037,
  "ener": 1038,
  "fe": 1039,
  "ray": 1040,
  "▁col": 1041,
  "do": 1042,
  "ish": 1043,
  "eng": 1044,
  "OR": 1045,
  "▁pl": 1046,
  "own": 1047,
  "unction": 1048,
  "▁were": 1049,
  "ari": 1050,
  "▁ra": 1051,
  "go": 1052,
  "self": 1053,
  "ress": 1054,
  "bo": 1055,
  "gen": 1056,
  "ug": 1057,
  "iel": 1058,
  "▁app": 1059,
  "led": 1060,
  "▁inter": 1061,
  "▁class": 1062,
  "ung": 1063,
  "▁who": 1064,
  "put": 1065,
  "man": 1066,
  "name": 1067,
  "enter": 1068,
  "▁time": 1069,
  "▁her": 1070,
  "pt": 1071,
  "fa": 1072,
  "AN": 1073,
  "▁Ch": 1074,
  "else": 1075,
  "vo": 1076,
  "enti": 1077,
  "tions": 1078,
  "ject": 1079,
  "text": 1082,
  "math": 1083,
  "ik": 1084,
  "ón": 1085,
  "tain": 1086,
  "Pro": 1087,
  "▁te": 1088,
  "▁any": 1089,
  "und": 1090,
  "ale": 1091,
  "pr": 1092,
  "▁had": 1093,
  "act": 1094,
  "St": 1095,
  "ays": 1096,
  "igh": 1097,
  "ser": 1098,
  "▁pe": 1099,
  "wo": 1100,
  "clu": 1102,
  "err": 1103,
  "▁there": 1104,
  "▁about": 1105,
  "ual": 1106,
  "ext": 1107,
  "oid": 1108,
  "ype": 1109,
  "reat": 1111,
  "ties": 1112,
  "bre": 1113,
  "que": 1114,
  "ical": 1115,
  "▁val": 1119,
  "AL": 1120,
  "▁exp": 1121,
  "▁Pro": 1122,
  "▁er": 1123,
  "ok": 1124,
  "▁been": 1125,
  "rm": 1126,
  "nswer": 1127,
  "fic": 1128,
  "ier": 1129,
  "▁ob": 1130,
  "irst": 1131,
  "ments": 1132,
  "ick": 1133,
  "▁would": 1134,
  "ren": 1135,
  "til": 1136,
  "ins": 1137,
  "how": 1139,
  "ah": 1140,
  "▁x": 1141,
  "▁set": 1142,
  "ves": 1143,
  "▁am": 1144,
  "ien": 1145,
  "IC": 1146,
  "str": 1149,
  "▁mu": 1150,
  "als": 1151,
  "Ex": 1152,
  "▁like": 1154,
  "var": 1155,
  "▁other": 1156,
  "ner": 1158,
  "▁work": 1160,
  "ka": 1161,
  "▁year": 1162,
  "▁over": 1163,
  "▁Com": 1164,
  "▁It": 1165,
  "ton": 1166,
  "▁our": 1167,
  "▁pri": 1168,
  "IT": 1169,
  "▁also": 1170,
  "tt": 1171,
  "iti": 1172,
  "▁them": 1174,
  "the": 1175,
  "▁del": 1177,
  "▁than": 1178,
  "vate": 1179,
  "▁said": 1180,
  "▁pr": 1181,
  "essage": 1182,
  "fter": 1183,
  "mage": 1184,
  "▁when": 1185,
  "xic": 1186,
  "atch": 1187,
  "▁der": 1188,
  "tab": 1189,
  "very": 1190,
  "ning": 1191,
  "cho": 1193,
  "ix": 1194,
  "ues": 1195,
  "ange": 1196,
  "ger": 1197,
  "umer": 1198,
  "▁op": 1200,
  "round": 1201,
  "mit": 1202,
  "tle": 1203,
  "ates": 1204,
  "ced": 1205,
  "itemize": 1206,
  "ib": 1207,
  "▁fa": 1210,
  "▁int": 1211,
  "▁what": 1212,
  "fo": 1213,
  "vent": 1216,
  "app": 1217,
  "its": 1218,
  "ili": 1219,
  "ey": 1221,
  "▁bu": 1222,
  "▁af": 1223,
  "icity": 1224,
  "cy": 1225,
  "▁car": 1226,
  "umber": 1227,
  "▁fin": 1228,
  "read": 1229,
  "▁know": 1230,
  "Com": 1231,
  "Name": 1232,
  "ges": 1233,
  "erson": 1234,
  "Id": 1237,
  "String": 1239,
  "▁cons": 1242,
  "let": 1243,
  "▁acc": 1244,
  "mathrm": 1246,
  "ax": 1247,
  "inal": 1248,
  "▁may": 1249,
  "ield": 1250,
  "▁stat": 1251,
  "alse": 1252,
  "▁produ": 1253,
  "add": 1254,
  "pon": 1255,
  "eb": 1256,
  "try": 1257,
  "cess": 1258,
  "data": 1259,
  "▁da": 1260,
  "Answer": 1261,
  "ake": 1262,
  "ava": 1263,
  "rit": 1264,
  "▁che": 1265,
  "ive": 1266,
  "vers": 1267,
  "List": 1268,
  "rent": 1270,
  "▁Z": 1271,
  "▁dif": 1272,
  "xicity": 1273,
  "▁Q": 1274,
  "EX": 1275,
  "por": 1276,
  "▁its": 1277,
  "▁sec": 1278,
  "col": 1279,
  "▁into": 1280,
  "▁use": 1281,
  "ian": 1282,
  "ny": 1283,
  "▁she": 1284,
  "▁bet": 1285,
  "ek": 1286,
  "ource": 1287,
  "olu": 1288,
  "ctor": 1290,
  "ator": 1291,
  "▁ac": 1292,
  "def": 1293,
  "No": 1294,
  "▁str": 1295,
  "▁reg": 1296,
  "▁only": 1297,
  "LE": 1299,
  "▁sto": 1300,
  "▁para": 1301,
  "▁De": 1302,
  "▁die": 1303,
  "thing": 1304,
  "AM": 1306,
  "▁No": 1307,
  "view": 1309,
  "day": 1311,
  "gn": 1312,
  "ip": 1314,
  "▁He": 1315,
  "▁just": 1317,
  "low": 1319,
  "▁sur": 1320,
  "ION": 1321,
  "▁wor": 1322,
  "ost": 1323,
  "nter": 1324,
  "const": 1325,
  "ride": 1326,
  "▁min": 1327,
  "orm": 1328,
  "ful": 1329,
  "gan": 1330,
  "right": 1331,
  "private": 1332,
  "▁sub": 1334,
  "da": 1335,
  "ric": 1337,
  "ina": 1338,
  "ele": 1339,
  "ode": 1340,
  "ody": 1341,
  "ID": 1342,
  "ople": 1343,
  "▁du": 1344,
  "ily": 1345,
  "ough": 1346,
  "ervice": 1347,
  "fore": 1348,
  "▁pla": 1349,
  "mon": 1350,
  "cer": 1351,
  "lect": 1352,
  "pos": 1353,
  "▁else": 1354,
  "▁back": 1355,
  "▁him": 1357,
  "View": 1358,
  "▁men": 1359,
  "mes": 1360,
  "aw": 1361,
  "▁under": 1362,
  "wn": 1363,
  "▁An": 1364,
  "ved": 1366,
  "Res": 1367,
  "▁how": 1368,
  "▁ser": 1369,
  "▁first": 1370,
  "ise": 1371,
  "toxicity": 1373,
  "arch": 1374,
  "▁Ar": 1375,
  "tive": 1377,
  "▁two": 1378,
  "gs": 1381,
  "▁true": 1382,
  "tra": 1383,
  "ating": 1384,
  "any": 1385,
  "ative": 1386,
  "center": 1387,
  "pl": 1389,
  "▁ter": 1390,
  "llow": 1392,
  "Ch": 1393,
  "ave": 1394,
  "▁por": 1395,
  "Over": 1396,
  "ank": 1397,
  "ars": 1398,
  "Ar": 1399,
  "▁off": 1401,
  "hile": 1402,
  "ause": 1403,
  "new": 1404,
  "son": 1405,
  "▁cor": 1406,
  "ert": 1407,
  "▁ve": 1408,
  "▁requ": 1409,
  "umerate": 1410,
  "▁function": 1411,
  "▁should": 1412,
  "verride": 1413,
  "▁Al": 1414,
  "ures": 1415,
  "▁This": 1417,
  "dd": 1418,
  "▁Con": 1419,
  "cted": 1421,
  "aj": 1422,
  "▁data": 1423,
  "roup": 1424,
  "type": 1425,
  "▁good": 1426,
  "▁pres": 1427,
  "ational": 1429,
  "ery": 1430,
  "print": 1431,
  "span": 1432,
  "iss": 1433,
  "ving": 1435,
  "IS": 1436,
  "▁les": 1437,
  "za": 1438,
  "su": 1439,
  "EXT": 1440,
  "Ad": 1441,
  "using": 1442,
  "▁see": 1443,
  "ão": 1444,
  "land": 1445,
  "RO": 1446,
  "hed": 1447,
  "▁We": 1448,
  "cu": 1449,
  "▁these": 1450,
  "AS": 1451,
  "▁after": 1452,
  "▁don": 1453,
  "▁los": 1454,
  "▁est": 1455,
  "thod": 1456,
  "uk": 1458,
  "▁ap": 1459,
  "hen": 1460,
  "▁people": 1461,
  "AC": 1462,
  "tos": 1463,
  "▁ge": 1465,
  "▁void": 1466,
  "▁null": 1468,
  "To": 1469,
  "ility": 1470,
  "ene": 1471,
  "az": 1472,
  "enumerate": 1473,
  "▁And": 1474,
  "▁gu": 1475,
  "▁need": 1476,
  "▁mon": 1477,
  "ward": 1478,
  "▁System": 1479,
  "rough": 1482,
  "clude": 1483,
  "fig": 1484,
  "▁im": 1485,
  "ting": 1486,
  "▁hel": 1487,
  "▁gra": 1488,
  "▁spec": 1489,
  "▁now": 1490,
  "▁resp": 1491,
  "▁then": 1492,
  "mi": 1493,
  "pec": 1495,
  "▁long": 1497,
  "▁did": 1498,
  "htt": 1499,
  "▁show": 1500,
  "▁make": 1501,
  "▁sta": 1502,
  "▁name": 1503,
  "stru": 1504,
  "▁trans": 1505,
  "Col": 1506,
  "ider": 1507,
  "▁very": 1508,
  "bel": 1509,
  "Data": 1510,
  "▁Ex": 1511,
  "fra": 1512,
  "▁sc": 1513,
  "ied": 1514,
  "ai": 1515,
  "ific": 1516,
  "▁here": 1517,
  "ters": 1518,
  "rol": 1519,
  "Override": 1520,
  "vid": 1521,
  "ml": 1522,
  "▁char": 1524,
  "HE": 1525,
  "ower": 1526,
  "ature": 1527,
  "cial": 1528,
  "message": 1529,
  "ada": 1530,
  "▁ed": 1531,
  "▁cre": 1532,
  "case": 1533,
  "dic": 1534,
  "▁every": 1535,
  "▁high": 1536,
  "ee": 1537,
  "▁could": 1538,
  "oy": 1539,
  "ET": 1540,
  "▁sti": 1541,
  "ines": 1542,
  "dition": 1543,
  "king": 1544,
  "date": 1545,
  "▁most": 1546,
  "by": 1547,
  "ado": 1548,
  "tern": 1549,
  "mber": 1550,
  "▁person": 1552,
  "break": 1553,
  "▁play": 1554,
  "ood": 1555,
  "php": 1556,
  "▁pa": 1557,
  "sub": 1558,
  "stra": 1559,
  "ls": 1560,
  "▁cal": 1561,
  "med": 1563,
  "ception": 1565,
  "▁false": 1566,
  "▁ret": 1567,
  "ster": 1568,
  "ila": 1569,
  "▁where": 1570,
  "ely": 1572,
  "den": 1574,
  "▁sm": 1575,
  "▁X": 1576,
  "ana": 1577,
  "▁well": 1578,
  "ead": 1579,
  "▁end": 1580,
  "▁such": 1582,
  "urrent": 1583,
  "▁na": 1584,
  "ision": 1585,
  "▁sk": 1586,
  "▁rec": 1587,
  "ouse": 1588,
  "use": 1589,
  "igned": 1590,
  "▁ph": 1591,
  "oh": 1592,
  "▁through": 1593,
  "ather": 1594,
  "ler": 1595,
  "This": 1596,
  "formation": 1597,
  "br": 1598,
  "gu": 1599,
  "▁den": 1600,
  "TO": 1601,
  "time": 1602,
  "és": 1603,
  "cha": 1604,
  "ros": 1605,
  "▁sim": 1606,
  "des": 1609,
  "ara": 1610,
  "▁follow": 1611,
  "▁look": 1612,
  "ED": 1613,
  "ris": 1614,
  "UT": 1615,
  "▁value": 1618,
  "ash": 1619,
  "Cont": 1621,
  "▁New": 1622,
  "mun": 1623,
  "sition": 1624,
  "▁count": 1625,
  "lease": 1626,
  "Mo": 1627,
  "tail": 1628,
  "mis": 1629,
  "rid": 1630,
  "vis": 1631,
  "▁bec": 1632,
  "▁supp": 1633,
  "▁hand": 1634,
  "▁import": 1635,
  "For": 1636,
  "Text": 1637,
  "class": 1638,
  "Type": 1639,
  "▁differ": 1640,
  "▁rep": 1642,
  "UR": 1643,
  "▁made": 1644,
  "user": 1645,
  "▁You": 1646,
  "▁tri": 1647,
  "ente": 1648,
  "ils": 1649,
  "LL": 1650,
  "hip": 1651,
  "▁again": 1653,
  "uring": 1655,
  "count": 1656,
  "amp": 1657,
  "▁years": 1658,
  "ole": 1659,
  "ribu": 1660,
  "ki": 1661,
  "mary": 1662,
  "ja": 1663,
  "▁eff": 1664,
  "not": 1665,
  "Val": 1666,
  "▁ele": 1667,
  "hr": 1668,
  "uc": 1669,
  "▁cur": 1670,
  "▁used": 1671,
  "left": 1672,
  "▁loc": 1673,
  "ired": 1675,
  "way": 1677,
  "pace": 1678,
  "ween": 1679,
  "De": 1680,
  "▁tem": 1681,
  "▁read": 1682,
  "▁much": 1683,
  "elf": 1684,
  "yn": 1686,
  "jec": 1687,
  "ample": 1690,
  "tabular": 1692,
  "▁even": 1693,
  "raw": 1694,
  "ron": 1695,
  "cal": 1696,
  "▁dist": 1697,
  "▁def": 1698,
  "▁For": 1699,
  "list": 1701,
  "▁part": 1702,
  "▁way": 1703,
  "▁So": 1704,
  "load": 1705,
  "▁down": 1706,
  "▁help": 1707,
  "▁ke": 1708,
  "▁Le": 1709,
  "pre": 1710,
  "AD": 1711,
  "lick": 1712,
  "▁stud": 1713,
  "ute": 1714,
  "velop": 1715,
  "file": 1716,
  "▁find": 1717,
  "It": 1718,
  "▁ass": 1719,
  "▁pos": 1720,
  "▁does": 1721,
  "hose": 1722,
  "my": 1723,
  "▁Uni": 1724,
  "US": 1725,
  "sh": 1726,
  "▁String": 1727,
  "param": 1728,
  "lack": 1729,
  "ule": 1731,
  "gy": 1732,
  "▁ste": 1733,
  "We": 1734,
  "ics": 1735,
  "▁form": 1736,
  "ength": 1737,
  "Rep": 1738,
  "cont": 1739,
  "illi": 1740,
  "thor": 1741,
  "▁think": 1742,
  "▁gener": 1743,
  "▁day": 1744,
  "▁Res": 1745,
  "ness": 1746,
  "ices": 1747,
  "chen": 1748,
  "▁una": 1749,
  "stat": 1750,
  "▁fil": 1751,
  "play": 1752,
  "ken": 1753,
  "CT": 1754,
  "sist": 1757,
  "▁number": 1758,
  "roll": 1759,
  "ument": 1760,
  "error": 1761,
  "▁tea": 1763,
  "ason": 1764,
  "mail": 1765,
  "▁mar": 1766,
  "▁many": 1767,
  "ask": 1768,
  "urs": 1769,
  "▁lit": 1770,
  "ined": 1771,
  "▁rel": 1772,
  "▁tak": 1773,
  "ulti": 1774,
  "▁great": 1775,
  "En": 1776,
  "▁las": 1778,
  "pack": 1779,
  "▁plan": 1780,
  "▁fam": 1781,
  "cip": 1782,
  "▁ein": 1783,
  "▁exper": 1784,
  "table": 1785,
  "ING": 1786,
  "chool": 1787,
  "▁cha": 1788,
  "▁dire": 1789,
  "iness": 1790,
  "▁Ro": 1791,
  "je": 1792,
  "cia": 1793,
  "▁before": 1794,
  "comp": 1795,
  "ión": 1796,
  "ults": 1797,
  "reg": 1798,
  "ince": 1799,
  "▁il": 1800,
  "cription": 1801,
  "ever": 1802,
  "ern": 1803,
  "▁si": 1804,
  "▁pas": 1806,
  "hoto": 1807,
  "requ": 1808,
  "▁same": 1809,
  "back": 1811,
  "▁system": 1812,
  "ream": 1813,
  "roid": 1814,
  "work": 1815,
  "ato": 1817,
  "By": 1818,
  "▁sha": 1819,
  "ica": 1820,
  "▁java": 1821,
  "ital": 1824,
  "ends": 1825,
  "ames": 1827,
  "here": 1828,
  "yp": 1830,
  "ctions": 1831,
  "anks": 1832,
  "▁right": 1833,
  "ants": 1834,
  "mand": 1835,
  "Ob": 1836,
  "▁TEXT": 1837,
  "ush": 1838,
  "ets": 1839,
  "rand": 1840,
  "What": 1841,
  "▁Me": 1842,
  "▁add": 1843,
  "lean": 1844,
  "lose": 1845,
  "ural": 1846,
  "idth": 1847,
  "▁cu": 1849,
  "array": 1850,
  "ring": 1851,
  "but": 1852,
  "▁each": 1853,
  "ww": 1854,
  "▁being": 1855,
  "▁ques": 1856,
  "alth": 1857,
  "indow": 1858,
  "ove": 1859,
  "But": 1860,
  "▁because": 1861,
  "ait": 1862,
  "ox": 1863,
  "▁between": 1865,
  "ENT": 1866,
  "gg": 1867,
  "ij": 1868,
  "value": 1869,
  "uck": 1870,
  "cts": 1871,
  "▁main": 1872,
  "hite": 1873,
  "ción": 1874,
  "Al": 1875,
  "ios": 1876,
  "▁As": 1877,
  "▁real": 1879,
  "void": 1880,
  "▁Ind": 1881,
  "sum": 1882,
  "▁gi": 1883,
  "▁emp": 1884,
  "Par": 1885,
  "ession": 1886,
  "▁To": 1887,
  "EM": 1888,
  "▁list": 1889,
  "van": 1890,
  "hy": 1891,
  "▁comple": 1892,
  "▁equ": 1893,
  "dex": 1894,
  "yle": 1895,
  "ustom": 1896,
  "lear": 1897,
  "Me": 1898,
  "gram": 1899,
  "▁cour": 1900,
  "ía": 1901,
  "AP": 1902,
  "ini": 1904,
  "EL": 1905,
  "ots": 1906,
  "OM": 1907,
  "ura": 1908,
  "ás": 1909,
  "bal": 1910,
  "▁Co": 1911,
  "wit": 1912,
  "▁life": 1913,
  "head": 1914,
  "include": 1915,
  "▁type": 1916,
  "mar": 1918,
  "▁vis": 1919,
  "www": 1920,
  "ours": 1921,
  "titu": 1922,
  "rd": 1924,
  "ino": 1925,
  "▁mat": 1926,
  "▁If": 1927,
  "word": 1928,
  "function": 1929,
  "zy": 1930,
  "▁say": 1931,
  "era": 1932,
  "aligned": 1933,
  "size": 1934,
  "lig": 1935,
  "net": 1936,
  "▁Mar": 1937,
  "▁want": 1938,
  "▁Po": 1940,
  "▁those": 1941,
  "▁found": 1942,
  "ür": 1943,
  "amb": 1944,
  "rite": 1945,
  "Reply": 1946,
  "ero": 1947,
  "orn": 1948,
  "He": 1949,
  "come": 1951,
  "▁Col": 1952,
  "ased": 1953,
  "sible": 1954,
  "logy": 1955,
  "▁dec": 1956,
  "▁je": 1957,
  "▁mod": 1958,
  "less": 1959,
  "ras": 1960,
  "mm": 1961,
  "▁ca": 1962,
  "▁best": 1963,
  "▁ho": 1965,
  "▁sal": 1966,
  "OL": 1967,
  "An": 1969,
  "AG": 1970,
  "ccess": 1971,
  "ane": 1972,
  "string": 1973,
  "sions": 1974,
  "Po": 1975,
  "dif": 1977,
  "▁lar": 1978,
  "rr": 1979,
  "▁too": 1980,
  "util": 1981,
  "▁pour": 1982,
  "▁cap": 1983,
  "Ab": 1984,
  "▁bus": 1986,
  "▁take": 1987,
  "rop": 1988,
  "ats": 1989,
  "kan": 1990,
  "fault": 1991,
  "oun": 1992,
  "▁On": 1993,
  "ante": 1994,
  "ND": 1995,
  "tical": 1996,
  "▁own": 1997,
  "sive": 1998,
  "dis": 1999,
  "main": 2000,
  "▁last": 2001,
  "ida": 2002,
  "▁water": 2003,
  "▁must": 2004,
  "▁But": 2005,
  "ux": 2006,
  "▁ear": 2007,
  "▁cas": 2008,
  "▁Ad": 2009,
  "▁Tr": 2010,
  "▁self": 2011,
  "ized": 2012,
  "lin": 2013,
  "Test": 2015,
  "▁dep": 2016,
  "▁line": 2017,
  "inter": 2018,
  "UN": 2019,
  "umb": 2020,
  "▁Su": 2021,
  "▁static": 2022,
  "ando": 2023,
  "Le": 2025,
  "CH": 2026,
  "▁act": 2027,
  "▁Man": 2028,
  "▁ins": 2029,
  "ui": 2030,
  "IL": 2031,
  "▁son": 2032,
  "key": 2033,
  "ko": 2034,
  "▁sign": 2035,
  "▁war": 2036,
  "lie": 2037,
  "OT": 2038,
  "une": 2039,
  "▁place": 2040,
  "▁cer": 2041,
  "vity": 2042,
  "side": 2043,
  "▁App": 2044,
  "You": 2045,
  "ister": 2046,
  "▁child": 2047,
  "▁final": 2048,
  "IM": 2049,
  "ards": 2050,
  "ior": 2051,
  "▁dan": 2052,
  "▁post": 2053,
  "ross": 2054,
  "OS": 2055,
  "▁acti": 2056,
  "ateg": 2057,
  "Des": 2058,
  "▁cl": 2059,
  "▁run": 2060,
  "ences": 2061,
  "▁come": 2063,
  "▁vari": 2064,
  "▁Be": 2065,
  "▁rest": 2066,
  "▁string": 2067,
  "cept": 2068,
  "ba": 2070,
  "alk": 2071,
  "▁Par": 2072,
  "loy": 2073,
  "▁serv": 2075,
  "▁still": 2076,
  "td": 2077,
  "▁home": 2078,
  "And": 2079,
  "AB": 2080,
  "omen": 2081,
  "▁vo": 2082,
  "▁inf": 2083,
  "ration": 2084,
  "aterial": 2085,
  "rag": 2086,
  "▁inst": 2088,
  "itor": 2089,
  "▁proble": 2090,
  "▁model": 2091,
  "ety": 2092,
  "IG": 2093,
  "package": 2094,
  "ways": 2095,
  "▁sho": 2096,
  "label": 2097,
  "lace": 2098,
  "rist": 2099,
  "▁bel": 2100,
  "App": 2101,
  "▁conf": 2103,
  "ient": 2104,
  "▁Mo": 2105,
  "face": 2106,
  "▁cho": 2107,
  "▁Se": 2108,
  "ump": 2109,
  "▁mark": 2110,
  "ike": 2111,
  "ished": 2112,
  "▁information": 2113,
  "ict": 2114,
  "▁develop": 2115,
  "▁view": 2116,
  "ling": 2117,
  "ense": 2118,
  "lish": 2119,
  "OD": 2120,
  "▁test": 2121,
  "On": 2122,
  "ying": 2123,
  "▁Is": 2125,
  "Int": 2126,
  "ches": 2127,
  "vaila": 2128,
  "lement": 2131,
  "▁Un": 2132,
  "GR": 2133,
  "▁world": 2134,
  "ground": 2135,
  "los": 2137,
  "itu": 2138,
  "vern": 2139,
  "stract": 2140,
  "oft": 2141,
  "▁let": 2142,
  "other": 2143,
  "▁both": 2145,
  "▁inv": 2147,
  "▁OF": 2148,
  "▁three": 2149,
  "ality": 2150,
  "Hi": 2151,
  "Item": 2152,
  "ref": 2153,
  "ints": 2154,
  "Set": 2155,
  "ually": 2156,
  "pi": 2157,
  "py": 2158,
  "Au": 2159,
  "▁ent": 2160,
  "pen": 2162,
  "ye": 2163,
  "org": 2164,
  "Table": 2165,
  "▁far": 2166,
  "▁different": 2167,
  "body": 2168,
  "As": 2169,
  "ita": 2170,
  "▁contin": 2171,
  "▁row": 2172,
  "▁non": 2173,
  "▁open": 2174,
  "otal": 2175,
  "▁using": 2177,
  "uro": 2178,
  "Bu": 2179,
  "Exception": 2180,
  "olution": 2181,
  "▁love": 2182,
  "▁while": 2183,
  "▁order": 2184,
  "▁process": 2185,
  "▁old": 2187,
  "jo": 2188,
  "can": 2189,
  "▁em": 2190,
  "bar": 2191,
  "lient": 2193,
  "ya": 2194,
  "test": 2195,
  "▁result": 2196,
  "dia": 2197,
  "▁appro": 2198,
  "hes": 2199,
  "tact": 2200,
  "▁fri": 2201,
  "▁return": 2203,
  "▁word": 2204,
  "acter": 2205,
  "▁head": 2206,
  "kes": 2207,
  "ages": 2208,
  "clud": 2209,
  "tis": 2210,
  "▁met": 2211,
  "▁care": 2212,
  "tel": 2214,
  "cher": 2215,
  "ora": 2216,
  "ager": 2217,
  "▁mit": 2218,
  "▁bre": 2220,
  "▁La": 2221,
  "path": 2222,
  "▁free": 2223,
  "User": 2224,
  "Tr": 2225,
  "Qu": 2226,
  "ley": 2227,
  "▁oper": 2228,
  "▁happ": 2229,
  "Ind": 2230,
  "tes": 2231,
  "▁von": 2232,
  "top": 2234,
  "ries": 2235,
  "anti": 2236,
  "▁van": 2237,
  "▁start": 2238,
  "▁En": 2239,
  "tage": 2240,
  "ponse": 2242,
  "pg": 2243,
  "▁Car": 2244,
  "▁fun": 2245,
  "▁incre": 2246,
  "▁full": 2247,
  "▁gre": 2248,
  "▁stand": 2249,
  "▁How": 2250,
  "▁fac": 2251,
  "▁fact": 2252,
  "▁pur": 2253,
  "entr": 2254,
  "http": 2255,
  "Value": 2256,
  "▁second": 2257,
  "perty": 2258,
  "dy": 2259,
  "vailable": 2261,
  "▁All": 2262,
  "ining": 2263,
  "ille": 2264,
  "cript": 2265,
  "ouble": 2266,
  "▁top": 2267,
  "car": 2269,
  "▁case": 2270,
  "ement": 2271,
  "from": 2273,
  "nder": 2274,
  "ación": 2275,
  "▁pu": 2276,
  "▁really": 2277,
  "lue": 2278,
  "▁ref": 2279,
  "IV": 2281,
  "Time": 2282,
  "▁IN": 2284,
  "ism": 2285,
  "ali": 2287,
  "char": 2288,
  "ident": 2289,
  "▁during": 2290,
  "tics": 2291,
  "▁prof": 2292,
  "ram": 2293,
  "▁public": 2294,
  "rt": 2295,
  "umn": 2296,
  "▁bea": 2298,
  "How": 2299,
  "versity": 2300,
  "▁small": 2301,
  "▁ide": 2302,
  "ker": 2303,
  "ooks": 2305,
  "▁stock": 2306,
  "▁pass": 2307,
  "order": 2308,
  "core": 2309,
  "lection": 2310,
  "ano": 2311,
  "ffer": 2313,
  "action": 2314,
  "gle": 2315,
  "▁THE": 2317,
  "▁zu": 2318,
  "▁going": 2319,
  "irc": 2322,
  "▁poli": 2323,
  "mic": 2324,
  "ales": 2325,
  "ender": 2326,
  "lex": 2327,
  "▁Au": 2328,
  "▁state": 2329,
  "Un": 2331,
  "▁ext": 2332,
  "▁bar": 2333,
  "mod": 2335,
  "cus": 2336,
  "cks": 2337,
  "duct": 2338,
  "So": 2339,
  "vir": 2340,
  "Add": 2341,
  "ds": 2342,
  "▁star": 2343,
  "▁sy": 2345,
  "▁without": 2346,
  "fil": 2347,
  "▁pra": 2349,
  "▁parti": 2350,
  "▁next": 2351,
  "ben": 2352,
  "▁Inter": 2353,
  "▁dri": 2354,
  "ito": 2355,
  "▁little": 2356,
  "ohn": 2358,
  "▁organ": 2359,
  "▁une": 2360,
  "▁Sp": 2361,
  "ima": 2362,
  "tim": 2363,
  "▁Or": 2364,
  "▁They": 2365,
  "State": 2366,
  "▁Eng": 2367,
  "ones": 2368,
  "▁consider": 2369,
  "▁method": 2370,
  "▁got": 2371,
  "▁commun": 2372,
  "imes": 2373,
  "▁iss": 2374,
  "▁feel": 2375,
  "ived": 2376,
  "▁point": 2377,
  "▁um": 2378,
  "▁US": 2379,
  "Lo": 2380,
  "icht": 2381,
  "leg": 2382,
  "igure": 2383,
  "▁power": 2384,
  "▁dé": 2385,
  "site": 2386,
  "tig": 2387,
  "SE": 2388,
  "▁lead": 2389,
  "▁Do": 2390,
  "pper": 2391,
  "stand": 2392,
  "cons": 2393,
  "Get": 2394,
  "▁size": 2395,
  "ção": 2396,
  "Man": 2397,
  "▁game": 2398,
  "▁Per": 2399,
  "▁tech": 2400,
  "▁org": 2401,
  "lat": 2402,
  "▁level": 2403,
  "Hel": 2405,
  "ference": 2406,
  "▁med": 2407,
  "nel": 2408,
  "▁call": 2409,
  "▁orig": 2410,
  "arget": 2411,
  "▁following": 2412,
  "ulation": 2413,
  "bor": 2414,
  "▁Sch": 2415,
  "▁image": 2416,
  "iter": 2417,
  "▁respon": 2418,
  "▁Amer": 2420,
  "uct": 2421,
  "sk": 2423,
  "cing": 2424,
  "▁user": 2425,
  "graph": 2427,
  "bit": 2428,
  "All": 2430,
  "outh": 2431,
  "▁rece": 2432,
  "ques": 2433,
  "gr": 2434,
  "els": 2435,
  "summary": 2436,
  "Is": 2437,
  "ought": 2438,
  "▁What": 2439,
  "Not": 2440,
  "New": 2441,
  "illa": 2442,
  "enn": 2444,
  "cel": 2445,
  "rs": 2446,
  "▁never": 2447,
  "Be": 2448,
  "▁around": 2449,
  "zen": 2450,
  "▁flo": 2451,
  "▁anal": 2452,
  "▁android": 2453,
  "lication": 2454,
  "▁There": 2456,
  "url": 2457,
  "▁cost": 2458,
  "▁qui": 2459,
  "ential": 2460,
  "ée": 2461,
  "light": 2462,
  "▁pop": 2463,
  "ization": 2465,
  "▁Ver": 2466,
  "yl": 2467,
  "https": 2468,
  "Key": 2469,
  "sign": 2470,
  "Thanks": 2471,
  "oney": 2472,
  "bs": 2473,
  "▁current": 2474,
  "▁She": 2475,
  "ido": 2476,
  "tom": 2478,
  "bi": 2479,
  "▁design": 2480,
  "▁Des": 2481,
  "▁file": 2482,
  "oci": 2483,
  "▁prote": 2484,
  "fi": 2485,
  "ware": 2486,
  "Service": 2489,
  "▁provi": 2490,
  "nh": 2491,
  "▁school": 2493,
  "Model": 2494,
  "If": 2495,
  "▁yang": 2496,
  "▁das": 2497,
  "▁att": 2498,
  "▁dans": 2499,
  "▁build": 2500,
  "image": 2502,
  "orth": 2503,
  "Date": 2504,
  "▁bro": 2505,
  "▁available": 2506,
  "▁put": 2507,
  "ched": 2508,
  "uman": 2509,
  "▁Qu": 2510,
  "▁vol": 2511,
  "rror": 2512,
  "▁Bo": 2513,
  "▁month": 2514,
  "▁II": 2515,
  "model": 2516,
  "▁mer": 2517,
  "af": 2518,
  "▁mus": 2519,
  "IP": 2520,
  "▁tre": 2521,
  "idad": 2522,
  "▁pay": 2523,
  "▁Ab": 2524,
  "▁better": 2525,
  "pping": 2526,
  "html": 2527,
  "ury": 2528,
  "nal": 2529,
  "Object": 2531,
  "▁shi": 2532,
  "▁Fran": 2533,
  "wa": 2534,
  "arn": 2535,
  "tails": 2536,
  "rodu": 2537,
  "ffic": 2539,
  "tif": 2540,
  "mission": 2541,
  "Size": 2542,
  "book": 2545,
  "ding": 2547,
  "▁eas": 2548,
  "▁another": 2550,
  "▁Can": 2551,
  "frac": 2552,
  "equ": 2553,
  "▁cam": 2554,
  "▁Sh": 2555,
  "Or": 2556,
  "▁super": 2557,
  "▁hist": 2558,
  "án": 2559,
  "duction": 2560,
  "▁hum": 2561,
  "▁Ge": 2562,
  "title": 2563,
  "code": 2564,
  "▁cent": 2565,
  "▁service": 2566,
  "▁business": 2567,
  "▁Ph": 2568,
  "▁Tra": 2569,
  "▁como": 2570,
  "lor": 2571,
  "▁bas": 2572,
  "pped": 2573,
  "ticle": 2574,
  "▁tu": 2575,
  "trans": 2576,
  "▁ben": 2578,
  "Su": 2579,
  "ico": 2581,
  "▁control": 2582,
  "EC": 2584,
  "SC": 2585,
  "▁mis": 2586,
  "▁pat": 2587,
  "▁occ": 2588,
  "IST": 2589,
  "▁leg": 2590,
  "▁htt": 2591,
  "▁fr": 2592,
  "▁always": 2593,
  "▁ou": 2595,
  "lar": 2596,
  "len": 2597,
  "ideo": 2598,
  "▁item": 2599,
  "ATION": 2600,
  "ams": 2601,
  "▁page": 2602,
  "vely": 2605,
  "▁Gu": 2606,
  "UL": 2608,
  "cor": 2610,
  "▁light": 2611,
  "Dis": 2612,
  "▁might": 2613,
  "▁fra": 2614,
  "max": 2615,
  "mas": 2616,
  "▁few": 2619,
  "ala": 2620,
  "▁key": 2621,
  "System": 2622,
  "▁har": 2623,
  "▁ima": 2624,
  "▁At": 2625,
  "state": 2626,
  "pport": 2627,
  "▁ev": 2628,
  "▁includ": 2630,
  "search": 2631,
  "mente": 2632,
  "index": 2633,
  "Cons": 2634,
  "where": 2635,
  "iones": 2637,
  "cent": 2638,
  "▁ang": 2639,
  "▁ist": 2641,
  "ose": 2642,
  "emp": 2643,
  "▁less": 2644,
  "abel": 2646,
  "ious": 2647,
  "uf": 2648,
  "▁Che": 2649,
  "Che": 2650,
  "lot": 2651,
  "▁things": 2652,
  "rat": 2653,
  "atter": 2654,
  "▁black": 2656,
  "cul": 2657,
  "▁mil": 2658,
  "▁Cal": 2659,
  "▁gr": 2660,
  "kt": 2661,
  "lobal": 2663,
  "▁grow": 2664,
  "urch": 2665,
  "ache": 2666,
  "result": 2667,
  "▁Cha": 2668,
  "▁change": 2669,
  "▁Ste": 2670,
  "ione": 2671,
  "off": 2672,
  "bt": 2673,
  "▁white": 2674,
  "input": 2675,
  "▁support": 2676,
  "▁Sec": 2677,
  "ech": 2678,
  "itle": 2679,
  "atures": 2680,
  "▁air": 2681,
  "▁os": 2682,
  "ann": 2683,
  "rect": 2684,
  "loc": 2685,
  "▁photo": 2686,
  "▁pot": 2688,
  "ids": 2689,
  "▁against": 2691,
  "GRAM": 2693,
  "II": 2694,
  "ail": 2695,
  "vice": 2696,
  "pose": 2697,
  "lation": 2698,
  "ience": 2699,
  "map": 2700,
  "▁check": 2701,
  "ony": 2702,
  "▁Ne": 2703,
  "mu": 2704,
  "▁days": 2705,
  "▁var": 2706,
  "▁sum": 2707,
  "▁cri": 2708,
  "▁jo": 2709,
  "eder": 2710,
  "▁prin": 2711,
  "ources": 2712,
  "▁area": 2713,
  "▁mean": 2714,
  "sy": 2715,
  "IR": 2716,
  "▁hal": 2717,
  "▁const": 2718,
  "ku": 2719,
  "File": 2720,
  "ression": 2721,
  "▁field": 2725,
  "▁ind": 2726,
  "oman": 2727,
  "Up": 2728,
  "post": 2729,
  "▁family": 2730,
  "▁left": 2731,
  "▁program": 2733,
  "▁give": 2734,
  "dos": 2735,
  "▁auf": 2736,
  "length": 2737,
  "thers": 2738,
  "▁ng": 2739,
  "viron": 2740,
  "ky": 2741,
  "▁Go": 2742,
  "ible": 2743,
  "▁web": 2744,
  "▁keep": 2745,
  "▁err": 2746,
  "▁ber": 2747,
  "sc": 2748,
  "uti": 2749,
  "sta": 2750,
  "rc": 2751,
  "ently": 2752,
  "ira": 2753,
  "▁since": 2754,
  "▁plus": 2755,
  "ison": 2756,
  "source": 2757,
  "lich": 2758,
  "ctive": 2759,
  "▁memb": 2760,
  "At": 2761,
  "ican": 2763,
  "▁given": 2764,
  "▁allow": 2765,
  "vernment": 2766,
  "roller": 2767,
  "▁Pre": 2769,
  "ories": 2771,
  "ysis": 2772,
  "Field": 2773,
  "Requ": 2774,
  "▁something": 2775,
  "▁group": 2778,
  "orld": 2780,
  "ingle": 2781,
  "▁May": 2782,
  "zz": 2784,
  "▁four": 2785,
  "Tra": 2786,
  "▁week": 2788,
  "angu": 2789,
  "mos": 2790,
  "width": 2791,
  "▁won": 2792,
  "▁text": 2793,
  "her": 2794,
  "Do": 2795,
  "ities": 2796,
  "▁ten": 2797,
  "▁ni": 2798,
  "conom": 2799,
  "▁sing": 2800,
  "bab": 2801,
  "▁writ": 2802,
  "▁sol": 2803,
  "times": 2805,
  "▁appe": 2806,
  "Map": 2807,
  "▁chang": 2808,
  "rie": 2809,
  "▁El": 2810,
  "▁hard": 2811,
  "asure": 2812,
  "▁local": 2813,
  "▁conne": 2815,
  "▁sus": 2816,
  "▁require": 2817,
  "Stat": 2818,
  "▁within": 2819,
  "ario": 2820,
  "▁sure": 2821,
  "Ed": 2822,
  "ately": 2823,
  "▁big": 2824,
  "uel": 2825,
  "ua": 2826,
  "cur": 2827,
  "eting": 2828,
  "Button": 2829,
  "ICTO": 2830,
  "ites": 2831,
  "agement": 2832,
  "js": 2833,
  "ked": 2834,
  "▁present": 2835,
  "▁dem": 2836,
  "▁Pri": 2837,
  "ols": 2838,
  "quest": 2839,
  "▁land": 2840,
  "La": 2841,
  "▁bir": 2843,
  "gi": 2844,
  "▁important": 2845,
  "▁pi": 2846,
  "jects": 2848,
  "quad": 2849,
  "unt": 2850,
  "position": 2851,
  "LO": 2852,
  "cto": 2853,
  "maz": 2854,
  "ste": 2855,
  "opy": 2856,
  "▁side": 2857,
  "▁kind": 2858,
  "vious": 2859,
  "endif": 2860,
  "▁though": 2862,
  "field": 2863,
  "ör": 2864,
  "▁doc": 2865,
  "AY": 2866,
  "ama": 2867,
  "OW": 2869,
  "▁book": 2870,
  "UM": 2871,
  "▁question": 2872,
  "ICTOGRAM": 2873,
  "Page": 2874,
  "Error": 2876,
  "▁uni": 2877,
  "raph": 2878,
  "▁aff": 2880,
  "▁color": 2881,
  "ged": 2882,
  "ney": 2884,
  "creen": 2885,
  "▁sch": 2887,
  "▁contain": 2888,
  "▁says": 2889,
  "cm": 2890,
  "ready": 2891,
  "ptions": 2892,
  "▁material": 2893,
  "▁turn": 2894,
  "▁University": 2895,
  "cell": 2896,
  "ln": 2897,
  "oly": 2898,
  "IF": 2899,
  "▁Dis": 2900,
  "▁Mic": 2901,
  "att": 2902,
  "▁cou": 2903,
  "▁fore": 2904,
  "▁custom": 2905,
  "▁ce": 2906,
  "bed": 2907,
  "dies": 2908,
  "lete": 2909,
  "▁large": 2910,
  "ponent": 2911,
  "▁law": 2912,
  "Out": 2913,
  "Color": 2915,
  "▁Min": 2916,
  "vec": 2917,
  "▁aus": 2918,
  "▁rowspan": 2919,
  "while": 2920,
  "▁ST": 2921,
  "resent": 2922,
  "Per": 2923,
  "▁av": 2924,
  "▁Cont": 2925,
  "My": 2926,
  "▁mas": 2927,
  "cep": 2928,
  "iled": 2929,
  "Context": 2930,
  "move": 2931,
  "▁Bu": 2932,
  "ances": 2933,
  "▁Med": 2934,
  "itial": 2935,
  "jor": 2936,
  "subsection": 2938,
  "color": 2939,
  "▁lot": 2940,
  "▁eng": 2941,
  "▁nat": 2942,
  "▁für": 2943,
  "nen": 2944,
  "OP": 2945,
  "ording": 2946,
  "ilder": 2948,
  "db": 2949,
  "én": 2950,
  "▁arch": 2951,
  "▁cannot": 2952,
  "▁mor": 2953,
  "cle": 2954,
  "Info": 2955,
  "TH": 2956,
  "earch": 2957,
  "ormal": 2958,
  "▁pan": 2959,
  "▁food": 2960,
  "▁My": 2961,
  "▁health": 2962,
  "then": 2963,
  "vin": 2964,
  "▁room": 2965,
  "oogle": 2966,
  "är": 2967,
  "▁max": 2968,
  "▁team": 2970,
  "▁body": 2971,
  "CE": 2972,
  "eter": 2973,
  "ham": 2975,
  "esti": 2976,
  "ona": 2977,
  "room": 2978,
  "rin": 2979,
  "cos": 2980,
  "▁Cor": 2982,
  "▁cla": 2983,
  "▁bra": 2984,
  "ules": 2986,
  "ii": 2987,
  "hal": 2988,
  "Read": 2989,
  "han": 2990,
  "tack": 2991,
  "▁God": 2992,
  "IA": 2993,
  "assert": 2994,
  "▁That": 2995,
  "ither": 2996,
  "start": 2997,
  "ula": 2998,
  "Log": 2999,
  "ese": 3000,
  "▁range": 3001,
  "ending": 3002,
  "▁Ma": 3003,
  "zer": 3004,
  "▁DE": 3005,
  "▁offic": 3006,
  "sib": 3007,
  "▁pen": 3008,
  "ribute": 3009,
  "Code": 3010,
  "▁cli": 3011,
  "indows": 3012,
  "ions": 3014,
  "▁done": 3015,
  "Ver": 3016,
  "ync": 3017,
  "▁near": 3018,
  "▁ré": 3019,
  "Se": 3021,
  "▁times": 3023,
  "▁away": 3024,
  "witch": 3026,
  "▁cell": 3027,
  "doc": 3028,
  "▁Pa": 3029,
  "img": 3030,
  "▁sem": 3032,
  "ULL": 3033,
  "eak": 3034,
  "Pre": 3035,
  "▁house": 3036,
  "▁table": 3037,
  "ette": 3039,
  "▁State": 3040,
  "with": 3041,
  "serv": 3042,
  "▁contra": 3044,
  "▁Mr": 3046,
  "aring": 3047,
  "▁whe": 3048,
  "bin": 3049,
  "uly": 3050,
  "▁total": 3051,
  "▁Bar": 3053,
  "▁upon": 3054,
  "num": 3056,
  "box": 3057,
  "▁ris": 3059,
  "artment": 3060,
  "▁Mon": 3061,
  "▁struct": 3062,
  "chan": 3063,
  "Array": 3064,
  "mark": 3065,
  "px": 3067,
  "uri": 3068,
  "▁children": 3069,
  "▁ill": 3070,
  "▁event": 3071,
  "▁auto": 3072,
  "EST": 3073,
  "Count": 3074,
  "fun": 3075,
  "resh": 3076,
  "▁possible": 3077,
  "Co": 3078,
  "Index": 3079,
  "IO": 3080,
  "ilar": 3081,
  "▁Stu": 3082,
  "Loc": 3083,
  "DE": 3084,
  "SP": 3085,
  "lit": 3087,
  "Mod": 3088,
  "▁chi": 3089,
  "▁effec": 3090,
  "▁jpg": 3091,
  "▁pare": 3092,
  "exp": 3093,
  "ases": 3094,
  "pass": 3095,
  "▁art": 3096,
  "▁default": 3097,
  "▁cover": 3098,
  "vision": 3099,
  "▁Reg": 3100,
  "tific": 3101,
  "ghts": 3102,
  "▁multi": 3103,
  "▁create": 3104,
  "▁action": 3105,
  "oolean": 3106,
  "▁Lo": 3107,
  "vironment": 3108,
  "uture": 3109,
  "▁clear": 3110,
  "ERS": 3111,
  "TER": 3112,
  "▁sever": 3113,
  "▁perform": 3114,
  "Image": 3115,
  "lag": 3116,
  "▁net": 3117,
  "▁red": 3118,
  "▁exist": 3120,
  "arg": 3121,
  "stance": 3122,
  "tag": 3123,
  "▁move": 3124,
  "▁clo": 3125,
  "ports": 3126,
  "▁social": 3127,
  "pter": 3128,
  "ditional": 3129,
  "ables": 3130,
  "▁above": 3131,
  "nes": 3132,
  "▁enti": 3133,
  "Click": 3135,
  "enta": 3136,
  "pan": 3137,
  "cket": 3138,
  "national": 3139,
  "uration": 3140,
  "▁Ed": 3141,
  "▁face": 3142,
  "rown": 3144,
  "▁colspan": 3146,
  "zo": 3147,
  "struct": 3148,
  "▁sen": 3149,
  "met": 3150,
  "▁called": 3151,
  "run": 3153,
  "Source": 3154,
  "wards": 3155,
  "full": 3156,
  "▁gen": 3157,
  "pha": 3158,
  "create": 3159,
  "bf": 3160,
  "older": 3164,
  "▁why": 3165,
  "▁thing": 3166,
  "ql": 3167,
  "ically": 3168,
  "ests": 3169,
  "▁country": 3170,
  "That": 3171,
  "▁deter": 3172,
  "▁sat": 3173,
  "rict": 3174,
  "Lay": 3177,
  "▁low": 3178,
  "Of": 3179,
  "otes": 3180,
  "ypes": 3181,
  "ental": 3182,
  "ency": 3184,
  "▁account": 3185,
  "▁special": 3186,
  "ên": 3187,
  "▁practi": 3188,
  "urns": 3189,
  "▁results": 3190,
  "Ser": 3191,
  "With": 3192,
  "▁deli": 3193,
  "▁When": 3194,
  "▁Val": 3195,
  "cles": 3196,
  "Reg": 3197,
  "counter": 3199,
  "ace": 3200,
  "air": 3201,
  "yd": 3202,
  "▁stu": 3203,
  "▁Ins": 3204,
  "▁course": 3205,
  "pare": 3206,
  "Box": 3207,
  "ional": 3208,
  "▁date": 3209,
  "▁problem": 3210,
  "orts": 3211,
  "has": 3212,
  "▁shall": 3213,
  "▁employ": 3215,
  "war": 3216,
  "Pri": 3218,
  "ral": 3219,
  "urther": 3220,
  "▁review": 3221,
  "▁base": 3222,
  "posed": 3223,
  "licy": 3224,
  "▁product": 3225,
  "▁fav": 3226,
  "▁nil": 3227,
  "▁AND": 3228,
  "gether": 3230,
  "▁Not": 3232,
  "▁hy": 3233,
  "idual": 3234,
  "▁mi": 3236,
  "oper": 3237,
  "ires": 3238,
  "link": 3239,
  "dio": 3240,
  "cht": 3241,
  "▁stre": 3242,
  "dep": 3243,
  "ena": 3246,
  "▁abs": 3247,
  "▁ju": 3248,
  "export": 3249,
  "▁San": 3250,
  "ditions": 3252,
  "ried": 3253,
  "tice": 3254,
  "▁offer": 3255,
  "ados": 3256,
  "▁perio": 3257,
  "▁anti": 3258,
  "▁ann": 3259,
  "illion": 3260,
  "▁nu": 3261,
  "peed": 3262,
  "ills": 3263,
  "lished": 3265,
  "▁más": 3267,
  "mt": 3268,
  "Inter": 3269,
  "▁sin": 3270,
  "true": 3271,
  "ento": 3272,
  "▁interest": 3273,
  "▁until": 3274,
  "El": 3275,
  "yes": 3276,
  "▁company": 3277,
  "▁mom": 3278,
  "▁With": 3279,
  "▁direct": 3280,
  "▁experience": 3281,
  "ité": 3282,
  "asi": 3283,
  "tre": 3284,
  "▁character": 3285,
  "utes": 3286,
  "▁example": 3287,
  "▁thi": 3288,
  "Ste": 3289,
  "gar": 3291,
  "▁inte": 3292,
  "▁begin": 3293,
  "▁gir": 3294,
  "info": 3296,
  "▁bit": 3298,
  "Component": 3300,
  "▁Rep": 3301,
  "imal": 3302,
  "▁already": 3303,
  "Event": 3304,
  "Request": 3305,
  "▁seem": 3307,
  "▁short": 3309,
  "next": 3310,
  "▁general": 3311,
  "content": 3312,
  "irm": 3313,
  "rows": 3314,
  "riter": 3315,
  "sw": 3316,
  "ected": 3317,
  "OV": 3318,
  "ATE": 3319,
  "▁study": 3320,
  "Message": 3321,
  "default": 3322,
  "page": 3323,
  "▁dra": 3324,
  "status": 3325,
  "▁able": 3326,
  "json": 3327,
  "PE": 3328,
  "verse": 3329,
  "▁impro": 3330,
  "umi": 3331,
  "ESS": 3332,
  "▁error": 3333,
  "board": 3334,
  "cs": 3335,
  "▁ali": 3336,
  "▁tell": 3337,
  "▁bad": 3338,
  "▁By": 3339,
  "Ro": 3340,
  "▁indust": 3341,
  "Class": 3342,
  "▁enter": 3343,
  "▁Har": 3344,
  "hand": 3345,
  "▁Dep": 3346,
  "▁indic": 3347,
  "▁identi": 3348,
  "▁bot": 3349,
  "▁John": 3350,
  "Sub": 3351,
  "▁array": 3352,
  "lid": 3353,
  "▁night": 3354,
  "▁og": 3355,
  "▁job": 3356,
  "ming": 3357,
  "▁sw": 3358,
  "▁including": 3359,
  "ging": 3360,
  "▁success": 3361,
  "medi": 3362,
  "CC": 3363,
  "▁ever": 3364,
  "▁catch": 3365,
  "▁ener": 3366,
  "ball": 3367,
  "ides": 3368,
  "static": 3369,
  "▁money": 3370,
  "point": 3371,
  "▁having": 3372,
  "▁bal": 3373,
  "ounds": 3374,
  "joy": 3375,
  "▁break": 3376,
  "▁cm": 3377,
  "gre": 3378,
  "▁press": 3379,
  "tri": 3380,
  "▁content": 3381,
  "▁indiv": 3382,
  "▁certain": 3383,
  "▁partic": 3384,
  "▁hold": 3385,
  "▁pack": 3386,
  "▁close": 3387,
  "super": 3388,
  "init": 3389,
  "TS": 3391,
  "▁came": 3392,
  "▁som": 3393,
  "sia": 3394,
  "ford": 3395,
  "TON": 3396,
  "pm": 3397,
  "append": 3398,
  "IB": 3399,
  "▁bes": 3400,
  "▁mem": 3401,
  "▁due": 3402,
  "▁mind": 3403,
  "ban": 3405,
  "ade": 3406,
  "▁complete": 3407,
  "lected": 3408,
  "▁code": 3409,
  "▁vi": 3410,
  "▁style": 3411,
  "▁tal": 3412,
  "▁city": 3413,
  "Cre": 3415,
  "▁later": 3416,
  "▁Jan": 3417,
  "▁try": 3418,
  "▁dat": 3419,
  "▁thought": 3421,
  "most": 3422,
  "zi": 3423,
  "ferences": 3424,
  "▁cook": 3425,
  "▁author": 3426,
  "osp": 3427,
  "▁One": 3428,
  "cies": 3429,
  "anguage": 3430,
  "Node": 3432,
  "▁past": 3433,
  "▁working": 3434,
  "ecu": 3435,
  "ilt": 3436,
  "▁extra": 3437,
  "▁belie": 3438,
  "lies": 3439,
  "▁site": 3440,
  "▁dig": 3441,
  "df": 3442,
  "▁taken": 3443,
  "endo": 3444,
  "▁Euro": 3445,
  "close": 3446,
  "▁answer": 3448,
  "ife": 3449,
  "FF": 3450,
  "ov": 3451,
  "▁recom": 3452,
  "bra": 3453,
  "▁means": 3454,
  "▁arg": 3456,
  "urg": 3457,
  "▁Ser": 3458,
  "▁York": 3459,
  "▁necess": 3460,
  "spec": 3461,
  "pes": 3462,
  "show": 3463,
  "▁original": 3464,
  "▁mid": 3465,
  "▁fund": 3466,
  "cen": 3467,
  "▁perf": 3468,
  "Ph": 3469,
  "TEXT": 3470,
  "fri": 3471,
  "atal": 3472,
  "▁vous": 3473,
  "parent": 3474,
  "TR": 3475,
  "▁least": 3476,
  "▁pod": 3478,
  "Def": 3479,
  "context": 3480,
  "Fe": 3481,
  "▁based": 3482,
  "▁report": 3484,
  "▁gran": 3485,
  "▁young": 3486,
  "▁tou": 3487,
  "▁List": 3488,
  "sa": 3489,
  "▁sou": 3490,
  "bert": 3491,
  "Path": 3492,
  "There": 3493,
  "elt": 3494,
  "sha": 3495,
  "style": 3497,
  "▁Sha": 3498,
  "▁Ass": 3500,
  "nya": 3501,
  "▁reco": 3504,
  "▁development": 3505,
  "eneral": 3506,
  "▁Int": 3507,
  "▁understand": 3508,
  "flo": 3509,
  "elle": 3510,
  "▁Es": 3511,
  "▁Get": 3512,
  "▁continu": 3513,
  "lip": 3514,
  "▁human": 3515,
  "▁treat": 3516,
  "Pros": 3517,
  "▁situ": 3518,
  "▁reason": 3519,
  "▁United": 3520,
  "aster": 3521,
  "▁Count": 3522,
  "ategory": 3523,
  "▁pub": 3524,
  "AGE": 3525,
  "vas": 3526,
  "▁didn": 3528,
  "▁port": 3530,
  "place": 3531,
  "▁visit": 3532,
  "over": 3533,
  "check": 3534,
  "▁Ber": 3535,
  "AV": 3536,
  "sts": 3537,
  "oud": 3538,
  "uer": 3539,
  "Gener": 3540,
  "ère": 3541,
  "▁project": 3542,
  "▁concer": 3543,
  "cd": 3544,
  "▁services": 3545,
  "Sele": 3546,
  "▁making": 3547,
  "hel": 3549,
  "ned": 3550,
  "▁hor": 3551,
  "▁blo": 3552,
  "Yes": 3553,
  "▁det": 3554,
  "▁nh": 3555,
  "ering": 3556,
  "▁esta": 3557,
  "▁Char": 3558,
  "tal": 3559,
  "names": 3560,
  "▁nicht": 3561,
  "leep": 3563,
  "api": 3564,
  "ector": 3565,
  "▁wer": 3566,
  "fin": 3567,
  "duc": 3568,
  "▁video": 3569,
  "▁tw": 3570,
  "idget": 3571,
  "▁ess": 3573,
  "CL": 3574,
  "hop": 3575,
  "▁women": 3576,
  "▁Ger": 3577,
  "cin": 3578,
  "▁thread": 3579,
  "▁het": 3580,
  "▁below": 3582,
  "▁together": 3584,
  "MA": 3585,
  "▁ta": 3586,
  "▁wall": 3587,
  "▁others": 3588,
  "current": 3589,
  "▁response": 3590,
  "▁proper": 3591,
  "lied": 3592,
  "Trans": 3593,
  "▁enough": 3594,
  "AND": 3596,
  "▁Cons": 3597,
  "▁works": 3598,
  "▁yet": 3599,
  "dem": 3600,
  "rea": 3601,
  "Description": 3602,
  "From": 3604,
  "ori": 3605,
  "ured": 3606,
  "ji": 3607,
  "cil": 3608,
  "▁bed": 3609,
  "▁Fe": 3610,
  "Can": 3611,
  "IE": 3612,
  "Group": 3613,
  "▁quality": 3614,
  "▁link": 3615,
  "PO": 3616,
  "▁educ": 3618,
  "▁amount": 3619,
  "group": 3620,
  "unk": 3621,
  "config": 3622,
  "▁PICTOGRAM": 3623,
  "▁seen": 3624,
  "imum": 3625,
  "SS": 3626,
  "Element": 3627,
  "query": 3630,
  "▁once": 3631,
  "PL": 3632,
  "▁avec": 3633,
  "▁pati": 3634,
  "▁RE": 3635,
  "▁Her": 3636,
  "base": 3637,
  "cience": 3638,
  "▁neg": 3639,
  "▁space": 3641,
  "Layout": 3643,
  "valid": 3644,
  "▁today": 3646,
  "child": 3647,
  "▁looking": 3648,
  "vie": 3649,
  "▁online": 3650,
  "▁cut": 3652,
  "▁hom": 3654,
  "find": 3655,
  "▁ir": 3656,
  "pril": 3657,
  "▁provide": 3658,
  "mal": 3659,
  "tainer": 3660,
  "▁record": 3661,
  "dle": 3662,
  "Back": 3663,
  "▁unt": 3664,
  "arr": 3665,
  "▁particular": 3666,
  "▁position": 3668,
  "cou": 3669,
  "▁Sie": 3670,
  "iste": 3671,
  "ume": 3672,
  "verage": 3674,
  "roduction": 3675,
  "logical": 3676,
  "▁espec": 3677,
  "Input": 3678,
  "▁research": 3679,
  "rel": 3680,
  "bl": 3682,
  "enu": 3683,
  "▁access": 3684,
  "▁live": 3685,
  "▁etc": 3687,
  "member": 3688,
  "lier": 3689,
  "▁required": 3690,
  "▁cra": 3691,
  "▁entre": 3692,
  "amples": 3693,
  "▁vir": 3694,
  "▁often": 3695,
  "▁More": 3696,
  "▁een": 3697,
  "Sp": 3698,
  "▁Ho": 3699,
  "▁sich": 3700,
  "▁Gra": 3702,
  "▁path": 3703,
  "down": 3704,
  "console": 3705,
  "▁econom": 3706,
  "▁include": 3707,
  "▁win": 3709,
  "frame": 3711,
  "▁price": 3712,
  "▁sil": 3713,
  "plate": 3714,
  "OC": 3715,
  "button": 3716,
  "▁Dr": 3718,
  "▁probab": 3719,
  "Abstract": 3720,
  "una": 3722,
  "▁specific": 3724,
  "▁American": 3725,
  "Car": 3726,
  "Web": 3728,
  "dir": 3729,
  "urity": 3730,
  "▁along": 3731,
  "tiv": 3732,
  "▁whole": 3733,
  "ressed": 3734,
  "ulture": 3735,
  "ctivity": 3736,
  "Label": 3737,
  "struction": 3738,
  "▁aw": 3739,
  "▁Ob": 3740,
  "▁box": 3741,
  "▁Pe": 3742,
  "▁please": 3743,
  "Config": 3744,
  "ixed": 3745,
  "ani": 3746,
  "lica": 3747,
  "Play": 3748,
  "▁personal": 3749,
  "Comp": 3751,
  "▁mes": 3752,
  "ened": 3753,
  "ès": 3756,
  "▁several": 3757,
  "Hand": 3758,
  "▁heart": 3760,
  "▁hours": 3763,
  "▁contact": 3764,
  "last": 3765,
  "▁These": 3766,
  "minist": 3767,
  "phi": 3768,
  "▁Comp": 3769,
  "yer": 3770,
  "UE": 3771,
  "▁input": 3772,
  "▁products": 3773,
  "▁arti": 3774,
  "▁foto": 3775,
  "▁Trans": 3776,
  "▁members": 3778,
  "▁strong": 3779,
  "ited": 3780,
  "▁flow": 3781,
  "▁points": 3782,
  "▁redu": 3783,
  "ño": 3784,
  "orage": 3785,
  "iving": 3786,
  "▁students": 3787,
  "▁Sep": 3788,
  "NA": 3789,
  "▁Mc": 3790,
  "Mar": 3793,
  "liz": 3794,
  "▁posi": 3795,
  "▁Sta": 3796,
  "▁version": 3797,
  "▁Cl": 3798,
  "avax": 3799,
  "Bar": 3800,
  "iver": 3801,
  "ists": 3802,
  "▁inclu": 3803,
  "▁Die": 3804,
  "ators": 3805,
  "▁fit": 3806,
  "dom": 3807,
  "Controller": 3808,
  "rix": 3809,
  "▁på": 3810,
  "▁individual": 3811,
  "anger": 3812,
  "false": 3813,
  "ré": 3814,
  "▁went": 3815,
  "▁signific": 3816,
  "PS": 3817,
  "▁common": 3818,
  "entral": 3819,
  "▁single": 3821,
  "cis": 3822,
  "Manager": 3823,
  "▁background": 3824,
  "▁discus": 3825,
  "valu": 3826,
  "PR": 3827,
  "▁Di": 3828,
  "eader": 3829,
  "▁benef": 3830,
  "▁become": 3831,
  "▁mal": 3832,
  "▁makes": 3833,
  "▁dos": 3834,
  "ledge": 3835,
  "▁known": 3836,
  "abase": 3837,
  "▁government": 3838,
  "bon": 3839,
  "request": 3840,
  "▁sent": 3841,
  "Sh": 3842,
  "Sec": 3844,
  "té": 3845,
  "▁log": 3846,
  "▁Cre": 3848,
  "author": 3849,
  "ially": 3850,
  "▁TO": 3851,
  "▁request": 3853,
  "▁World": 3855,
  "alt": 3856,
  "omin": 3857,
  "▁States": 3858,
  "▁descri": 3859,
  "ested": 3860,
  "isa": 3861,
  "utiful": 3862,
  "ao": 3863,
  "bb": 3864,
  "uments": 3865,
  "otor": 3866,
  "cope": 3867,
  "▁blue": 3868,
  "ela": 3870,
  "lik": 3871,
  "ented": 3872,
  "posit": 3874,
  "ami": 3875,
  "mend": 3876,
  "witter": 3877,
  "CON": 3878,
  "▁om": 3879,
  "▁fall": 3881,
  "ameter": 3882,
  "▁Your": 3883,
  "iento": 3884,
  "▁major": 3885,
  "iles": 3886,
  "Method": 3887,
  "Att": 3888,
  "TE": 3889,
  "▁simple": 3890,
  "▁season": 3891,
  "ellow": 3892,
  "▁Je": 3893,
  "pond": 3894,
  "▁took": 3895,
  "▁Aug": 3896,
  "Good": 3897,
  "End": 3898,
  "She": 3899,
  "▁doing": 3900,
  "▁clean": 3903,
  "▁story": 3904,
  "▁news": 3905,
  "▁either": 3906,
  "▁words": 3907,
  "Result": 3908,
  "used": 3909,
  "▁parent": 3910,
  "▁age": 3911,
  "sm": 3913,
  "lia": 3914,
  "uch": 3915,
  "ift": 3916,
  "die": 3917,
  "▁learn": 3918,
  "END": 3919,
  "▁questions": 3920,
  "▁index": 3921,
  "▁City": 3922,
  "otel": 3923,
  "mathbf": 3924,
  "unch": 3925,
  "idden": 3926,
  "▁als": 3927,
  "iner": 3928,
  "▁Up": 3930,
  "lege": 3931,
  "▁among": 3932,
  "▁half": 3933,
  "icture": 3934,
  "Rec": 3935,
  "▁future": 3936,
  "node": 3937,
  "ju": 3938,
  "ML": 3939,
  "temp": 3940,
  "ald": 3941,
  "null": 3942,
  "Response": 3943,
  "▁mag": 3945,
  "height": 3946,
  "▁aut": 3947,
  "fully": 3948,
  "▁Sm": 3949,
  "tings": 3950,
  "▁market": 3952,
  "phone": 3953,
  "▁hat": 3954,
  "▁fre": 3956,
  "Sha": 3957,
  "▁ago": 3958,
  "▁Pres": 3959,
  "▁Rec": 3960,
  "▁pret": 3961,
  "see": 3962,
  "▁block": 3963,
  "▁ya": 3965,
  "ability": 3966,
  "▁fire": 3967,
  "▁similar": 3968,
  "▁message": 3969,
  "pu": 3970,
  "eded": 3971,
  "▁kom": 3972,
  "▁rate": 3974,
  "llo": 3979,
  "▁easy": 3980,
  "▁ur": 3981,
  "ici": 3982,
  "ön": 3983,
  "▁Er": 3984,
  "ym": 3985,
  "▁address": 3986,
  "pared": 3988,
  "ilities": 3989,
  "▁Ang": 3990,
  "HT": 3991,
  "aly": 3992,
  "▁eine": 3994,
  "atur": 3995,
  "Tok": 3996,
  "Figure": 3997,
  "▁via": 3998,
  "ives": 3999,
  "▁Cour": 4001,
  "pis": 4002,
  "nology": 4003,
  "▁este": 4004,
  "▁estab": 4005,
  "UTTON": 4006,
  "Bo": 4007,
  "▁bri": 4008,
  "▁https": 4009,
  "uts": 4010,
  "▁Sim": 4011,
  "apan": 4012,
  "ners": 4013,
  "uty": 4014,
  "▁measure": 4015,
  "ria": 4016,
  "hotos": 4017,
  "▁object": 4018,
  "NE": 4019,
  "▁Imp": 4020,
  "▁sie": 4021,
  "Action": 4022,
  "PD": 4023,
  "▁further": 4024,
  "▁needs": 4026,
  "Sty": 4027,
  "▁CH": 4029,
  "Form": 4030,
  "xy": 4032,
  "FA": 4033,
  "▁friend": 4034,
  "▁values": 4035,
  "▁q": 4036,
  "▁period": 4037,
  "One": 4038,
  "Equ": 4040,
  "▁Jo": 4041,
  "▁provid": 4042,
  "semb": 4043,
  "cias": 4044,
  "tember": 4045,
  "Status": 4046,
  "oute": 4047,
  "tention": 4048,
  "chie": 4049,
  "oria": 4050,
  "mitted": 4052,
  "▁pers": 4053,
  "agram": 4054,
  "tional": 4055,
  "Line": 4056,
  "ador": 4057,
  "▁mode": 4058,
  "▁front": 4059,
  "println": 4060,
  "▁early": 4061,
  "▁Bri": 4062,
  "▁months": 4063,
  "cz": 4064,
  "▁step": 4065,
  "peti": 4066,
  "vol": 4067,
  "▁dal": 4068,
  "tected": 4069,
  "▁wel": 4070,
  "option": 4071,
  "▁soft": 4072,
  "kin": 4074,
  "▁Red": 4075,
  "▁card": 4076,
  "▁hope": 4077,
  "▁friends": 4078,
  "▁bag": 4079,
  "ocus": 4080,
  "zione": 4081,
  "▁Mark": 4082,
  "OK": 4083,
  "▁analysis": 4084,
  "year": 4085,
  "write": 4086,
  "▁invol": 4087,
  "▁fla": 4088,
  "▁limit": 4089,
  "▁None": 4090,
  "▁stra": 4091,
  "▁ing": 4092,
  "▁tax": 4093,
  "▁National": 4094,
  "▁emb": 4095,
  "▁temper": 4096,
  "ista": 4097,
  "▁doesn": 4098,
  "onent": 4099,
  "▁series": 4100,
  "teger": 4101,
  "event": 4102,
  "▁five": 4105,
  "▁relations": 4106,
  "bot": 4107,
  "▁mais": 4108,
  "▁Sa": 4109,
  "oles": 4110,
  "estro": 4111,
  "setcounter": 4112,
  "▁fem": 4113,
  "ça": 4114,
  "When": 4115,
  "andom": 4117,
  "▁IS": 4118,
  "ın": 4119,
  "omb": 4120,
  "Auto": 4122,
  "lev": 4123,
  "uary": 4124,
  "▁javax": 4125,
  "▁diffic": 4126,
  "Thank": 4127,
  "sto": 4128,
  "CO": 4129,
  "▁Ag": 4131,
  "▁ru": 4133,
  "▁energy": 4134,
  "▁dr": 4136,
  "▁lu": 4137,
  "avid": 4138,
  "▁hu": 4139,
  "▁pal": 4140,
  "open": 4141,
  "▁War": 4143,
  "Enti": 4144,
  "▁Data": 4145,
  "inf": 4146,
  "MS": 4147,
  "tica": 4148,
  "▁Gre": 4149,
  "lice": 4150,
  "▁print": 4152,
  "istic": 4153,
  "▁vers": 4154,
  "▁Bra": 4155,
  "tex": 4156,
  "Ne": 4157,
  "▁natural": 4158,
  "▁community": 4159,
  "roups": 4160,
  "imen": 4161,
  "tained": 4163,
  "▁mic": 4164,
  "ply": 4165,
  "enumi": 4166,
  "lio": 4167,
  "▁death": 4168,
  "▁TH": 4169,
  "NS": 4170,
  "das": 4172,
  "Number": 4174,
  "func": 4175,
  "▁sea": 4176,
  "▁CON": 4177,
  "cast": 4178,
  "▁NULL": 4179,
  "▁deal": 4180,
  "▁Am": 4181,
  "abstract": 4182,
  "ordin": 4183,
  "redit": 4184,
  "cker": 4185,
  "▁however": 4187,
  "nie": 4188,
  "though": 4189,
  "▁kh": 4190,
  "▁length": 4191,
  "▁added": 4192,
  "▁circ": 4193,
  "ribution": 4194,
  "script": 4195,
  "irs": 4196,
  "▁auch": 4197,
  "eah": 4198,
  "▁double": 4199,
  "Pr": 4200,
  "range": 4201,
  "▁conditions": 4202,
  "▁told": 4203,
  "▁Christ": 4204,
  "Exp": 4208,
  "each": 4209,
  "orks": 4210,
  "▁High": 4211,
  "aby": 4212,
  "▁Some": 4213,
  "orge": 4215,
  "▁ground": 4216,
  "ttp": 4217,
  "▁Set": 4218,
  "fied": 4219,
  "olume": 4220,
  "▁ba": 4221,
  "▁dise": 4222,
  "gt": 4223,
  "▁getting": 4225,
  "▁elect": 4226,
  "▁property": 4227,
  "location": 4228,
  "RA": 4229,
  "vert": 4230,
  "▁wan": 4231,
  "▁effect": 4232,
  "▁famili": 4233,
  "▁watch": 4234,
  "▁release": 4236,
  "Content": 4237,
  "▁Europe": 4238,
  "▁hon": 4239,
  "cion": 4241,
  "gress": 4242,
  "version": 4243,
  "▁associ": 4244,
  "▁sor": 4245,
  "lam": 4246,
  "▁actually": 4247,
  "chi": 4248,
  "▁School": 4249,
  "response": 4250,
  "▁Air": 4252,
  "atory": 4253,
  "▁Ju": 4254,
  "ées": 4255,
  "▁phys": 4256,
  "▁Don": 4257,
  "push": 4258,
  "ulla": 4259,
  "▁sig": 4261,
  "ridge": 4262,
  "▁princip": 4263,
  "clusion": 4264,
  "ournal": 4265,
  "just": 4267,
  "▁idea": 4268,
  "▁lat": 4269,
  "▁whether": 4270,
  "nos": 4271,
  "ondon": 4272,
  "QU": 4273,
  "font": 4274,
  "▁gar": 4275,
  "acy": 4277,
  "ses": 4279,
  "long": 4280,
  "▁history": 4281,
  "▁various": 4282,
  "update": 4283,
  "▁Sub": 4284,
  "▁nothing": 4285,
  "▁cy": 4286,
  "▁favor": 4287,
  "▁sche": 4288,
  "ternal": 4289,
  "std": 4290,
  "amente": 4291,
  "ITY": 4292,
  "▁issue": 4295,
  "▁music": 4296,
  "▁draw": 4297,
  "echo": 4298,
  "ault": 4299,
  "▁vector": 4301,
  "▁source": 4303,
  "ameters": 4304,
  "fs": 4305,
  "▁illust": 4306,
  "▁wait": 4307,
  "number": 4308,
  "enden": 4309,
  "engan": 4310,
  "inner": 4311,
  "▁sav": 4312,
  "▁enjoy": 4313,
  "gal": 4314,
  "vestig": 4315,
  "▁South": 4316,
  "vember": 4317,
  "▁moment": 4318,
  "▁represent": 4319,
  "▁quick": 4320,
  "hic": 4321,
  "namespace": 4322,
  "▁woman": 4323,
  "▁Of": 4324,
  "eds": 4325,
  "lash": 4326,
  "ube": 4327,
  "output": 4328,
  "quare": 4329,
  "lang": 4330,
  "▁AP": 4331,
  "risti": 4332,
  "▁och": 4333,
  "Acc": 4334,
  "ctober": 4335,
  "ART": 4336,
  "▁section": 4337,
  "itar": 4338,
  "ands": 4339,
  "▁His": 4340,
  "▁anything": 4341,
  "tron": 4342,
  "▁sobre": 4343,
  "sig": 4344,
  "▁mach": 4345,
  "Cha": 4346,
  "▁bring": 4347,
  "▁pic": 4348,
  "display": 4349,
  "KE": 4350,
  "▁asked": 4351,
  "cas": 4352,
  "inder": 4353,
  "arrow": 4354,
  "Imp": 4355,
  "uss": 4356,
  "aria": 4357,
  "tee": 4358,
  "ungen": 4360,
  "tell": 4361,
  "cade": 4362,
  "▁minutes": 4363,
  "▁bio": 4364,
  "ende": 4365,
  "rl": 4366,
  "ctr": 4367,
  "▁paper": 4368,
  "cover": 4369,
  "lad": 4370,
  "▁Let": 4371,
  "▁Date": 4372,
  "▁Mat": 4373,
  "▁pol": 4374,
  "odes": 4375,
  "▁road": 4376,
  "ORT": 4377,
  "▁Sal": 4378,
  "tead": 4379,
  "▁pain": 4380,
  "▁cases": 4381,
  "istics": 4382,
  "havi": 4383,
  "Why": 4385,
  "weet": 4386,
  "pportun": 4387,
  "ono": 4388,
  "▁sun": 4389,
  "▁matter": 4391,
  "▁Lu": 4392,
  "formed": 4393,
  "▁gold": 4394,
  "Emp": 4397,
  "About": 4398,
  "rong": 4399,
  "▁br": 4400,
  "▁cat": 4401,
  "OU": 4402,
  "▁map": 4403,
  "web": 4405,
  "▁Ter": 4406,
  "▁Sto": 4407,
  "▁target": 4408,
  "Sc": 4411,
  "▁load": 4412,
  "tual": 4413,
  "▁Now": 4414,
  "▁seg": 4415,
  "▁million": 4416,
  "Check": 4417,
  "▁Li": 4418,
  "▁stri": 4419,
  "ium": 4420,
  "▁determin": 4421,
  "▁Park": 4422,
  "ights": 4423,
  "reet": 4424,
  "lain": 4425,
  "ped": 4427,
  "Load": 4428,
  "▁bl": 4429,
  "change": 4430,
  "▁spo": 4431,
  "dium": 4432,
  "▁green": 4433,
  "▁perfect": 4434,
  "Fo": 4435,
  "▁Tech": 4438,
  "ening": 4439,
  "hich": 4440,
  "actory": 4441,
  "▁six": 4442,
  "▁door": 4444,
  "▁soon": 4445,
  "▁Pl": 4446,
  "▁Fin": 4447,
  "▁Fo": 4448,
  "gl": 4449,
  "▁Ke": 4450,
  "▁website": 4451,
  "SON": 4452,
  "uses": 4453,
  "Don": 4454,
  "fication": 4455,
  "▁June": 4456,
  "gener": 4457,
  "▁ci": 4458,
  "▁arri": 4459,
  "▁nature": 4460,
  "▁almost": 4461,
  "▁CO": 4462,
  "▁Add": 4463,
  "Vis": 4464,
  "ify": 4465,
  "▁anim": 4467,
  "raft": 4468,
  "▁ja": 4469,
  "zed": 4470,
  "▁environment": 4473,
  "entes": 4475,
  "asing": 4476,
  "▁Aust": 4477,
  "Entity": 4478,
  "▁Acc": 4479,
  "▁March": 4482,
  "INT": 4483,
  "uter": 4484,
  "▁probably": 4485,
  "CTION": 4486,
  "▁Mem": 4488,
  "tures": 4489,
  "yal": 4490,
  "▁profession": 4491,
  "▁across": 4492,
  "wood": 4493,
  "▁http": 4494,
  "Tag": 4495,
  "▁grand": 4497,
  "hu": 4498,
  "▁comb": 4499,
  "▁normal": 4500,
  "▁dro": 4502,
  "inks": 4504,
  "selves": 4505,
  "▁pie": 4506,
  "▁num": 4507,
  "They": 4508,
  "▁previous": 4509,
  "▁separ": 4510,
  "▁Dire": 4511,
  "Char": 4512,
  "ified": 4513,
  "▁evid": 4514,
  "▁Mag": 4515,
  "▁areas": 4516,
  "▁od": 4517,
  "ashi": 4518,
  "▁observ": 4519,
  "▁Pr": 4520,
  "Hello": 4521,
  "olf": 4522,
  "▁according": 4523,
  "jer": 4524,
  "▁particip": 4525,
  "lt": 4526,
  "endent": 4528,
  "iol": 4529,
  "▁decision": 4530,
  "CR": 4531,
  "ota": 4532,
  "ciety": 4533,
  "amin": 4534,
  "antes": 4535,
  "cember": 4536,
  "auto": 4537,
  "▁kit": 4538,
  "▁Feb": 4539,
  "▁sel": 4540,
  "irit": 4541,
  "arm": 4542,
  "▁Out": 4543,
  "▁search": 4544,
  "Token": 4545,
  "▁config": 4546,
  "▁building": 4547,
  "lections": 4548,
  "▁comes": 4549,
  "▁document": 4551,
  "▁problems": 4552,
  "▁everything": 4553,
  "rig": 4554,
  "aste": 4555,
  "▁Web": 4556,
  "▁cause": 4557,
  "▁solution": 4558,
  "▁changes": 4559,
  "▁However": 4560,
  "▁options": 4561,
  "▁media": 4562,
  "▁terms": 4563,
  "▁believe": 4564,
  "sequ": 4565,
  "▁Home": 4566,
  "Med": 4567,
  "Util": 4568,
  "bes": 4569,
  "Row": 4570,
  "▁UN": 4571,
  "▁qual": 4572,
  "Link": 4573,
  "▁len": 4574,
  "acity": 4575,
  "double": 4576,
  "umbers": 4577,
  "dig": 4578,
  "lim": 4579,
  "vey": 4580,
  "▁lower": 4581,
  "rial": 4582,
  "udio": 4583,
  "▁production": 4584,
  "▁dev": 4586,
  "istry": 4588,
  "▁West": 4589,
  "▁party": 4591,
  "▁film": 4592,
  "Str": 4593,
  "bug": 4594,
  "usiness": 4595,
  "Edit": 4597,
  "▁ban": 4598,
  "mbol": 4599,
  "▁held": 4600,
  "▁update": 4601,
  "▁girl": 4602,
  "▁started": 4604,
  "ños": 4605,
  "▁Off": 4606,
  "sets": 4607,
  "▁jud": 4608,
  "Client": 4609,
  "▁PRO": 4610,
  "▁fi": 4611,
  "▁North": 4612,
  "lib": 4613,
  "email": 4614,
  "format": 4615,
  "▁King": 4616,
  "▁Str": 4618,
  "cio": 4619,
  "isi": 4620,
  "▁cau": 4621,
  "▁Mus": 4622,
  "▁April": 4623,
  "▁court": 4624,
  "isted": 4625,
  "▁Il": 4626,
  "obj": 4627,
  "▁eyes": 4628,
  "▁cast": 4629,
  "▁someone": 4630,
  "▁buy": 4631,
  "Net": 4632,
  "▁Mor": 4633,
  "▁ok": 4634,
  "ér": 4635,
  "render": 4636,
  "▁share": 4638,
  "▁Pat": 4639,
  "▁nor": 4641,
  "tik": 4642,
  "UP": 4643,
  "▁rather": 4644,
  "▁English": 4645,
  "▁provided": 4646,
  "▁necessary": 4647,
  "rend": 4648,
  "▁pp": 4649,
  "REEN": 4651,
  "▁vac": 4653,
  "orted": 4654,
  "ington": 4655,
  "▁wood": 4656,
  "▁repor": 4657,
  "▁Ben": 4658,
  "▁store": 4659,
  "▁After": 4660,
  "▁nie": 4661,
  "▁inc": 4662,
  "ABLE": 4663,
  "▁meet": 4664,
  "▁performance": 4665,
  "Listener": 4666,
  "▁exten": 4667,
  "ev": 4668,
  "ola": 4669,
  "▁note": 4670,
  "▁Test": 4671,
  "anda": 4672,
  "▁stop": 4673,
  "▁pred": 4674,
  "▁hear": 4675,
  "inger": 4676,
  "ws": 4677,
  "More": 4678,
  "final": 4679,
  "▁title": 4680,
  "▁View": 4681,
  "▁tan": 4682,
  "ARY": 4683,
  "▁oil": 4684,
  "IZ": 4685,
  "vities": 4686,
  "ông": 4687,
  "yna": 4688,
  "Style": 4689,
  "conne": 4690,
  "▁details": 4691,
  "▁stay": 4692,
  "thon": 4693,
  "ribut": 4694,
  "redi": 4695,
  "DU": 4696,
  "▁alle": 4697,
  "▁shown": 4699,
  "Ret": 4700,
  "▁foot": 4701,
  "more": 4702,
  "▁comments": 4703,
  "alpha": 4705,
  "protected": 4706,
  "▁July": 4707,
  "▁mm": 4709,
  "▁ich": 4710,
  "Column": 4711,
  "ów": 4712,
  "▁looks": 4713,
  "dad": 4716,
  "▁Stat": 4717,
  "▁Cap": 4718,
  "▁bei": 4719,
  "▁Plan": 4721,
  "▁az": 4722,
  "▁Bro": 4723,
  "▁application": 4724,
  "aux": 4725,
  "reme": 4726,
  "hind": 4728,
  "ago": 4729,
  "iler": 4730,
  "▁role": 4731,
  "▁extends": 4732,
  "ALL": 4733,
  "▁dies": 4734,
  "istory": 4735,
  "object": 4736,
  "tor": 4737,
  "Post": 4738,
  "fy": 4739,
  "▁increase": 4740,
  "aves": 4741,
  "berg": 4743,
  "dian": 4744,
  "you": 4747,
  "▁della": 4748,
  "▁advan": 4749,
  "xim": 4750,
  "iling": 4751,
  "▁names": 4752,
  "fr": 4753,
  "▁staff": 4754,
  "▁quite": 4756,
  "▁member": 4757,
  "cla": 4759,
  "▁fer": 4760,
  "▁heav": 4761,
  "bile": 4764,
  "▁private": 4765,
  "UG": 4766,
  "sg": 4767,
  "UB": 4768,
  "bility": 4769,
  "▁training": 4770,
  "▁improve": 4771,
  "Control": 4772,
  "▁refer": 4773,
  "▁nos": 4775,
  "ät": 4776,
  "rio": 4777,
  "ní": 4778,
  "See": 4779,
  "aur": 4780,
  "▁ID": 4781,
  "ís": 4782,
  "▁loss": 4783,
  "▁everyone": 4784,
  "ograph": 4785,
  "▁pretty": 4786,
  "▁finan": 4787,
  "▁pick": 4788,
  "float": 4789,
  "▁han": 4790,
  "▁Post": 4791,
  "▁tor": 4792,
  "▁vot": 4793,
  "eld": 4794,
  "uni": 4795,
  "Ref": 4797,
  "tit": 4798,
  "eren": 4799,
  "▁engine": 4800,
  "▁email": 4801,
  "ITEM": 4802,
  "rest": 4803,
  "ospital": 4804,
  "▁entire": 4805,
  "UD": 4806,
  "▁context": 4807,
  "▁uma": 4808,
  "▁Dec": 4809,
  "▁match": 4810,
  "▁ans": 4811,
  "oop": 4812,
  "▁SE": 4813,
  "▁Read": 4814,
  "▁management": 4815,
  "free": 4816,
  "▁cos": 4817,
  "▁saw": 4818,
  "▁valid": 4819,
  "▁Text": 4820,
  "Results": 4821,
  "▁alg": 4822,
  "Spec": 4823,
  "▁appear": 4824,
  "▁Fri": 4825,
  "▁August": 4826,
  "▁Dan": 4828,
  "▁plant": 4829,
  "▁forward": 4830,
  "Menu": 4831,
  "▁opportun": 4832,
  "win": 4834,
  "▁sound": 4835,
  "▁ord": 4837,
  "▁Def": 4839,
  "PA": 4840,
  "bum": 4841,
  "alle": 4842,
  "fit": 4843,
  "▁office": 4844,
  "▁From": 4845,
  "signed": 4846,
  "▁fast": 4847,
  "▁dengan": 4848,
  "nav": 4849,
  "root": 4851,
  "stream": 4852,
  "▁Rus": 4853,
  "band": 4854,
  "contin": 4855,
  "Here": 4858,
  "▁See": 4859,
  "oro": 4860,
  "▁Spec": 4861,
  "rame": 4862,
  "umin": 4863,
  "encia": 4864,
  "▁untuk": 4865,
  "▁nice": 4866,
  "PRO": 4867,
  "▁dark": 4868,
  "etch": 4869,
  "Top": 4870,
  "▁higher": 4871,
  "▁remo": 4872,
  "▁dou": 4873,
  "▁sell": 4874,
  "eam": 4875,
  "▁install": 4877,
  "first": 4878,
  "▁agre": 4879,
  "▁needed": 4880,
  "▁width": 4881,
  "Draw": 4882,
  "Title": 4883,
  "INE": 4884,
  "TY": 4886,
  "▁hit": 4887,
  "URE": 4888,
  "pository": 4889,
  "▁News": 4890,
  "▁ant": 4891,
  "▁invest": 4893,
  "asy": 4896,
  "▁Time": 4897,
  "Oh": 4899,
  "translation": 4900,
  "▁san": 4901,
  "Module": 4902,
  "dev": 4903,
  "olute": 4904,
  "▁ses": 4905,
  "▁third": 4906,
  "fort": 4907,
  "▁Class": 4908,
  "Eng": 4909,
  "▁sug": 4910,
  "▁mé": 4911,
  "Create": 4912,
  "▁condition": 4913,
  "May": 4914,
  "▁happy": 4915,
  "▁himself": 4916,
  "aces": 4917,
  "▁shows": 4918,
  "▁House": 4919,
  "sian": 4920,
  "▁FOR": 4921,
  "CA": 4922,
  "ufact": 4923,
  "▁board": 4924,
  "call": 4925,
  "▁User": 4926,
  "▁sont": 4927,
  "ibr": 4928,
  "Go": 4929,
  "▁seems": 4930,
  "▁ple": 4931,
  "▁ut": 4932,
  "Us": 4933,
  "▁sup": 4934,
  "select": 4935,
  "▁fu": 4936,
  "▁significant": 4937,
  "▁status": 4938,
  "angle": 4940,
  "▁bi": 4941,
  "▁parts": 4942,
  "ised": 4943,
  "lications": 4944,
  "▁Sur": 4945,
  "Gu": 4946,
  "tet": 4947,
  "▁fine": 4948,
  "▁ze": 4949,
  "Mat": 4950,
  "▁blan": 4951,
  "zt": 4952,
  "▁display": 4953,
  "▁oder": 4954,
  "▁surface": 4955,
  "▁received": 4956,
  "Ass": 4957,
  "delete": 4958,
  "▁Mer": 4959,
  "iem": 4960,
  "▁hands": 4961,
  "▁beautiful": 4964,
  "Conne": 4965,
  "define": 4967,
  "▁Willi": 4968,
  "▁speed": 4969,
  "▁label": 4970,
  "▁teach": 4971,
  "▁cross": 4972,
  "urt": 4974,
  "▁national": 4975,
  "iro": 4976,
  "wise": 4977,
  "har": 4978,
  "Builder": 4980,
  "inite": 4981,
  "▁unit": 4982,
  "Run": 4983,
  "▁option": 4984,
  "▁meng": 4985,
  "▁comment": 4986,
  "via": 4988,
  "▁cool": 4989,
  "Contact": 4990,
  "cat": 4991,
  "▁County": 4992,
  "Fig": 4993,
  "DB": 4994,
  "unit": 4995,
  "fl": 4996,
  "ountain": 4997,
  "▁taking": 4998,
  "mittee": 4999,
  "▁fish": 5001,
  "mento": 5002,
  "▁sam": 5003,
  "▁issues": 5004,
  "▁ens": 5005,
  "Windows": 5006,
  "erial": 5007,
  "▁amb": 5008,
  "▁Inst": 5009,
  "omas": 5010,
  "▁til": 5011,
  "btn": 5012,
  "Property": 5013,
  "Por": 5014,
  "▁jus": 5015,
  "▁command": 5017,
  "Fil": 5018,
  "▁Mal": 5019,
  "▁uti": 5020,
  "▁tele": 5022,
  "like": 5023,
  "Helper": 5024,
  "iction": 5025,
  "▁bien": 5026,
  "▁living": 5027,
  "ester": 5028,
  "▁ww": 5029,
  "ACK": 5030,
  "▁Act": 5031,
  "▁output": 5033,
  "atives": 5034,
  "▁claim": 5035,
  "True": 5036,
  "uint": 5037,
  "ruary": 5038,
  "▁standard": 5039,
  "▁Then": 5040,
  "Note": 5041,
  "ords": 5042,
  "▁expected": 5043,
  "forma": 5044,
  "▁sit": 5045,
  "eks": 5046,
  "local": 5047,
  "anel": 5048,
  "what": 5049,
  "ldots": 5050,
  "itation": 5051,
  "▁flu": 5052,
  "amily": 5053,
  "▁hair": 5054,
  "ões": 5055,
  "▁travel": 5056,
  "Mic": 5057,
  "▁BUTTON": 5058,
  "iten": 5059,
  "▁className": 5060,
  "▁Day": 5061,
  "▁tro": 5062,
  "▁talk": 5063,
  "Pa": 5064,
  "switch": 5065,
  "Ge": 5066,
  "ilit": 5067,
  "vation": 5068,
  "▁frequ": 5069,
  "rap": 5070,
  "req": 5071,
  "TA": 5072,
  "▁trou": 5073,
  "hot": 5074,
  "▁policy": 5075,
  "isation": 5076,
  "▁leave": 5077,
  "▁article": 5078,
  "▁ini": 5079,
  "▁addition": 5081,
  "sie": 5082,
  "▁werden": 5083,
  "igen": 5084,
  "▁bat": 5085,
  "▁center": 5086,
  "active": 5087,
  "▁types": 5088,
  "Start": 5089,
  "rench": 5090,
  "▁subject": 5091,
  "sembly": 5092,
  "cise": 5093,
  "▁round": 5094,
  "Product": 5095,
  "▁force": 5097,
  "Query": 5098,
  "Dec": 5099,
  "▁items": 5100,
  "▁Health": 5101,
  "▁Dist": 5102,
  "▁nav": 5103,
  "▁nach": 5104,
  "▁General": 5105,
  "▁ges": 5106,
  "bool": 5107,
  "▁Chi": 5108,
  "LA": 5110,
  "▁boolean": 5111,
  "▁correct": 5112,
  "onents": 5114,
  "▁growth": 5115,
  "elo": 5116,
  "Mem": 5117,
  "Http": 5118,
  "▁features": 5119,
  "Like": 5120,
  "än": 5122,
  "▁worth": 5123,
  "▁za": 5125,
  "▁investig": 5126,
  "hold": 5127,
  "uth": 5128,
  "msg": 5129,
  "ACT": 5130,
  "Point": 5131,
  "▁German": 5132,
  "zu": 5133,
  "▁tom": 5134,
  "▁vs": 5135,
  "target": 5136,
  "▁gas": 5137,
  "▁Service": 5138,
  "zie": 5139,
  "▁led": 5140,
  "rem": 5141,
  "▁plat": 5143,
  "▁wonder": 5144,
  "éri": 5145,
  "annel": 5146,
  "that": 5147,
  "▁influ": 5148,
  "▁über": 5149,
  "▁archived": 5150,
  "▁Wik": 5151,
  "params": 5152,
  "host": 5153,
  "graphy": 5154,
  "augh": 5155,
  "lly": 5156,
  "SCREEN": 5157,
  "▁treatment": 5158,
  "▁Black": 5159,
  "iden": 5160,
  "nown": 5161,
  "▁outside": 5162,
  "▁coming": 5163,
  "hael": 5164,
  "▁aux": 5165,
  "method": 5166,
  "▁AM": 5167,
  "▁term": 5168,
  "▁song": 5169,
  "▁weight": 5171,
  "▁lik": 5172,
  "ultural": 5173,
  "cking": 5174,
  "rosoft": 5175,
  "MENT": 5176,
  "rec": 5177,
  "▁games": 5178,
  "▁ak": 5179,
  "eace": 5180,
  "▁Court": 5181,
  "▁mass": 5182,
  "▁Us": 5183,
  "well": 5184,
  "dat": 5185,
  "aciones": 5186,
  "adding": 5187,
  "▁systems": 5188,
  "▁miss": 5190,
  "▁images": 5191,
  "utor": 5192,
  "▁Bio": 5193,
  "▁liter": 5194,
  "▁Vol": 5195,
  "▁consist": 5196,
  "▁Department": 5198,
  "▁especially": 5199,
  "Red": 5200,
  "▁location": 5201,
  "▁wo": 5202,
  "ceed": 5203,
  "Min": 5204,
  "draw": 5205,
  "▁wrong": 5206,
  "iment": 5208,
  "ervices": 5209,
  "pop": 5210,
  "SH": 5211,
  "args": 5212,
  "▁Da": 5213,
  "vider": 5214,
  "thern": 5215,
  "iger": 5216,
  "vor": 5217,
  "▁fran": 5218,
  "Stream": 5219,
  "bro": 5220,
  "▁Les": 5221,
  "aded": 5222,
  "gest": 5223,
  "▁kon": 5224,
  "▁September": 5225,
  "▁subs": 5226,
  "▁va": 5227,
  "▁global": 5228,
  "▁sense": 5229,
  "BO": 5230,
  "arning": 5232,
  "▁kan": 5233,
  "▁bon": 5234,
  "Ke": 5235,
  "Cal": 5236,
  "lla": 5237,
  "▁skin": 5239,
  "Attribute": 5240,
  "ises": 5241,
  "lassi": 5242,
  "▁percent": 5243,
  "dated": 5244,
  "▁late": 5245,
  "▁expect": 5246,
  "▁Sw": 5247,
  "▁phone": 5248,
  "dow": 5249,
  "▁usually": 5250,
  "client": 5251,
  "tico": 5252,
  "module": 5253,
  "▁Information": 5254,
  "▁language": 5255,
  "arden": 5256,
  "Base": 5257,
  "OUR": 5258,
  "ville": 5259,
  "adas": 5260,
  "Cl": 5261,
  "mical": 5262,
  "amos": 5264,
  "▁frame": 5265,
  "▁www": 5266,
  "ün": 5268,
  "anged": 5269,
  "respond": 5270,
  "▁deep": 5271,
  "Jo": 5273,
  "ander": 5274,
  "▁Nor": 5276,
  "▁wa": 5278,
  "ambi": 5280,
  "idas": 5281,
  "▁London": 5282,
  "lij": 5283,
  "▁deg": 5284,
  "AME": 5285,
  "catch": 5286,
  "Gra": 5287,
  "save": 5288,
  "▁reac": 5289,
  "▁mother": 5290,
  "▁ask": 5291,
  "▁vor": 5292,
  "▁creat": 5293,
  "iny": 5295,
  "▁sugges": 5296,
  "▁Si": 5297,
  "FI": 5298,
  "▁screen": 5299,
  "ensor": 5300,
  "CK": 5301,
  "▁deci": 5302,
  "▁Super": 5303,
  "▁saf": 5304,
  "Es": 5305,
  "card": 5306,
  "allo": 5307,
  "ASS": 5308,
  "ued": 5309,
  "▁ih": 5310,
  "▁AN": 5311,
  "ising": 5312,
  "aries": 5313,
  "asa": 5314,
  "ored": 5315,
  "▁average": 5316,
  "▁ot": 5317,
  "DO": 5319,
  "DA": 5320,
  "spring": 5321,
  "inding": 5322,
  "under": 5323,
  "▁Exp": 5324,
  "▁trying": 5326,
  "▁running": 5327,
  "mid": 5329,
  "▁blood": 5330,
  "Let": 5331,
  "▁temp": 5333,
  "▁regard": 5334,
  "▁IM": 5335,
  "printf": 5336,
  "Call": 5337,
  "ipment": 5338,
  "▁India": 5339,
  "▁Sy": 5340,
  "lide": 5341,
  "▁hot": 5342,
  "aged": 5343,
  "▁itself": 5344,
  "cious": 5345,
  "rew": 5346,
  "▁tour": 5347,
  "▁fig": 5348,
  "NO": 5349,
  "▁tur": 5350,
  "header": 5351,
  "GE": 5352,
  "▁modern": 5354,
  "▁có": 5355,
  "▁element": 5356,
  "nable": 5357,
  "▁methods": 5358,
  "Dat": 5359,
  "Location": 5360,
  "▁industry": 5361,
  "▁Use": 5362,
  "Mon": 5363,
  "Var": 5364,
  "▁está": 5365,
  "aging": 5366,
  "▁calcul": 5367,
  "▁feet": 5368,
  "lif": 5369,
  "Ext": 5371,
  "ById": 5372,
  "▁pou": 5373,
  "▁continue": 5374,
  "Now": 5375,
  "▁walk": 5376,
  "▁models": 5377,
  "wi": 5378,
  "src": 5379,
  "▁chall": 5380,
  "▁save": 5381,
  "▁Ze": 5383,
  "Mode": 5384,
  "pic": 5385,
  "▁Commun": 5386,
  "▁demand": 5388,
  "▁nom": 5389,
  "rip": 5390,
  "▁achie": 5391,
  "▁inten": 5392,
  "Some": 5393,
  "dor": 5394,
  "ém": 5395,
  "▁wide": 5396,
  "▁PR": 5397,
  "▁player": 5398,
  "game": 5399,
  "tish": 5400,
  "rought": 5401,
  "▁Te": 5402,
  "▁education": 5404,
  "ouncil": 5406,
  "▁Net": 5407,
  "pay": 5408,
  "▁dress": 5410,
  "align": 5411,
  "lap": 5412,
  "apter": 5413,
  "▁esti": 5414,
  "rage": 5415,
  "▁ther": 5416,
  "ân": 5417,
  "titute": 5418,
  "Am": 5419,
  "iforn": 5420,
  "▁tree": 5421,
  "▁assist": 5422,
  "rate": 5423,
  "▁October": 5424,
  "▁sind": 5425,
  "edit": 5427,
  "▁cookies": 5428,
  "BC": 5430,
  "▁Law": 5431,
  "▁rema": 5432,
  "equation": 5433,
  "▁remember": 5434,
  "till": 5435,
  "total": 5436,
  "▁reading": 5438,
  "▁Mac": 5439,
  "None": 5440,
  "▁dar": 5441,
  "▁Du": 5442,
  "urance": 5443,
  "rich": 5445,
  "▁Emp": 5446,
  "▁Hel": 5447,
  "lines": 5448,
  "▁structure": 5449,
  "send": 5450,
  "tn": 5451,
  "▁groups": 5452,
  "▁lines": 5453,
  "produ": 5454,
  "▁dead": 5455,
  "▁compan": 5456,
  "mine": 5457,
  "▁communic": 5458,
  "inst": 5459,
  "Dire": 5460,
  "Instance": 5461,
  "▁TR": 5462,
  "▁exact": 5463,
  "▁rem": 5464,
  "ruit": 5465,
  "▁wanted": 5466,
  "▁origin": 5467,
  "▁January": 5468,
  "▁copy": 5469,
  "▁behind": 5470,
  "▁Press": 5471,
  "▁compar": 5472,
  "vide": 5473,
  "▁likely": 5476,
  "sim": 5477,
  "▁Ha": 5478,
  "Rel": 5479,
  "▁quar": 5480,
  "▁sz": 5481,
  "lying": 5482,
  "▁created": 5483,
  "▁included": 5484,
  "▁Sam": 5485,
  "ín": 5486,
  "mazon": 5487,
  "▁collection": 5488,
  "▁occur": 5489,
  "images": 5490,
  "DR": 5491,
  "Down": 5492,
  "DS": 5494,
  "▁satis": 5495,
  "▁insp": 5496,
  "▁plu": 5497,
  "▁click": 5499,
  "▁sex": 5500,
  "▁lost": 5501,
  "▁nous": 5502,
  "build": 5503,
  "▁reported": 5504,
  "yo": 5506,
  "VER": 5507,
  "▁AR": 5509,
  "ifornia": 5510,
  "▁bud": 5511,
  "▁mention": 5512,
  "▁feed": 5513,
  "After": 5514,
  "▁atta": 5515,
  "▁November": 5516,
  "document": 5517,
  "COM": 5518,
  "Order": 5520,
  "vention": 5521,
  "pid": 5522,
  "Di": 5523,
  "Max": 5524,
  "▁till": 5525,
  "token": 5526,
  "▁send": 5527,
  "▁initial": 5528,
  "▁brand": 5529,
  "sty": 5530,
  "▁Inc": 5531,
  "mited": 5532,
  "inen": 5533,
  "Update": 5534,
  "akan": 5535,
  "▁là": 5536,
  "Sto": 5537,
  "tau": 5538,
  "▁din": 5540,
  "remove": 5541,
  "exit": 5542,
  "▁longer": 5543,
  "Activity": 5544,
  "PH": 5545,
  "First": 5546,
  "sten": 5547,
  "▁takes": 5548,
  "cap": 5549,
  "▁Ret": 5550,
  "▁experien": 5551,
  "▁Play": 5552,
  "▁client": 5553,
  "▁International": 5554,
  "▁prior": 5556,
  "java": 5557,
  "Ok": 5558,
  "Write": 5559,
  "matic": 5560,
  "md": 5561,
  "▁events": 5562,
  "▁First": 5563,
  "▁ow": 5564,
  "tura": 5565,
  "▁instance": 5566,
  "▁knowledge": 5567,
  "▁lay": 5568,
  "▁True": 5569,
  "▁glass": 5570,
  "▁East": 5571,
  "izer": 5572,
  "▁LIST": 5573,
  "▁rat": 5574,
  "BS": 5577,
  "▁immedi": 5578,
  "▁actual": 5579,
  "▁inside": 5580,
  "▁và": 5581,
  "rier": 5582,
  "star": 5583,
  "level": 5584,
  "react": 5585,
  "PC": 5586,
  "Introduction": 5587,
  "Sim": 5588,
  "clear": 5589,
  "gment": 5590,
  "▁couple": 5591,
  "txt": 5592,
  "hips": 5593,
  "comes": 5594,
  "Ho": 5595,
  "▁anyone": 5596,
  "rote": 5597,
  "▁write": 5598,
  "fficient": 5599,
  "itude": 5600,
  "▁pressure": 5601,
  "wan": 5602,
  "coming": 5603,
  "▁considered": 5604,
  "▁countries": 5605,
  "inary": 5606,
  "▁TV": 5607,
  "▁guide": 5608,
  "unic": 5610,
  "▁Street": 5611,
  "▁region": 5612,
  "▁official": 5613,
  "cribe": 5614,
  "proto": 5615,
  "▁isn": 5616,
  "gina": 5617,
  "raf": 5618,
  "▁cry": 5619,
  "▁Sen": 5620,
  "onom": 5621,
  "▁Est": 5623,
  "▁Work": 5624,
  "▁wie": 5625,
  "▁Our": 5626,
  "password": 5627,
  "▁ready": 5628,
  "oter": 5629,
  "▁conc": 5631,
  "▁tid": 5632,
  "itable": 5633,
  "acebook": 5634,
  "cienti": 5635,
  "▁cele": 5636,
  "▁III": 5638,
  "UI": 5639,
  "▁activity": 5640,
  "lé": 5641,
  "▁picture": 5642,
  "Url": 5643,
  "flow": 5644,
  "▁gave": 5645,
  "operator": 5646,
  "▁rela": 5647,
  "▁voor": 5648,
  "▁Name": 5649,
  "ird": 5650,
  "▁Please": 5651,
  "uy": 5652,
  "Pos": 5653,
  "alysis": 5654,
  "▁Good": 5655,
  "▁recommend": 5656,
  "▁NE": 5657,
  "▁COM": 5658,
  "sch": 5660,
  "cape": 5661,
  "▁hab": 5662,
  "▁prom": 5663,
  "mate": 5664,
  "▁Public": 5665,
  "esta": 5666,
  "Cor": 5667,
  "▁pow": 5669,
  "itt": 5670,
  "qui": 5671,
  "css": 5673,
  "▁lie": 5674,
  "▁ka": 5675,
  "Doc": 5676,
  "▁np": 5677,
  "▁related": 5678,
  "ulta": 5679,
  "Width": 5680,
  "▁bank": 5681,
  "Null": 5682,
  "▁fan": 5683,
  "STR": 5684,
  "▁risk": 5685,
  "▁equi": 5686,
  "▁Ra": 5687,
  "▁approach": 5688,
  "inition": 5689,
  "▁rights": 5691,
  "Ent": 5692,
  "olutions": 5693,
  "▁fair": 5694,
  "▁Sco": 5695,
  "PT": 5696,
  "▁wal": 5697,
  "▁Here": 5698,
  "Format": 5699,
  "▁vin": 5700,
  "▁effects": 5701,
  "enda": 5703,
  "▁Research": 5704,
  "▁node": 5705,
  "▁ay": 5706,
  "▁Table": 5707,
  "▁Model": 5708,
  "det": 5709,
  "▁Associ": 5710,
  "Stu": 5712,
  "▁dom": 5713,
  "▁Center": 5714,
  "▁bis": 5715,
  "FO": 5716,
  "Stack": 5717,
  "llen": 5719,
  "server": 5720,
  "▁height": 5721,
  "▁dru": 5722,
  "endant": 5723,
  "amma": 5724,
  "▁posted": 5727,
  "▁activities": 5728,
  "reci": 5729,
  "▁former": 5730,
  "attr": 5731,
  "Mapp": 5732,
  "sen": 5733,
  "▁cand": 5734,
  "▁kep": 5735,
  "▁potential": 5736,
  "▁não": 5737,
  "Any": 5739,
  "pin": 5740,
  "uh": 5741,
  "▁ways": 5742,
  "ology": 5743,
  "▁ball": 5744,
  "mag": 5745,
  "pers": 5747,
  "▁regular": 5748,
  "aving": 5749,
  "Sum": 5751,
  "teen": 5752,
  "ulations": 5753,
  "▁Educ": 5754,
  "lec": 5755,
  "lands": 5756,
  "▁pm": 5757,
  "uestion": 5758,
  "▁Ap": 5759,
  "▁baby": 5760,
  "▁proced": 5761,
  "▁resid": 5762,
  "▁morning": 5764,
  "▁pul": 5765,
  "▁complex": 5766,
  "asons": 5767,
  "▁Lea": 5768,
  "Del": 5770,
  "▁themselves": 5771,
  "▁opin": 5772,
  "prime": 5773,
  "▁figure": 5774,
  "dr": 5775,
  "isse": 5776,
  "▁Prof": 5777,
  "▁ko": 5778,
  "▁Form": 5779,
  "▁boy": 5780,
  "▁Phys": 5782,
  "▁America": 5783,
  "sec": 5784,
  "click": 5787,
  "Dep": 5789,
  "▁prop": 5790,
  "▁info": 5791,
  "▁ideas": 5793,
  "▁Water": 5794,
  "eq": 5795,
  "▁possib": 5796,
  "ILL": 5797,
  "▁shirt": 5798,
  "FOR": 5799,
  "▁Lab": 5800,
  "▁streng": 5802,
  "rigin": 5803,
  "▁yourself": 5804,
  "icon": 5805,
  "sql": 5806,
  "ullable": 5808,
  "▁temperature": 5809,
  "notation": 5810,
  "QL": 5811,
  "ERE": 5812,
  "hood": 5813,
  "nde": 5814,
  "Handler": 5815,
  "tify": 5816,
  "photo": 5817,
  "constru": 5818,
  "ops": 5819,
  "▁evidence": 5820,
  "▁km": 5821,
  "▁remain": 5822,
  "▁Ant": 5823,
  "▁December": 5824,
  "Pass": 5825,
  "Core": 5826,
  "▁hi": 5827,
  "▁explo": 5828,
  "river": 5829,
  "▁difference": 5830,
  "▁photos": 5831,
  "posi": 5832,
  "▁tar": 5833,
  "▁priv": 5834,
  "IAL": 5835,
  "circ": 5837,
  "▁dari": 5838,
  "mazing": 5839,
  "▁Loc": 5840,
  "▁situation": 5841,
  "▁father": 5842,
  "nis": 5844,
  "▁Rea": 5845,
  "ederal": 5847,
  "parti": 5848,
  "▁poss": 5849,
  "mor": 5850,
  "▁EN": 5851,
  "▁therefore": 5852,
  "▁transfer": 5853,
  "lah": 5854,
  "atic": 5855,
  "Step": 5856,
  "▁cir": 5857,
  "alog": 5859,
  "mel": 5860,
  "▁Ca": 5861,
  "SA": 5862,
  "▁pag": 5863,
  "ialog": 5864,
  "sert": 5866,
  "iller": 5867,
  "pag": 5868,
  "▁vel": 5869,
  "throw": 5870,
  "nic": 5871,
  "Port": 5873,
  "rab": 5874,
  "▁kil": 5875,
  "▁popular": 5876,
  "▁police": 5877,
  "lem": 5878,
  "▁bran": 5879,
  "framework": 5880,
  "▁Are": 5881,
  "OG": 5882,
  "enty": 5883,
  "▁heard": 5884,
  "iable": 5885,
  "▁tag": 5886,
  "erve": 5887,
  "▁Cam": 5888,
  "estern": 5889,
  "ña": 5890,
  "▁China": 5892,
  "▁club": 5893,
  "outer": 5894,
  "▁administ": 5895,
  "▁Group": 5897,
  "Mark": 5898,
  "▁villa": 5899,
  "▁fight": 5900,
  "override": 5901,
  "▁levels": 5902,
  "CD": 5903,
  "aron": 5904,
  "hase": 5905,
  "Our": 5906,
  "▁PM": 5907,
  "aya": 5908,
  "fé": 5909,
  "cked": 5910,
  "offe": 5911,
  "▁window": 5912,
  "▁student": 5913,
  "ition": 5914,
  "▁hidden": 5915,
  "service": 5916,
  "▁instead": 5918,
  "▁relig": 5919,
  "▁format": 5920,
  "▁Mad": 5921,
  "cellent": 5922,
  "POST": 5923,
  "EE": 5924,
  "▁Pen": 5925,
  "pub": 5926,
  "▁Pal": 5927,
  "▁Japan": 5928,
  "▁dog": 5929,
  "▁camp": 5930,
  "ptr": 5931,
  "nb": 5932,
  "atan": 5933,
  "▁sale": 5934,
  "options": 5935,
  "▁Art": 5936,
  "Uni": 5938,
  "hol": 5939,
  "inted": 5940,
  "▁additional": 5942,
  "▁behavi": 5943,
  "address": 5944,
  "▁Ac": 5945,
  "bil": 5946,
  "Tab": 5947,
  "angan": 5948,
  "▁Port": 5949,
  "▁competi": 5950,
  "▁birth": 5951,
  "▁written": 5952,
  "dt": 5954,
  "References": 5956,
  "▁Mod": 5957,
  "Please": 5958,
  "region": 5959,
  "gue": 5960,
  "▁meeting": 5961,
  "▁Del": 5962,
  "bour": 5963,
  "imer": 5964,
  "▁description": 5966,
  "▁fail": 5967,
  "▁numbers": 5968,
  "IES": 5970,
  "Just": 5972,
  "▁Review": 5973,
  "▁band": 5974,
  "iser": 5975,
  "▁weeks": 5976,
  "rant": 5977,
  "▁Bel": 5978,
  "▁motor": 5980,
  "▁became": 5981,
  "▁kids": 5982,
  "estroy": 5983,
  "aman": 5984,
  "▁safe": 5985,
  "ika": 5986,
  "▁paint": 5987,
  "▁difficult": 5988,
  "▁graph": 5989,
  "▁shot": 5990,
  "▁Der": 5991,
  "eno": 5992,
  "ums": 5993,
  "nolog": 5994,
  "google": 5996,
  "haps": 5997,
  "▁metal": 5998,
  "▁cells": 5999,
  "command": 6000,
  "jpg": 6001,
  "▁Long": 6002,
  "limin": 6003,
  "▁progra": 6004,
  "▁cru": 6005,
  "Where": 6006,
  "▁Sk": 6007,
  "crip": 6008,
  "rome": 6009,
  "▁network": 6011,
  "▁jour": 6012,
  "▁Wash": 6013,
  "▁decor": 6014,
  "▁std": 6015,
  "▁practice": 6016,
  "▁href": 6017,
  "abled": 6018,
  "▁wat": 6019,
  "▁President": 6021,
  "▁patients": 6022,
  "velopment": 6023,
  "BA": 6024,
  "▁cr": 6025,
  "▁vehic": 6026,
  "Address": 6027,
  "▁nur": 6029,
  "▁cá": 6030,
  "▁typ": 6031,
  "▁Auto": 6033,
  "Cell": 6034,
  "▁gro": 6035,
  "▁capital": 6037,
  "▁electric": 6038,
  "inten": 6039,
  "eller": 6040,
  "GET": 6041,
  "▁uns": 6042,
  "cie": 6043,
  "▁learning": 6044,
  "▁focus": 6045,
  "▁David": 6046,
  "Open": 6047,
  "parse": 6048,
  "Pe": 6049,
  "▁dry": 6050,
  "▁tout": 6051,
  "▁ik": 6052,
  "wers": 6053,
  "▁gain": 6055,
  "asks": 6057,
  "▁pap": 6059,
  "▁ax": 6060,
  "lee": 6061,
  "osa": 6062,
  "▁era": 6063,
  "▁device": 6064,
  "vy": 6065,
  "▁active": 6066,
  "▁fl": 6067,
  "ashion": 6068,
  "▁bul": 6069,
  "▁ON": 6070,
  "▁tran": 6071,
  "▁host": 6072,
  "▁Por": 6074,
  "▁distance": 6075,
  "oni": 6076,
  "▁recent": 6077,
  "▁exer": 6078,
  "▁slow": 6080,
  "▁France": 6081,
  "▁trade": 6082,
  "undo": 6083,
  "iting": 6084,
  "zel": 6085,
  "▁button": 6086,
  "ivo": 6087,
  "product": 6088,
  "ég": 6089,
  "▁royal": 6090,
  "ename": 6091,
  "▁California": 6092,
  "buf": 6093,
  "column": 6094,
  "cussion": 6095,
  "ustomer": 6096,
  "▁mad": 6097,
  "▁Ear": 6098,
  "efore": 6099,
  "ANT": 6100,
  "III": 6101,
  "▁effic": 6102,
  "ristian": 6103,
  "▁wiki": 6104,
  "▁acqu": 6105,
  "rup": 6106,
  "RES": 6107,
  "▁drive": 6109,
  "▁James": 6110,
  "house": 6111,
  "ICE": 6112,
  "▁OR": 6113,
  "Ins": 6114,
  "ecute": 6115,
  "uan": 6116,
  "cout": 6117,
  "ership": 6118,
  "▁Dem": 6119,
  "▁organiz": 6121,
  "Sal": 6122,
  "aten": 6124,
  "ecause": 6125,
  "▁cro": 6126,
  "entity": 6127,
  "▁goes": 6128,
  "▁Shi": 6129,
  "Valid": 6130,
  "▁Sum": 6131,
  "ades": 6132,
  "▁town": 6133,
  "pair": 6134,
  "▁AL": 6135,
  "▁Over": 6136,
  "▁attention": 6137,
  "▁fol": 6138,
  "▁letter": 6139,
  "Output": 6140,
  "▁sco": 6141,
  "▁books": 6142,
  "▁altern": 6143,
  "nu": 6144,
  "plan": 6145,
  "widget": 6147,
  "holder": 6148,
  "ensity": 6149,
  "nical": 6150,
  "Je": 6151,
  "▁wife": 6152,
  "Sta": 6153,
  "▁sand": 6154,
  "▁playing": 6155,
  "▁gives": 6156,
  "▁ef": 6157,
  "THE": 6158,
  "aking": 6159,
  "▁scre": 6160,
  "▁ones": 6162,
  "apat": 6163,
  "Rem": 6164,
  "▁Number": 6165,
  "▁MA": 6167,
  "Material": 6168,
  "▁evalu": 6169,
  "udo": 6170,
  "subsubsection": 6171,
  "CS": 6172,
  "▁luck": 6173,
  "▁Austral": 6175,
  "▁för": 6177,
  "▁technology": 6178,
  "Well": 6179,
  "enge": 6180,
  "▁fat": 6181,
  "Child": 6182,
  "▁wird": 6183,
  "EO": 6184,
  "▁mechan": 6185,
  "▁summer": 6186,
  "▁purpose": 6187,
  "anya": 6188,
  "eden": 6189,
  "cr": 6190,
  "▁international": 6191,
  "Off": 6192,
  "sem": 6193,
  "FT": 6194,
  "▁Ent": 6195,
  "Best": 6196,
  "▁Que": 6197,
  "▁wish": 6199,
  "▁numer": 6200,
  "▁Ill": 6201,
  "▁species": 6202,
  "▁reference": 6203,
  "▁purcha": 6204,
  "▁materials": 6205,
  "▁security": 6206,
  "▁respect": 6207,
  "▁hotel": 6208,
  "arma": 6209,
  "▁Company": 6210,
  "▁users": 6211,
  "ück": 6212,
  "water": 6213,
  "bag": 6214,
  "▁Type": 6215,
  "URL": 6217,
  "▁statement": 6218,
  "bri": 6219,
  "▁felt": 6220,
  "▁constant": 6221,
  "▁positive": 6222,
  "▁plas": 6223,
  "xx": 6224,
  "▁votre": 6225,
  "▁Bank": 6226,
  "Length": 6227,
  "PM": 6228,
  "ooth": 6229,
  "▁restaur": 6231,
  "▁cab": 6232,
  "▁built": 6233,
  "nik": 6234,
  "▁Pra": 6235,
  "tively": 6236,
  "▁Log": 6237,
  "▁Google": 6238,
  "▁unique": 6239,
  "HO": 6240,
  "▁choice": 6241,
  "Game": 6242,
  "▁respec": 6243,
  "ROM": 6244,
  "▁AT": 6245,
  "▁states": 6246,
  "▁finally": 6247,
  "▁stream": 6249,
  "▁Lord": 6250,
  "▁Life": 6251,
  "▁Program": 6252,
  "▁random": 6253,
  "▁wir": 6254,
  "▁god": 6255,
  "▁charge": 6256,
  "Dele": 6257,
  "Email": 6258,
  "▁Los": 6259,
  "venue": 6260,
  "ſt": 6261,
  "Op": 6262,
  "aling": 6265,
  "gency": 6266,
  "lite": 6267,
  "▁feature": 6268,
  "▁political": 6269,
  "figure": 6270,
  "▁Tri": 6271,
  "Other": 6273,
  "home": 6274,
  "▁inform": 6275,
  "▁attack": 6279,
  "▁population": 6280,
  "▁looked": 6281,
  "FL": 6282,
  "▁sleep": 6284,
  "ller": 6285,
  "▁bur": 6286,
  "▁Yes": 6287,
  "▁Cent": 6288,
  "tie": 6290,
  "ischen": 6291,
  "bles": 6292,
  "▁brought": 6293,
  "▁institu": 6295,
  "dius": 6296,
  "▁Ve": 6297,
  "riteria": 6299,
  "▁Tem": 6301,
  "▁logo": 6302,
  "▁adv": 6303,
  "▁whose": 6305,
  "▁src": 6306,
  "▁Design": 6307,
  "▁Rich": 6308,
  "known": 6309,
  "né": 6310,
  "oul": 6311,
  "▁eye": 6312,
  "login": 6313,
  "uda": 6314,
  "Param": 6315,
  "▁fond": 6316,
  "Ali": 6317,
  "▁thus": 6319,
  "ARD": 6320,
  "anz": 6322,
  "apt": 6323,
  "PER": 6324,
  "▁stage": 6325,
  "itch": 6327,
  "▁analy": 6328,
  "▁args": 6329,
  "Frame": 6330,
  "▁costs": 6331,
  "mg": 6333,
  "late": 6334,
  "global": 6335,
  "▁resources": 6336,
  "BR": 6337,
  "vest": 6339,
  "olar": 6341,
  "▁resist": 6342,
  "▁began": 6343,
  "Ter": 6344,
  "uede": 6345,
  "▁parte": 6346,
  "PORT": 6347,
  "▁IT": 6349,
  "▁amp": 6350,
  "▁manufact": 6351,
  "Next": 6353,
  "Ma": 6354,
  "iente": 6355,
  "▁Bre": 6356,
  "non": 6357,
  "oring": 6359,
  "ías": 6360,
  "kom": 6361,
  "BER": 6362,
  "▁February": 6363,
  "▁rules": 6364,
  "ciones": 6366,
  "bur": 6368,
  "▁Paul": 6369,
  "▁hour": 6370,
  "▁Report": 6371,
  "▁Just": 6372,
  "mann": 6373,
  "▁dur": 6374,
  "xi": 6375,
  "▁Open": 6376,
  "Main": 6377,
  "▁reach": 6378,
  "▁labor": 6379,
  "GL": 6380,
  "loss": 6381,
  "swing": 6382,
  "▁carry": 6383,
  "idos": 6384,
  "▁Fig": 6385,
  "margin": 6387,
  "ango": 6388,
  "pat": 6389,
  "▁NO": 6390,
  "props": 6391,
  "pet": 6393,
  "▁Free": 6394,
  "filter": 6395,
  "words": 6396,
  "▁follows": 6397,
  "tification": 6398,
  "Phone": 6401,
  "▁thanks": 6402,
  "▁digital": 6403,
  "asures": 6404,
  "▁fab": 6405,
  "▁bound": 6406,
  "Lin": 6407,
  "▁Mart": 6409,
  "▁selected": 6410,
  "▁Oh": 6411,
  "Thread": 6412,
  "mended": 6413,
  "▁announ": 6415,
  "▁integr": 6416,
  "▁impact": 6418,
  "aro": 6419,
  "erved": 6420,
  "▁Ba": 6421,
  "▁fresh": 6422,
  "▁tried": 6423,
  "▁parents": 6424,
  "tique": 6425,
  "oose": 6426,
  "▁receive": 6427,
  "illing": 6428,
  "▁Met": 6429,
  "perties": 6430,
  "▁piece": 6431,
  "▁hyd": 6432,
  "lling": 6433,
  "ijn": 6434,
  "▁segu": 6435,
  "Show": 6436,
  "▁touch": 6437,
  "▁studies": 6438,
  "▁companies": 6439,
  "▁Method": 6441,
  "▁Hand": 6442,
  "Change": 6443,
  "▁sty": 6444,
  "Default": 6445,
  "minal": 6446,
  "description": 6448,
  "▁serious": 6449,
  "actions": 6451,
  "burg": 6452,
  "▁sample": 6453,
  "▁commer": 6454,
  "aled": 6455,
  "▁Part": 6456,
  "Total": 6457,
  "▁White": 6458,
  "Forms": 6459,
  "▁premi": 6460,
  "▁LA": 6461,
  "Card": 6462,
  "▁techni": 6463,
  "▁Other": 6464,
  "tmp": 6465,
  "iff": 6466,
  "multi": 6467,
  "part": 6468,
  "Panel": 6470,
  "alla": 6471,
  "meta": 6472,
  "▁Year": 6473,
  "patch": 6474,
  "▁choose": 6475,
  "▁chapter": 6476,
  "bet": 6477,
  "▁Jes": 6478,
  "▁machine": 6479,
  "▁icon": 6480,
  "▁Indian": 6481,
  "kg": 6482,
  "▁prepar": 6483,
  "dict": 6484,
  "alo": 6485,
  "ções": 6486,
  "yan": 6487,
  "lief": 6488,
  "ategy": 6489,
  "▁quanti": 6490,
  "baj": 6491,
  "sq": 6492,
  "anges": 6493,
  "▁guys": 6494,
  "vez": 6495,
  "ERR": 6496,
  "ál": 6497,
  "▁wy": 6498,
  "aa": 6499,
  "ugh": 6500,
  "real": 6501,
  "▁accept": 6502,
  "olog": 6503,
  "▁remove": 6504,
  "anne": 6505,
  "▁Em": 6506,
  "astic": 6507,
  "▁saying": 6508,
  "aren": 6509,
  "▁introdu": 6510,
  "▁sau": 6511,
  "menu": 6512,
  "pected": 6513,
  "▁safety": 6514,
  "tains": 6515,
  "mbda": 6516,
  "▁micro": 6517,
  "▁AD": 6518,
  "Pack": 6519,
  "▁constru": 6520,
  "▁Fore": 6521,
  "unday": 6522,
  "▁dream": 6523,
  "▁emer": 6524,
  "▁EX": 6525,
  "▁Na": 6526,
  "ooper": 6527,
  "▁poor": 6528,
  "estin": 6529,
  "▁fix": 6530,
  "▁todo": 6531,
  "▁Vir": 6533,
  "stal": 6534,
  "▁bool": 6535,
  "▁ger": 6536,
  "▁resource": 6537,
  "▁Rem": 6538,
  "▁Fre": 6539,
  "CP": 6540,
  "Ra": 6541,
  "pla": 6542,
  "▁NOT": 6544,
  "ại": 6545,
  "uster": 6546,
  "▁described": 6547,
  "▁Men": 6548,
  "ees": 6549,
  "success": 6550,
  "continue": 6551,
  "▁College": 6552,
  "▁Great": 6553,
  "▁obj": 6555,
  "amo": 6556,
  "▁pes": 6558,
  "▁wrote": 6559,
  "lements": 6560,
  "▁greater": 6561,
  "undle": 6562,
  "▁alone": 6563,
  "▁ven": 6564,
  "iet": 6565,
  "▁includes": 6566,
  "▁End": 6567,
  "▁Main": 6568,
  "▁Board": 6569,
  "was": 6570,
  "Who": 6571,
  "▁provides": 6572,
  "▁zur": 6573,
  "▁simply": 6574,
  "allery": 6575,
  "based": 6576,
  "ctors": 6577,
  "▁economic": 6578,
  "Conclusion": 6580,
  "▁direction": 6581,
  "▁construction": 6584,
  "process": 6585,
  "CM": 6587,
  "▁train": 6588,
  "▁handle": 6589,
  "ancy": 6590,
  "▁Canada": 6591,
  "▁Jack": 6592,
  "vector": 6593,
  "IX": 6594,
  "ungs": 6595,
  "▁Fil": 6597,
  "Case": 6598,
  "▁py": 6599,
  "olve": 6601,
  "eles": 6602,
  "ppy": 6603,
  "Long": 6604,
  "env": 6605,
  "ously": 6606,
  "▁Rel": 6607,
  "▁knew": 6608,
  "foto": 6609,
  "dist": 6610,
  "▁ton": 6611,
  "Tem": 6612,
  "▁mir": 6613,
  "pect": 6614,
  "Dialog": 6615,
  "▁select": 6616,
  "initely": 6617,
  "▁sé": 6618,
  "▁voc": 6619,
  "▁volume": 6620,
  "Repository": 6621,
  "▁indep": 6625,
  "ất": 6627,
  "▁ped": 6628,
  "▁increased": 6629,
  "▁files": 6630,
  "▁Lou": 6631,
  "▁Government": 6632,
  "▁repres": 6633,
  "▁Land": 6634,
  "▁elements": 6635,
  "▁util": 6638,
  "AK": 6639,
  "▁players": 6640,
  "athered": 6641,
  "offee": 6642,
  "▁towards": 6643,
  "▁pin": 6644,
  "▁easily": 6645,
  "ril": 6646,
  "WS": 6647,
  "▁Bet": 6648,
  "▁Power": 6649,
  "▁customer": 6650,
  "tir": 6651,
  "▁apply": 6652,
  "▁connection": 6653,
  "ới": 6654,
  "ình": 6655,
  "▁Op": 6656,
  "paper": 6657,
  "▁Joh": 6658,
  "session": 6659,
  "fen": 6660,
  "Grid": 6661,
  "oting": 6662,
  "ibli": 6663,
  "▁involved": 6664,
  "Ag": 6665,
  "▁Cong": 6666,
  "hor": 6667,
  "▁stuff": 6668,
  "▁conven": 6669,
  "Num": 6670,
  "springframework": 6671,
  "▁lives": 6672,
  "▁directly": 6673,
  "▁Stand": 6674,
  "▁Mu": 6675,
  "▁transport": 6676,
  "priate": 6677,
  "▁bla": 6678,
  "eces": 6679,
  "▁jak": 6680,
  "▁concentr": 6681,
  "▁equipment": 6682,
  "▁earth": 6683,
  "▁tab": 6684,
  "Oper": 6685,
  "▁Af": 6686,
  "▁się": 6687,
  "tung": 6688,
  "▁sequ": 6689,
  "▁Gar": 6690,
  "▁durch": 6691,
  "ugar": 6692,
  "player": 6693,
  "ably": 6694,
  "être": 6695,
  "layout": 6696,
  "GO": 6697,
  "▁Code": 6698,
  "▁prefer": 6700,
  "▁River": 6701,
  "hist": 6702,
  "▁pero": 6703,
  "uma": 6704,
  "Price": 6705,
  "▁writing": 6706,
  "store": 6709,
  "bus": 6710,
  "Body": 6711,
  "SO": 6712,
  "▁eu": 6713,
  "ston": 6714,
  "aba": 6715,
  "require": 6716,
  "person": 6717,
  "▁heat": 6719,
  "sey": 6720,
  "Die": 6721,
  "▁nue": 6723,
  "▁Green": 6724,
  "▁expand": 6725,
  "John": 6726,
  "ambién": 6727,
  "▁sort": 6728,
  "Last": 6729,
  "▁Bas": 6730,
  "agnos": 6731,
  "ulty": 6732,
  "▁multiple": 6733,
  "▁tot": 6734,
  "night": 6735,
  "Sign": 6736,
  "BN": 6737,
  "▁Tom": 6738,
  "▁Id": 6739,
  "▁Arch": 6740,
  "▁mess": 6741,
  "Drawing": 6743,
  "▁Organ": 6745,
  "▁Phi": 6746,
  "taining": 6747,
  "▁medic": 6748,
  "Hey": 6750,
  "Buffer": 6752,
  "Mr": 6754,
  "AA": 6755,
  "▁Book": 6757,
  "zes": 6758,
  "ulated": 6759,
  "▁demon": 6760,
  "idade": 6761,
  "itect": 6763,
  "auth": 6764,
  "ische": 6765,
  "ASE": 6766,
  "▁download": 6767,
  "rence": 6768,
  "▁Road": 6769,
  "▁pré": 6770,
  "▁Color": 6771,
  "▁json": 6772,
  "vos": 6773,
  "▁basis": 6774,
  "▁Well": 6775,
  "make": 6778,
  "aran": 6779,
  "enses": 6781,
  "Factory": 6782,
  "▁bey": 6783,
  "▁floor": 6784,
  "▁wind": 6785,
  "kk": 6786,
  "▁turned": 6787,
  "IVE": 6788,
  "▁goal": 6789,
  "▁professional": 6790,
  "▁operation": 6791,
  "▁solid": 6792,
  "▁Also": 6793,
  "▁Engine": 6794,
  "Non": 6795,
  "▁einer": 6796,
  "force": 6797,
  "Dr": 6798,
  "prise": 6799,
  "▁worked": 6800,
  "▁gets": 6803,
  "▁Church": 6804,
  "▁Wal": 6805,
  "Na": 6806,
  "▁isol": 6807,
  "▁Science": 6809,
  "▁Array": 6810,
  "▁modif": 6811,
  "undred": 6812,
  "Container": 6813,
  "▁Rob": 6814,
  "▁software": 6815,
  "▁mut": 6816,
  "▁sac": 6817,
  "Right": 6818,
  "frica": 6819,
  "uns": 6820,
  "esch": 6821,
  "▁Why": 6822,
  "Author": 6823,
  "▁deliver": 6824,
  "esome": 6825,
  "acters": 6826,
  "▁Cat": 6828,
  "Sche": 6829,
  "graf": 6830,
  "Local": 6831,
  "▁Miss": 6832,
  "▁zum": 6833,
  "Empty": 6834,
  "▁Top": 6835,
  "▁myself": 6836,
  "▁bottom": 6837,
  "▁paid": 6838,
  "▁Person": 6839,
  "▁Div": 6840,
  "▁pá": 6841,
  "liche": 6842,
  "▁relationship": 6843,
  "rot": 6844,
  "Current": 6846,
  "aka": 6847,
  "inese": 6849,
  "▁pel": 6850,
  "android": 6851,
  "▁correspond": 6852,
  "▁places": 6853,
  "Command": 6854,
  "▁Pol": 6855,
  "▁avoid": 6858,
  "▁basic": 6859,
  "split": 6860,
  "▁seven": 6861,
  "usion": 6862,
  "▁Gold": 6863,
  "too": 6864,
  "▁cette": 6865,
  "▁Tur": 6867,
  "enne": 6868,
  "▁designed": 6869,
  "Il": 6870,
  "▁equal": 6871,
  "kar": 6872,
  "ivil": 6873,
  "▁inj": 6874,
  "▁computer": 6875,
  "▁vic": 6876,
  "▁lang": 6877,
  "▁forma": 6878,
  "▁England": 6879,
  "▁root": 6880,
  "alls": 6881,
  "Types": 6882,
  "▁pattern": 6883,
  "▁memory": 6884,
  "background": 6885,
  "▁Bal": 6886,
  "▁expression": 6887,
  "▁Any": 6888,
  "▁rom": 6889,
  "▁Rev": 6891,
  "Fin": 6892,
  "ror": 6893,
  "▁aqu": 6894,
  "▁financial": 6895,
  "SD": 6896,
  "▁illustration": 6897,
  "▁acid": 6898,
  "▁throughout": 6900,
  "▁menu": 6901,
  "▁esp": 6902,
  "bas": 6903,
  "quid": 6904,
  "tivity": 6905,
  "▁Jah": 6906,
  "rad": 6907,
  "▁defined": 6908,
  "labor": 6909,
  "▁medical": 6910,
  "▁task": 6911,
  "▁consum": 6912,
  "Json": 6913,
  "▁spirit": 6914,
  "▁physical": 6915,
  "▁viol": 6916,
  "▁Commission": 6918,
  "▁protection": 6919,
  "▁shop": 6920,
  "dent": 6921,
  "Your": 6922,
  "Integer": 6923,
  "ioni": 6924,
  "▁File": 6925,
  "Mer": 6926,
  "▁credit": 6927,
  "Options": 6928,
  "▁limited": 6929,
  "▁dia": 6930,
  "▁flex": 6931,
  "menta": 6932,
  "▁rule": 6933,
  "▁server": 6934,
  "izing": 6935,
  "ONE": 6936,
  "onday": 6937,
  "endi": 6941,
  "rain": 6942,
  "▁absolute": 6943,
  "black": 6944,
  "▁properties": 6945,
  "Args": 6946,
  "▁sometimes": 6947,
  "WE": 6948,
  "beta": 6949,
  "▁củ": 6950,
  "Nav": 6951,
  "▁offers": 6952,
  "annotation": 6953,
  "Serial": 6954,
  "vé": 6955,
  "Also": 6956,
  "▁Check": 6958,
  "▁scale": 6959,
  "Block": 6960,
  "cro": 6961,
  "rung": 6962,
  "▁pun": 6963,
  "▁quel": 6964,
  "Li": 6967,
  "PICTOGRAM": 6968,
  "eared": 6969,
  "▁float": 6970,
  "uj": 6971,
  "eler": 6972,
  "border": 6973,
  "▁Page": 6974,
  "▁tit": 6975,
  "▁Will": 6976,
  "▁allowed": 6977,
  "▁Game": 6978,
  "isk": 6979,
  "▁Back": 6980,
  "▁culture": 6981,
  "Level": 6982,
  "ady": 6983,
  "fill": 6984,
  "▁flat": 6985,
  "dule": 6986,
  "▁French": 6987,
  "HA": 6988,
  "▁ol": 6989,
  "▁developed": 6990,
  "▁played": 6991,
  "Collections": 6992,
  "ULT": 6994,
  "urer": 6995,
  "▁meaning": 6996,
  "tives": 6997,
  "ODE": 6998,
  "essor": 6999,
  "Height": 7000,
  "▁dir": 7001,
  "▁attra": 7002,
  "endar": 7003,
  "▁Tod": 7004,
  "▁condu": 7005,
  "▁Office": 7006,
  "ctx": 7007,
  "clo": 7008,
  "pisode": 7009,
  "mode": 7010,
  "▁Bay": 7011,
  "▁Ev": 7012,
  "nak": 7013,
  "lı": 7014,
  "▁UK": 7015,
  "▁gradu": 7016,
  "▁effective": 7017,
  "▁published": 7018,
  "aca": 7019,
  "▁Two": 7020,
  "isch": 7021,
  "Dan": 7022,
  "▁located": 7023,
  "brary": 7024,
  "Search": 7025,
  "▁objec": 7027,
  "ributes": 7028,
  "▁track": 7029,
  "edding": 7030,
  "door": 7032,
  "▁cold": 7033,
  "▁obtained": 7034,
  "▁legal": 7035,
  "ORD": 7036,
  "▁cop": 7037,
  "▁Mil": 7038,
  "▁spot": 7039,
  "▁Pet": 7040,
  "▁Lin": 7041,
  "▁damage": 7042,
  "control": 7044,
  "DF": 7046,
  "rar": 7048,
  "▁Washington": 7049,
  "▁Council": 7050,
  "▁mig": 7051,
  "▁changed": 7052,
  "▁ty": 7053,
  "ragment": 7054,
  "▁express": 7055,
  "Use": 7056,
  "▁ont": 7057,
  "lä": 7058,
  "▁associated": 7059,
  "▁voice": 7061,
  "▁CA": 7062,
  "tein": 7063,
  "iano": 7064,
  "got": 7065,
  "onna": 7066,
  "lls": 7067,
  "▁chance": 7068,
  "rá": 7069,
  "Task": 7071,
  "▁của": 7073,
  "▁daily": 7074,
  "lambda": 7075,
  "▁occas": 7076,
  "▁comme": 7077,
  "chaft": 7079,
  "copy": 7080,
  "▁Star": 7081,
  "▁dam": 7082,
  "gas": 7083,
  "Work": 7084,
  "rics": 7085,
  "orith": 7087,
  "▁conta": 7088,
  "expect": 7089,
  "ME": 7090,
  "▁farm": 7091,
  "▁votes": 7093,
  "▁currently": 7094,
  "▁rock": 7095,
  "▁accep": 7096,
  "itary": 7098,
  "iring": 7099,
  "look": 7100,
  "▁Produ": 7102,
  "▁interesting": 7103,
  "mem": 7105,
  "▁exam": 7106,
  "▁distribution": 7107,
  "▁sales": 7108,
  "▁einen": 7109,
  "▁Cook": 7110,
  "▁aber": 7111,
  "▁miles": 7112,
  "care": 7113,
  "toString": 7114,
  "pc": 7115,
  "idence": 7116,
  "ffect": 7117,
  "▁Ext": 7118,
  "ores": 7119,
  "eral": 7120,
  "▁är": 7121,
  "Home": 7122,
  "vc": 7123,
  "▁peace": 7124,
  "rait": 7125,
  "rank": 7126,
  "▁Paris": 7127,
  "▁gal": 7128,
  "▁emo": 7129,
  "▁William": 7130,
  "aturday": 7131,
  "▁spe": 7132,
  "▁implement": 7133,
  "▁platform": 7134,
  "Que": 7135,
  "amento": 7136,
  "▁arr": 7137,
  "▁customers": 7138,
  "container": 7139,
  "lichen": 7140,
  "eck": 7141,
  "▁Sil": 7142,
  "rf": 7143,
  "▁LE": 7145,
  "ervation": 7146,
  "▁agree": 7147,
  "▁station": 7148,
  "▁British": 7149,
  "▁initi": 7150,
  "▁degree": 7151,
  "imo": 7152,
  "▁Ham": 7153,
  "▁helps": 7154,
  "cting": 7155,
  "ße": 7156,
  "ibility": 7157,
  "▁Cla": 7158,
  "▁Kar": 7159,
  "▁steps": 7161,
  "Are": 7162,
  "Position": 7163,
  "▁Den": 7164,
  "▁nation": 7165,
  "▁thinking": 7166,
  "▁celebr": 7167,
  "▁dalam": 7168,
  "ige": 7169,
  "works": 7171,
  "common": 7172,
  "missions": 7173,
  "▁pad": 7174,
  "Person": 7175,
  "▁hier": 7176,
  "▁uses": 7177,
  "aga": 7179,
  "▁bow": 7181,
  "▁drink": 7182,
  "Bio": 7183,
  "dit": 7184,
  "▁middle": 7185,
  "tick": 7186,
  "▁execu": 7187,
  "iki": 7188,
  "▁cup": 7190,
  "bat": 7191,
  "eth": 7192,
  "▁filter": 7194,
  "akes": 7195,
  "izes": 7196,
  "▁disease": 7197,
  "Version": 7198,
  "▁neu": 7199,
  "tection": 7200,
  "▁king": 7201,
  "het": 7202,
  "ATA": 7203,
  "umns": 7204,
  "▁Every": 7205,
  "▁passed": 7206,
  "ustain": 7207,
  "utri": 7208,
  "▁broad": 7209,
  "▁noch": 7210,
  "▁Business": 7211,
  "▁solo": 7212,
  "▁ao": 7213,
  "▁gl": 7214,
  "▁má": 7215,
  "bul": 7216,
  "▁tool": 7217,
  "enen": 7218,
  "▁Management": 7219,
  "arios": 7220,
  "▁interface": 7222,
  "▁capa": 7224,
  "Ac": 7226,
  "▁Prin": 7227,
  "▁Hen": 7228,
  "Book": 7229,
  "▁Facebook": 7230,
  "thentic": 7231,
  "▁gel": 7232,
  "▁central": 7233,
  "▁ki": 7234,
  "ament": 7235,
  "component": 7236,
  "href": 7237,
  "utter": 7238,
  "rowser": 7239,
  "▁PL": 7240,
  "▁ble": 7241,
  "template": 7242,
  "▁Son": 7243,
  "▁IV": 7244,
  "amer": 7245,
  "itz": 7246,
  "fier": 7247,
  "▁Start": 7248,
  "▁nel": 7249,
  "tx": 7250,
  "▁opportunity": 7251,
  "▁session": 7252,
  "▁USA": 7253,
  "▁supply": 7254,
  "vs": 7255,
  "FR": 7256,
  "▁functions": 7257,
  "pring": 7258,
  "inc": 7259,
  "▁reply": 7260,
  "MP": 7261,
  "done": 7262,
  "▁slight": 7263,
  "ias": 7264,
  "hibi": 7265,
  "Background": 7266,
  "uta": 7267,
  "▁strength": 7268,
  "▁Cho": 7269,
  "bla": 7270,
  "▁hay": 7271,
  "▁Found": 7272,
  "reek": 7273,
  "▁extreme": 7274,
  "▁useful": 7275,
  "▁hus": 7276,
  "▁rich": 7277,
  "▁Max": 7278,
  "Header": 7279,
  "▁rot": 7280,
  "▁ker": 7281,
  "stop": 7282,
  "byte": 7283,
  "grid": 7284,
  "▁Down": 7285,
  "tech": 7286,
  "▁sed": 7287,
  "▁SP": 7288,
  "▁speak": 7289,
  "▁quickly": 7290,
  "▁Smith": 7292,
  "anto": 7293,
  "▁Vis": 7294,
  "quer": 7296,
  "▁pages": 7297,
  "ae": 7299,
  "ection": 7300,
  "aughter": 7301,
  "▁reve": 7302,
  "▁Alex": 7303,
  "▁Figure": 7304,
  "Window": 7305,
  "▁accomp": 7306,
  "▁Wil": 7308,
  "jar": 7309,
  "example": 7310,
  "▁mini": 7311,
  "▁tut": 7312,
  "ification": 7313,
  "TP": 7314,
  "estival": 7315,
  "▁poster": 7316,
  "arian": 7318,
  "▁Create": 7319,
  "▁Tor": 7321,
  "▁completely": 7322,
  "▁tend": 7323,
  "Player": 7324,
  "items": 7325,
  "atively": 7326,
  "▁pet": 7327,
  "road": 7328,
  "Application": 7329,
  "shi": 7330,
  "▁reci": 7331,
  "▁wasn": 7332,
  "only": 7333,
  "▁Gal": 7334,
  "▁Im": 7335,
  "▁Mrs": 7336,
  "▁closed": 7337,
  "gel": 7338,
  "▁register": 7339,
  "▁projects": 7340,
  "▁Jer": 7342,
  "▁neigh": 7343,
  "▁movie": 7344,
  "▁mix": 7345,
  "▁Mid": 7346,
  "mons": 7347,
  "Init": 7348,
  "▁histor": 7350,
  "uto": 7351,
  "ibrary": 7352,
  "▁wea": 7353,
  "▁Best": 7354,
  "▁poly": 7355,
  "▁rent": 7356,
  "▁Exper": 7357,
  "▁amazing": 7358,
  "filepath": 7359,
  "stro": 7360,
  "vat": 7361,
  "▁plans": 7362,
  "conf": 7363,
  "mbre": 7364,
  "rick": 7365,
  "Day": 7366,
  "▁symp": 7367,
  "äl": 7368,
  "▁corre": 7369,
  "▁primer": 7370,
  "▁Journal": 7371,
  "secon": 7372,
  "▁George": 7373,
  "▁ability": 7374,
  "Copy": 7376,
  "▁Love": 7377,
  "▁recently": 7378,
  "REF": 7379,
  "Yeah": 7380,
  "ensive": 7381,
  "▁fully": 7382,
  "pret": 7383,
  "white": 7384,
  "▁giving": 7385,
  "▁intel": 7386,
  "▁storage": 7387,
  "▁BE": 7390,
  "▁colle": 7391,
  "Auth": 7392,
  "ideos": 7393,
  "tivo": 7395,
  "GB": 7396,
  "teur": 7399,
  "ún": 7400,
  "▁secret": 7401,
  "▁Box": 7402,
  "▁died": 7404,
  "▁hous": 7405,
  "▁Ko": 7406,
  "▁ring": 7408,
  "Then": 7409,
  "Details": 7410,
  "inde": 7411,
  "tempt": 7412,
  "jour": 7413,
  "goto": 7414,
  "▁Flo": 7416,
  "pto": 7417,
  "▁exception": 7418,
  "▁glo": 7419,
  "rency": 7420,
  "gun": 7421,
  "▁repe": 7422,
  "▁kön": 7423,
  "png": 7424,
  "▁CL": 7425,
  "▁render": 7426,
  "▁meta": 7427,
  "equals": 7428,
  "▁Ali": 7430,
  "▁appreci": 7431,
  "▁street": 7432,
  "▁ensure": 7433,
  "BE": 7434,
  "▁factor": 7435,
  "alah": 7436,
  "kat": 7437,
  "▁dit": 7438,
  "sión": 7439,
  "▁fear": 7440,
  "▁park": 7441,
  "children": 7442,
  "▁master": 7443,
  "Les": 7444,
  "▁Sun": 7445,
  "▁Bur": 7446,
  "▁Cas": 7448,
  "▁batter": 7450,
  "▁hop": 7451,
  "▁conver": 7453,
  "▁hospital": 7454,
  "eau": 7455,
  "igation": 7456,
  "▁Under": 7457,
  "lugin": 7458,
  "ulate": 7459,
  "▁career": 7460,
  "imagen": 7463,
  "▁guess": 7464,
  "▁Sele": 7465,
  "Cap": 7466,
  "▁casa": 7467,
  "▁sab": 7468,
  "▁Services": 7469,
  "Save": 7470,
  "▁todos": 7471,
  "▁Gen": 7472,
  "▁Mary": 7473,
  "▁doll": 7474,
  "▁highly": 7475,
  "rive": 7476,
  "ità": 7477,
  "▁Cer": 7478,
  "▁shape": 7479,
  "empty": 7480,
  "ourse": 7481,
  "▁Education": 7482,
  "▁survi": 7483,
  "gb": 7484,
  "ih": 7485,
  "▁url": 7486,
  "▁Map": 7487,
  "▁psy": 7488,
  "▁beginning": 7489,
  "bind": 7491,
  "▁puede": 7492,
  "▁requirements": 7493,
  "gni": 7494,
  "▁muy": 7495,
  "ết": 7496,
  "ême": 7498,
  "window": 7499,
  "ategories": 7500,
  "▁prices": 7501,
  "▁Ok": 7502,
  "sin": 7503,
  "ENC": 7504,
  "padding": 7505,
  "▁Sc": 7506,
  "VAL": 7507,
  "▁einem": 7508,
  "▁ship": 7509,
  "Ben": 7510,
  "power": 7511,
  "▁stress": 7512,
  "wired": 7514,
  "IK": 7515,
  "▁Big": 7517,
  "bio": 7518,
  "uff": 7519,
  "ects": 7520,
  "Sm": 7521,
  "▁happened": 7522,
  "▁Social": 7524,
  "tml": 7526,
  "cam": 7527,
  "▁plain": 7528,
  "onds": 7529,
  "fast": 7530,
  "iga": 7532,
  "▁PC": 7533,
  "theta": 7534,
  "▁assess": 7535,
  "▁Thomas": 7536,
  "marks": 7537,
  "Server": 7538,
  "▁forms": 7539,
  "▁hundred": 7541,
  "admin": 7542,
  "oi": 7543,
  "▁immediately": 7544,
  "price": 7545,
  "▁although": 7546,
  "▁factors": 7549,
  "▁smart": 7550,
  "ACE": 7551,
  "▁Development": 7552,
  "weight": 7553,
  "▁notice": 7554,
  "▁Sign": 7555,
  "icial": 7556,
  "▁Aus": 7557,
  "▁wur": 7558,
  "Features": 7559,
  "liance": 7560,
  "▁Committee": 7562,
  "ço": 7564,
  "▁born": 7565,
  "ithub": 7566,
  "cdot": 7568,
  "FE": 7569,
  "Api": 7570,
  "▁wild": 7571,
  "▁Control": 7572,
  "ikan": 7573,
  "Great": 7574,
  "▁Tre": 7576,
  "▁Run": 7577,
  "sv": 7580,
  "▁Tex": 7581,
  "▁Roy": 7582,
  "wide": 7584,
  "RL": 7585,
  "▁Lat": 7586,
  "Si": 7587,
  "atalog": 7588,
  "don": 7589,
  "▁column": 7590,
  "dot": 7591,
  "usa": 7592,
  "▁thank": 7593,
  "▁schools": 7594,
  "Sa": 7595,
  "▁sold": 7596,
  "allow": 7597,
  "nother": 7598,
  "▁followed": 7599,
  "▁Ann": 7600,
  "Enable": 7602,
  "Widget": 7603,
  "Connection": 7604,
  "▁drop": 7605,
  "itas": 7606,
  "▁lan": 7607,
  "▁Pan": 7608,
  "▁itu": 7611,
  "▁inde": 7612,
  "▁contract": 7613,
  "▁Object": 7614,
  "▁encou": 7615,
  "term": 7617,
  "generated": 7618,
  "▁tidak": 7619,
  "▁Windows": 7620,
  "Notes": 7622,
  "▁Oper": 7623,
  "▁whom": 7624,
  "Did": 7625,
  "▁indi": 7626,
  "▁kann": 7627,
  "anging": 7628,
  "äh": 7629,
  "▁compared": 7631,
  "screen": 7632,
  "uten": 7633,
  "values": 7634,
  "▁mobile": 7635,
  "▁spea": 7636,
  "clusions": 7638,
  "Each": 7639,
  "▁Blue": 7640,
  "life": 7641,
  "ributed": 7642,
  "▁Twitter": 7643,
  "match": 7644,
  "Py": 7646,
  "▁AS": 7647,
  "▁Ja": 7648,
  "nov": 7649,
  "▁firm": 7650,
  "▁views": 7651,
  "▁plants": 7652,
  "▁mel": 7653,
  "Part": 7656,
  "▁programs": 7658,
  "▁presented": 7659,
  "▁fue": 7660,
  "rus": 7661,
  "▁False": 7662,
  "Sk": 7663,
  "▁Mit": 7664,
  "wal": 7665,
  "▁mac": 7667,
  "▁ku": 7668,
  "▁maybe": 7669,
  "Refer": 7671,
  "element": 7672,
  "▁straight": 7673,
  "ingu": 7674,
  "▁dim": 7675,
  "▁Base": 7676,
  "await": 7677,
  "handle": 7678,
  "▁patient": 7679,
  "Full": 7680,
  "jos": 7681,
  "▁sua": 7682,
  "▁Show": 7683,
  "Autowired": 7685,
  "▁Vo": 7686,
  "▁instr": 7688,
  "äng": 7689,
  "Icon": 7690,
  "mages": 7691,
  "property": 7692,
  "▁except": 7694,
  "▁progress": 7695,
  "este": 7696,
  "▁decided": 7697,
  "mad": 7698,
  "Pay": 7699,
  "ket": 7700,
  "she": 7701,
  "▁Who": 7702,
  "▁bor": 7703,
  "▁prevent": 7704,
  "▁guy": 7705,
  "osen": 7706,
  "▁thous": 7707,
  "▁setting": 7708,
  "bid": 7709,
  "IGHT": 7712,
  "▁ii": 7714,
  "▁score": 7716,
  "▁în": 7718,
  "hest": 7719,
  "Sy": 7720,
  "▁pictures": 7721,
  "▁expla": 7722,
  "▁ign": 7723,
  "▁strict": 7724,
  "▁maximum": 7725,
  "iency": 7726,
  "▁mist": 7727,
  "▁Section": 7729,
  "Nice": 7731,
  "actor": 7732,
  "Te": 7733,
  "▁moder": 7734,
  "Da": 7735,
  "▁European": 7737,
  "▁png": 7738,
  "▁balance": 7739,
  "Utils": 7740,
  "▁dass": 7741,
  "▁Author": 7743,
  "▁contains": 7744,
  "▁approxim": 7745,
  "mak": 7746,
  "PDF": 7747,
  "cut": 7748,
  "bers": 7749,
  "▁Fire": 7750,
  "▁gone": 7751,
  "▁radio": 7752,
  "▁vie": 7753,
  "Resource": 7754,
  "▁Project": 7756,
  "▁Association": 7757,
  "Sch": 7758,
  "atever": 7759,
  "▁Nav": 7760,
  "Filter": 7761,
  "▁arm": 7762,
  "▁Van": 7763,
  "agen": 7764,
  "▁placed": 7765,
  "Pat": 7766,
  "arse": 7767,
  "Ang": 7768,
  "which": 7769,
  "TC": 7770,
  "Ap": 7771,
  "big": 7773,
  "python": 7774,
  "ude": 7775,
  "▁latest": 7776,
  "tile": 7777,
  "▁yes": 7778,
  "▁Nat": 7779,
  "▁estimat": 7780,
  "▁beyond": 7781,
  "▁tests": 7782,
  "▁generally": 7783,
  "▁produced": 7784,
  "▁await": 7785,
  "▁sweet": 7786,
  "änd": 7789,
  "▁Arm": 7790,
  "▁Mi": 7791,
  "vet": 7792,
  "▁liber": 7793,
  "aki": 7794,
  "aker": 7795,
  "▁reviews": 7796,
  "ilos": 7797,
  "▁cin": 7798,
  "át": 7799,
  "▁square": 7800,
  "▁rates": 7803,
  "RED": 7804,
  "keit": 7805,
  "igns": 7806,
  "▁Thanks": 7807,
  "▁blog": 7808,
  "▁sul": 7809,
  "ragon": 7810,
  "idades": 7811,
  "▁eat": 7812,
  "cry": 7814,
  "▁eg": 7815,
  "nullable": 7816,
  "exports": 7818,
  "▁concept": 7819,
  "Ti": 7821,
  "▁continued": 7822,
  "toms": 7824,
  "▁pull": 7825,
  "▁optim": 7826,
  "▁favorite": 7827,
  "mented": 7828,
  "år": 7829,
  "▁winter": 7830,
  "ishing": 7831,
  "sibility": 7832,
  "IND": 7834,
  "Trace": 7835,
  "zing": 7836,
  "▁opinion": 7837,
  "fire": 7838,
  "▁benefits": 7839,
  "elles": 7840,
  "▁skills": 7841,
  "oda": 7842,
  "anie": 7844,
  "▁units": 7845,
  "▁Copy": 7848,
  "fix": 7849,
  "Left": 7850,
  "▁Frank": 7851,
  "required": 7855,
  "▁trial": 7856,
  "pas": 7857,
  "owa": 7858,
  "▁While": 7859,
  "orig": 7860,
  "▁century": 7861,
  "▁tim": 7862,
  "▁nas": 7863,
  "bib": 7864,
  "▁deb": 7865,
  "▁Robert": 7866,
  "Items": 7868,
  "Photo": 7869,
  "OVID": 7870,
  "sal": 7871,
  "▁produce": 7872,
  "▁truth": 7873,
  "▁History": 7874,
  "Adapter": 7875,
  "▁Key": 7876,
  "▁instru": 7877,
  "organ": 7879,
  "▁exactly": 7880,
  "▁existing": 7881,
  "inh": 7882,
  "▁Gr": 7883,
  "levant": 7884,
  "ott": 7885,
  "▁Friday": 7886,
  "▁combin": 7887,
  "▁sport": 7888,
  "▁mine": 7889,
  "▁Where": 7890,
  "▁grat": 7891,
  "paign": 7892,
  "▁dyna": 7894,
  "▁happen": 7895,
  "▁interview": 7896,
  "apy": 7897,
  "emy": 7898,
  "except": 7899,
  "▁theory": 7900,
  "aming": 7901,
  "AF": 7903,
  "▁SC": 7904,
  "mathcal": 7905,
  "acc": 7906,
  "▁leaves": 7907,
  "licit": 7908,
  "▁camera": 7909,
  "▁earlier": 7910,
  "ressive": 7911,
  "▁alt": 7912,
  "ORE": 7913,
  "▁achieve": 7914,
  "outes": 7915,
  "▁rev": 7916,
  "rim": 7918,
  "▁replace": 7919,
  "▁primary": 7920,
  "▁spring": 7921,
  "▁Most": 7922,
  "▁north": 7923,
  "▁capacity": 7924,
  "▁race": 7925,
  "▁BY": 7926,
  "▁lands": 7927,
  "adio": 7928,
  "▁entry": 7929,
  "▁trust": 7930,
  "▁sna": 7931,
  "Session": 7932,
  "blem": 7933,
  "NOT": 7934,
  "▁fuck": 7935,
  "▁applied": 7936,
  "Inst": 7937,
  "▁Michael": 7939,
  "ows": 7940,
  "Option": 7941,
  "kit": 7942,
  "▁excellent": 7943,
  "xml": 7944,
  "▁planning": 7945,
  "▁Material": 7946,
  "fü": 7947,
  "▁tick": 7948,
  "▁parameters": 7949,
  "▁Club": 7950,
  "▁habit": 7951,
  "▁ly": 7953,
  "▁distin": 7954,
  "acts": 7956,
  "▁trip": 7957,
  "aut": 7958,
  "▁experim": 7959,
  "BL": 7960,
  "Jan": 7961,
  "▁rub": 7962,
  "elif": 7963,
  "imiento": 7964,
  "▁feeling": 7965,
  "▁foreign": 7966,
  "mus": 7967,
  "▁bath": 7968,
  "▁fields": 7969,
  "▁Link": 7970,
  "▁suffer": 7971,
  "Hash": 7972,
  "kon": 7973,
  "delta": 7974,
  "Flo": 7975,
  "▁dimen": 7976,
  "▁Pub": 7977,
  "High": 7978,
  "anim": 7979,
  "iture": 7981,
  "pons": 7982,
  "▁té": 7983,
  "▁payment": 7984,
  "ITE": 7985,
  "▁Institute": 7986,
  "▁dei": 7987,
  "▁senti": 7990,
  "poses": 7991,
  "icio": 7993,
  "▁Like": 7994,
  "▁swe": 7995,
  "▁Ti": 7996,
  "Bon": 7997,
  "uz": 7998,
  "Chapter": 8000,
  "▁kept": 8001,
  "▁vida": 8002,
  "▁password": 8003,
  "▁consult": 8004,
  "▁Mel": 8005,
  "▁recogn": 8006,
  "▁principal": 8007,
  "WH": 8008,
  "▁ml": 8010,
  "▁fashion": 8012,
  "że": 8013,
  "pite": 8014,
  "▁Hy": 8015,
  "mig": 8016,
  "▁adjust": 8017,
  "▁Even": 8018,
  "▁coun": 8019,
  "rei": 8020,
  "▁album": 8022,
  "ouch": 8023,
  "SM": 8024,
  "acional": 8025,
  "▁scienti": 8026,
  "fon": 8027,
  "▁thick": 8028,
  "cean": 8029,
  "aje": 8030,
  "▁none": 8031,
  "Unit": 8032,
  "sche": 8033,
  "grade": 8034,
  "▁starting": 8035,
  "Example": 8036,
  "▁exclu": 8037,
  "▁Director": 8038,
  "Equal": 8039,
  "▁science": 8042,
  "inda": 8043,
  "▁wear": 8044,
  "▁About": 8045,
  "▁Instagram": 8047,
  "ATH": 8048,
  "fla": 8049,
  "JSON": 8052,
  "yy": 8053,
  "fts": 8055,
  "▁warm": 8056,
  "▁Microsoft": 8057,
  "tier": 8058,
  "▁society": 8059,
  "jet": 8060,
  "▁established": 8061,
  "▁utiliz": 8062,
  "live": 8064,
  "Cheers": 8065,
  "▁discover": 8067,
  "▁church": 8068,
  "▁movement": 8069,
  "▁belong": 8070,
  "▁React": 8071,
  "▁Child": 8072,
  "phere": 8073,
  "Dist": 8074,
  "uality": 8075,
  "▁WH": 8076,
  "▁Lim": 8077,
  "ismo": 8078,
  "vá": 8079,
  "▁variety": 8080,
  "gger": 8081,
  "OB": 8082,
  "▁pada": 8083,
  "▁Sunday": 8084,
  "ANG": 8085,
  "Function": 8086,
  "username": 8087,
  "elling": 8088,
  "▁scene": 8089,
  "▁heavy": 8090,
  "▁particularly": 8091,
  "▁Image": 8092,
  "angular": 8093,
  "erd": 8094,
  "▁Hall": 8095,
  "▁moving": 8096,
  "▁alla": 8097,
  "OH": 8098,
  "▁Note": 8099,
  "Serv": 8100,
  "▁smo": 8101,
  "▁async": 8102,
  "▁Christian": 8103,
  "▁aware": 8105,
  "▁serve": 8106,
  "▁larger": 8107,
  "▁Build": 8108,
  "▁chap": 8109,
  "▁cot": 8110,
  "▁advice": 8111,
  "▁tools": 8112,
  "▁demonstr": 8114,
  "▁fixed": 8115,
  "Close": 8116,
  "▁instal": 8117,
  "▁definitely": 8118,
  "▁Math": 8119,
  "▁Cy": 8120,
  "▁reasons": 8121,
  "▁yellow": 8123,
  "▁regist": 8124,
  "▁Africa": 8125,
  "▁SH": 8126,
  "▁init": 8128,
  "▁throws": 8129,
  "nam": 8130,
  "▁core": 8131,
  "IONS": 8132,
  "▁leading": 8133,
  "▁reports": 8134,
  "▁gift": 8135,
  "oir": 8136,
  "ontal": 8137,
  "▁Pay": 8138,
  "▁cel": 8139,
  "▁también": 8140,
  "nergy": 8141,
  "▁stab": 8142,
  "▁characters": 8143,
  "▁empty": 8144,
  "types": 8145,
  "▁Muse": 8146,
  "▁establish": 8147,
  "▁Society": 8148,
  "▁appears": 8149,
  "ctron": 8150,
  "▁spread": 8151,
  "▁pray": 8153,
  "alian": 8154,
  "ır": 8155,
  "▁Wood": 8156,
  "▁royalty": 8157,
  "arent": 8158,
  "flex": 8159,
  "▁talking": 8161,
  "▁echo": 8163,
  "▁query": 8164,
  "▁Leg": 8165,
  "IAN": 8166,
  "▁nearly": 8167,
  "jas": 8169,
  "watch": 8170,
  "models": 8171,
  "▁jack": 8172,
  "elcome": 8173,
  "▁magn": 8174,
  "▁tel": 8175,
  "▁Real": 8176,
  "ukan": 8177,
  "ème": 8178,
  "rian": 8179,
  "▁mountain": 8180,
  "asket": 8181,
  "▁Secret": 8182,
  "ISS": 8183,
  "▁termin": 8184,
  "▁increasing": 8185,
  "▁Light": 8186,
  "▁occup": 8187,
  "▁counter": 8188,
  "▁più": 8189,
  "ści": 8190,
  "scope": 8191,
  "▁doubt": 8192,
  "onda": 8193,
  "▁trees": 8195,
  "setText": 8196,
  "▁Mex": 8197,
  "Tod": 8198,
  "▁zero": 8199,
  "▁monitor": 8200,
  "▁Far": 8201,
  "▁interested": 8202,
  "▁sky": 8203,
  "rightarrow": 8204,
  "▁animal": 8205,
  "usi": 8206,
  "tages": 8207,
  "▁classi": 8208,
  "▁purchase": 8210,
  "▁steel": 8212,
  "▁mol": 8213,
  "▁auth": 8214,
  "▁slo": 8215,
  "▁girls": 8216,
  "▁guar": 8217,
  "▁workers": 8218,
  "▁dell": 8219,
  "▁proto": 8220,
  "ła": 8222,
  "▁grande": 8223,
  "boolean": 8224,
  "Arg": 8225,
  "fn": 8226,
  "▁ny": 8227,
  "▁automat": 8229,
  "▁aan": 8230,
  "▁wit": 8231,
  "▁Peter": 8234,
  "vari": 8235,
  "▁př": 8236,
  "▁audi": 8237,
  "titution": 8238,
  "EP": 8239,
  "umes": 8240,
  "▁imagen": 8241,
  "rez": 8242,
  "ishes": 8243,
  "inte": 8244,
  "▁determined": 8245,
  "▁challeng": 8246,
  "role": 8247,
  "▁mentioned": 8248,
  "▁decl": 8249,
  "▁classes": 8250,
  "icken": 8251,
  "▁motion": 8252,
  "ths": 8253,
  "leq": 8255,
  "foreach": 8256,
  "emon": 8257,
  "fg": 8258,
  "Pub": 8259,
  "▁performed": 8261,
  "▁tex": 8262,
  "onder": 8263,
  "▁hig": 8265,
  "▁switch": 8266,
  "Big": 8267,
  "▁peu": 8268,
  "▁sources": 8269,
  "▁rose": 8270,
  "▁mur": 8271,
  "▁Analysis": 8272,
  "Her": 8274,
  "Cho": 8275,
  "▁Ir": 8276,
  "task": 8277,
  "▁faith": 8278,
  "posite": 8279,
  "▁dont": 8280,
  "▁promo": 8281,
  "Hallo": 8282,
  "rey": 8283,
  "sl": 8284,
  "Head": 8285,
  "ursday": 8286,
  "nn": 8287,
  "▁db": 8288,
  "▁Jose": 8289,
  "▁Description": 8290,
  "kal": 8291,
  "▁measures": 8292,
  "Engine": 8293,
  "train": 8297,
  "▁años": 8298,
  "DC": 8299,
  "gathered": 8300,
  "Build": 8301,
  "Sep": 8302,
  "RT": 8303,
  "▁commit": 8304,
  "uesday": 8306,
  "timate": 8307,
  "yout": 8308,
  "▁Hor": 8309,
  "UST": 8310,
  "good": 8311,
  "▁lui": 8312,
  "▁sens": 8313,
  "IZE": 8314,
  "bol": 8315,
  "▁income": 8316,
  "▁People": 8317,
  "▁beach": 8318,
  "▁solutions": 8319,
  "Article": 8320,
  "acute": 8321,
  "▁negative": 8322,
  "▁lic": 8323,
  "▁Os": 8326,
  "ſe": 8327,
  "ements": 8328,
  "cular": 8329,
  "intenance": 8330,
  "Provider": 8333,
  "category": 8334,
  "▁delivery": 8335,
  "▁pure": 8336,
  "ednes": 8338,
  "▁reduce": 8339,
  "sigma": 8341,
  "▁phase": 8342,
  "▁silver": 8343,
  "▁organization": 8344,
  "▁Non": 8345,
  "rations": 8346,
  "Font": 8347,
  "▁appropriate": 8348,
  "mier": 8349,
  "▁component": 8350,
  "best": 8351,
  "▁Bill": 8352,
  "▁candid": 8353,
  "▁ren": 8354,
  "▁decre": 8355,
  "▁sla": 8356,
  "▁ice": 8357,
  "logger": 8358,
  "plot": 8359,
  "▁soil": 8360,
  "▁seek": 8361,
  "▁mort": 8362,
  "▁determine": 8363,
  "osh": 8364,
  "vit": 8366,
  "NAME": 8367,
  "jen": 8368,
  "▁fant": 8369,
  "▁oh": 8370,
  "▁tempor": 8371,
  "▁informa": 8372,
  "▁dic": 8373,
  "▁Care": 8374,
  "hir": 8376,
  "▁understanding": 8377,
  "vier": 8378,
  "XX": 8379,
  "YS": 8380,
  "REE": 8381,
  "▁perhaps": 8382,
  "material": 8383,
  "github": 8384,
  "▁successful": 8385,
  "▁kar": 8386,
  "Project": 8387,
  "stack": 8388,
  "▁nou": 8389,
  "▁trabaj": 8390,
  "▁Sho": 8392,
  "False": 8393,
  "▁Make": 8394,
  "▁effort": 8395,
  "▁sites": 8396,
  "owe": 8397,
  "▁animals": 8398,
  "▁sein": 8399,
  "hash": 8400,
  "tan": 8401,
  "sqrt": 8402,
  "▁military": 8403,
  "▁desde": 8404,
  "▁carried": 8405,
  "rican": 8406,
  "▁join": 8407,
  "▁adop": 8408,
  "▁behavior": 8409,
  "nah": 8410,
  "▁unter": 8411,
  "uli": 8412,
  "Password": 8413,
  "itos": 8414,
  "irl": 8415,
  "▁danger": 8416,
  "▁released": 8417,
  "▁Union": 8418,
  "ện": 8419,
  "OUT": 8421,
  "▁lol": 8422,
  "▁coffee": 8423,
  "ITH": 8424,
  "▁ces": 8425,
  "▁brown": 8426,
  "arp": 8427,
  "join": 8428,
  "uis": 8429,
  "Produ": 8431,
  "▁south": 8432,
  "orry": 8433,
  "vies": 8435,
  "imed": 8436,
  "Super": 8437,
  "Im": 8438,
  "kel": 8439,
  "ande": 8440,
  "Login": 8441,
  "news": 8442,
  "Generic": 8443,
  "ECT": 8444,
  "▁threat": 8446,
  "▁token": 8447,
  "▁Cost": 8449,
  "ilon": 8450,
  "LECT": 8451,
  "▁Team": 8452,
  "▁director": 8453,
  "cción": 8454,
  "▁clin": 8455,
  "▁iron": 8456,
  "Print": 8457,
  "graphics": 8458,
  "▁haben": 8459,
  "▁Gi": 8461,
  "▁brother": 8462,
  "ETH": 8463,
  "▁func": 8464,
  "▁mai": 8465,
  "▁burn": 8466,
  "▁notes": 8467,
  "▁cul": 8468,
  "▁eight": 8469,
  "ittle": 8470,
  "History": 8473,
  "▁Pack": 8475,
  "jus": 8476,
  "▁corpor": 8477,
  "▁conse": 8478,
  "GA": 8479,
  "PAR": 8480,
  "▁otherwise": 8481,
  "▁owner": 8482,
  "▁sn": 8483,
  "▁advance": 8484,
  "▁becomes": 8485,
  "izza": 8486,
  "▁Head": 8487,
  "abs": 8488,
  "bir": 8489,
  "pdf": 8490,
  "ront": 8491,
  "▁selection": 8492,
  "▁trend": 8493,
  "ilo": 8494,
  "Discussion": 8495,
  "▁returned": 8496,
  "▁Han": 8497,
  "Bean": 8498,
  "fortable": 8499,
  "amen": 8500,
  "SU": 8501,
  "▁Fra": 8503,
  "ilosop": 8504,
  "▁Mass": 8505,
  "▁Central": 8506,
  "▁wants": 8507,
  "edia": 8508,
  "▁moved": 8509,
  "tral": 8510,
  "▁DO": 8512,
  "ós": 8513,
  "▁Exception": 8514,
  "▁été": 8515,
  "stances": 8516,
  "forts": 8517,
  "▁Card": 8518,
  "Mapping": 8519,
  "▁failed": 8520,
  "▁Bea": 8521,
  "▁mere": 8523,
  "lights": 8524,
  "▁Equ": 8525,
  "tru": 8526,
  "Tree": 8527,
  "▁snow": 8529,
  "▁daughter": 8531,
  "▁showing": 8532,
  "▁Since": 8533,
  "NULL": 8534,
  "verti": 8535,
  "▁pair": 8537,
  "high": 8538,
  "wy": 8539,
  "▁river": 8540,
  "▁edge": 8541,
  "▁Policy": 8542,
  "tach": 8545,
  "versal": 8546,
  "▁growing": 8547,
  "▁tub": 8548,
  "▁propor": 8549,
  "▁ga": 8550,
  "blo": 8551,
  "▁Indust": 8552,
  "ography": 8553,
  "▁Music": 8554,
  "ella": 8555,
  "▁links": 8556,
  "▁applications": 8557,
  "appy": 8558,
  "xture": 8559,
  "Delete": 8560,
  "▁vit": 8561,
  "ednesday": 8562,
  "▁allows": 8563,
  "▁presence": 8566,
  "offset": 8567,
  "hetic": 8568,
  "▁driver": 8569,
  "lare": 8570,
  "uid": 8571,
  "▁aj": 8572,
  "Video": 8574,
  "rogen": 8575,
  "▁holding": 8576,
  "Delta": 8577,
  "files": 8578,
  "Pl": 8579,
  "▁Lake": 8580,
  "atu": 8581,
  "▁operations": 8582,
  "▁Gener": 8584,
  "buffer": 8585,
  "▁kid": 8586,
  "Account": 8587,
  "▁showed": 8588,
  "Report": 8589,
  "▁influence": 8590,
  "ERT": 8591,
  "Linq": 8594,
  "onto": 8596,
  "▁commercial": 8597,
  "▁prepared": 8598,
  "appro": 8599,
  "▁parties": 8600,
  "▁Mas": 8601,
  "▁named": 8602,
  "▁testing": 8603,
  "ınd": 8604,
  "Sur": 8605,
  "Category": 8606,
  "▁push": 8607,
  "cknow": 8608,
  "▁obvious": 8609,
  "Equals": 8610,
  "▁norm": 8611,
  "imgur": 8612,
  "MAN": 8613,
  "umen": 8614,
  "esso": 8615,
  "▁husband": 8616,
  "▁Jesus": 8617,
  "flag": 8619,
  "Pop": 8620,
  "dates": 8621,
  "ension": 8622,
  "estra": 8623,
  "▁Cur": 8624,
  "▁Australia": 8625,
  "ursor": 8626,
  "ło": 8627,
  "▁sono": 8628,
  "unicip": 8629,
  "edom": 8630,
  "Obj": 8631,
  "▁Lear": 8632,
  "iche": 8633,
  "▁opp": 8634,
  "idx": 8635,
  "Der": 8636,
  "▁detail": 8637,
  "leh": 8638,
  "▁govern": 8639,
  "▁Photo": 8640,
  "▁Amazon": 8641,
  "Ing": 8642,
  "eda": 8643,
  "▁Francis": 8644,
  "rog": 8645,
  "tailed": 8646,
  "▁Econom": 8647,
  "register": 8648,
  "▁huge": 8649,
  "▁layer": 8651,
  "These": 8652,
  "▁channel": 8653,
  "▁Das": 8654,
  "▁tun": 8655,
  "▁fait": 8656,
  "icago": 8657,
  "Select": 8659,
  "▁bright": 8660,
  "▁align": 8661,
  "pool": 8662,
  "▁employees": 8663,
  "orem": 8664,
  "dan": 8665,
  "Dear": 8666,
  "iza": 8667,
  "IRE": 8668,
  "FC": 8669,
  "▁zijn": 8670,
  "Als": 8671,
  "made": 8672,
  "zar": 8673,
  "▁observed": 8674,
  "Found": 8675,
  "rund": 8676,
  "crete": 8677,
  "▁internal": 8678,
  "unsigned": 8679,
  "lung": 8680,
  "▁eth": 8681,
  "▁Find": 8682,
  "▁Ein": 8683,
  "eta": 8684,
  "▁satisf": 8685,
  "▁Pop": 8686,
  "edu": 8687,
  "▁radi": 8688,
  "lix": 8690,
  "▁overall": 8691,
  "▁vehicle": 8692,
  "unto": 8693,
  "▁Bl": 8694,
  "cuit": 8696,
  "▁attempt": 8697,
  "jes": 8698,
  "imagem": 8699,
  "▁gene": 8700,
  "▁removed": 8701,
  "▁respond": 8702,
  "Love": 8703,
  "▁gri": 8704,
  "▁faire": 8705,
  "▁Ta": 8706,
  "▁Thus": 8707,
  "olved": 8708,
  "▁rend": 8709,
  "▁Jud": 8710,
  "▁Sing": 8711,
  "▁contr": 8712,
  "anga": 8713,
  "arti": 8714,
  "tiff": 8715,
  "ERV": 8716,
  "▁garden": 8717,
  "▁bear": 8718,
  "▁pool": 8719,
  "Gen": 8720,
  "General": 8723,
  "archive": 8724,
  "▁proposed": 8725,
  "ett": 8726,
  "▁essential": 8727,
  "riage": 8728,
  "rer": 8729,
  "iform": 8730,
  "Before": 8731,
  "▁Wh": 8732,
  "▁Saturday": 8733,
  "▁throw": 8734,
  "▁completed": 8735,
  "utils": 8736,
  "▁actions": 8737,
  "▁equation": 8738,
  "ús": 8739,
  "▁weak": 8742,
  "tons": 8743,
  "▁vote": 8744,
  "▁Py": 8745,
  "▁database": 8746,
  "pear": 8747,
  "RI": 8748,
  "LED": 8749,
  "▁route": 8750,
  "Origin": 8751,
  "izar": 8752,
  "▁returns": 8753,
  "▁HE": 8754,
  "▁Att": 8755,
  "▁proces": 8756,
  "Har": 8757,
  "▁covered": 8758,
  "symbol": 8759,
  "▁Line": 8760,
  "▁relative": 8761,
  "▁Prom": 8763,
  "▁domin": 8764,
  "partial": 8765,
  "bold": 8766,
  "Route": 8769,
  "▁Las": 8770,
  "▁incor": 8771,
  "ania": 8772,
  "▁minimum": 8773,
  "▁mehr": 8774,
  "cado": 8775,
  "▁upper": 8776,
  "▁Food": 8777,
  "▁Monday": 8778,
  "users": 8779,
  "atura": 8780,
  "aches": 8781,
  "phy": 8782,
  "MM": 8784,
  "plt": 8785,
  "▁Only": 8786,
  "▁partners": 8787,
  "async": 8788,
  "▁COVID": 8789,
  "Supp": 8790,
  "▁settings": 8791,
  "▁variable": 8792,
  "▁acces": 8793,
  "▁cart": 8794,
  "liday": 8795,
  "blue": 8796,
  "Tool": 8797,
  "▁Order": 8798,
  "area": 8799,
  "▁ale": 8800,
  "rada": 8801,
  "dire": 8802,
  "Fun": 8803,
  "fmt": 8805,
  "▁expan": 8806,
  "▁Media": 8807,
  "FIG": 8808,
  "▁plate": 8811,
  "▁Dat": 8812,
  "▁fans": 8813,
  "gaz": 8814,
  "▁opening": 8816,
  "▁vez": 8817,
  "Ha": 8818,
  "▁tiene": 8819,
  "▁Special": 8820,
  "nit": 8821,
  "▁panel": 8822,
  "▁fon": 8824,
  "Params": 8825,
  "▁Product": 8826,
  "▁discussion": 8827,
  "fall": 8828,
  "▁loved": 8829,
  "▁caused": 8830,
  "insert": 8831,
  "▁components": 8832,
  "sur": 8833,
  "▁rare": 8834,
  "▁mujer": 8836,
  "▁Ce": 8837,
  "dra": 8839,
  "cute": 8840,
  "▁unless": 8841,
  "Methods": 8842,
  "▁sector": 8843,
  "Related": 8844,
  "heit": 8845,
  "▁Minister": 8846,
  "step": 8847,
  "▁clos": 8851,
  "cite": 8852,
  "PUT": 8853,
  "▁Chem": 8855,
  "▁Total": 8856,
  "▁fill": 8857,
  "project": 8858,
  "izontal": 8859,
  "eros": 8860,
  "Access": 8861,
  "RS": 8862,
  "▁lack": 8863,
  "▁Sci": 8864,
  "▁strateg": 8865,
  "▁manager": 8866,
  "▁District": 8867,
  "▁Charles": 8868,
  "▁propos": 8869,
  "hire": 8870,
  "ột": 8871,
  "▁sli": 8872,
  "▁entr": 8873,
  "▁peti": 8874,
  "▁Mach": 8875,
  "▁ran": 8876,
  "▁fif": 8877,
  "▁rank": 8878,
  "▁manner": 8879,
  "▁Island": 8880,
  "▁bin": 8881,
  "▁theme": 8882,
  "Has": 8883,
  "▁ideal": 8884,
  "phen": 8885,
  "▁clearly": 8886,
  "eu": 8887,
  "▁hero": 8888,
  "▁classic": 8889,
  "▁medium": 8890,
  "▁Hu": 8891,
  "▁Camp": 8892,
  "sort": 8893,
  "▁annual": 8897,
  "standing": 8898,
  "▁Pass": 8899,
  "oga": 8901,
  "▁shit": 8902,
  "hemat": 8903,
  "▁kg": 8904,
  "▁separate": 8905,
  "▁toward": 8906,
  "▁kun": 8907,
  "▁cards": 8908,
  "▁Rock": 8909,
  "jection": 8910,
  "instance": 8911,
  "▁stated": 8912,
  "vable": 8913,
  "▁female": 8914,
  "Bot": 8916,
  "city": 8918,
  "gio": 8919,
  "tified": 8920,
  "▁Conne": 8922,
  "onal": 8923,
  "▁marketing": 8924,
  "▁Vi": 8925,
  "▁kitchen": 8926,
  "mut": 8927,
  "kins": 8928,
  "mir": 8929,
  "nson": 8932,
  "▁carbon": 8933,
  "▁shared": 8934,
  "▁neck": 8935,
  "kra": 8936,
  "Look": 8937,
  "ticas": 8938,
  "pad": 8939,
  "Asp": 8940,
  "Comple": 8941,
  "▁coordin": 8942,
  "▁Det": 8943,
  "▁examples": 8944,
  "▁mask": 8945,
  "▁budget": 8947,
  "▁convers": 8948,
  "Selected": 8949,
  "och": 8950,
  "▁reached": 8951,
  "TV": 8952,
  "▁coll": 8953,
  "ArrayList": 8954,
  "▁neces": 8955,
  "▁weather": 8957,
  "▁delete": 8958,
  "▁profile": 8959,
  "▁fly": 8960,
  "▁couldn": 8961,
  "▁cit": 8962,
  "▁affect": 8964,
  "▁stories": 8965,
  "▁Fer": 8966,
  "▁uit": 8967,
  "orithm": 8968,
  "▁flag": 8969,
  "efined": 8970,
  "▁scen": 8972,
  "centage": 8973,
  "▁Chinese": 8974,
  "KS": 8975,
  "ceived": 8976,
  "▁gun": 8977,
  "aja": 8978,
  "mpions": 8979,
  "▁rain": 8980,
  "▁zo": 8981,
  "▁nuc": 8982,
  "awa": 8983,
  "sitive": 8986,
  "▁chief": 8987,
  "▁bought": 8989,
  "▁être": 8990,
  "media": 8991,
  "▁akan": 8993,
  "ım": 8994,
  "▁stars": 8995,
  "shape": 8996,
  "▁surround": 8997,
  "when": 8999,
  "▁Sche": 9000,
  "▁Ly": 9002,
  "Cam": 9003,
  "▁ME": 9004,
  "News": 9005,
  "▁wire": 9006,
  "▁waste": 9007,
  "▁colo": 9008,
  "▁Full": 9009,
  "▁pink": 9010,
  "SL": 9011,
  "Anim": 9012,
  "ét": 9013,
  "▁circum": 9014,
  "▁Update": 9016,
  "▁provision": 9018,
  "▁sl": 9019,
  "system": 9020,
  "Parameter": 9021,
  "▁interior": 9022,
  "ract": 9023,
  "Fi": 9024,
  "iding": 9026,
  "▁disc": 9027,
  "▁sports": 9028,
  "oli": 9029,
  "▁Sand": 9030,
  "Compat": 9031,
  "▁sets": 9032,
  "zens": 9035,
  "Review": 9037,
  "ícu": 9038,
  "▁spent": 9040,
  "some": 9041,
  "LY": 9042,
  "▁jed": 9045,
  "Pres": 9046,
  "▁Internet": 9047,
  "▁leur": 9048,
  "cp": 9049,
  "▁vom": 9050,
  "▁protect": 9051,
  "sys": 9052,
  "Bundle": 9053,
  "connect": 9054,
  "proof": 9055,
  "▁Old": 9057,
  "Plan": 9058,
  "hou": 9059,
  "▁TOD": 9060,
  "▁Dig": 9061,
  "▁Sir": 9064,
  "▁benefit": 9065,
  "▁Germany": 9066,
  "▁és": 9067,
  "▁Poli": 9068,
  "Two": 9069,
  "▁Br": 9070,
  "voir": 9071,
  "apache": 9072,
  "▁Hon": 9073,
  "▁Grand": 9074,
  "eben": 9075,
  "▁ves": 9076,
  "▁matrix": 9077,
  "SQL": 9079,
  "▁deux": 9080,
  "▁hacer": 9081,
  "▁goals": 9082,
  "Find": 9083,
  "Liter": 9084,
  "rapper": 9085,
  "cn": 9086,
  "zia": 9087,
  "Reader": 9088,
  "▁juga": 9089,
  "API": 9090,
  "▁brief": 9091,
  "▁punt": 9092,
  "▁Library": 9094,
  "▁visual": 9095,
  "▁aim": 9096,
  "world": 9097,
  "jan": 9098,
  "▁uno": 9099,
  "▁Bud": 9100,
  "▁Way": 9101,
  "▁proof": 9102,
  "▁obtain": 9103,
  "▁Study": 9104,
  "▁Thank": 9105,
  "▁ahead": 9107,
  "▁persons": 9108,
  "flu": 9109,
  "▁east": 9110,
  "hren": 9111,
  "Every": 9112,
  "▁objects": 9113,
  "stone": 9114,
  "omo": 9116,
  "Mag": 9117,
  "wei": 9118,
  "hn": 9119,
  "Free": 9120,
  "▁traditional": 9121,
  "▁centre": 9122,
  "▁sugg": 9124,
  "▁records": 9126,
  "BUG": 9127,
  "debug": 9128,
  "▁página": 9129,
  "rane": 9130,
  "zas": 9131,
  "ßen": 9132,
  "▁electron": 9133,
  "lak": 9134,
  "▁Richard": 9135,
  "rik": 9136,
  "amiento": 9137,
  "▁gif": 9138,
  "vere": 9139,
  "▁Tele": 9140,
  "friend": 9141,
  "vd": 9142,
  "pres": 9143,
  "scale": 9144,
  "▁Sol": 9145,
  "▁req": 9146,
  "constructor": 9147,
  "▁flowers": 9148,
  "bie": 9149,
  "irmed": 9150,
  "▁providing": 9151,
  "pie": 9152,
  "tamp": 9153,
  "inn": 9154,
  "▁Ur": 9155,
  "▁importance": 9156,
  "▁cual": 9157,
  "Ev": 9158,
  "ám": 9159,
  "▁families": 9160,
  "▁artist": 9161,
  "Reference": 9164,
  "▁respons": 9165,
  "ateur": 9166,
  "ique": 9167,
  "▁remains": 9168,
  "▁Pas": 9169,
  "▁CR": 9170,
  "Process": 9171,
  "▁Blo": 9172,
  "▁gli": 9173,
  "▁wouldn": 9174,
  "▁rapid": 9175,
  "Assert": 9176,
  "ais": 9177,
  "crit": 9179,
  "▁served": 9180,
  "Store": 9182,
  "lector": 9183,
  "▁Fund": 9185,
  "MC": 9186,
  "km": 9187,
  "drop": 9188,
  "hs": 9189,
  "StackTrace": 9190,
  "▁Bon": 9191,
  "▁salt": 9193,
  "▁gan": 9194,
  "▁Jew": 9195,
  "possible": 9196,
  "tree": 9197,
  "▁cancer": 9198,
  "vre": 9199,
  "second": 9200,
  "▁Lee": 9201,
  "▁male": 9202,
  "entry": 9203,
  "▁soci": 9204,
  "▁chair": 9205,
  "bing": 9206,
  "valent": 9207,
  "▁restaurant": 9208,
  "lg": 9210,
  "▁perman": 9211,
  "ogen": 9213,
  "▁Action": 9214,
  "Fran": 9215,
  "▁Sou": 9216,
  "▁Integer": 9217,
  "ár": 9218,
  "▁MAR": 9219,
  "▁district": 9220,
  "▁college": 9222,
  "▁appeared": 9223,
  "▁attribute": 9224,
  "▁fut": 9225,
  "▁communication": 9228,
  "▁cada": 9229,
  "▁Brown": 9231,
  "▁chat": 9232,
  "ilidad": 9233,
  "▁reti": 9234,
  "isti": 9235,
  "lab": 9236,
  "▁Bat": 9237,
  "▁seemed": 9238,
  "▁Offic": 9239,
  "arsh": 9240,
  "had": 9241,
  "▁knows": 9242,
  "▁raised": 9244,
  "▁investment": 9245,
  "ocity": 9246,
  "▁Online": 9247,
  "▁CD": 9248,
  "▁conten": 9249,
  "▁Second": 9250,
  "aller": 9251,
  "▁können": 9252,
  "Tech": 9254,
  "TABLE": 9255,
  "cient": 9256,
  "LC": 9257,
  "▁sang": 9258,
  "▁sustain": 9259,
  "rij": 9260,
  "▁Mis": 9261,
  "▁package": 9262,
  "pher": 9263,
  "dden": 9264,
  "Return": 9265,
  "▁coach": 9266,
  "Target": 9267,
  "eps": 9268,
  "uar": 9269,
  "▁sad": 9270,
  "▁Christmas": 9271,
  "acion": 9272,
  "▁peut": 9273,
  "▁Field": 9274,
  "▁Brit": 9275,
  "▁colors": 9276,
  "bad": 9277,
  "▁individuals": 9278,
  "▁connected": 9279,
  "▁prime": 9280,
  "▁beauty": 9281,
  "▁Cri": 9282,
  "▁sufficient": 9283,
  "auf": 9284,
  "haus": 9285,
  "▁requires": 9286,
  "▁stick": 9288,
  "gers": 9289,
  "▁sans": 9291,
  "Summary": 9292,
  "ần": 9293,
  "vided": 9294,
  "random": 9295,
  "▁font": 9296,
  "▁sys": 9297,
  "atar": 9299,
  "▁Hill": 9300,
  "IGN": 9304,
  "Const": 9305,
  "tak": 9306,
  "▁ade": 9307,
  "▁pieces": 9308,
  "▁forest": 9309,
  "▁fir": 9310,
  "Configuration": 9313,
  "riz": 9314,
  "▁transform": 9315,
  "▁waiting": 9316,
  "SF": 9317,
  "ORY": 9318,
  "▁welcome": 9319,
  "TYPE": 9321,
  "NG": 9322,
  "fields": 9323,
  "▁dedic": 9324,
  "▁clients": 9325,
  "▁ai": 9326,
  "▁namespace": 9327,
  "▁Supp": 9328,
  "▁efforts": 9331,
  "lico": 9332,
  "ENTS": 9333,
  "▁Event": 9334,
  "ardo": 9335,
  "▁offered": 9336,
  "▁suggest": 9337,
  "▁opened": 9338,
  "pal": 9339,
  "rho": 9340,
  "▁pem": 9341,
  "▁Flor": 9342,
  "sleep": 9343,
  "▁BO": 9344,
  "▁Guide": 9345,
  "atz": 9346,
  "▁sugar": 9347,
  "▁PO": 9348,
  "▁nombre": 9349,
  "▁bill": 9350,
  "▁finished": 9351,
  "▁agreement": 9352,
  "▁doctor": 9353,
  "▁cuando": 9354,
  "Ca": 9355,
  "gon": 9356,
  "tam": 9357,
  "Very": 9358,
  "cb": 9359,
  "UND": 9360,
  "ày": 9361,
  "ères": 9362,
  "wen": 9363,
  "▁forces": 9364,
  "▁industrial": 9365,
  "▁legis": 9366,
  "ến": 9368,
  "▁io": 9369,
  "Year": 9370,
  "Changed": 9371,
  "ài": 9372,
  "miss": 9373,
  "Have": 9374,
  "encies": 9375,
  "▁friendly": 9376,
  "stud": 9377,
  "▁shoes": 9378,
  "▁Spa": 9379,
  "▁Hal": 9380,
  "▁ep": 9381,
  "▁teacher": 9382,
  "iana": 9383,
  "▁conv": 9384,
  "▁đi": 9385,
  "unes": 9386,
  "▁edit": 9387,
  "qua": 9389,
  "alert": 9392,
  "▁highest": 9393,
  "covery": 9394,
  "irk": 9395,
  "▁Maj": 9397,
  "▁thoughts": 9398,
  "take": 9399,
  "▁Family": 9400,
  "limit": 9401,
  "▁signal": 9402,
  "▁Times": 9403,
  "▁variables": 9404,
  "▁inn": 9405,
  "Fri": 9406,
  "▁rise": 9407,
  "▁chemical": 9408,
  "wd": 9410,
  "Ve": 9411,
  "▁Para": 9412,
  "Question": 9413,
  "iempo": 9414,
  "▁furn": 9415,
  "pra": 9416,
  "▁iz": 9417,
  "▁mejor": 9418,
  "▁soul": 9420,
  "selected": 9423,
  "▁oblig": 9424,
  "▁ulti": 9425,
  "▁Doc": 9426,
  "np": 9427,
  "▁minute": 9428,
  "▁Many": 9429,
  "jek": 9430,
  "▁Kon": 9431,
  "▁Enter": 9432,
  "redients": 9433,
  "alan": 9434,
  "tw": 9436,
  "tia": 9437,
  "printStackTrace": 9438,
  "score": 9439,
  "Active": 9440,
  "acing": 9441,
  "▁finish": 9442,
  "▁cris": 9443,
  "▁tv": 9445,
  "▁cars": 9446,
  "▁Texas": 9447,
  "üt": 9448,
  "▁articles": 9449,
  "▁cream": 9450,
  "▁kill": 9451,
  "fol": 9452,
  "▁quarter": 9453,
  "ius": 9454,
  "▁ms": 9455,
  "▁president": 9456,
  "IVERS": 9457,
  "▁yield": 9458,
  "▁Ak": 9459,
  "▁suit": 9460,
  "before": 9461,
  "▁RES": 9462,
  "▁Price": 9463,
  "▁ah": 9464,
  "enz": 9465,
  "Bit": 9466,
  "▁Results": 9467,
  "▁Share": 9468,
  "▁consequ": 9469,
  "vised": 9470,
  "▁fruit": 9471,
  "▁aussi": 9472,
  "lijk": 9474,
  "▁Mont": 9475,
  "SR": 9477,
  "▁evening": 9478,
  "uego": 9479,
  "orte": 9480,
  "Vo": 9482,
  "wing": 9483,
  "IME": 9484,
  "Ah": 9485,
  "arily": 9486,
  "Meta": 9487,
  "▁chain": 9488,
  "▁Sea": 9489,
  "▁insurance": 9490,
  "titude": 9491,
  "Gre": 9492,
  "▁Sem": 9493,
  "▁brain": 9494,
  "application": 9495,
  "▁jest": 9497,
  "▁Environment": 9498,
  "▁slide": 9499,
  "mination": 9500,
  "lectric": 9501,
  "gate": 9502,
  "normal": 9503,
  "allel": 9505,
  "▁fle": 9506,
  "oost": 9508,
  "▁battle": 9509,
  "▁Martin": 9510,
  "▁League": 9511,
  "▁milk": 9512,
  "tar": 9513,
  "tled": 9514,
  "Regards": 9515,
  "▁ps": 9516,
  "▁certainly": 9518,
  "Loading": 9519,
  "keys": 9521,
  "ague": 9522,
  "▁critical": 9523,
  "Align": 9524,
  "Entry": 9525,
  "itan": 9526,
  "Cur": 9527,
  "▁Process": 9528,
  "▁edition": 9529,
  "▁Multi": 9530,
  "Aug": 9531,
  "wait": 9532,
  "▁ox": 9534,
  "▁forget": 9535,
  "▁predic": 9536,
  "▁ratio": 9537,
  "pol": 9538,
  "thy": 9539,
  "tv": 9540,
  "▁reaction": 9541,
  "▁så": 9542,
  "fd": 9543,
  "zone": 9544,
  "BIT": 9545,
  "▁responsible": 9546,
  "cé": 9547,
  "▁Kom": 9548,
  "▁whatever": 9550,
  "layer": 9551,
  "▁village": 9552,
  "▁Community": 9553,
  "Bas": 9554,
  "▁strug": 9555,
  "Storage": 9557,
  "▁seu": 9559,
  "▁independent": 9560,
  "▁angle": 9561,
  "▁samples": 9562,
  "▁haven": 9563,
  "▁truck": 9564,
  "▁apo": 9565,
  "▁stone": 9566,
  "tur": 9568,
  "Tube": 9569,
  "▁tous": 9570,
  "▁Each": 9573,
  "▁internet": 9574,
  "▁terr": 9575,
  "▁Republic": 9576,
  "▁Louis": 9578,
  "▁Details": 9579,
  "points": 9580,
  "▁library": 9581,
  "▁niet": 9582,
  "mond": 9583,
  "ICAL": 9584,
  "formance": 9585,
  "uren": 9586,
  "lage": 9588,
  "tempor": 9590,
  "▁wave": 9591,
  "Media": 9593,
  "faces": 9594,
  "▁smaller": 9595,
  "versi": 9596,
  "▁happens": 9597,
  "alia": 9598,
  "gging": 9599,
  "account": 9600,
  "▁seeing": 9601,
  "Er": 9602,
  "ograf": 9603,
  "▁compla": 9604,
  "▁attend": 9605,
  "▁healthy": 9606,
  "▁mens": 9607,
  "▁wedding": 9608,
  "Vector": 9609,
  "▁elimin": 9610,
  "▁noted": 9611,
  "▁thy": 9612,
  "MI": 9613,
  "▁fal": 9614,
  "▁mouth": 9615,
  "▁connect": 9616,
  "vement": 9617,
  "rooms": 9618,
  "initial": 9619,
  "bis": 9620,
  "UC": 9621,
  "▁advantage": 9623,
  "ých": 9624,
  "▁Was": 9626,
  "▁Sar": 9627,
  "cmd": 9628,
  "▁minor": 9629,
  "▁devices": 9630,
  "estic": 9631,
  "gamma": 9632,
  "▁failure": 9633,
  "▁FA": 9634,
  "liza": 9635,
  "ativa": 9636,
  "WA": 9637,
  "▁dete": 9638,
  "rated": 9639,
  "jected": 9640,
  "gang": 9643,
  "nia": 9644,
  "hesis": 9645,
  "▁protein": 9646,
  "Shi": 9647,
  "ül": 9651,
  "Hist": 9652,
  "▁goods": 9653,
  "boot": 9654,
  "▁mand": 9656,
  "kap": 9657,
  "PI": 9658,
  "▁occasion": 9659,
  "▁GR": 9660,
  "▁YOU": 9661,
  "▁fabric": 9662,
  "▁mental": 9663,
  "ør": 9665,
  "▁relevant": 9666,
  "onym": 9668,
  "junit": 9669,
  "▁partner": 9670,
  "▁mission": 9671,
  "▁Lar": 9672,
  "▁reduced": 9673,
  "▁facilities": 9674,
  "▁slightly": 9677,
  "▁vision": 9678,
  "enger": 9679,
  "Vari": 9680,
  "▁você": 9681,
  "▁delle": 9682,
  "Graph": 9683,
  "▁desc": 9684,
  "▁isolated": 9685,
  "vil": 9686,
  "ggi": 9687,
  "▁même": 9688,
  "▁BR": 9689,
  "eding": 9690,
  "Many": 9691,
  "gery": 9692,
  "▁Although": 9693,
  "aci": 9695,
  "ENS": 9696,
  "▁tips": 9697,
  "▁foc": 9698,
  "▁Tour": 9700,
  "▁category": 9701,
  "▁arrow": 9702,
  "xis": 9703,
  "▁Have": 9704,
  "▁novel": 9705,
  "▁Bes": 9706,
  "▁Its": 9707,
  "Amer": 9708,
  "▁fort": 9709,
  "▁learned": 9710,
  "▁Click": 9711,
  "▁calls": 9712,
  "Los": 9713,
  "▁roz": 9714,
  "▁football": 9715,
  "MAT": 9716,
  "replace": 9717,
  "licable": 9718,
  "▁fuel": 9719,
  "dam": 9720,
  "two": 9721,
  "▁shopping": 9723,
  "alities": 9724,
  "should": 9727,
  "Display": 9728,
  "▁pens": 9729,
  "oso": 9730,
  "dung": 9732,
  "orter": 9733,
  "semble": 9734,
  "iration": 9735,
  "ược": 9736,
  "Black": 9737,
  "▁citi": 9738,
  "BD": 9739,
  "green": 9740,
  "▁Aff": 9741,
  "▁discuss": 9742,
  "udi": 9743,
  "▁leader": 9746,
  "adores": 9747,
  "ells": 9748,
  "atre": 9749,
  "▁fro": 9750,
  "bow": 9751,
  "ligence": 9753,
  "gie": 9754,
  "și": 9755,
  "▁processes": 9756,
  "structure": 9757,
  "RODU": 9758,
  "dart": 9759,
  "▁vid": 9761,
  "ác": 9762,
  "▁listed": 9763,
  "▁west": 9764,
  "atom": 9765,
  "ended": 9768,
  "iu": 9769,
  "Ber": 9770,
  "▁survey": 9771,
  "▁Administ": 9772,
  "Controls": 9773,
  "▁external": 9774,
  "styles": 9775,
  "Est": 9776,
  "▁announced": 9777,
  "▁Fort": 9778,
  "going": 9779,
  "▁bij": 9780,
  "inds": 9781,
  "▁rou": 9782,
  "▁Roman": 9783,
  "▁crow": 9784,
  "▁cute": 9786,
  "Only": 9787,
  "▁sounds": 9788,
  "gov": 9789,
  "▁IP": 9790,
  "west": 9791,
  "Follow": 9792,
  "Weight": 9793,
  "▁không": 9794,
  "▁ster": 9796,
  "▁economy": 9797,
  "pend": 9799,
  "▁Tim": 9800,
  "▁ft": 9801,
  "umed": 9802,
  "▁strategy": 9803,
  "▁manual": 9804,
  "Range": 9805,
  "DIS": 9807,
  "▁lap": 9809,
  "▁kle": 9810,
  "▁alleg": 9811,
  "born": 9813,
  "pred": 9814,
  "ERROR": 9815,
  "iry": 9816,
  "cision": 9817,
  "istan": 9818,
  "ahan": 9821,
  "oche": 9822,
  "▁Gran": 9824,
  "▁restore": 9825,
  "miti": 9826,
  "amili": 9827,
  "▁inches": 9828,
  "etes": 9829,
  "▁Ka": 9830,
  "imento": 9831,
  "operatorname": 9832,
  "posure": 9835,
  "Enter": 9836,
  "tek": 9837,
  "▁technical": 9838,
  "▁simp": 9839,
  "ipe": 9840,
  "▁purposes": 9841,
  "Fragment": 9842,
  "Cat": 9843,
  "afety": 9844,
  "Dem": 9845,
  "may": 9846,
  "video": 9847,
  "▁Mos": 9848,
  "▁killed": 9849,
  "▁Museum": 9850,
  "▁cash": 9852,
  "conn": 9853,
  "▁lin": 9854,
  "izz": 9855,
  "▁PH": 9856,
  "▁Anti": 9857,
  "▁missing": 9858,
  "entle": 9859,
  "job": 9860,
  "▁gru": 9862,
  "obile": 9863,
  "▁vent": 9864,
  "▁Apple": 9865,
  "▁Congress": 9866,
  "▁Point": 9867,
  "ureau": 9868,
  "▁tap": 9869,
  "sb": 9870,
  "▁hasta": 9871,
  "master": 9872,
  "olo": 9873,
  "▁Function": 9874,
  "Mus": 9875,
  "▁conduct": 9877,
  "▁spa": 9878,
  "▁trav": 9879,
  "Lim": 9880,
  "▁tes": 9881,
  "▁Initial": 9883,
  "execute": 9885,
  "Multi": 9886,
  "letter": 9887,
  "▁department": 9888,
  "oration": 9889,
  "▁diff": 9890,
  "▁Dav": 9891,
  "▁Isra": 9892,
  "echa": 9893,
  "▁updated": 9894,
  "▁XX": 9895,
  "▁campaign": 9896,
  "▁sorry": 9897,
  "VE": 9898,
  "ader": 9899,
  "▁arrange": 9900,
  "▁Hist": 9901,
  "▁jump": 9902,
  "▁wash": 9903,
  "panel": 9904,
  "bottom": 9905,
  "▁wurde": 9907,
  "▁Fa": 9908,
  "▁dess": 9909,
  "▁smooth": 9910,
  "Press": 9911,
  "router": 9912,
  "colate": 9913,
  "ventory": 9914,
  "internal": 9915,
  "▁argument": 9916,
  "cline": 9918,
  "lets": 9919,
  "ilen": 9920,
  "leted": 9921,
  "tery": 9922,
  "Star": 9923,
  "ecution": 9924,
  "VI": 9925,
  "edge": 9926,
  "▁mot": 9927,
  "▁mie": 9928,
  "▁ye": 9929,
  "contra": 9930,
  "▁During": 9931,
  "▁pode": 9932,
  "PLE": 9933,
  "▁audio": 9934,
  "àn": 9935,
  "logo": 9936,
  "istema": 9937,
  "▁Women": 9939,
  "▁milli": 9940,
  "LOG": 9941,
  "▁Pur": 9942,
  "▁Wo": 9943,
  "▁Sup": 9944,
  "tici": 9945,
  "ynch": 9946,
  "entially": 9947,
  "▁tank": 9948,
  "▁abstract": 9949,
  "ög": 9950,
  "▁collect": 9951,
  "pur": 9952,
  "placeholder": 9953,
  "returns": 9954,
  "rupt": 9955,
  "rif": 9956,
  "sz": 9957,
  "▁vio": 9958,
  "iert": 9959,
  "uestions": 9961,
  "▁div": 9962,
  "▁vintage": 9963,
  "▁older": 9964,
  "▁laws": 9965,
  "▁permit": 9966,
  "▁Technology": 9967,
  "▁Pot": 9968,
  "Ant": 9970,
  "▁Bir": 9971,
  "nail": 9973,
  "▁Ul": 9974,
  "▁plastic": 9975,
  "▁rail": 9976,
  "ological": 9977,
  "kl": 9978,
  "▁standing": 9980,
  "▁nine": 9981,
  "▁apparent": 9982,
  "Tom": 9983,
  "bec": 9984,
  "iod": 9985,
  "▁Value": 9986,
  "▁exercise": 9987,
  "▁traffic": 9988,
  "▁Android": 9989,
  "SET": 9990,
  "▁Um": 9991,
  "thread": 9992,
  "▁roll": 9993,
  "▁border": 9994,
  "queue": 9995,
  "fetch": 9996,
  "rable": 9997,
  "▁Human": 9998,
  "▁spend": 9999,
  "▁mundo": 10000,
  "ją": 10001,
  "SW": 10002,
  "beth": 10003,
  "comment": 10004,
  "▁supported": 10005,
  "▁Cross": 10006,
  "▁mul": 10007,
  "links": 10008,
  "tid": 10009,
  "ím": 10010,
  "Record": 10011,
  "▁sides": 10012,
  "ustra": 10013,
  "roud": 10014,
  "▁Carol": 10015,
  "ixel": 10017,
  "TT": 10018,
  "▁propri": 10019,
  "▁trang": 10020,
  "▁setup": 10021,
  "▁Hotel": 10022,
  "rift": 10023,
  "ping": 10024,
  "▁Mur": 10025,
  "jd": 10026,
  "ICK": 10027,
  "ły": 10028,
  "Comment": 10030,
  "Conf": 10031,
  "idi": 10032,
  "profile": 10034,
  "▁exchange": 10036,
  "hai": 10037,
  "azione": 10038,
  "pointed": 10039,
  "▁Error": 10041,
  "mach": 10042,
  "▁birthday": 10043,
  "ży": 10044,
  "tf": 10045,
  "▁manif": 10046,
  "▁PA": 10047,
  "uge": 10049,
  "DD": 10050,
  "ributions": 10051,
  "loyee": 10052,
  "▁standards": 10053,
  "fect": 10054,
  "▁helpful": 10055,
  "Portail": 10056,
  "▁wine": 10058,
  "Dir": 10059,
  "▁agric": 10060,
  "▁Ken": 10061,
  "bly": 10062,
  "▁recommended": 10064,
  "▁destin": 10066,
  "▁previously": 10067,
  "ez": 10069,
  "▁disable": 10070,
  "omer": 10072,
  "▁Plat": 10073,
  "▁medi": 10074,
  "MAX": 10075,
  "note": 10076,
  "isen": 10077,
  "ız": 10078,
  "istical": 10079,
  "▁Labor": 10080,
  "atient": 10081,
  "▁aren": 10082,
  "indi": 10083,
  "▁laugh": 10084,
  "▁pump": 10085,
  "thes": 10086,
  "berry": 10087,
  "▁helped": 10088,
  "érie": 10089,
  "Screen": 10090,
  "▁durante": 10091,
  "inas": 10092,
  "▁spr": 10093,
  "▁indeed": 10094,
  "▁tipo": 10095,
  "ipedia": 10096,
  "tait": 10097,
  "▁module": 10098,
  "▁AC": 10099,
  "▁trop": 10100,
  "▁Thi": 10101,
  "▁seconds": 10102,
  "plus": 10103,
  "Msg": 10104,
  "San": 10105,
  "▁pon": 10106,
  "▁destroy": 10108,
  "▁Federal": 10109,
  "Script": 10110,
  "▁Tuesday": 10111,
  "▁agg": 10112,
  "▁ArrayList": 10113,
  "XML": 10114,
  "▁vict": 10115,
  "▁Master": 10116,
  "tok": 10117,
  "▁Comple": 10118,
  "▁lib": 10119,
  "cot": 10120,
  "components": 10121,
  "▁taste": 10122,
  "Database": 10123,
  "HS": 10124,
  "cup": 10125,
  "Download": 10126,
  "▁broken": 10127,
  "esa": 10128,
  "umpy": 10129,
  "arte": 10130,
  "▁atten": 10131,
  "öl": 10133,
  "ít": 10134,
  "BI": 10135,
  "▁momen": 10136,
  "▁Henry": 10137,
  "nat": 10138,
  "▁sep": 10139,
  "▁runs": 10140,
  "However": 10142,
  "utch": 10143,
  "fan": 10144,
  "▁teams": 10145,
  "Enabled": 10146,
  "▁Chicago": 10147,
  "omega": 10148,
  "▁cooper": 10150,
  "▁recor": 10152,
  "▁Et": 10153,
  "▁easier": 10154,
  "▁largest": 10155,
  "▁authority": 10156,
  "chor": 10157,
  "▁FROM": 10158,
  "▁symbol": 10159,
  "alam": 10160,
  "▁Ing": 10162,
  "charge": 10163,
  "▁colour": 10164,
  "▁definition": 10165,
  "▁Assembly": 10166,
  "úb": 10167,
  "Names": 10169,
  "tagHelper": 10170,
  "eff": 10171,
  "coding": 10172,
  "blog": 10173,
  "tices": 10174,
  "ssa": 10175,
  "▁margin": 10176,
  "▁liquid": 10177,
  "cohol": 10179,
  "lict": 10181,
  "Visible": 10183,
  "▁Foundation": 10184,
  "reset": 10185,
  "Em": 10186,
  "Initial": 10187,
  "▁FR": 10188,
  "▁relation": 10189,
  "▁pil": 10190,
  "▁sitting": 10191,
  "onia": 10192,
  "▁boys": 10194,
  "▁hij": 10195,
  "▁vos": 10196,
  "▁bou": 10197,
  "▁plot": 10198,
  "▁explain": 10200,
  "tamente": 10201,
  "▁funds": 10202,
  "coder": 10203,
  "unte": 10204,
  "▁shift": 10205,
  "▁Chapter": 10207,
  "amsung": 10208,
  "Rob": 10209,
  "▁Next": 10210,
  "axy": 10211,
  "ATIONS": 10212,
  "KEY": 10213,
  "▁Support": 10214,
  "▁differences": 10216,
  "▁Vict": 10217,
  "bits": 10218,
  "device": 10219,
  "cli": 10220,
  "▁wenn": 10222,
  "▁Sel": 10223,
  "▁hur": 10224,
  "▁lose": 10225,
  "▁division": 10226,
  "▁ala": 10227,
  "▁relax": 10228,
  "▁princi": 10229,
  "▁Item": 10230,
  "eg": 10232,
  "BU": 10233,
  "sistence": 10235,
  "▁aspec": 10237,
  "▁extremely": 10238,
  "▁lock": 10240,
  "▁creating": 10241,
  "oup": 10242,
  "ương": 10243,
  "▁prove": 10244,
  "▁arms": 10246,
  "▁challenge": 10247,
  "twitter": 10248,
  "throws": 10249,
  "▁seat": 10250,
  "uen": 10251,
  "▁msg": 10252,
  "▁offset": 10253,
  "USE": 10254,
  "loyment": 10255,
  "▁wet": 10256,
  "▁Series": 10257,
  "ingen": 10259,
  "Power": 10260,
  "ture": 10261,
  "▁Contact": 10262,
  "mathbb": 10263,
  "▁driving": 10264,
  "▁Division": 10265,
  "▁errors": 10266,
  "ANCE": 10268,
  "▁Hol": 10269,
  "▁beat": 10270,
  "▁duty": 10272,
  "▁loop": 10273,
  "▁facts": 10275,
  "▁powerful": 10276,
  "▁zone": 10277,
  "Math": 10278,
  "ích": 10280,
  "Document": 10281,
  "▁Thursday": 10282,
  "AU": 10284,
  "BY": 10285,
  "▁procedure": 10286,
  "▁Ban": 10287,
  "▁TODO": 10288,
  "ders": 10290,
  "Models": 10291,
  "▁Bor": 10293,
  "▁sof": 10294,
  "Logger": 10295,
  "▁Tok": 10296,
  "wick": 10297,
  "▁atau": 10298,
  "ifer": 10299,
  "▁joy": 10300,
  "▁constitu": 10301,
  "worth": 10302,
  "ffe": 10303,
  "▁generation": 10304,
  "▁anni": 10305,
  "uo": 10306,
  "tian": 10307,
  "imp": 10308,
  "Fore": 10309,
  "▁processing": 10310,
  "▁formed": 10311,
  "READ": 10312,
  "uno": 10313,
  "▁characteristics": 10314,
  "▁regarding": 10315,
  "prop": 10316,
  "▁leaving": 10317,
  "netic": 10318,
  "▁Video": 10319,
  "ondo": 10320,
  "uran": 10322,
  "▁Because": 10323,
  "▁coast": 10324,
  "cademic": 10325,
  "ảnh": 10326,
  "ATED": 10327,
  "Transaction": 10328,
  "tah": 10329,
  "cache": 10330,
  "onic": 10331,
  "▁screens": 10333,
  "▁sudden": 10334,
  "bru": 10335,
  "sters": 10336,
  "▁properly": 10338,
  "eri": 10339,
  "MT": 10340,
  "▁très": 10341,
  "▁Call": 10342,
  "▁OP": 10343,
  "▁Whe": 10344,
  "ará": 10345,
  "assertEquals": 10346,
  "IOException": 10347,
  "▁county": 10348,
  "▁bil": 10349,
  "▁walking": 10350,
  "▁Soc": 10351,
  "▁otra": 10352,
  "▁opportunities": 10353,
  "▁tamb": 10354,
  "mony": 10355,
  "SIZE": 10356,
  "▁replies": 10357,
  "▁Answer": 10358,
  "Collection": 10359,
  "arten": 10362,
  "Lu": 10364,
  "▁viel": 10365,
  "▁Win": 10366,
  "▁Energy": 10367,
  "▁Their": 10368,
  "Editor": 10369,
  "ombre": 10372,
  "▁synt": 10374,
  "▁married": 10376,
  "▁flower": 10377,
  "Will": 10378,
  "▁Earth": 10379,
  "oftware": 10380,
  "▁Local": 10381,
  "▁tow": 10382,
  "▁suitable": 10383,
  "hibit": 10384,
  "▁ihr": 10385,
  "awt": 10386,
  "sho": 10388,
  "IDE": 10389,
  "▁joint": 10390,
  "▁Last": 10391,
  "▁apart": 10392,
  "▁Corpor": 10393,
  "dz": 10394,
  "▁aid": 10395,
  "▁alter": 10396,
  "Values": 10397,
  "▁reflect": 10398,
  "ạn": 10399,
  "Schema": 10400,
  "▁onto": 10401,
  "LIST": 10402,
  "hide": 10404,
  "fre": 10405,
  "▁honest": 10406,
  "▁cle": 10408,
  "▁billion": 10409,
  "ACH": 10410,
  "aved": 10411,
  "resa": 10412,
  "ennis": 10413,
  "bok": 10415,
  "▁disap": 10416,
  "ência": 10417,
  "▁dispon": 10418,
  "rios": 10419,
  "▁Dar": 10420,
  "ordan": 10421,
  "▁bol": 10422,
  "▁techniques": 10423,
  "David": 10424,
  "▁Cast": 10425,
  "LD": 10426,
  "jon": 10427,
  "▁Pla": 10428,
  "▁corner": 10429,
  "isms": 10430,
  "vm": 10431,
  "gent": 10432,
  "▁reli": 10433,
  "▁trong": 10435,
  "▁orange": 10436,
  "Section": 10437,
  "▁Party": 10438,
  "▁mayor": 10439,
  "airs": 10440,
  "▁Western": 10441,
  "pling": 10442,
  "fortun": 10443,
  "▁tiempo": 10444,
  "▁Hard": 10446,
  "lli": 10447,
  "lama": 10450,
  "related": 10451,
  "àng": 10452,
  "▁Fac": 10453,
  "▁Word": 10455,
  "▁Dif": 10456,
  "▁feedback": 10457,
  "▁latter": 10458,
  "elly": 10459,
  "Sw": 10460,
  "éné": 10461,
  "▁Pac": 10462,
  "▁atmos": 10463,
  "ogra": 10465,
  "jadi": 10466,
  "PU": 10467,
  "▁horse": 10468,
  "mega": 10469,
  "▁operating": 10470,
  "▁drug": 10471,
  "▁repla": 10472,
  "itecture": 10473,
  "▁frequency": 10474,
  "racy": 10475,
  "▁editor": 10476,
  "omet": 10477,
  "▁drawing": 10478,
  "ENCE": 10479,
  "▁adding": 10480,
  "lank": 10482,
  "▁mill": 10483,
  "rir": 10484,
  "▁PAR": 10485,
  "half": 10486,
  "aus": 10487,
  "▁finding": 10488,
  "▁exists": 10489,
  "▁Ges": 10490,
  "Cu": 10493,
  "Interface": 10496,
  "▁fru": 10497,
  "small": 10498,
  "▁depend": 10499,
  "▁Wednesday": 10500,
  "▁cycle": 10501,
  "▁Kore": 10502,
  "IMAGE": 10503,
  "Met": 10504,
  "▁adalah": 10505,
  "ears": 10506,
  "▁vy": 10507,
  "▁confirm": 10508,
  "▁delay": 10509,
  "issue": 10510,
  "▁figures": 10511,
  "ibt": 10512,
  "▁formula": 10513,
  "tran": 10514,
  "ười": 10515,
  "▁cub": 10516,
  "nings": 10517,
  "▁stret": 10518,
  "▁journal": 10519,
  "uso": 10520,
  "Area": 10521,
  "▁teachers": 10522,
  "▁answers": 10523,
  "inity": 10524,
  "ró": 10525,
  "amount": 10526,
  "▁maintain": 10528,
  "have": 10529,
  "MIN": 10530,
  "Detail": 10531,
  "MO": 10532,
  "month": 10533,
  "▁island": 10534,
  "gged": 10535,
  "commod": 10536,
  "dim": 10537,
  "rays": 10538,
  "▁absor": 10539,
  "holic": 10540,
  "▁leaders": 10541,
  "▁tiss": 10542,
  "▁concep": 10543,
  "▁split": 10544,
  "▁filled": 10545,
  "▁reality": 10546,
  "▁ll": 10547,
  "▁secure": 10548,
  "▁Nov": 10549,
  "▁vend": 10550,
  "bagai": 10551,
  "▁Search": 10552,
  "Tri": 10553,
  "Sam": 10554,
  "▁funny": 10555,
  "▁meant": 10557,
  "found": 10558,
  "▁Low": 10559,
  "icker": 10560,
  "SI": 10561,
  "SK": 10562,
  "▁formation": 10565,
  "pak": 10566,
  "▁Response": 10567,
  "ometry": 10568,
  "who": 10569,
  "▁nun": 10570,
  "pel": 10571,
  "ecto": 10572,
  "front": 10573,
  "lanation": 10574,
  "▁Beach": 10575,
  "ushed": 10576,
  "transform": 10577,
  "▁Look": 10578,
  "Db": 10580,
  "custom": 10581,
  "uesta": 10583,
  "▁rob": 10584,
  "▁episode": 10587,
  "▁agent": 10588,
  "BAR": 10590,
  "ản": 10591,
  "▁Case": 10592,
  "▁tail": 10594,
  "article": 10595,
  "ativo": 10596,
  "▁Sin": 10597,
  "▁plane": 10599,
  "udad": 10600,
  "▁ment": 10601,
  "▁TE": 10602,
  "▁exc": 10603,
  "nologies": 10604,
  "▁butter": 10605,
  "▁Saint": 10606,
  "ristmas": 10607,
  "▁lig": 10608,
  "▁lugar": 10609,
  "COL": 10610,
  "ONG": 10611,
  "ición": 10612,
  "Ger": 10613,
  "▁pom": 10614,
  "isters": 10615,
  "▁mixed": 10616,
  "▁extent": 10617,
  "ös": 10618,
  "▁Comput": 10619,
  "▁RO": 10620,
  "CI": 10621,
  "ık": 10622,
  "▁Johnson": 10623,
  "▁depth": 10624,
  "bea": 10625,
  "▁specified": 10626,
  "support": 10627,
  "▁lif": 10628,
  "▁sequence": 10629,
  "Hz": 10630,
  "atie": 10631,
  "tainment": 10632,
  "created": 10633,
  "▁Tag": 10634,
  "▁inner": 10635,
  "lf": 10636,
  "▁prés": 10637,
  "▁identified": 10638,
  "▁proceed": 10640,
  "vare": 10641,
  "▁collabor": 10642,
  "▁peng": 10643,
  "▁imagin": 10645,
  "rison": 10646,
  "▁console": 10647,
  "▁teaching": 10649,
  "tado": 10650,
  "▁meg": 10651,
  "▁fell": 10652,
  "▁Engineering": 10653,
  "bung": 10654,
  "cludes": 10655,
  "Err": 10657,
  "▁Conf": 10658,
  "▁virtual": 10660,
  "Double": 10661,
  "▁gonna": 10662,
  "▁API": 10665,
  "Dao": 10666,
  "▁Requ": 10667,
  "Send": 10668,
  "rente": 10670,
  "tables": 10671,
  "Async": 10672,
  "▁flor": 10674,
  "▁Fish": 10675,
  "aylor": 10676,
  "▁deca": 10677,
  "Contin": 10678,
  "atis": 10679,
  "DP": 10680,
  "▁Ah": 10681,
  "tip": 10682,
  "vals": 10683,
  "▁saved": 10684,
  "thyl": 10685,
  "▁approximately": 10686,
  "Cy": 10687,
  "lug": 10688,
  "▁tin": 10689,
  "▁breath": 10690,
  "▁buffer": 10691,
  "unda": 10693,
  "law": 10694,
  "▁concerned": 10695,
  "Success": 10696,
  "▁Lie": 10697,
  "▁Jim": 10698,
  "orial": 10700,
  "▁Cup": 10701,
  "▁diagnos": 10702,
  "nement": 10703,
  "▁Bad": 10704,
  "▁marked": 10705,
  "pañ": 10706,
  "edi": 10707,
  "ều": 10708,
  "▁familiar": 10709,
  "sd": 10710,
  "▁Bru": 10711,
  "▁produc": 10712,
  "▁Manager": 10713,
  "▁interests": 10714,
  "UK": 10715,
  "Blue": 10716,
  "legal": 10717,
  "▁bak": 10718,
  "stan": 10719,
  "▁bru": 10720,
  "▁Follow": 10721,
  "▁Fun": 10722,
  "▁Rod": 10723,
  "▁listen": 10724,
  "▁Sus": 10725,
  "▁Stock": 10726,
  "quier": 10727,
  "OF": 10728,
  "▁videos": 10730,
  "ounted": 10731,
  "▁Introduction": 10732,
  "Writer": 10733,
  "▁journey": 10734,
  "▁succ": 10735,
  "▁Lan": 10736,
  "illes": 10737,
  "POS": 10739,
  "▁awesome": 10740,
  "▁Account": 10741,
  "▁African": 10742,
  "bst": 10743,
  "▁raw": 10744,
  "▁grade": 10745,
  "grees": 10747,
  "Art": 10748,
  "▁fur": 10749,
  "▁comfortable": 10750,
  "▁containing": 10751,
  "orders": 10752,
  "▁Daniel": 10754,
  "▁porque": 10755,
  "gration": 10757,
  "Sin": 10758,
  "ORK": 10759,
  "outs": 10760,
  "▁weekend": 10762,
  "none": 10763,
  "▁accident": 10764,
  "▁một": 10765,
  "▁Rom": 10766,
  "rice": 10767,
  "▁Ref": 10769,
  "sell": 10771,
  "World": 10772,
  "▁și": 10773,
  "antly": 10775,
  "▁posts": 10776,
  "▁trouble": 10779,
  "▁battery": 10780,
  "xe": 10781,
  "▁photograph": 10782,
  "▁entered": 10783,
  "▁được": 10784,
  "Custom": 10786,
  "tist": 10787,
  "uler": 10788,
  "▁Ltd": 10789,
  "▁Ih": 10790,
  "▁rad": 10791,
  "▁causes": 10792,
  "veness": 10793,
  "ně": 10794,
  "▁signed": 10795,
  "arta": 10796,
  "▁params": 10797,
  "▁Global": 10799,
  "Share": 10800,
  "avor": 10801,
  "iso": 10803,
  "Render": 10804,
  "▁prison": 10805,
  "AIL": 10806,
  "OLD": 10807,
  "after": 10808,
  "ictionary": 10809,
  "While": 10811,
  "athan": 10812,
  "Lear": 10813,
  "▁accepted": 10814,
  "nell": 10815,
  "▁Security": 10816,
  "▁documents": 10817,
  "▁daß": 10818,
  "▁appearance": 10819,
  "▁Anda": 10820,
  "ication": 10821,
  "▁URL": 10822,
  "Men": 10823,
  "▁Network": 10824,
  "▁Question": 10825,
  "andon": 10826,
  "▁hearing": 10827,
  "▁premium": 10829,
  "hem": 10830,
  "▁cultural": 10831,
  "VO": 10832,
  "▁accur": 10833,
  "sively": 10834,
  "uests": 10836,
  "bili": 10837,
  "Debug": 10838,
  "gos": 10839,
  "▁orders": 10840,
  "▁maintenance": 10841,
  "encias": 10842,
  "alis": 10843,
  "▁experiment": 10844,
  "▁nutri": 10845,
  "oler": 10846,
  "▁iç": 10847,
  "▁fee": 10848,
  "▁math": 10849,
  "▁rés": 10851,
  "NetCore": 10852,
  "▁Virgin": 10853,
  "ật": 10854,
  "▁Ros": 10855,
  "ação": 10857,
  "▁Level": 10858,
  "stock": 10859,
  "▁claims": 10861,
  "▁expressed": 10862,
  "Vol": 10863,
  "RODUCTION": 10864,
  "cited": 10865,
  "orrow": 10866,
  "▁lux": 10867,
  "▁environmental": 10868,
  "enza": 10869,
  "▁federal": 10871,
  "▁blow": 10872,
  "ached": 10873,
  "▁hate": 10874,
  "ians": 10875,
  "AH": 10876,
  "entro": 10877,
  "▁efficient": 10878,
  "▁amer": 10879,
  "umbnail": 10880,
  "▁natur": 10881,
  "Design": 10882,
  "chat": 10883,
  "▁Pi": 10884,
  "▁tam": 10885,
  "▁Works": 10886,
  "Cost": 10887,
  "oug": 10888,
  "icy": 10889,
  "▁anche": 10891,
  "▁enf": 10892,
  "près": 10894,
  "▁tum": 10895,
  "OWN": 10896,
  "▁Wat": 10897,
  "▁majority": 10898,
  "uber": 10899,
  "inet": 10900,
  "▁Az": 10901,
  "raz": 10903,
  "modal": 10904,
  "YPE": 10905,
  "▁concerns": 10906,
  "▁Pap": 10907,
  "orney": 10908,
  "▁prze": 10910,
  "▁cher": 10911,
  "BUTTON": 10912,
  "scribe": 10913,
  "Match": 10914,
  "results": 10915,
  "ieren": 10916,
  "▁Custom": 10917,
  "▁affected": 10918,
  "▁Ther": 10919,
  "▁wonderful": 10920,
  "ution": 10921,
  "yen": 10923,
  "Make": 10924,
  "▁Span": 10925,
  "▁Cu": 10926,
  "▁Area": 10927,
  "▁shipping": 10928,
  "Public": 10930,
  "▁yo": 10931,
  "structor": 10932,
  "gnition": 10934,
  "▁exter": 10935,
  "▁guarante": 10936,
  "tro": 10938,
  "icks": 10939,
  "Light": 10940,
  "▁tent": 10941,
  "▁resistance": 10942,
  "tags": 10943,
  "June": 10944,
  "neh": 10945,
  "CHE": 10946,
  "▁bike": 10947,
  "▁imag": 10948,
  "imedia": 10949,
  "quis": 10950,
  "argument": 10952,
  "rica": 10953,
  "▁Joseph": 10954,
  "▁Santa": 10955,
  "access": 10956,
  "▁extension": 10957,
  "▁kur": 10958,
  "utz": 10959,
  "poli": 10960,
  "endix": 10961,
  "alu": 10962,
  "▁famous": 10964,
  "setState": 10965,
  "▁gla": 10966,
  "▁Jones": 10967,
  "tool": 10968,
  "cademy": 10969,
  "Lea": 10970,
  "▁officers": 10971,
  "asser": 10972,
  "bound": 10973,
  "▁hash": 10974,
  "▁Ty": 10976,
  "rise": 10977,
  "vens": 10978,
  "▁guard": 10981,
  "mobile": 10982,
  "▁linear": 10983,
  "▁tat": 10984,
  "▁tie": 10985,
  "lymp": 10987,
  "▁adap": 10988,
  "▁cred": 10989,
  "tige": 10990,
  "ây": 10992,
  "▁CAL": 10994,
  "short": 10995,
  "▁grass": 10996,
  "Ear": 10997,
  "▁tho": 10998,
  "▁Bul": 10999,
  "▁sister": 11000,
  "▁ek": 11001,
  "▁Nach": 11002,
  "iao": 11003,
  "▁bug": 11004,
  "▁seed": 11006,
  "▁Ru": 11007,
  "▁Chief": 11008,
  "▁Know": 11009,
  "▁competition": 11010,
  "▁assum": 11011,
  "▁lived": 11012,
  "endregion": 11013,
  "hlor": 11014,
  "▁Four": 11016,
  "▁treated": 11017,
  "Pal": 11018,
  "▁parameter": 11019,
  "Chi": 11020,
  "owy": 11021,
  "Rest": 11022,
  "▁alternative": 11023,
  "▁Methods": 11026,
  "▁Young": 11027,
  "pf": 11028,
  "▁tempo": 11030,
  "ronic": 11031,
  "▁ain": 11032,
  "▁tau": 11033,
  "Cla": 11034,
  "space": 11035,
  "▁Version": 11036,
  "aks": 11037,
  "ulf": 11038,
  "▁mater": 11039,
  "▁watching": 11041,
  "▁Sty": 11042,
  "▁immer": 11044,
  "▁Size": 11045,
  "▁anime": 11046,
  "ORN": 11047,
  "there": 11048,
  "aff": 11049,
  "Real": 11050,
  "mentos": 11051,
  "died": 11052,
  "▁officer": 11053,
  "▁Jus": 11054,
  "iri": 11055,
  "▁Jun": 11056,
  "ifdef": 11057,
  "▁Centre": 11059,
  "▁html": 11060,
  "▁Brand": 11061,
  "MB": 11062,
  "hang": 11063,
  "▁extern": 11065,
  "▁SO": 11066,
  "▁quiet": 11067,
  "weise": 11068,
  "▁WE": 11069,
  "tically": 11070,
  "Role": 11071,
  "Template": 11073,
  "▁Eu": 11074,
  "Lab": 11075,
  "▁foi": 11077,
  "God": 11078,
  "▁HT": 11079,
  "pointment": 11080,
  "jango": 11081,
  "about": 11082,
  "Parser": 11083,
  "▁vul": 11084,
  "esse": 11085,
  "▁Bla": 11086,
  "▁Lic": 11087,
  "▁jobs": 11088,
  "▁autor": 11089,
  "▁cities": 11090,
  "uba": 11091,
  "▁tec": 11092,
  "aven": 11093,
  "amond": 11094,
  "builder": 11095,
  "▁Wer": 11096,
  "▁ISBN": 11097,
  "pective": 11099,
  "quet": 11100,
  "oms": 11101,
  "Properties": 11102,
  "FS": 11103,
  "nach": 11104,
  "óg": 11105,
  "eline": 11106,
  "ách": 11107,
  "liver": 11108,
  "▁Take": 11109,
  "▁generated": 11110,
  "▁hos": 11111,
  "▁EL": 11112,
  "▁tables": 11113,
  "▁concern": 11115,
  "Most": 11116,
  "▁changing": 11117,
  "▁interpret": 11118,
  "▁Tw": 11119,
  "ước": 11121,
  "Bet": 11122,
  "GEN": 11123,
  "▁Russia": 11124,
  "vertis": 11125,
  "than": 11127,
  "▁forth": 11128,
  "▁estate": 11129,
  "▁kam": 11130,
  "ERN": 11131,
  "rehen": 11132,
  "▁Ri": 11133,
  "tificate": 11134,
  "▁truly": 11135,
  "▁Niger": 11136,
  "▁combination": 11137,
  "▁scan": 11138,
  "RY": 11139,
  "▁DES": 11140,
  "▁Week": 11141,
  "▁Place": 11142,
  "tha": 11143,
  "ranch": 11144,
  "matrix": 11145,
  "Feb": 11146,
  "ário": 11148,
  "▁btn": 11149,
  "urope": 11150,
  "▁Hospital": 11151,
  "athy": 11152,
  "dier": 11153,
  "▁Cra": 11156,
  "▁IMAGE": 11157,
  "▁Royal": 11158,
  "AVE": 11159,
  "nament": 11160,
  "oph": 11161,
  "▁Dev": 11162,
  "▁rooms": 11164,
  "nl": 11165,
  "▁poll": 11166,
  "▁density": 11168,
  "▁Ten": 11169,
  "azz": 11170,
  "▁ED": 11171,
  "▁kal": 11172,
  "czy": 11173,
  "▁ig": 11174,
  "addr": 11175,
  "▁Three": 11176,
  "▁Gro": 11178,
  "ppen": 11179,
  "▁civil": 11180,
  "▁Vari": 11181,
  "Gr": 11182,
  "▁EU": 11183,
  "▁phen": 11185,
  "Theme": 11186,
  "▁letters": 11187,
  "▁Does": 11188,
  "MOD": 11189,
  "rible": 11190,
  "▁Hi": 11192,
  "▁sheet": 11193,
  "Global": 11195,
  "▁remote": 11196,
  "town": 11197,
  "▁Mexico": 11198,
  "REFER": 11199,
  "▁Russian": 11200,
  "bd": 11203,
  "▁retro": 11204,
  "Fa": 11206,
  "▁starts": 11207,
  "▁Villa": 11208,
  "▁Store": 11209,
  "ategor": 11210,
  "▁UNIVERS": 11211,
  "infty": 11212,
  "cluding": 11214,
  "▁pant": 11215,
  "Bre": 11216,
  "▁assistance": 11217,
  "▁esper": 11218,
  "▁twenty": 11219,
  "plugin": 11220,
  "atus": 11221,
  "▁absolutely": 11222,
  "tó": 11223,
  "boy": 11224,
  "WR": 11225,
  "▁donde": 11226,
  "Does": 11227,
  "▁lots": 11228,
  "Matrix": 11230,
  "vince": 11231,
  "filename": 11233,
  "▁ult": 11234,
  "▁respectively": 11235,
  "▁fis": 11236,
  "amination": 11238,
  "▁Ans": 11239,
  "▁hall": 11240,
  "tilde": 11241,
  "DEBUG": 11242,
  "▁swim": 11243,
  "▁Medical": 11244,
  "zza": 11245,
  "mul": 11246,
  "▁flight": 11247,
  "▁Scot": 11249,
  "Cache": 11250,
  "Settings": 11252,
  "▁só": 11253,
  "▁container": 11254,
  "▁superior": 11257,
  "bn": 11258,
  "Stop": 11259,
  "onesia": 11260,
  "▁introduced": 11261,
  "Final": 11263,
  "▁Secretary": 11264,
  "▁Right": 11265,
  "Package": 11266,
  "dp": 11267,
  "▁NY": 11268,
  "▁pier": 11269,
  "▁Bob": 11270,
  "HTML": 11271,
  "vated": 11272,
  "▁windows": 11273,
  "▁commission": 11274,
  "▁asking": 11275,
  "▁noise": 11277,
  "City": 11278,
  "Fire": 11279,
  "▁Origin": 11280,
  "Parameters": 11281,
  "▁Such": 11282,
  "Intent": 11283,
  "▁Trump": 11285,
  "▁infra": 11286,
  "▁portion": 11287,
  "▁drawn": 11288,
  "▁Editor": 11289,
  "ogo": 11290,
  "▁sir": 11291,
  "novation": 11292,
  "oston": 11293,
  "INFO": 11294,
  "rado": 11295,
  "Watch": 11296,
  "▁grid": 11297,
  "▁parse": 11298,
  "bank": 11299,
  "iene": 11300,
  "▁psycho": 11301,
  "stanti": 11302,
  "▁advanced": 11303,
  "▁comput": 11304,
  "▁voy": 11305,
  "▁roof": 11306,
  "▁colon": 11307,
  "▁desk": 11309,
  "channel": 11310,
  "yor": 11311,
  "mean": 11312,
  "▁mail": 11313,
  "▁admin": 11314,
  "mask": 11315,
  "▁ride": 11316,
  "iko": 11317,
  "inos": 11318,
  "▁implements": 11319,
  "ultado": 11320,
  "▁enable": 11321,
  "ải": 11324,
  "▁Professor": 11325,
  "▁agreed": 11327,
  "▁intern": 11328,
  "metric": 11330,
  "licate": 11332,
  "▁Bit": 11333,
  "uru": 11334,
  "▁ER": 11335,
  "▁caso": 11336,
  "lon": 11337,
  "▁ends": 11338,
  "dade": 11339,
  "▁elle": 11340,
  "▁pros": 11341,
  "▁thin": 11342,
  "Profile": 11343,
  "▁Rome": 11344,
  "Age": 11345,
  "Users": 11347,
  "▁Kim": 11348,
  "omi": 11349,
  "iii": 11350,
  "▁tah": 11351,
  "▁detailed": 11352,
  "will": 11353,
  "press": 11355,
  "Created": 11356,
  "thal": 11357,
  "▁notre": 11358,
  "▁Source": 11359,
  "▁speech": 11360,
  "andy": 11361,
  "▁cum": 11362,
  "Lat": 11363,
  "Hope": 11364,
  "▁ada": 11365,
  "Hor": 11367,
  "Member": 11368,
  "Effect": 11369,
  "Div": 11370,
  "ratic": 11371,
  "Microsoft": 11372,
  "terns": 11373,
  "gro": 11374,
  "rak": 11375,
  "ahr": 11377,
  "AspNetCore": 11378,
  "MAR": 11379,
  "NC": 11380,
  "▁topic": 11381,
  "mn": 11383,
  "▁JSON": 11384,
  "domain": 11385,
  "youtube": 11386,
  "▁template": 11387,
  "▁launch": 11388,
  "LS": 11389,
  "▁boat": 11390,
  "ichte": 11391,
  "▁Kind": 11392,
  "tiva": 11393,
  "▁Valley": 11394,
  "ETHOD": 11395,
  "▁Did": 11396,
  "Job": 11397,
  "canner": 11398,
  "▁DC": 11399,
  "▁developing": 11400,
  "race": 11401,
  "▁freedom": 11402,
  "pot": 11403,
  "lers": 11404,
  "▁bay": 11405,
  "▁param": 11406,
  "▁homes": 11407,
  "isy": 11408,
  "essages": 11409,
  "beit": 11410,
  "▁matters": 11411,
  "theme": 11412,
  "dents": 11413,
  "Admin": 11414,
  "MR": 11415,
  "▁hoo": 11416,
  "elli": 11417,
  "▁valu": 11418,
  "sis": 11419,
  "▁reserved": 11420,
  "▁ALL": 11421,
  "ICA": 11423,
  "▁quer": 11424,
  "NN": 11426,
  "UID": 11428,
  "▁discussed": 11429,
  "▁Japanese": 11430,
  "Conclusions": 11431,
  "ViewById": 11432,
  "Prof": 11433,
  "▁FL": 11434,
  "▁tmp": 11435,
  "▁lí": 11436,
  "BB": 11437,
  "▁Input": 11438,
  "▁motiv": 11439,
  "▁Ox": 11440,
  "▁identify": 11441,
  "▁quotes": 11442,
  "ToString": 11443,
  "▁inch": 11444,
  "Rect": 11445,
  "His": 11446,
  "wall": 11447,
  "▁kn": 11448,
  "▁assessment": 11449,
  "nbsp": 11450,
  "▁scar": 11451,
  "VC": 11452,
  "Offset": 11453,
  "kov": 11454,
  "▁grey": 11455,
  "▁sole": 11456,
  "enced": 11457,
  "Comments": 11458,
  "▁Change": 11459,
  "▁supposed": 11460,
  "icos": 11461,
  "▁Standard": 11462,
  "controller": 11463,
  "▁willing": 11465,
  "pyx": 11466,
  "ajax": 11467,
  "fx": 11468,
  "▁Iss": 11469,
  "▁Application": 11470,
  "dx": 11471,
  "nee": 11472,
  "Servlet": 11473,
  "▁Italy": 11474,
  "▁né": 11475,
  "PG": 11476,
  "▁recon": 11477,
  "▁wheel": 11478,
  "dific": 11479,
  "▁suggested": 11480,
  "▁youth": 11481,
  "▁comparison": 11482,
  "▁capac": 11483,
  "brid": 11484,
  "lav": 11485,
  "▁Jr": 11486,
  "essa": 11487,
  "his": 11488,
  "▁Haw": 11489,
  "▁judge": 11490,
  "▁smile": 11491,
  "idents": 11492,
  "Wait": 11493,
  "Xml": 11494,
  "▁temps": 11495,
  "Act": 11496,
  "loaded": 11497,
  "stmt": 11498,
  "▁Access": 11499,
  "▁Solution": 11500,
  "tima": 11501,
  "▁fuer": 11503,
  "▁día": 11504,
  "March": 11505,
  "▁Common": 11506,
  "TI": 11507,
  "▁jet": 11510,
  "APTER": 11511,
  "para": 11512,
  "▁Ele": 11513,
  "▁cake": 11514,
  "APP": 11515,
  "umps": 11516,
  "▁Gri": 11517,
  "▁greatest": 11518,
  "ành": 11520,
  "▁nem": 11521,
  "ching": 11523,
  "▁GO": 11524,
  "Mu": 11525,
  "▁Market": 11526,
  "▁religious": 11527,
  "▁bisa": 11528,
  "IBR": 11529,
  "▁OK": 11530,
  "▁intended": 11531,
  "▁Kit": 11533,
  "dec": 11534,
  "▁nam": 11535,
  "▁restri": 11536,
  "▁amor": 11537,
  "▁ordered": 11538,
  "cart": 11539,
  "▁lights": 11540,
  "▁Fl": 11541,
  "lado": 11543,
  "▁embar": 11544,
  "kle": 11545,
  "▁bah": 11547,
  "▁remaining": 11548,
  "▁experienced": 11549,
  "mah": 11550,
  "▁PS": 11552,
  "▁Both": 11553,
  "▁reader": 11554,
  "▁VI": 11556,
  "▁studio": 11557,
  "▁approved": 11559,
  "▁solve": 11560,
  "gia": 11561,
  "▁Has": 11562,
  "hibition": 11563,
  "PP": 11564,
  "ENG": 11565,
  "▁agency": 11567,
  "ppers": 11568,
  "▁Therefore": 11569,
  "Common": 11571,
  "▁practical": 11572,
  "▁incl": 11574,
  "cluded": 11575,
  "Was": 11576,
  "headers": 11577,
  "fish": 11578,
  "▁Dra": 11579,
  "▁Systems": 11580,
  "▁tip": 11581,
  "▁nego": 11582,
  "FORM": 11583,
  "zzle": 11584,
  "▁injury": 11585,
  "Water": 11586,
  "AST": 11587,
  "▁administration": 11588,
  "▁demo": 11590,
  "▁sv": 11591,
  "Parent": 11592,
  "mé": 11593,
  "▁twice": 11594,
  "reshold": 11595,
  "todo": 11596,
  "Try": 11597,
  "▁installed": 11598,
  "▁glad": 11599,
  "errors": 11600,
  "▁explained": 11601,
  "MD": 11603,
  "▁Oct": 11605,
  "▁mg": 11606,
  "chain": 11607,
  "▁suc": 11608,
  "modif": 11610,
  "ragma": 11612,
  "▁continues": 11614,
  "▁technique": 11615,
  "uit": 11616,
  "nex": 11617,
  "▁measured": 11618,
  "äs": 11619,
  "▁shut": 11620,
  "▁election": 11621,
  "desc": 11622,
  "▁impossible": 11623,
  "▁với": 11624,
  "▁Appro": 11625,
  "ían": 11626,
  "äch": 11627,
  "bic": 11628,
  "▁applicable": 11629,
  "▁Article": 11630,
  "hos": 11631,
  "hard": 11632,
  "▁vary": 11633,
  "▁native": 11634,
  "loop": 11635,
  "entials": 11636,
  "▁keeping": 11637,
  "atta": 11638,
  "▁Spring": 11640,
  "Rea": 11641,
  "ems": 11642,
  "kor": 11644,
  "April": 11645,
  "▁authors": 11646,
  "▁fellow": 11648,
  "apo": 11649,
  "▁automatically": 11650,
  "▁Florida": 11651,
  "▁diet": 11652,
  "▁usual": 11653,
  "Gru": 11654,
  "VD": 11655,
  "route": 11657,
  "TextView": 11658,
  "▁recorded": 11659,
  "Program": 11660,
  "Stand": 11661,
  "▁climate": 11662,
  "plat": 11663,
  "▁são": 11664,
  "ường": 11665,
  "▁sick": 11666,
  "▁tanto": 11667,
  "▁hog": 11668,
  "anza": 11671,
  "uki": 11672,
  "▁esto": 11673,
  "zioni": 11674,
  "▁ava": 11675,
  "ulu": 11676,
  "▁committee": 11677,
  "▁Space": 11678,
  "▁Ide": 11679,
  "Ré": 11680,
  "▁Very": 11681,
  "kee": 11682,
  "direct": 11683,
  "▁philosop": 11684,
  "Dig": 11685,
  "driver": 11686,
  "▁jun": 11687,
  "▁Live": 11688,
  "connection": 11689,
  "genes": 11691,
  "Identi": 11693,
  "▁operator": 11694,
  "▁Angeles": 11695,
  "bih": 11696,
  "▁Comment": 11697,
  "▁circle": 11698,
  "▁warning": 11699,
  "▁Cana": 11700,
  "REG": 11701,
  "▁circumstances": 11702,
  "▁nit": 11703,
  "▁signs": 11704,
  "▁Ped": 11705,
  "lr": 11706,
  "▁communities": 11707,
  "rep": 11708,
  "▁Little": 11709,
  "▁QU": 11710,
  "▁các": 11711,
  "GC": 11712,
  "▁emphas": 11713,
  "ensi": 11714,
  "dro": 11715,
  "AI": 11716,
  "▁urban": 11717,
  "üh": 11719,
  "▁leather": 11720,
  "Ja": 11721,
  "hlen": 11722,
  "ISH": 11723,
  "toon": 11724,
  "illy": 11725,
  "hidden": 11726,
  "July": 11727,
  "noon": 11728,
  "▁writer": 11729,
  "▁officials": 11730,
  "sement": 11731,
  "jud": 11732,
  "▁nar": 11733,
  "▁Vor": 11734,
  "ulator": 11735,
  "▁alloc": 11736,
  "▁conj": 11737,
  "▁coe": 11739,
  "Para": 11741,
  "▁Zeit": 11742,
  "eqn": 11744,
  "▁Download": 11745,
  "ầu": 11747,
  "diction": 11748,
  "coin": 11749,
  "ksi": 11750,
  "enas": 11751,
  "▁responsibility": 11752,
  "▁uint": 11753,
  "▁Unit": 11754,
  "▁instrument": 11755,
  "▁walls": 11756,
  "▁prob": 11757,
  "▁sud": 11759,
  "includegraphics": 11760,
  "▁haz": 11762,
  "lir": 11763,
  "OO": 11764,
  "▁sharing": 11766,
  "exception": 11768,
  "▁wooden": 11769,
  "▁ett": 11770,
  "ading": 11771,
  "pez": 11772,
  "heim": 11773,
  "kr": 11774,
  "visor": 11775,
  "▁wieder": 11776,
  "OME": 11777,
  "Execution": 11778,
  "▁frag": 11779,
  "Life": 11780,
  "gunt": 11781,
  "▁proud": 11782,
  "▁Night": 11783,
  "nych": 11784,
  "simp": 11785,
  "JECT": 11786,
  "▁adult": 11787,
  "▁Conference": 11788,
  "aler": 11789,
  "rug": 11790,
  "▁implementation": 11791,
  "Even": 11792,
  "ôi": 11793,
  "Ein": 11794,
  "aura": 11796,
  "Services": 11797,
  "▁Once": 11799,
  "zn": 11800,
  "ads": 11801,
  "Das": 11802,
  "vacy": 11803,
  "food": 11804,
  "days": 11805,
  "▁ended": 11807,
  "▁buildings": 11808,
  "▁define": 11810,
  "▁zw": 11811,
  "▁Dies": 11813,
  "icher": 11814,
  "Rule": 11815,
  "▁calling": 11816,
  "▁clar": 11817,
  "▁tight": 11818,
  "▁momento": 11820,
  "erves": 11821,
  "▁fas": 11822,
  "▁Unity": 11823,
  "▁Tru": 11824,
  "▁painting": 11825,
  "voc": 11826,
  "▁meat": 11827,
  "▁passion": 11828,
  "▁CONT": 11829,
  "ăm": 11831,
  "▁Index": 11832,
  "▁Unter": 11833,
  "antity": 11836,
  "▁diese": 11837,
  "▁Vin": 11838,
  "gri": 11839,
  "▁Contin": 11840,
  "▁senior": 11841,
  "▁oleh": 11842,
  "▁bread": 11843,
  "▁leads": 11845,
  "eable": 11846,
  "phie": 11847,
  "lique": 11850,
  "Exper": 11851,
  "▁comfort": 11852,
  "ASH": 11854,
  "▁ook": 11855,
  "▁issued": 11856,
  "country": 11857,
  "▁indu": 11858,
  "▁lab": 11859,
  "agger": 11860,
  "▁lamp": 11861,
  "Paul": 11862,
  "mers": 11863,
  "▁fic": 11864,
  "Track": 11866,
  "▁extended": 11867,
  "far": 11868,
  "endencies": 11869,
  "fold": 11870,
  "▁cable": 11871,
  "▁rear": 11872,
  "▁relatively": 11873,
  "▁neighbor": 11874,
  "▁Eff": 11876,
  "▁dance": 11877,
  "porte": 11878,
  "▁resolution": 11879,
  "▁concentration": 11880,
  "Register": 11881,
  "▁moon": 11883,
  "▁hydro": 11884,
  "▁recover": 11885,
  "fc": 11886,
  "agraph": 11888,
  "settings": 11889,
  "Welcome": 11890,
  "▁stopped": 11892,
  "▁Chair": 11893,
  "UARY": 11895,
  "happy": 11896,
  "Bro": 11897,
  "▁Williams": 11898,
  "▁mostly": 11900,
  "▁Fred": 11901,
  "▁factory": 11902,
  "FILE": 11903,
  "▁Song": 11904,
  "Det": 11905,
  "USS": 11906,
  "esh": 11907,
  "▁magic": 11908,
  "▁Ray": 11909,
  "▁kö": 11910,
  "▁entirely": 11911,
  "▁kem": 11912,
  "▁dapat": 11914,
  "▁iter": 11915,
  "Amount": 11916,
  "Second": 11918,
  "rob": 11919,
  "Modal": 11920,
  "cv": 11921,
  "▁messages": 11922,
  "ALE": 11923,
  "Queue": 11925,
  "▁According": 11926,
  "livery": 11927,
  "▁pays": 11928,
  "▁USB": 11929,
  "▁profes": 11930,
  "ULTS": 11931,
  "▁cad": 11932,
  "Phi": 11933,
  "▁vig": 11934,
  "anguages": 11935,
  "▁mouse": 11937,
  "foot": 11939,
  "▁generate": 11941,
  "idente": 11942,
  "▁combined": 11943,
  "▁hell": 11944,
  "INS": 11945,
  "▁employee": 11946,
  "▁dann": 11947,
  "kind": 11948,
  "ikes": 11949,
  "▁depart": 11950,
  "Router": 11951,
  "▁Tea": 11952,
  "▁Abs": 11953,
  "UNT": 11954,
  "▁publish": 11955,
  "▁Turn": 11956,
  "ANS": 11957,
  "▁decide": 11958,
  "mac": 11963,
  "dl": 11964,
  "▁Israel": 11965,
  "sistant": 11966,
  "▁wearing": 11967,
  "▁schedule": 11968,
  "▁indicated": 11969,
  "▁Band": 11970,
  "▁Comments": 11971,
  "▁Jon": 11972,
  "cursor": 11973,
  "▁spin": 11974,
  "▁poco": 11975,
  "▁Wild": 11976,
  "▁ul": 11977,
  "▁Jean": 11978,
  "psi": 11979,
  "▁Ga": 11980,
  "pragma": 11981,
  "▁conference": 11982,
  "Tasks": 11983,
  "ups": 11984,
  "▁calculated": 11985,
  "Scroll": 11986,
  "▁arrived": 11987,
  "▁domain": 11988,
  "issa": 11989,
  "inois": 11990,
  "▁investigation": 11991,
  "axis": 11992,
  "▁pip": 11993,
  "▁estimated": 11995,
  "agem": 11996,
  "▁afford": 11997,
  "▁SM": 11998,
  "▁DNA": 11999,
  "fly": 12000,
  "▁rough": 12001,
  "▁advent": 12002,
  "▁policies": 12003,
  "contr": 12004,
  "▁desire": 12005,
  "▁settle": 12006,
  "Btn": 12007,
  "▁hang": 12009,
  "visible": 12011,
  "▁kap": 12012,
  "▁decisions": 12013,
  "▁depends": 12014,
  "▁Bot": 12016,
  "▁thor": 12017,
  "chos": 12018,
  "activity": 12019,
  "▁DI": 12020,
  "▁institutions": 12021,
  "Clear": 12022,
  "English": 12023,
  "▁expensive": 12024,
  "▁reduction": 12025,
  "VP": 12026,
  "▁instructions": 12027,
  "▁conducted": 12028,
  "▁Station": 12029,
  "▁úl": 12031,
  "nge": 12032,
  "Brand": 12033,
  "Happy": 12034,
  "▁dollars": 12035,
  "▁charges": 12036,
  "gli": 12037,
  "ICH": 12038,
  "▁assume": 12039,
  "icas": 12040,
  "▁script": 12041,
  "iley": 12042,
  "AZ": 12043,
  "CLUS": 12044,
  "callback": 12045,
  "▁Bow": 12046,
  "ți": 12047,
  "Mvc": 12048,
  "Device": 12049,
  "▁feels": 12051,
  "▁Tu": 12052,
  "Float": 12053,
  "into": 12054,
  "EAR": 12055,
  "zem": 12056,
  "outine": 12057,
  "▁especial": 12058,
  "▁Pos": 12060,
  "Impl": 12061,
  "▁increases": 12062,
  "▁hyp": 12063,
  "▁incorpor": 12064,
  "▁businesses": 12065,
  "ête": 12066,
  "▁worry": 12067,
  "▁transition": 12068,
  "▁viv": 12069,
  "▁percentage": 12070,
  "▁Java": 12071,
  "Bob": 12072,
  "ientos": 12073,
  "▁herself": 12074,
  "▁dogs": 12075,
  "▁thousand": 12078,
  "▁Sau": 12079,
  "▁originally": 12080,
  "onde": 12081,
  "higan": 12082,
  "▁holiday": 12083,
  "▁attemp": 12084,
  "▁Psy": 12085,
  "amental": 12086,
  "▁confidence": 12087,
  "criptor": 12088,
  "Tel": 12089,
  "▁Tal": 12090,
  "▁odd": 12091,
  "writ": 12092,
  "▁Agric": 12093,
  "dc": 12094,
  "seg": 12095,
  "Respon": 12097,
  "Team": 12099,
  "▁lady": 12100,
  "opt": 12101,
  "bibitem": 12102,
  "▁qué": 12103,
  "cost": 12104,
  "▁Queen": 12105,
  "▁Medic": 12107,
  "▁Arab": 12108,
  "Mi": 12109,
  "forms": 12110,
  "sor": 12111,
  "▁Ren": 12112,
  "▁mari": 12113,
  "Den": 12114,
  "▁pron": 12115,
  "SELECT": 12116,
  "▁Fall": 12117,
  "▁Command": 12118,
  "hance": 12120,
  "▁cleaning": 12123,
  "ichen": 12124,
  "LES": 12125,
  "▁diag": 12126,
  "ceive": 12127,
  "dible": 12128,
  "ük": 12129,
  "AE": 12130,
  "▁cheap": 12131,
  "▁scientific": 12132,
  "mont": 12133,
  "▁formal": 12134,
  "loading": 12135,
  "▁patterns": 12136,
  "atible": 12137,
  "▁login": 12138,
  "▁transl": 12139,
  "▁organizations": 12140,
  "hö": 12141,
  "▁PDF": 12143,
  "▁pit": 12144,
  "sional": 12145,
  "▁Tro": 12146,
  "hin": 12147,
  "▁efficiency": 12148,
  "Mid": 12149,
  "▁eating": 12150,
  "NT": 12151,
  "elen": 12152,
  "dise": 12153,
  "getElement": 12154,
  "CONT": 12155,
  "Sorry": 12156,
  "FP": 12157,
  "▁repair": 12158,
  "prom": 12159,
  "▁ikke": 12160,
  "▁Practi": 12161,
  "rb": 12162,
  "atro": 12163,
  "▁lle": 12164,
  "uracy": 12165,
  "aku": 12166,
  "▁gallery": 12167,
  "Score": 12168,
  "omes": 12169,
  "▁Sav": 12171,
  "▁Cro": 12172,
  "footer": 12173,
  "▁parking": 12175,
  "Bibli": 12176,
  "▁clock": 12177,
  "urb": 12178,
  "help": 12180,
  "▁indicate": 12181,
  "▁judgment": 12182,
  "colo": 12183,
  "▁collected": 12184,
  "ENCES": 12185,
  "▁Deb": 12187,
  "▁improved": 12188,
  "▁Cru": 12189,
  "Support": 12190,
  "ellen": 12193,
  "izable": 12194,
  "Statement": 12195,
  "▁dol": 12196,
  "OND": 12197,
  "▁Mé": 12198,
  "▁configuration": 12199,
  "getString": 12200,
  "▁fourth": 12201,
  "▁Hay": 12202,
  "thanks": 12203,
  "chester": 12204,
  "Host": 12205,
  "sels": 12206,
  "▁audience": 12207,
  "erra": 12209,
  "▁accounts": 12210,
  "▁army": 12211,
  "sex": 12212,
  "▁Further": 12214,
  "▁Wi": 12215,
  "▁thir": 12216,
  "▁experiences": 12219,
  "▁basket": 12220,
  "▁Asia": 12222,
  "▁structures": 12225,
  "▁chosen": 12228,
  "tore": 12230,
  "▁bare": 12231,
  "▁reasonable": 12232,
  "IEW": 12233,
  "fail": 12234,
  "nej": 12235,
  "▁Which": 12236,
  "▁contro": 12237,
  "▁cloud": 12238,
  "Bal": 12239,
  "dog": 12240,
  "▁municip": 12241,
  "ESSION": 12242,
  "boldsymbol": 12243,
  "ancial": 12244,
  "▁employment": 12245,
  "grad": 12246,
  "▁prog": 12247,
  "Selector": 12248,
  "pir": 12250,
  "lots": 12251,
  "stre": 12252,
  "▁chicken": 12254,
  "Organ": 12256,
  "▁corresponding": 12257,
  "▁plays": 12258,
  "▁bridge": 12261,
  "sol": 12262,
  "▁courses": 12263,
  "anas": 12264,
  "▁año": 12265,
  "▁Using": 12266,
  "once": 12267,
  "Copyright": 12268,
  "▁Maria": 12269,
  "▁dialog": 12271,
  "▁tested": 12272,
  "▁houses": 12273,
  "wt": 12275,
  "▁slee": 12277,
  "▁cotton": 12278,
  "▁dinner": 12279,
  "▁FE": 12280,
  "ifications": 12281,
  "entru": 12282,
  "▁frequently": 12283,
  "▁antes": 12284,
  "Parti": 12285,
  "pod": 12286,
  "▁rein": 12287,
  "▁Francisco": 12288,
  "mek": 12289,
  "▁Wall": 12290,
  "▁cré": 12291,
  "Mal": 12293,
  "Pane": 12294,
  "▁jag": 12295,
  "Take": 12296,
  "▁Task": 12297,
  "Mac": 12298,
  "interface": 12299,
  "RET": 12300,
  "▁người": 12301,
  "▁worse": 12302,
  "zation": 12303,
  "▁Ire": 12306,
  "ssen": 12308,
  "ilton": 12309,
  "▁raise": 12310,
  "idential": 12311,
  "▁march": 12312,
  "essional": 12313,
  "cios": 12314,
  "liament": 12315,
  "▁justice": 12316,
  "▁practices": 12317,
  "▁bom": 12318,
  "ío": 12319,
  "abri": 12320,
  "White": 12322,
  "Alex": 12323,
  "▁biggest": 12324,
  "▁leaf": 12325,
  "GS": 12326,
  "▁honor": 12327,
  "▁Tax": 12328,
  "Byte": 12329,
  "▁Block": 12330,
  "STAT": 12331,
  "mys": 12333,
  "fac": 12334,
  "▁tradition": 12336,
  "bg": 12338,
  "▁literature": 12339,
  "▁eleg": 12340,
  "sea": 12341,
  "Required": 12342,
  "▁subsequ": 12343,
  "▁Current": 12344,
  "▁serial": 12345,
  "inson": 12347,
  "kh": 12348,
  "▁Cab": 12349,
  "▁jacket": 12350,
  "▁lect": 12351,
  "atos": 12352,
  "▁stands": 12353,
  "▁creative": 12354,
  "ecutive": 12355,
  "▁explor": 12356,
  "zip": 12357,
  "istas": 12358,
  "▁scheme": 12360,
  "▁eller": 12361,
  "According": 12362,
  "▁regional": 12363,
  "áng": 12365,
  "▁hombre": 12366,
  "▁fotos": 12367,
  "▁MS": 12368,
  "▁virus": 12369,
  "illo": 12370,
  "signment": 12371,
  "▁gust": 12372,
  "Under": 12373,
  "speed": 12374,
  "▁lesen": 12376,
  "oz": 12377,
  "arena": 12378,
  "istem": 12379,
  "▁vast": 12380,
  "▁Fr": 12381,
  "▁challenges": 12382,
  "LINE": 12384,
  "rase": 12386,
  "▁ancient": 12387,
  "▁Age": 12388,
  "▁Wa": 12389,
  "pson": 12390,
  "▁despite": 12391,
  "▁confirmed": 12392,
  "▁helping": 12393,
  "▁entity": 12395,
  "bytes": 12396,
  "Tele": 12397,
  "▁soll": 12399,
  "▁composition": 12400,
  "▁sme": 12401,
  "▁appeal": 12402,
  "áp": 12403,
  "▁numerous": 12404,
  "▁songs": 12405,
  "▁undefined": 12406,
  "▁hunt": 12407,
  "▁Select": 12408,
  "▁procedures": 12410,
  "▁dates": 12411,
  "▁attached": 12412,
  "merce": 12413,
  "▁occurred": 12414,
  "▁dynamic": 12415,
  "cord": 12416,
  "▁unknown": 12417,
  "inge": 12418,
  "▁commen": 12419,
  "▁LED": 12421,
  "▁magaz": 12422,
  "square": 12423,
  "▁shadow": 12425,
  "wik": 12426,
  "▁incident": 12427,
  "mock": 12428,
  "▁bond": 12429,
  "▁personas": 12431,
  "▁Studies": 12432,
  "▁becoming": 12433,
  "Console": 12434,
  "▁existence": 12435,
  "ÓN": 12436,
  "phys": 12437,
  "mpion": 12438,
  "Callback": 12440,
  "ersch": 12441,
  "▁Story": 12442,
  "▁joined": 12443,
  "impl": 12444,
  "▁gew": 12445,
  "▁gentle": 12446,
  "▁symptoms": 12447,
  "Fac": 12448,
  "▁nhi": 12449,
  "▁encourage": 12451,
  "▁UNIVERSITY": 12452,
  "ăn": 12453,
  "▁defendant": 12454,
  "ariable": 12455,
  "▁Pour": 12456,
  "your": 12457,
  "▁remark": 12458,
  "▁cancel": 12459,
  "▁AB": 12460,
  "▁managed": 12461,
  "▁rice": 12463,
  "▁aspects": 12464,
  "team": 12465,
  "VAR": 12466,
  "uris": 12467,
  "DES": 12468,
  "▁Edition": 12469,
  "▁quantity": 12471,
  "LG": 12474,
  "ardi": 12475,
  "▁crime": 12476,
  "asan": 12477,
  "▁baj": 12478,
  "bbe": 12479,
  "submit": 12480,
  "Ta": 12481,
  "▁Gl": 12482,
  "▁Inf": 12483,
  "asant": 12484,
  "▁gap": 12485,
  "Las": 12486,
  "▁sections": 12487,
  "labels": 12488,
  "▁AG": 12490,
  "▁Boy": 12491,
  "▁grant": 12492,
  "ammen": 12493,
  "ké": 12494,
  "Since": 12496,
  "▁charged": 12497,
  "ummy": 12498,
  "▁marriage": 12501,
  "DTO": 12502,
  "▁Rose": 12503,
  "▁PER": 12504,
  "▁scope": 12506,
  "inar": 12507,
  "othe": 12508,
  "▁Double": 12510,
  "▁Scott": 12511,
  "jac": 12512,
  "icios": 12513,
  "▁Berlin": 12514,
  "▁Another": 12516,
  "trum": 12517,
  "▁Room": 12518,
  "Mapper": 12519,
  "ponents": 12520,
  "tooth": 12521,
  "ului": 12522,
  "▁prepare": 12523,
  "▁YouTube": 12526,
  "orship": 12527,
  "fp": 12528,
  "mera": 12529,
  "▁ảnh": 12530,
  "▁Ker": 12531,
  "▁Radio": 12532,
  "▁Forest": 12533,
  "▁skill": 12534,
  "urant": 12536,
  "anna": 12537,
  "▁Site": 12538,
  "▁Stra": 12539,
  "▁sehr": 12540,
  "▁Parti": 12541,
  "▁Come": 12542,
  "▁Police": 12543,
  "lectron": 12544,
  "wort": 12546,
  "▁bull": 12547,
  "▁vege": 12548,
  "rative": 12549,
  "▁HD": 12550,
  "▁bid": 12551,
  "tele": 12552,
  "▁aud": 12553,
  "▁submit": 12554,
  "▁principles": 12555,
  "▁requests": 12557,
  "▁arguments": 12558,
  "▁sight": 12559,
  "▁autom": 12560,
  "vertising": 12562,
  "sik": 12564,
  "▁clothes": 12565,
  "▁wallpaper": 12567,
  "▁positions": 12568,
  "AW": 12569,
  "▁revealed": 12570,
  "redu": 12571,
  "Arr": 12572,
  "▁Features": 12573,
  "imi": 12574,
  "prev": 12576,
  "▁blu": 12577,
  "▁ham": 12578,
  "▁electro": 12579,
  "hit": 12580,
  "odo": 12581,
  "Google": 12583,
  "▁degrees": 12584,
  "▁inse": 12585,
  "▁sar": 12586,
  "▁jug": 12587,
  "textwidth": 12589,
  "TabIndex": 12590,
  "ensus": 12592,
  "lider": 12593,
  "parser": 12594,
  "viation": 12595,
  "▁SD": 12596,
  "tat": 12597,
  "▁accord": 12598,
  "emos": 12599,
  "▁poet": 12600,
  "ckets": 12601,
  "▁Poly": 12602,
  "▁alpha": 12603,
  "▁domestic": 12604,
  "▁quad": 12605,
  "▁caught": 12606,
  "▁manage": 12607,
  "EMENT": 12608,
  "▁cant": 12609,
  "▁profit": 12610,
  "▁participants": 12612,
  "▁rating": 12613,
  "▁murder": 12615,
  "ective": 12617,
  "▁Sab": 12618,
  "Phys": 12619,
  "▁Govern": 12622,
  "▁Plus": 12623,
  "▁printed": 12624,
  "▁fel": 12625,
  "▁clas": 12627,
  "▁pac": 12629,
  "ống": 12630,
  "irus": 12632,
  "▁retail": 12633,
  "▁Mode": 12634,
  "munity": 12635,
  "yi": 12636,
  "▁describe": 12637,
  "ững": 12639,
  "▁libre": 12640,
  "▁Prop": 12641,
  "jective": 12642,
  "esterday": 12643,
  "iders": 12645,
  "▁Fair": 12646,
  "cra": 12647,
  "▁plaintiff": 12648,
  "▁poder": 12649,
  "▁sca": 12650,
  "▁owners": 12651,
  "▁Ram": 12652,
  "▁infer": 12653,
  "▁symb": 12654,
  "vous": 12655,
  "▁kick": 12656,
  "▁difer": 12657,
  "▁marks": 12659,
  "aires": 12660,
  "▁programme": 12661,
  "Gi": 12662,
  "▁kor": 12663,
  "▁Clean": 12664,
  "mite": 12665,
  "fortunately": 12666,
  "▁fib": 12667,
  "Move": 12669,
  "olars": 12670,
  "▁stood": 12671,
  "mune": 12672,
  "sight": 12673,
  "Mock": 12674,
  "August": 12675,
  "ITION": 12676,
  "▁solar": 12677,
  "▁alcohol": 12678,
  "getElementById": 12679,
  "tera": 12680,
  "Single": 12681,
  "gmail": 12682,
  "▁crisis": 12683,
  "reatment": 12684,
  "▁Joe": 12685,
  "▁sistema": 12686,
  "▁neither": 12687,
  "▁Und": 12688,
  "lle": 12689,
  "▁fondo": 12690,
  "ancia": 12691,
  "apor": 12692,
  "Begin": 12694,
  "demic": 12695,
  "vio": 12696,
  "▁accommod": 12697,
  "rub": 12698,
  "▁otros": 12699,
  "▁suspen": 12700,
  "▁occurs": 12702,
  "bell": 12703,
  "▁rid": 12705,
  "▁mud": 12707,
  "▁recovery": 12708,
  "▁muse": 12709,
  "▁Italian": 12710,
  "▁compare": 12711,
  "Mike": 12712,
  "validate": 12714,
  "unde": 12715,
  "hoo": 12717,
  "TION": 12718,
  "▁festival": 12719,
  "▁prima": 12720,
  "scan": 12721,
  "▁turns": 12722,
  "▁holds": 12723,
  "ority": 12724,
  "unci": 12726,
  "▁putting": 12728,
  "▁así": 12729,
  "Root": 12730,
  "agers": 12731,
  "▁bez": 12732,
  "▁relationships": 12733,
  "▁Nature": 12734,
  "ór": 12735,
  "TEST": 12736,
  "doi": 12738,
  "▁Army": 12739,
  "▁DR": 12740,
  "▁Bed": 12741,
  "▁aca": 12742,
  "cta": 12744,
  "lizabeth": 12745,
  "quate": 12746,
  "Fla": 12748,
  "▁subjects": 12749,
  "mens": 12750,
  "nan": 12751,
  "▁unser": 12752,
  "bei": 12753,
  "▁represented": 12754,
  "onio": 12755,
  "▁organic": 12756,
  "tin": 12757,
  "▁lift": 12758,
  "▁mismo": 12759,
  "oren": 12760,
  "▁img": 12761,
  "▁okay": 12763,
  "EV": 12764,
  "▁dear": 12766,
  "▁Before": 12767,
  "▁terse": 12769,
  "GP": 12771,
  "▁rig": 12772,
  "▁Children": 12773,
  "ời": 12774,
  "▁eggs": 12776,
  "▁employed": 12777,
  "FAQ": 12778,
  "▁Pak": 12779,
  "BT": 12780,
  "HR": 12781,
  "▁defe": 12782,
  "lian": 12783,
  "▁enemy": 12785,
  "▁represents": 12786,
  "▁Member": 12787,
  "indo": 12788,
  "Mc": 12789,
  "▁Dub": 12790,
  "lipp": 12791,
  "▁gut": 12792,
  "▁exposure": 12793,
  "▁Notes": 12794,
  "issance": 12795,
  "ongo": 12796,
  "▁dict": 12797,
  "▁Amb": 12798,
  "▁Oil": 12799,
  "ính": 12800,
  "▁WITH": 12802,
  "▁Town": 12803,
  "▁mys": 12804,
  "▁nuevo": 12805,
  "▁pig": 12806,
  "▁Tree": 12807,
  "▁jou": 12808,
  "▁installation": 12809,
  "Keep": 12810,
  "valuation": 12811,
  "issi": 12812,
  "▁Commons": 12814,
  "IGH": 12815,
  "▁jan": 12816,
  "▁forced": 12817,
  "ggle": 12818,
  "fu": 12819,
  "sky": 12820,
  "▁disp": 12821,
  "unque": 12822,
  "dé": 12823,
  "lore": 12824,
  "▁loan": 12825,
  "▁excited": 12826,
  "Customer": 12828,
  "▁Lay": 12829,
  "▁criteria": 12830,
  "pués": 12831,
  "▁branch": 12832,
  "uesto": 12833,
  "cedes": 12834,
  "že": 12835,
  "▁conversation": 12836,
  "äm": 12837,
  "quar": 12838,
  "tup": 12840,
  "ako": 12841,
  "database": 12844,
  "Pur": 12845,
  "▁dot": 12846,
  "▁toy": 12849,
  "▁Dom": 12850,
  "odge": 12851,
  "▁identity": 12852,
  "▁Uhr": 12853,
  "▁principle": 12854,
  "cier": 12855,
  "Jim": 12856,
  "▁yeah": 12858,
  "▁chart": 12859,
  "▁creation": 12860,
  "Air": 12862,
  "mini": 12863,
  "ulo": 12864,
  "▁sebagai": 12865,
  "▁dor": 12866,
  "▁utili": 12867,
  "avas": 12868,
  "gc": 12869,
  "love": 12870,
  "▁award": 12871,
  "▁substanti": 12872,
  "vailability": 12873,
  "▁uniform": 12876,
  "▁xx": 12877,
  "▁meny": 12878,
  "▁significantly": 12879,
  "rah": 12880,
  "▁leadership": 12881,
  "▁NEW": 12882,
  "▁Ven": 12883,
  "▁Middle": 12884,
  "▁Sports": 12886,
  "▁mant": 12887,
  "ORS": 12888,
  "aland": 12889,
  "▁union": 12890,
  "▁dust": 12891,
  "ulum": 12892,
  "▁gear": 12893,
  "writer": 12897,
  "yr": 12899,
  "strap": 12900,
  "▁kno": 12901,
  "nas": 12902,
  "▁IL": 12903,
  "Feature": 12905,
  "▁Georg": 12906,
  "▁obje": 12908,
  "▁DIS": 12909,
  "▁Option": 12910,
  "rences": 12913,
  "ực": 12915,
  "ensation": 12917,
  "▁visible": 12918,
  "▁hung": 12919,
  "▁Electric": 12920,
  "▁updates": 12921,
  "▁worden": 12922,
  "▁Rog": 12923,
  "▁consideration": 12924,
  "▁promp": 12925,
  "ticed": 12928,
  "Keywords": 12929,
  "▁experts": 12930,
  "▁Chris": 12931,
  "▁MAN": 12932,
  "picture": 12933,
  "▁Cell": 12934,
  "▁Dog": 12935,
  "▁Stan": 12936,
  "ítu": 12937,
  "▁aller": 12938,
  "mpre": 12939,
  "ệt": 12940,
  "views": 12941,
  "▁curve": 12942,
  "stood": 12943,
  "they": 12944,
  "cripts": 12946,
  "▁Arts": 12947,
  "▁Today": 12948,
  "Ty": 12949,
  "annels": 12954,
  "▁regions": 12955,
  "▁Reply": 12956,
  "▁pregn": 12958,
  "Direct": 12959,
  "report": 12960,
  "▁hole": 12962,
  "wner": 12963,
  "▁où": 12964,
  "▁Boston": 12965,
  "Proto": 12966,
  "uje": 12971,
  "▁lleg": 12972,
  "dispatch": 12973,
  "cine": 12974,
  "Another": 12975,
  "peg": 12977,
  "▁keys": 12978,
  "▁laun": 12979,
  "▁Building": 12980,
  "úmer": 12981,
  "ressions": 12982,
  "▁pursu": 12983,
  "▁evil": 12984,
  "▁housing": 12986,
  "▁nap": 12987,
  "▁preparation": 12988,
  "▁bottle": 12989,
  "▁vertical": 12991,
  "nem": 12992,
  "Extra": 12993,
  "ICS": 12994,
  "▁flash": 12995,
  "prototype": 12996,
  "lapse": 12997,
  "▁distingu": 12998,
  "▁lou": 12999,
  "udos": 13000,
  "▁Jeff": 13003,
  "▁narrow": 13004,
  "▁tube": 13005,
  "cropped": 13006,
  "▁mount": 13007,
  "▁bron": 13008,
  "Channel": 13009,
  "Health": 13010,
  "▁relief": 13011,
  "▁culti": 13012,
  "▁buying": 13014,
  "Care": 13015,
  "▁dest": 13016,
  "▁Resources": 13017,
  "▁uso": 13018,
  "dialog": 13019,
  "Random": 13020,
  "keep": 13021,
  "Timeout": 13022,
  "Family": 13023,
  "▁Auf": 13024,
  "▁Inte": 13025,
  "▁selling": 13026,
  "▁Digital": 13027,
  "▁Atlan": 13028,
  "▁må": 13029,
  "identi": 13030,
  "chte": 13032,
  "Which": 13033,
  "▁menos": 13034,
  "▁Spanish": 13035,
  "▁markets": 13037,
  "▁CC": 13038,
  "▁kr": 13039,
  "▁debt": 13040,
  "▁speaking": 13041,
  "▁faster": 13042,
  "▁lebih": 13043,
  "▁Walk": 13044,
  "Struct": 13045,
  "cet": 13046,
  "▁sag": 13047,
  "▁Games": 13048,
  "▁kinds": 13049,
  "▁citizens": 13050,
  "▁offering": 13051,
  "▁sous": 13052,
  "MW": 13056,
  "Space": 13057,
  "▁residents": 13058,
  "▁referred": 13059,
  "▁sentence": 13060,
  "▁personnel": 13061,
  "bury": 13063,
  "eft": 13064,
  "▁lom": 13065,
  "▁defense": 13066,
  "▁Component": 13067,
  "▁religion": 13068,
  "▁Democ": 13070,
  "llar": 13071,
  "answer": 13072,
  "▁alto": 13073,
  "▁Try": 13074,
  "ynchron": 13075,
  "▁doors": 13076,
  "Sql": 13077,
  "▁conoc": 13078,
  "pages": 13079,
  "▁REC": 13080,
  "clean": 13081,
  "nung": 13082,
  "NI": 13083,
  "▁któ": 13084,
  "nap": 13085,
  "cze": 13086,
  "▁contrast": 13087,
  "Bad": 13089,
  "▁lav": 13090,
  "Interv": 13091,
  "▁vehicles": 13092,
  "▁valor": 13093,
  "ticos": 13094,
  "mande": 13095,
  "▁gö": 13096,
  "▁kas": 13097,
  "▁hyper": 13099,
  "mw": 13100,
  "▁mont": 13101,
  "▁locations": 13102,
  "▁sexual": 13103,
  "Cer": 13104,
  "▁somewhat": 13105,
  "Fields": 13106,
  "▁equivalent": 13107,
  "▁Gas": 13108,
  "DateTime": 13109,
  "▁dad": 13110,
  "emplo": 13111,
  "▁Clo": 13112,
  "▁nella": 13113,
  "▁przy": 13114,
  "▁Node": 13116,
  "▁Bis": 13117,
  "week": 13118,
  "assembly": 13119,
  "▁ray": 13120,
  "▁limits": 13121,
  "▁Struct": 13122,
  "edback": 13123,
  "isto": 13124,
  "▁Collection": 13125,
  "clos": 13126,
  "▁Ohio": 13128,
  "serve": 13129,
  "▁Keep": 13130,
  "▁ilustra": 13131,
  "Come": 13132,
  "cnt": 13133,
  "▁designs": 13135,
  "▁rural": 13136,
  "▁Student": 13137,
  "▁Gene": 13139,
  "▁birds": 13141,
  "▁desired": 13142,
  "▁thou": 13143,
  "ję": 13145,
  "▁Natural": 13146,
  "Leg": 13147,
  "▁gle": 13148,
  "Sample": 13149,
  "skip": 13150,
  "igo": 13151,
  "perature": 13152,
  "▁boss": 13153,
  "weg": 13154,
  "Dto": 13155,
  "▁GL": 13157,
  "▁BL": 13158,
  "▁Request": 13159,
  "üs": 13160,
  "Iter": 13161,
  "▁golf": 13162,
  "▁reprodu": 13163,
  "▁Egy": 13164,
  "record": 13166,
  "▁evaluation": 13167,
  "▁numpy": 13168,
  "▁Address": 13169,
  "▁bird": 13170,
  "▁chocolate": 13171,
  "▁COL": 13172,
  "him": 13173,
  "aire": 13174,
  "hh": 13175,
  "mada": 13176,
  "▁enjoyed": 13177,
  "▁browser": 13178,
  "▁SW": 13179,
  "▁Cry": 13180,
  "ided": 13181,
  "▁Print": 13182,
  "eni": 13184,
  "Prom": 13185,
  "▁header": 13186,
  "▁guests": 13187,
  "onav": 13188,
  "cribed": 13189,
  "▁liv": 13190,
  "▁ved": 13191,
  "Ptr": 13192,
  "▁Content": 13193,
  "▁improvement": 13194,
  "▁powder": 13196,
  "ClickListener": 13197,
  "Spring": 13198,
  "▁iPhone": 13200,
  "▁Lew": 13201,
  "usal": 13202,
  "▁Message": 13203,
  "DI": 13205,
  "▁Training": 13206,
  "timo": 13207,
  "ischer": 13208,
  "▁Columb": 13209,
  "large": 13210,
  "Bea": 13211,
  "posing": 13212,
  "▁Books": 13215,
  "▁Mountain": 13216,
  "▁Quality": 13217,
  "isEmpty": 13218,
  "ăng": 13219,
  "Simple": 13220,
  "▁committed": 13221,
  "▁torch": 13222,
  "herit": 13224,
  "lov": 13225,
  "▁Michigan": 13226,
  "▁Never": 13227,
  "▁Http": 13228,
  "▁witness": 13229,
  "▁passing": 13230,
  "▁outdoor": 13231,
  "Bytes": 13232,
  "▁tres": 13233,
  "heet": 13235,
  "▁axis": 13236,
  "▁carefully": 13237,
  "▁CAR": 13239,
  "▁lies": 13241,
  "UTH": 13242,
  "newcommand": 13243,
  "complete": 13244,
  "▁delivered": 13245,
  "▁Bern": 13246,
  "reddit": 13248,
  "▁gy": 13249,
  "bun": 13250,
  "▁quando": 13251,
  "question": 13252,
  "Mor": 13253,
  "onymous": 13254,
  "INTRODUCTION": 13255,
  "▁democ": 13256,
  "▁resulting": 13257,
  "People": 13258,
  "rico": 13259,
  "oted": 13260,
  "voice": 13261,
  "ANK": 13262,
  "▁VAR": 13263,
  "▁IND": 13264,
  "▁stem": 13265,
  "▁bodies": 13266,
  "vic": 13267,
  "lemented": 13268,
  "▁Fla": 13270,
  "primary": 13272,
  "osph": 13273,
  "Prin": 13274,
  "▁rit": 13275,
  "▁believed": 13277,
  "▁Jackson": 13280,
  "▁todas": 13282,
  "▁permission": 13283,
  "▁Reading": 13284,
  "Os": 13285,
  "▁mole": 13286,
  "▁belief": 13287,
  "▁Questions": 13288,
  "▁moral": 13289,
  "▁Hea": 13290,
  "▁successfully": 13292,
  "▁Rub": 13293,
  "hrt": 13294,
  "batch": 13297,
  "▁Put": 13298,
  "▁engineering": 13299,
  "▁archivo": 13300,
  "xygen": 13301,
  "Scope": 13302,
  "▁apro": 13303,
  "▁powers": 13304,
  "Pod": 13305,
  "hon": 13306,
  "Word": 13307,
  "ünd": 13308,
  "▁educational": 13309,
  "cf": 13311,
  "GER": 13312,
  "▁override": 13313,
  "isset": 13314,
  "▁repeated": 13315,
  "▁Season": 13316,
  "zin": 13317,
  "▁facility": 13318,
  "▁sele": 13320,
  "▁Academy": 13322,
  "cken": 13323,
  "▁clinical": 13324,
  "ANC": 13326,
  "▁MO": 13327,
  "bild": 13328,
  "▁sticker": 13331,
  "▁Help": 13332,
  "▁tasks": 13333,
  "▁authorities": 13337,
  "▁eventually": 13339,
  "▁musical": 13340,
  "▁circuit": 13341,
  "▁forgot": 13342,
  "books": 13343,
  "tk": 13344,
  "▁androidx": 13345,
  "▁Tam": 13346,
  "ATER": 13348,
  "▁información": 13349,
  "olas": 13350,
  "▁yesterday": 13351,
  "utorial": 13352,
  "▁Camb": 13353,
  "▁hace": 13355,
  "▁household": 13356,
  "ffen": 13357,
  "payload": 13358,
  "essed": 13360,
  "▁Core": 13361,
  "assen": 13362,
  "ellant": 13363,
  "ktor": 13364,
  "▁ful": 13365,
  "▁Return": 13366,
  "▁summary": 13367,
  "curity": 13368,
  "ials": 13369,
  "▁innov": 13370,
  "▁license": 13371,
  "▁sne": 13372,
  "Progress": 13373,
  "poch": 13374,
  "Modif": 13375,
  "▁sí": 13376,
  "aneous": 13377,
  "nor": 13379,
  "iß": 13380,
  "▁canvas": 13381,
  "▁measurement": 13384,
  "▁mam": 13385,
  "Sho": 13386,
  "ùng": 13387,
  "▁opposite": 13388,
  "▁begins": 13389,
  "asta": 13390,
  "▁raz": 13391,
  "Wow": 13392,
  "▁kad": 13393,
  "bia": 13394,
  "▁pelo": 13395,
  "▁stro": 13397,
  "▁pró": 13400,
  "resource": 13401,
  "▁Machine": 13403,
  "▁handling": 13404,
  "War": 13405,
  "▁Short": 13406,
  "orno": 13408,
  "▁Dun": 13409,
  "▁stack": 13410,
  "ircraft": 13412,
  "rating": 13413,
  "▁therapy": 13414,
  "Win": 13415,
  "▁Paper": 13416,
  "▁Nic": 13417,
  "▁Him": 13418,
  "RC": 13419,
  "▁Plant": 13421,
  "▁Dam": 13422,
  "icans": 13423,
  "▁Lead": 13424,
  "many": 13425,
  "▁Transport": 13426,
  "▁partial": 13427,
  "▁Spr": 13428,
  "▁Vector": 13429,
  "sson": 13432,
  "gage": 13433,
  "▁university": 13435,
  "BP": 13436,
  "▁discovered": 13437,
  "eras": 13438,
  "▁Cir": 13439,
  "▁stable": 13440,
  "zeit": 13442,
  "psilon": 13443,
  "ello": 13444,
  "▁mano": 13445,
  "leri": 13446,
  "▁eco": 13447,
  "Tim": 13448,
  "ulted": 13450,
  "▁texture": 13451,
  "▁khi": 13452,
  "stri": 13454,
  "▁Taylor": 13455,
  "▁lovely": 13456,
  "▁historical": 13457,
  "▁estar": 13458,
  "▁byte": 13459,
  "HD": 13460,
  "▁Wis": 13461,
  "▁dieser": 13463,
  "▁rus": 13464,
  "dimen": 13465,
  "▁Watch": 13466,
  "▁plenty": 13468,
  "▁Hash": 13469,
  "▁Liter": 13470,
  "▁Step": 13471,
  "itat": 13472,
  "▁Virginia": 13473,
  "enos": 13474,
  "Bottom": 13475,
  "usammen": 13476,
  "▁Mike": 13477,
  "▁depending": 13478,
  "▁declar": 13479,
  "angers": 13480,
  "▁pentru": 13482,
  "▁rap": 13483,
  "▁remained": 13484,
  "iseite": 13485,
  "memb": 13486,
  "▁rect": 13487,
  "▁worst": 13488,
  "chem": 13489,
  "remarks": 13490,
  "▁Sample": 13491,
  "▁lake": 13492,
  "▁stores": 13494,
  "▁blanco": 13495,
  "▁Identi": 13496,
  "▁schon": 13497,
  "Qué": 13499,
  "SY": 13500,
  "vanced": 13501,
  "Scale": 13502,
  "▁intent": 13503,
  "thur": 13504,
  "▁Force": 13505,
  "▁Server": 13506,
  "▁agua": 13508,
  "ierre": 13509,
  "▁dio": 13510,
  "▁Again": 13511,
  "▁vet": 13512,
  "cycle": 13513,
  "▁egg": 13514,
  "ôn": 13516,
  "aked": 13517,
  "mans": 13518,
  "IER": 13519,
  "vise": 13521,
  "tas": 13522,
  "serial": 13523,
  "▁Intel": 13524,
  "▁laid": 13525,
  "stdio": 13526,
  "▁fold": 13528,
  "▁uh": 13529,
  "tificial": 13532,
  "▁bene": 13533,
  "Alignment": 13534,
  "raise": 13535,
  "ALSE": 13537,
  "▁divided": 13538,
  "▁dangerous": 13541,
  "▁publication": 13543,
  "VA": 13544,
  "ctic": 13545,
  "Chris": 13546,
  "contact": 13547,
  "▁Fu": 13548,
  "▁vu": 13550,
  "▁typical": 13551,
  "izi": 13552,
  "▁Film": 13553,
  "▁endl": 13556,
  "Jack": 13557,
  "▁Zo": 13558,
  "▁tang": 13559,
  "sun": 13560,
  "▁fees": 13561,
  "inking": 13562,
  "rases": 13563,
  "Radius": 13564,
  "▁cutting": 13565,
  "▁UI": 13566,
  "uling": 13567,
  "▁consists": 13569,
  "▁Email": 13570,
  "temporary": 13571,
  "▁busy": 13572,
  "▁Wikiseite": 13573,
  "contains": 13574,
  "▁Ot": 13575,
  "▁export": 13576,
  "▁MP": 13577,
  "USA": 13578,
  "▁pueden": 13579,
  "Sem": 13580,
  "▁exit": 13581,
  "Arch": 13582,
  "▁Job": 13583,
  "Speed": 13584,
  "▁Meta": 13587,
  "▁styles": 13588,
  "Operation": 13589,
  "Pas": 13590,
  "pus": 13591,
  "▁possibly": 13592,
  "ifi": 13593,
  "▁Rat": 13594,
  "Master": 13595,
  "▁perfectly": 13596,
  "ını": 13598,
  "lob": 13599,
  "WO": 13600,
  "duled": 13601,
  "▁Mes": 13602,
  "Mis": 13603,
  "▁squ": 13604,
  "▁LIBR": 13605,
  "endor": 13607,
  "detail": 13608,
  "rod": 13609,
  "▁hub": 13610,
  "Hy": 13611,
  "Handle": 13612,
  "details": 13613,
  "▁contained": 13614,
  "icians": 13615,
  "lastic": 13616,
  "Mail": 13617,
  "▁coat": 13618,
  "Holder": 13619,
  "▁statements": 13620,
  "▁penal": 13622,
  "▁submitted": 13623,
  "▁cheese": 13624,
  "Sen": 13625,
  "Sco": 13626,
  "▁Ala": 13627,
  "▁recip": 13628,
  "className": 13629,
  "ADE": 13630,
  "rance": 13631,
  "▁Bus": 13632,
  "▁questo": 13633,
  "Datos": 13634,
  "▁gest": 13635,
  "▁Kingdom": 13636,
  "▁Corporation": 13637,
  "▁Ci": 13638,
  "▁gate": 13639,
  "dient": 13640,
  "Rich": 13641,
  "▁virtu": 13642,
  "hematics": 13643,
  "Food": 13644,
  "▁Small": 13645,
  "chy": 13646,
  "▁Config": 13647,
  "lipse": 13648,
  "exists": 13649,
[...]
