{
  "A": 32,
  "B": 33,
  "C": 34,
  "D": 35,
  "E": 36,
  "F": 37,
  "G": 38,
  "H": 39,
  "I": 40,
  "J": 41,
  "K": 42,
  "L": 43,
  "M": 44,
  "N": 45,
  "O": 46,
  "P": 47,
  "Q": 48,
  "R": 49,
  "S": 50,
  "T": 51,
  "U": 52,
  "V": 53,
  "W": 54,
  "X": 55,
  "Y": 56,
  "Z": 57,
  "a": 64,
  "b": 65,
  "c": 66,
  "d": 67,
  "e": 68,
  "f": 69,
  "g": 70,
  "h": 71,
  "i": 72,
  "j": 73,
  "k": 74,
  "l": 75,
  "m": 76,
  "n": 77,
  "o": 78,
  "p": 79,
  "q": 80,
  "r": 81,
  "s": 82,
  "t": 83,
  "u": 84,
  "v": 85,
  "w": 86,
  "x": 87,
  "y": 88,
  "z": 89,
  "in": 258,
  "er": 259,
  "Ġt": 260,
  "Ġa": 261,
  "en": 262,
  "on": 263,
  "re": 264,
  "Ġs": 265,
  "at": 266,
  "or": 267,
  "es": 268,
  "an": 270,
  "Ġd": 272,
  "he": 273,
  "Ġc": 274,
  "Ġp": 275,
  "is": 276,
  "ar": 277,
  "it": 278,
  "al": 280,
  "le": 282,
  "ou": 283,
  "Ġm": 284,
  "Ġf": 285,
  "Ġw": 286,
  "Ġb": 287,
  "as": 288,
  "ing": 289,
  "Ġthe": 290,
  "ic": 291,
  "et": 292,
  "Ġo": 293,
  "ion": 294,
  "ed": 295,
  "el": 296,
  "Ġn": 297,
  "ro": 298,
  "ent": 299,
  "nd": 301,
  "st": 302,
  "Ġl": 305,
  "Ġin": 306,
  "ct": 308,
  "om": 310,
  "il": 311,
  "Ġh": 312,
  "am": 313,
  "id": 315,
  "Ġto": 316,
  "Ġe": 319,
  "im": 321,
  "Ġre": 322,
  "Ġv": 323,
  "ad": 324,
  "Ġth": 325,
  "Ġand": 326,
  "Ġof": 328,
  "Ġg": 329,
  "ur": 330,
  "ch": 332,
  "Ġde": 334,
  "ĠS": 336,
  "Ġu": 337,
  "ut": 339,
  "ol": 340,
  "Ġy": 342,
  "ig": 343,
  "se": 344,
  "ot": 346,
  "em": 347,
  "ag": 348,
  "iv": 349,
  "qu": 351,
  "ĠT": 353,
  "ĠA": 355,
  "ay": 356,
  "ĠI": 357,
  "ac": 359,
  "ul": 361,
  "ĠC": 363,
  "os": 365,
  "if": 366,
  "od": 368,
  "tr": 371,
  "Ġk": 372,
  "un": 373,
  "est": 376,
  "ab": 378,
  "ate": 379,
  "ir": 380,
  "Ġis": 382,
  "ow": 384,
  "us": 385,
  "ation": 387,
  "ort": 390,
  "ĠM": 391,
  "um": 394,
  "Ġfor": 395,
  "ie": 396,
  "ĠP": 398,
  "ter": 399,
  "ce": 400,
  "our": 401,
  "Ġon": 402,
  "ap": 403,
  "th": 404,
  "Ġcon": 406,
  "av": 407,
  "ers": 409,
  "te": 411,
  "Ġbe": 413,
  "ĠD": 415,
  "ĠB": 418,
  "end": 419,
  "Ġst": 420,
  "ist": 421,
  "ak": 422,
  "ly": 423,
  "pe": 424,
  "and": 427,
  "Ġr": 428,
  "res": 430,
  "ub": 431,
  "oc": 432,
  "Ġal": 434,
  "ess": 436,
  "ith": 437,
  "Ġpro": 440,
  "Ġj": 441,
  "ame": 444,
  "ver": 445,
  "port": 447,
  "Ġan": 448,
  "ĠL": 451,
  "Ġcom": 452,
  "Ġne": 453,
  "ĠF": 454,
  "ass": 456,
  "ĠE": 457,
  "Ġse": 458,
  "lic": 459,
  "ĠR": 460,
  "ue": 466,
  "op": 467,
  "out": 468,
  "Ġen": 469,
  "ht": 470,
  "Ġwh": 471,
  "Ġas": 472,
  "Ġqu": 474,
  "ction": 475,
  "age": 477,
  "ĠN": 478,
  "og": 479,
  "Ġit": 480,
  "Ġyou": 481,
  "iz": 482,
  "Ġwith": 483,
  "Ġthat": 484,
  "ĠW": 486,
  "ĠH": 487,
  "ip": 488,
  "ex": 490,
  "int": 491,
  "ill": 492,
  "ant": 493,
  "urn": 494,
  "Ġthis": 495,
  "art": 497,
  "Ġtr": 498,
  "ĠG": 499,
  "Ġhe": 501,
  "Ġor": 503,
  "Ġle": 505,
  "ik": 507,
  "ment": 508,
  "ore": 510,
  "rom": 511,
  "ere": 512,
  "Ġex": 513,
  "ine": 514,
  "ang": 516,
  "ind": 521,
  "get": 522,
  "ain": 524,
  "ok": 525,
  "ib": 526,
  "ud": 527,
  "pl": 528,
  "turn": 529,
  "ĠO": 532,
  "ect": 534,
  "ia": 535,
  "ity": 536,
  "Ġun": 537,
  "Ġif": 538,
  "Ġat": 540,
  "con": 542,
  "per": 543,
  "ata": 546,
  "Ġch": 549,
  "Ġpr": 550,
  "orm": 551,
  "ack": 552,
  "Ġare": 553,
  "ile": 554,
  "pt": 555,
  "Ġla": 557,
  "import": 561,
  "able": 562,
  "ial": 563,
  "ost": 564,
  "cl": 565,
  "ies": 566,
  "Ġcl": 567,
  "ov": 569,
  "ust": 570,
  "Ġi": 575,
  "ult": 576,
  "ave": 577,
  "nt": 578,
  "Ġz": 579,
  "Ġwe": 581,
  "ld": 582,
  "ight": 583,
  "ublic": 584,
  "ive": 585,
  "all": 586,
  "act": 588,
  "Ġfrom": 591,
  "Ġsu": 593,
  "ire": 594,
  "ell": 596,
  "ard": 597,
  "ser": 599,
  "tring": 600,
  "ĠU": 601,
  "ice": 603,
  "ord": 604,
  "ff": 608,
  "ne": 611,
  "de": 613,
  "ra": 614,
  "ans": 616,
  "ide": 617,
  "ase": 618,
  "Ġnew": 620,
  "Ġdo": 621,
  "Ġreturn": 622,
  "ĠThe": 623,
  "Ġnot": 625,
  "ure": 627,
  "ast": 629,
  "ob": 630,
  "ĠV": 631,
  "Ġpl": 633,
  "Ġyour": 634,
  "In": 637,
  "pr": 638,
  "com": 639,
  "Ġsh": 641,
  "ime": 642,
  "ĠJ": 643,
  "are": 644,
  "ont": 645,
  "Ġar": 646,
  "ype": 649,
  "Ġel": 650,
  "ite": 651,
  "pp": 654,
  "Ġby": 656,
  "ĠK": 658,
  "Ġque": 661,
  "iew": 662,
  "ail": 663,
  "Ġcan": 665,
  "Ġme": 668,
  "Ġwas": 673,
  "ace": 675,
  "ode": 676,
  "Ġint": 677,
  "ach": 678,
  "Ġhave": 679,
  "ll": 680,
  "ij": 681,
  "ge": 684,
  "elf": 685,
  "Ġpar": 686,
  "Ġad": 687,
  "str": 689,
  "one": 690,
  "rou": 691,
  "Ġab": 692,
  "Ġres": 694,
  "St": 695,
  "ens": 696,
  "du": 698,
  "form": 700,
  "ich": 703,
  "ong": 705,
  "cc": 710,
  "xt": 711,
  "pon": 716,
  "Ġget": 717,
  "ber": 718,
  "Re": 720,
  "Ġall": 722,
  "ath": 725,
  "io": 726,
  "ject": 728,
  "Ġte": 729,
  "ĠIn": 730,
  "Ġdes": 731,
  "ign": 733,
  "alue": 735,
  "ork": 736,
  "ve": 737,
  "Ġwill": 738,
  "Ġclass": 744,
  "lo": 746,
  "ome": 747,
  "ĠTh": 748,
  "ize": 750,
  "Ġpublic": 751,
  "au": 753,
  "ull": 754,
  "ions": 756,
  "der": 761,
  "ook": 762,
  "Ġus": 765,
  "ance": 766,
  "ould": 767,
  "Ġim": 770,
  "put": 772,
  "ient": 773,
  "Ġper": 777,
  "Ġvo": 778,
  "ext": 779,
  "ated": 780,
  "yst": 783,
  "ous": 784,
  "so": 786,
  "ple": 789,
  "erv": 792,
  "par": 796,
  "cr": 798,
  "ress": 799,
  "ck": 801,
  "âĢĻs": 802,
  "ert": 805,
  "ey": 806,
  "ount": 807,
  "ma": 809,
  "Ġgo": 810,
  "Ġso": 813,
  "ake": 814,
  "ary": 815,
  "up": 817,
  "vent": 818,
  "ory": 819,
  "pro": 823,
  "ft": 826,
  "Ġdis": 829,
  "ear": 830,
  "Ġma": 831,
  "unction": 835,
  "Ġcont": 836,
  "err": 837,
  "_t": 838,
  "ystem": 839,
  "Ġout": 842,
  "row": 843,
  "Ġund": 844,
  "ug": 846,
  "ien": 847,
  "ah": 849,
  "ual": 850,
  "this": 851,
  "ock": 852,
  "Ġhas": 853,
  "we": 854,
  "fer": 855,
  "Ġet": 859,
  "Ġno": 860,
  "div": 862,
  "Ġem": 863,
  "Name": 864,
  "ĠY": 865,
  "ER": 866,
  "ition": 868,
  "Ġup": 869,
  "ri": 872,
  "Ġman": 873,
  "ery": 875,
  "Ġpre": 876,
  "Ġes": 878,
  "Ġsa": 880,
  "ink": 881,
  "eng": 882,
  "ek": 886,
  "Ġbut": 889,
  "ng": 892,
  "Ġest": 893,
  "cre": 894,
  "ound": 895,
  "gr": 896,
  "name": 897,
  "Ġna": 898,
  "ĠSt": 901,
  "app": 903,
  "ier": 905,
  "Id": 906,
  "ĠRe": 907,
  "ree": 908,
  "Con": 909,
  "ors": 914,
  "String": 916,
  "ose": 918,
  "text": 919,
  "Ġset": 920,
  "lect": 921,
  "Ġmy": 922,
  "ild": 923,
  "che": 926,
  "ations": 929,
  "iel": 930,
  "ical": 933,
  "ann": 934,
  "to": 935,
  "ew": 937,
  "Ġam": 939,
  "own": 940,
  "ark": 941,
  "ther": 942,
  "ener": 944,
  "Ġmore": 945,
  "ps": 947,
  "List": 950,
  "cept": 953,
  "gh": 956,
  "Pro": 958,
  "odel": 959,
  "ph": 961,
  "ement": 962,
  "ings": 963,
  "add": 964,
  "IN": 965,
  "ike": 970,
  "ool": 971,
  "Ġvar": 972,
  "ade": 973,
  "Ġro": 974,
  "ON": 975,
  "The": 976,
  "set": 977,
  "ivate": 978,
  "und": 980,
  "Ġgr": 984,
  "Ã£o": 986,
  "atch": 987,
  "ung": 988,
  "Ġstr": 989,
  "clud": 990,
  "Ġop": 991,
  "Ex": 992,
  "Ġinter": 993,
  "Ġcol": 996,
  "Ġpart": 997,
  "her": 999,
  "Ġone": 1001,
  "vel": 1002,
  "ick": 1003,
  "ater": 1005,
  "rr": 1006,
  "ec": 1007,
  "iss": 1009,
  "Ġvoid": 1010,
  "ton": 1013,
  "Ġsp": 1014,
  "Ġag": 1017,
  "Ġthey": 1023,
  "Ġconst": 1026,
  "ep": 1027,
  "inal": 1028,
  "les": 1032,
  "Ġda": 1033,
  "return": 1034,
  "ĠCh": 1036,
  "tt": 1037,
  "enc": 1038,
  "Ġour": 1039,
  "Ġtheir": 1043,
  "ays": 1044,
  "Ġpe": 1045,
  "me": 1047,
  "ove": 1048,
  "Ġcomp": 1050,
  "Ġself": 1051,
  "ange": 1052,
  "Ġapp": 1053,
  "anc": 1054,
  "Ġdef": 1056,
  "urr": 1057,
  "Ġtime": 1058,
  "Com": 1059,
  "quest": 1061,
  "Ġany": 1062,
  "ado": 1064,
  "ven": 1066,
  "Ġob": 1067,
  "eth": 1068,
  "fo": 1070,
  "az": 1071,
  "Ġover": 1072,
  "data": 1074,
  "Ġdie": 1076,
  "Ġabout": 1078,
  "ef": 1079,
  "ence": 1082,
  "Ġdel": 1083,
  "led": 1084,
  "Ġstat": 1085,
  "ss": 1087,
  "alse": 1088,
  "ava": 1093,
  "ents": 1094,
  "ise": 1096,
  "View": 1097,
  "RE": 1099,
  "Ġwork": 1101,
  "ry": 1102,
  "pos": 1103,
  "ank": 1104,
  "val": 1105,
  "oy": 1107,
  "ish": 1109,
  "Ġer": 1111,
  "eb": 1113,
  "Ġfunction": 1114,
  "sh": 1116,
  "ST": 1117,
  "Ġwhich": 1118,
  "pec": 1119,
  "oint": 1120,
  "Ġent": 1121,
  "reat": 1123,
  "ble": 1124,
  "que": 1126,
  "ix": 1128,
  "duct": 1132,
  "tem": 1133,
  "aw": 1134,
  "line": 1137,
  "Th": 1139,
  "tion": 1141,
  "abel": 1143,
  "Cont": 1145,
  "Ġadd": 1147,
  "sp": 1148,
  "ely": 1151,
  "irst": 1152,
  "iÃ³": 1153,
  "public": 1154,
  "self": 1156,
  "mer": 1159,
  "uk": 1160,
  "Ġbl": 1162,
  "Type": 1163,
  "Ġvan": 1164,
  "ied": 1165,
  "rit": 1166,
  "ale": 1167,
  "essage": 1169,
  "arg": 1170,
  "ific": 1173,
  "ield": 1174,
  "oll": 1176,
  "erm": 1180,
  "uch": 1182,
  "dd": 1183,
  "cess": 1185,
  "Data": 1186,
  "Ġbu": 1188,
  "ĠString": 1189,
  "vo": 1190,
  "co": 1191,
  "Ġfe": 1193,
  "ada": 1194,
  "crip": 1197,
  "Ġuse": 1199,
  "ian": 1200,
  "Ġelse": 1203,
  "Res": 1204,
  "Ch": 1205,
  "ty": 1206,
  "eg": 1207,
  "Ġpara": 1209,
  "Ġid": 1211,
  "Ġx": 1215,
  "Ġalso": 1217,
  "Ġwho": 1218,
  "ĠSystem": 1219,
  "ese": 1220,
  "ervice": 1223,
  "ĉif": 1224,
  "ĠIt": 1225,
  "Ġder": 1227,
  "AT": 1228,
  "ash": 1229,
  "Ġhis": 1232,
  "ox": 1233,
  "Ġsome": 1236,
  "umber": 1237,
  "Ġdata": 1238,
  "uth": 1239,
  "ID": 1240,
  "Col": 1241,
  "Ġver": 1245,
  "ator": 1246,
  "ner": 1247,
  "pect": 1248,
  "Ġprivate": 1249,
  "igh": 1251,
  "any": 1252,
  "Ġpos": 1253,
  "lement": 1254,
  "aj": 1255,
  "Ġnull": 1256,
  "ĠPro": 1258,
  "Ġacc": 1259,
  "Ġwhen": 1261,
  "EN": 1262,
  "Ġje": 1264,
  "Ġend": 1268,
  "fig": 1269,
  "ait": 1271,
  "ke": 1272,
  "Ġother": 1273,
  "yn": 1276,
  "Ġoff": 1277,
  "_s": 1278,
  "Text": 1279,
  "old": 1280,
  "ger": 1281,
  "view": 1282,
  "Ġaf": 1283,
  "Ġyear": 1284,
  "_m": 1285,
  "erson": 1286,
  "als": 1288,
  "red": 1291,
  "read": 1293,
  "Ġbr": 1294,
  "tern": 1298,
  "Ġlike": 1299,
  "OR": 1301,
  "_c": 1303,
  "iÃ³n": 1304,
  "ten": 1305,
  "li": 1307,
  "Ġname": 1308,
  "Ġneed": 1309,
  "ource": 1310,
  "AR": 1312,
  "Ġkn": 1313,
  "def": 1314,
  "urrent": 1315,
  "roup": 1316,
  "ception": 1317,
  "date": 1319,
  "Ġdi": 1320,
  "Ġreg": 1324,
  "Ġjust": 1327,
  "ĠThis": 1328,
  "Ġact": 1330,
  "ute": 1331,
  "Ġorg": 1333,
  "Ġser": 1334,
  "Ġher": 1335,
  "_f": 1337,
  "wo": 1338,
  "Ġbeen": 1339,
  "Ġmay": 1340,
  "Ġles": 1341,
  "Ġtrue": 1343,
  "quire": 1344,
  "let": 1347,
  "its": 1348,
  "Ġmin": 1349,
  "uct": 1350,
  "Ġeen": 1351,
  "Ġthere": 1354,
  "param": 1355,
  "son": 1356,
  "_p": 1359,
  "ict": 1360,
  "ai": 1361,
  "ax": 1362,
  "ating": 1365,
  "ĠUn": 1367,
  "Ġrec": 1369,
  "ys": 1371,
  "ader": 1372,
  "Ġthem": 1373,
  "Ġreal": 1374,
  "Ġac": 1375,
  "cont": 1377,
  "Ġche": 1378,
  "oun": 1379,
  "ates": 1381,
  "Ġpor": 1382,
  "Ġind": 1383,
  "To": 1385,
  "ices": 1386,
  "itt": 1387,
  "Cl": 1388,
  "new": 1389,
  "ĠCom": 1390,
  "Ġph": 1391,
  "Ġhel": 1392,
  "ĉreturn": 1393,
  "Ġcomm": 1394,
  "utton": 1399,
  "LE": 1400,
  "ning": 1401,
  "Ġlos": 1403,
  "ues": 1406,
  "Ġco": 1407,
  "Tr": 1410,
  "Ġwhat": 1412,
  "Ġbet": 1413,
  "ond": 1415,
  "ĠWe": 1416,
  "arch": 1417,
  "Ġap": 1419,
  "trib": 1420,
  "Ġmet": 1421,
  "uf": 1427,
  "user": 1428,
  "vid": 1429,
  "ible": 1430,
  "yle": 1431,
  "Ġvalue": 1432,
  "ength": 1436,
  "very": 1437,
  "ponse": 1439,
  "of": 1440,
  "Ġfr": 1441,
  "iet": 1442,
  "class": 1444,
  "Ġlo": 1445,
  "ault": 1446,
  "ask": 1447,
  "Ġhet": 1448,
  "Ob": 1451,
  "Ġav": 1452,
  "Ġhad": 1458,
  "Ġval": 1459,
  "Ġsc": 1460,
  "ages": 1461,
  "Ġdu": 1462,
  "ames": 1463,
  "be": 1464,
  "var": 1465,
  "IT": 1468,
  "clude": 1472,
  "Ġcons": 1473,
  "Ġmed": 1475,
  "Ġdet": 1476,
  "ument": 1477,
  "_l": 1478,
  "ana": 1480,
  "Ġwould": 1481,
  "AL": 1483,
  "roll": 1484,
  "Ġfalse": 1485,
  "ĠQ": 1486,
  "ĠZ": 1489,
  "Ġtype": 1490,
  "ole": 1491,
  "ular": 1492,
  "min": 1493,
  "Ġhow": 1495,
  "Ġdr": 1498,
  "AN": 1499,
  "ful": 1500,
  "Ġdif": 1501,
  "til": 1502,
  "na": 1503,
  "Ġwere": 1504,
  "ople": 1510,
  "Ġinto": 1511,
  "Ġsur": 1512,
  "ows": 1513,
  "ĠTr": 1514,
  "amp": 1515,
  "ĠDe": 1516,
  "air": 1517,
  "Ġcre": 1519,
  "Ġmake": 1520,
  "rol": 1521,
  "ina": 1522,
  "ta": 1524,
  "SE": 1529,
  "ĠCon": 1532,
  "Ġresult": 1534,
  "_b": 1535,
  "Ġrel": 1536,
  "_id": 1537,
  "Ġloc": 1539,
  "ics": 1541,
  "Ġsub": 1543,
  "error": 1544,
  "ethod": 1545,
  "ze": 1547,
  "Ġfl": 1548,
  "ĠSe": 1550,
  "af": 1553,
  "ho": 1555,
  "Ġjava": 1557,
  "ody": 1558,
  "ml": 1560,
  "ts": 1561,
  "Ġlist": 1562,
  "ins": 1564,
  "_d": 1565,
  "ww": 1566,
  "En": 1568,
  "Ġthan": 1572,
  "âĢĻt": 1573,
  "itle": 1575,
  "ente": 1576,
  "Ġfirst": 1577,
  "ica": 1578,
  "Ġaw": 1579,
  "Ġbo": 1581,
  "By": 1582,
  "Se": 1584,
  "Par": 1586,
  "je": 1587,
  "Ġimport": 1588,
  "Ġtem": 1589,
  "Item": 1590,
  "value": 1594,
  "ious": 1595,
  "work": 1596,
  "ause": 1597,
  "print": 1598,
  "lick": 1600,
  "ule": 1601,
  "Ġback": 1602,
  "ense": 1603,
  "Ġstart": 1604,
  "Ġein": 1605,
  "Ġonly": 1606,
  "ĠYou": 1608,
  "ures": 1609,
  "Ġke": 1610,
  "ower": 1611,
  "arr": 1614,
  "Ġits": 1617,
  "raw": 1618,
  "Ġfil": 1620,
  "Ġstring": 1621,
  "ces": 1622,
  "Ġinform": 1623,
  "Ġform": 1625,
  "ments": 1626,
  "urs": 1628,
  "ities": 1629,
  "ayer": 1630,
  "Ġlook": 1631,
  "Ġlet": 1632,
  "Ġstatic": 1633,
  "ember": 1634,
  "day": 1635,
  "Ġbest": 1636,
  "Value": 1638,
  "ler": 1639,
  "Ġunder": 1641,
  "Ġtrans": 1643,
  "ender": 1644,
  "Ġmost": 1645,
  "Ġfind": 1646,
  "Ġperson": 1647,
  "Ġed": 1648,
  "ustom": 1649,
  "Ġhelp": 1652,
  "olog": 1653,
  "string": 1655,
  "ĠWh": 1656,
  "Ġng": 1657,
  "ateg": 1658,
  "lection": 1659,
  "den": 1660,
  "oth": 1661,
  "Ġrem": 1662,
  "Ġpeople": 1665,
  "ĠAl": 1667,
  "Ġcar": 1669,
  "const": 1671,
  "la": 1675,
  "ĠHe": 1679,
  "Ġass": 1680,
  "irect": 1681,
  "Ġwant": 1682,
  "ari": 1683,
  "ession": 1685,
  "ren": 1687,
  "ĠAn": 1689,
  "bo": 1692,
  "gram": 1695,
  "br": 1697,
  "Ġdon": 1700,
  "Ġlong": 1701,
  "Ġgu": 1704,
  "Ġsk": 1705,
  "ern": 1706,
  "Im": 1707,
  "wa": 1708,
  "Ġinst": 1710,
  "load": 1711,
  "rough": 1712,
  "Ġum": 1713,
  "ha": 1716,
  "ets": 1719,
  "_C": 1720,
  "Ġfinal": 1721,
  "Ġarr": 1724,
  "Ġread": 1729,
  "orld": 1733,
  "uc": 1734,
  "hed": 1736,
  "reak": 1738,
  "fr": 1739,
  "atus": 1740,
  "Ġge": 1741,
  "Ġve": 1743,
  "ting": 1744,
  "Ġtest": 1746,
  "Ã§Ã£o": 1747,
  "no": 1750,
  "bl": 1751,
  "Object": 1752,
  "Ġevery": 1753,
  "ĠAr": 1754,
  "Ġspec": 1755,
  "Ã©s": 1756,
  "Ġshould": 1757,
  "ponent": 1758,
  "ES": 1759,
  "Ġknow": 1761,
  "ood": 1762,
  "ility": 1763,
  "Exception": 1764,
  "Ġsm": 1765,
  "Ġmon": 1767,
  "Ġcr": 1769,
  "Ġshe": 1770,
  "ĠEx": 1771,
  "wn": 1772,
  "ĉpublic": 1773,
  "Ġwell": 1775,
  "ush": 1776,
  "ux": 1778,
  "Ġpres": 1780,
  "Ġsch": 1781,
  "ms": 1782,
  "Ġsi": 1784,
  "yp": 1785,
  "Ġden": 1786,
  "tra": 1787,
  "iver": 1788,
  "ager": 1790,
  "Ġil": 1793,
  "Ġexper": 1794,
  "Ġsom": 1796,
  "col": 1798,
  "ative": 1799,
  "word": 1801,
  "reg": 1802,
  "Ġhand": 1803,
  "url": 1804,
  "try": 1806,
  "rap": 1807,
  "ons": 1808,
  "ream": 1809,
  "ily": 1810,
  "iness": 1811,
  "Ġmod": 1812,
  "Ġdat": 1814,
  "Ġthen": 1815,
  "Get": 1816,
  "ym": 1818,
  "Ġthrough": 1819,
  "use": 1821,
  "ccess": 1822,
  "Ġpol": 1823,
  "uss": 1824,
  "Ġuser": 1825,
  "Ġchar": 1826,
  "Ġinv": 1827,
  "aut": 1828,
  "fore": 1830,
  "idth": 1831,
  "Ġopt": 1832,
  "fl": 1836,
  "icht": 1837,
  "ats": 1838,
  "Ġrequire": 1841,
  "ĠIf": 1843,
  "User": 1844,
  "Ġsim": 1845,
  "using": 1846,
  "ends": 1847,
  "Ġright": 1849,
  "serv": 1850,
  "Ġpass": 1853,
  "ka": 1854,
  "amb": 1855,
  "Ġstud": 1864,
  "ui": 1866,
  "sert": 1868,
  "Ġvery": 1869,
  "ough": 1870,
  "ife": 1872,
  "ais": 1873,
  "ref": 1874,
  "_S": 1875,
  "void": 1876,
  "ĠAs": 1877,
  "ior": 1878,
  "Ġthese": 1879,
  "Ġweb": 1880,
  "State": 1881,
  "ased": 1882,
  "Ġdec": 1885,
  "Ġsol": 1887,
  "Ġproduct": 1888,
  "Ġcase": 1890,
  "cond": 1893,
  "CT": 1895,
  "key": 1898,
  "Ġgood": 1899,
  "ene": 1900,
  "Ġmak": 1902,
  "ars": 1904,
  "ni": 1906,
  "Ġcor": 1907,
  "Ġka": 1908,
  "Ġvis": 1909,
  "Ġbel": 1912,
  "rray": 1914,
  "Ġprof": 1915,
  "Ġdur": 1916,
  "Ġdown": 1917,
  "Ġbus": 1918,
  "Ġwhere": 1919,
  "Ġtwo": 1920,
  "Ġsee": 1921,
  "unc": 1922,
  "De": 1923,
  "Ġsl": 1925,
  "Ġpost": 1926,
  "Ġatt": 1927,
  "perty": 1928,
  "Time": 1929,
  "Ġpour": 1930,
  "Ġaut": 1931,
  "Ġhigh": 1932,
  "Ġafter": 1934,
  "rem": 1935,
  "Ġext": 1936,
  "php": 1937,
  "for": 1938,
  "cent": 1939,
  "ouse": 1941,
  "ru": 1942,
  "ackage": 1943,
  "ature": 1946,
  "ister": 1947,
  "Ã¼r": 1948,
  "UL": 1949,
  "Ġeven": 1952,
  "ational": 1953,
  "Ġnow": 1954,
  "ĠSh": 1955,
  "ara": 1956,
  "Ġart": 1957,
  "ĠAnd": 1958,
  "Ġeff": 1959,
  "ouble": 1960,
  "ote": 1962,
  "ience": 1963,
  "round": 1964,
  "Ġmen": 1966,
  "Ġuna": 1969,
  "ider": 1970,
  "rror": 1971,
  "uff": 1972,
  "ivers": 1973,
  "Ġfile": 1974,
  "ando": 1975,
  "action": 1976,
  "ersion": 1977,
  "arn": 1978,
  "oin": 1979,
  "include": 1981,
  "Ġsup": 1982,
  "Ġmark": 1983,
  "Set": 1984,
  "ify": 1985,
  "ane": 1986,
  "rite": 1987,
  "umn": 1988,
  "els": 1989,
  "Ġmany": 1991,
  "arget": 1992,
  "Ind": 1993,
  "Ġos": 1994,
  "Ġlas": 1996,
  "htt": 1998,
  "Ġgl": 2000,
  "leg": 2001,
  "att": 2002,
  "play": 2003,
  "Ġcal": 2005,
  "Ġway": 2006,
  "_P": 2008,
  "Ġmuch": 2009,
  "hr": 2012,
  "RO": 2013,
  "ayout": 2016,
  "Ġbec": 2017,
  "ĠLe": 2018,
  "Ġdem": 2019,
  "press": 2020,
  "Ġho": 2021,
  "IC": 2022,
  "Ġcould": 2023,
  "ants": 2027,
  "ines": 2028,
  "Ġom": 2030,
  "Ġou": 2031,
  "lease": 2032,
  "Key": 2035,
  "ĠNew": 2036,
  "ride": 2037,
  "Service": 2038,
  "ution": 2043,
  "ION": 2044,
  "roid": 2047,
  "Ġwhile": 2049,
  "ced": 2050,
  "za": 2051,
  "DE": 2052,
  "util": 2056,
  "item": 2057,
  "Ġsaid": 2059,
  "era": 2060,
  "Ġused": 2061,
  "velop": 2063,
  "ĠPl": 2064,
  "He": 2066,
  "ja": 2067,
  "org": 2068,
  "emb": 2072,
  "Wh": 2073,
  "opy": 2074,
  "Ġtry": 2075,
  "ward": 2076,
  "wh": 2078,
  "Ġfam": 2079,
  "ino": 2081,
  "alk": 2082,
  "vis": 2083,
  "Ġog": 2085,
  "Ġnumber": 2086,
  "cription": 2087,
  "ya": 2090,
  "Event": 2091,
  "Ġmo": 2093,
  "Ġserv": 2096,
  "Ġyears": 2101,
  "ocument": 2102,
  "Ġevent": 2104,
  "Ġhere": 2105,
  "ited": 2106,
  "Ġplay": 2107,
  "Ġcas": 2108,
  "ized": 2110,
  "cript": 2113,
  "ci": 2114,
  "ante": 2116,
  "land": 2117,
  "aciÃ³n": 2119,
  "idad": 2120,
  "Ġprint": 2123,
  "aar": 2125,
  "ĠX": 2127,
  "ĠEn": 2130,
  "Ġfin": 2131,
  "log": 2133,
  "Info": 2134,
  "uit": 2136,
  "Ġkey": 2140,
  "other": 2141,
  "Ġlog": 2142,
  "order": 2143,
  "ken": 2144,
  "ally": 2146,
  "AM": 2148,
  "Ġcomple": 2149,
  "ama": 2152,
  "cho": 2153,
  "_T": 2154,
  "Ã©r": 2156,
  "kt": 2157,
  "AS": 2158,
  "ĠOn": 2160,
  "Ġday": 2163,
  "Ġinformation": 2164,
  "We": 2167,
  "Ġitem": 2169,
  "_n": 2170,
  "Ġdiffer": 2171,
  "ttp": 2172,
  "Ġpas": 2173,
  "Ġlast": 2174,
  "ET": 2175,
  "Button": 2176,
  "umm": 2177,
  "Sh": 2179,
  "dit": 2180,
  "alth": 2182,
  "UR": 2184,
  "Ġsin": 2187,
  "Ġtak": 2188,
  "ĠCl": 2190,
  "Ġprogram": 2193,
  "ollow": 2194,
  "Ġword": 2195,
  "ails": 2196,
  "Pl": 2197,
  "ros": 2199,
  "Ġinclud": 2200,
  "Ġtext": 2201,
  "unt": 2202,
  "struct": 2204,
  "back": 2205,
  "Ġcurrent": 2208,
  "mp": 2211,
  "Ġgreat": 2212,
  "ĠFor": 2214,
  "Ġins": 2215,
  "Ġgener": 2217,
  "arm": 2218,
  "On": 2219,
  "ique": 2222,
  "An": 2223,
  "ga": 2225,
  "Ġdoes": 2226,
  "roller": 2227,
  "atur": 2228,
  "Ġfa": 2229,
  "Qu": 2231,
  "Ġsign": 2232,
  "pre": 2235,
  "Ġbecause": 2236,
  "Ġhome": 2237,
  "Ġsuch": 2238,
  "Model": 2239,
  "Ġfree": 2240,
  "Ġdid": 2242,
  "At": 2243,
  "Man": 2246,
  "ams": 2247,
  "Or": 2251,
  "ED": 2252,
  "tn": 2253,
  "Ġbefore": 2254,
  "Error": 2255,
  "index": 2257,
  "ital": 2258,
  "UT": 2260,
  "ida": 2261,
  "ample": 2262,
  "ives": 2264,
  "Un": 2265,
  "ware": 2266,
  "_in": 2267,
  "Ġnum": 2269,
  "Ġprocess": 2273,
  "uthor": 2275,
  "ste": 2277,
  "File": 2279,
  "comm": 2280,
  "Ġprovid": 2281,
  "rop": 2283,
  "ĠPr": 2284,
  "ache": 2285,
  "ector": 2286,
  "loat": 2287,
  "Ġya": 2289,
  "IS": 2291,
  "Ã¡s": 2294,
  "ido": 2295,
  "Ġonline": 2296,
  "Ġvoor": 2297,
  "Over": 2298,
  "oad": 2299,
  "face": 2300,
  "fe": 2302,
  "Request": 2303,
  "Ġtake": 2304,
  "As": 2305,
  "ional": 2306,
  "Map": 2307,
  "oh": 2308,
  "man": 2309,
  "Ġste": 2310,
  "chn": 2311,
  "ĠFr": 2312,
  "Ġown": 2316,
  "ĠRes": 2317,
  "file": 2318,
  "go": 2319,
  "Ġchild": 2320,
  "enu": 2323,
  "Color": 2324,
  "Ġview": 2325,
  "Ar": 2326,
  "ours": 2327,
  "Ġcap": 2328,
  "Ġdas": 2331,
  "imes": 2332,
  "Ġq": 2335,
  "td": 2336,
  "Ġbreak": 2338,
  "vert": 2339,
  "iter": 2340,
  "Ġarg": 2341,
  "ared": 2343,
  "Ġtop": 2344,
  "by": 2345,
  "ually": 2346,
  "erg": 2347,
  "Al": 2348,
  "Ġsize": 2349,
  "ason": 2350,
  "atic": 2351,
  "ains": 2352,
  "Ġsit": 2353,
  "ailable": 2354,
  "ocation": 2355,
  "Ġshow": 2356,
  "Ġce": 2357,
  "Ġmodel": 2359,
  "Ġusing": 2360,
  "enn": 2362,
  "ini": 2363,
  "Ġdesign": 2364,
  "rc": 2366,
  "ism": 2367,
  "Index": 2368,
  "Ġsal": 2370,
  "Ġcheck": 2371,
  "_M": 2372,
  "Ġworld": 2375,
  "eter": 2377,
  "ijn": 2380,
  "ament": 2382,
  "Ġweek": 2384,
  "lication": 2389,
  "Ġson": 2391,
  "Ġbook": 2392,
  "ĠdÃ©": 2393,
  "Element": 2394,
  "Ġhim": 2395,
  "itch": 2396,
  "lete": 2397,
  "Form": 2400,
  "Ġmit": 2403,
  "ght": 2405,
  "do": 2408,
  "ivity": 2409,
  "Ġthink": 2411,
  "Ġbusiness": 2413,
  "Test": 2414,
  "AD": 2416,
  "Ġtot": 2417,
  "Ġagain": 2418,
  "Ġsystem": 2420,
  "Ġcall": 2421,
  "ye": 2422,
  "Ġprote": 2423,
  "ico": 2424,
  "ua": 2425,
  "ados": 2426,
  "Ġcent": 2427,
  "Ġpa": 2428,
  "ih": 2431,
  "Ġzu": 2434,
  "AC": 2436,
  "package": 2437,
  "Ġpoint": 2438,
  "ĠBe": 2439,
  "ott": 2441,
  "Ġprodu": 2443,
  "ĠCol": 2445,
  "Ġbeing": 2447,
  "oto": 2448,
  "Ġrep": 2449,
  "Ġmat": 2450,
  "ideo": 2451,
  "Ġmade": 2452,
  "ios": 2453,
  "Ġeach": 2454,
  "oot": 2455,
  "Ġposs": 2456,
  "right": 2460,
  "Ġrun": 2461,
  "Ġune": 2463,
  "ero": 2464,
  "gen": 2468,
  "aterial": 2470,
  "Int": 2471,
  "Ġha": 2472,
  "export": 2474,
  "Ġplace": 2475,
  "ident": 2477,
  "Ġqual": 2478,
  "ape": 2480,
  "Ġpo": 2482,
  "_name": 2483,
  "ks": 2484,
  "Le": 2486,
  "oken": 2488,
  "Ġcle": 2489,
  "Ġsoc": 2490,
  "Ġfound": 2491,
  "type": 2493,
  "Ġopen": 2494,
  "Ġist": 2496,
  "Ġsupport": 2498,
  "This": 2500,
  "Ġcreate": 2501,
  "ĠGr": 2502,
  "hip": 2504,
  "ora": 2505,
  "Ġpat": 2506,
  "Date": 2507,
  "ather": 2508,
  "come": 2512,
  "ĠTo": 2514,
  "_st": 2518,
  "po": 2519,
  "result": 2521,
  "Context": 2522,
  "Ġcomo": 2526,
  "ala": 2528,
  "da": 2529,
  "ined": 2530,
  "Box": 2532,
  "istr": 2534,
  "ql": 2535,
  "olean": 2536,
  "create": 2537,
  "Ġsuper": 2539,
  "ters": 2540,
  "ende": 2541,
  "nen": 2542,
  "Ġline": 2543,
  "ween": 2544,
  "ĠAll": 2545,
  "ists": 2549,
  "Size": 2551,
  "Ġcho": 2552,
  "sole": 2553,
  "vice": 2554,
  "Ġku": 2556,
  "Ġpartic": 2557,
  "orn": 2558,
  "une": 2561,
  "App": 2563,
  "icense": 2564,
  "Ġni": 2565,
  "Of": 2566,
  "ocal": 2567,
  "Ġorder": 2569,
  "Ġservice": 2570,
  "ainer": 2573,
  "Ġdevelop": 2575,
  "lected": 2576,
  "Add": 2578,
  "Class": 2579,
  "ita": 2580,
  "iment": 2581,
  "ĠApp": 2583,
  "ync": 2584,
  "Em": 2585,
  "input": 2586,
  "ÃŃa": 2588,
  "Ġcontin": 2590,
  "lich": 2593,
  "All": 2594,
  "Ġmethod": 2595,
  "indow": 2597,
  "itor": 2599,
  "Ġcustom": 2602,
  "ĠOr": 2604,
  "Ġquest": 2606,
  "Ġstate": 2608,
  "ige": 2609,
  "Field": 2610,
  "pace": 2612,
  "Ġnext": 2613,
  "ploy": 2614,
  "Ġlife": 2615,
  "Ġrequest": 2616,
  "Ġthose": 2617,
  "Path": 2619,
  "ctions": 2620,
  "Ġeas": 2621,
  "Ġfollow": 2622,
  "trans": 2623,
  "search": 2624,
  "itial": 2626,
  "indows": 2628,
  "Ġcare": 2631,
  "ĠSo": 2632,
  "ira": 2633,
  "Ġmu": 2637,
  "Ġvol": 2639,
  "Ġvi": 2640,
  "list": 2641,
  "tract": 2642,
  "ump": 2643,
  "Ġarray": 2644,
  "icle": 2645,
  "Ad": 2646,
  "Ġdifferent": 2647,
  "aining": 2649,
  "Ġoper": 2650,
  "For": 2653,
  "IL": 2654,
  "ĠList": 2655,
  "Ġprov": 2656,
  "Up": 2658,
  "Ġbeg": 2662,
  "Ġexpect": 2665,
  "raph": 2666,
  "Ġmov": 2667,
  "rows": 2668,
  "wer": 2670,
  "Ġdans": 2671,
  "ĠSch": 2672,
  "ĠTe": 2673,
  "Ġmar": 2674,
  "ots": 2677,
  "Ġorgan": 2681,
  "ias": 2682,
  "Ġsame": 2684,
  "AP": 2685,
  "ĠAd": 2686,
  "define": 2688,
  "iving": 2690,
  "Ġcoun": 2692,
  "Ġintern": 2693,
  "ING": 2694,
  "less": 2695,
  "Ġlocal": 2698,
  "LO": 2699,
  "Node": 2701,
  "Ġsite": 2702,
  "nect": 2703,
  "ura": 2705,
  "function": 2706,
  "Ġrece": 2707,
  "stance": 2708,
  "Ġproble": 2711,
  "men": 2712,
  "Ġstyle": 2713,
  "Ġref": 2714,
  "Ġreally": 2715,
  "ird": 2716,
  "ela": 2717,
  "Log": 2719,
  "ified": 2720,
  "omb": 2722,
  "Array": 2725,
  "uil": 2726,
  "ission": 2727,
  "_F": 2729,
  "Ġik": 2730,
  "span": 2731,
  "Ġpop": 2735,
  "ĉc": 2736,
  "Ġwrit": 2738,
  "Message": 2739,
  "ric": 2740,
  "tribut": 2741,
  "Ġsem": 2743,
  "Component": 2746,
  "Group": 2748,
  "Ġide": 2750,
  "ili": 2751,
  "ished": 2753,
  "ato": 2754,
  "Ġmain": 2758,
  "site": 2759,
  "OM": 2760,
  "ĠInd": 2761,
  "ĠIs": 2763,
  "ever": 2764,
  "mit": 2765,
  "Ġsw": 2766,
  "inc": 2768,
  "Result": 2769,
  "ways": 2771,
  "urch": 2772,
  "Manager": 2774,
  "Ġnet": 2776,
  "Ġpay": 2777,
  "Ġqui": 2780,
  "sc": 2786,
  "Ġdefault": 2787,
  "Image": 2790,
  "Ġau": 2791,
  "Ġexp": 2794,
  "Ġcommun": 2797,
  "ency": 2799,
  "Override": 2800,
  "Ġequ": 2801,
  "lock": 2802,
  "Ġmust": 2804,
  "Ġdan": 2805,
  "else": 2807,
  "pty": 2808,
  "Config": 2811,
  "Ġvon": 2812,
  "Ġgame": 2813,
  "Ġconf": 2815,
  "ness": 2816,
  "Ġobject": 2817,
  "Act": 2818,
  "tes": 2822,
  "Ġdirect": 2823,
  "OT": 2824,
  "Ġfun": 2827,
  "ENT": 2829,
  "erc": 2831,
  "ti": 2832,
  "IM": 2833,
  "Ġdep": 2834,
  "irm": 2835,
  "Code": 2836,
  "heck": 2837,
  "ross": 2838,
  "Ġavailable": 2839,
  "Ġfact": 2840,
  "Ġhab": 2844,
  "from": 2845,
  "Ġaround": 2846,
  "Ã¤r": 2849,
  "Des": 2850,
  "uck": 2851,
  "ijk": 2852,
  "html": 2854,
  "ĠSp": 2856,
  "aff": 2857,
  "ization": 2860,
  "stand": 2861,
  "Ġcu": 2862,
  "Val": 2863,
  "off": 2864,
  "ĠBr": 2866,
  "Ġrest": 2867,
  "Ġta": 2868,
  "Ġbetween": 2870,
  "Ġcour": 2871,
  "va": 2873,
  "Not": 2874,
  "Ã¶r": 2877,
  "not": 2878,
  "Ġret": 2881,
  "ee": 2882,
  "ium": 2883,
  "uro": 2884,
  "cul": 2885,
  "With": 2886,
  "Ġwer": 2889,
  "Ġold": 2890,
  "Ġsay": 2891,
  "iles": 2892,
  "Ġnon": 2893,
  "Ã©e": 2894,
  "HE": 2895,
  "ĠMe": 2896,
  "plate": 2897,
  "over": 2898,
  "Ġmais": 2899,
  "por": 2901,
  "http": 2903,
  "posit": 2904,
  "ically": 2905,
  "oss": 2907,
  "orth": 2909,
  "Ġmarket": 2910,
  "AB": 2912,
  "omen": 2913,
  "Ġterm": 2914,
  "Ġerror": 2915,
  "ags": 2916,
  "odule": 2917,
  "Ġcert": 2918,
  "Ġti": 2919,
  "vir": 2920,
  "Ġpu": 2923,
  "Ġandroid": 2925,
  "UN": 2926,
  "Ġmus": 2927,
  "Ġstill": 2928,
  "Ġang": 2929,
  "pen": 2931,
  "Ġplus": 2932,
  "Ġauf": 2933,
  "Ġwithout": 2935,
  "Pr": 2938,
  "crib": 2939,
  "obal": 2940,
  "Hand": 2941,
  "ĠGet": 2942,
  "ln": 2943,
  "Ġmonth": 2944,
  "Ġak": 2946,
  "Controller": 2947,
  "Ġmas": 2948,
  "ubl": 2949,
  "ĠUS": 2952,
  "aan": 2954,
  "ito": 2955,
  "_D": 2958,
  "ilter": 2959,
  "Ġdisc": 2960,
  "Ġoffer": 2961,
  "Ġerr": 2962,
  "ron": 2963,
  "Ġgoing": 2966,
  "iven": 2970,
  "AG": 2971,
  "ential": 2972,
  "Ġboth": 2973,
  "Ġben": 2974,
  "query": 2975,
  "ift": 2976,
  "vol": 2978,
  "nection": 2981,
  "ading": 2984,
  "ULL": 2985,
  "Sc": 2986,
  "pons": 2987,
  "anel": 2989,
  "bar": 2990,
  "older": 2992,
  "Ġproject": 2993,
  "ena": 2995,
  "reate": 2996,
  "tribute": 2997,
  "teger": 2998,
  "Ġmax": 2999,
  "met": 3001,
  "ĠNo": 3004,
  "ategory": 3005,
  "Ġput": 3006,
  "ny": 3008,
  "ati": 3009,
  "ali": 3010,
  "Ġpage": 3011,
  "ipp": 3012,
  "ftware": 3018,
  "Ġreport": 3019,
  "oney": 3021,
  "Ġbuild": 3024,
  "aving": 3025,
  "ingle": 3027,
  "Fr": 3028,
  "ummary": 3029,
  "Ġuma": 3030,
  "Is": 3031,
  "Ġincre": 3032,
  "ground": 3033,
  "Ġhapp": 3034,
  "ology": 3035,
  "ĠLa": 3038,
  "adi": 3040,
  "Ġann": 3041,
  "US": 3042,
  "ved": 3045,
  "ittle": 3046,
  "Ġlove": 3047,
  "ani": 3048,
  "Ġleg": 3050,
  "oud": 3053,
  "Ġclient": 3054,
  "Ġseg": 3055,
  "code": 3056,
  "ĠOb": 3057,
  "Ġcome": 3063,
  "www": 3064,
  "_re": 3067,
  "ypes": 3068,
  "Ġter": 3069,
  "thing": 3070,
  "ĠBut": 3072,
  "ustr": 3073,
  "Ġals": 3075,
  "Ġba": 3079,
  "_N": 3080,
  "Ġstd": 3081,
  "inter": 3082,
  "sg": 3085,
  "the": 3086,
  "lar": 3087,
  "Ġcolor": 3089,
  "book": 3092,
  "Ġfri": 3093,
  "api": 3094,
  "ume": 3095,
  "private": 3096,
  "Ġcost": 3097,
  "ards": 3098,
  "Ġsecond": 3099,
  "Ġcontent": 3100,
  "Ġtoo": 3101,
  "rist": 3102,
  "ba": 3103,
  "Ġpath": 3104,
  "ĠQu": 3106,
  "ogle": 3108,
  "PE": 3111,
  "ika": 3113,
  "Ġeng": 3115,
  "ĠCont": 3117,
  "Ġfew": 3120,
  "zi": 3121,
  "Ġwa": 3123,
  "Ġhist": 3124,
  "ĠfÃ¼r": 3125,
  "creen": 3126,
  "ben": 3128,
  "ki": 3129,
  "ĠBl": 3130,
  "ference": 3132,
  "ĠIm": 3133,
  "Ġport": 3135,
  "Ġaan": 3136,
  "ano": 3137,
  "resent": 3139,
  "pring": 3140,
  "Layout": 3143,
  "ĠMar": 3145,
  "ĠrÃ©": 3146,
  "Ġlim": 3147,
  "inn": 3148,
  "Ġfull": 3149,
  "Ġappro": 3153,
  "config": 3154,
  "Ġpod": 3155,
  "ief": 3156,
  "Ġaccess": 3158,
  "Ġeffect": 3159,
  "No": 3160,
  "OL": 3162,
  "Ġkan": 3163,
  "ĠThey": 3164,
  "Ġja": 3165,
  "ification": 3166,
  "Param": 3167,
  "ĠPh": 3168,
  "cle": 3170,
  "eld": 3171,
  "Ġcompany": 3175,
  "Ġmessage": 3176,
  "lex": 3179,
  "ona": 3180,
  "Ġstand": 3182,
  "chen": 3184,
  "assword": 3185,
  "Response": 3186,
  "Ġspe": 3187,
  "Ġhead": 3189,
  "test": 3190,
  "vec": 3192,
  "Gr": 3193,
  "Ġko": 3194,
  "Ġfeel": 3195,
  "ĠDes": 3196,
  "valid": 3197,
  "label": 3198,
  "lt": 3199,
  "ips": 3200,
  "_B": 3201,
  "Ġkom": 3202,
  "ĠIN": 3203,
  "IG": 3205,
  "It": 3206,
  "px": 3207,
  "Ġpot": 3208,
  "Ġzijn": 3210,
  "Ġlevel": 3211,
  "oci": 3212,
  "Ġdocument": 3213,
  "Ġteam": 3214,
  "Ġmill": 3215,
  "med": 3217,
  "Ġenc": 3219,
  "pert": 3220,
  "Ġbas": 3222,
  "Opt": 3223,
  "Ġmem": 3225,
  "ima": 3226,
  "Out": 3227,
  "max": 3228,
  "Ġhealth": 3230,
  "ables": 3232,
  "Status": 3233,
  "iones": 3237,
  "Be": 3238,
  "Ġsure": 3239,
  "Ġexperience": 3240,
  "ĠEl": 3241,
  "place": 3243,
  "zen": 3244,
  "Ġinvest": 3245,
  "aces": 3247,
  "Trans": 3248,
  "gg": 3249,
  "content": 3252,
  "ĠHow": 3253,
  "FF": 3254,
  "char": 3257,
  "ending": 3258,
  "Ġfield": 3259,
  "idget": 3260,
  "Ġlot": 3261,
  "Ent": 3263,
  "cur": 3264,
  "ĠMan": 3265,
  "fect": 3267,
  "Ġca": 3268,
  "alt": 3271,
  "ething": 3272,
  "ination": 3273,
  "ĠThere": 3274,
  "Input": 3275,
  "ived": 3276,
  "ories": 3279,
  "pecial": 3280,
  "Ġimp": 3282,
  "Ġthings": 3283,
  "Ġmag": 3284,
  "init": 3287,
  "Ġir": 3288,
  "Ã©n": 3289,
  "Ġsmall": 3291,
  "elt": 3292,
  "Ġtable": 3293,
  "mb": 3294,
  "isk": 3295,
  "Ġiss": 3298,
  "uffer": 3299,
  "ille": 3301,
  "len": 3303,
  "tings": 3305,
  "uration": 3306,
  "cer": 3308,
  "true": 3309,
  "ĠLicense": 3312,
  "Ġwon": 3313,
  "Ġki": 3314,
  "Ġsex": 3316,
  "Ġmom": 3317,
  "Ġprotect": 3319,
  "System": 3320,
  "ling": 3321,
  "Ġresponse": 3322,
  "angu": 3323,
  "Ġalways": 3324,
  "Page": 3325,
  "ĠAmer": 3327,
  "OD": 3329,
  "Ġconsider": 3331,
  "room": 3332,
  "Ġpresent": 3333,
  "Ġtu": 3334,
  "If": 3335,
  "Util": 3339,
  "Ġchange": 3343,
  "acter": 3344,
  "Ġans": 3345,
  "Ġperform": 3347,
  "Ġjob": 3349,
  "ves": 3350,
  "atures": 3351,
  "Ġrange": 3352,
  "Ġduring": 3354,
  "Ġkeep": 3357,
  "Ġreview": 3358,
  "OS": 3360,
  "array": 3361,
  "Ġprom": 3362,
  "igen": 3363,
  "image": 3365,
  "ĉthis": 3367,
  "object": 3369,
  "ĠPar": 3371,
  "opt": 3374,
  "ids": 3375,
  "Ġdays": 3376,
  "Ġimportant": 3378,
  "ĠSc": 3380,
  "ought": 3381,
  "Ġaff": 3386,
  "Equ": 3387,
  "Ġlittle": 3389,
  "Inter": 3396,
  "Ġtechn": 3397,
  "rl": 3398,
  "irt": 3399,
  "Ġhum": 3402,
  "iy": 3403,
  "Ġdos": 3406,
  "Ġthree": 3407,
  "stru": 3409,
  "Ġwater": 3411,
  "oi": 3412,
  "check": 3416,
  "Count": 3417,
  "ialog": 3418,
  "ula": 3419,
  "Ġexpl": 3421,
  "Ġinput": 3422,
  "Ġva": 3423,
  "Ġinterest": 3425,
  "Table": 3429,
  "earch": 3430,
  "ret": 3431,
  "Ġbetter": 3432,
  "uild": 3433,
  "_h": 3434,
  "Ġroom": 3435,
  "And": 3436,
  "Ġwebsite": 3438,
  "Label": 3440,
  "_r": 3442,
  "New": 3443,
  "amente": 3444,
  "amespace": 3448,
  "Ġess": 3450,
  "Reg": 3451,
  "Ġtil": 3453,
  "pi": 3455,
  "ao": 3458,
  "ales": 3459,
  "ands": 3460,
  "Ġlink": 3461,
  "âĢĻre": 3462,
  "Ġincluding": 3463,
  "Ġbig": 3464,
  "Ġol": 3465,
  "Listener": 3466,
  "Ġmult": 3469,
  "Ġpower": 3470,
  "ources": 3471,
  "Ġindex": 3472,
  "ĠAN": 3473,
  "Ġschool": 3474,
  "Ġli": 3476,
  "Def": 3477,
  "Ġhard": 3479,
  "ĠAb": 3483,
  "resh": 3485,
  "elle": 3486,
  "cht": 3487,
  "cord": 3488,
  "arly": 3489,
  "Ġcode": 3490,
  "umb": 3491,
  "ativ": 3492,
  "iled": 3493,
  "Ġcatch": 3494,
  "Ġplan": 3496,
  "isa": 3497,
  "mon": 3498,
  "way": 3499,
  "Ġvous": 3500,
  "Pos": 3501,
  "Ġfamily": 3502,
  "Ġdouble": 3503,
  "Str": 3504,
  "Ġsuccess": 3505,
  "aps": 3506,
  "Ġgot": 3508,
  "oute": 3509,
  "Client": 3510,
  "Ġfac": 3513,
  "img": 3514,
  "Ġwithin": 3518,
  "ĉs": 3520,
  "Ġdate": 3521,
  "eder": 3522,
  "Click": 3524,
  "ude": 3525,
  "rawing": 3526,
  "Ġaccount": 3527,
  "ances": 3528,
  "Ġexc": 3529,
  "ques": 3531,
  "uilder": 3534,
  "Ġsam": 3535,
  "_data": 3537,
  "Dis": 3538,
  "Ġstruct": 3539,
  "Action": 3541,
  "Ġsomething": 3543,
  "ario": 3544,
  "aa": 3545,
  "Ġbit": 3546,
  "enter": 3547,
  "ede": 3549,
  "uid": 3551,
  "abase": 3553,
  "otal": 3556,
  "Ġbeh": 3557,
  "Ġnicht": 3559,
  "ibr": 3560,
  "Ġleft": 3561,
  "agement": 3562,
  "ability": 3563,
  "cia": 3565,
  "Ġgroup": 3566,
  "_w": 3567,
  "ormal": 3568,
  "Ġmight": 3572,
  "ii": 3573,
  "You": 3575,
  "Ġelement": 3577,
  "aka": 3578,
  "Ġcontrol": 3580,
  "Ġservices": 3581,
  "Ġspecial": 3582,
  "CH": 3583,
  "amework": 3584,
  "mt": 3586,
  "Ġprovide": 3587,
  "aster": 3588,
  "eta": 3589,
  "Ġred": 3592,
  "ko": 3593,
  "idade": 3595,
  "Ġmot": 3598,
  "ores": 3599,
  "iginal": 3600,
  "Ġdist": 3601,
  "ĠAt": 3604,
  "Ġcount": 3605,
  "gl": 3607,
  "Ġbar": 3608,
  "Ġtotal": 3609,
  "Ġbase": 3611,
  "Ġchang": 3612,
  "Ġanother": 3613,
  "Content": 3615,
  "itional": 3616,
  "ones": 3617,
  "idd": 3619,
  "Ġimage": 3621,
  "viron": 3623,
  "Ġarea": 3624,
  "ision": 3625,
  "igned": 3626,
  "ĠShe": 3627,
  "riter": 3628,
  "Ġsince": 3630,
  "andom": 3631,
  "ĠFl": 3632,
  "avor": 3633,
  "ights": 3635,
  "head": 3636,
  "Sub": 3638,
  "Det": 3639,
  "Ġvers": 3640,
  "Ġbody": 3641,
  "SS": 3642,
  "yl": 3643,
  "Ġgive": 3644,
  "Ġgen": 3645,
  "EM": 3646,
  "Ġhot": 3648,
  "EL": 3651,
  "Ġtrav": 3652,
  "atis": 3655,
  "Ġwar": 3656,
  "fter": 3657,
  "Ġextends": 3658,
  "Ġsich": 3660,
  "ready": 3662,
  "ĠpÃ¥": 3663,
  "Ġhar": 3664,
  "Line": 3665,
  "Ġutil": 3667,
  "arge": 3668,
  "ĠnÃ£o": 3671,
  "ĠMy": 3673,
  "vers": 3674,
  "Ġkind": 3675,
  "ills": 3678,
  "icon": 3679,
  "Ä±n": 3681,
  "Ġsearch": 3684,
  "hi": 3686,
  "db": 3687,
  "mo": 3690,
  "Ġair": 3693,
  "Number": 3695,
  "Ġassert": 3696,
  "comp": 3697,
  "Ġsocial": 3698,
  "oogle": 3699,
  "Ġcontact": 3701,
  "ieve": 3703,
  "Ġrecord": 3704,
  "zy": 3705,
  "ched": 3706,
  "Ã¡n": 3712,
  "Ġecho": 3713,
  "Ġbro": 3714,
  "Ġturn": 3716,
  "acc": 3717,
  "Ġemail": 3719,
  "ately": 3721,
  "ĉb": 3722,
  "ador": 3723,
  "ocus": 3724,
  "ĉprivate": 3725,
  "map": 3726,
  "Ġgre": 3727,
  "Ġfore": 3728,
  "Ġhref": 3730,
  "uy": 3731,
  "ired": 3734,
  "Ġaction": 3736,
  "Ġbed": 3737,
  "Ãµes": 3739,
  "Ġable": 3741,
  "Ġbir": 3742,
  "ca": 3743,
  "Ġniet": 3744,
  "imer": 3747,
  "orage": 3751,
  "jor": 3753,
  "Ġdest": 3755,
  "ĠDo": 3756,
  "ici": 3757,
  "Ġanal": 3758,
  "Ġrequired": 3759,
  "Ġless": 3760,
  "itÃ©": 3761,
  "Ġallow": 3763,
  "Ser": 3764,
  "gress": 3765,
  "actory": 3767,
  "ette": 3769,
  "Column": 3770,
  "Ġaddress": 3772,
  "Ġjavax": 3776,
  "Ġlooking": 3778,
  "Ġnever": 3779,
  "Ph": 3780,
  "oo": 3782,
  "Ġtarget": 3783,
  "Ġmaterial": 3785,
  "post": 3786,
  "ules": 3787,
  "Ġsus": 3789,
  "Ġbool": 3792,
  "uto": 3794,
  "IP": 3799,
  "Ġmil": 3801,
  "Ġparam": 3802,
  "_type": 3804,
  "acy": 3805,
  "joy": 3806,
  "Ġdig": 3807,
  "ĠDr": 3808,
  "Ġtitle": 3809,
  "Ġask": 3810,
  "ĠWith": 3813,
  "Ġcontext": 3814,
  "apt": 3815,
  "sk": 3817,
  "endo": 3819,
  "odes": 3821,
  "context": 3822,
  "Ġvideo": 3823,
  "my": 3825,
  "UE": 3827,
  "iversity": 3830,
  "aper": 3831,
  "Ġpersonal": 3832,
  "Ġconfig": 3833,
  "sub": 3834,
  "cha": 3836,
  "aph": 3837,
  "Instance": 3838,
  "Ġgrow": 3839,
  "Ġcou": 3840,
  "vious": 3841,
  "mand": 3842,
  "open": 3843,
  "fic": 3846,
  "Ġmal": 3849,
  "request": 3850,
  "ences": 3851,
  "ĠVer": 3852,
  "Ġentre": 3853,
  "pository": 3855,
  "ista": 3857,
  "yd": 3859,
  "Ġsent": 3860,
  "summary": 3861,
  "Ġindiv": 3862,
  "Entity": 3865,
  "yr": 3866,
  "ican": 3867,
  "abled": 3868,
  "icy": 3869,
  "Ġboolean": 3870,
  "Ġprofession": 3872,
  "ently": 3874,
  "iod": 3875,
  "Ġbuy": 3877,
  "Ġdom": 3878,
  "From": 3879,
  "Ġoptions": 3880,
  "imal": 3882,
  "ained": 3883,
  "apter": 3884,
  "Ġmes": 3886,
  "Ġconsole": 3887,
  "iti": 3889,
  "aÃ§Ã£o": 3890,
  "Ġproducts": 3891,
  "UI": 3892,
  "ĠSu": 3893,
  "Property": 3895,
  "PO": 3896,
  "Control": 3897,
  "pa": 3899,
  "mi": 3900,
  "ension": 3902,
  "ĉfor": 3903,
  "Ġmoney": 3905,
  "Ġadv": 3910,
  "Ġprice": 3911,
  "Ã©t": 3913,
  "ites": 3915,
  "Ãªn": 3917,
  "perties": 3919,
  "adas": 3921,
  "EX": 3922,
  "Ġversion": 3926,
  "Ġindivid": 3928,
  "embers": 3929,
  "annel": 3930,
  "Ġinclude": 3931,
  "ĠmÃ¡s": 3932,
  "ended": 3933,
  "board": 3935,
  "ering": 3936,
  "Ġavec": 3937,
  "message": 3938,
  "assert": 3940,
  "option": 3941,
  "link": 3942,
  "ĠNULL": 3943,
  "lev": 3944,
  "ĠDis": 3946,
  "Ġdev": 3947,
  "ĠEng": 3950,
  "Ġident": 3951,
  "box": 3952,
  "Ġchildren": 3953,
  "Ġlaw": 3954,
  "ĠReg": 3955,
  "ĠSet": 3957,
  "Ġhttp": 3958,
  "Query": 3962,
  "Ġfre": 3963,
  "wing": 3964,
  "akt": 3966,
  "Ġsn": 3967,
  "ster": 3968,
  "Ã¶n": 3969,
  "ls": 3973,
  "Ġnov": 3974,
  "Ġuns": 3975,
  "Ġaus": 3976,
  "Style": 3977,
  "md": 3978,
  "fort": 3980,
  "Ġmatch": 3981,
  "IO": 3982,
  "ĠMed": 3983,
  "Ġza": 3984,
  "umer": 3986,
  "Ġbes": 3988,
  "ither": 3990,
  "Ġfollowing": 3992,
  "agen": 3994,
  "Ġgover": 3996,
  "Ġmi": 3997,
  "Ġnos": 4001,
  "ĠCar": 4004,
  "ention": 4005,
  "ĠSie": 4006,
  "select": 4007,
  "Ġposition": 4010,
  "Ġing": 4012,
  "opp": 4013,
  "Ġmap": 4014,
  "Ġawait": 4021,
  "Ġshort": 4022,
  "ename": 4023,
  "una": 4024,
  "Ġupdate": 4027,
  "Ġlat": 4029,
  "Ġvisit": 4030,
  "icro": 4031,
  "ĠIntern": 4035,
  "Ġuit": 4036,
  "ĠNot": 4037,
  "Ġnil": 4038,
  "Ġhal": 4039,
  "Ã§a": 4041,
  "button": 4043,
  "Ġtoday": 4044,
  "Ġeine": 4047,
  "Ġsob": 4048,
  "obile": 4049,
  "raft": 4055,
  "Ġmach": 4056,
  "Ġcreat": 4057,
  "ouch": 4058,
  "plit": 4059,
  "unk": 4060,
  "ĠAdd": 4063,
  "amos": 4064,
  "Ġsou": 4069,
  "Ġdire": 4071,
  "Ġfut": 4073,
  "update": 4076,
  "format": 4078,
  "Ġbij": 4080,
  "maz": 4082,
  "uz": 4083,
  "ĉint": 4084,
  "clus": 4085,
  "tre": 4086,
  "anguage": 4088,
  "iction": 4090,
  "di": 4091,
  "anks": 4096,
  "upport": 4098,
  "Ġobj": 4099,
  "eturn": 4100,
  "ĠCan": 4101,
  "ande": 4102,
  "rect": 4104,
  "ides": 4105,
  "json": 4108,
  "Ġblog": 4109,
  "Ġworking": 4113,
  "aring": 4115,
  "web": 4116,
  "des": 4117,
  "Ã¨s": 4119,
  "Ġnu": 4120,
  "Ġdoor": 4121,
  "Ġbased": 4122,
  "ML": 4123,
  "Ġlead": 4124,
  "opyright": 4125,
  "Ġappe": 4127,
  "Ġlik": 4130,
  "eters": 4131,
  "yles": 4132,
  "ji": 4133,
  "Ġcomb": 4134,
  "Ã©m": 4135,
  "Ġmaking": 4137,
  "Ġocc": 4138,
  "Handler": 4139,
  "ĠGener": 4140,
  "Ġze": 4141,
  "ored": 4142,
  "bol": 4143,
  "conom": 4144,
  "HT": 4145,
  "Ġpossible": 4149,
  "Ġfar": 4150,
  "zo": 4151,
  "Ġactiv": 4155,
  "Ġkun": 4157,
  "Ġmeet": 4158,
  "ku": 4159,
  "Collection": 4160,
  "hel": 4161,
  "_list": 4162,
  "Ġsever": 4163,
  "OP": 4164,
  "Ġcourse": 4165,
  "Ġcam": 4166,
  "Ġdone": 4167,
  "abil": 4168,
  "Ġquality": 4169,
  "ĠID": 4170,
  "itive": 4171,
  "https": 4172,
  "Ġauch": 4174,
  "Ġresearch": 4176,
  "aur": 4178,
  "abor": 4181,
  "ĠInt": 4185,
  "mente": 4186,
  "cope": 4187,
  "path": 4189,
  "Edit": 4190,
  "Ġur": 4191,
  "Ġyang": 4192,
  "Stream": 4193,
  "Ġaway": 4194,
  "rix": 4196,
  "ATE": 4197,
  "Ġalle": 4198,
  "Ġay": 4199,
  "utes": 4201,
  "table": 4202,
  "js": 4203,
  "Ã¤n": 4204,
  "Ġmoment": 4205,
  "Ġcell": 4206,
  "Ġlight": 4207,
  "Ġlabel": 4208,
  "Ġimple": 4210,
  "default": 4211,
  "SON": 4214,
  "Ġsum": 4215,
  "aba": 4216,
  "Ġunderstand": 4218,
  "Point": 4219,
  "dis": 4220,
  "ply": 4221,
  "ĉf": 4222,
  "Ġdiv": 4223,
  "Ġeasy": 4224,
  "ĠEr": 4225,
  "Arg": 4226,
  "mas": 4227,
  "Ġvot": 4228,
  "eren": 4229,
  "Ġfood": 4232,
  "Ġvari": 4233,
  "Ġwel": 4234,
  "ably": 4235,
  "udio": 4237,
  "Ġtimes": 4238,
  "Url": 4239,
  "Ġpast": 4241,
  "Ġfour": 4242,
  "vironment": 4243,
  "Fl": 4245,
  "Ġmind": 4246,
  "lation": 4247,
  "ury": 4248,
  "ades": 4250,
  "Ġalong": 4251,
  "Ġbegin": 4252,
  "Ġsource": 4256,
  "ograph": 4257,
  "_L": 4258,
  "email": 4261,
  "Ġod": 4262,
  "obj": 4264,
  "Ġseem": 4265,
  "Ġens": 4266,
  "static": 4267,
  "Ġthrow": 4268,
  "response": 4270,
  "Ġenjoy": 4271,
  "thers": 4272,
  "ĠMay": 4273,
  "Ġhouse": 4276,
  "Ġalready": 4279,
  "Vis": 4282,
  "aat": 4284,
  "args": 4285,
  "ients": 4288,
  "uns": 4290,
  "Ab": 4292,
  "ĠUser": 4293,
  "ibility": 4295,
  "ĠWhen": 4296,
  "Ġiz": 4297,
  "elo": 4299,
  "net": 4301,
  "icial": 4304,
  "Ġsoftware": 4305,
  "Ġside": 4307,
  "ĠLog": 4309,
  "Ġexist": 4310,
  "ĠPol": 4312,
  "âĢĻve": 4313,
  "TR": 4314,
  "Ġdeb": 4315,
  "avig": 4316,
  "Pre": 4319,
  "Ġcover": 4321,
  "Ġproperty": 4322,
  "group": 4323,
  "ases": 4324,
  "Ġten": 4325,
  "Ġwhe": 4327,
  "ivo": 4330,
  "ponents": 4331,
  "Ġgiven": 4335,
  "ral": 4336,
  "Menu": 4337,
  "Ġimpro": 4338,
  "ĠEm": 4339,
  "Ġdownload": 4340,
  "side": 4341,
  "Select": 4342,
  "iety": 4343,
  "Ġwidth": 4345,
  "Ã¨re": 4346,
  "Ġprotected": 4348,
  "Ġemploy": 4350,
  "Ġblock": 4355,
  "ley": 4356,
  "Ġpract": 4357,
  "Ġcalled": 4358,
  "Ġtre": 4360,
  "Ġmer": 4361,
  "atform": 4363,
  "Ġkw": 4364,
  "ured": 4367,
  "IR": 4368,
  "uh": 4370,
  "Ġagainst": 4372,
  "_RE": 4375,
  "Ġresults": 4376,
  "jo": 4379,
  "ĠChrist": 4380,
  "ĠBo": 4381,
  "nes": 4382,
  "Check": 4383,
  "ĠDE": 4386,
  "Ġperfect": 4387,
  "ports": 4389,
  "Ġredu": 4390,
  "_H": 4391,
  "Ġcur": 4396,
  "pose": 4397,
  "sol": 4399,
  "asi": 4402,
  "Ġprim": 4404,
  "ĠDate": 4405,
  "Per": 4407,
  "ohn": 4408,
  "Ġra": 4409,
  "Ġlarge": 4410,
  "portun": 4413,
  "Ġneeds": 4414,
  "_IN": 4416,
  "Ġbenef": 4420,
  "Token": 4421,
  "El": 4422,
  "Ġny": 4423,
  "Ġbi": 4424,
  "Ġfloat": 4428,
  "ney": 4429,
  "sel": 4430,
  "ges": 4431,
  "Ġpag": 4432,
  "CC": 4433,
  "Ġthing": 4435,
  "Ġwhy": 4436,
  "ĠMin": 4438,
  "Ġdin": 4440,
  "aim": 4441,
  "iff": 4443,
  "Ġindividual": 4445,
  "unch": 4446,
  "ottom": 4448,
  "Ġwin": 4449,
  "ĠCal": 4453,
  "Ġcertain": 4454,
  "Read": 4455,
  "Ġeste": 4457,
  "Start": 4459,
  "ĉm": 4460,
  "size": 4461,
  "Ġlow": 4465,
  "Ġcamp": 4466,
  "Ġconc": 4468,
  "Ġelect": 4471,
  "ĠNe": 4475,
  "Ġrespons": 4476,
  "Ġinte": 4477,
  "IV": 4478,
  "ĠView": 4479,
  "elling": 4481,
  "kan": 4482,
  "Ġfund": 4483,
  "Ġlearn": 4484,
  "Ġalg": 4485,
  "Ġdies": 4487,
  "ony": 4490,
  "incip": 4491,
  "izer": 4492,
  "Ġvia": 4493,
  "Ġstatus": 4495,
  "isi": 4496,
  "Ġenerg": 4499,
  "sl": 4500,
  "Ġstudents": 4501,
  "ube": 4502,
  "mission": 4503,
  "position": 4504,
  "Ġsort": 4506,
  "ements": 4507,
  "oon": 4508,
  "iro": 4509,
  "ging": 4512,
  "Ã¼n": 4515,
  "Us": 4517,
  "Ġut": 4518,
  "elijk": 4520,
  "pression": 4521,
  "where": 4522,
  "cy": 4523,
  "ples": 4524,
  "Ġthought": 4525,
  "Ġtrad": 4526,
  "Ġamount": 4527,
  "Ġneg": 4528,
  "Ġvalid": 4529,
  "left": 4530,
  "Product": 4532,
  "ĠBy": 4534,
  "imo": 4536,
  "Ġsrc": 4537,
  "mm": 4538,
  "ete": 4539,
  "UM": 4540,
  "dr": 4541,
  "Builder": 4542,
  "ternal": 4543,
  "gy": 4544,
  "Ġhat": 4545,
  "artment": 4546,
  "cover": 4548,
  "ifier": 4550,
  "ival": 4552,
  "_V": 4553,
  "ĠEst": 4555,
  "imum": 4556,
  "ĠSer": 4557,
  "ctor": 4558,
  "uis": 4560,
  "Ġlive": 4561,
  "ĠText": 4564,
  "Ġhaving": 4566,
  "uments": 4567,
  "ĠThat": 4569,
  "Ġinc": 4570,
  "num": 4571,
  "âĢĻm": 4572,
  "Ġook": 4573,
  "Ġesc": 4575,
  "title": 4576,
  "sa": 4578,
  "La": 4579,
  "time": 4580,
  "Ġsitu": 4581,
  "lish": 4582,
  "Ġland": 4583,
  "Ġtool": 4584,
  "CE": 4585,
  "kl": 4586,
  "Ġdisplay": 4589,
  "Ġsingle": 4590,
  "ĠSte": 4591,
  "Ġtalk": 4595,
  "Ġnode": 4596,
  "ĠDie": 4597,
  "ication": 4598,
  "ella": 4602,
  "ema": 4603,
  "Post": 4606,
  "Ġuntil": 4609,
  "cel": 4610,
  "aga": 4611,
  "atter": 4612,
  "mes": 4613,
  "ĠWhat": 4614,
  "uer": 4615,
  "uccess": 4616,
  "_pro": 4617,
  "_e": 4618,
  "uel": 4619,
  "Bar": 4622,
  "ĉvar": 4623,
  "Ġant": 4624,
  "amento": 4626,
  "vi": 4627,
  "Ġich": 4629,
  "Ġlen": 4631,
  "ĠMore": 4633,
  "Ref": 4634,
  "react": 4637,
  "Ġkon": 4638,
  "uts": 4639,
  "ĠCo": 4642,
  "ungen": 4644,
  "ops": 4645,
  "IF": 4648,
  "aint": 4649,
  "ĠPer": 4651,
  "arning": 4652,
  "down": 4653,
  "ione": 4655,
  "outh": 4656,
  "Ġmor": 4658,
  "ĠPre": 4659,
  "Ġfunc": 4660,
  "Ġgovern": 4661,
  "ĠNone": 4662,
  "Ġcond": 4664,
  "Ġtreat": 4665,
  "Ġurl": 4666,
  "Comp": 4668,
  "Ġeduc": 4669,
  "ulation": 4672,
  "Ġpubl": 4673,
  "ĠTest": 4674,
  "Ġgro": 4675,
  "ĠObject": 4677,
  "ĠJe": 4678,
  "Ġheight": 4679,
  "Ã¡r": 4680,
  "body": 4681,
  "Http": 4682,
  "Ġcult": 4685,
  "ĠUp": 4686,
  "Ġclean": 4687,
  "lege": 4688,
  "formation": 4690,
  "ince": 4692,
  "Ã§Ãµes": 4693,
  "Ġmis": 4694,
  "Ġoch": 4698,
  "Ġload": 4700,
  "Call": 4701,
  "Ġpurch": 4703,
  "Ġsimple": 4705,
  "Ġtoget": 4708,
  "Link": 4709,
  "True": 4710,
  "anda": 4711,
  "ocket": 4713,
  "Ġtogether": 4717,
  "oke": 4718,
  "âĢĻll": 4720,
  "Mod": 4721,
  "atal": 4722,
  "Method": 4723,
  "lin": 4724,
  "Ġnie": 4725,
  "ipe": 4726,
  "ourn": 4727,
  "Ġonce": 4730,
  "Ġitems": 4732,
  "Ġoutput": 4733,
  "ju": 4734,
  "field": 4735,
  "Ġselect": 4736,
  "Ġwat": 4737,
  "itter": 4738,
  "etch": 4742,
  "aged": 4743,
  "ĠAss": 4744,
  "Activity": 4747,
  "Ġmeans": 4748,
  "df": 4750,
  "AY": 4751,
  "uly": 4755,
  "Ġoriginal": 4756,
  "Ġdit": 4758,
  "arl": 4760,
  "orr": 4761,
  "oom": 4762,
  "Ġok": 4763,
  "End": 4764,
  "Ġcard": 4766,
  "ilt": 4767,
  "ANT": 4769,
  "Ġcir": 4770,
  "Ġactually": 4771,
  "Ġmean": 4774,
  "ker": 4776,
  "si": 4778,
  "rij": 4779,
  "Ġbeaut": 4780,
  "Ġoften": 4783,
  "Ġeither": 4784,
  "Ġmakes": 4787,
  "uring": 4788,
  "Ġbad": 4790,
  "Ġtod": 4791,
  "Ġproblem": 4792,
  "Ġcomput": 4793,
  "IZ": 4794,
  "ounds": 4795,
  "iga": 4796,
  "namespace": 4797,
  "mun": 4798,
  "Null": 4799,
  "Ġhom": 4801,
  "Ġsupp": 4805,
  "eller": 4806,
  "vider": 4807,
  "ĠGod": 4809,
  "Ġgetting": 4811,
  "annot": 4814,
  "erd": 4817,
  "Ġdam": 4818,
  "ĠAm": 4820,
  "script": 4822,
  "Source": 4823,
  "Ġvalues": 4824,
  "ĠArray": 4825,
  "framework": 4826,
  "What": 4827,
  "Ġdeal": 4828,
  "ram": 4829,
  "Ġcommunity": 4832,
  "ĠData": 4833,
  "Change": 4836,
  "Ġconnect": 4837,
  "Ġcred": 4838,
  "ators": 4840,
  "parse": 4841,
  "Ġmass": 4842,
  "Ġplease": 4843,
  "Ġsobre": 4844,
  "Ġamb": 4845,
  "Ġbon": 4846,
  "mod": 4847,
  "Ġlater": 4849,
  "ĠMon": 4850,
  "Ġgeb": 4852,
  "Ġquick": 4853,
  "Ġao": 4854,
  "Ġnight": 4856,
  "Ġspecific": 4857,
  "Ġtal": 4858,
  "point": 4859,
  "Order": 4861,
  "Ġever": 4862,
  "params": 4866,
  "TH": 4867,
  "Ġstory": 4869,
  "Factory": 4870,
  "Ġinitial": 4871,
  "iste": 4872,
  "cret": 4874,
  "Ġfeatures": 4877,
  "Ġdetails": 4878,
  "Ġnatur": 4879,
  "Base": 4882,
  "Ġparticip": 4884,
  "ĠYour": 4886,
  "Ġele": 4888,
  "Ġauthor": 4892,
  "agn": 4894,
  "Ġbelow": 4895,
  "Ġstore": 4897,
  "ĠWeb": 4899,
  "ural": 4900,
  "Ġcontinue": 4901,
  "parent": 4903,
  "abe": 4905,
  "ĠPart": 4906,
  "anto": 4909,
  "service": 4912,
  "Sp": 4916,
  "ĠOR": 4917,
  "Ġspace": 4918,
  "Ġseveral": 4919,
  "Ġprob": 4921,
  "Ġrecomm": 4922,
  "ĠUniversity": 4923,
  "yo": 4925,
  "Ġemp": 4927,
  "Ġquestion": 4928,
  "Ġont": 4930,
  "Ġcountry": 4931,
  "atabase": 4932,
  "Back": 4933,
  "Ġinstance": 4934,
  "source": 4935,
  "imate": 4937,
  "ami": 4938,
  "change": 4939,
  "pond": 4940,
  "remove": 4942,
  "used": 4943,
  "Acc": 4945,
  "std": 4946,
  "Ġcook": 4947,
  "Ġface": 4950,
  "Ġenough": 4951,
  "Ġsend": 4952,
  "anch": 4953,
  "Update": 4955,
  "ĠGl": 4956,
  "oved": 4959,
  "Ġphot": 4961,
  "Ġpur": 4962,
  "aging": 4965,
  "Ġargs": 4966,
  "fa": 4968,
  "Repository": 4970,
  "_ST": 4975,
  "ĠÃ©t": 4976,
  "ila": 4977,
  "Ġuint": 4979,
  "cribe": 4981,
  "ording": 4982,
  "Ġclos": 4986,
  "Ġpress": 4989,
  "oper": 4990,
  "color": 4991,
  "ĠGu": 4993,
  "Ġexample": 4994,
  "uri": 4998,
  "Ġmembers": 5000,
  "Ġalt": 5001,
  "iday": 5002,
  "Ġsays": 5003,
  "uint": 5004,
  "ĠThese": 5006,
  "Ġbal": 5008,
  "Ġber": 5009,
  "ĠOff": 5011,
  "Ġstudy": 5012,
  "Ġgar": 5013,
  "Ġhost": 5014,
  "dated": 5015,
  "aking": 5016,
  "Ġextra": 5018,
  "Ġheb": 5021,
  "Ġfinanc": 5022,
  "Ġach": 5023,
  "Ġparticular": 5024,
  "Ġbecome": 5025,
  "idden": 5027,
  "stit": 5028,
  "Ġsind": 5029,
  "Ġcity": 5030,
  "Ġplayer": 5033,
  "Ġmajor": 5035,
  "Ġothers": 5036,
  "mark": 5037,
  "active": 5039,
  "apping": 5041,
  "_size": 5044,
  "One": 5045,
  "_de": 5047,
  "Ġgames": 5048,
  "Ġmedia": 5049,
  "Ġsens": 5050,
  "ilar": 5051,
  "ball": 5052,
  "ĠGe": 5053,
  "Ġespecial": 5056,
  "Ġbutton": 5057,
  "Ġhold": 5060,
  "ĠEuro": 5061,
  "ising": 5066,
  "Ġwrite": 5067,
  "kn": 5068,
  "Ġnecess": 5069,
  "ĠMark": 5070,
  "ison": 5072,
  "Ġyet": 5073,
  "Ġprec": 5074,
  "TE": 5075,
  "Mode": 5076,
  "iento": 5077,
  "Ġkl": 5078,
  "model": 5079,
  "iri": 5081,
  "UP": 5082,
  "ged": 5083,
  "Ġpolit": 5086,
  "ustry": 5088,
  "_to": 5089,
  "Ġlib": 5090,
  "Ġstay": 5092,
  "Ġsave": 5093,
  "aya": 5094,
  "ental": 5095,
  "height": 5097,
  "URL": 5098,
  "Ġautom": 5099,
  "Ġlocation": 5100,
  "Ġfavor": 5101,
  "Ġnews": 5102,
  "Ġpers": 5103,
  "Create": 5104,
  "AME": 5105,
  "ĉelse": 5107,
  "ĠOne": 5108,
  "Ġfont": 5109,
  "Ġnga": 5111,
  "pu": 5112,
  "Ġteach": 5113,
  "Ġthrows": 5114,
  "gt": 5115,
  "edd": 5116,
  "Ġsche": 5118,
  "ester": 5119,
  "NS": 5121,
  "Ġhours": 5123,
  "Ġcomes": 5124,
  "anu": 5125,
  "Ġoder": 5126,
  "Ġcomplet": 5127,
  "inding": 5128,
  "zer": 5129,
  "gu": 5130,
  "ĠTHE": 5135,
  "atu": 5136,
  "ministr": 5137,
  "Ġsav": 5139,
  "Ġmiss": 5141,
  "Ġwomen": 5142,
  "Ġshare": 5143,
  "Off": 5144,
  "Ġpie": 5148,
  "osp": 5149,
  "Ġcopy": 5150,
  "Ġabove": 5151,
  "Ġleast": 5153,
  "Width": 5156,
  "Ġlarg": 5157,
  "ORT": 5160,
  "Ã©es": 5161,
  "ecut": 5163,
  "ĠVal": 5164,
  "Ġnam": 5165,
  "iful": 5166,
  "Ġfriend": 5168,
  "hand": 5172,
  "PL": 5173,
  "encia": 5174,
  "OK": 5175,
  "quired": 5176,
  "Ġetc": 5178,
  "inate": 5180,
  "Ġprovided": 5181,
  "Ġfocus": 5184,
  "ĠAct": 5187,
  "Ġrepresent": 5188,
  "Tem": 5189,
  "_R": 5190,
  "zt": 5191,
  "Ġdue": 5192,
  "antes": 5193,
  "YPE": 5196,
  "Ġapplication": 5200,
  "ESS": 5201,
  "AX": 5202,
  "fully": 5203,
  "ola": 5204,
  "ensive": 5206,
  "Ġreason": 5207,
  "elen": 5208,
  "endif": 5209,
  "ipo": 5210,
  "ĠComp": 5211,
  "igr": 5213,
  "Ġseason": 5217,
  "Ġbre": 5218,
  "DB": 5220,
  "ogn": 5222,
  "cast": 5223,
  "Ġrow": 5225,
  "pload": 5227,
  "icles": 5228,
  "Ġwalk": 5229,
  "Ġpick": 5230,
  "Ã¤t": 5233,
  "start": 5236,
  "ingen": 5237,
  "Ġwait": 5238,
  "ĠNov": 5239,
  "yt": 5240,
  "Ġpou": 5241,
  "Ġsont": 5242,
  "ĠDec": 5244,
  "argin": 5245,
  "anger": 5249,
  "Ġacross": 5251,
  "Ã³n": 5253,
  "ires": 5255,
  "Valid": 5258,
  "Ġcompan": 5259,
  "product": 5260,
  "ĠFile": 5262,
  "Ġclose": 5263,
  "inary": 5264,
  "Ġperiod": 5265,
  "Command": 5266,
  "ĠUs": 5268,
  "Ġdevelopment": 5269,
  "Ġauto": 5271,
  "Ġhu": 5274,
  "Ġmove": 5275,
  "eft": 5276,
  "Ġfuture": 5277,
  "Ġtamb": 5279,
  "Ġwriting": 5281,
  "server": 5282,
  "just": 5283,
  "Ġwerden": 5285,
  "ĠForm": 5287,
  "Ġago": 5288,
  "Ġtrack": 5290,
  "Ġclick": 5292,
  "pend": 5293,
  "state": 5294,
  "istance": 5295,
  "Ġtask": 5296,
  "Ġoffers": 5297,
  "How": 5299,
  "Module": 5300,
  "Ġsie": 5301,
  "Ġdating": 5304,
  "Ġdoing": 5306,
  "ĠOF": 5307,
  "Hel": 5308,
  "most": 5309,
  "Ġopportun": 5311,
  "Const": 5313,
  "Ġinn": 5315,
  "struction": 5316,
  "Ġoption": 5317,
  "Ġhandle": 5318,
  "iddle": 5321,
  "Ġprincip": 5322,
  "wards": 5323,
  "structor": 5324,
  "Ġgir": 5325,
  "adio": 5327,
  "ĠIl": 5329,
  "req": 5331,
  "Ġev": 5332,
  "lear": 5333,
  "iple": 5335,
  "rea": 5336,
  "Ġpal": 5337,
  "ĠOur": 5339,
  "Ġbien": 5340,
  "anz": 5341,
  "page": 5342,
  "AV": 5345,
  "Cell": 5346,
  "ÃŃt": 5348,
  "Grid": 5351,
  "Address": 5352,
  "Ġcommon": 5355,
  "Ġpack": 5356,
  "Ġsym": 5357,
  "ĠFree": 5358,
  "Ġquestions": 5359,
  "Options": 5360,
  "Default": 5361,
  "Ġclear": 5364,
  "ixed": 5365,
  "ijd": 5367,
  "iki": 5368,
  "Ġah": 5369,
  "Ġcreated": 5371,
  "Ġzo": 5372,
  "iate": 5373,
  "Ġnp": 5374,
  "Ġcomment": 5375,
  "Ġinfo": 5377,
  "Ġtyp": 5378,
  "urther": 5379,
  "nh": 5380,
  "Ġdiscuss": 5381,
  "Ġmusic": 5383,
  "Ġusers": 5385,
  "Ġmga": 5386,
  "ĠState": 5388,
  "_v": 5390,
  "ERR": 5392,
  "leep": 5393,
  "Ġpict": 5394,
  "iten": 5395,
  "Ġhuman": 5396,
  "ĠBar": 5397,
  "null": 5398,
  "adding": 5399,
  "unit": 5400,
  "Ġsubject": 5401,
  "Ġnetwork": 5402,
  "Ġsignific": 5404,
  "ĠRead": 5405,
  "lim": 5406,
  "Attribute": 5408,
  "reet": 5409,
  "lu": 5411,
  "aha": 5412,
  "ecute": 5413,
  "Title": 5415,
  "OV": 5417,
  "Ġdeterm": 5418,
  "agment": 5419,
  "count": 5420,
  "Child": 5422,
  "base": 5423,
  "Ġstarted": 5424,
  "Ġmaint": 5425,
  "Ġren": 5427,
  "has": 5429,
  "Ġrole": 5430,
  "ĠArt": 5431,
  "Ġtw": 5432,
  "header": 5434,
  "edia": 5435,
  "ĠIS": 5436,
  "Integer": 5437,
  "Ġminutes": 5438,
  "_g": 5439,
  "ART": 5442,
  "Ġtele": 5443,
  "My": 5444,
  "valu": 5446,
  "hen": 5447,
  "Ġbil": 5448,
  "ele": 5449,
  "asure": 5450,
  "_set": 5451,
  "Ġcompet": 5452,
  "Ġpred": 5453,
  "aux": 5454,
  "curity": 5455,
  "Ã¥r": 5458,
  "_G": 5459,
  "center": 5463,
  "Block": 5464,
  "Ġglobal": 5466,
  "Ġnh": 5467,
  "imple": 5468,
  "ĠÃ¼ber": 5469,
  "Ġeconom": 5470,
  "ĠPublic": 5473,
  "itted": 5478,
  "PI": 5479,
  "Panel": 5482,
  "Ġtemp": 5484,
  "Ġtell": 5485,
  "oman": 5487,
  "root": 5488,
  "_W": 5493,
  "loor": 5494,
  "Ġthough": 5495,
  "atie": 5496,
  "Icon": 5497,
  "Ġhope": 5498,
  "ignment": 5499,
  "itions": 5500,
  "Ġtout": 5501,
  "Ġapplic": 5502,
  "Ġmonths": 5503,
  "Ġcy": 5504,
  "etr": 5505,
  "Ġbox": 5506,
  "Me": 5507,
  "inder": 5508,
  "itar": 5509,
  "ĠPost": 5511,
  "hal": 5512,
  "Row": 5513,
  "Load": 5514,
  "ĠTrans": 5515,
  "Ġassoci": 5516,
  "Ġlength": 5517,
  "amm": 5518,
  "Ġeverything": 5519,
  "pli": 5521,
  "idades": 5522,
  "Ġrelations": 5523,
  "author": 5524,
  "show": 5526,
  "ĠEs": 5527,
  "quals": 5530,
  "Ġstrong": 5532,
  "Ġcomplete": 5533,
  "oma": 5534,
  "ĠDet": 5535,
  "Ġbei": 5536,
  "icas": 5538,
  "olo": 5539,
  "ĉcase": 5540,
  "ĠestÃ¡": 5541,
  "Ġknown": 5542,
  "Ġges": 5545,
  "Ġnach": 5547,
  "QL": 5548,
  "ĠHowever": 5551,
  "ĠUnited": 5553,
  "ises": 5555,
  "lig": 5556,
  "_path": 5558,
  "hing": 5560,
  "illa": 5561,
  "Fe": 5563,
  "Ġobt": 5564,
  "IB": 5565,
  "Ġfront": 5567,
  "isch": 5570,
  "Ġpoints": 5571,
  "eni": 5572,
  "child": 5573,
  "eds": 5575,
  "Ġtax": 5577,
  "oe": 5578,
  "ĠCor": 5580,
  "ving": 5581,
  "ĠAg": 5582,
  "Ġasync": 5585,
  "Ġfilm": 5586,
  "Ġwhether": 5588,
  "Ġple": 5590,
  "ische": 5591,
  "OW": 5593,
  "Ġseries": 5594,
  "urg": 5595,
  "Ġdeg": 5597,
  "FA": 5599,
  "Ġmaar": 5600,
  "ĠSee": 5601,
  "Ġinf": 5603,
  "Ġheart": 5604,
  "ĠInter": 5605,
  "printf": 5606,
  "ĠRE": 5607,
  "ett": 5608,
  "Ġdir": 5609,
  "Ã¡t": 5610,
  "sy": 5611,
  "Ġyoung": 5612,
  "asy": 5614,
  "ffect": 5616,
  "Ġfall": 5617,
  "Ġrespect": 5618,
  "typ": 5619,
  "astic": 5620,
  "Ġwatch": 5621,
  "Stack": 5622,
  "ibrary": 5623,
  "Ġbring": 5624,
  "Container": 5626,
  "control": 5627,
  "usiness": 5629,
  "There": 5632,
  "sm": 5635,
  "Ġdb": 5636,
  "iva": 5638,
  "ĠStr": 5641,
  "urt": 5642,
  "asa": 5643,
  "ĠClass": 5646,
  "Position": 5647,
  "plied": 5649,
  "entes": 5651,
  "func": 5652,
  "Ġdar": 5653,
  "Ġchoose": 5655,
  "CL": 5656,
  "Ġinstall": 5657,
  "Ġeu": 5658,
  "Ġhappen": 5659,
  "Ġfast": 5661,
  "Ġfriends": 5664,
  "Ġstop": 5666,
  "Ġinvol": 5667,
  "uma": 5669,
  "event": 5671,
  "urance": 5674,
  "Ã©c": 5675,
  "Equal": 5676,
  "Ġhistory": 5678,
  "Serv": 5680,
  "Part": 5681,
  "year": 5682,
  "Ġhor": 5683,
  "TO": 5684,
  "ĠCity": 5686,
  "Utils": 5687,
  "Empty": 5692,
  "Ġsomeone": 5693,
  "ĠGeneral": 5694,
  "ynam": 5698,
  "Ġwie": 5700,
  "Ġjson": 5701,
  "Num": 5702,
  "Ġquery": 5703,
  "ugin": 5706,
  "iente": 5707,
  "ĠDep": 5708,
  "ATION": 5710,
  "Ġphone": 5714,
  "ODE": 5715,
  "Ġpet": 5716,
  "anged": 5717,
  "acebook": 5718,
  "asing": 5720,
  "ledge": 5721,
  "Buffer": 5722,
  "auth": 5723,
  "_ex": 5724,
  "ufact": 5725,
  "Ġanim": 5727,
  "Ġinfl": 5732,
  "Ġpopular": 5733,
  "Ġwindow": 5734,
  "Ġindustry": 5735,
  "Ġbtn": 5736,
  "Header": 5737,
  "Char": 5740,
  "atrix": 5743,
  "Ġage": 5744,
  "Ġunique": 5746,
  "Ġenter": 5747,
  "ustomer": 5748,
  "Ġmillion": 5749,
  "ocol": 5751,
  "Ġkh": 5752,
  "ombre": 5756,
  "soft": 5758,
  "ised": 5761,
  "admin": 5764,
  "ĠAmerican": 5765,
  "anta": 5767,
  "Ġadded": 5768,
  "Ġfit": 5769,
  "unn": 5770,
  "verage": 5771,
  "utions": 5773,
  "Ġvor": 5774,
  "ĠAng": 5775,
  "Ġstrateg": 5776,
  "ky": 5781,
  "Dialog": 5783,
  "het": 5785,
  "Ġsil": 5786,
  "Ġarticle": 5787,
  "asse": 5788,
  "info": 5789,
  "ĠCr": 5790,
  "ipping": 5792,
  "undle": 5793,
  "Ġwir": 5794,
  "egin": 5796,
  "ĠGoogle": 5800,
  "Ġcollection": 5801,
  "ĠCON": 5802,
  "current": 5804,
  "options": 5805,
  "Ġot": 5806,
  "So": 5808,
  "Ġuk": 5809,
  "Ã³r": 5810,
  "entity": 5812,
  "uper": 5813,
  "part": 5815,
  "ttps": 5816,
  "Height": 5817,
  "local": 5818,
  "aten": 5819,
  "Dr": 5822,
  "py": 5823,
  "Ġvirt": 5824,
  "eme": 5825,
  "ysis": 5828,
  "ued": 5829,
  "Ġcame": 5831,
  "Ġih": 5837,
  "outer": 5838,
  "Ġyn": 5839,
  "Ġfig": 5840,
  "cal": 5842,
  "Ġexperien": 5843,
  "iert": 5845,
  "Ġexam": 5846,
  "Ġphys": 5847,
  "uj": 5848,
  "Ġaux": 5850,
  "á»įn": 5851,
  "ota": 5852,
  "este": 5853,
  "ĠFe": 5854,
  "Ġcharacter": 5855,
  "Ġaddition": 5856,
  "OUT": 5858,
  "ively": 5861,
  "Ġnear": 5862,
  "Ġjoin": 5863,
  "stract": 5864,
  "iam": 5866,
  "andid": 5867,
  "Ġtim": 5868,
  "ĠOf": 5869,
  "Ġenvironment": 5870,
  "patch": 5871,
  "iger": 5873,
  "Format": 5875,
  "roups": 5876,
  "ils": 5879,
  "Ġprevious": 5880,
  "Ġworks": 5882,
  "Ġhon": 5885,
  "Ġtrab": 5886,
  "Ġconse": 5887,
  "Ġoverride": 5888,
  "Ġvarious": 5890,
  "Ġprop": 5892,
  "ivery": 5894,
  "PS": 5895,
  "Player": 5896,
  "Ġdevice": 5897,
  "Ġrender": 5898,
  "Ġwr": 5899,
  "gn": 5900,
  "aily": 5901,
  "Connection": 5902,
  "Bl": 5904,
  "CK": 5905,
  "aciones": 5906,
  "ditions": 5907,
  "ached": 5908,
  "vas": 5910,
  "Ġhi": 5911,
  "iden": 5912,
  "etwork": 5913,
  "Ġnd": 5914,
  "Ġhttps": 5918,
  "rodu": 5919,
  "ÉĻr": 5921,
  "ĠWorld": 5922,
  "Ġaccept": 5923,
  "Gener": 5926,
  "Task": 5927,
  "ĠJohn": 5928,
  "Ġregister": 5929,
  "Ġexpected": 5930,
  "oor": 5932,
  "_file": 5933,
  "ĠSub": 5934,
  "Resource": 5935,
  "phone": 5936,
  "Ġprofessional": 5937,
  "ako": 5938,
  "Ġterms": 5941,
  "essages": 5942,
  "Filter": 5944,
  "lood": 5948,
  "IZE": 5950,
  "ĠRed": 5952,
  "ulo": 5953,
  "Ġenergy": 5954,
  "ald": 5956,
  "When": 5958,
  "Ġblack": 5960,
  "Ġperm": 5961,
  "itude": 5962,
  "ption": 5964,
  "idos": 5965,
  "Ġep": 5966,
  "Ġlimit": 5967,
  "enda": 5968,
  "ĠSm": 5969,
  "ĉd": 5971,
  "roy": 5972,
  "Ġnaar": 5974,
  "Search": 5975,
  "gan": 5976,
  "uses": 5977,
  "Ġparent": 5980,
  "Ġwent": 5981,
  "Ġstep": 5983,
  "ĠNews": 5984,
  "Ġgeneral": 5985,
  "wner": 5986,
  "Ġcustomer": 5989,
  "ĠaÃ°": 5993,
  "Ġchall": 5995,
  "Eng": 5996,
  "lib": 5997,
  "Location": 5998,
  "Provider": 5999,
  "Ġcolumn": 6000,
  "ĠCent": 6001,
  "KE": 6003,
  "rel": 6004,
  "Ġcompanies": 6005,
  "Ġprovides": 6008,
  "Ġtypes": 6009,
  "iner": 6010,
  "Ġformat": 6011,
  "jet": 6012,
  "II": 6013,
  "Ġsugg": 6014,
  "width": 6015,
  "Ġserver": 6017,
  "Ġengine": 6018,
  "sv": 6019,
  "Ġdass": 6021,
  "Ġpen": 6022,
  "Ġsel": 6023,
  "gle": 6024,
  "ĠAug": 6025,
  "Ġmember": 6027,
  "Ġcustomers": 6028,
  "ĠWest": 6029,
  "Ġcontr": 6030,
  "acity": 6031,
  "Ġek": 6033,
  "attr": 6035,
  "client": 6037,
  "light": 6038,
  "eli": 6039,
  "Ġdiffic": 6040,
  "ĠPa": 6041,
  "ĠOut": 6042,
  "udi": 6043,
  "Top": 6046,
  "Ġearly": 6047,
  "ĠPlease": 6048,
  "Ġweight": 6049,
  "tributed": 6050,
  "Ġdim": 6051,
  "Ġanswer": 6052,
  "ello": 6053,
  "Ġidea": 6056,
  "Ġterr": 6057,
  "Ġhier": 6058,
  "Ġgovernment": 6059,
  "ĠApr": 6060,
  "ĉp": 6061,
  "Ġwhole": 6062,
  "status": 6063,
  "Down": 6064,
  "undo": 6065,
  "Ġtook": 6066,
  "iler": 6067,
  "ĠDon": 6070,
  "abs": 6071,
  "env": 6073,
  "ĠCopyright": 6075,
  "xy": 6077,
  "Ġnormal": 6078,
  "Ġindic": 6079,
  "plac": 6081,
  "ĠSome": 6083,
  "Ġreading": 6085,
  "Ġissues": 6086,
  "Ġpassword": 6088,
  "ried": 6089,
  "Ġcut": 6092,
  "Ġapply": 6096,
  "ns": 6097,
  "Ġreceived": 6100,
  "Ġexpress": 6101,
  "address": 6104,
  "Ġbeautiful": 6107,
  "Ġsuggest": 6108,
  "inen": 6109,
  "Ġcoll": 6110,
  "orte": 6111,
  "oria": 6112,
  "aker": 6114,
  "views": 6115,
  "Ġmel": 6116,
  "ĠEd": 6117,
  "Ġneeded": 6118,
  "tributes": 6121,
  "Ġevents": 6124,
  "Types": 6125,
  "qual": 6129,
  "output": 6130,
  "omain": 6133,
  "Ġfi": 6134,
  "Description": 6135,
  "ĠHome": 6136,
  "Ġanything": 6137,
  "icip": 6144,
  "Ġcorrect": 6145,
  "TER": 6147,
  "Ġonder": 6149,
  "Ġtraining": 6151,
  "Tag": 6153,
  "Ġsy": 6157,
  "ĠCre": 6159,
  "Ġswitch": 6160,
  "ITY": 6161,
  "ums": 6162,
  "Ġregard": 6163,
  "level": 6164,
  "tty": 6165,
  "ffer": 6166,
  "Ġtaking": 6167,
  "Ġdelete": 6168,
  "Ġcenter": 6170,
  "Ġgi": 6171,
  "ĠPe": 6173,
  "Ġdraw": 6174,
  "ĠYork": 6175,
  "Ġnous": 6176,
  "Ġseen": 6177,
  "ĠAND": 6178,
  "Ġinternet": 6179,
  "_str": 6182,
  "ĠReact": 6184,
  "ĠTV": 6186,
  "Case": 6187,
  "Ġscreen": 6188,
  "emos": 6192,
  "acht": 6194,
  "rowser": 6195,
  "Frame": 6196,
  "rt": 6197,
  "Ġperformance": 6198,
  "Ġamong": 6200,
  "now": 6201,
  "ieren": 6202,
  "anced": 6205,
  "Dec": 6206,
  "istic": 6207,
  "ĠCheck": 6208,
  "Ġsing": 6211,
  "Ġlang": 6212,
  "Ġwonder": 6213,
  "ĠJust": 6214,
  "Ġprior": 6217,
  "ipment": 6219,
  "Ġtag": 6221,
  "riend": 6222,
  "Ġsession": 6223,
  "Ġinterface": 6225,
  "ILE": 6226,
  "ibil": 6228,
  "bs": 6229,
  "block": 6230,
  "Ġimpact": 6232,
  "Ġwww": 6233,
  "Ġremove": 6234,
  "igo": 6235,
  "_url": 6236,
  "anner": 6237,
  "untime": 6241,
  "Items": 6242,
  "msg": 6243,
  "Ġauth": 6246,
  "Ġnatural": 6247,
  "gi": 6248,
  "Ġkann": 6250,
  "Ġrate": 6251,
  "DA": 6253,
  "Ġpriv": 6254,
  "Ġrap": 6257,
  "IST": 6258,
  "aven": 6260,
  "ĉt": 6264,
  "ounter": 6265,
  "Ġloss": 6266,
  "ĠEurope": 6267,
  "Oper": 6269,
  "bor": 6270,
  "then": 6273,
  "Am": 6275,
  "oj": 6276,
  "ĠAcc": 6278,
  "Ġvotre": 6279,
  "Ġbuilding": 6282,
  "Ġcannot": 6284,
  "ras": 6285,
  "Ġfeature": 6286,
  "Ġintegr": 6287,
  "Ġactual": 6290,
  "Ġfiles": 6291,
  "issions": 6296,
  "adu": 6297,
  "hl": 6300,
  "Ġrelationship": 6301,
  "icos": 6302,
  "asta": 6307,
  "Output": 6310,
  "ĠAfter": 6311,
  "Ġsec": 6312,
  "chema": 6313,
  "imento": 6314,
  "ULT": 6315,
  "adem": 6317,
  "ĠReturn": 6318,
  "Ġopp": 6323,
  "Ġinit": 6327,
  "host": 6328,
  "with": 6332,
  "ago": 6334,
  "Ġtro": 6336,
  "Ġtechnology": 6340,
  "Ġbrand": 6341,
  "kin": 6342,
  "pc": 6344,
  "Ġcommand": 6348,
  "UG": 6349,
  "ided": 6350,
  "Te": 6352,
  "Ġvoc": 6353,
  "Ġexact": 6354,
  "Ġcomfort": 6355,
  "Ġbackground": 6357,
  "ober": 6358,
  "MS": 6359,
  "edit": 6360,
  "Ġplatform": 6361,
  "Rel": 6362,
  "Ġgrand": 6363,
  "ellen": 6364,
  "Ġimplement": 6365,
  "heet": 6366,
  "Ġworden": 6367,
  "Ġpercent": 6368,
  "alle": 6369,
  "izes": 6370,
  "Ġhotel": 6372,
  "Ġhalf": 6375,
  "Card": 6376,
  "Ġsig": 6377,
  "ÃŃs": 6380,
  "kom": 6382,
  "Ã©d": 6383,
  "Ġexcept": 6384,
  "Ġsen": 6385,
  "Ġselected": 6386,
  "ĠHot": 6387,
  "Auth": 6388,
  "Ġpan": 6389,
  "Ġwords": 6391,
  "Ġcomponent": 6392,
  "Ġrights": 6393,
  "Ġresol": 6394,
  "ĠPres": 6395,
  "izing": 6396,
  "odo": 6397,
  "ĠEvent": 6400,
  "Ver": 6402,
  "Ġpi": 6404,
  "Ġliving": 6405,
  "acion": 6408,
  "Ġconditions": 6409,
  "Ġtravel": 6410,
  "Ġmanagement": 6411,
  "ĠPark": 6412,
  "POST": 6418,
  "Ġseu": 6419,
  "vision": 6421,
  "Br": 6422,
  "Ġbelieve": 6423,
  "_time": 6425,
  "Ġsites": 6427,
  "Ġfoot": 6428,
  "ĠTrue": 6432,
  "ĠST": 6433,
  "rs": 6435,
  "ĠEnd": 6437,
  "Ġlanguage": 6439,
  "ership": 6441,
  "Ġreceive": 6442,
  "ROM": 6443,
  "Server": 6444,
  "Ġclaim": 6445,
  "Ġdog": 6446,
  "Open": 6447,
  "Window": 6448,
  "Do": 6449,
  "player": 6450,
  "Ġpotential": 6451,
  "Ġfire": 6452,
  "ĠGre": 6454,
  "Ġstaff": 6456,
  "dir": 6457,
  "Ġnog": 6458,
  "though": 6460,
  "Ġwhite": 6461,
  "Ġsimply": 6462,
  "Stat": 6466,
  "Ġveh": 6467,
  "Ġfive": 6468,
  "fs": 6469,
  "section": 6471,
  "tries": 6473,
  "Ã±o": 6475,
  "Ġesta": 6476,
  "aria": 6477,
  "ismo": 6481,
  "Thread": 6482,
  "enta": 6483,
  "inner": 6484,
  "efore": 6485,
  "Ġill": 6486,
  "gest": 6488,
  "igin": 6489,
  "Ġkar": 6490,
  "translation": 6492,
  "ĠService": 6493,
  "ety": 6494,
  "ERT": 6495,
  "Ġdescription": 6496,
  "airs": 6498,
  "Max": 6499,
  "uni": 6500,
  "ĠOct": 6501,
  "oph": 6502,
  "tex": 6503,
  "ĠPort": 6504,
  "Ġmut": 6505,
  "esta": 6507,
  "Ġentire": 6508,
  "Ġhol": 6509,
  "ori": 6510,
  "Level": 6513,
  "bit": 6516,
  "Ġdro": 6517,
  "ursor": 6519,
  "Ġtodo": 6520,
  "Ġcasino": 6521,
  "Ġju": 6522,
  "Ġeveryone": 6524,
  "ĠHer": 6526,
  "alo": 6527,
  "ĠSw": 6529,
  "ptember": 6531,
  "iso": 6532,
  "_get": 6533,
  "Ġconv": 6535,
  "ĠDef": 6536,
  "ĠAp": 6537,
  "Ġbud": 6538,
  "alls": 6539,
  "Ġnou": 6540,
  "Ġdifficult": 6541,
  "ĠSE": 6542,
  "Ġfurther": 6544,
  "omet": 6545,
  "Ġstock": 6546,
  "ĠNow": 6549,
  "izar": 6552,
  "find": 6555,
  "Ġger": 6556,
  "Ġwird": 6557,
  "icrosoft": 6558,
  "ĠStud": 6561,
  "Length": 6563,
  "Ġdeze": 6564,
  "Ġdecl": 6567,
  "Ã¡l": 6568,
  "istry": 6569,
  "Ġnas": 6575,
  "Current": 6576,
  "Ġroot": 6577,
  "Ġgam": 6579,
  "click": 6580,
  "Bo": 6581,
  "AGE": 6582,
  "_E": 6584,
  "ĠCreate": 6585,
  "ĠSchool": 6586,
  "coming": 6587,
  "Ġemb": 6588,
  "Ġsaf": 6590,
  "igt": 6591,
  "Ġvir": 6592,
  "ellent": 6594,
  "ham": 6595,
  "lem": 6596,
  "ĠHigh": 6597,
  "Params": 6598,
  "ĠZe": 6599,
  "uw": 6600,
  "Ġts": 6601,
  "Ġtoken": 6602,
  "itting": 6603,
  "aste": 6604,
  "ABLE": 6606,
  "Ġord": 6608,
  "istory": 6609,
  "ĠSan": 6610,
  "ĠInteger": 6611,
  "ĠSol": 6615,
  "ĠMus": 6619,
  "ĠMa": 6621,
  "Email": 6622,
  "Ġadditional": 6623,
  "DF": 6624,
  "ĠAir": 6625,
  "Ġissue": 6626,
  "Game": 6627,
  "iene": 6628,
  "Ġchanges": 6629,
  "Web": 6633,
  "Ã©g": 6634,
  "ije": 6636,
  "Ä±r": 6637,
  "Adapter": 6640,
  "_ID": 6641,
  "oder": 6642,
  "_DE": 6644,
  "aren": 6645,
  "Ġhan": 6648,
  "imm": 6649,
  "Ġpaper": 6651,
  "Ġcele": 6653,
  "SP": 6657,
  "Ġincludes": 6664,
  "cher": 6665,
  "Ġga": 6666,
  "see": 6667,
  "sem": 6668,
  "weet": 6671,
  "ERS": 6673,
  "anning": 6674,
  "Ġyourself": 6675,
  "Ġsua": 6677,
  "ĠPat": 6679,
  "offset": 6680,
  "Lo": 6681,
  "last": 6684,
  "Ġmarketing": 6686,
  "Ġforward": 6687,
  "ĠTime": 6688,
  "Ġfilter": 6690,
  "pg": 6691,
  "Ġmir": 6692,
  "enses": 6694,
  "Ġtaken": 6697,
  "Ġcontract": 6698,
  "Ġtrying": 6700,
  "idge": 6701,
  "Json": 6702,
  "Ġconnection": 6703,
  "Ġtech": 6705,
  "Ġbab": 6706,
  "Ġses": 6707,
  "igher": 6708,
  "Ġcrit": 6709,
  "actions": 6711,
  "Min": 6712,
  "Ġbill": 6713,
  "osed": 6714,
  "Ġrefer": 6716,
  "Ġaz": 6717,
  "lose": 6719,
  "lik": 6720,
  "Record": 6721,
  "sten": 6722,
  "Ġareas": 6723,
  "_key": 6724,
  "Ġactive": 6725,
  "Ġhowever": 6726,
  "Unit": 6728,
  "Ã¸r": 6729,
  "Ã¤nd": 6730,
  "ĠfÃ¶r": 6731,
  "_value": 6734,
  "ĠStates": 6737,
  "bi": 6738,
  "Equals": 6739,
  "ointer": 6740,
  "Ġinde": 6741,
  "ĠNational": 6743,
  "_info": 6744,
  "Password": 6746,
  "dev": 6751,
  "Ġquite": 6752,
  "Ġreserv": 6754,
  "Ġensure": 6757,
  "AND": 6758,
  "ĠServ": 6759,
  "Ġstudent": 6760,
  "Ġborder": 6761,
  "yes": 6763,
  "Ġmode": 6766,
  "Ġsimilar": 6771,
  "Ġinside": 6772,
  "Ãªtre": 6773,
  "Ġeinen": 6775,
  "cing": 6776,
  "Ã©l": 6778,
  "Ġsoon": 6780,
  "CA": 6781,
  "Ġdal": 6782,
  "Ġtom": 6784,
  "Ġwor": 6785,
  "Ġalmost": 6787,
  "Ġrunning": 6788,
  "ĠCount": 6789,
  "Ġfinancial": 6790,
  "Ġsepar": 6791,
  "ĠTH": 6794,
  "Ġboard": 6796,
  "lam": 6797,
  "ĠSouth": 6800,
  "gar": 6802,
  "pected": 6803,
  "Ġplant": 6804,
  "Ġdoc": 6806,
  "Ġax": 6807,
  "aves": 6808,
  "Ġmodern": 6809,
  "udo": 6812,
  "ĠEnt": 6815,
  "Entry": 6816,
  "Application": 6817,
  "Ġcurrently": 6821,
  "ĠColor": 6822,
  "ĠWork": 6823,
  "uli": 6824,
  "endar": 6827,
  "_A": 6829,
  "car": 6830,
  "Ġfan": 6831,
  "Ġwaar": 6833,
  "oz": 6834,
  "ĠWill": 6835,
  "Ġsv": 6836,
  "Ġera": 6837,
  "âĢĻest": 6838,
  "Ġproblems": 6840,
  "CTION": 6841,
  "Ġtab": 6842,
  "opping": 6843,
  "anga": 6845,
  "ĠException": 6851,
  "Ġflex": 6852,
  "Ġstream": 6855,
  "Ġful": 6856,
  "empty": 6857,
  "akes": 6861,
  "hem": 6863,
  "bon": 6865,
  "Ġnur": 6866,
  "vest": 6869,
  "Ġprem": 6870,
  "Ġcredit": 6871,
  "Ġmuit": 6873,
  "tx": 6874,
  "Ġjed": 6877,
  "ERE": 6878,
  "Ġded": 6879,
  "Ã¡c": 6881,
  "Rem": 6882,
  "Ġdesigned": 6884,
  "Ġoffice": 6885,
  "hib": 6886,
  "ĠNa": 6888,
  "uda": 6889,
  "ĠRem": 6890,
  "Function": 6892,
  "ban": 6893,
  "Ġtemplate": 6894,
  "igger": 6895,
  "container": 6896,
  "ifi": 6897,
  "Ġlatest": 6898,
  "ĠBest": 6899,
  "pare": 6900,
  "adius": 6901,
  "afe": 6903,
  "Book": 6904,
  "ĠUI": 6905,
  "iting": 6906,
  "ahr": 6907,
  "Work": 6908,
  "tml": 6909,
  "ĠOnline": 6910,
  "Ġthird": 6914,
  "hu": 6916,
  "items": 6918,
  "peed": 6919,
  "Ġfamil": 6920,
  "Ġinsp": 6921,
  "Ġbank": 6922,
  "ev": 6923,
  "Ġtodos": 6925,
  "Ġaqu": 6926,
  "Ġfem": 6927,
  "Ġsab": 6928,
  "can": 6929,
  "Ġlower": 6931,
  "Ġsignificant": 6933,
  "selves": 6934,
  "osa": 6935,
  "Init": 6936,
  "otype": 6937,
  "Ġnothing": 6939,
  "Session": 6941,
  "Ġeffort": 6942,
  "ĠHet": 6947,
  "Ġtakes": 6948,
  "Last": 6949,
  "ĠNS": 6950,
  "ĠBook": 6951,
  "Ġregular": 6953,
  "Ġfill": 6954,
  "rapper": 6955,
  "Ġheeft": 6956,
  "Ġcompr": 6957,
  "Ġbin": 6958,
  "Ġmid": 6959,
  "Ġlikely": 6960,
  "king": 6962,
  "Ġfra": 6964,
  "Ãªncia": 6965,
  "Parameter": 6966,
  "Ġtold": 6967,
  "isse": 6969,
  "Ġtour": 6970,
  "Ġusually": 6971,
  "quence": 6975,
  "Ġready": 6977,
  "core": 6978,
  "Ġhac": 6979,
  "Ġespecially": 6980,
  "Ġmsg": 6981,
  "Ġgew": 6982,
  "Ġways": 6984,
  "cry": 6985,
  "ĠAc": 6986,
  "och": 6988,
  "pm": 6991,
  "uv": 6992,
  "isation": 6993,
  "fin": 6994,
  "icient": 6995,
  "Ġorganiz": 6997,
  "eler": 6998,
  "Args": 6999,
  "Ġdeliver": 7000,
  "Ġib": 7002,
  "ĠType": 7003,
  "node": 7005,
  "ĠFacebook": 7006,
  "bers": 7008,
  "fil": 7009,
  "uta": 7010,
  "ALL": 7011,
  "Ġrestaur": 7012,
  "Ġrecommend": 7013,
  "Ġmodels": 7015,
  "Av": 7016,
  "ĠAnt": 7019,
  "Collections": 7020,
  "ĠGame": 7022,
  "Ġstandard": 7024,
  "adata": 7025,
  "CR": 7027,
  "Ġrequ": 7028,
  "ĠLes": 7029,
  "register": 7030,
  "Ġrisk": 7031,
  "while": 7032,
  "ithub": 7034,
  "awa": 7036,
  "Ġprobably": 7038,
  "Ġparams": 7039,
  "pha": 7040,
  "Ġreviews": 7042,
  "images": 7045,
  "ĠkÃ¶n": 7047,
  "Ġmanufact": 7049,
  "ischen": 7050,
  "Ġagre": 7053,
  "_x": 7054,
  "Ġtar": 7057,
  "Ġdigital": 7058,
  "Ġcondition": 7060,
  "efined": 7061,
  "ĠSoc": 7062,
  "apa": 7063,
  "Ġincrease": 7064,
  "Ġaccording": 7065,
  "ĉString": 7066,
  "nÃŃ": 7067,
  "IA": 7068,
  "iding": 7069,
  "Ġentr": 7072,
  "Ġcause": 7075,
  "ĠTw": 7077,
  "Interface": 7078,
  "ĠInc": 7079,
  "Phone": 7081,
  "atas": 7085,
  "arth": 7087,
  "Mon": 7088,
  "tribution": 7090,
  "amily": 7091,
  "verse": 7093,
  "Ġvez": 7094,
  "Ġtut": 7095,
  "Version": 7096,
  "Ġplac": 7097,
  "avigation": 7098,
  "ĠDel": 7099,
  "ĠDay": 7100,
  "Ġsection": 7102,
  "Ġhit": 7103,
  "ctx": 7105,
  "Ġlov": 7106,
  "mos": 7107,
  "ĠHand": 7110,
  "Ġfail": 7111,
  "Api": 7112,
  "FT": 7114,
  "ĠNOT": 7116,
  "Ġsong": 7117,
  "Ġtransform": 7118,
  "mbly": 7120,
  "Obj": 7121,
  "_se": 7123,
  "Ġknowledge": 7124,
  "iny": 7125,
  "ĉbreak": 7126,
  "First": 7127,
  "alar": 7129,
  "ourse": 7130,
  "enge": 7131,
  "aki": 7132,
  "Ã±os": 7133,
  "rest": 7134,
  "Ġapproach": 7139,
  "angle": 7140,
  "Ġmobile": 7141,
  "Ġproduction": 7142,
  "Ġbag": 7144,
  "_user": 7146,
  "oding": 7148,
  "Ġlie": 7149,
  "Ġhappy": 7150,
  "adores": 7151,
  "Details": 7152,
  "INT": 7154,
  "Ġsales": 7155,
  "heid": 7157,
  "Ġchoice": 7158,
  "merc": 7159,
  "Ġfab": 7160,
  "Ġconsum": 7164,
  "Ġmatter": 7165,
  "holder": 7166,
  "Ġcouple": 7167,
  "Ġrelated": 7168,
  "ĠRob": 7169,
  "dule": 7170,
  "Reader": 7171,
  "Helper": 7173,
  "emp": 7175,
  "Ġfo": 7176,
  "Ġrecent": 7178,
  "ĠNorth": 7180,
  "Ġdefinit": 7181,
  "avi": 7183,
  "Ġbooks": 7187,
  "ĠPM": 7188,
  "ĠMod": 7191,
  "ikk": 7192,
  "emo": 7196,
  "tras": 7197,
  "apan": 7198,
  "Tool": 7199,
  "Ġwanted": 7201,
  "btn": 7202,
  "Ġsecurity": 7203,
  "Ġbis": 7204,
  "src": 7205,
  "ĠWindows": 7206,
  "Process": 7212,
  "iko": 7214,
  "imi": 7215,
  "byte": 7216,
  "ĠFrom": 7217,
  "Ġestab": 7218,
  "ĠAM": 7219,
  "values": 7222,
  "Ġsubs": 7224,
  "Ġru": 7225,
  "ĠSl": 7226,
  "ĠMet": 7227,
  "Ġdise": 7228,
  "Ġfoi": 7229,
  "Ġdrug": 7231,
  "UB": 7232,
  "sets": 7234,
  "ches": 7235,
  "Body": 7237,
  "Ġplayers": 7238,
  "Ġimm": 7240,
  "atar": 7242,
  "Ġyo": 7243,
  "Ġcoming": 7245,
  "Sl": 7246,
  "Ġamaz": 7247,
  "ĠCenter": 7249,
  "eline": 7250,
  "Ġentry": 7251,
  "sch": 7253,
  "auto": 7254,
  "_col": 7255,
  "Ġreq": 7257,
  "Ġaj": 7261,
  "Ġpretty": 7264,
  "Ġdesc": 7265,
  "Ġhigher": 7266,
  "Ġmeer": 7267,
  "ĠMath": 7268,
  "Ġpublished": 7269,
  "irit": 7270,
  "Ġbol": 7271,
  "ospital": 7273,
  "ĠFeb": 7274,
  "ining": 7276,
  "Ste": 7279,
  "ishing": 7281,
  "uster": 7282,
  "ĠFound": 7283,
  "Ġpero": 7284,
  "raint": 7285,
  "Engine": 7286,
  "bum": 7289,
  "echo": 7290,
  "nb": 7291,
  "atory": 7295,
  "PT": 7296,
  "Ġframe": 7298,
  "ening": 7299,
  "chan": 7300,
  "Account": 7303,
  "ĠHere": 7306,
  "Ġaltern": 7310,
  "next": 7311,
  "Ġofficial": 7313,
  "Ġpurchase": 7314,
  "kr": 7316,
  "ĠName": 7317,
  "Store": 7319,
  "lice": 7321,
  "Ġgas": 7322,
  "ekt": 7323,
  "Access": 7324,
  "Ġvel": 7326,
  "ÃŃn": 7327,
  "Ġig": 7328,
  "aling": 7330,
  "ead": 7331,
  "Ġprevent": 7332,
  "empl": 7333,
  "Ġsun": 7334,
  "ĠProgram": 7335,
  "Ġris": 7339,
  "temp": 7340,
  "Ġmachine": 7342,
  "ĠMap": 7343,
  "Ġvirtual": 7346,
  "_SIZE": 7347,
  "orge": 7348,
  "PC": 7349,
  "Ġsound": 7351,
  "rown": 7352,
  "Ġround": 7353,
  "ĠWH": 7354,
  "Widget": 7356,
  "Ġsale": 7357,
  "etime": 7359,
  "Ġincluded": 7360,
  "Ġparty": 7362,
  "Ġprefer": 7363,
  "Ġnoch": 7364,
  "ITH": 7366,
  "acks": 7367,
  "Ġtur": 7369,
  "ads": 7371,
  "Ġconcern": 7372,
  "Ġabsol": 7374,
  "idas": 7375,
  "ACK": 7376,
  "Ġreturns": 7377,
  "ASS": 7378,
  "Ġeiner": 7379,
  "ĠInternet": 7380,
  "Ġtouch": 7381,
  "ensor": 7382,
  "Ext": 7384,
  "dom": 7385,
  "Ġarch": 7386,
  "arter": 7390,
  "Ġinvestig": 7392,
  "only": 7393,
  "tag": 7394,
  "Ġoil": 7396,
  "ideos": 7397,
  "Ġshows": 7398,
  "inition": 7399,
  "asc": 7400,
  "ensions": 7401,
  "Ġpel": 7402,
  "Ġnice": 7403,
  "Ġzum": 7404,
  "Ġci": 7405,
  "Ġprogress": 7408,
  "Ġtemper": 7409,
  "_tr": 7410,
  "Ġlonger": 7411,
  "Ġmai": 7412,
  "quare": 7414,
  "oni": 7415,
  "Ġresources": 7416,
  "Price": 7417,
  "enden": 7418,
  "adh": 7422,
  "geb": 7425,
  "ĠEX": 7428,
  "Ġsix": 7429,
  "Ġkr": 7430,
  "BA": 7431,
  "Ġpain": 7432,
  "ptr": 7433,
  "oko": 7435,
  "Ġsell": 7437,
  "styles": 7438,
  "ournal": 7440,
  "Ġparte": 7441,
  "oring": 7443,
  "Ġfol": 7445,
  "ague": 7447,
  "Ġtreatment": 7448,
  "Ġweeks": 7449,
  "ĠProduct": 7451,
  "duc": 7452,
  "LL": 7454,
  "ares": 7458,
  "Category": 7460,
  "Ġesp": 7461,
  "ĠsÃ©": 7462,
  "prise": 7463,
  "alia": 7464,
  "Ġgraph": 7465,
  "iser": 7466,
  "ictionary": 7467,
  "otion": 7469,
  "Ġeinem": 7470,
  "Left": 7471,
  "Ġfait": 7473,
  "ailed": 7476,
  "Ġnote": 7477,
  "ARR": 7478,
  "wise": 7480,
  "fol": 7481,
  "acional": 7482,
  "auf": 7483,
  "esc": 7484,
  "Ġclients": 7485,
  "wi": 7491,
  "Ġmenu": 7492,
  "Ġimages": 7493,
  "yy": 7496,
  "Selected": 7498,
  "area": 7502,
  "Ġheld": 7504,
  "Ġannoun": 7505,
  "bug": 7506,
  "Ġhaben": 7507,
  "iche": 7509,
  "Ġsystems": 7511,
  "Ġdrive": 7515,
  "Ġtor": 7516,
  "ango": 7518,
  "Ġhun": 7523,
  "Ġlearning": 7524,
  "Ġrandom": 7526,
  "ĠUR": 7528,
  "Ġgest": 7529,
  "_con": 7531,
  "Ġcontinu": 7532,
  "ilo": 7533,
  "_count": 7536,
  "Ġhy": 7537,
  "Ġviol": 7538,
  "Ġoutside": 7539,
  "ĠAv": 7541,
  "Ġrather": 7542,
  "Ġinternational": 7544,
  "Ġanyone": 7545,
  "esso": 7546,
  "inst": 7547,
  "Ġforma": 7548,
  "Ġworth": 7549,
  "BC": 7551,
  "enz": 7553,
  "aks": 7554,
  "eto": 7555,
  "false": 7556,
  "Ġupon": 7557,
  "ests": 7558,
  "Ġcalcul": 7559,
  "ĠMarch": 7561,
  "Ġpolicy": 7562,
  "ĠSoftware": 7564,
  "Ġlocated": 7567,
  "anuary": 7568,
  "Ġintrodu": 7569,
  "flow": 7571,
  "Press": 7572,
  "Ġaud": 7575,
  "Ġsolution": 7578,
  "Ġfaz": 7579,
  "Vector": 7580,
  "Ġdistributed": 7581,
  "Ġwritten": 7582,
  "Ġvert": 7583,
  "lang": 7585,
  "Ġfacil": 7586,
  "ography": 7587,
  "onder": 7588,
  "jes": 7590,
  "ĠHar": 7591,
  "istics": 7592,
  "dy": 7593,
  "bed": 7594,
  "Ġcomputer": 7595,
  "Ġmultiple": 7598,
  "aman": 7601,
  "vector": 7603,
  "amera": 7604,
  "xx": 7605,
  "aly": 7606,
  "INE": 7607,
  "ady": 7609,
  "password": 7612,
  "ĠBlack": 7613,
  "imary": 7614,
  "ynamic": 7617,
  "hol": 7618,
  "Ġconfirm": 7620,
  "ĠFOR": 7625,
  "nav": 7626,
  "Ġreach": 7627,
  "price": 7629,
  "Ġhij": 7630,
  "agram": 7632,
  "Ġmens": 7634,
  "Ã§o": 7638,
  "atisf": 7639,
  "nie": 7640,
  "Ġnem": 7641,
  "itu": 7642,
  "ĠInst": 7643,
  "Ġnt": 7646,
  "ĠUse": 7649,
  "Configuration": 7650,
  "Pol": 7651,
  "IE": 7654,
  "ĠApril": 7655,
  "Route": 7656,
  "ungs": 7661,
  "ĠEN": 7662,
  "Ġinstead": 7665,
  "raf": 7666,
  "Ġleave": 7668,
  "Ġunit": 7670,
  "END": 7671,
  "Que": 7674,
  "Ġei": 7675,
  "ees": 7678,
  "Ġappear": 7680,
  "TP": 7683,
  "Ã¤l": 7684,
  "Ġfeed": 7685,
  "riteria": 7686,
  "card": 7687,
  "Ġpropos": 7688,
  "OST": 7689,
  "Ġsan": 7690,
  "ountry": 7691,
  "location": 7693,
  "ĠcÃ³": 7694,
  "Next": 7695,
  "Ġcette": 7696,
  "Ġrele": 7698,
  "Ġwordt": 7699,
  "Local": 7700,
  "Ġdia": 7701,
  "eno": 7702,
  "Ġsafe": 7703,
  "Ġtransport": 7704,
  "ĠÃ¤r": 7706,
  "ayment": 7710,
  "Cal": 7712,
  "eh": 7714,
  "Ã¢n": 7717,
  "inar": 7718,
  "cu": 7719,
  "NU": 7721,
  "ĠEnglish": 7725,
  "FO": 7726,
  "itchen": 7729,
  "XX": 7730,
  "main": 7731,
  "Ġspeed": 7733,
  "rupt": 7736,
  "Ġground": 7740,
  "first": 7743,
  "Ġkids": 7745,
  "irection": 7746,
  "Ġasked": 7747,
  "_index": 7748,
  "Ġlegal": 7749,
  "Ġbul": 7750,
  "ERROR": 7751,
  "adr": 7753,
  "Ġul": 7754,
  "Ġadministr": 7755,
  "Ġassist": 7756,
  "Ġvac": 7757,
  "akan": 7759,
  "ĠAfr": 7760,
  "Ãºn": 7761,
  "login": 7762,
  "Op": 7766,
  "Ġnational": 7769,
  "Ġcelebr": 7770,
  "ĠFin": 7772,
  "ellow": 7773,
  "Ġmedical": 7774,
  "ederal": 7775,
  "mercial": 7777,
  "arden": 7780,
  "ĠDesign": 7783,
  "ĠAustr": 7785,
  "pack": 7786,
  "ĠOpen": 7788,
  "urrency": 7789,
  "ĠLong": 7790,
  "ĠHis": 7792,
  "tocol": 7794,
  "Ġapr": 7795,
  "oub": 7796,
  "Settings": 7797,
  "Ä±nd": 7798,
  "GET": 7800,
  "ĠThen": 7801,
  "esch": 7802,
  "Red": 7805,
  "Ġbehind": 7807,
  "Ġrom": 7809,
  "hood": 7812,
  "nder": 7813,
  "ĉSystem": 7815,
  "plete": 7817,
  "Found": 7818,
  "Ġrecogn": 7819,
  "icha": 7821,
  "CP": 7824,
  "ĠMal": 7825,
  "ĠHouse": 7826,
  "float": 7829,
  "Ġtit": 7831,
  "ĠSi": 7832,
  "GL": 7833,
  "Storage": 7834,
  "Ġeasily": 7835,
  "ĠFre": 7836,
  "ipl": 7840,
  "Ġproced": 7841,
  "hold": 7842,
  "ĠJune": 7843,
  "Ġlate": 7844,
  "Ġflow": 7845,
  "zu": 7846,
  "ajo": 7847,
  "Ġaverage": 7848,
  "ĠGroup": 7849,
  "Ġeducation": 7850,
  "ĠSal": 7851,
  "LECT": 7852,
  "ĠGo": 7857,
  "ĠDirect": 7858,
  "edi": 7859,
  "Ġdatabase": 7862,
  "ĠBro": 7864,
  "Ġideas": 7865,
  "Ġnature": 7867,
  "Ġopportunity": 7868,
  "ifest": 7869,
  "Ġskills": 7870,
  "cm": 7871,
  "Rect": 7872,
  "ĠMag": 7873,
  "Ġspr": 7874,
  "Ġmaterials": 7875,
  "Ġthroughout": 7876,
  "Ã¼ck": 7877,
  "inda": 7878,
  "ecur": 7879,
  "Ġball": 7880,
  "Ġparts": 7881,
  "Ġnorm": 7882,
  "Ġimag": 7883,
  "Ġcha": 7884,
  "iza": 7885,
  "grid": 7886,
  "Ġcomments": 7887,
  "ĠvocÃª": 7888,
  "Target": 7889,
  "Ġseems": 7890,
  "ono": 7891,
  "Ġtill": 7892,
  "amin": 7893,
  "ĠANY": 7894,
  "RA": 7896,
  "Sign": 7898,
  "Ġaffect": 7902,
  "ilder": 7903,
  "illed": 7905,
  "Ġicon": 7906,
  "Ġpaint": 7907,
  "ĠSk": 7909,
  "Ġcases": 7911,
  "blic": 7912,
  "length": 7914,
  "oday": 7915,
  "Ġcollect": 7916,
  "ĠTO": 7918,
  "Each": 7919,
  "ĠHol": 7921,
  "imation": 7922,
  "ĠHealth": 7923,
  "That": 7924,
  "ĠKey": 7926,
  "Ġallows": 7927,
  "Ġstorage": 7928,
  "Long": 7930,
  "ĠOver": 7931,
  "Ġmethods": 7933,
  "ĠMc": 7935,
  "Ġcharg": 7936,
  "Ġproper": 7937,
  "Ġcandid": 7938,
  "ĠAugust": 7940,
  "icket": 7941,
  "Our": 7942,
  "But": 7943,
  "icker": 7944,
  "ceed": 7945,
  "itation": 7949,
  "avy": 7951,
  "vey": 7953,
  "ĠMain": 7956,
  "aje": 7957,
  "Project": 7960,
  "Ãªme": 7961,
  "entry": 7962,
  "anya": 7963,
  "Ġzur": 7964,
  "UD": 7965,
  "Ġsein": 7966,
  "Ġregion": 7967,
  "Ġvariety": 7968,
  "inger": 7969,
  "Ġcomme": 7971,
  "ĠStart": 7972,
  "ĠSim": 7973,
  "sql": 7976,
  "graph": 7978,
  "ĠImage": 7979,
  "band": 7982,
  "ĠFalse": 7983,
  "Ġskin": 7987,
  "Ġpun": 7989,
  "Changed": 7991,
  "Ġip": 7993,
  "Ġexcellent": 7994,
  "acing": 7997,
  "Ġchat": 7999,
  "Dep": 8000,
  "emory": 8002,
  "ORD": 8004,
  "van": 8005,
  "Selector": 8011,
  "Ġcomplex": 8012,
  "zz": 8013,
  "atives": 8015,
  "Ġexception": 8020,
  "ĠTop": 8022,
  "_of": 8023,
  "Ġfort": 8024,
  "BO": 8025,
  "ocr": 8026,
  "Ġdeath": 8027,
  "ĠAS": 8033,
  "Ġhebben": 8035,
  "Co": 8037,
  "Ġcop": 8039,
  "ancel": 8040,
  "eneric": 8041,
  "_SE": 8043,
  "term": 8044,
  "ODO": 8046,
  "ĠSeptember": 8051,
  "ĠlÃł": 8052,
  "quer": 8054,
  "aign": 8055,
  "module": 8056,
  "Ġchance": 8058,
  "ugu": 8060,
  "Tree": 8062,
  "Ġgel": 8063,
  "Ġquickly": 8065,
  "ĠCas": 8066,
  "exp": 8067,
  "lan": 8068,
  "vez": 8072,
  "region": 8073,
  "Ġnom": 8080,
  "imit": 8082,
  "ijke": 8083,
  "ĠBusiness": 8084,
  "Ġcross": 8088,
  "jen": 8090,
  "icate": 8091,
  "Option": 8093,
  "Ġprograms": 8094,
  "number": 8096,
  "EXT": 8099,
  "lat": 8100,
  "Ġsist": 8101,
  "cs": 8102,
  "Ġdeep": 8103,
  "Ġones": 8104,
  "Var": 8106,
  "Ġhair": 8107,
  "ĠAmerica": 8108,
  "Ġlock": 8109,
  "Ġactivity": 8110,
  "Ġinsurance": 8112,
  "Ġbuilt": 8113,
  "ĠChina": 8114,
  "Ġwish": 8115,
  "ayers": 8116,
  "Ġleading": 8117,
  "Ġfaire": 8119,
  "engan": 8126,
  "qq": 8127,
  "MA": 8131,
  "Login": 8133,
  "ĠDav": 8135,
  "eting": 8139,
  "Impl": 8140,
  "URE": 8141,
  "Ġseek": 8142,
  "Mapping": 8146,
  "imb": 8147,
  "Ġpatients": 8148,
  "Ġcart": 8149,
  "rot": 8150,
  "attle": 8154,
  "Ġnecessary": 8155,
  "ĠDan": 8156,
  "Ġcool": 8157,
  "witch": 8159,
  "ĠCons": 8160,
  "Ġtree": 8165,
  "False": 8168,
  "top": 8169,
  "ĠJuly": 8170,
  "ahl": 8171,
  "wood": 8172,
  "Ġactivities": 8173,
  "Ġwide": 8174,
  "tempt": 8175,
  "Ġband": 8177,
  "Ne": 8179,
  "API": 8180,
  "font": 8181,
  "mar": 8185,
  "ĠModel": 8186,
  "After": 8188,
  "aire": 8189,
  "Ġnan": 8190,
  "Return": 8191,
  "ipped": 8193,
  "Ġresid": 8195,
  "Ġmemory": 8197,
  "Ġinstit": 8198,
  "Ġconsult": 8199,
  "inos": 8200,
  "Ġwrong": 8201,
  "Ġremember": 8203,
  "ĠJSON": 8205,
  "users": 8206,
  "style": 8207,
  "ĠId": 8210,
  "Ġheader": 8211,
  "Ġempty": 8213,
  "_by": 8214,
  "Ġslot": 8215,
  "account": 8218,
  "ĠSuper": 8220,
  "Ġunt": 8222,
  "Delete": 8223,
  "Ġlooks": 8224,
  "Port": 8226,
  "Ġimplements": 8227,
  "more": 8229,
  "tect": 8230,
  "Ġrelease": 8232,
  "Ġcirc": 8233,
  "Ġtown": 8234,
  "ĠBer": 8236,
  "Ġquant": 8237,
  "ship": 8238,
  "Active": 8240,
  "zie": 8243,
  "sen": 8244,
  "Ġfant": 8245,
  "Ġfilename": 8246,
  "Ġpractice": 8248,
  "Ġmovie": 8249,
  "weight": 8250,
  "ikt": 8251,
  "Ġplaying": 8252,
  "Ġstar": 8253,
  "_at": 8254,
  "Please": 8256,
  "CD": 8257,
  "upp": 8258,
  "JSON": 8259,
  "jer": 8260,
  "ĠPerson": 8263,
  "ĠMac": 8264,
  "Ġgan": 8265,
  "Ġgrowth": 8266,
  "Ġaber": 8267,
  "ordin": 8268,
  "ĠCounty": 8269,
  "Total": 8270,
  "Ġcada": 8272,
  "anges": 8273,
  "Ġsaw": 8274,
  "Ġdiscover": 8275,
  "Ġkas": 8277,
  "Values": 8278,
  "ĠKe": 8280,
  "ĠAny": 8281,
  "Ġmeng": 8283,
  "Ġimmed": 8284,
  "Ġability": 8285,
  "oker": 8286,
  "EST": 8292,
  "but": 8293,
  "atan": 8294,
  "Dir": 8295,
  "ĠDer": 8296,
  "Ġpap": 8297,
  "gal": 8298,
  "cd": 8301,
  "Ġpattern": 8302,
  "ington": 8303,
  "Ġresource": 8305,
  "Ġphotos": 8309,
  "CO": 8310,
  "lÄ±": 8311,
  "Ġhay": 8312,
  "Show": 8313,
  "template": 8314,
  "ymbol": 8315,
  "Ġuseful": 8316,
  "Controls": 8317,
  "ouw": 8318,
  "ĠMicrosoft": 8321,
  "ATA": 8322,
  "Ġtan": 8323,
  "cz": 8324,
  "_code": 8330,
  "Ġexpert": 8333,
  "ategories": 8337,
  "ĠFirst": 8338,
  "ological": 8339,
  "Ġfavorite": 8340,
  "Ġcompar": 8342,
  "avel": 8345,
  "ĠLink": 8348,
  "Ġton": 8349,
  "Ġfloor": 8350,
  "ĠHttp": 8351,
  "Ġlives": 8354,
  "Ġmargin": 8358,
  "Ġproperties": 8359,
  "Ġcharge": 8363,
  "ĠJes": 8365,
  "Ġtend": 8367,
  "arios": 8368,
  "ĠPRO": 8369,
  "ĠUK": 8370,
  "aken": 8371,
  "Art": 8372,
  "Ġlevels": 8374,
  "itable": 8375,
  "ongo": 8378,
  "Ġjour": 8379,
  "ARE": 8380,
  "Ġwur": 8381,
  "esh": 8382,
  "sta": 8383,
  "acters": 8385,
  "amed": 8386,
  "Ġpool": 8389,
  "_add": 8390,
  "ulu": 8391,
  "ĠPal": 8392,
  "Gl": 8394,
  "components": 8395,
  "Template": 8396,
  "Ġavoid": 8397,
  "mazon": 8399,
  "Ġimprove": 8400,
  "Vari": 8401,
  "Ġevalu": 8403,
  "Del": 8404,
  "ĠIndia": 8405,
  "ĠWhile": 8406,
  "Enabled": 8407,
  "yg": 8408,
  "lag": 8410,
  "xim": 8411,
  "ecurity": 8413,
  "iring": 8414,
  "Ġgod": 8415,
  "Ġfrequ": 8416,
  "Ġvida": 8417,
  "scope": 8418,
  "olf": 8419,
  "Ġparse": 8420,
  "aro": 8421,
  "Ġrecently": 8422,
  "Ġdaily": 8424,
  "Ġmehr": 8425,
  "onday": 8426,
  "actor": 8428,
  "Ġscore": 8429,
  "Ġempres": 8430,
  "long": 8431,
  "Ġcompl": 8432,
  "Ġequipment": 8435,
  "exports": 8436,
  "Ġtools": 8437,
  "Il": 8438,
  "Ġfirm": 8439,
  "Ġai": 8440,
  "Ġselection": 8441,
  "Properties": 8442,
  "Ġabs": 8443,
  "Ġcapt": 8444,
  "truct": 8445,
  "Main": 8447,
  "Ġliter": 8449,
  "Ġanalysis": 8450,
  "Ġprices": 8451,
  "Ġconvert": 8452,
  "ĠSa": 8455,
  "Font": 8456,
  "ova": 8458,
  "encies": 8459,
  "eden": 8460,
  "Ġcareer": 8461,
  "ĠBen": 8462,
  "Ġroll": 8465,
  "Ġamazing": 8467,
  "oms": 8469,
  "Use": 8470,
  "âĢĻd": 8471,
  "Ġboy": 8473,
  "Can": 8475,
  "acket": 8480,
  "Ġjo": 8483,
  "Ġverd": 8485,
  "Ġfinally": 8486,
  "fit": 8487,
  "Ġeffective": 8488,
  "Ġupdated": 8489,
  "Ġinflu": 8491,
  "Ġdemand": 8492,
  "Ġconcept": 8496,
  "ĠdÃ©c": 8498,
  "iÃ©n": 8499,
  "elles": 8500,
  "Ġtrust": 8501,
  "nu": 8502,
  "Ġbath": 8503,
  "utt": 8504,
  "None": 8505,
  "ersist": 8506,
  "aires": 8507,
  "Ġpros": 8508,
  "delete": 8509,
  "Ġfer": 8510,
  "Ġkle": 8511,
  "Ġsense": 8512,
  "Ġtrain": 8513,
  "unday": 8514,
  "Ġsz": 8515,
  "Ġdirectly": 8516,
  "ĠAut": 8517,
  "ĠFROM": 8519,
  "known": 8520,
  "Ġclub": 8522,
  "Ġdh": 8523,
  "Ġalert": 8524,
  "aries": 8526,
  "oro": 8527,
  "ĠTechn": 8529,
  "Ġliv": 8531,
  "Ġfields": 8532,
  "otes": 8534,
  "Ġdidn": 8536,
  "Ġpages": 8537,
  "Ã¡rio": 8539,
  "Ag": 8541,
  "Detail": 8542,
  "About": 8543,
  "ĠWar": 8545,
  "ĠCommun": 8550,
  "agem": 8551,
  "ondon": 8552,
  "NE": 8553,
  "Ġprojects": 8554,
  "ĠProm": 8555,
  "yth": 8556,
  "ĠsÃ¥": 8557,
  "ds": 8559,
  "inde": 8561,
  "urer": 8563,
  "Ġaspect": 8566,
  "Ġgold": 8568,
  "Ġkm": 8571,
  "Ġbuffer": 8573,
  "Props": 8576,
  "Hash": 8579,
  "firm": 8580,
  "Ã´ng": 8581,
  "Ġgoal": 8583,
  "ĠPC": 8584,
  "Ġvie": 8585,
  "ĠtÃ«": 8586,
  "Ġthread": 8591,
  "Ã¤h": 8592,
  "Msg": 8594,
  "dat": 8597,
  "stream": 8598,
  "Ġstarting": 8601,
  "eda": 8602,
  "Ã¶g": 8603,
  "pat": 8604,
  "isc": 8605,
  "arante": 8606,
  "ĠBel": 8607,
  "cciÃ³n": 8608,
  "_string": 8609,
  "ĠBrit": 8610,
  "Ġnotice": 8611,
  "Range": 8614,
  "Ġmoet": 8615,
  "Ġexerc": 8617,
  "ugar": 8619,
  "Ġlu": 8620,
  "PR": 8621,
  "ners": 8622,
  "ĠInformation": 8623,
  "ussi": 8624,
  "Ġgets": 8625,
  "Right": 8627,
  "Ġtechni": 8629,
  "Ġelements": 8632,
  "Ġmention": 8633,
  "Ġkam": 8637,
  "lay": 8639,
  "IGHT": 8640,
  "Ġblood": 8642,
  "Mark": 8643,
  "rame": 8645,
  "iana": 8647,
  "asons": 8650,
  "ija": 8652,
  "ĠError": 8654,
  "Ġviews": 8655,
  "ez": 8659,
  "Ġdecision": 8660,
  "arts": 8661,
  "Ġnumbers": 8663,
  "Ġobserv": 8664,
  "har": 8665,
  "ĠNovember": 8666,
  "Ġowner": 8667,
  "Ġassociated": 8668,
  "eur": 8671,
  "lean": 8673,
  "aus": 8674,
  "ĠSen": 8675,
  "Ġdelivery": 8676,
  "contr": 8677,
  "ivil": 8678,
  "Ġadult": 8680,
  "Ġhistor": 8681,
  "ĠkÃ¶nnen": 8682,
  "Ġattention": 8684,
  "ĠJanuary": 8685,
  "Ġrob": 8687,
  "ĠInternational": 8688,
  "Ġrais": 8690,
  "Display": 8691,
  "Ġtid": 8692,
  "OC": 8695,
  "chaft": 8696,
  "method": 8697,
  "Ġlines": 8698,
  "kk": 8701,
  "ĠReal": 8702,
  "cil": 8703,
  "Ġattempt": 8704,
  "onom": 8706,
  "Ġrock": 8707,
  "oter": 8708,
  "Ġmorning": 8709,
  "oggle": 8710,
  "Ġcategory": 8711,
  "Ġshall": 8712,
  "ĠEin": 8714,
  "_back": 8715,
  "role": 8716,
  "Ġoh": 8718,
  "ran": 8719,
  "ĠWITH": 8720,
  "close": 8722,
  "Ġpicture": 8723,
  "Ġdag": 8724,
  "Ġbottom": 8725,
  "ĠSam": 8726,
  "Ġverb": 8727,
  "Ġkwa": 8728,
  "ĠBase": 8729,
  "Ġcollege": 8730,
  "Ġessential": 8731,
  "Ġroad": 8733,
  "ĠIT": 8734,
  "icks": 8736,
  "Ġcommit": 8737,
  "Serial": 8738,
  "unsigned": 8741,
  "Ġsettings": 8743,
  "Ġinnov": 8744,
  "Ġsleep": 8746,
  "Ġnames": 8747,
  "Ġearn": 8748,
  "ĠOctober": 8750,
  "sych": 8753,
  "Ġsold": 8754,
  "ĠDown": 8755,
  "reci": 8757,
  "ims": 8759,
  "Ġcin": 8760,
  "ĠProject": 8761,
  "ĠVector": 8764,
  "_array": 8766,
  "Ġphoto": 8767,
  "ĠKing": 8768,
  "Ġign": 8769,
  "Ġextrem": 8771,
  "Ġwoman": 8773,
  "Ġunsigned": 8774,
  "space": 8775,
  "Ġawá»įn": 8776,
  "Ġpul": 8778,
  "BUG": 8779,
  "iller": 8781,
  "Ġparents": 8783,
  "Ġsolid": 8785,
  "ĠLo": 8786,
  "Ġdurch": 8787,
  "Ġsituation": 8789,
  "aturday": 8790,
  "Render": 8792,
  "Trace": 8794,
  "oles": 8795,
  "Die": 8796,
  "_TYPE": 8798,
  "ĠmÃ¡": 8799,
  "ibly": 8800,
  "angular": 8802,
  "Ġlost": 8803,
  "DS": 8804,
  "Ġgoes": 8805,
  "Ġadvert": 8806,
  "Ġitself": 8807,
  "Ġbenefits": 8808,
  "OG": 8810,
  "ws": 8811,
  "Ġinternal": 8812,
  "property": 8813,
  "Ġenh": 8818,
  "Ġevid": 8819,
  "ĠAlso": 8820,
  "istration": 8821,
  "_sh": 8823,
  "Ġsatisf": 8824,
  "Ġhour": 8825,
  "Ġmodule": 8827,
  "Ġmuy": 8829,
  "ancy": 8830,
  "Ġtrip": 8831,
  "Ã³s": 8832,
  "ĠGNU": 8833,
  "_date": 8834,
  "fg": 8836,
  "cat": 8837,
  "Ġregul": 8840,
  "Ġpositive": 8841,
  "Ġuses": 8844,
  "Ġrot": 8845,
  "oriz": 8846,
  "Ġsmart": 8847,
  "Ġcab": 8850,
  "Ġgreen": 8851,
  "Ġprofile": 8855,
  "AA": 8857,
  "Ġdesde": 8859,
  "Ġchalleng": 8861,
  "store": 8862,
  "Ptr": 8863,
  "aja": 8864,
  "Cache": 8865,
  "Ġstructure": 8866,
  "Ġdiff": 8868,
  "mat": 8872,
  "craft": 8875,
  "_CON": 8877,
  "ruary": 8878,
  "Ġdrink": 8879,
  "lichen": 8880,
  "Ġgirl": 8881,
  "Ġdark": 8883,
  "Home": 8884,
  "Ġcov": 8885,
  "ĠMost": 8887,
  "ĠBig": 8888,
  "Ġtransfer": 8890,
  "asic": 8893,
  "Ġdoesn": 8894,
  "Ġcontains": 8895,
  "Ġgroups": 8896,
  "Ġconsist": 8897,
  "iu": 8899,
  "Ġopin": 8901,
  "refix": 8902,
  "eles": 8904,
  "Database": 8905,
  "Ġpes": 8907,
  "Ġrat": 8908,
  "Device": 8909,
  "Ġkut": 8910,
  "ĠCreated": 8912,
  "_ch": 8914,
  "Ġhighly": 8916,
  "Ġtmp": 8919,
  "Ġled": 8920,
  "Ġraz": 8922,
  "how": 8923,
  "version": 8924,
  "ASE": 8925,
  "imiento": 8927,
  "Ġdriver": 8931,
  "udent": 8934,
  "Ġplans": 8935,
  "alled": 8937,
  "Offset": 8938,
  "legate": 8941,
  "otos": 8942,
  "Ġhands": 8950,
  "Callback": 8951,
  "usher": 8955,
  "Ġmm": 8957,
  "ovie": 8958,
  "Ġcosts": 8959,
  "Ġnue": 8961,
  "ĠLos": 8964,
  "Ġscr": 8965,
  "iqu": 8966,
  "Ġgives": 8967,
  "vari": 8968,
  "uga": 8971,
  "Ġindepend": 8972,
  "Ġcos": 8974,
  "Ġfine": 8975,
  "ĠHel": 8976,
  "Arr": 8977,
  "Visible": 8978,
  "Ġnj": 8979,
  "Ġcountries": 8981,
  "Ġfresh": 8982,
  "outes": 8983,
  "Ġoffset": 8985,
  "enty": 8987,
  "voir": 8991,
  "ĠOpt": 8995,
  "IX": 8996,
  "rypt": 8998,
  "Ġcit": 8999,
  "look": 9001,
  "imest": 9002,
  "ebug": 9011,
  "Ġmyself": 9012,
  "grade": 9013,
  "ĠUN": 9014,
  "Ġkat": 9015,
  "akk": 9019,
  "uario": 9020,
  "Direct": 9021,
  "ĠLet": 9024,
  "Ġlic": 9025,
  "ORM": 9027,
  "Ġcapital": 9029,
  "Ġnut": 9030,
  "oga": 9031,
  "Report": 9033,
  "apped": 9035,
  "augh": 9036,
  "bool": 9037,
  "Ġsyn": 9041,
  "totype": 9042,
  "Ġinj": 9044,
  "Ġpiece": 9047,
  "Run": 9050,
  "Spec": 9051,
  "ĠCollege": 9053,
  "Ġjud": 9054,
  "Ġven": 9055,
  "ĠsÃ£o": 9056,
  "ANG": 9057,
  "Ġcat": 9059,
  "crypt": 9060,
  "Exp": 9061,
  "Transaction": 9062,
  "oration": 9063,
  "Ġideal": 9064,
  "icio": 9067,
  "GB": 9068,
  "ĠVol": 9069,
  "Ġproviding": 9072,
  "âĢĻun": 9073,
  "ĠIh": 9075,
  "Ġnumer": 9076,
  "Ġmedic": 9077,
  "iber": 9078,
  "uen": 9080,
  "avior": 9081,
  "covery": 9082,
  "uu": 9084,
  "ĠProf": 9085,
  "Ġini": 9086,
  "Ġfat": 9089,
  "Ġmog": 9090,
  "IES": 9092,
  "Ass": 9095,
  "Ġindustr": 9096,
  "Ġshop": 9100,
  "ĠvÃł": 9101,
  "aron": 9102,
  "ĠPlay": 9103,
  "ĠÃªtre": 9104,
  "Ġuntuk": 9106,
  "Ġprimary": 9107,
  "Ġneigh": 9109,
  "ifications": 9110,
  "nik": 9111,
  "ĠResult": 9112,
  "Ġdefined": 9113,
  "Ġfinish": 9115,
  "edef": 9117,
  "_text": 9118,
  "andle": 9119,
  "Profile": 9120,
  "ĠFoundation": 9121,
  "OB": 9122,
  "Ġpelo": 9124,
  "MP": 9125,
  "war": 9126,
  "_NAME": 9127,
  "append": 9132,
  "Contact": 9133,
  "ĠPor": 9135,
  "Ġsizeof": 9138,
  "process": 9139,
  "Ġrequirements": 9140,
  "Ġcompletely": 9141,
  "ords": 9142,
  "Ġwarm": 9144,
  "del": 9145,
  "ONE": 9148,
  "KEY": 9149,
  "Ġdaar": 9150,
  "ĠUpdate": 9152,
  "Ġoc": 9155,
  "Ġbak": 9156,
  "LOG": 9157,
  "ĠTR": 9159,
  "Ġpare": 9160,
  "router": 9162,
  "Ġagus": 9163,
  "Ġguide": 9165,
  "IND": 9167,
  "SD": 9169,
  "ĠFil": 9170,
  "Ġban": 9171,
  "gre": 9174,
  "idi": 9175,
  "Ġmeeting": 9176,
  "ĠMessage": 9178,
  "Ġchanged": 9180,
  "Ġworked": 9183,
  "ĠNumber": 9184,
  "description": 9186,
  "ĠPage": 9187,
  "ming": 9188,
  "ĠPresident": 9189,
  "returns": 9190,
  "BD": 9191,
  "Ġmol": 9192,
  "angan": 9194,
  "Ġindividuals": 9195,
  "ĠDi": 9196,
  "Ġprime": 9197,
  "Ġserious": 9198,
  "ford": 9201,
  "Ġedit": 9204,
  "Ã³w": 9205,
  "ĠURL": 9206,
  "ĠDecember": 9207,
  "uka": 9208,
  "ĠInitial": 9209,
  "plot": 9210,
  "VER": 9212,
  "dates": 9215,
  "Ġpeut": 9216,
  "Ġoo": 9217,
  "iek": 9219,
  "Ġconstructor": 9220,
  "ĠRuss": 9221,
  "atz": 9222,
  "utter": 9223,
  "Ġdead": 9224,
  "Ġye": 9225,
  "Met": 9228,
  "ĠHT": 9229,
  "imp": 9230,
  "Parser": 9231,
  "ĠAR": 9232,
  "gs": 9233,
  "Ġpeu": 9235,
  "edding": 9236,
  "ĠCall": 9238,
  "Ġbyte": 9239,
  "Ġversch": 9240,
  "More": 9241,
  "build": 9242,
  "Core": 9243,
  "rome": 9245,
  "Ġsafety": 9246,
  "Ġthemselves": 9247,
  "Ġmount": 9249,
  "Bean": 9253,
  "Ġformer": 9254,
  "Ġcm": 9256,
  "uba": 9257,
  "Ġsetting": 9258,
  "Ġexecut": 9259,
  "Ġstress": 9260,
  "Ġdirection": 9262,
  "Ġpub": 9264,
  "ĠItem": 9266,
  "Async": 9267,
  "estion": 9271,
  "adow": 9272,
  "ieder": 9274,
  "Ġlig": 9275,
  "uman": 9276,
  "Ġpayment": 9277,
  "Ġcreating": 9278,
  "Ġallowed": 9279,
  "Ġvit": 9281,
  "Ġcontainer": 9282,
  "application": 9283,
  "rec": 9285,
  "ĠDas": 9286,
  "rd": 9290,
  "connect": 9291,
  "ĠÃ®n": 9293,
  "Ġfix": 9295,
  "embre": 9296,
  "Ġwood": 9297,
  "Ġdescrib": 9301,
  "oco": 9302,
  "ÉĻn": 9303,
  "comes": 9304,
  "erman": 9305,
  "Ãºblic": 9306,
  "mail": 9309,
  "CS": 9310,
  "ĠEvery": 9312,
  "ĠDu": 9315,
  "ĠAus": 9317,
  "Ġscale": 9318,
  "ĠNO": 9319,
  "gb": 9320,
  "icated": 9321,
  "Ġdistance": 9324,
  "Ġmb": 9325,
  "Ġeffects": 9327,
  "inue": 9329,
  "ander": 9330,
  "ĠChar": 9331,
  "anna": 9332,
  "Ġsummer": 9333,
  "Ġchannel": 9334,
  "Ġhelps": 9335,
  "ARRANT": 9337,
  "Ġraise": 9338,
  "Author": 9339,
  "Ġcash": 9342,
  "console": 9343,
  "Document": 9345,
  "ĠIll": 9346,
  "Ġprepar": 9348,
  "Ġpush": 9349,
  "Ġstuff": 9350,
  "Ġkunnen": 9351,
  "ĠNet": 9352,
  "nap": 9354,
  "Ġped": 9355,
  "Ġbur": 9356,
  "ĠQue": 9358,
  "Ġsuccessful": 9359,
  "itos": 9361,
  "Ġlinks": 9362,
  "Ġfailed": 9363,
  "Ġandere": 9365,
  "ATH": 9366,
  "Ġoptim": 9367,
  "Ġsolutions": 9368,
  "Match": 9369,
  "Ġhem": 9371,
  "Ġsport": 9373,
  "ĠChe": 9374,
  "REE": 9375,
  "iforn": 9376,
  "ĠFriday": 9377,
  "ĠOp": 9378,
  "column": 9380,
  "ĠWARRANT": 9382,
  "aku": 9385,
  "Ġstrength": 9386,
  "ĠAssoci": 9387,
  "itect": 9390,
  "Ġapplications": 9391,
  "ĠMake": 9393,
  "alian": 9394,
  "sembly": 9396,
  "Ġexclus": 9398,
  "illing": 9399,
  "android": 9401,
  "Ġstage": 9402,
  "Ġvict": 9405,
  "Ġstates": 9407,
  "Enter": 9408,
  "queue": 9409,
  "_y": 9410,
  "ĠtrÃ¨s": 9412,
  "Screen": 9418,
  "Ġconduct": 9419,
  "Ġpuede": 9420,
  "Ġprintf": 9421,
  "ĠBit": 9422,
  "ĠprÃ©": 9424,
  "Ġaccur": 9426,
  "Ġcamera": 9427,
  "iture": 9428,
  "Rec": 9429,
  "nbsp": 9431,
  "iately": 9433,
  "Ġmun": 9434,
  "istas": 9435,
  "Ġconvers": 9436,
  "ĠAndroid": 9438,
  "Ġbasic": 9439,
  "Ġdrop": 9440,
  "ĠCode": 9441,
  "ality": 9443,
  "Ġinterested": 9445,
  "Ġcounter": 9446,
  "assen": 9447,
  "azi": 9452,
  "loc": 9453,
  "erry": 9454,
  "pet": 9456,
  "gel": 9457,
  "ĠDem": 9458,
  "late": 9459,
  "Ġdengan": 9461,
  "Ġrent": 9462,
  "extern": 9463,
  "Ġlogin": 9464,
  "ibt": 9465,
  "orial": 9466,
  "hs": 9467,
  "ICE": 9468,
  "ĠVis": 9469,
  "UID": 9471,
  "Ġconsidered": 9474,
  "volution": 9477,
  "uan": 9478,
  "_state": 9479,
  "wers": 9480,
  "Ġentity": 9481,
  "ĠÃ©s": 9483,
  "amer": 9488,
  "double": 9489,
  "Ġsuff": 9490,
  "Servlet": 9492,
  "ĠResponse": 9493,
  "Ġmuito": 9495,
  "Ġelif": 9497,
  "kw": 9500,
  "Ġcallback": 9502,
  "Ġdefinitely": 9504,
  "Ġoperation": 9506,
  "emy": 9507,
  "Ġfair": 9510,
  "HTML": 9512,
  "Ġimg": 9515,
  "Ġpartner": 9518,
  "aden": 9519,
  "Ġencour": 9520,
  "asks": 9523,
  "raz": 9524,
  "onn": 9525,
  "_dir": 9526,
  "ville": 9527,
  "avo": 9528,
  "ĠAmazon": 9529,
  "aled": 9536,
  "Ġalign": 9538,
  "Ġvehicle": 9540,
  "Ġforeach": 9541,
  "lying": 9542,
  "ĉconst": 9543,
  "_log": 9545,
  "Ġez": 9546,
  "lor": 9547,
  "othing": 9549,
  "Ã¡ri": 9551,
  "Ġemerg": 9554,
  "NA": 9555,
  "Ġinteresting": 9559,
  "Ġhuge": 9560,
  "Writer": 9561,
  "Att": 9565,
  "write": 9566,
  "Ġcertainly": 9567,
  "ĠSur": 9568,
  "ĠUSA": 9569,
  "Ġrespond": 9570,
  "Ġbasis": 9571,
  "endre": 9574,
  "Tab": 9576,
  "total": 9577,
  "Ġforce": 9578,
  "Ġobtain": 9579,
  "FAULT": 9580,
  "ployee": 9581,
  "Ġpadding": 9583,
  "vention": 9584,
  "aver": 9586,
  "onstr": 9589,
  "anti": 9590,
  "Ġshape": 9591,
  "Ġconstant": 9594,
  "Ġexisting": 9595,
  "Ġbirth": 9596,
  "Aut": 9597,
  "Ġhear": 9598,
  "Ġshared": 9599,
  "Effect": 9600,
  "Ġfest": 9602,
  "home": 9603,
  "aca": 9605,
  "venue": 9606,
  "Ġrules": 9607,
  "fi": 9608,
  "ĠReturns": 9609,
  "Ġplaces": 9610,
  "Ġveel": 9612,
  "nost": 9614,
  "mal": 9616,
  "liche": 9617,
  "Head": 9619,
  "Ġparameters": 9621,
  "ĠDen": 9622,
  "Ġeyes": 9623,
  "Ġsea": 9624,
  "ikan": 9625,
  "ÃŃas": 9626,
  "uten": 9627,
  "Ed": 9628,
  "ĠmÃ¼": 9629,
  "Ġdepend": 9630,
  "ĠHotel": 9634,
  "Ġessay": 9635,
  "Ġrelig": 9636,
  "Ġfully": 9637,
  "MENT": 9640,
  "Ġflag": 9641,
  "Ġstra": 9642,
  "erve": 9645,
  "Ġgebru": 9647,
  "Ġakt": 9648,
  "osten": 9651,
  "Handle": 9654,
  "ĠMr": 9655,
  "Ġroute": 9656,
  "Ġappropr": 9657,
  "ĠRel": 9658,
  "Ġtheme": 9660,
  "DD": 9661,
  "Ġcommercial": 9662,
  "ĉg": 9663,
  "berg": 9667,
  "haps": 9668,
  "ĠTem": 9669,
  "cons": 9673,
  "Ġculture": 9674,
  "Ġpurpose": 9676,
  "ivos": 9678,
  "ĠmÃªme": 9679,
  "Car": 9680,
  "Ġreference": 9682,
  "unda": 9683,
  "Ġpode": 9684,
  "access": 9687,
  "Ġwall": 9688,
  "ĠtambÃ©m": 9690,
  "ĠTODO": 9691,
  "Ġporque": 9693,
  "Ġpens": 9696,
  "ĠGood": 9700,
  "ĠCap": 9701,
  "ells": 9703,
  "ĠServices": 9705,
  "ĉvoid": 9706,
  "Ġexactly": 9707,
  "ĠMer": 9708,
  "ĠCompany": 9709,
  "Ġstatement": 9710,
  "ifornia": 9711,
  "inu": 9712,
  "Ġmeasure": 9714,
  "ĠDepartment": 9715,
  "Ġorganization": 9716,
  "Ġdifer": 9718,
  "Your": 9719,
  "Ġunter": 9720,
  "ĠsiÄĻ": 9721,
  "Ġgran": 9724,
  "vement": 9725,
  "Ġpackage": 9726,
  "Ġvector": 9727,
  "obs": 9728,
  "Ġnombre": 9733,
  "uru": 9734,
  "han": 9737,
  "oda": 9739,
  "ĠLaw": 9740,
  "ĠLondon": 9741,
  "Ġdeveloped": 9742,
  "Ġenv": 9744,
  "Ġlicense": 9745,
  "Ġtra": 9747,
  "ursday": 9748,
  "arrant": 9749,
  "Ġadvant": 9751,
  "Ġsurface": 9753,
  "respond": 9755,
  "aved": 9757,
  "centr": 9758,
  "Ġpoder": 9759,
  "EC": 9760,
  "Ġmix": 9762,
  "ĠFind": 9764,
  "Ġsoll": 9765,
  "assets": 9766,
  "Ã¨me": 9767,
  "Ġeg": 9768,
  "Ġconstruction": 9770,
  "Ġmotor": 9771,
  "bet": 9772,
  "plies": 9773,
  "ris": 9774,
  "Ġclasses": 9778,
  "Ġpow": 9779,
  "hes": 9780,
  "PA": 9781,
  "aÃ±": 9782,
  "Ġfn": 9784,
  "ontal": 9786,
  "ĠFire": 9787,
  "Ġthinking": 9791,
  "ĠPhil": 9792,
  "ĠBack": 9793,
  "Register": 9794,
  "Ġlag": 9797,
  "ĠlÃ¤": 9798,
  "ĠÃ©tÃ©": 9799,
  "Ġslow": 9800,
  "Queue": 9801,
  "Ġmeas": 9802,
  "hor": 9803,
  "cut": 9804,
  "Ġdecided": 9805,
  "Ġdream": 9807,
  "Ġinvolved": 9808,
  "Ġdifference": 9809,
  "Ġphysical": 9811,
  "amo": 9812,
  "Ġrelev": 9813,
  "uesday": 9815,
  "thread": 9817,
  "Ġio": 9818,
  "Ġnamespace": 9819,
  "Float": 9820,
  "Ġjaar": 9821,
  "Ġreported": 9822,
  "Ġvill": 9824,
  "itz": 9825,
  "oul": 9826,
  "Ġsans": 9828,
  "Ġpela": 9830,
  "Ġcast": 9831,
  "ĠGold": 9833,
  "_num": 9834,
  "Ġeditor": 9836,
  "Ġrates": 9837,
  "ĠII": 9839,
  "Ġintent": 9841,
  "Ġsomet": 9842,
  "DC": 9843,
  "was": 9844,
  "ednes": 9845,
  "Fragment": 9847,
  "Ġfight": 9848,
  "Ġcookies": 9850,
  "strong": 9851,
  "Ġcarry": 9852,
  "Ġleur": 9853,
  "Ġdiagn": 9856,
  "ashion": 9857,
  "Ġtips": 9858,
  "Ġblue": 9861,
  "Ġcharacters": 9862,
  "agon": 9863,
  "iced": 9865,
  "QU": 9866,
  "quis": 9867,
  "Est": 9868,
  "Ġvent": 9869,
  "aught": 9873,
  "Ġgiving": 9874,
  "filter": 9875,
  "Ġfelt": 9879,
  "bel": 9880,
  "Ġdegree": 9882,
  "Ġlab": 9887,
  "igration": 9888,
  "Ġpressure": 9890,
  "Ġconven": 9891,
  "tected": 9892,
  "Ġaussi": 9894,
  "PORT": 9895,
  "Statement": 9900,
  "ĠStreet": 9903,
  "ĠAction": 9905,
  "allet": 9907,
  "Success": 9909,
  "Ġsecret": 9910,
  "Ġlimited": 9913,
  "Ġtun": 9914,
  "Ġreleased": 9917,
  "Ġlan": 9918,
  "Ġrad": 9920,
  "Graph": 9922,
  "ĠsÃ³": 9923,
  "Ġreserved": 9924,
  "call": 9925,
  "ĠMat": 9926,
  "Ġpaid": 9927,
  "alla": 9930,
  "rier": 9931,
  "Rece": 9932,
  "Ġkal": 9933,
  "iar": 9934,
  "RED": 9935,
  "bu": 9936,
  "ĠShow": 9939,
  "Ġmaster": 9942,
  "Admin": 9943,
  "Net": 9944,
  "bre": 9945,
  "Ġbudget": 9946,
  "Ġsolo": 9947,
  "pass": 9948,
  "ĠON": 9949,
  "ĠBank": 9950,
  "Ġdry": 9952,
  "Non": 9953,
  "usi": 9955,
  "pared": 9957,
  "ĠCard": 9958,
  "Es": 9960,
  "ĠValue": 9963,
  "Ġfunctions": 9964,
  "lie": 9966,
  "oli": 9967,
  "iverse": 9968,
  "_test": 9969,
  "Ġstories": 9970,
  "ĠPoint": 9971,
  "_error": 9972,
  "ixel": 9973,
  "SELECT": 9974,
  "Ġmul": 9975,
  "Names": 9976,
  "ventory": 9978,
  "Ġtowards": 9979,
  "ĠVi": 9981,
  "Ġviel": 9982,
  "house": 9983,
  "esome": 9984,
  "Ġgem": 9986,
  "Ġsust": 9987,
  "white": 9988,
  "achine": 9990,
  "Script": 9991,
  "display": 9992,
  "organ": 9993,
  "case": 9994,
  "like": 9995,
  "orith": 9996,
  "ĠInstit": 9998,
  "oup": 9999,
  "Modal": 10001,
  "RES": 10002,
  "ĠVersion": 10004,
  "Ġmother": 10005,
  "Ġmiddle": 10006,
  "ĠEt": 10007,
  "esse": 10010,
  "require": 10014,
  "words": 10020,
  "Ġspot": 10021,
  "Ġunivers": 10022,
  "Ġcum": 10023,
  "fÃ¼": 10024,
  "los": 10026,
  "amil": 10027,
  "Ġvideos": 10028,
  "bb": 10029,
  "ednesday": 10030,
  "Ġwenn": 10032,
  "yon": 10033,
  "ĠHo": 10035,
  "Ġsymbol": 10038,
  "doc": 10042,
  "Ġposts": 10043,
  "jar": 10044,
  "essa": 10046,
  "ecause": 10048,
  "ĠCH": 10049,
  "aza": 10051,
  "_on": 10053,
  "ĠMo": 10057,
  "izz": 10058,
  "REF": 10060,
  "Reference": 10061,
  "vr": 10062,
  "Ġdoll": 10064,
  "ĠUm": 10065,
  "rought": 10066,
  "Ġmoving": 10067,
  "Ġsometimes": 10069,
  "Ġsender": 10070,
  "osition": 10071,
  "ĠLeg": 10072,
  "Ġpm": 10074,
  "Ġspend": 10075,
  "Ġkur": 10077,
  "ĠPower": 10079,
  "strap": 10081,
  "Ġreplac": 10082,
  "Loc": 10083,
  "Ġkitchen": 10084,
  "nel": 10085,
  "Ġett": 10086,
  "ĠDevelop": 10087,
  "Ġcore": 10089,
  "ĠInput": 10090,
  "wan": 10091,
  "ĠMax": 10093,
  "Ġgrande": 10094,
  "Ġkont": 10096,
  "ĠClick": 10097,
  "ĠLand": 10098,
  "Ġgoed": 10102,
  "lines": 10105,
  "alert": 10106,
  "ĠIP": 10108,
  "Ġmail": 10110,
  "ulate": 10111,
  "Ġmaybe": 10112,
  "ipes": 10113,
  "Ġdump": 10114,
  "_ptr": 10117,
  "Ġundefined": 10118,
  "ĠCour": 10119,
  "Ġbaby": 10120,
  "ĠApple": 10124,
  "coin": 10126,
  "ĠFrance": 10128,
  "ferences": 10131,
  "Ġdecis": 10133,
  "yan": 10134,
  "Channel": 10135,
  "det": 10136,
  "Ġcours": 10138,
  "Ġsat": 10139,
  "ĠMart": 10140,
  "AST": 10141,
  "alloc": 10142,
  "Ġsoft": 10143,
  "Ġgratis": 10144,
  "ellig": 10145,
  "Ġmort": 10146,
  "Ġshown": 10147,
  "ĠTask": 10148,
  "nÃ©": 10149,
  "rote": 10152,
  "Pat": 10153,
  "Ġons": 10155,
  "Like": 10157,
  "atalog": 10159,
  "estroy": 10161,
  "Ġpesso": 10163,
  "Parameters": 10167,
  "ech": 10171,
  "LS": 10172,
  "Initial": 10173,
  "Ġhund": 10174,
  "Ġgave": 10175,
  "Ġsample": 10176,
  "amiento": 10179,
  "allow": 10180,
  "ĠEdit": 10183,
  "Ġguarante": 10184,
  "Ġspecified": 10185,
  "lands": 10186,
  "esis": 10187,
  "Ġgeen": 10189,
  "tu": 10191,
  "Ġattack": 10192,
  "ĠRequest": 10193,
  "Ã©rie": 10194,
  "ted": 10196,
  "xis": 10197,
  "ĠJapan": 10198,
  "Ġreve": 10199,
  "wy": 10201,
  "ae": 10202,
  "ĠFebruary": 10206,
  "Ġprod": 10207,
  "abet": 10209,
  "ĠTable": 10211,
  "ieved": 10212,
  "erap": 10214,
  "shot": 10215,
  "Ġvs": 10217,
  "Ġdevices": 10220,
  "Ġassess": 10224,
  "Ġmundo": 10225,
  "TA": 10227,
  "Ġstraight": 10230,
  "SC": 10231,
  "Ġcontain": 10232,
  "ĠEu": 10237,
  "Cons": 10238,
  "rooms": 10240,
  "Ġbez": 10241,
  "ĠHash": 10242,
  "Ident": 10244,
  "Play": 10245,
  "yi": 10246,
  "Ġplanning": 10249,
  "Ġhtml": 10250,
  "Ġpin": 10251,
  "Ġrestr": 10253,
  "equals": 10254,
  "PP": 10255,
  "Ġprev": 10258,
  "Ġtijd": 10259,
  "ĠMedia": 10260,
  "Ġlayer": 10261,
  "Ġtwe": 10262,
  "Ġletter": 10263,
  "EE": 10264,
  "Ġadjust": 10266,
  "common": 10269,
  "ĠCO": 10271,
  "oca": 10272,
  "Ġri": 10274,
  "Ġotherwise": 10275,
  "ativa": 10277,
  "Ġtou": 10278,
  "Area": 10280,
  "ĠMil": 10282,
  "icture": 10283,
  "Ġhop": 10284,
  "arÃ¡": 10285,
  "ayo": 10287,
  "Ġbecame": 10288,
  "eln": 10290,
  "Ġdent": 10291,
  "Ġpassed": 10292,
  "ĠArch": 10293,
  "ĠThank": 10295,
  "Ġpolice": 10296,
  "Ġhelpful": 10297,
  "ouver": 10298,
  "Ġexpos": 10300,
  "Ġdeux": 10301,
  "Ġrank": 10302,
  "QUE": 10304,
  "door": 10306,
  "uke": 10307,
  "Ġcampaign": 10308,
  "IME": 10309,
  "omic": 10310,
  "github": 10312,
  "front": 10313,
  "Ġcourt": 10314,
  "Ġgift": 10317,
  "usa": 10319,
  "atos": 10322,
  "Ġpatient": 10323,
  "Ġsports": 10325,
  "Ġsaying": 10326,
  "Ġbrowser": 10327,
  "ĠAPI": 10328,
  "Ġanti": 10329,
  "obe": 10330,
  "Ġsteps": 10331,
  "Ġsud": 10332,
  "Ġmodify": 10333,
  "Ġunderstanding": 10335,
  "idence": 10336,
  "inas": 10337,
  "Ġadmin": 10338,
  "Ġia": 10340,
  "Ġusername": 10341,
  "isp": 10342,
  "ĠYear": 10343,
  "ĠSil": 10344,
  "itary": 10345,
  "token": 10346,
  "ĠProdu": 10350,
  "ĠCanada": 10351,
  "Dao": 10352,
  "hn": 10353,
  "Ġcontra": 10354,
  "ĠIO": 10357,
  "Ġrich": 10358,
  "Day": 10359,
  "DR": 10361,
  "awn": 10362,
  "Ġlabor": 10363,
  "Ġdamage": 10364,
  "Ġsau": 10366,
  "Ã¦r": 10367,
  "_status": 10369,
  "Ġactions": 10370,
  "ILITY": 10371,
  "las": 10373,
  "Ġquer": 10374,
  "Ġcual": 10375,
  "Ġbegan": 10377,
  "Comment": 10378,
  "stant": 10380,
  "ĠStand": 10382,
  "Ġargument": 10383,
  "ologies": 10384,
  "Ġeer": 10385,
  "orrow": 10386,
  "Ġsmo": 10388,
  "Ġreduce": 10389,
  "mitted": 10391,
  "criptor": 10395,
  "Ġtx": 10400,
  "Ġcoach": 10401,
  "Ġbusinesses": 10402,
  "ĠjÃ¡": 10403,
  "imos": 10404,
  "ĠGreat": 10405,
  "Ġpanel": 10408,
  "ĠtambiÃ©n": 10409,
  "EO": 10411,
  "Ġsed": 10412,
  "ensed": 10413,
  "Ġfurn": 10414,
  "types": 10415,
  "Matrix": 10416,
  "Ġgenerate": 10419,
  "Ġjobs": 10420,
  "ĠSO": 10421,
  "Ġnation": 10422,
  "eral": 10426,
  "obil": 10427,
  "kar": 10428,
  "âĢĻh": 10429,
  "SQL": 10430,
  "ĠChristmas": 10431,
  "Holder": 10432,
  "ĠCOM": 10434,
  "Pane": 10435,
  "azione": 10436,
  "Ġincor": 10437,
  "ulti": 10439,
  "ronic": 10440,
  "Ġnag": 10442,
  "ĠCalifornia": 10444,
  "Ġpictures": 10445,
  "pite": 10446,
  "WS": 10447,
  "Ġmicro": 10449,
  "cp": 10450,
  "Ġarm": 10454,
  "iÃ°": 10456,
  "overn": 10457,
  "Ġvos": 10458,
  "Track": 10460,
  "ĠTwitter": 10462,
  "Ġpresident": 10464,
  "legal": 10465,
  "route": 10466,
  "ĠOs": 10467,
  "rew": 10468,
  "Ġwonderful": 10469,
  "Ġmanager": 10470,
  "Ġtried": 10471,
  "fast": 10472,
  "ĠOther": 10473,
  "Ġdivers": 10474,
  "ogen": 10478,
  "Ġpolitical": 10480,
  "ACE": 10481,
  "Ġcorpor": 10482,
  "Ġble": 10483,
  "Ġcomun": 10488,
  "command": 10489,
  "Role": 10490,
  "ĠprÃ³": 10491,
  "Ġcurr": 10495,
  "ĠpÅĻ": 10496,
  "ĠSearch": 10497,
  "Ġsupply": 10498,
  "Ġthous": 10499,
  "acle": 10500,
  "Draw": 10501,
  "ĠWord": 10503,
  "Ġcout": 10504,
  "Ġserve": 10505,
  "Ġreturned": 10508,
  "Ġhealthy": 10509,
  "Parent": 10510,
  "Ġtip": 10511,
  "Ġhus": 10512,
  "qar": 10513,
  "usion": 10514,
  "Ġnav": 10516,
  "grad": 10517,
  "Ġplayed": 10518,
  "Ġadvice": 10519,
  "Amount": 10521,
  "mut": 10522,
  "ĠConfig": 10523,
  "Ġbere": 10525,
  "Ġbeginning": 10526,
  "imin": 10528,
  "ĠWash": 10529,
  "Ġdol": 10530,
  "itan": 10531,
  "Ġces": 10532,
  "iano": 10533,
  "ĠJesus": 10537,
  "Ġregarding": 10539,
  "Ġbem": 10540,
  "Ġcards": 10541,
  "Ġheard": 10542,
  "Btn": 10546,
  "ĠAre": 10547,
  "Ġdress": 10549,
  "esto": 10550,
  "IAL": 10551,
  "Ġtrade": 10552,
  "ĠDavid": 10553,
  "Users": 10554,
  "Gu": 10556,
  "Ġlayout": 10557,
  "ĠWhite": 10558,
  "ĠBet": 10559,
  "ĠSunday": 10560,
  "Ġeigen": 10561,
  "Ġmaximum": 10562,
  "Ġvec": 10563,
  "Ġpand": 10565,
  "LC": 10566,
  "Ä±nÄ±": 10569,
  "kg": 10570,
  "Ġlargest": 10574,
  "Ġsaved": 10576,
  "ĠRep": 10577,
  "asion": 10580,
  "arily": 10581,
  "ITE": 10582,
  "Ġneces": 10585,
  "Ġgrid": 10586,
  "Ġprincipal": 10589,
  "Ġspeak": 10591,
  "anging": 10592,
  "Ġvend": 10593,
  "Full": 10594,
  "shop": 10595,
  "Ang": 10596,
  "isten": 10601,
  "_class": 10602,
  "Ġarticles": 10604,
  "porary": 10605,
  "Ġgrowing": 10606,
  "_image": 10607,
  "ĠIns": 10608,
  "Ġheat": 10609,
  "Ġpair": 10610,
  "Ġquel": 10613,
  "ĠTex": 10614,
  "oka": 10615,
  "DTO": 10616,
  "Ge": 10617,
  "should": 10618,
  "Now": 10620,
  "Ġiter": 10621,
  "allery": 10622,
  "Ġlui": 10623,
  "_res": 10626,
  "Bytes": 10629,
  "osen": 10631,
  "Ġdann": 10632,
  "Ġtraditional": 10634,
  "Ġproduce": 10635,
  "Ġbalance": 10636,
  "CON": 10637,
  "Ġbat": 10639,
  "Pop": 10640,
  "Ġchem": 10641,
  "Ġdecor": 10642,
  "Step": 10643,
  "Dto": 10644,
  "Ġwriter": 10645,
  "Ġtiene": 10647,
  "Ġwants": 10648,
  "Only": 10651,
  "Ġrule": 10652,
  "Ġappreci": 10653,
  "Ġexit": 10654,
  "ĠOper": 10655,
  "Ġfeeling": 10656,
  "cio": 10657,
  "username": 10659,
  "Ġmonitor": 10660,
  "idh": 10661,
  "Ġale": 10662,
  "Ġtam": 10663,
  "Ġerrors": 10664,
  "project": 10665,
  "Ġweekend": 10668,
  "ĠEven": 10669,
  "Operation": 10671,
  "Ġsac": 10672,
  "Ġcomponents": 10674,
  "erial": 10675,
  "sites": 10678,
  "SA": 10683,
  "Ġfue": 10684,
  "vin": 10685,
  "Ġmerc": 10687,
  "Ġtous": 10688,
  "ientes": 10690,
  "Ġhash": 10691,
  "pol": 10692,
  "ĠHa": 10694,
  "Custom": 10695,
  "ĠAssert": 10696,
  "Ġviv": 10697,
  "onto": 10698,
  "Ġmechan": 10699,
  "ously": 10701,
  "Ġfu": 10702,
  "amount": 10703,
  "Byte": 10704,
  "Ġoverall": 10705,
  "inha": 10707,
  "Ä±m": 10709,
  "ools": 10710,
  "ĠClub": 10711,
  "ahan": 10712,
  "ields": 10714,
  "ĠMonday": 10715,
  "Ġtel": 10716,
  "seg": 10717,
  "inline": 10718,
  "vor": 10719,
  "Ġcomfortable": 10721,
  "ĠSaturday": 10722,
  "unden": 10725,
  "dag": 10726,
  "ĠnÃ¤": 10728,
  "hos": 10729,
  "Ġimmediately": 10731,
  "cos": 10732,
  "bd": 10733,
  "ĠOrder": 10735,
  "ĠFlor": 10738,
  "Ġgreater": 10740,
  "iling": 10741,
  "Ġtests": 10742,
  "neh": 10745,
  "ĠSign": 10746,
  "annels": 10747,
  "Ġsand": 10749,
  "RT": 10750,
  "Ġmiles": 10753,
  "Ġsql": 10755,
  "ĠaÃ±os": 10756,
  "Ġagree": 10758,
  "typedef": 10760,
  "Ã¼t": 10762,
  "emon": 10763,
  "ĠAuthor": 10764,
  "Ġfabric": 10765,
  "impl": 10766,
  "Ġspirit": 10767,
  "Support": 10768,
  "lee": 10769,
  "Ġstrategy": 10772,
  "Ġcel": 10773,
  "ĠTeam": 10774,
  "ĠlÃŃ": 10775,
  "Ġikke": 10777,
  "ernel": 10780,
  "eri": 10781,
  "PM": 10782,
  "Ġinstr": 10783,
  "Scroll": 10785,
  "Ġfir": 10788,
  "Ġemployees": 10789,
  "Ġexpand": 10791,
  "Ġdemonstr": 10792,
  "pliance": 10794,
  "ĠEduc": 10796,
  "Ġlooked": 10802,
  "Ġcolors": 10803,
  "Ġturned": 10805,
  "Ġkap": 10806,
  "Strip": 10807,
  "Ġrev": 10808,
  "ĠEast": 10809,
  "Mapper": 10811,
  "cn": 10812,
  "alu": 10813,
  "Ġbatter": 10814,
  "Ġcer": 10816,
  "Save": 10817,
  "alance": 10818,
  "osing": 10819,
  "boot": 10820,
  "Ġhospital": 10824,
  "Ġstack": 10825,
  "ĠBa": 10826,
  "_com": 10828,
  "Db": 10831,
  "scribe": 10833,
  "Root": 10834,
  "ĉtry": 10835,
  "Ġlots": 10836,
  "ĠBoard": 10837,
  "plan": 10838,
  "ĠMen": 10841,
  "Weight": 10843,
  "hell": 10844,
  "Ġclin": 10846,
  "indi": 10847,
  "Ġconn": 10850,
  "Ġdetail": 10851,
  "_a": 10852,
  "_i": 10853,
  "Ġmessages": 10854,
  "Ġreli": 10856,
  "target": 10857,
  "arlier": 10858,
  "Ġcasa": 10859,
  "Ġrequires": 10860,
  "Person": 10863,
  "yond": 10864,
  "Ġjou": 10865,
  "ĠPlan": 10867,
  "omas": 10868,
  "Ġloved": 10869,
  "avas": 10870,
  "ĠMas": 10873,
  "ĠJack": 10874,
  "Ġserial": 10876,
  "Ġoffered": 10877,
  "Ġctx": 10879,
  "Ġshipping": 10881,
  "ĠNode": 10882,
  "ĉwhile": 10883,
  "Ä±nda": 10884,
  "ĠBuild": 10885,
  "icing": 10887,
  "egen": 10889,
  "Ġty": 10890,
  "join": 10891,
  "ĠTur": 10895,
  "rum": 10896,
  "Ġinsert": 10898,
  "Ġpsych": 10899,
  "Ġscen": 10900,
  "Ġtopic": 10901,
  "ĠSH": 10902,
  "aran": 10904,
  "Ġsor": 10906,
  "Ġresponsible": 10908,
  "utils": 10909,
  "Ġmask": 10910,
  "Ġuw": 10911,
  "ecution": 10912,
  "Ġlogger": 10913,
  "Ġmeaning": 10915,
  "Ġtrabal": 10916,
  "ĠButton": 10917,
  "ĠSex": 10918,
  "Ġgez": 10919,
  "ĠNE": 10920,
  "ertain": 10923,
  "elcome": 10927,
  "_model": 10928,
  "Write": 10930,
  "Ġhacer": 10932,
  "cles": 10934,
  "cell": 10936,
  "_per": 10938,
  "umi": 10939,
  "Ġps": 10942,
  "Ã¤hr": 10944,
  "Ġvolume": 10945,
  "Double": 10948,
  "_start": 10949,
  "Pe": 10950,
  "Ġeye": 10952,
  "Ġreader": 10958,
  "OVID": 10959,
  "category": 10960,
  "children": 10961,
  "ĠGreen": 10962,
  "window": 10963,
  "ĉpro": 10965,
  "ĠSocial": 10967,
  "entication": 10968,
  "Ġnke": 10969,
  "Ġtruly": 10970,
  "inden": 10971,
  "ĠLas": 10972,
  "Bit": 10973,
  "Ġjs": 10974,
  "Ġdiet": 10976,
  "Ġpil": 10977,
  "xture": 10978,
  "ĠWHERE": 10979,
  "oti": 10981,
  "Ġtv": 10983,
  "ircle": 10986,
  "ĠAuto": 10987,
  "Ġreports": 10988,
  "atically": 10989,
  "ĠiÃ§": 10992,
  "OUR": 10994,
  "yled": 10995,
  "ĠComponent": 10996,
  "Ġgut": 10998,
  "anje": 10999,
  "icien": 11000,
  "Ġmetal": 11002,
  "merce": 11005,
  "Ã³g": 11009,
  "unto": 11010,
  "Ġrecon": 11011,
  "iers": 11012,
  "ĠCoun": 11013,
  "jon": 11016,
  "apat": 11017,
  "Ġoperator": 11019,
  "IVE": 11021,
  "Ġglass": 11022,
  "ÃŃst": 11023,
  "wen": 11027,
  "ĠLat": 11028,
  "Ġtipo": 11030,
  "lements": 11031,
  "ĠEngine": 11032,
  "ALUE": 11034,
  "ĠFunction": 11035,
  "ĠKom": 11036,
  "bling": 11037,
  "Ġestim": 11039,
  "Ġgy": 11045,
  "Video": 11046,
  "Ġparameter": 11047,
  "ĠMany": 11048,
  "ĠAuf": 11050,
  "Ġcaso": 11051,
  "Ġeller": 11052,
  "ichael": 11054,
  "Year": 11055,
  "Ġinvestment": 11056,
  "FC": 11058,
  "Ġfeet": 11059,
  "Ã´t": 11060,
  "raag": 11063,
  "Ġsetup": 11064,
  "Ġaudio": 11065,
  "BS": 11068,
  "Ġextremely": 11069,
  "ĠprÃ©s": 11070,
  "Ġvariable": 11076,
  "Ġsett": 11077,
  "Ġguid": 11078,
  "ĠVideo": 11080,
  "Ġappropriate": 11081,
  "Ġcentral": 11082,
  "azz": 11083,
  "Ġminimum": 11085,
  "ĠResearch": 11086,
  "Ġeasier": 11087,
  "Ġdisease": 11089,
  "Ġgal": 11091,
  "Ġisn": 11092,
  "under": 11093,
  "Ġcorrespond": 11095,
  "atever": 11100,
  "Ġker": 11104,
  "onym": 11105,
  "ĠpaÃŃs": 11106,
  "FL": 11107,
  "Ġretr": 11108,
  "ĠMethod": 11109,
  "Ġepis": 11110,
  "cor": 11111,
  "itas": 11113,
  "argo": 11114,
  "Ġplaceholder": 11115,
  "selected": 11116,
  "TS": 11118,
  "_un": 11119,
  "Ġdella": 11120,
  "Ġcompleted": 11121,
  "Ġweather": 11122,
  "isher": 11125,
  "Ġgrup": 11126,
  "Ã«r": 11127,
  "Ġhous": 11130,
  "interface": 11132,
  "Ġprovider": 11133,
  "keit": 11135,
  "aats": 11136,
  "Ġprotection": 11137,
  "eling": 11139,
  "tee": 11140,
  "boolean": 11141,
  "ECT": 11142,
  "formed": 11144,
  "ĠMit": 11145,
  "wide": 11147,
  "Ġalbum": 11149,
  "Ġencontr": 11150,
  "Events": 11151,
  "meta": 11154,
  "Ġadapt": 11155,
  "Ġwarrant": 11156,
  "Doc": 11159,
  "Ġtemps": 11160,
  "Scale": 11163,
  "Ġedge": 11165,
  "Ġhimself": 11166,
  "Iter": 11168,
  "iku": 11169,
  "Ġkor": 11171,
  "Ġthank": 11172,
  "Err": 11173,
  "park": 11174,
  "rench": 11175,
  "Ġdurante": 11177,
  "Ġschools": 11179,
  "Ġscene": 11180,
  "Ġbonus": 11181,
  "Ã¡m": 11182,
  "ĠWhe": 11183,
  "ÃŃcul": 11185,
  "isen": 11186,
  "modal": 11187,
  "uminate": 11188,
  "Schema": 11190,
  "asil": 11191,
  "Ġelectric": 11194,
  "Ġknew": 11199,
  "Close": 11200,
  "Ġole": 11201,
  "Ġincreased": 11202,
  "draw": 11205,
  "Ġopportunities": 11206,
  "Ġsector": 11207,
  "_cl": 11209,
  "Don": 11210,
  "Ġnak": 11211,
  "Ġingred": 11212,
  "Ġdialog": 11213,
  "Ġwind": 11215,
  "Ġvid": 11217,
  "ĠFranc": 11218,
  "ĠNetwork": 11220,
  "Ac": 11221,
  "Ġscience": 11222,
  "Ġcompared": 11223,
  "uir": 11224,
  "Ġstudies": 11227,
  "Ġspent": 11228,
  "earn": 11230,
  "Ġfarm": 11231,
  "rian": 11232,
  "ĠCamp": 11233,
  "oid": 11234,
  "Ġea": 11235,
  "arde": 11236,
  "Ġeat": 11237,
  "Ġalone": 11238,
  "á»Ľi": 11239,
  "Ġcells": 11242,
  "unning": 11244,
  "Ġbroad": 11245,
  "Ġscient": 11246,
  "ĠSon": 11247,
  "ĠManagement": 11249,
  "Constants": 11250,
  "inct": 11251,
  "wd": 11252,
  "tegr": 11253,
  "ulture": 11254,
  "Ġvisual": 11256,
  "Ġbot": 11257,
  "verter": 11258,
  "Ġoffering": 11259,
  "oven": 11262,
  "Ġmejor": 11267,
  "HP": 11269,
  "Ġcro": 11270,
  "ĠRest": 11271,
  "Mar": 11272,
  "Ġteams": 11273,
  "ĠLocal": 11274,
  "ĠFore": 11276,
  "Ġfans": 11277,
  "ĠAtt": 11278,
  "Job": 11279,
  "Ġpad": 11280,
  "Ġwo": 11281,
  "Ġlibrary": 11282,
  "help": 11283,
  "Ġrace": 11286,
  "Timeout": 11288,
  "primary": 11289,
  "ania": 11290,
  "ĠmÃ©": 11291,
  "upload": 11292,
  "Ġincreasing": 11293,
  "_dict": 11295,
  "Ġzich": 11296,
  "Ġannounced": 11297,
  "Ġmand": 11298,
  "aming": 11300,
  "Je": 11302,
  "ĠBE": 11303,
  "Ġgradu": 11304,
  "AIL": 11305,
  "ĠCustom": 11306,
  "ĠStar": 11307,
  "Ġmac": 11309,
  "Ġfigure": 11310,
  "Ġbrought": 11311,
  "Cre": 11313,
  "imestamp": 11314,
  "ĠIM": 11315,
  "Ġsul": 11316,
  "ĠKr": 11317,
  "Logger": 11319,
  "Ġtxt": 11321,
  "adora": 11323,
  "Ġeconomic": 11324,
  "ĠÃºlt": 11326,
  "amen": 11330,
  "Ġcuando": 11331,
  "Ġvast": 11332,
  "Ġattract": 11333,
  "Ġbeach": 11334,
  "asket": 11335,
  "izi": 11338,
  "ĠOK": 11339,
  "Ġwet": 11340,
  "ayload": 11341,
  "ĠLine": 11342,
  "isset": 11345,
  "Ġrooms": 11348,
  "ĠCam": 11349,
  "isis": 11352,
  "itet": 11353,
  "Ġile": 11354,
  "care": 11355,
  "Progress": 11356,
  "instance": 11357,
  "ĠOffice": 11360,
  "ĠPaul": 11362,
  "Ġgoals": 11366,
  "Ġincl": 11368,
  "send": 11370,
  "Les": 11373,
  "Member": 11374,
  "structions": 11376,
  "ĠYes": 11377,
  "enas": 11378,
  "Ġapi": 11379,
  "endant": 11380,
  "Ġpull": 11381,
  "chor": 11382,
  "Ġpolic": 11384,
  "lished": 11386,
  "Ġbh": 11387,
  "_node": 11390,
  "ahi": 11392,
  "Ġwire": 11394,
  "Ġlok": 11395,
  "Na": 11398,
  "âĢĻa": 11401,
  "Ġspread": 11402,
  "Ġoffic": 11403,
  "ĠConsole": 11404,
  "inta": 11405,
  "ĠWell": 11406,
  "iliar": 11407,
  "Ġidentify": 11410,
  "ians": 11413,
  "Ġoccur": 11416,
  "Ġcoff": 11419,
  "ega": 11420,
  "Ġrelax": 11424,
  "Ġlisten": 11425,
  "Ġmur": 11426,
  "Ġraw": 11428,
  "Ġresp": 11429,
  "yk": 11430,
  "Parse": 11432,
  "Ġdetermine": 11433,
  "Ġenable": 11434,
  "ĠJah": 11436,
  "Find": 11437,
  "Ġfel": 11438,
  "licit": 11439,
  "Ã¼nd": 11441,
  "Ġgirls": 11444,
  "Related": 11446,
  "ĠPR": 11448,
  "Ġshoot": 11449,
  "áº¥t": 11450,
  "Ġelle": 11451,
  "ĠQual": 11452,
  "Ġloop": 11453,
  "Ġharm": 11454,
  "oded": 11456,
  "ersistence": 11457,
  "ĠGlobal": 11459,
  "olve": 11460,
  "enance": 11461,
  "Enc": 11465,
  "Ġestr": 11469,
  "Inst": 11470,
  "ĠLin": 11471,
  "roke": 11472,
  "Ġll": 11475,
  "Host": 11476,
  "Perm": 11478,
  "handle": 11479,
  "Free": 11480,
  "SET": 11481,
  "Ġnamed": 11484,
  "Ġwax": 11485,
  "omin": 11487,
  "ugg": 11488,
  "nya": 11489,
  "Ġihr": 11491,
  "DO": 11492,
  "Ġtesting": 11493,
  "Ġmist": 11494,
  "conds": 11495,
  "Seg": 11496,
  "ej": 11497,
  "kit": 11498,
  "_config": 11500,
  "ĠAT": 11503,
  "Ġster": 11504,
  "aughter": 11505,
  "ĠDownload": 11506,
  "Ġsurv": 11507,
  "uture": 11509,
  "Ãºs": 11510,
  "Ġsar": 11511,
  "Ġfamilies": 11512,
  "_length": 11514,
  "iciÃ³n": 11515,
  "ython": 11516,
  "apon": 11518,
  "ĠDB": 11519,
  "ĠIk": 11521,
  "Ġdiscount": 11522,
  "Ġbenefit": 11523,
  "anten": 11524,
  "Ġsources": 11525,
  "Ġforms": 11526,
  "Ġwife": 11527,
  "ilename": 11528,
  "Ġsehr": 11529,
  "Ġconcentr": 11530,
  "Ġcup": 11531,
  "Ġafford": 11532,
  "jection": 11533,
  "Cor": 11534,
  "burg": 11535,
  "oes": 11537,
  "Ġstation": 11538,
  "MD": 11539,
  "Ġpopulation": 11540,
  "Ġlaunch": 11542,
  "Ġmp": 11543,
  "frame": 11547,
  "tor": 11550,
  "STR": 11552,
  "Ġmont": 11554,
  "ĠEach": 11555,
  "document": 11557,
  "ĠJan": 11558,
  "olar": 11559,
  "Ġdont": 11562,
  "Ġtempo": 11564,
  "ĠTrump": 11567,
  "Ġanc": 11568,
  "empo": 11569,
  "Ġaward": 11570,
  "_sub": 11572,
  "otor": 11573,
  "antic": 11574,
  "Ġimplied": 11575,
  "ĉself": 11576,
  "ĠWITHOUT": 11579,
  "erse": 11580,
  "Ġincome": 11583,
  "ijo": 11585,
  "ĠRoom": 11589,
  "Ġub": 11590,
  "Ġbuilder": 11592,
  "atively": 11594,
  "_EX": 11598,
  "Ġwear": 11599,
  "Ġunser": 11600,
  "plus": 11601,
  "Sort": 11602,
  "ÃŃm": 11603,
  "inese": 11604,
  "aller": 11605,
  "Ġshopping": 11606,
  "ashboard": 11607,
  "Ġbound": 11608,
  "Ġfather": 11609,
  "igital": 11610,
  "gin": 11611,
  "ĠatÃ©": 11612,
  "Rate": 11613,
  "Ġbeyond": 11615,
  "oyal": 11616,
  "Ġult": 11619,
  "ogy": 11620,
  "Ġgain": 11621,
  "Ġthr": 11622,
  "_result": 11623,
  "Ġcollabor": 11625,
  "_ERROR": 11627,
  "ĠSun": 11628,
  "Ġpowerful": 11629,
  "menu": 11632,
  "iform": 11633,
  "produ": 11634,
  "ĠGal": 11635,
  "Loading": 11636,
  "_k": 11637,
  "Ġburn": 11638,
  "Ġhighest": 11639,
  "ĠGovern": 11642,
  "Ġbytes": 11643,
  "created": 11644,
  "Ġtent": 11645,
  "ĠDouble": 11646,
  "Ġloan": 11648,
  "ictions": 11649,
  "errors": 11650,
  "Ġfactors": 11652,
  "Ġwurde": 11653,
  "iques": 11654,
  "Ġguys": 11655,
  "Ġmanage": 11659,
  "Ġee": 11662,
  "ĠDescription": 11664,
  "Ġej": 11665,
  "Ġcalls": 11666,
  "Ġbesch": 11667,
  "win": 11668,
  "tmp": 11669,
  "Ġgebruik": 11672,
  "Ġmere": 11673,
  "ĠDev": 11674,
  "itÃł": 11677,
  "_O": 11678,
  "Ġanos": 11680,
  "enerated": 11683,
  "Ġfinished": 11684,
  "Ġnearly": 11685,
  "Ġcommunication": 11686,
  "atr": 11688,
  "ĠFull": 11689,
  "Ġmemb": 11692,
  "_PRO": 11693,
  "ĉr": 11694,
  "Ġtalking": 11695,
  "reh": 11696,
  "Ġtraff": 11699,
  "Ġcmd": 11704,
  "reme": 11705,
  "Ġimmer": 11706,
  "Ġthanks": 11707,
  "ickets": 11708,
  "Ġscript": 11713,
  "ĠLife": 11714,
  "Ġreasons": 11715,
  "Ġevidence": 11716,
  "LIC": 11720,
  "_table": 11721,
  "Ġrecords": 11722,
  "Ġvoice": 11723,
  "ÃŁen": 11724,
  "Background": 11725,
  "Ġfav": 11726,
  "Ġlack": 11728,
  "aal": 11729,
  "ificate": 11731,
  "heit": 11732,
  "_number": 11733,
  "Ġquando": 11735,
  "Ġobjects": 11736,
  "css": 11738,
  "non": 11741,
  "icul": 11742,
  "Ġmijn": 11743,
  "ĠgÃ¶": 11744,
  "Ã¤ng": 11745,
  "Ġfear": 11747,
  "Ġvil": 11748,
  "ndef": 11749,
  "terior": 11750,
  "igi": 11752,
  "Ap": 11756,
  "Gen": 11757,
  "Ġdispon": 11762,
  "Layer": 11763,
  "redit": 11765,
  "Ġexport": 11766,
  "anned": 11768,
  "Ġbá»¥": 11769,
  "Ġspect": 11770,
  "Ġverw": 11771,
  "ĠPrice": 11772,
  "Ġaim": 11773,
  "Ġguard": 11774,
  "Ġnor": 11777,
  "Ġhundred": 11779,
  "itat": 11781,
  "Ġhasta": 11783,
  "arp": 11784,
  "OU": 11785,
  "ategor": 11786,
  "leted": 11788,
  "Ġexperienced": 11790,
  "Ġtrial": 11791,
  "Ġagent": 11793,
  "Ġrealiz": 11794,
  "Ġpark": 11796,
  "Ġpermet": 11798,
  "Ġendl": 11799,
  "uler": 11802,
  "Ġrepe": 11805,
  "Ġiniti": 11806,
  "Ġged": 11807,
  "âĢĻune": 11808,
  "Ġwieder": 11809,
  "Ġkil": 11810,
  "ĠGar": 11811,
  "Ġmaken": 11812,
  "Ġtechnical": 11814,
  "auc": 11816,
  "Enum": 11817,
  "Ġdomain": 11819,
  "ĠGen": 11820,
  "Ġvalor": 11821,
  "uent": 11823,
  "_map": 11824,
  "Vol": 11825,
  "Ġhaar": 11827,
  "Ġradio": 11828,
  "abilities": 11830,
  "AF": 11835,
  "ĠEuropean": 11836,
  "ĠTom": 11838,
  "Ġdetect": 11839,
  "ABILITY": 11840,
  "utos": 11841,
  "phere": 11842,
  "Ġweer": 11843,
  "Rule": 11845,
  "Ġsecure": 11846,
  "ĠEner": 11847,
  "global": 11849,
  "ometry": 11851,
  "fix": 11853,
  "session": 11854,
  "commod": 11857,
  "Ġlif": 11858,
  "props": 11859,
  "itud": 11860,
  "ĠMill": 11861,
  "_cast": 11862,
  "apes": 11864,
  "Any": 11865,
  "Cond": 11870,
  "pective": 11871,
  "ETH": 11872,
  "Ġcancer": 11873,
  "Ġdict": 11878,
  "Editor": 11879,
  "Ġprops": 11880,
  "ĠBox": 11882,
  "Ġparticularly": 11884,
  "ĠTexas": 11885,
  "ĠWashington": 11886,
  "success": 11887,
  "Ġfriendly": 11888,
  "ĠLook": 11889,
  "Ġinclus": 11891,
  "bin": 11893,
  "voice": 11894,
  "activity": 11896,
  "Sk": 11898,
  "ĠPlus": 11899,
  "alf": 11901,
  "uwe": 11902,
  "_for": 11903,
  "visor": 11904,
  "Ġremoved": 11906,
  "Ġesper": 11908,
  "enen": 11911,
  "ĠUnivers": 11912,
  "Ġguess": 11915,
  "Ġarguments": 11917,
  "ĠAccount": 11920,
  "Ġisso": 11922,
  "Ġpom": 11923,
  "Ġsurround": 11924,
  "istrict": 11927,
  "Ġapro": 11929,
  "ĠAustralia": 11930,
  "Ġrestaurant": 11931,
  "Ġjog": 11932,
  "Ġzelf": 11933,
  "ĠCasino": 11936,
  "Ġaren": 11937,
  "idente": 11939,
  "ĠBlue": 11942,
  "Ġalthough": 11943,
  "ĠIsra": 11944,
  "clip": 11945,
  "Ġthreat": 11948,
  "faces": 11952,
  "ĠSpiel": 11953,
  "Ġwrote": 11955,
  "Ġcache": 11956,
  "tab": 11957,
  "iration": 11960,
  "ĠPay": 11961,
  "dk": 11963,
  "Ġimpress": 11964,
  "Ġearlier": 11965,
  "Ġagr": 11966,
  "Ġchurch": 11967,
  "chedule": 11973,
  "Ġonze": 11974,
  "Go": 11976,
  "Where": 11977,
  "contact": 11978,
  "aÃ§Ãµes": 11979,
  "Ġlit": 11980,
  "Ġsets": 11982,
  "vc": 11983,
  "isto": 11985,
  "zh": 11988,
  "rat": 11990,
  "LA": 11991,
  "ĠMont": 11992,
  "een": 11993,
  "ĠvÃµ": 11994,
  "ĠDat": 11995,
  "Ġdy": 11996,
  "escription": 12000,
  "Enumer": 12001,
  "prite": 12002,
  "Ġast": 12004,
  "Ġvu": 12005,
  "ĠControl": 12006,
  "anted": 12007,
  "Ġabsolut": 12008,
  "Ġfetch": 12011,
  "endl": 12013,
  "aÃ°": 12014,
  "essor": 12015,
  "_j": 12021,
  "Ġnaj": 12023,
  "ĠUnity": 12024,
  "aq": 12026,
  "raints": 12027,
  "Ġwaiting": 12028,
  "Ã¼h": 12029,
  "ĠpÃºblic": 12030,
  "Ġbod": 12031,
  "Ġdistr": 12032,
  "Ġfon": 12033,
  "ĠPara": 12034,
  "Ġstrict": 12035,
  "Ġbra": 12036,
  "Note": 12038,
  "ĠArg": 12045,
  "xml": 12046,
  "ols": 12048,
  "arse": 12049,
  "serve": 12050,
  "ders": 12051,
  "Ġupload": 12053,
  "ograf": 12054,
  "Ġuno": 12055,
  "Cho": 12058,
  "_object": 12059,
  "ĉset": 12060,
  "Ġhyd": 12063,
  "áº¡i": 12065,
  "Ġpassion": 12066,
  "Ġseconds": 12068,
  "anne": 12069,
  "_item": 12070,
  "cores": 12071,
  "rior": 12072,
  "Ġlisted": 12073,
  "Ġremov": 12074,
  "IGN": 12075,
  "ENSE": 12077,
  "Ġcá»§": 12078,
  "Ġconnected": 12079,
  "orithm": 12080,
  "plex": 12081,
  "Ġoperations": 12084,
  "ĠOrgan": 12085,
  "road": 12086,
  "Ġtemperature": 12088,
  "nam": 12089,
  "ĠCOVID": 12091,
  "Ġnotre": 12092,
  "Ġmission": 12093,
  "Ġacadem": 12094,
  "Ġcloud": 12095,
  "EB": 12096,
  "Ġschon": 12097,
  "ket": 12099,
  "Ġpartir": 12100,
  "uren": 12101,
  "Ġmomento": 12102,
  "ambda": 12104,
  "Ġestate": 12106,
  "Ġjag": 12107,
  "Ġboost": 12110,
  "ĠCare": 12111,
  "Ġaplic": 12112,
  "nis": 12113,
  "Ġlev": 12114,
  "ĠSom": 12116,
  "Ġmesmo": 12117,
  "Ġwhose": 12119,
  "atches": 12120,
  "lla": 12121,
  "Fin": 12123,
  "ĠElect": 12126,
  "ienen": 12127,
  "Ġfinding": 12129,
  "Ġimpos": 12130,
  "antity": 12132,
  "Ġhelping": 12137,
  "standing": 12138,
  "useum": 12139,
  "Ġreflect": 12140,
  "Connect": 12141,
  "Ġcv": 12142,
  "igu": 12143,
  "Ġcold": 12146,
  "etzt": 12147,
  "catch": 12150,
  "Ġmulti": 12151,
  "Ġov": 12152,
  "Ġcá»§a": 12153,
  "essions": 12155,
  "Ġvai": 12156,
  "Ġguy": 12159,
  "Ġchallenge": 12160,
  "Ġwebsites": 12162,
  "ookie": 12163,
  "stat": 12164,
  "Ġdirector": 12166,
  "ĠTerm": 12167,
  "Cap": 12168,
  "Ġwij": 12169,
  "Ġsb": 12170,
  "_out": 12171,
  "chi": 12172,
  "mu": 12173,
  "icted": 12174,
  "ĠCD": 12178,
  "Ġmoved": 12183,
  "iele": 12185,
  "ĠCreat": 12186,
  "Loader": 12189,
  "Ġgenerally": 12190,
  "Intent": 12193,
  "Hi": 12194,
  "ensity": 12195,
  "lijk": 12196,
  "Ġsurpr": 12197,
  "Ġdoub": 12198,
  "Transform": 12200,
  "ĠcrÃ©": 12201,
  "ĠReview": 12206,
  "Ġahead": 12207,
  "ĠReport": 12208,
  "Ġiyo": 12209,
  "Ġscre": 12210,
  "Look": 12211,
  "icons": 12212,
  "Ġfal": 12213,
  "chron": 12214,
  "Pool": 12215,
  "Ġgaan": 12216,
  "Ġopening": 12218,
  "Ã¶s": 12219,
  "Ġcontroller": 12220,
  "Ġcompare": 12221,
  "lets": 12222,
  "Wrapper": 12224,
  "ĠNote": 12225,
  "ĉassert": 12226,
  "Ġsys": 12228,
  "Ġexternal": 12229,
  "Ġgibt": 12230,
  "Ġati": 12233,
  "ibles": 12234,
  "NT": 12235,
  "submit": 12238,
  "Ġatr": 12239,
  "ĠEnter": 12240,
  "Ġcapacity": 12241,
  "izable": 12243,
  "OUN": 12244,
  "profile": 12245,
  "ĠLast": 12246,
  "unte": 12247,
  "Ġmatrix": 12248,
  "ĉlog": 12250,
  "ĠRock": 12251,
  "crete": 12252,
  "Here": 12253,
  "eks": 12255,
  "ĠEss": 12256,
  "Ã¡g": 12258,
  "Ġapart": 12259,
  "Ġschedule": 12262,
  "ĠAL": 12264,
  "ĠSince": 12265,
  "Ġjeg": 12267,
  "ĠContact": 12270,
  "Ġmenos": 12271,
  "Ġdispatch": 12272,
  "Ġborn": 12275,
  "umin": 12276,
  "Invalid": 12278,
  "eless": 12279,
  "They": 12280,
  "Fields": 12281,
  "Ġconfiguration": 12282,
  "ucht": 12283,
  "_int": 12285,
  "ĠThanks": 12287,
  "Ġjournal": 12290,
  "Axis": 12293,
  "ĠSimple": 12295,
  "lj": 12296,
  "sum": 12298,
  "Ġgone": 12299,
  "Ġnar": 12301,
  "ĠDiv": 12302,
  "ĠWater": 12303,
  "ĠUr": 12304,
  "Ġud": 12308,
  "ataset": 12310,
  "Section": 12311,
  "arga": 12313,
  "Ġposted": 12314,
  "Ġsexual": 12318,
  "IONS": 12320,
  "Ġprocessing": 12323,
  "Ġalloc": 12325,
  "Sm": 12326,
  "Ġappoint": 12327,
  "ĠMor": 12328,
  "Ġrelevant": 12331,
  "Ġfactor": 12332,
  "Ġwild": 12333,
  "Ġrac": 12334,
  "elijke": 12335,
  "Ġartist": 12337,
  "Ġseus": 12338,
  "rees": 12339,
  "reshold": 12341,
  "Ġdoctor": 12342,
  "ĠDa": 12345,
  "Ġrub": 12346,
  "Ġcopyright": 12348,
  "Ġtodas": 12350,
  "ĠBay": 12352,
  "fen": 12353,
  "Ġannual": 12355,
  "Score": 12357,
  "cycl": 12360,
  "olic": 12362,
  "Ġment": 12363,
  "allel": 12364,
  "MM": 12365,
  "ĠFrank": 12366,
  "Keys": 12368,
  "Ġgrad": 12369,
  "gang": 12371,
  "unes": 12372,
  "ugins": 12374,
  "alis": 12375,
  "erta": 12377,
  "Ġrapid": 12379,
  "Ids": 12380,
  "Ġpermit": 12381,
  "Ġcritical": 12383,
  "Ġlarger": 12384,
  "Ġtruth": 12388,
  "Ġmental": 12391,
  "Ġdus": 12392,
  "ĠTra": 12393,
  "conn": 12394,
  "Global": 12395,
  "Ġorganis": 12396,
  "Ġbuying": 12398,
  "Ġincred": 12399,
  "Ġuz": 12402,
  "alah": 12403,
  "device": 12404,
  "Ġtanto": 12405,
  "Ġship": 12407,
  "oso": 12408,
  "osi": 12409,
  "Texture": 12410,
  "Ġclosed": 12412,
  "fill": 12413,
  "Ġproces": 12414,
  "Ġlugar": 12415,
  "Join": 12416,
  "quir": 12417,
  "Ġsweet": 12418,
  "owl": 12419,
  "Ġzero": 12421,
  "Ġcheap": 12424,
  "ioni": 12427,
  "Por": 12429,
  "Ġefficient": 12430,
  "ĠOl": 12431,
  "ingu": 12432,
  "Ġminute": 12434,
  "ĠRich": 12436,
  "Si": 12437,
  "Ġjam": 12438,
  "USER": 12440,
  "ĠTor": 12441,
  "edy": 12442,
  "ĠsÃŃ": 12444,
  "Ã¡rios": 12445,
  "ĠSP": 12446,
  "TC": 12447,
  "agma": 12450,
  "iÃ¨re": 12452,
  "ĠThursday": 12453,
  "Ġfederal": 12454,
  "Ġshot": 12455,
  "Ġreadonly": 12456,
  "ĠOh": 12458,
  "Ġinterview": 12459,
  "Ġhoe": 12461,
  "ĠOnce": 12466,
  "Ġaffili": 12467,
  "Ġtransaction": 12469,
  "itness": 12470,
  "Alignment": 12473,
  "Ġemot": 12474,
  "bst": 12476,
  "ateur": 12477,
  "itÃ©s": 12479,
  "esa": 12481,
  "ĠProcess": 12482,
  "_en": 12483,
  "ĠMiss": 12484,
  "ĠMass": 12485,
  "Ġmissing": 12486,
  "ĠPlayer": 12487,
  "Many": 12488,
  "Ġtherap": 12489,
  "dt": 12490,
  "ĠApplication": 12493,
  "ĠPop": 12494,
  "Ġalles": 12495,
  "ĠRoad": 12497,
  "Ġtalent": 12498,
  "aws": 12499,
  "ĠJo": 12501,
  "ĠmÃ¥": 12502,
  "etail": 12503,
  "_input": 12507,
  "Ġflat": 12508,
  "ĠVir": 12509,
  "VAL": 12510,
  "Ġmale": 12511,
  "ĠBi": 12512,
  "RC": 12515,
  "ĠIde": 12518,
  "wei": 12520,
  "Ġzw": 12522,
  "Ġcoffee": 12525,
  "_from": 12526,
  "Ġexperiment": 12527,
  "Ġorders": 12528,
  "Ġpoor": 12530,
  "Did": 12532,
  "fon": 12534,
  "indo": 12535,
  "ĠJul": 12537,
  "Ġcant": 12538,
  "pret": 12540,
  "Ġdistribution": 12545,
  "owa": 12546,
  "uje": 12547,
  "ÃŃvel": 12548,
  "ĠBed": 12550,
  "ancing": 12551,
  "Ġdirectory": 12552,
  "Ġleader": 12554,
  "Ġgj": 12556,
  "uras": 12558,
  "inet": 12559,
  "istan": 12560,
  "Pass": 12561,
  "Ġgesch": 12563,
  "ĠCong": 12565,
  "Ġrid": 12566,
  "Ġcrusher": 12567,
  "anh": 12569,
  "Ġhappened": 12570,
  "ĠGL": 12571,
  "ĠTuesday": 12572,
  "expected": 12575,
  "Ġels": 12576,
  "Ġlose": 12577,
  "ĠHead": 12578,
  "Ġadvantage": 12579,
  "SM": 12580,
  "Customer": 12581,
  "Ġpeace": 12585,
  "ĠSpecial": 12586,
  "ĠWhy": 12587,
  "ĠExper": 12588,
  "ibi": 12589,
  "Ġwelcome": 12591,
  "cion": 12592,
  "osta": 12593,
  "cias": 12595,
  "Ġbeste": 12596,
  "Ġmad": 12597,
  "ĠPeople": 12598,
  "ĠStore": 12600,
  "osh": 12601,
  "Å¼e": 12602,
  "Ġunless": 12604,
  "comment": 12606,
  "ĠChristian": 12607,
  "article": 12608,
  "Ġanaly": 12610,
  "validate": 12611,
  "ĠvÉĻ": 12613,
  "Ã¨res": 12614,
  "ĠMA": 12615,
  "Ġdoen": 12616,
  "avascript": 12619,
  "Ġdari": 12623,
  "ĠFinal": 12625,
  "Ġnegative": 12626,
  "PUT": 12627,
  "Ġhelped": 12628,
  "Ġequal": 12629,
  "lf": 12632,
  "Expression": 12633,
  "Ġfees": 12634,
  "osis": 12635,
  "Ġeuro": 12636,
  "Ġjest": 12637,
  "shared": 12638,
  "cludes": 12639,
  "Func": 12640,
  "aram": 12641,
  "Ġattr": 12642,
  "Ġslight": 12644,
  "Ġscope": 12645,
  "Ġjourney": 12647,
  "Ġsplit": 12648,
  "ĠParis": 12650,
  "Selection": 12653,
  "insi": 12655,
  "ipt": 12656,
  "ĠBon": 12658,
  "Struct": 12660,
  "Ġfollowed": 12661,
  "Ġupdates": 12663,
  "High": 12664,
  "Ġtri": 12665,
  "Ġinstanceof": 12666,
  "Ġhomes": 12668,
  "Elements": 12670,
  "rÃ¡": 12671,
  "Ä±l": 12672,
  "Ġadding": 12673,
  "ENG": 12674,
  "Ġintr": 12676,
  "Ġgrat": 12679,
  "Radius": 12680,
  "icious": 12682,
  "ĠviÃ°": 12684,
  "Ġwerk": 12685,
  "HA": 12686,
  "Lat": 12687,
  "ĠJames": 12689,
  "arten": 12690,
  "ĠPo": 12692,
  "ĠCommunity": 12693,
  "Ġinner": 12694,
  "Variable": 12695,
  "Ġrout": 12696,
  "enger": 12697,
  "Ġnone": 12698,
  "lot": 12700,
  "amples": 12703,
  "wt": 12704,
  "ĉe": 12706,
  "Move": 12707,
  "BB": 12708,
  "Has": 12710,
  "Ġfee": 12711,
  "ĠnÃº": 12712,
  "ĠvÃ¦": 12714,
  "Ã½ch": 12715,
  "cular": 12716,
  "Ġali": 12719,
  "ktop": 12720,
  "Ġcivil": 12721,
  "Ġdonde": 12722,
  "Room": 12723,
  "News": 12724,
  "activ": 12727,
  "cale": 12730,
  "Ġvom": 12731,
  "Boolean": 12732,
  "ĠTele": 12733,
  "ĠAlex": 12734,
  "erk": 12735,
  "ocity": 12736,
  "ukan": 12737,
  "Ġnap": 12739,
  "drop": 12740,
  "Ġbehavior": 12741,
  "Ġtail": 12742,
  "ĠAnal": 12743,
  "azine": 12745,
  "Ġdei": 12749,
  "IOException": 12750,
  "Ġluck": 12751,
  "ĠCourt": 12755,
  "PU": 12756,
  "Ġade": 12758,
  "ĠBoolean": 12759,
  "Ġremain": 12760,
  "Ġtrail": 12761,
  "Ġpieces": 12762,
  "np": 12766,
  "Ġsistema": 12767,
  "ĠChild": 12768,
  "Ġtraffic": 12769,
  "oods": 12770,
  "Ġmovement": 12772,
  "ĠUnter": 12775,
  "Ġprest": 12776,
  "Ġnat": 12777,
  "iece": 12778,
  "Ġapplicable": 12781,
  "_var": 12782,
  "Nav": 12786,
  "Ġolder": 12787,
  "bind": 12788,
  "Ġproduced": 12790,
  "Ġestablish": 12791,
  "entr": 12792,
  "letter": 12793,
  "Ġring": 12796,
  "Ġsurg": 12797,
  "Ġndi": 12798,
  "Ġhaven": 12801,
  "ĠPrem": 12802,
  "Ġnod": 12803,
  "Ġdiese": 12805,
  "Ġfashion": 12808,
  "uno": 12811,
  "Ġestablished": 12812,
  "VENT": 12813,
  "ĠOnly": 12817,
  "throw": 12818,
  "Ġreset": 12820,
  "Ġinstant": 12823,
  "ĠPet": 12824,
  "ĠStat": 12825,
  "ĠAnn": 12827,
  "ĠPromise": 12828,
  "Ġrare": 12829,
  "Ġainda": 12830,
  "Ġdá»ĭ": 12833,
  "Ġperman": 12834,
  "ÉĻt": 12835,
  "Ġsuccessfully": 12836,
  "Ġsupported": 12837,
  "ĠAuth": 12838,
  "Ġorigin": 12839,
  "Ġtiempo": 12841,
  "Ġbillion": 12842,
  "tk": 12844,
  "Let": 12845,
  "arta": 12846,
  "Ġshift": 12847,
  "ened": 12848,
  "Ġstyles": 12849,
  "none": 12851,
  "ĠKon": 12852,
  "Ġpoll": 12854,
  "Ġspecif": 12855,
  "Ġplot": 12857,
  "Ġlux": 12859,
  "Ġspring": 12860,
  "ARD": 12861,
  "Ġagreed": 12863,
  "jem": 12864,
  "Ġlogo": 12866,
  "swer": 12869,
  "Ġnotes": 12870,
  "Ġconstruct": 12871,
  "jango": 12872,
  "Ġpri": 12874,
  "fx": 12876,
  "Ġhusband": 12877,
  "ĠMusic": 12878,
  "Ġcreative": 12879,
  "Ġtherefore": 12880,
  "Ġapps": 12881,
  "pk": 12882,
  "Ġmotiv": 12883,
  "Ġsignal": 12884,
  "rog": 12885,
  "Ġdescribe": 12886,
  "irth": 12888,
  "Ġdecre": 12889,
  "Ġeleg": 12890,
  "Ġbrain": 12891,
  "Build": 12893,
  "Ġoblig": 12894,
  "iciency": 12895,
  "itate": 12896,
  "urb": 12897,
  "Ġstick": 12899,
  "Ġstreet": 12901,
  "ijs": 12903,
  "Ġtechniques": 12905,
  "oir": 12906,
  "Ġtap": 12909,
  "ĉw": 12910,
  "ĠFrench": 12911,
  "Ġmg": 12912,
  "ĠWednesday": 12913,
  "Ġheavy": 12914,
  "opped": 12918,
  "required": 12919,
  "inh": 12924,
  "foreach": 12925,
  "Some": 12926,
  "Results": 12928,
  "Word": 12929,
  "Ġmaintain": 12930,
  "ea": 12932,
  "ĠVan": 12933,
  "IRE": 12934,
  "run": 12935,
  "ĠLight": 12936,
  "ORE": 12937,
  "Ġseven": 12938,
  "Ġveg": 12939,
  "Lock": 12940,
  "asis": 12941,
  "Ġpromot": 12942,
  "andi": 12944,
  "Ġholiday": 12945,
  "ĠSupport": 12947,
  "umes": 12948,
  "encode": 12949,
  "Ġperhaps": 12951,
  "ĠAssociation": 12953,
  "ĠIndian": 12954,
  "SSION": 12957,
  "ĠAbout": 12958,
  "Ġug": 12960,
  "Term": 12961,
  "ushing": 12963,
  "ĠserÃ¡": 12964,
  "Ġquarter": 12965,
  "Identifier": 12966,
  "eps": 12967,
  "Files": 12968,
  "Ġmoder": 12969,
  "VO": 12970,
  "throws": 12972,
  "Ġexpression": 12973,
  "Ġpra": 12975,
  "owired": 12976,
  "ĠProp": 12978,
  "_KEY": 12980,
  "lia": 12981,
  "ategy": 12983,
  "ĠPass": 12984,
  "Ġwedding": 12985,
  "Ġdriving": 12987,
  "uge": 12988,
  "Ġplaced": 12989,
  "Ġadvanced": 12990,
  "Month": 12991,
  "Ġkunt": 12992,
  "ĠAccess": 12993,
  "Ġkeys": 12994,
  "java": 12996,
  "Ġachieve": 12998,
  "Ġeta": 12999,
  "_new": 13000,
  "Ġdecide": 13001,
  "company": 13003,
  "Ġabstract": 13004,
  "ĠKn": 13006,
  "ĠLove": 13007,
  "Ġprofessionals": 13008,
  "isco": 13009,
  "Ġretail": 13010,
  "_query": 13012,
  "Ġcamb": 13013,
  "ĠBre": 13014,
  "Ġlaws": 13015,
  "Ġmess": 13017,
  "ĠtÃ¤": 13020,
  "ĠIOException": 13021,
  "Yes": 13022,
  "_AD": 13023,
  "ĠIntent": 13025,
  "pped": 13026,
  "gers": 13027,
  "uti": 13029,
  "Ġexists": 13031,
  "zone": 13032,
  "ĠSQL": 13033,
  "Ġneighbor": 13034,
  "fras": 13035,
  "Before": 13036,
  "inin": 13039,
  "Compat": 13040,
  "Ġexchange": 13041,
  "Ġsang": 13043,
  "ĠRepublic": 13044,
  "ĠÃ©l": 13045,
  "World": 13046,
  "Ġposit": 13047,
  "ĠMaster": 13049,
  "Send": 13052,
  "Ġpropr": 13053,
  "allback": 13054,
  "abo": 13055,
  "ĠIr": 13056,
  "Ġupper": 13057,
  "ĠBlock": 13063,
  "ĠLive": 13065,
  "ĠBlog": 13068,
  "Ġchi": 13069,
  "Ġexperts": 13071,
  "well": 13072,
  "fd": 13073,
  "ĠMaterial": 13074,
  "While": 13076,
  "uar": 13077,
  "Inv": 13079,
  "inq": 13080,
  "Package": 13081,
  "Ġcapac": 13082,
  "Ġcovered": 13083,
  "Ġzal": 13084,
  "fach": 13085,
  "Feature": 13086,
  "ĉecho": 13087,
  "_TR": 13088,
  "SL": 13090,
  "Ġham": 13093,
  "Ġblo": 13098,
  "Notification": 13099,
  "ussen": 13100,
  "Ġpon": 13101,
  "ĠCollection": 13102,
  "ĠPrint": 13103,
  "Ġpy": 13104,
  "ieb": 13105,
  "Ġrect": 13107,
  "ĠSpe": 13109,
  "Ġsharing": 13110,
  "ĠJava": 13114,
  "Ġattribute": 13118,
  "buf": 13119,
  "ĠLA": 13120,
  "ONG": 13122,
  "models": 13123,
  "oster": 13124,
  "Ġsuitable": 13127,
  "Ġprepared": 13128,
  "Ġseeing": 13129,
  "Required": 13133,
  "ĠBuy": 13134,
  "Å¡e": 13136,
  "blem": 13139,
  "lad": 13140,
  "baar": 13141,
  "icion": 13142,
  "Ġcontribut": 13143,
  "These": 13145,
  "ĠHD": 13148,
  "ummy": 13149,
  "Tube": 13151,
  "ÃŁe": 13153,
  "Ãªs": 13154,
  "Ġdelay": 13155,
  "FIG": 13156,
  "parator": 13157,
  "save": 13158,
  "agi": 13160,
  "Ġved": 13162,
  "ĠAP": 13165,
  "Styles": 13166,
  "Ġnad": 13168,
  "ĠRobert": 13169,
  "hidden": 13170,
  "Ġwaste": 13173,
  "Ġdefine": 13174,
  "_label": 13175,
  "abi": 13177,
  "CCESS": 13178,
  "MT": 13179,
  "ĠCA": 13180,
  "after": 13181,
  "arty": 13182,
  "Ġbek": 13183,
  "Ġkept": 13185,
  "uran": 13186,
  "real": 13187,
  "Ġfond": 13188,
  "Ġexperiences": 13189,
  "Ġefforts": 13190,
  "Ġsow": 13191,
  "ĠLou": 13193,
  "ĠBritish": 13194,
  "VD": 13195,
  "idx": 13196,
  "footer": 13197,
  "Ġorient": 13198,
  "Ġredirect": 13200,
  "Ġtrading": 13202,
  "mak": 13203,
  "ĠEU": 13204,
  "Ġgarant": 13205,
  "Er": 13206,
  "ĠFort": 13207,
  "oche": 13210,
  "Ġfixed": 13213,
  "Ġano": 13214,
  "pan": 13216,
  "Ġstarts": 13217,
  "Sql": 13218,
  "Ġvr": 13219,
  "Ã¼k": 13220,
  "Ġmilitary": 13223,
  "Hello": 13225,
  "aciÃ³": 13226,
  "QUEST": 13227,
  "ĠToday": 13228,
  "ĠAk": 13232,
  "amba": 13233,
  "ĠMi": 13236,
  "quent": 13238,
  "Ġthoughts": 13239,
  "Ġprimer": 13240,
  "Ġsmooth": 13241,
  "orders": 13243,
  "iteit": 13244,
  "orizontal": 13246,
  "ĠAD": 13247,
  "going": 13248,
  "Ġwil": 13249,
  "argument": 13251,
  "ÉĻl": 13252,
  "Ġmayor": 13253,
  "Ġporn": 13255,
  "Ġhabe": 13256,
  "plugin": 13257,
  "Ġlleg": 13258,
  "Ġfazer": 13259,
  "Ġhabit": 13260,
  "ĠServer": 13261,
  "ativo": 13262,
  "_page": 13263,
  "iera": 13264,
  "ĠTag": 13265,
  "ĠMichael": 13266,
  "Flag": 13267,
  "Ġcentre": 13268,
  "Ġweiter": 13270,
  "apse": 13272,
  "hat": 13274,
  "_title": 13275,
  "Sim": 13280,
  "cement": 13281,
  "ĠrÃ©s": 13282,
  "Ġkad": 13283,
  "Ġreplace": 13284,
  "ĠBu": 13286,
  "Ġdess": 13287,
  "pragma": 13288,
  "chain": 13289,
  "Ġantes": 13290,
  "Ġonto": 13291,
  "Ġdispos": 13293,
  "parser": 13297,
  "idential": 13299,
  "Single": 13301,
  "Print": 13302,
  "ĉend": 13304,
  "_all": 13305,
  "Ġunits": 13306,
  "ugs": 13307,
  "Ġsempre": 13308,
  "Ġmater": 13309,
  "Ġhandler": 13310,
  "ĠTwo": 13311,
  "Ġindependent": 13313,
  "ulated": 13314,
  "Ġaccommod": 13315,
  "Ġsteel": 13316,
  "ycle": 13317,
  "blog": 13318,
  "Ġalternative": 13319,
  "you": 13320,
  "Ġmock": 13322,
  "Ġmath": 13324,
  "ifer": 13325,
  "Rest": 13327,
  "Ġdestination": 13330,
  "Space": 13331,
  "Ġfootball": 13332,
  "ĠAfrica": 13333,
  "Ġpent": 13334,
  "Ġapplied": 13335,
  "Ġmine": 13336,
  "Ġavant": 13339,
  "Ġchamp": 13341,
  "ĠLike": 13342,
  "qa": 13344,
  "Ins": 13345,
  "what": 13347,
  "ayan": 13348,
  "ULAR": 13349,
  "Ġcourses": 13350,
  "Ġkit": 13351,
  "ĠPART": 13352,
  "utf": 13353,
  "ĠRo": 13354,
  "ancer": 13358,
  "chte": 13359,
  "Ġnuest": 13360,
  "lica": 13362,
  "ĠTim": 13363,
  "Ġhappens": 13367,
  "Ġthousands": 13369,
  "Ã«n": 13371,
  "Ġtok": 13372,
  "sort": 13373,
  "ĠUnd": 13378,
  "NULL": 13379,
  "agr": 13380,
  "Ġgef": 13382,
  "ĠZeit": 13383,
  "Ġattend": 13384,
  "Ġbiggest": 13385,
  "leri": 13386,
  "ĠmÃ©d": 13387,
  "Ġcompliance": 13390,
  "ĠEsp": 13391,
  "Ġpresented": 13392,
  "Ġdescribed": 13394,
  "racht": 13395,
  "ikes": 13396,
  "ĠBeach": 13397,
  "ĠCentral": 13399,
  "icios": 13400,
  "Ġmeg": 13401,
  "Ã§as": 13402,
  "irl": 13403,
  "poses": 13406,
  "ĠhÃ¡": 13408,
  "rei": 13409,
  "iminal": 13411,
  "ĠRa": 13412,
  "ĠMel": 13413,
  "ĠManager": 13415,
  "ĠAz": 13417,
  "Het": 13418,
  "Ġgek": 13419,
  "icken": 13420,
  "Ġdalam": 13421,
  "Ġcoverage": 13422,
  "plier": 13423,
  "Ġextract": 13424,
  "Ġproperly": 13425,
  "Ġdocuments": 13427,
  "plement": 13429,
  "Ġimportante": 13431,
  "Ġautor": 13432,
  "uls": 13433,
  "ĠLord": 13434,
  "Ġsympt": 13435,
  "riage": 13436,
  "Ġbought": 13439,
  "Ġearth": 13440,
  "Ġestar": 13442,
  "APP": 13444,
  "itr": 13445,
  "Å¾e": 13446,
  "virt": 13448,
  "addr": 13453,
  "oku": 13454,
  "arks": 13455,
  "edge": 13457,
  "Ġliqu": 13459,
  "ĠDO": 13460,
  "Just": 13462,
  "ĠPress": 13463,
  "Ġchain": 13464,
  "ACT": 13467,
  "zeit": 13469,
  "Plugin": 13470,
  "ĠLoad": 13471,
  "ailability": 13476,
  "ĠWir": 13477,
  "cb": 13478,
  "ĠPDF": 13479,
  "Ġdanger": 13480,
  "ĠPan": 13481,
  "ĠSelect": 13482,
  "Ġheaders": 13483,
  "Ġknows": 13484,
  "Ġwhatever": 13485,
  "ALSE": 13487,
  "Ġcancel": 13491,
  "entials": 13494,
  "isl": 13495,
  "_EN": 13497,
  "ĠDefault": 13498,
  "Ã©ri": 13499,
  "Ġsociety": 13501,
  "chat": 13503,
  "Submit": 13504,
  "avigate": 13505,
  "ĠRegister": 13506,
  "kel": 13507,
  "History": 13508,
  "Ġplenty": 13509,
  "Share": 13510,
  "illi": 13515,
  "ĠSecurity": 13516,
  "Der": 13518,
  "larÄ±": 13519,
  "ĠCG": 13520,
  "Div": 13521,
  "Stop": 13523,
  "Ġchallenges": 13525,
  "Ġexercise": 13526,
  "_VALUE": 13527,
  "issa": 13528,
  "PIO": 13529,
  "Ġbah": 13530,
  "Ġparties": 13531,
  "appy": 13532,
  "aler": 13534,
  "_token": 13535,
  "Ġadm": 13537,
  "abb": 13538,
  "ĠFest": 13543,
  "Ġowners": 13546,
  "Center": 13550,
  "Ġprojet": 13551,
  "owner": 13552,
  "Ġwarranty": 13556,
  "Ġreality": 13559,
  "May": 13561,
  "ĠChurch": 13563,
  "ĠUtil": 13564,
  "element": 13565,
  "ĠSize": 13568,
  "ME": 13569,
  "Ġremote": 13571,
  "Ġadvent": 13572,
  "ĠLE": 13573,
  "Ġseparate": 13574,
  "_no": 13575,
  "Ġcompreh": 13576,
  "clar": 13577,
  "odi": 13578,
  "amps": 13580,
  "Ġprz": 13584,
  "Ġrows": 13585,
  "Ġweak": 13586,
  "Program": 13587,
  "atura": 13588,
  "ĠÃ§a": 13590,
  "ĠGes": 13592,
  "ERV": 13593,
  "SG": 13594,
  "Ã¼l": 13595,
  "Ġempresa": 13596,
  "Ġdeposit": 13597,
  "Ġduration": 13599,
  "ĠBecause": 13602,
  "ĠEen": 13604,
  "pute": 13605,
  "ĠSup": 13606,
  "Ġtoe": 13608,
  "aug": 13610,
  "Ġrh": 13613,
  "unately": 13614,
  "Ã¨t": 13615,
  "ĠSeg": 13616,
  "icher": 13617,
  "cout": 13620,
  "anie": 13621,
  "vm": 13622,
  "olution": 13625,
  "ĠEducation": 13626,
  "split": 13627,
  "Ġpremi": 13629,
  "uur": 13630,
  "Ġrating": 13632,
  "Ġnumerous": 13633,
  "orer": 13634,
  "Ġdepth": 13636,
  "Ġtasks": 13638,
  "bes": 13639,
  "tip": 13641,
  "Desc": 13642,
  "Ġappar": 13643,
  "achment": 13647,
  "ĠJun": 13648,
  "Ġarchitect": 13650,
  "acher": 13652,
  "Ġcars": 13653,
  "Ġwinter": 13655,
  "ocial": 13656,
  "Thank": 13659,
  "Ġgather": 13660,
  "Ġqueue": 13661,
  "ĠEurop": 13662,
  "HECK": 13663,
  "Ġpartial": 13664,
  "ĠKar": 13667,
  "bot": 13669,
  "Cart": 13670,
  "ĠTa": 13671,
  "uku": 13673,
  "Ġutiliz": 13674,
  "rez": 13676,
  "Ġsmaller": 13679,
  "Ġdepartment": 13680,
  "fn": 13682,
  "_len": 13683,
  "She": 13684,
  "iences": 13685,
  "Ġclassic": 13686,
  "force": 13687,
  "ĠSing": 13688,
  "Ġell": 13690,
  "amma": 13691,
  "hd": 13692,
  "ivel": 13693,
  "_val": 13694,
  "Ġobvious": 13695,
  "ifying": 13700,
  "Ġstars": 13701,
  "ĠExt": 13703,
  "Directory": 13704,
  "Ġguests": 13705,
  "_end": 13707,
  "Ġprepare": 13708,
  "Ġcraft": 13709,
  "sec": 13711,
  "Ġbright": 13712,
  "ĠInstagram": 13713,
  "emand": 13714,
  "rar": 13715,
  "akh": 13716,
  "Ġlearned": 13717,
  "Make": 13718,
  "Ġruns": 13719,
  "ĠDevelopment": 13724,
  "Ġfundament": 13725,
  "Ġkol": 13726,
  "Ġgarden": 13727,
  "ĠRiver": 13728,
  "Ġtypically": 13729,
  "Ä±z": 13730,
  "_max": 13731,
  "Ġhonest": 13734,
  "bal": 13738,
  "ĠiÅŁ": 13739,
  "ĠAff": 13741,
  "Ġdf": 13742,
  "Argument": 13743,
  "async": 13744,
  "Ġtub": 13745,
  "Ġalla": 13746,
  "icians": 13747,
  "Import": 13748,
  "Ġsquare": 13749,
  "oa": 13750,
  "bij": 13753,
  "Ġbatch": 13754,
  "Ġporno": 13760,
  "ĠMinister": 13761,
  "Ġzou": 13762,
  "ĠNon": 13763,
  "ror": 13764,
  "Ġaid": 13765,
  "outube": 13766,
  "ĠDies": 13767,
  "Ġgenerated": 13768,
  "Ġforeign": 13770,
  "Ġsusp": 13773,
  "COM": 13775,
  "clipse": 13776,
  "ĠbaÅŁ": 13777,
  "Animation": 13779,
  "Duration": 13780,
  "Ġrequests": 13782,
  "Ġtse": 13783,
  "Ġchanging": 13784,
  "ATUS": 13785,
  "Definition": 13786,
  "Ġmud": 13787,
  "aby": 13788,
  "ĠpolÃŃt": 13789,
  "Ġtruck": 13790,
  "Ġorganizations": 13792,
  "Ġking": 13793,
  "ĠDirector": 13794,
  "Mock": 13797,
  "Ġsuite": 13800,
  "nov": 13802,
  "ĠCouncil": 13803,
  "imas": 13804,
  "ÈĻi": 13805,
  "DEBUG": 13806,
  "Ġmentioned": 13808,
  "ĉprotected": 13809,
  "Ġdil": 13812,
  "Ġopinion": 13813,
  "Ġforget": 13814,
  "Ġworkers": 13816,
  "beit": 13818,
  "ĠkÃ¶": 13819,
  "Ġverm": 13821,
  "ĠMount": 13822,
  "anim": 13823,
  "ĠGrand": 13824,
  "rollers": 13825,
  "alan": 13827,
  "igan": 13828,
  "ĠAf": 13829,
  "settings": 13832,
  "inds": 13834,
  "azo": 13835,
  "XML": 13836,
  "udad": 13838,
  "Ġobjet": 13839,
  "Ġescort": 13840,
  "media": 13841,
  "Ġsek": 13842,
  "Ġjump": 13843,
  "agers": 13845,
  "Ġimplementation": 13847,
  "sz": 13849,
  "alm": 13850,
  "Ġstandards": 13853,
  "ĠDit": 13854,
  "_U": 13856,
  "Ġdaughter": 13857,
  "itur": 13862,
  "Other": 13863,
  "Two": 13866,
  "ifts": 13870,
  "Ġandroidx": 13871,
  "Ġrain": 13873,
  "MB": 13874,
  "Ġhang": 13875,
  "Public": 13876,
  "Ġinterior": 13878,
  "ĠMais": 13880,
  "Ġrecommended": 13883,
  "uego": 13884,
  "ĠContent": 13885,
  "ĠNext": 13886,
  "gun": 13887,
  "ĠValid": 13888,
  "Ġaudience": 13889,
  "Ġdestroy": 13890,
  "Ġemployee": 13891,
  "_CH": 13894,
  "dec": 13895,
  "Ġgaat": 13896,
  "Ġfish": 13897,
  "Ġserved": 13898,
  "Timer": 13899,
  "_SH": 13900,
  "second": 13901,
  "game": 13902,
  "Why": 13903,
  "GR": 13905,
  "Ġopened": 13906,
  "Ġabsolutely": 13907,
  "_init": 13909,
  "ĠUnder": 13911,
  "ĠSecret": 13913,
  "aye": 13916,
  "Ġconoc": 13918,
  "ĠdÃŃa": 13919,
  "inho": 13921,
  "Ġaos": 13924,
  "Ã¬nh": 13925,
  "Fail": 13926,
  "ĠOk": 13927,
  "Fi": 13929,
  "Ġtidak": 13930,
  "ĠPour": 13931,
  "eff": 13933,
  "ĠFlorida": 13934,
  "Ġrepair": 13936,
  "Are": 13938,
  "Ġdhe": 13939,
  "Ġplants": 13940,
  "olver": 13941,
  "vet": 13942,
  "vg": 13943,
  "Interval": 13947,
  "uestra": 13949,
  "ĠasÃŃ": 13950,
  "Driver": 13951,
  "Ġconserv": 13953,
  "asp": 13954,
  "Ġvariables": 13955,
  "Ġfacilities": 13956,
  "ĠSem": 13957,
  "Ġkeeping": 13958,
  "Ã¤Ã¤n": 13960,
  "ĠgÃ¶r": 13962,
  "Ġfaith": 13963,
  "dc": 13964,
  "Ġhele": 13965,
  "ÅĽci": 13966,
  "Ġalgo": 13967,
  "_message": 13968,
  "ento": 13969,
  "ĠBill": 13971,
  "Ġthus": 13972,
  "Mut": 13973,
  "ĠIts": 13974,
  "Ġbuf": 13976,
  "Ġmee": 13977,
  "which": 13980,
  "Æ°á»£c": 13982,
  "Ġanimal": 13983,
  "VC": 13984,
  "Ġgeneration": 13986,
  "iba": 13987,
  "agra": 13990,
  "Ġloaded": 13991,
  "áº¿t": 13992,
  "ĠScience": 13993,
  "Ġmovies": 13995,
  "Ġleaders": 13998,
  "ĠChinese": 13999,
  "Ġregistered": 14000,
  "ĠSand": 14001,
  "ĠMex": 14003,
  "uite": 14004,
  "Meta": 14006,
  "Ġdt": 14008,
  "Ġsido": 14010,
  "points": 14011,
  "Ġdynamic": 14012,
  "agg": 14013,
  "OWN": 14014,
  "Ġcentury": 14015,
  "Ġidx": 14016,
  "iante": 14017,
  "Ġwid": 14018,
  "into": 14020,
  "Network": 14022,
  "Ġdedicated": 14024,
  "Ġcorre": 14025,
  "Ġjur": 14026,
  "ĠPath": 14027,
  "Ġteaching": 14029,
  "Ġnovel": 14030,
  "ĠTre": 14031,
  "ĠCast": 14032,
  "team": 14035,
  "ĠAlthough": 14036,
  "cohol": 14037,
  "witter": 14038,
  "DATE": 14040,
  "Ġradi": 14041,
  "Ġath": 14042,
  "Ġencore": 14043,
  "Ġteacher": 14044,
  "Most": 14046,
  "Ġpersonas": 14047,
  "Ġvote": 14048,
  "Ġhidden": 14051,
  "istant": 14055,
  "Ġfeedback": 14058,
  "Ġkid": 14059,
  "Ġresolve": 14062,
  "ieg": 14064,
  "Chat": 14065,
  "Ġaccounts": 14066,
  "Dim": 14068,
  "ĠProperty": 14069,
  "Ġaria": 14070,
  "Ġflash": 14072,
  "Cancel": 14073,
  "iÃ§Ã£o": 14074,
  "Alert": 14076,
  "Ġexhib": 14077,
  "Ġwest": 14078,
  "Ġbecomes": 14081,
  "Ġmich": 14082,
  "Ġcombination": 14083,
  "Direction": 14084,
  "âĢĻn": 14087,
  "esser": 14088,
  "Ġfailure": 14090,
  "_reg": 14091,
  "Ġmedium": 14093,
  "Bundle": 14094,
  "istro": 14095,
  "ĠnÃ«": 14096,
  "ĠFamily": 14098,
  "Img": 14099,
  "orden": 14101,
  "got": 14104,
  "wick": 14105,
  "Ã¤ll": 14109,
  "Ġnieuwe": 14112,
  "Ġsubmit": 14114,
  "Ġeconomy": 14115,
  "that": 14116,
  "Points": 14117,
  "person": 14118,
  "ifs": 14119,
  "loader": 14120,
  "Ġvision": 14122,
  "iais": 14123,
  "Ġpac": 14124,
  "zn": 14130,
  "serial": 14131,
  "ĠRef": 14132,
  "Ġpert": 14133,
  "Ġvul": 14134,
  "axis": 14135,
  "Med": 14137,
  "Resources": 14139,
  "Ġdeveloping": 14140,
  "ĠLeb": 14143,
  "Ġindustrial": 14144,
  "Ġpure": 14147,
  "Ġelev": 14150,
  "Ġdeals": 14151,
  "ested": 14155,
  "ĠMens": 14157,
  "Ġpermission": 14158,
  "ORY": 14159,
  "iterator": 14160,
  "_with": 14161,
  "ĠPen": 14162,
  "brief": 14164,
  "Services": 14165,
  "ĠTake": 14166,
  "irs": 14168,
  "ployment": 14169,
  "CM": 14170,
  "unde": 14171,
  "make": 14172,
  "_field": 14173,
  "FS": 14179,
  "ipeline": 14180,
  "Ġdepart": 14182,
  "Ġalter": 14183,
  "Router": 14184,
  "ĠLic": 14186,
  "Hot": 14187,
  "Ġautomatically": 14188,
  "Ġpurposes": 14189,
  "Ġvy": 14190,
  "Ġtf": 14191,
  "Debug": 14192,
  "Ġcorner": 14194,
  "Vertex": 14196,
  "ĠInvest": 14199,
  "ston": 14201,
  "dam": 14202,
  "Ġcrypt": 14204,
  "Ġdonc": 14206,
  "ĠCho": 14207,
  "ĠMarket": 14208,
  "ĠDetails": 14209,
  "Ġodd": 14210,
  "Ġeight": 14212,
  "Ġparser": 14216,
  "Ġconstru": 14218,
  "Contract": 14221,
  "Ġdip": 14223,
  "ĠTree": 14224,
  "Cr": 14225,
  "ĠIsland": 14226,
  "Ġconstit": 14227,
  "ĠCe": 14228,
  "fall": 14229,
  "ĠWARRANTIES": 14231,
  "Condition": 14232,
  "ĠGer": 14233,
  "ĠKa": 14234,
  "ooks": 14235,
  "aban": 14236,
  "Ġintellig": 14237,
  "Ġtrib": 14241,
  "Socket": 14242,
  "Ġvalu": 14244,
  "Ġlocations": 14245,
  "ĠLib": 14246,
  "Ġplt": 14248,
  "river": 14251,
  "Ġshowing": 14253,
  "Ġelection": 14254,
  "Ġfilled": 14255,
  "Ġmanaged": 14256,
  "obby": 14258,
  "alen": 14260,
  "ĠNach": 14261,
  "ĠCert": 14262,
  "Ġdiscussion": 14266,
  "Ġlub": 14267,
  "adt": 14269,
  "Ġredis": 14270,
  "Ġcaused": 14273,
  "Mouse": 14275,
  "Ġselling": 14279,
  "folio": 14280,
  "Ġaware": 14281,
  "Download": 14282,
  "ĠTimes": 14285,
  "bur": 14286,
  "bour": 14287,
  "licht": 14288,
  "Ġkum": 14289,
  "_read": 14291,
  "ĠEmail": 14292,
  "loop": 14294,
  "assign": 14297,
  "oses": 14301,
  "Ġdut": 14303,
  "LY": 14305,
  "Ġsad": 14306,
  "Ġdistrict": 14309,
  "UST": 14312,
  "LI": 14313,
  "Ã¼m": 14314,
  "Ġdiam": 14315,
  "enced": 14316,
  "Attributes": 14317,
  "ĠEngland": 14318,
  "anco": 14319,
  "Ġrelationships": 14321,
  "ĠMary": 14322,
  "Photo": 14323,
  "Ġpresence": 14324,
  "CI": 14325,
  "Ġexplore": 14326,
  "ichen": 14327,
  "orgen": 14330,
  "iat": 14331,
  "Ġkes": 14335,
  "Ġfamous": 14336,
  "ĠIch": 14337,
  "Ġbranch": 14338,
  "iem": 14339,
  "Ġprocesses": 14340,
  "veis": 14341,
  "Ġincorpor": 14342,
  "ĠTer": 14343,
  "ĠHall": 14346,
  "Ġenf": 14347,
  "Ġtl": 14348,
  "ĠTour": 14349,
  "Ġstone": 14352,
  "Ä±k": 14353,
  "Ġpak": 14354,
  "zoek": 14355,
  "Delegate": 14356,
  "ĠLeague": 14358,
  "Ġoperating": 14359,
  "Ġfly": 14360,
  "Ġtek": 14361,
  "Flags": 14362,
  "background": 14364,
  "Ġfunds": 14365,
  "ferred": 14366,
  "elines": 14368,
  "Ġadvertising": 14370,
  "Ġtegen": 14371,
  "yaa": 14372,
  "irus": 14374,
  "OLD": 14375,
  "Ġyield": 14376,
  "napshot": 14378,
  "Ġpreviously": 14380,
  "_LO": 14381,
  "Policy": 14384,
  "dl": 14386,
  "Ġwindows": 14387,
  "Ã¡p": 14389,
  "_UN": 14390,
  "scape": 14395,
  "Ġdomin": 14398,
  "Ã¶glich": 14399,
  "ĠEqu": 14400,
  "Ġdeclar": 14404,
  "agt": 14405,
  "_COM": 14406,
  "ĠStatus": 14407,
  "kat": 14408,
  "ups": 14409,
  "Media": 14411,
  "Ġveget": 14412,
  "Ġshowed": 14414,
  "Ġpic": 14415,
  "Ġdatas": 14416,
  "_line": 14418,
  "Ġrecipe": 14420,
  "ctors": 14421,
  "ĠSD": 14422,
  "Ġestas": 14424,
  "ĠCond": 14428,
  "ĠHy": 14431,
  "Ġlin": 14432,
  "stances": 14435,
  "_address": 14436,
  "frastruct": 14441,
  "Math": 14443,
  "Ġpartners": 14444,
  "UCCESS": 14446,
  "anka": 14449,
  "Ġelectr": 14451,
  "Ġvak": 14453,
  "izo": 14455,
  "Ġevening": 14456,
  "anas": 14457,
  "_msg": 14458,
  "Ġmouse": 14459,
  "edom": 14460,
  "ĠmÃ¶": 14461,
  "ĠAdministr": 14462,
  "Ġtransition": 14463,
  "assa": 14464,
  "ĠHave": 14465,
  "Ġpill": 14466,
  "ĠrÃ©g": 14467,
  "Ġperformed": 14469,
  "Help": 14470,
  "Ġcalling": 14471,
  "Ġparking": 14472,
  "ĉC": 14473,
  "oba": 14476,
  "Sur": 14477,
  "Ġakan": 14478,
  "Ġworry": 14479,
  "ications": 14481,
  "engine": 14483,
  "ych": 14486,
  "Ġsous": 14487,
  "Ġfamiliar": 14488,
  "Ġbott": 14489,
  "ĠCommand": 14492,
  "erde": 14493,
  "Ġchoices": 14494,
  "yer": 14497,
  "ATED": 14498,
  "amu": 14500,
  "umbers": 14501,
  "Ġbeauty": 14505,
  "Ġmeant": 14506,
  "Ġhin": 14508,
  "Material": 14509,
  "ĠWas": 14512,
  "PN": 14513,
  "_trans": 14514,
  "Ġpurs": 14516,
  "Ġappears": 14518,
  "Ġfuncion": 14520,
  "ffff": 14522,
  "ĠBud": 14523,
  "Ġprocedure": 14525,
  "oves": 14526,
  "SESSION": 14530,
  "Ġyes": 14531,
  "nih": 14533,
  "ĠAls": 14535,
  "ĠCurrent": 14536,
  "Ġdepending": 14537,
  "atural": 14538,
  "Prop": 14541,
  "Ġnada": 14542,
  "ĠInstitute": 14544,
  "ĉprintf": 14545,
  "chten": 14546,
  "Extra": 14547,
  "ĠLake": 14548,
  "Ġproc": 14550,
  "ĠLocation": 14553,
  "cipe": 14554,
  "Speed": 14555,
  "Board": 14558,
  "normal": 14559,
  "Ġfactory": 14560,
  "Ãªm": 14562,
  "ossa": 14563,
  "Ġheel": 14564,
  "dan": 14565,
  "eti": 14566,
  "Ġbrief": 14567,
  "zel": 14568,
  "Ġmensen": 14569,
  "ongs": 14570,
  "ulations": 14571,
  "ĠBY": 14572,
  "FFFF": 14573,
  "ĠRecord": 14574,
  "ĠBO": 14576,
  "Ġthi": 14578,
  "ĠIndex": 14580,
  "ĠRun": 14581,
  "ĠOld": 14583,
  "Ġjoint": 14585,
  "ordinate": 14586,
  "AK": 14587,
  "ĠFederal": 14589,
  "Best": 14591,
  "ummer": 14595,
  "files": 14596,
  "ĠBes": 14599,
  "Ġpoly": 14600,
  "zek": 14602,
  "rey": 14603,
  "Ġstores": 14604,
  "ĠWall": 14606,
  "Ġjak": 14607,
  "Ġsenior": 14608,
  "_param": 14613,
  "ĠThread": 14614,
  "controller": 14616,
  "cas": 14617,
  "Ġpayload": 14618,
  "ĠWi": 14619,
  "Ġnutr": 14620,
  "ĠCommission": 14621,
  "ocks": 14622,
  "ĉstatic": 14623,
  "atre": 14624,
  "Ġadvis": 14627,
  "ĠToast": 14630,
  "ĠDim": 14631,
  "Ġdetailed": 14633,
  "Ġcompos": 14635,
  "Ġtorch": 14638,
  "ĠFund": 14640,
  "ulle": 14644,
  "Ġassistance": 14647,
  "Character": 14648,
  "Ġplate": 14651,
  "Lower": 14653,
  "FILE": 14654,
  "Ġwen": 14655,
  "Ġmachines": 14656,
  "Ġscan": 14659,
  "ĠWil": 14661,
  "ĠvÃŃ": 14663,
  "Ġpessoas": 14665,
  "Ġfantastic": 14667,
  "icar": 14670,
  "appro": 14671,
  "Vo": 14672,
  "Ġtaste": 14673,
  "Pad": 14674,
  "sign": 14677,
  "Ġdecisions": 14678,
  "otic": 14682,
  "Ġsqu": 14685,
  "txt": 14686,
  "Ġui": 14687,
  "esti": 14688,
  "Ġlect": 14690,
  "_pos": 14692,
  "ikel": 14693,
  "NO": 14695,
  "Ġfois": 14697,
  "Ã¤tt": 14698,
  "Ġtrigger": 14699,
  "ĠSaf": 14701,
  "Ġbisa": 14702,
  "trl": 14703,
  "RESS": 14704,
  "Ġwatching": 14705,
  "estic": 14707,
  "ivi": 14709,
  "bag": 14710,
  "Mult": 14711,
  "Ġcomplic": 14713,
  "osto": 14714,
  "Ġanswers": 14716,
  "ĠWeek": 14717,
  "ĠClient": 14718,
  "ĠTry": 14720,
  "Scene": 14721,
  "Ġtempor": 14725,
  "Ġkrij": 14727,
  "Ġana": 14728,
  "ĠLED": 14729,
  "copy": 14730,
  "Ġmeta": 14732,
  "á»ĩn": 14733,
  "orde": 14735,
  "Ġprofes": 14736,
  "low": 14739,
  "Ġloading": 14742,
  "Ġef": 14743,
  "Ġgun": 14744,
  "ĠUnion": 14746,
  "hab": 14747,
  "POSE": 14749,
  "Review": 14750,
  "Ġnun": 14751,
  "ĠRec": 14753,
  "Comments": 14755,
  "asting": 14758,
  "Ġsigned": 14759,
  "itors": 14760,
  "quality": 14761,
  "ĠMad": 14763,
  "ancia": 14764,
  "Ġtrop": 14765,
  "ajax": 14766,
  "ĠDeuts": 14768,
  "Ġdied": 14769,
  "aze": 14770,
  "arroll": 14771,
  "checked": 14772,
  "_post": 14774,
  "Ġremains": 14777,
  "Ġmaintenance": 14778,
  "Ġcad": 14779,
  "asyon": 14781,
  "ĠCommon": 14782,
  "nÄĽ": 14783,
  "Ġforum": 14786,
  "ARG": 14787,
  "ĠField": 14788,
  "Ġran": 14790,
  "Ġaug": 14792,
  "fc": 14794,
  "ĠParam": 14796,
  "argv": 14797,
  "helper": 14798,
  "Generator": 14802,
  "Ġtum": 14803,
  "logo": 14804,
  "Ġadvance": 14805,
  "Ġsegment": 14806,
  "ULE": 14807,
  "Ġdumpster": 14809,
  "insert": 14813,
  "Ġoccup": 14815,
  "Ġbecoming": 14817,
  "Ġexpensive": 14818,
  "ilos": 14820,
  "Ġice": 14821,
  "Ġkg": 14826,
  "Ġfuel": 14827,
  "âĢĻil": 14828,
  "ĠnÃ©": 14832,
  "ĠER": 14834,
  "Ġpossibly": 14836,
  "Ġswe": 14837,
  "cean": 14838,
  "ĉstruct": 14839,
  "Ġreject": 14841,
  "NC": 14842,
  "Ġcharges": 14843,
  "compl": 14845,
  "Ġclaims": 14846,
  "bootstrap": 14848,
  "Ġvolt": 14849,
  "plates": 14850,
  "ouv": 14851,
  "Descriptor": 14853,
  "Ġgoods": 14854,
  "ĠUnit": 14856,
  "ĠMP": 14857,
  "Ġkt": 14858,
  "erto": 14859,
  "ichtig": 14860,
  "Ġfoto": 14864,
  "Ġverify": 14866,
  "stra": 14867,
  "Ġsj": 14870,
  "ĠVor": 14873,
  "ĠRom": 14874,
  "ĠLI": 14875,
  "ingo": 14878,
  "puter": 14879,
  "EP": 14880,
  "Common": 14882,
  "Ġjustify": 14883,
  "_event": 14884,
  "ĠJew": 14886,
  "match": 14893,
  "qli": 14894,
  "Ġkul": 14896,
  "Thanks": 14897,
  "Ġvary": 14899,
  "ĠLogin": 14900,
  "Å¡t": 14901,
  "ĠNeder": 14902,
  "eros": 14905,
  "ĠKind": 14907,
  "ennis": 14908,
  "Ġblij": 14909,
  "Publ": 14911,
  "Bottom": 14913,
  "west": 14914,
  "weg": 14915,
  "Ã¤m": 14918,
  "asje": 14920,
  "question": 14921,
  "JECT": 14924,
  "Proxy": 14925,
  "NESS": 14926,
  "aine": 14931,
  "ĠSeries": 14932,
  "ĠFont": 14935,
  "Ġwaren": 14936,
  "ĠaÃ±o": 14937,
  "umps": 14938,
  "Ã¤s": 14940,
  "Ġcleaning": 14941,
  "Ġdelivered": 14942,
  "Ġcursor": 14944,
  "Ġmajority": 14945,
  "erca": 14946,
  "cruit": 14947,
  "Sch": 14948,
  "ilen": 14949,
  "aret": 14950,
  "ĠPS": 14952,
  "wana": 14954,
  "_params": 14956,
  "Sync": 14957,
  "ĠWhether": 14959,
  "rá»¥": 14961,
  "Ġwy": 14962,
  "Ġmarch": 14963,
  "ĠCR": 14964,
  "icago": 14965,
  "Ġstim": 14966,
  "Ġwine": 14967,
  "Ġinstrument": 14969,
  "nections": 14970,
  "ĠPUR": 14971,
  "Ġisang": 14972,
  "Ġassign": 14975,
  "Ġkub": 14976,
  "_view": 14977,
  "ximately": 14978,
  "bert": 14979,
  "Ġcs": 14980,
  "ĠiÃ§in": 14981,
  "Border": 14983,
  "onda": 14985,
  "Ġvalidate": 14986,
  "Ġlav": 14987,
  "esi": 14988,
  "enti": 14989,
  "Ġtoda": 14991,
  "clear": 14994,
  "Failed": 14995,
  "bro": 14996,
  "ĠPL": 14998,
  "Ok": 14999,
  "ĠLOG": 15000,
  "Ġrelative": 15001,
  "istor": 15003,
  "ĠExp": 15004,
  "Ġcontinued": 15008,
  "Memory": 15009,
  "Auto": 15011,
  "iji": 15012,
  "áº¿n": 15013,
  "Ġwalking": 15015,
  "Ġrend": 15016,
  "atio": 15017,
  "_dis": 15018,
  "Ġsouth": 15019,
  "Ġleaving": 15021,
  "Ġanimals": 15022,
  "ĠSource": 15024,
  "mg": 15026,
  "Ġnative": 15027,
  "Owner": 15029,
  "Ġconflic": 15030,
  "ĠFood": 15031,
  "anja": 15032,
  "onymous": 15033,
  "ĠKl": 15034,
  "ĠJson": 15035,
  "Ġescol": 15036,
  "Ġflo": 15037,
  "Ġpractices": 15040,
  "Kit": 15041,
  "pop": 15042,
  "Ġreliable": 15048,
  "ĠGerm": 15049,
  "hin": 15050,
  "anye": 15051,
  "angen": 15053,
  "Ġminor": 15054,
  "Ġfocused": 15055,
  "Ġsuis": 15058,
  "ĠÃ©gal": 15059,
  "ĠOS": 15060,
  "Ġcommunities": 15061,
  "ĉnew": 15064,
  "Ġmini": 15065,
  "Ġkot": 15066,
  "hetic": 15068,
  "Ġzone": 15070,
  "ĠDistrict": 15071,
  "Ġagreement": 15072,
  "FE": 15076,
  "ĉl": 15077,
  "Ġillustr": 15078,
  "Ġtopics": 15083,
  "ĠFar": 15085,
  "kte": 15086,
  "iendo": 15088,
  "Pointer": 15089,
  "ientos": 15090,
  "Ġkuk": 15091,
  "Ġended": 15092,
  "Ġcontinues": 15093,
  "Ġquiet": 15095,
  "Ġcrow": 15096,
  "Os": 15097,
  "cripts": 15099,
  "Ġfle": 15100,
  "ĠTechnology": 15101,
  "Ġride": 15104,
  "Ġhace": 15105,
  "Ġnullptr": 15106,
  "ynt": 15107,
  "Ġtotally": 15108,
  "ĠIsrael": 15110,
  "ĠoÃ¹": 15113,
  "Ġsocket": 15114,
  "Para": 15115,
  "Ġreaders": 15116,
  "BE": 15117,
  "Ġpolicies": 15118,
  "ĠLtd": 15122,
  "uilt": 15123,
  "DIT": 15124,
  "Ġvin": 15127,
  "ĠÈĻi": 15128,
  "Ġfoll": 15130,
  "Ġbedroom": 15131,
  "anal": 15134,
  "Ġbond": 15135,
  "ĠAcadem": 15136,
  "lers": 15137,
  "Ġjun": 15138,
  "Ġsole": 15139,
  "Ġstrategies": 15142,
  "Question": 15143,
  "stack": 15145,
  "jour": 15146,
  "sÃ¥": 15147,
  "omo": 15150,
  "Ġkaj": 15156,
  "Ġfif": 15157,
  "Ġequip": 15160,
  "Ġproud": 15164,
  "ĠChamp": 15167,
  "Ġmogelijk": 15168,
  "Ã±a": 15169,
  "Ġsuit": 15170,
  "Prom": 15171,
  "rg": 15172,
  "Ġfot": 15173,
  "Ġdiverse": 15174,
  "Ġcompetition": 15175,
  "Ġaccident": 15176,
  "uld": 15178,
  "ĠWho": 15179,
  "Mat": 15180,
  "Ġrs": 15181,
  "rowse": 15183,
  "operator": 15184,
  "Ġcultural": 15186,
  "Ġattributes": 15187,
  "afa": 15188,
  "ĠNg": 15189,
  "MC": 15190,
  "Ġrou": 15191,
  "ĠCustomer": 15193,
  "Ġsister": 15196,
  "esterday": 15198,
  "Ġdebug": 15199,
  "riting": 15201,
  "ASK": 15202,
  "Ġmanual": 15203,
  "empre": 15204,
  "Ġinstalled": 15205,
  "bas": 15207,
  "replace": 15208,
  "Ġexcited": 15209,
  "ression": 15210,
  "hou": 15211,
  "Ġwinning": 15212,
  "Ġvacc": 15213,
  "Ġsnow": 15214,
  "PECT": 15215,
  "TV": 15216,
  "Ġms": 15217,
  "inecraft": 15220,
  "Ġdok": 15221,
  "Ġphase": 15222,
  "odos": 15223,
  "_is": 15224,
  "Internal": 15225,
  "Ġprompt": 15226,
  "Ã©lÃ©": 15228,
  "Ġproviders": 15230,
  "cmp": 15231,
  "Ġpromote": 15232,
  "ĠMER": 15233,
  "imon": 15235,
  "Ġpays": 15236,
  "Ġreached": 15237,
  "Ġenum": 15238,
  "ERSION": 15239,
  "ĠAdv": 15241,
  "Ġflight": 15243,
  "ĠReviews": 15246,
  "Ġmatches": 15248,
  "Anim": 15249,
  "stylesheet": 15250,
  "ĠcÃ¡c": 15252,
  "Sw": 15254,
  "Ġconj": 15255,
  "Ġtoward": 15256,
  "_idx": 15257,
  "alg": 15258,
  "atile": 15259,
  "Ġdav": 15260,
  "Performed": 15261,
  "Ġmelhor": 15262,
  "Ġvisible": 15263,
  "Ġasset": 15264,
  "pth": 15265,
  "Drop": 15266,
  "_MAX": 15267,
  "Ġdou": 15268,
  "ĉprint": 15269,
  "Copy": 15270,
  "Information": 15271,
  "ĠUSB": 15272,
  "ĠTheir": 15273,
  "Plan": 15274,
  "Ġtus": 15275,
  "âĢĻin": 15276,
  "ĠBrasil": 15278,
  "Ġly": 15280,
  "ĠPolicy": 15282,
  "Ġpermissions": 15283,
  "km": 15284,
  "ovo": 15285,
  "Ġleads": 15286,
  "Ġrouter": 15288,
  "Ġsle": 15289,
  "Ġmic": 15291,
  "Ġchart": 15292,
  "Ġaliment": 15293,
  "ĠFIT": 15294,
  "Children": 15295,
  "GEN": 15296,
  "Ġdieser": 15297,
  "fection": 15298,
  "WORD": 15299,
  "sible": 15301,
  "Ġwilling": 15302,
  "hot": 15303,
  "isme": 15305,
  "ĠCorpor": 15307,
  "Ġenjoyed": 15309,
  "Ġfruit": 15310,
  "chant": 15311,
  "related": 15312,
  "ĠCarol": 15314,
  "Ġupp": 15315,
  "Ġconsumer": 15318,
  "ĠvÃ¤": 15320,
  "Ġplastic": 15322,
  "ĠBad": 15323,
  "anguages": 15324,
  "_mod": 15325,
  "Ġcul": 15328,
  "obre": 15329,
  "ĠgÃ©n": 15330,
  "ĠExpl": 15331,
  "ego": 15332,
  "Have": 15334,
  "Ġeinfach": 15336,
  "_URL": 15337,
  "Ġsugar": 15338,
  "Ġawesome": 15339,
  "Ġslots": 15340,
  "ordinates": 15343,
  "crit": 15345,
  "Ġseeking": 15347,
  "Ġgrade": 15349,
  "aju": 15350,
  "break": 15354,
  "FR": 15357,
  "Ġspecies": 15361,
  "ĠShort": 15362,
  "duled": 15364,
  "Ġassum": 15365,
  "ushed": 15366,
  "Ġesse": 15368,
  "Ġextension": 15369,
  "oq": 15370,
  "Folder": 15371,
  "formance": 15372,
  "water": 15373,
  "Ġsongs": 15374,
  "Xml": 15375,
  "Ġchemical": 15377,
  "Ġarrang": 15378,
  "vt": 15379,
  "vÃŃ": 15380,
  "Ġmant": 15384,
  "uciÃ³n": 15386,
  "Ġils": 15387,
  "Ġcontem": 15389,
  "URI": 15392,
  "full": 15393,
  "Student": 15394,
  "ĠSin": 15396,
  "operation": 15397,
  "miss": 15399,
  "_or": 15400,
  "Ġpok": 15401,
  "yect": 15402,
  "SH": 15403,
  "iance": 15404,
  "Ġtradition": 15405,
  "ĠComment": 15406,
  "Ġcompat": 15407,
  "ĠÄĳÆ°á»£c": 15408,
  "DU": 15409,
  "Ġmagn": 15410,
  "Ġcloth": 15418,
  "ARAM": 15420,
  "á»Ļt": 15421,
  "Ġpoker": 15422,
  "erved": 15423,
  "Ġdates": 15424,
  "ĠSanta": 15430,
  "ĠMult": 15431,
  "obo": 15436,
  "_OP": 15437,
  "Rows": 15438,
  "ellt": 15441,
  "Ġimpl": 15443,
  "irk": 15444,
  "Scope": 15446,
  "_offset": 15447,
  "Ġremaining": 15448,
  "Ġpandem": 15449,
  "alpha": 15453,
  "emplo": 15454,
  "ĠIlluminate": 15455,
  "Ġlors": 15456,
  "Ġexciting": 15457,
  "Ġtrait": 15458,
  "ÃŃan": 15460,
  "emÃ¡s": 15462,
  "pis": 15463,
  "Ġconference": 15465,
  "_point": 15466,
  "MI": 15470,
  "Ġpada": 15473,
  "Ġbrings": 15476,
  "Ġrum": 15477,
  "Ġraised": 15478,
  "utz": 15480,
  "enerate": 15481,
  "clusion": 15482,
  "Ġacademic": 15487,
  "ĠÃ©galement": 15488,
  "Ġguest": 15489,
  "ĠAnda": 15490,
  "isha": 15491,
  "Ġtat": 15495,
  "Ġagency": 15496,
  "pun": 15497,
  "Ġgust": 15498,
  "Ġtough": 15500,
  "Ġchose": 15505,
  "Ġpremier": 15506,
  "ĠGi": 15507,
  "services": 15510,
  "Ġsera": 15511,
  "Ġseat": 15512,
  "PRO": 15513,
  "okens": 15515,
  "rig": 15516,
  "ancial": 15518,
  "Final": 15519,
  "Ġbg": 15520,
  "Ġuso": 15521,
  "ĠNY": 15522,
  "servable": 15525,
  "emente": 15528,
  "Ġtechnologies": 15529,
  "Ġverk": 15532,
  "Metadata": 15533,
  "thern": 15534,
  "Ã³l": 15535,
  "Ġtrat": 15536,
  "ĠWatch": 15537,
  "Ġsounds": 15538,
  "ieu": 15541,
  "Ġspending": 15542,
  "Ġinstructions": 15543,
  "Company": 15545,
  "Ġdere": 15548,
  "Fore": 15549,
  "about": 15551,
  "ccion": 15554,
  "endor": 15555,
  "ĠDigital": 15557,
  "cap": 15558,
  "ĠGraph": 15559,
  "Ġsustain": 15561,
  "begin": 15563,
  "ĠSave": 15564,
  "ieux": 15565,
  "Ġcitiz": 15566,
  "Ġmillions": 15568,
  "Ġua": 15569,
  "elig": 15570,
  "zip": 15571,
  "Ġlista": 15572,
  "Pair": 15573,
  "Ġmaj": 15575,
  "_color": 15576,
  "Ġmarkets": 15577,
  "Ġchecked": 15579,
  "ĠSC": 15580,
  "Ġfurniture": 15581,
  "ĠApache": 15582,
  "Ġwerd": 15583,
  "sed": 15584,
  "Ġsuas": 15585,
  "Ġtau": 15586,
  "Ġama": 15587,
  "Sheet": 15588,
  "quel": 15590,
  "Ãªt": 15591,
  "Enable": 15592,
  "ĠAssembly": 15594,
  "Ret": 15595,
  "Ġmismo": 15596,
  "Ġitu": 15598,
  "Ġbinary": 15600,
  "ĠEmp": 15601,
  "ĠBur": 15602,
  "Ġclearly": 15603,
  "Ġerg": 15606,
  "Ġkeine": 15608,
  "Ġcreation": 15609,
  "Ġfolder": 15610,
  "ytics": 15615,
  "ursos": 15619,
  "Ġentertain": 15620,
  "aml": 15622,
  "Ġkv": 15623,
  "inations": 15628,
  "ĠConvert": 15629,
  "prop": 15630,
  "lg": 15632,
  "Ġlay": 15634,
  "ĠVo": 15635,
  "Ġcities": 15636,
  "Ġfuer": 15637,
  "ĠWat": 15639,
  "Ke": 15640,
  "Present": 15641,
  "virtual": 15642,
  "onth": 15643,
  "_block": 15644,
  "appe": 15645,
  "Ġmostly": 15646,
  "Ġnost": 15647,
  "Chart": 15649,
  "jours": 15650,
  "Ġexamples": 15652,
  "reen": 15653,
  "uction": 15654,
  "Ġscroll": 15655,
  "bra": 15656,
  "Ġleaves": 15657,
  "iments": 15658,
  "icans": 15659,
  "gnore": 15661,
  "GER": 15662,
  "Ġintended": 15663,
  "agne": 15665,
  "notation": 15668,
  "ĠSaint": 15670,
  "Temp": 15673,
  "Ġextr": 15674,
  "Ġerv": 15677,
  "Ġwasn": 15679,
  "ĠPARTIC": 15680,
  "Ġconversation": 15681,
  "ĠGovernment": 15682,
  "Ġcontaining": 15683,
  "condition": 15688,
  "amentos": 15690,
  "Bind": 15691,
  "Ġsimpl": 15693,
  "ieron": 15694,
  "Ġpossibil": 15695,
  "Ġpremium": 15696,
  "Ġcolumns": 15697,
  "ĠpiÃ¹": 15699,
  "Ġeating": 15700,
  "ĠParty": 15703,
  "encial": 15704,
  "leich": 15705,
  "Creat": 15708,
  "Ġaspects": 15712,
  "LETE": 15713,
  "LINE": 15714,
  "ĠGames": 15716,
  "frastructure": 15720,
  "ikip": 15721,
  "ĠnÃºmer": 15722,
  "Ġphotograph": 15723,
  "atro": 15728,
  "Theme": 15729,
  "cluded": 15730,
  "Ġlaug": 15733,
  "ĠJob": 15736,
  "nement": 15738,
  "ius": 15740,
  "TT": 15741,
  "ĠMobile": 15742,
  "ĠElement": 15743,
  "Ġdesigns": 15744,
  "Every": 15745,
  "ĠCBD": 15747,
  "Ġnodes": 15749,
  "ĠLogger": 15751,
  "Pay": 15753,
  "ĠSpring": 15754,
  "Ã©cn": 15758,
  "Ã¡vel": 15759,
  "Ġhell": 15760,
  "ÅĤa": 15762,
  "Ġvisitors": 15763,
  "City": 15764,
  "Ġvibr": 15765,
  "material": 15767,
  "ĠMun": 15768,
  "ĠHill": 15769,
  "ĠMatt": 15771,
  "Ã§os": 15775,
  "ulty": 15777,
  "ukt": 15778,
  "iros": 15783,
  "voor": 15784,
  "hern": 15786,
  "CHANT": 15787,
  "ĉstd": 15788,
  "ENGTH": 15789,
  "Ġexecute": 15792,
  "Ġneu": 15795,
  "Ġinvalid": 15796,
  "Rot": 15797,
  "ĉex": 15798,
  "icator": 15799,
  "Ġamer": 15802,
  "Team": 15804,
  "inge": 15805,
  "Ġfemale": 15806,
  "Ġmonde": 15807,
  "ĠHelp": 15809,
  "ARY": 15810,
  "iev": 15811,
  "Ġcircum": 15812,
  "_STR": 15813,
  "Ġohne": 15814,
  "Ġlimitations": 15817,
  "ĠShop": 15818,
  "ANCE": 15820,
  "estination": 15822,
  "Complete": 15823,
  "Ġcontents": 15825,
  "ĠStudent": 15826,
  "Ġbusy": 15827,
  "retch": 15829,
  "Ġbattery": 15831,
  "unga": 15832,
  "Ã´n": 15835,
  "ibe": 15836,
  "Binding": 15837,
  "Ġingredients": 15838,
  "Ġcycle": 15839,
  "flex": 15843,
  "heim": 15845,
  "abr": 15846,
  "_check": 15847,
  "Ġreput": 15848,
  "ĠSql": 15850,
  "headers": 15851,
  "Ġeerste": 15854,
  "Ġbattle": 15856,
  "Ġyi": 15860,
  "ĠMS": 15861,
  "Ġinstallation": 15862,
  "ĠPURPOSE": 15863,
  "aviour": 15864,
  "Sal": 15865,
  "night": 15869,
  "forms": 15870,
  "Ġkill": 15874,
  "Ġresidents": 15875,
  "quier": 15876,
  "Ġcream": 15877,
  "Äĩe": 15879,
  "Ġcarbon": 15883,
  "ician": 15884,
  "Ġspl": 15885,
  "Remove": 15886,
  "Ġprecis": 15888,
  "Ġcombined": 15890,
  "Ġmanifest": 15891,
  "aching": 15893,
  "tl": 15894,
  "bat": 15896,
  "Ġpositions": 15897,
  "Vert": 15898,
  "Short": 15900,
  "Ġsurvey": 15901,
  "immer": 15902,
  "ĠCS": 15903,
  "Ġwhom": 15904,
  "Ġinline": 15905,
  "xf": 15906,
  "Ġanywhere": 15907,
  "Ġdentro": 15908,
  "ĠGerman": 15913,
  "Ġtras": 15914,
  "Ġregistration": 15916,
  "Ġjoy": 15917,
  "task": 15921,
  "aina": 15922,
  "ĠHier": 15923,
  "Ġmoins": 15924,
  "itÃ¤t": 15925,
  "ĠCov": 15926,
  "ĠSport": 15928,
  "acking": 15930,
  "chter": 15931,
  "Ã¡ch": 15933,
  "Ġpd": 15934,
  "Components": 15937,
  "ichten": 15938,
  "ĠGeorge": 15939,
  "Ġhighlight": 15940,
  "Ġinteress": 15941,
  "DAO": 15942,
  "usr": 15943,
  "Ġhyp": 15944,
  "ĠHistory": 15946,
  "ĠHas": 15947,
  "ciÃ³n": 15949,
  "_min": 15950,
  "Light": 15952,
  "_mode": 15953,
  "ĠGET": 15955,
  "Blue": 15957,
  "ĠAtl": 15958,
  "ĠHTML": 15961,
  "issen": 15962,
  "Fac": 15964,
  "Ġgere": 15965,
  "Ġmaior": 15966,
  "buffer": 15967,
  "Ġskal": 15968,
  "prev": 15969,
  "Ġprofit": 15971,
  "Ġalleen": 15981,
  "Ġmyst": 15982,
  "ĠLearn": 15983,
  "jud": 15985,
  "connection": 15986,
  "pub": 15987,
  "ĠSelf": 15989,
  "_group": 15990,
  "Ġrental": 15991,
  "unca": 15992,
  "ĠPy": 15993,
  "resse": 15994,
  "Ġcuenta": 15995,
  "Ġgra": 15996,
  "Ġotros": 15998,
  "Models": 15999,
  "Ġyak": 16000,
  "Ġteen": 16002,
  "urers": 16003,
  "Ġmeasures": 16005,
  "Ġtener": 16009,
  "Ġmanner": 16010,
  "ierung": 16013,
  "oston": 16014,
  "gie": 16016,
  "ocolate": 16017,
  "riendly": 16018,
  "Ġputting": 16019,
  "aped": 16020,
  "Ġproj": 16022,
  "Ġbid": 16023,
  "onna": 16024,
  "iju": 16026,
  "vat": 16027,
  "conf": 16030,
  "ĠfÃ©": 16031,
  "Ġbare": 16033,
  "screen": 16034,
  "ĠSingle": 16035,
  "Ġlati": 16037,
  "_th": 16038,
  "ĠKore": 16041,
  "Ġrestaurants": 16043,
  "Ġinfluence": 16044,
  "Ġimportance": 16045,
  "Picker": 16046,
  "Ġsuperior": 16047,
  "Ġconhe": 16048,
  "zet": 16049,
  "ILL": 16050,
  "bt": 16051,
  "nership": 16053,
  "Ġasking": 16054,
  "ĠColors": 16055,
  "_fe": 16058,
  "Ġdad": 16060,
  "ammen": 16064,
  "Ġvra": 16065,
  "ĠIL": 16067,
  "WARE": 16071,
  "Visibility": 16072,
  "ĠSmart": 16073,
  "xa": 16074,
  "INFO": 16075,
  "vl": 16076,
  "Ġdinner": 16078,
  "Region": 16081,
  "Ã°i": 16082,
  "Ġdefinition": 16083,
  "Ġmea": 16084,
  "wr": 16085,
  "Follow": 16086,
  "short": 16090,
  "ancement": 16092,
  "Ġskill": 16093,
  "Ġconcerns": 16098,
  "Ġegg": 16102,
  "ĠPeter": 16104,
  "Ġfs": 16105,
  "Ġfaster": 16107,
  "Ġtank": 16109,
  "Das": 16110,
  "Ġeth": 16111,
  "ĠRadio": 16112,
  "Bet": 16113,
  "ĠPot": 16115,
  "Ġatmos": 16116,
  "ensa": 16117,
  "anza": 16118,
  "Ġenth": 16119,
  "zw": 16120,
  "vs": 16121,
  "Coll": 16123,
  "Ġdisabled": 16124,
  "Ġhoras": 16126,
  "emen": 16127,
  "Ġbelang": 16131,
  "Ġslightly": 16132,
  "CB": 16134,
  "Ġconfidence": 16135,
  "Ġentrepr": 16138,
  "Ġoccasion": 16141,
  "Ġmunicip": 16142,
  "Ġresponsibility": 16143,
  "Decimal": 16147,
  "para": 16151,
  "Ġplugin": 16153,
  "Ġepisode": 16154,
  "ĉi": 16156,
  "ĠPARTICULAR": 16160,
  "ĠÅ¾e": 16164,
  "ĠSite": 16165,
  "ĠChange": 16167,
  "Ġmt": 16170,
  "xe": 16172,
  "Ġnorth": 16173,
  "Ġsizes": 16174,
  "Ġfilms": 16176,
  "ĠCV": 16178,
  "eso": 16179,
  "Ġchosen": 16180,
  "igos": 16183,
  "Ġsvo": 16184,
  "IMIT": 16186,
  "Ġihe": 16187,
  "Ġbird": 16189,
  "clos": 16190,
  "Ġkup": 16192,
  "iale": 16193,
  "ĉList": 16195,
  "Dictionary": 16196,
  "localhost": 16197,
  "ĠWomen": 16201,
  "star": 16204,
  "nom": 16206,
  "Ġalgun": 16208,
  "Ġquot": 16209,
  "CHANTABILITY": 16210,
  "Ġmonthly": 16213,
  "Ġzip": 16216,
  "Ġguarantee": 16218,
  "Criteria": 16221,
  "aji": 16223,
  "Ġjul": 16224,
  "urchase": 16225,
  "encias": 16226,
  "_link": 16227,
  "when": 16228,
  "Ġkinds": 16229,
  "ĠClean": 16230,
  "Ġpointer": 16233,
  "ĠdÃ¼": 16234,
  "Ġtant": 16235,
  "Ġstored": 16240,
  "amt": 16242,
  "ĠlÃ¡": 16243,
  "_X": 16245,
  "Ġallowing": 16246,
  "Idx": 16248,
  "usic": 16249,
  "news": 16250,
  "Ġsono": 16251,
  "ĠSel": 16252,
  "ARK": 16254,
  "Ġhl": 16256,
  "Constructor": 16257,
  "Ġcot": 16258,
  "idir": 16259,
  "Ġket": 16262,
  "Counter": 16263,
  "iÅŁ": 16264,
  "Ġvind": 16266,
  "Ġrefresh": 16269,
  "Ġaument": 16273,
  "Ġcruc": 16276,
  "Ġdepuis": 16277,
  "Ġft": 16280,
  "Ġsequence": 16281,
  "ĠFITNESS": 16282,
  "hide": 16285,
  "Ġreb": 16286,
  "Ġdesen": 16288,
  "Ġbreath": 16289,
  "Touch": 16291,
  "Ġprot": 16292,
  "Beh": 16293,
  "component": 16294,
  "Side": 16295,
  "ĠHuman": 16296,
  "zelf": 16298,
  "Ġestado": 16299,
  "Ġaxis": 16300,
  "ĠPlace": 16303,
  "ighter": 16305,
  "ktr": 16306,
  "ĠCore": 16309,
  "Ġfavour": 16311,
  "ĠnÃ¡": 16313,
  "oren": 16314,
  "Ġvrij": 16315,
  "Upload": 16323,
  "ologie": 16324,
  "Ġgrandes": 16325,
  "fortunately": 16326,
  "Ġaccompl": 16327,
  "GA": 16328,
  "Ġstaat": 16330,
  "Ġregistr": 16331,
  "Ġoutdoor": 16332,
  "izza": 16333,
  "Ġlovely": 16334,
  "ogo": 16335,
  "Ġinteger": 16336,
  "Ġsegu": 16337,
  "Ġhv": 16338,
  "ĠGesch": 16341,
  "cie": 16342,
  "Ġtypeof": 16343,
  "ĠAccording": 16344,
  "Ġsalt": 16345,
  "Ġleurs": 16348,
  "ĠWhere": 16349,
  "BL": 16350,
  "werk": 16351,
  "ĠMenu": 16352,
  "orney": 16353,
  "ĠRight": 16354,
  "aurant": 16355,
  "Ġbreakfast": 16356,
  "AVE": 16357,
  "ĠStream": 16358,
  "Ġaccurate": 16360,
  "Ġanderen": 16361,
  "amas": 16362,
  "ĠAsia": 16363,
  "Ġcommitted": 16365,
  "move": 16366,
  "Ġroof": 16367,
  "imize": 16368,
  "Ġainsi": 16371,
  "stead": 16372,
  "Ġbuck": 16373,
  "Ġning": 16374,
  "Extension": 16378,
  "appoint": 16379,
  "ulator": 16381,
  "ĠStock": 16382,
  "Ġmassage": 16383,
  "ichte": 16384,
  "Ġbear": 16387,
  "ynd": 16388,
  "Ġtres": 16389,
  "License": 16391,
  "ĠEnergy": 16394,
  "adian": 16395,
  "ĠEdge": 16396,
  "Ġconsumers": 16398,
  "ĠAddress": 16399,
  "ĠEle": 16400,
  "ieten": 16402,
  "ĉS": 16403,
  "Ġleadership": 16404,
  "Ã©tÃ©": 16406,
  "Ãły": 16408,
  "Ġtechnique": 16410,
  "Ġengineering": 16411,
  "edback": 16413,
  "Ġdesire": 16414,
  "pecific": 16416,
  "Ġlle": 16417,
  "Real": 16418,
  "Ġdespite": 16419,
  "Ġdib": 16420,
  "Ġsamen": 16421,
  "Ġveter": 16423,
  "Username": 16424,
  "rait": 16425,
  "ĠEv": 16426,
  "ĠDemocr": 16428,
  "ĠkhÃ´ng": 16429,
  "cert": 16430,
  "Ġcauses": 16431,
  "ĠCommit": 16433,
  "Ġtah": 16434,
  "Ġmixed": 16435,
  "ĠWin": 16436,
  "Ġzus": 16437,
  "Domain": 16438,
  "Ġpublish": 16439,
  "sw": 16440,
  "Ġyap": 16442,
  "asser": 16445,
  "ĠÃºn": 16448,
  "Ġenvironmental": 16449,
  "Ġholding": 16450,
  "ĠGro": 16453,
  "ĠHard": 16454,
  "ĠNor": 16455,
  "Ġrod": 16456,
  "See": 16457,
  "Ġcolour": 16458,
  "Ġfacility": 16459,
  "ĠaprÃ¨s": 16460,
  "Bounds": 16462,
  "ĠEarth": 16464,
  "ĠWrite": 16465,
  "Ġere": 16466,
  "Ġgeme": 16467,
  "Ġela": 16468,
  "Assert": 16469,
  "Ġtrend": 16474,
  "Pal": 16476,
  "ĠMarketing": 16477,
  "Ġprivacy": 16480,
  "ycl": 16481,
  "ÃŃd": 16482,
  "resents": 16483,
  "Et": 16484,
  "aci": 16485,
  "Produ": 16486,
  "Ġsele": 16487,
  "Ġbinnen": 16489,
  "Ġuniversity": 16490,
  "essional": 16492,
  "Ġotro": 16493,
  "CF": 16495,
  "Ġconsc": 16496,
  "_addr": 16497,
  "Ġdeix": 16498,
  "Ġplane": 16499,
  "_content": 16500,
  "oking": 16502,
  "Ġonde": 16505,
  "Ġadministration": 16507,
  "Ã³ria": 16508,
  "dem": 16509,
  "Ġbrands": 16510,
  "Ġvehicles": 16511,
  "outs": 16513,
  "Ġlaat": 16514,
  "Ġspecifically": 16515,
  "Ġpeng": 16517,
  "ĠAB": 16520,
  "Ġclock": 16523,
  "Ġtrabajo": 16524,
  "irebase": 16525,
  "abei": 16526,
  "Dispatch": 16528,
  "Ġhub": 16529,
  "cla": 16530,
  "onav": 16531,
  "rek": 16532,
  "occ": 16533,
  "heden": 16534,
  "pool": 16535,
  "Random": 16537,
  "Ġangle": 16538,
  "nten": 16539,
  "Ġchair": 16540,
  "ĠLevel": 16541,
  "Arch": 16543,
  "ĠsÄĥ": 16544,
  "Ġevol": 16545,
  "ĠMedic": 16546,
  "render": 16549,
  "Ġsumm": 16552,
  "redirect": 16553,
  "Focus": 16556,
  "Ġhav": 16557,
  "REFER": 16558,
  "quences": 16559,
  "reset": 16562,
  "Ġreward": 16563,
  "Ġmouth": 16564,
  "ĠVict": 16566,
  "Ġbathroom": 16568,
  "Typ": 16569,
  "results": 16570,
  "uries": 16572,
  "Bus": 16573,
  "ĠStandard": 16574,
  "Objects": 16575,
  "Edge": 16577,
  "Ġapenas": 16578,
  "Ġdot": 16579,
  "Ġtecn": 16580,
  "ÉĻs": 16582,
  "ĠLibrary": 16583,
  "Ġtables": 16584,
  "yny": 16586,
  "Ġalcohol": 16589,
  "Ã¶l": 16590,
  "Ġfeels": 16591,
  "Ġseemed": 16592,
  "Los": 16593,
  "Iterator": 16594,
  "Ġavoir": 16595,
  "ials": 16596,
  "UTF": 16597,
  "Created": 16598,
  "Ġrise": 16601,
  "unched": 16602,
  "ĠLim": 16603,
  "Ġadults": 16604,
  "pf": 16606,
  "ĠtÃŃ": 16607,
  "Ġapproved": 16608,
  "ĠMedical": 16610,
  "Stand": 16612,
  "Ġtags": 16613,
  "ĠContainer": 16614,
  "lights": 16615,
  "uple": 16616,
  "agu": 16617,
  "âĢľI": 16618,
  "solute": 16621,
  "Ġusage": 16622,
  "charge": 16623,
  "eding": 16624,
  "Ġiy": 16626,
  "ĠSmith": 16627,
  "Ġsymptoms": 16629,
  "Ġcanvas": 16630,
  "Ġvital": 16632,
  "andon": 16634,
  "ĠSpr": 16635,
  "Ġdich": 16637,
  "ĠWay": 16638,
  "_DATA": 16639,
  "cluding": 16640,
  "Ġbor": 16641,
  "Actions": 16642,
  "eras": 16643,
  "Ġexplain": 16644,
  "ĠÃ©tait": 16647,
  "onde": 16649,
  "maal": 16650,
  "Ġisol": 16651,
  "ĠSecond": 16652,
  "ĠFall": 16653,
  "âĢĻen": 16655,
  "aco": 16657,
  "Ġsheet": 16658,
  "Ġteachers": 16659,
  "foo": 16660,
  "asts": 16661,
  "ĠKo": 16663,
  "áº¡n": 16664,
  "Ġxml": 16665,
  "ĠLabel": 16666,
  "Ġnome": 16667,
  "vy": 16670,
  "igit": 16673,
  "Ġpodr": 16676,
  "Ġskip": 16677,
  "riends": 16678,
  "Ġapproximately": 16679,
  "Ġticket": 16681,
  "Ġhook": 16682,
  "ĠÃłs": 16683,
  "ĠCentre": 16685,
  "Ġtrabaj": 16686,
  "Renderer": 16687,
  "override": 16688,
  "Ġprotocol": 16689,
  "Ġtir": 16690,
  "Ġforces": 16691,
  "acao": 16693,
  "_HE": 16695,
  "Ġidentity": 16696,
  "prim": 16697,
  "ĠPubl": 16698,
  "Ġhoriz": 16700,
  "issue": 16701,
  "Ġclar": 16702,
  "ĠPrivate": 16703,
  "Nodes": 16704,
  "Ġcorporate": 16706,
  "halten": 16709,
  "tech": 16710,
  "BER": 16712,
  "Ġdollars": 16713,
  "Ġrig": 16714,
  "bc": 16715,
  "ĠCook": 16716,
  "ĠSar": 16717,
  "pio": 16719,
  "Ġsistem": 16720,
  "Ġclimate": 16721,
  "ritten": 16722,
  "Ġquote": 16723,
  "ĠRet": 16724,
  "SED": 16725,
  "illo": 16726,
  "pad": 16730,
  "_output": 16732,
  "anny": 16734,
  "Ġprotein": 16737,
  "Ġgratuit": 16738,
  "Ġsoul": 16741,
  "stop": 16743,
  "asm": 16744,
  "aid": 16745,
  "Ġec": 16746,
  "Ġmah": 16747,
  "ĠVers": 16749,
  "Ãłn": 16750,
  "Ġmuss": 16751,
  "Qual": 16752,
  "Kind": 16753,
  "ĠJahr": 16755,
  "Len": 16756,
  "ĠValley": 16757,
  "Ġinjury": 16758,
  "atti": 16759,
  "ĠNederland": 16760,
  "ĠCL": 16762,
  "Ġkick": 16763,
  "arda": 16764,
  "Ġhall": 16765,
  "ĠWestern": 16766,
  "eper": 16767,
  "iking": 16768,
  "Ġhip": 16769,
  "Ġenabled": 16770,
  "_IM": 16771,
  "awm": 16773,
  "Ġpret": 16776,
  "debug": 16779,
  "HS": 16780,
  "ĠContext": 16781,
  "ĉn": 16782,
  "Ġnuc": 16784,
  "onden": 16786,
  "amar": 16787,
  "Ġmau": 16789,
  "ielen": 16790,
  "Ġpued": 16791,
  "ĠFa": 16792,
  "Ġreply": 16794,
  "Ġcomprehensive": 16796,
  "Ġdogs": 16798,
  "Ġshares": 16800,
  "Ġdesarroll": 16802,
  "Ġgear": 16805,
  "Ġconvenient": 16806,
  "Ġbeat": 16807,
  "Ãªte": 16808,
  "Ġdisp": 16809,
  "ĉfunction": 16810,
  "Ġappearance": 16814,
  "Cost": 16815,
  "Ã¶t": 16816,
  "Ġdetermined": 16817,
  "_inter": 16818,
  "Ġpregn": 16819,
  "Ġbrother": 16820,
  "Pattern": 16821,
  "ĠMERCHANTABILITY": 16822,
  "Ġtoute": 16825,
  "Ġusa": 16827,
  "agraph": 16830,
  "Ġpentru": 16831,
  "Ġvier": 16832,
  "Ġnel": 16833,
  "ĠConnect": 16834,
  "ĠKeep": 16835,
  "LOW": 16839,
  "ĠJose": 16843,
  "kele": 16844,
  "ĠSym": 16846,
  "Ġartists": 16847,
  "Ġmigr": 16848,
  "illes": 16849,
  "DP": 16851,
  "ĠLuc": 16852,
  "LOCK": 16854,
  "ĠkÃ¤": 16855,
  "Ġcrisis": 16858,
  "Confirm": 16859,
  "ĠFra": 16860,
  "ĠMov": 16861,
  "Ġtsh": 16862,
  "Ġjoined": 16863,
  "ĠChicago": 16864,
  "Ġappreciate": 16866,
  "Ġtoujours": 16867,
  "Ġganz": 16868,
  "Ġhorr": 16869,
  "_train": 16872,
  "amat": 16873,
  "atomic": 16877,
  "itis": 16878,
  "_obj": 16879,
  "ĠArr": 16880,
  "oral": 16882,
  "rir": 16883,
  "gage": 16885,
  "Ã¡b": 16886,
  "ORS": 16887,
  "Ġauthent": 16888,
  "ansion": 16889,
  "cios": 16890,
  "Ġhou": 16892,
  "ului": 16893,
  "Mask": 16894,
  "unque": 16895,
  "Ġexpertise": 16897,
  "andy": 16898,
  "Conn": 16899,
  "Ġsamples": 16902,
  "Ġprotest": 16904,
  "Ġtimer": 16905,
  "bere": 16907,
  "Ġsubstant": 16908,
  "hash": 16909,
  "sect": 16910,
  "enant": 16911,
  "Ġdistinct": 16913,
  "Ġvariant": 16914,
  "Ġsucc": 16915,
  "ipher": 16917,
  "orthern": 16919,
  "ĠPut": 16924,
  "Ġsyst": 16927,
  "Ġdoubt": 16928,
  "_PATH": 16929,
  "Ġhide": 16930,
  "Ġenorm": 16931,
  "agent": 16932,
  "ulp": 16934,
  "ĠBefore": 16935,
  "Well": 16936,
  "anÃ§": 16940,
  "Ġdeck": 16942,
  "Ġcategories": 16944,
  "cpy": 16947,
  "ĠSports": 16950,
  "Ġblank": 16953,
  "vens": 16954,
  "_Click": 16955,
  "Ġfro": 16956,
  "icia": 16957,
  "ĠContinue": 16958,
  "irtual": 16959,
  "ĠMAX": 16960,
  "apsed": 16961,
  "Attr": 16962,
  "Ġcorr": 16963,
  "culate": 16965,
  "etails": 16967,
  "Ġexcess": 16968,
  "Ġstated": 16969,
  "Ġgrav": 16970,
  "Shape": 16971,
  "ĠestÃ¡n": 16974,
  "ĠGuide": 16975,
  "Ã³d": 16976,
  "LES": 16978,
  "Ġtrees": 16979,
  "iker": 16980,
  "unter": 16981,
  "Ġgreatest": 16983,
  "Ġzit": 16986,
  "Ġdiscovered": 16988,
  "Di": 16989,
  "job": 16991,
  "Ġtsa": 16992,
  "ĠObama": 16995,
  "Abstract": 16996,
  "nn": 16998,
  "ĠKen": 16999,
  "Ġsignificantly": 17000,
  "ienst": 17001,
  "Ġlinked": 17002,
  "Ġeines": 17003,
  "tele": 17004,
  "Ġtravail": 17005,
  "available": 17006,
  "IEL": 17008,
  "Ġaffordable": 17010,
  "Ġgegen": 17014,
  "ĠCategory": 17015,
  "arnings": 17016,
  "ĠpÃ«r": 17017,
  "scription": 17018,
  "were": 17019,
  "Uri": 17020,
  "answer": 17021,
  "Ġadopt": 17022,
  "editor": 17023,
  "Ġmob": 17025,
  "ARN": 17026,
  "Power": 17027,
  "rv": 17030,
  "heless": 17031,
  "Welcome": 17032,
  "mean": 17033,
  "ĠJud": 17034,
  "Payment": 17036,
  "Ġpueden": 17037,
  "enk": 17039,
  "Ġlisting": 17040,
  "Ã°ur": 17041,
  "jas": 17042,
  "inga": 17043,
  "ultural": 17044,
  "Answer": 17045,
  "week": 17048,
  "ĠArea": 17049,
  "ASH": 17050,
  "emplate": 17052,
  "ĠColl": 17054,
  "Ġpit": 17055,
  "Ġese": 17056,
  "wu": 17060,
  "ĠCEO": 17062,
  "_u": 17063,
  "Ġtas": 17067,
  "Ġiron": 17069,
  "ĠCross": 17070,
  "Camera": 17072,
  "Ġwidget": 17073,
  "Ġkab": 17074,
  "andler": 17075,
  "Ġexclusive": 17078,
  "Ġents": 17079,
  "ĠDuring": 17081,
  "ĠBuffer": 17090,
  "Ġleb": 17092,
  "ĠJournal": 17093,
  "Ġcra": 17094,
  "Ġends": 17095,
  "_base": 17096,
  "Ġcandidate": 17098,
  "zent": 17101,
  "Ġglad": 17103,
  "ĠOm": 17105,
  "ĠMem": 17106,
  "anded": 17107,
  "bul": 17108,
  "teen": 17109,
  "Ġmucho": 17111,
  "mem": 17112,
  "Audio": 17113,
  "Wait": 17114,
  "omi": 17115,
  "Ġinterval": 17116,
  "Ġkosten": 17117,
  "Ġbeim": 17118,
  "orse": 17120,
  "ĠdiffÃ©r": 17123,
  "Fil": 17124,
  "Ġlabels": 17125,
  "antu": 17126,
  "Ġbent": 17127,
  "Ġpump": 17128,
  "ĠFL": 17134,
  "Ġparticipants": 17135,
  "Ġcz": 17136,
  "iveness": 17140,
  "Ġvolg": 17141,
  "nehmen": 17142,
  "ĠVe": 17143,
  "Ġterror": 17144,
  "anish": 17145,
  "Ġappend": 17147,
  "validation": 17148,
  "ĠSale": 17149,
  "Mov": 17152,
  "Ġthick": 17154,
  "Ġbinding": 17156,
  "ibli": 17157,
  "ĠMaybe": 17158,
  "cpp": 17159,
  "Ġrealize": 17161,
  "Ġbroken": 17162,
  "Ġmusical": 17163,
  "ÅĤo": 17164,
  "ĠCu": 17166,
  "Ġtwee": 17167,
  "Ġnouve": 17169,
  "Ġsuffer": 17170,
  "ĠLu": 17171,
  "Ġspons": 17173,
  "ĉthrow": 17175,
  "Limit": 17176,
  "Ġboot": 17180,
  "ateway": 17182,
  "DT": 17183,
  "nee": 17185,
  "desc": 17186,
  "Ġkans": 17187,
  "ivid": 17188,
  "Ġmarried": 17189,
  "RS": 17190,
  "Ġsuc": 17192,
  "ĠLouis": 17194,
  "lette": 17195,
  "final": 17196,
  "ĠfÃ¥": 17197,
  "Ġcri": 17200,
  "CRE": 17201,
  "Ġarrest": 17202,
  "Ġsupports": 17203,
  "_LE": 17205,
  "Ġelim": 17208,
  "eka": 17209,
  "Good": 17212,
  "semble": 17213,
  "ĠDar": 17214,
  "ĠRoute": 17215,
  "anj": 17217,
  "Gap": 17218,
  "Ġdiferentes": 17220,
  "Ġrequested": 17222,
  "Ã«s": 17225,
  "á»ģu": 17226,
  "Ġconsidering": 17227,
  "ĠSou": 17228,
  "itel": 17229,
  "ĉget": 17232,
  "classes": 17233,
  "Ġelig": 17234,
  "ĠKIND": 17236,
  "ĠGermany": 17237,
  "Language": 17238,
  "Ġdrugs": 17239,
  "Ġvirus": 17240,
  "ĠCa": 17241,
  "NAME": 17242,
  "ĠfaÊ»": 17243,
  "Ġmij": 17244,
  "Ġquantity": 17245,
  "Ġtight": 17246,
  "aturing": 17248,
  "Ġpurchased": 17250,
  "ĠSend": 17251,
  "Ġeb": 17254,
  "Ġreduced": 17255,
  "ĠCup": 17257,
  "Express": 17258,
  "Ġdiz": 17259,
  "Super": 17260,
  "photo": 17261,
  "acer": 17263,
  "INS": 17264,
  "Rep": 17265,
  "ĠDelete": 17266,
  "ĠNav": 17271,
  "Setting": 17272,
  "pleted": 17273,
  "_RO": 17274,
  "Ġcomprom": 17275,
  "Ġfis": 17276,
  "neq": 17279,
  "Ġmd": 17280,
  "Ġzoals": 17281,
  "Stats": 17283,
  "Ġseed": 17284,
  "Ġcriminal": 17285,
  "bank": 17289,
  "Ġextended": 17290,
  "Ġsoit": 17293,
  "atin": 17294,
  "Ġdz": 17303,
  "Ġapartment": 17305,
  "Ġsky": 17307,
  "ems": 17308,
  "fre": 17310,
  "adv": 17312,
  "ĠWebsite": 17313,
  "ieden": 17314,
  "Ġalleg": 17315,
  "uits": 17317,
  "enga": 17318,
  "Ġamin": 17320,
  "inners": 17322,
  "Ġtickets": 17323,
  "sys": 17324,
  "Ġtin": 17325,
  "oment": 17326,
  "Ġmarriage": 17328,
  "ĠWARRANTY": 17329,
  "iras": 17331,
  "Sequence": 17333,
  "ilig": 17335,
  "Ġhj": 17337,
  "anager": 17338,
  "Ġassim": 17340,
  "osc": 17341,
  "Ġlett": 17343,
  "abetes": 17345,
  "Ġtheory": 17346,
  "okes": 17349,
  "resa": 17351,
  "Ġante": 17354,
  "ĠAV": 17355,
  "Ġclinical": 17356,
  "Ik": 17358,
  "system": 17360,
  "Ġworldwide": 17361,
  "Align": 17362,
  "Ġjew": 17364,
  "Ġresolution": 17365,
  "ĉchar": 17366,
  "Headers": 17367,
  "yor": 17368,
  "_request": 17371,
  "Ġkilled": 17372,
  "Ġflags": 17376,
  "Ġpractical": 17377,
  "ĠHospital": 17378,
  "Ġsitting": 17379,
  "ĠThomas": 17382,
  "UTH": 17384,
  "Ġtrong": 17386,
  "Ġml": 17387,
  "Ġbew": 17388,
  "Ġvolunte": 17389,
  "ÉĻk": 17394,
  "isan": 17396,
  "cycler": 17400,
  "ĠMartin": 17401,
  "Ġzv": 17402,
  "izaÃ§Ã£o": 17403,
  "Ġalpha": 17406,
  "rep": 17407,
  "cam": 17408,
  "Ġtudo": 17409,
  "ĠAbstract": 17413,
  "ĠWood": 17415,
  "Symbol": 17416,
  "Ġlunch": 17418,
  "acked": 17420,
  "Second": 17422,
  "nosti": 17423,
  "Ġsigns": 17424,
  "ĠTown": 17425,
  "ĠColumn": 17426,
  "Ġstudio": 17427,
  "ĠUk": 17430,
  "Ġbike": 17431,
  "ei": 17432,
  "Ġloans": 17433,
  "Sum": 17434,
  "ĠMember": 17435,
  "nte": 17436,
  "Ġsearching": 17437,
  "Ġmig": 17440,
  "Ġtherapy": 17441,
  "Ġgay": 17443,
  "Ġanx": 17445,
  "_order": 17446,
  "Ġgoto": 17448,
  "cf": 17449,
  "Ġdebt": 17451,
  "Ġbay": 17455,
  "Ġefficiency": 17456,
  "antal": 17457,
  "ĠÃ¥r": 17458,
  "Ġeso": 17459,
  "Ġdrag": 17460,
  "ĠComments": 17461,
  "Ġeventually": 17462,
  "Ġmole": 17463,
  "Ġspin": 17464,
  "_ids": 17465,
  "Ġarbe": 17468,
  "Ġkung": 17470,
  "herit": 17472,
  "Ġplays": 17473,
  "Ã³m": 17474,
  "amsung": 17476,
  "Ġyon": 17477,
  "Ä±nÄ±n": 17479,
  "Infl": 17480,
  "Ġorig": 17481,
  "ĠHom": 17482,
  "ĠDoes": 17484,
  "Cloud": 17486,
  "estions": 17490,
  "Ġhandling": 17491,
  "etic": 17492,
  "initial": 17493,
  "Ġfyr": 17494,
  "Ġfinance": 17496,
  "BR": 17499,
  "city": 17500,
  "Ġtoutes": 17502,
  "Ġzap": 17505,
  "ĠFac": 17506,
  "step": 17509,
  "ĠUsing": 17511,
  "umen": 17512,
  "Ġinterests": 17513,
  "aptop": 17514,
  "peg": 17515,
  "Reset": 17518,
  "ril": 17519,
  "ĉinline": 17520,
  "Ġkus": 17521,
  "Ġmultip": 17524,
  "Distance": 17525,
  "Employee": 17526,
  "AI": 17527,
  "Ġneighborhood": 17528,
  "Ġregional": 17531,
  "Cur": 17532,
  "ĠIhr": 17534,
  "eken": 17535,
  "Ġstyled": 17536,
  "ND": 17538,
  "sters": 17541,
  "Ġcela": 17542,
  "GE": 17544,
  "YS": 17546,
  "ĠFollow": 17547,
  "ostream": 17548,
  "Ġpris": 17549,
  "away": 17550,
  "ĠFREE": 17551,
  "Ġlogging": 17553,
  "ĠChat": 17554,
  "quot": 17555,
  "Ġpose": 17557,
  "Ġplaats": 17560,
  "Ġaccepted": 17562,
  "idents": 17563,
  "assembly": 17564,
  "ĠTotal": 17565,
  "Ġsnap": 17567,
  "ĉbool": 17569,
  "Ġcriteria": 17572,
  "Ġbou": 17573,
  "Ã°a": 17574,
  "anden": 17575,
  "Ġtherm": 17576,
  "White": 17578,
  "Ġmanera": 17579,
  "ternoon": 17580,
  "ĠDC": 17582,
  "Ġkomen": 17584,
  "ifestyle": 17585,
  "Ġmining": 17587,
  "ahren": 17588,
  "IED": 17589,
  "uplic": 17590,
  "mode": 17591,
  "ĠCongress": 17594,
  "_width": 17595,
  "izado": 17596,
  "ĠAutom": 17597,
  "iteral": 17598,
  "_not": 17599,
  "Ġey": 17600,
  "Ġhau": 17601,
  "ĠStyle": 17602,
  "stell": 17605,
  "ĠRuntime": 17606,
  "iveau": 17607,
  "ĠFoot": 17609,
  "Ġfonction": 17610,
  "Ġhers": 17611,
  "Ġpam": 17612,
  "Ġbasket": 17614,
  "video": 17615,
  "Apr": 17616,
  "Ġihre": 17617,
  "asset": 17618,
  "ordan": 17619,
  "Ġpriority": 17621,
  "Ġsiempre": 17622,
  "Ġpaying": 17623,
  "Ġsolar": 17624,
  "Ġpdf": 17625,
  "Ġgender": 17628,
  "qrt": 17629,
  "imming": 17630,
  "ĠRen": 17631,
  "Ġholder": 17632,
  "eurs": 17634,
  "Ġstre": 17635,
  "Ġencourage": 17636,
  "Ġgrupo": 17639,
  "Ġgoogle": 17641,
  "_button": 17642,
  "idity": 17644,
  "Ã©ment": 17645,
  "angers": 17646,
  "Ġauthors": 17651,
  "Ġmá»Ļt": 17654,
  "akers": 17658,
  "ĠBoth": 17659,
  "Ġserving": 17662,
  "_ref": 17663,
  "Ġtile": 17664,
  "flag": 17665,
  "Ġespa": 17668,
  "ĠVari": 17670,
  "umeric": 17671,
  "_REG": 17672,
  "TERN": 17673,
  "Ġnn": 17674,
  "Ġoutros": 17675,
  "Ġvertical": 17679,
  "ostic": 17680,
  "ĠSession": 17681,
  "ETHOD": 17682,
  "ĠTHIS": 17683,
  "Ġquelques": 17687,
  "eker": 17688,
  "rok": 17690,
  "Ġfold": 17691,
  "Dev": 17692,
  "tain": 17694,
  "Ġperd": 17696,
  "Ġdisse": 17699,
  "enders": 17700,
  "ether": 17701,
  "ĠDatabase": 17702,
  "bare": 17703,
  "anno": 17707,
  "ONT": 17708,
  "iders": 17709,
  "FTWARE": 17710,
  "engo": 17711,
  "Ġbirthday": 17715,
  "Ġpunt": 17716,
  "Ġprove": 17717,
  "ĠMot": 17718,
  "Ġnavigation": 17719,
  "custom": 17720,
  "enne": 17721,
  "Ġsolve": 17722,
  "Ġdiesem": 17732,
  "ĠArab": 17734,
  "ĠVAR": 17735,
  "Ġmeal": 17736,
  "Normal": 17738,
  "poq": 17741,
  "rece": 17742,
  "nia": 17744,
  "Ġobtained": 17747,
  "isting": 17750,
  "ĠVill": 17751,
  "Ġngh": 17753,
  "porte": 17761,
  "nah": 17762,
  "Ġtrabalho": 17763,
  "rag": 17764,
  "Ġads": 17767,
  "Ġvillage": 17769,
  "elta": 17770,
  "Ġcontre": 17771,
  "ysql": 17772,
  "ometimes": 17774,
  "ĠAw": 17775,
  "Ġrecovery": 17776,
  "âĢĻe": 17778,
  "ĠÄĳi": 17779,
  "Ġneck": 17783,
  "ĉdata": 17784,
  "Ġabsolute": 17786,
  "Ġtexture": 17788,
  "super": 17789,
  "Ġbigger": 17791,
  "Ġbomb": 17792,
  "mac": 17793,
  "Ġatu": 17794,
  "Ġabsor": 17795,
  "ĠOption": 17796,
  "acker": 17798,
  "Ġcb": 17799,
  "Ġidentified": 17800,
  "Ġencuent": 17801,
  "Ġcovers": 17804,
  "ureau": 17805,
  "ĠEconom": 17808,
  "Ġemergency": 17809,
  "puÃ©s": 17812,
  "ĠBoston": 17814,
  "ucket": 17817,
  "Ġfaut": 17821,
  "aho": 17822,
  "Ġmercado": 17823,
  "Ġcher": 17824,
  "Ġzn": 17825,
  "ensch": 17826,
  "ĠAfrican": 17827,
  "Ġnoticed": 17829,
  "ĠCloud": 17831,
  "icer": 17836,
  "opa": 17838,
  "Ġhundreds": 17839,
  "ENS": 17842,
  "Visual": 17843,
  "best": 17844,
  "Ġtorn": 17847,
  "YY": 17848,
  "ĠLi": 17850,
  "VM": 17851,
  "Ġentertainment": 17852,
  "Ġrein": 17855,
  "áº§n": 17856,
  "ĠInf": 17857,
  "ĠInfo": 17858,
  "record": 17860,
  "ĠLoc": 17861,
  "Ġassets": 17862,
  "weise": 17864,
  "Ġfunding": 17865,
  "anche": 17866,
  "Ġmotion": 17869,
  "_action": 17870,
  "Ġpoco": 17871,
  "ĉdouble": 17873,
  "Ġelectronic": 17874,
  "Ġofficials": 17875,
  "ĠMir": 17877,
  "ĠVirgin": 17878,
  "CG": 17879,
  "Ġbless": 17881,
  "Ġintroduced": 17882,
  "Star": 17883,
  "Will": 17886,
  "Ġignore": 17887,
  "Ġordered": 17889,
  "Ġsaber": 17890,
  "Ġgente": 17891,
  "_buffer": 17892,
  "HTTP": 17893,
  "mond": 17895,
  "Ġphr": 17898,
  "Ġlever": 17899,
  "ection": 17901,
  "Tile": 17902,
  "NSString": 17903,
  "Ġhearing": 17904,
  "ĠSET": 17905,
  "Mill": 17907,
  "Ġgeh": 17910,
  "Registry": 17911,
  "Ġcodes": 17913,
  "ĠEntity": 17916,
  "olid": 17917,
  "Ġplanet": 17921,
  "Validation": 17922,
  "Ġtrouble": 17923,
  "iyo": 17924,
  "ificar": 17925,
  "ĠWalk": 17926,
  "Ġunknown": 17927,
  "Prefix": 17930,
  "Ġgoverning": 17931,
  "Ġoli": 17932,
  "ixels": 17933,
  "entre": 17935,
  "construct": 17936,
  "Ġlado": 17937,
  "Ġmoments": 17938,
  "Ġgeld": 17939,
  "iau": 17940,
  "bytes": 17941,
  "ĠBall": 17943,
  "adda": 17944,
  "ĠFestival": 17945,
  "Ġpredict": 17946,
  "placement": 17947,
  "innen": 17949,
  "Ġcalculate": 17950,
  "ĠToken": 17951,
  "tool": 17952,
  "Ġprograma": 17957,
  "Simple": 17958,
  "Ġstrugg": 17959,
  "Ġmodal": 17960,
[...]
