{
  "A": 1065,
  "B": 1066,
  "C": 1067,
  "D": 1068,
  "E": 1069,
  "F": 1070,
  "G": 1071,
  "H": 1072,
  "I": 1073,
  "J": 1074,
  "K": 1075,
  "L": 1076,
  "M": 1077,
  "N": 1078,
  "O": 1079,
  "P": 1080,
  "Q": 1081,
  "R": 1082,
  "S": 1083,
  "T": 1084,
  "U": 1085,
  "V": 1086,
  "W": 1087,
  "X": 1088,
  "Y": 1089,
  "Z": 1090,
  "a": 1097,
  "b": 1098,
  "c": 1099,
  "d": 1100,
  "e": 1101,
  "f": 1102,
  "g": 1103,
  "h": 1104,
  "i": 1105,
  "j": 1106,
  "k": 1107,
  "l": 1108,
  "m": 1109,
  "n": 1110,
  "o": 1111,
  "p": 1112,
  "q": 1113,
  "r": 1114,
  "s": 1115,
  "t": 1116,
  "u": 1117,
  "v": 1118,
  "w": 1119,
  "x": 1120,
  "y": 1121,
  "z": 1122,
  "Ġt": 1257,
  "er": 1258,
  "in": 1259,
  "Ġa": 1261,
  "en": 1262,
  "on": 1263,
  "es": 1264,
  "Ġs": 1265,
  "Ġd": 1266,
  "he": 1268,
  "at": 1269,
  "or": 1270,
  "an": 1271,
  "Ġc": 1272,
  "re": 1273,
  "Ġp": 1274,
  "is": 1275,
  "it": 1276,
  "ar": 1277,
  "Ġthe": 1278,
  "al": 1279,
  "Ġo": 1281,
  "le": 1282,
  "Ġm": 1283,
  "Ġf": 1284,
  "Ġw": 1285,
  "ed": 1286,
  "as": 1288,
  "Ġb": 1289,
  "ic": 1290,
  "ro": 1291,
  "ion": 1292,
  "Ġin": 1294,
  "Ġl": 1295,
  "ent": 1297,
  "nd": 1298,
  "el": 1299,
  "ing": 1302,
  "et": 1304,
  "ou": 1305,
  "Ġof": 1307,
  "Ġn": 1308,
  "Ġh": 1310,
  "Ġde": 1311,
  "om": 1313,
  "st": 1314,
  "ct": 1316,
  "Ġto": 1317,
  "il": 1318,
  "Ġand": 1321,
  "Ġe": 1324,
  "am": 1325,
  "Ġth": 1326,
  "id": 1327,
  "ur": 1328,
  "im": 1329,
  "Ġv": 1330,
  "ch": 1331,
  "ad": 1332,
  "Ġu": 1333,
  "ĠS": 1335,
  "ol": 1336,
  "ut": 1341,
  "Ġg": 1343,
  "Ġre": 1344,
  "os": 1346,
  "qu": 1348,
  "ĠA": 1349,
  "ig": 1351,
  "ĠT": 1353,
  "iv": 1354,
  "em": 1356,
  "ra": 1357,
  "ĠC": 1359,
  "ot": 1360,
  "ĠI": 1362,
  "ul": 1366,
  "ce": 1368,
  "ation": 1370,
  "est": 1372,
  "ĠM": 1373,
  "us": 1374,
  "ir": 1378,
  "Ġr": 1382,
  "Ġcon": 1383,
  "un": 1384,
  "ie": 1386,
  "od": 1387,
  "Ġst": 1389,
  "ĠP": 1390,
  "if": 1391,
  "ow": 1392,
  "ag": 1393,
  "Ġfor": 1394,
  "Ġis": 1395,
  "ter": 1397,
  "ĠB": 1398,
  "te": 1400,
  "ab": 1401,
  "Ġbe": 1402,
  "um": 1403,
  "Ġy": 1404,
  "ly": 1405,
  "ĠD": 1407,
  "Ġon": 1408,
  "Ġk": 1409,
  "Ġal": 1410,
  "th": 1411,
  "Ġse": 1412,
  "ac": 1413,
  "se": 1415,
  "ist": 1416,
  "ay": 1417,
  "Ġen": 1418,
  "ate": 1419,
  "Ġan": 1420,
  "and": 1421,
  "ess": 1423,
  "ĠL": 1424,
  "ith": 1425,
  "Ġla": 1427,
  "ers": 1428,
  "av": 1430,
  "Ġpro": 1431,
  "ĠR": 1434,
  "Ġas": 1435,
  "ĠE": 1436,
  "Ġcom": 1437,
  "ĠF": 1439,
  "ere": 1441,
  "Ġqu": 1442,
  "ĠH": 1443,
  "ri": 1444,
  "pe": 1446,
  "ort": 1449,
  "ant": 1450,
  "Ġwh": 1452,
  "oc": 1453,
  "Ġwith": 1454,
  "Ġthat": 1455,
  "Ġun": 1457,
  "Ġle": 1459,
  "ĠG": 1461,
  "ĠN": 1464,
  "ver": 1465,
  "ap": 1466,
  "Ġsu": 1470,
  "end": 1474,
  "Ġj": 1475,
  "ment": 1476,
  "ht": 1478,
  "our": 1479,
  "Ġex": 1480,
  "op": 1484,
  "ia": 1485,
  "Ġwas": 1486,
  "ĠW": 1488,
  "ak": 1489,
  "art": 1490,
  "ction": 1491,
  "ain": 1493,
  "Ġit": 1494,
  "pl": 1497,
  "ue": 1498,
  "rom": 1499,
  "og": 1500,
  "ud": 1501,
  "ass": 1503,
  "Ġne": 1504,
  "Ġor": 1505,
  "ĠJ": 1507,
  "ame": 1509,
  "Ġat": 1513,
  "Ġhe": 1514,
  "pt": 1515,
  "Ġpr": 1517,
  "iz": 1518,
  "ine": 1519,
  "ich": 1521,
  "ell": 1522,
  "ub": 1523,
  "port": 1524,
  "ill": 1525,
  "Ġch": 1528,
  "ĠThe": 1531,
  "ity": 1532,
  "ang": 1533,
  "ĠO": 1535,
  "Ġby": 1536,
  "ov": 1539,
  "age": 1541,
  "ld": 1543,
  "ans": 1545,
  "ne": 1546,
  "ure": 1549,
  "ĠK": 1550,
  "ial": 1551,
  "ik": 1552,
  "pr": 1553,
  "Ġz": 1554,
  "ive": 1556,
  "ore": 1557,
  "de": 1558,
  "Ġtr": 1560,
  "Ġfrom": 1562,
  "Ġdes": 1563,
  "ies": 1564,
  "Ġet": 1568,
  "per": 1569,
  "tr": 1571,
  "Ġcl": 1573,
  "ber": 1575,
  "Ġel": 1578,
  "ult": 1579,
  "ard": 1580,
  "ĠV": 1581,
  "Ġare": 1584,
  "ect": 1585,
  "ip": 1586,
  "con": 1590,
  "ost": 1591,
  "ire": 1592,
  "Ġthis": 1593,
  "int": 1594,
  "cl": 1597,
  "all": 1599,
  "Ġim": 1602,
  "Ġnot": 1605,
  "orm": 1606,
  "ĠU": 1608,
  "ff": 1609,
  "Ġres": 1610,
  "to": 1611,
  "ib": 1612,
  "Ġque": 1613,
  "Ġpl": 1615,
  "ust": 1616,
  "rou": 1618,
  "ord": 1619,
  "ight": 1620,
  "ated": 1621,
  "Ġi": 1623,
  "Ġsh": 1627,
  "ind": 1629,
  "ave": 1630,
  "ile": 1631,
  "ata": 1633,
  "Ġpar": 1635,
  "Ġyou": 1636,
  "xt": 1637,
  "able": 1638,
  "Ġme": 1639,
  "ast": 1642,
  "ge": 1643,
  "urn": 1645,
  "ens": 1647,
  "ru": 1649,
  "Ġus": 1650,
  "Ġper": 1651,
  "Ġdo": 1653,
  "io": 1655,
  "ĠIn": 1656,
  "out": 1660,
  "ase": 1661,
  "ok": 1662,
  "ack": 1663,
  "ach": 1664,
  "cc": 1666,
  "are": 1667,
  "du": 1669,
  "ve": 1672,
  "Ġund": 1673,
  "ide": 1675,
  "lic": 1676,
  "Ġcont": 1678,
  "act": 1679,
  "ould": 1680,
  "ath": 1682,
  "Ġad": 1683,
  "nt": 1684,
  "ical": 1685,
  "Ġar": 1686,
  "ient": 1687,
  "get": 1689,
  "Ġcomp": 1691,
  "Ġif": 1693,
  "pp": 1695,
  "ont": 1697,
  "ice": 1702,
  "ĠTh": 1704,
  "ong": 1706,
  "Ġest": 1709,
  "Ġcan": 1710,
  "ign": 1714,
  "Ġab": 1715,
  "ng": 1716,
  "ition": 1717,
  "ous": 1718,
  "ier": 1720,
  "ime": 1721,
  "Ġwere": 1722,
  "ph": 1723,
  "ob": 1724,
  "fer": 1726,
  "Ġder": 1728,
  "Ġwe": 1729,
  "com": 1730,
  "ence": 1733,
  "Ġhave": 1736,
  "turn": 1740,
  "ance": 1741,
  "Ġall": 1747,
  "Ġpre": 1750,
  "ite": 1752,
  "ĠSt": 1757,
  "Ġdis": 1759,
  "ary": 1760,
  "form": 1761,
  "ll": 1763,
  "Ġer": 1765,
  "Ġro": 1768,
  "res": 1770,
  "ace": 1771,
  "Ġdi": 1772,
  "erv": 1773,
  "one": 1774,
  "Ġte": 1777,
  "so": 1778,
  "ther": 1781,
  "ork": 1783,
  "The": 1784,
  "In": 1785,
  "au": 1786,
  "iÃ³": 1788,
  "ode": 1790,
  "Ġhis": 1794,
  "ations": 1795,
  "ome": 1798,
  "Ġwhich": 1799,
  "ck": 1800,
  "me": 1804,
  "Ġpart": 1805,
  "Ġdel": 1807,
  "we": 1808,
  "Ġbut": 1809,
  "ublic": 1811,
  "pon": 1812,
  "ement": 1813,
  "ert": 1814,
  "enc": 1815,
  "ah": 1816,
  "Ġau": 1817,
  "ps": 1822,
  "Ġes": 1823,
  "ions": 1824,
  "ĠCh": 1827,
  "Ġdie": 1828,
  "ype": 1829,
  "ual": 1830,
  "ma": 1831,
  "gh": 1834,
  "Ġno": 1836,
  "che": 1837,
  "ors": 1839,
  "ple": 1841,
  "ose": 1842,
  "Ġob": 1843,
  "Ġclass": 1845,
  "ft": 1846,
  "Ġout": 1848,
  "Ġles": 1849,
  "Ġreturn": 1850,
  "ung": 1851,
  "Ġher": 1853,
  "ory": 1854,
  "Ġam": 1855,
  "ari": 1859,
  "cre": 1860,
  "ait": 1861,
  "Ġinter": 1864,
  "ject": 1865,
  "der": 1868,
  "gr": 1870,
  "ĠRe": 1871,
  "que": 1872,
  "Ġem": 1873,
  "Ġnew": 1875,
  "Ġso": 1878,
  "yst": 1879,
  "Ġhad": 1880,
  "vent": 1883,
  "Ġdu": 1884,
  "Ġsa": 1887,
  "elf": 1888,
  "rit": 1889,
  "ys": 1890,
  "iss": 1892,
  "lect": 1893,
  "Ġman": 1894,
  "vel": 1899,
  "her": 1900,
  "ear": 1904,
  "iew": 1905,
  "lo": 1906,
  "iel": 1907,
  "ific": 1908,
  "ian": 1911,
  "inal": 1912,
  "Ġma": 1914,
  "Ġval": 1916,
  "import": 1917,
  "erm": 1920,
  "ater": 1923,
  "Ã©s": 1924,
  "Ġone": 1925,
  "own": 1927,
  "ran": 1931,
  "oll": 1932,
  "Ġhas": 1934,
  "Ġint": 1935,
  "ug": 1936,
  "ener": 1937,
  "ry": 1938,
  "Ġsp": 1942,
  "ely": 1944,
  "ĠY": 1945,
  "put": 1946,
  "ex": 1948,
  "ount": 1949,
  "div": 1950,
  "Com": 1951,
  "az": 1955,
  "Ġsur": 1958,
  "Ġent": 1959,
  "iÃ³n": 1963,
  "ke": 1965,
  "eth": 1966,
  "unction": 1967,
  "irst": 1968,
  "led": 1970,
  "cri": 1972,
  "Ġgo": 1974,
  "val": 1977,
  "li": 1978,
  "aus": 1979,
  "ann": 1980,
  "up": 1982,
  "ese": 1983,
  "Ġag": 1984,
  "ick": 1985,
  "ail": 1986,
  "St": 1989,
  "Ġlo": 1990,
  "ten": 1991,
  "ade": 1993,
  "pro": 1994,
  "Ġass": 1995,
  "ien": 1997,
  "ound": 1998,
  "ild": 1999,
  "Ġpo": 2001,
  "ep": 2003,
  "Ġmod": 2005,
  "Ġdif": 2008,
  "Ġcomm": 2009,
  "Ġstr": 2011,
  "Ġget": 2012,
  "les": 2013,
  "ied": 2014,
  "Ġup": 2015,
  "Ġset": 2016,
  "ock": 2017,
  "Ġconst": 2018,
  "Ġver": 2019,
  "Ġpos": 2022,
  "ents": 2023,
  "ec": 2025,
  "par": 2029,
  "eng": 2031,
  "ew": 2032,
  "ize": 2033,
  "Ġtheir": 2034,
  "clud": 2035,
  "Ġmy": 2036,
  "ystem": 2037,
  "ull": 2038,
  "ado": 2039,
  "row": 2041,
  "und": 2042,
  "ij": 2043,
  "ada": 2045,
  "ĠAn": 2048,
  "ption": 2049,
  "ss": 2053,
  "wo": 2054,
  "eg": 2055,
  "tring": 2056,
  "Ġsc": 2058,
  "ark": 2059,
  "Ġcol": 2061,
  "pec": 2062,
  "Ġpublic": 2065,
  "ree": 2066,
  "ale": 2068,
  "Ġph": 2070,
  "Ġform": 2071,
  "Ġtra": 2072,
  "Ġap": 2073,
  "Ġreg": 2075,
  "ink": 2077,
  "Ġav": 2078,
  "Ġmore": 2081,
  "ake": 2082,
  "ta": 2083,
  "Ġwill": 2084,
  "ise": 2087,
  "Ġbet": 2088,
  "Ġvo": 2089,
  "Ġra": 2093,
  "emb": 2094,
  "Ġalso": 2095,
  "ins": 2097,
  "Ġil": 2101,
  "Ġacc": 2102,
  "ric": 2107,
  "Ġact": 2108,
  "Ġcons": 2109,
  "ix": 2111,
  "pect": 2117,
  "Ġapp": 2118,
  "fter": 2119,
  "Ġdef": 2121,
  "ular": 2122,
  "Ġlos": 2125,
  "Ġthey": 2127,
  "ates": 2130,
  "tt": 2132,
  "Ġrec": 2134,
  "Ġpe": 2135,
  "Ġover": 2136,
  "ern": 2137,
  "ish": 2140,
  "anc": 2141,
  "Ġtime": 2142,
  "Ġyour": 2143,
  "cess": 2144,
  "aj": 2146,
  "Ġother": 2147,
  "Ġtrans": 2148,
  "text": 2149,
  "ike": 2150,
  "Ġbeen": 2151,
  "Ġrel": 2152,
  "ven": 2154,
  "Ġsub": 2155,
  "Ġthere": 2156,
  "ĠIt": 2157,
  "Ġfirst": 2158,
  "ĠUn": 2159,
  "Ġco": 2160,
  "pos": 2161,
  "ĠZ": 2163,
  "Ġshe": 2165,
  "ek": 2166,
  "Ġwould": 2168,
  "Ġser": 2169,
  "Ġda": 2170,
  "Ġpor": 2173,
  "ange": 2174,
  "Ġche": 2176,
  "ĠAl": 2179,
  "Ġdata": 2181,
  "ĠHe": 2182,
  "str": 2184,
  "let": 2186,
  "ings": 2187,
  "Ġmay": 2188,
  "old": 2189,
  "âĢĻs": 2190,
  "olog": 2193,
  "ĠAr": 2194,
  "app": 2195,
  "Ġwork": 2196,
  "Ġein": 2198,
  "Ġwhen": 2200,
  "Ġinto": 2203,
  "Ġac": 2206,
  "ina": 2208,
  "but": 2209,
  "Ġuse": 2210,
  "Ġpres": 2214,
  "Ġnum": 2216,
  "Ġden": 2220,
  "mer": 2221,
  "Ġpol": 2223,
  "Ġthan": 2224,
  "lement": 2225,
  "igh": 2227,
  "Ġadd": 2229,
  "arg": 2230,
  "Ġstud": 2231,
  "ons": 2232,
  "eb": 2233,
  "ond": 2234,
  "ove": 2235,
  "ays": 2243,
  "Ã£o": 2244,
  "ava": 2245,
  "Ġits": 2246,
  "yn": 2249,
  "Ġid": 2252,
  "ci": 2253,
  "Ġfunction": 2254,
  "Ġdet": 2256,
  "Ġany": 2258,
  "round": 2261,
  "ef": 2263,
  "ente": 2264,
  "Name": 2266,
  "Ã©e": 2267,
  "ble": 2268,
  "Ġsome": 2269,
  "Ġgr": 2270,
  "Ġbo": 2271,
  "ĠSe": 2272,
  "ĠdÃ©": 2273,
  "Ġwho": 2274,
  "ror": 2276,
  "ative": 2277,
  "oth": 2279,
  "atch": 2280,
  "Ġcor": 2281,
  "Ġresult": 2282,
  "ating": 2283,
  "Ġatt": 2284,
  "atic": 2285,
  "Ġsign": 2287,
  "ased": 2289,
  "ray": 2291,
  "Ġdem": 2292,
  "Ġkn": 2294,
  "Ġtwo": 2295,
  "Ġdur": 2300,
  "ĠLe": 2301,
  "na": 2302,
  "ton": 2306,
  "ield": 2307,
  "sp": 2308,
  "Ġprodu": 2309,
  "Ġje": 2310,
  "Comment": 2311,
  "ession": 2313,
  "Ġabout": 2314,
  "Ġop": 2317,
  "tern": 2319,
  "co": 2320,
  "Ã©r": 2322,
  "cond": 2323,
  "itt": 2324,
  "Ġbl": 2326,
  "Ġfl": 2327,
  "Ġaut": 2328,
  "ween": 2329,
  "ember": 2330,
  "Ġuna": 2331,
  "ict": 2335,
  "Ġna": 2336,
  "Ġfe": 2337,
  "red": 2338,
  "Ġfil": 2339,
  "oy": 2340,
  "Ġonly": 2342,
  "ze": 2343,
  "Ġeff": 2344,
  "Ġdiffer": 2349,
  "Ġpat": 2350,
  "be": 2352,
  "ÃŃa": 2353,
  "ner": 2356,
  "Ġrem": 2357,
  "ren": 2358,
  "uc": 2359,
  "ym": 2360,
  "Ġend": 2362,
  "bo": 2363,
  "als": 2364,
  "Ġmin": 2365,
  "Ġdans": 2367,
  "urr": 2370,
  "Ġke": 2371,
  "amp": 2372,
  "Ġtem": 2374,
  "Ġson": 2376,
  "Ġpara": 2379,
  "Ġcar": 2382,
  "its": 2383,
  "ui": 2386,
  "Ġpour": 2388,
  "plic": 2390,
  "name": 2391,
  "ts": 2392,
  "ank": 2395,
  "Ġbetween": 2396,
  "els": 2397,
  "urs": 2398,
  "uch": 2399,
  "rol": 2401,
  "Ġinclud": 2402,
  "ues": 2403,
  "Id": 2406,
  "roup": 2408,
  "ĠThis": 2409,
  "Ġsol": 2410,
  "ator": 2412,
  "Ġhim": 2414,
  "Ġune": 2415,
  "ible": 2416,
  "Ġmed": 2417,
  "gan": 2418,
  "Ġprov": 2420,
  "Ġvon": 2421,
  "min": 2422,
  "Ġthem": 2424,
  "Ġunder": 2425,
  "ract": 2427,
  "ux": 2428,
  "Ġthen": 2430,
  "ĠCom": 2431,
  "land": 2432,
  "Ġused": 2434,
  "ser": 2436,
  "Th": 2438,
  "hed": 2440,
  "Ġinst": 2442,
  "wer": 2443,
  "fl": 2444,
  "Ġsi": 2445,
  "Ġcre": 2446,
  "ethod": 2447,
  "ced": 2448,
  "ais": 2449,
  "ĠPro": 2451,
  "att": 2452,
  "Ġafter": 2453,
  "den": 2454,
  "ces": 2455,
  "ures": 2456,
  "ica": 2459,
  "Ġx": 2460,
  "ger": 2462,
  "ai": 2464,
  "ĠQ": 2466,
  "Ġcell": 2469,
  "une": 2471,
  "ages": 2472,
  "Ġrequ": 2473,
  "ats": 2476,
  "Ġmet": 2477,
  "Ġwhere": 2478,
  "Ġlike": 2479,
  "_t": 2480,
  "Ġcould": 2481,
  "aut": 2482,
  "rough": 2483,
  "ĠMar": 2484,
  "ally": 2487,
  "Ġvari": 2488,
  "Ġext": 2489,
  "Ġoff": 2490,
  "ĠDe": 2491,
  "yp": 2493,
  "Ġind": 2495,
  "this": 2496,
  "erson": 2498,
  "Ġsim": 2500,
  "Ġspec": 2502,
  "ruct": 2503,
  "ause": 2504,
  "Ġusing": 2505,
  "ider": 2506,
  "ample": 2507,
  "ique": 2508,
  "ene": 2509,
  "ext": 2510,
  "air": 2511,
  "uss": 2512,
  "Ġbu": 2513,
  "Ġsuch": 2516,
  "Ġdist": 2517,
  "vo": 2518,
  "Ġdire": 2520,
  "htt": 2521,
  "oh": 2523,
  "List": 2525,
  "ution": 2527,
  "ollow": 2529,
  "po": 2531,
  "Ġloc": 2533,
  "Ġneed": 2534,
  "ational": 2535,
  "Ġinv": 2537,
  "Ġmon": 2539,
  "ĠLa": 2541,
  "Ġgener": 2542,
  "String": 2544,
  "ower": 2547,
  "je": 2548,
  "Ġwhat": 2549,
  "ĠWh": 2550,
  "hr": 2551,
  "uer": 2554,
  "Ġqui": 2556,
  "ility": 2557,
  "ature": 2558,
  "fore": 2559,
  "oci": 2560,
  "ole": 2561,
  "Ġname": 2564,
  "reat": 2565,
  "Pro": 2570,
  "cent": 2572,
  "ando": 2574,
  "ars": 2575,
  "Ġthese": 2576,
  "ants": 2577,
  "ism": 2578,
  "Ġconf": 2582,
  "la": 2584,
  "Ġself": 2585,
  "Ġjust": 2586,
  "ning": 2588,
  "amb": 2589,
  "Con": 2590,
  "Ã¼r": 2592,
  "Ġback": 2595,
  "Re": 2596,
  "Ġve": 2597,
  "Ġed": 2601,
  "add": 2603,
  "ument": 2605,
  "Ġhow": 2606,
  "Ġdon": 2607,
  "son": 2608,
  "ined": 2611,
  "Ġcal": 2615,
  "oun": 2617,
  "Ġlas": 2618,
  "ward": 2619,
  "ough": 2620,
  "ho": 2621,
  "ĠX": 2628,
  "Ġshow": 2629,
  "cho": 2630,
  "Ġvalue": 2632,
  "read": 2633,
  "Ġmit": 2635,
  "Ġyear": 2637,
  "Ġsaid": 2639,
  "ivers": 2641,
  "Ġfr": 2643,
  "cept": 2644,
  "Ġthrough": 2645,
  "rac": 2646,
  "ior": 2647,
  "no": 2649,
  "data": 2651,
  "any": 2653,
  "ute": 2654,
  "ctions": 2655,
  "Ġtype": 2658,
  "ody": 2659,
  "Ġsystem": 2663,
  "Ġpas": 2664,
  "Ġsecond": 2667,
  "Ġimport": 2671,
  "cont": 2673,
  "alse": 2675,
  "til": 2676,
  "rop": 2677,
  "ervice": 2679,
  "Ġpartic": 2681,
  "isch": 2682,
  "set": 2683,
  "Ġfollow": 2685,
  "ever": 2686,
  "Ġtest": 2688,
  "ivate": 2693,
  "urrent": 2695,
  "ato": 2696,
  "Ġdid": 2697,
  "âĢĻt": 2698,
  "uk": 2699,
  "iver": 2702,
  "man": 2703,
  "Ġvan": 2704,
  "Ã¡s": 2705,
  "col": 2708,
  "Ġsm": 2710,
  "za": 2712,
  "Ġshould": 2715,
  "ics": 2717,
  "vi": 2719,
  "Ġcent": 2721,
  "ler": 2723,
  "Ġmost": 2725,
  "sk": 2728,
  "ni": 2729,
  "Ġlong": 2730,
  "ĠCon": 2732,
  "Ġter": 2733,
  "Ġcap": 2735,
  "ash": 2736,
  "Ġbec": 2737,
  "Ġhigh": 2738,
  "ribut": 2741,
  "ante": 2742,
  "Ġeach": 2744,
  "Ġsom": 2745,
  "Ã©n": 2747,
  "Ã©t": 2748,
  "ros": 2749,
  "ength": 2750,
  "fo": 2751,
  "ax": 2753,
  "ities": 2754,
  "elle": 2755,
  "It": 2757,
  "swer": 2758,
  "pres": 2759,
  "ty": 2760,
  "aciÃ³n": 2761,
  "go": 2762,
  "Ex": 2763,
  "Ġpass": 2764,
  "other": 2765,
  "Ġnon": 2767,
  "ited": 2770,
  "Ġwar": 2771,
  "velop": 2772,
  "yl": 2776,
  "Ġfinal": 2778,
  "ized": 2779,
  "Ġins": 2781,
  "Ġnumber": 2782,
  "ines": 2783,
  "ral": 2784,
  "Ġhand": 2786,
  "wn": 2787,
  "ĠEn": 2788,
  "ared": 2789,
  "Ġagain": 2790,
  "ponse": 2791,
  "gen": 2793,
  "ER": 2794,
  "Ġbr": 2795,
  "ress": 2796,
  "icht": 2799,
  "ĠEl": 2800,
  "Ġdifferent": 2801,
  "dd": 2805,
  "Ġvers": 2806,
  "ido": 2809,
  "Ġchar": 2810,
  "ĠAs": 2813,
  "Ch": 2814,
  "View": 2815,
  "ĠrÃ©": 2816,
  "Ġvoid": 2818,
  "Cont": 2822,
  "ask": 2828,
  "Ġzu": 2829,
  "Ġmain": 2830,
  "Ġprocess": 2832,
  "ource": 2833,
  "Ġant": 2834,
  "Ġmen": 2835,
  "Ġdas": 2836,
  "ĠWe": 2837,
  "line": 2839,
  "Ġknow": 2840,
  "Ġvar": 2841,
  "Ġsup": 2842,
  "atus": 2844,
  "Data": 2845,
  "ames": 2846,
  "Ġelse": 2849,
  "Ġeffect": 2851,
  "pend": 2852,
  "Ã¡n": 2855,
  "iment": 2858,
  "essage": 2859,
  "Ġcomo": 2860,
  "Ġpoint": 2862,
  "abel": 2865,
  "Ġmethod": 2866,
  "gg": 2867,
  "ane": 2868,
  "Ġum": 2869,
  "Ġvol": 2870,
  "roll": 2872,
  "ault": 2873,
  "Ġincre": 2875,
  "Ġsl": 2876,
  "lich": 2877,
  "Ġlet": 2878,
  "Ġsame": 2879,
  "public": 2882,
  "yle": 2883,
  "Ġdec": 2885,
  "very": 2886,
  "kt": 2887,
  "amil": 2888,
  "raph": 2889,
  "gy": 2891,
  "To": 2892,
  "Ã¨re": 2894,
  "ĠFor": 2898,
  "era": 2901,
  "ful": 2902,
  "Ġwell": 2903,
  "ule": 2904,
  "work": 2905,
  "ium": 2906,
  "ott": 2907,
  "rc": 2908,
  "ision": 2909,
  "En": 2911,
  "ara": 2912,
  "inc": 2914,
  "Ġpop": 2915,
  "ients": 2916,
  "self": 2917,
  "ON": 2918,
  "Ġdev": 2919,
  "ulation": 2921,
  "ja": 2922,
  "Ġtrue": 2925,
  "ron": 2927,
  "ett": 2928,
  "por": 2929,
  "ince": 2932,
  "Ġwant": 2933,
  "ico": 2934,
  "of": 2935,
  "Ġcase": 2937,
  "view": 2938,
  "ired": 2939,
  "va": 2940,
  "wh": 2941,
  "lex": 2942,
  "ms": 2943,
  "Ġanal": 2945,
  "Ġfo": 2947,
  "Ġour": 2948,
  "itle": 2949,
  "ayer": 2950,
  "Ġlist": 2951,
  "Ġprote": 2952,
  "arget": 2953,
  "Type": 2954,
  "ader": 2956,
  "ional": 2957,
  "sh": 2958,
  "Ġfound": 2959,
  "Ġboth": 2960,
  "ices": 2961,
  "Ġprim": 2964,
  "Ġperson": 2965,
  "way": 2966,
  "Cl": 2968,
  "ste": 2969,
  "bl": 2970,
  "Ġbel": 2972,
  "quest": 2974,
  "for": 2975,
  "men": 2976,
  "Ġmar": 2977,
  "math": 2978,
  "cript": 2980,
  "ically": 2981,
  "Ġplus": 2984,
  "Ġlook": 2985,
  "gram": 2986,
  "Ġauf": 2987,
  "Ġpresent": 2988,
  "Ġcr": 2989,
  "Ġposs": 2991,
  "Ġce": 2992,
  "ella": 2993,
  "ĠTr": 2994,
  "Ar": 2995,
  "pre": 2996,
  "Val": 2999,
  "ĠString": 3000,
  "date": 3001,
  "ka": 3002,
  "Ġgu": 3003,
  "return": 3004,
  "ĠSch": 3005,
  "Ġave": 3007,
  "Ġgl": 3008,
  "Ġpost": 3009,
  "orld": 3011,
  "ĠÃ©t": 3014,
  "ote": 3015,
  "Ġwhile": 3016,
  "ural": 3018,
  "ister": 3020,
  "ĠCl": 3021,
  "II": 3022,
  "omb": 3025,
  "aw": 3026,
  "ml": 3027,
  "Ġstart": 3030,
  "ino": 3031,
  "ments": 3033,
  "ques": 3034,
  "Ġcas": 3035,
  "imes": 3036,
  "Ġinform": 3037,
  "use": 3038,
  "Ġway": 3039,
  "duct": 3041,
  "ception": 3043,
  "Ġsk": 3044,
  "Ġdr": 3047,
  "ida": 3050,
  "ople": 3054,
  "sch": 3056,
  "reg": 3057,
  "irc": 3058,
  "ĠAnd": 3060,
  "igure": 3064,
  "Res": 3065,
  "Ġbefore": 3066,
  "Ġrest": 3067,
  "dex": 3068,
  "odel": 3069,
  "fe": 3070,
  "Col": 3071,
  "ĠSh": 3073,
  "ST": 3074,
  "ĠHow": 3075,
  "Ġoper": 3076,
  "ivity": 3078,
  "ĠAb": 3079,
  "new": 3080,
  "Ġfind": 3081,
  "ets": 3083,
  "ID": 3084,
  "vers": 3085,
  "ana": 3088,
  "Ġequ": 3089,
  "Ġgen": 3090,
  "ery": 3093,
  "ĠBe": 3094,
  "ved": 3095,
  "ks": 3096,
  "ores": 3097,
  "Ġdevelop": 3098,
  "ura": 3099,
  "ident": 3101,
  "ather": 3102,
  "Ġtri": 3104,
  "Ġquest": 3106,
  "tain": 3108,
  "Ġline": 3110,
  "itu": 3111,
  "ano": 3112,
  "Ġcontrol": 3119,
  "Ġdoes": 3120,
  "Ġfact": 3121,
  "Ġos": 3122,
  "Ġart": 3123,
  "ife": 3124,
  "iter": 3125,
  "ament": 3126,
  "Ġnull": 3127,
  "Ġhab": 3129,
  "Ġhel": 3130,
  "Ġexper": 3131,
  "acter": 3133,
  "_s": 3134,
  "face": 3136,
  "ados": 3139,
  "ĠNew": 3140,
  "ird": 3141,
  "Ġperform": 3142,
  "Ġbeing": 3144,
  "Ġreal": 3145,
  "ason": 3146,
  "Ġbecause": 3147,
  "Ġterm": 3148,
  "def": 3149,
  "const": 3150,
  "Ġdown": 3151,
  "eter": 3152,
  "ĠPl": 3154,
  "ox": 3155,
  "ativ": 3156,
  "rem": 3157,
  "Ġport": 3158,
  "Ġdescri": 3159,
  "Ġrun": 3160,
  "ouse": 3164,
  "ref": 3166,
  "Ġprivate": 3167,
  "ero": 3168,
  "Ġright": 3169,
  "agn": 3170,
  "Ġvis": 3171,
  "ca": 3173,
  "IN": 3174,
  "class": 3176,
  "enn": 3177,
  "Ġlevel": 3178,
  "ios": 3179,
  "Ġmake": 3180,
  "ccess": 3182,
  "Ġmat": 3183,
  "Ġduring": 3184,
  "rag": 3185,
  "da": 3190,
  "vol": 3191,
  "Ġou": 3194,
  "Ġge": 3195,
  "leg": 3197,
  "Ġfin": 3198,
  "Ġeven": 3199,
  "Ġbre": 3200,
  "Se": 3201,
  "cul": 3202,
  "ĠEx": 3203,
  "Ġgroup": 3204,
  "ified": 3205,
  "ender": 3206,
  "ght": 3207,
  "ams": 3209,
  "Text": 3210,
  "Ġtot": 3212,
  "ĠYou": 3213,
  "Ġmade": 3214,
  "ĠPr": 3216,
  "hip": 3218,
  "Ġsee": 3219,
  "ences": 3224,
  "Ġhere": 3226,
  "umn": 3228,
  "ization": 3229,
  "ha": 3230,
  "ĠIl": 3231,
  "Ġstudy": 3232,
  "lt": 3234,
  "ital": 3235,
  "Ġdirect": 3236,
  "Wh": 3237,
  "Ã¶r": 3238,
  "ĠEr": 3243,
  "Ġmodel": 3244,
  "over": 3245,
  "Ġnow": 3246,
  "ĠOr": 3247,
  "ateg": 3248,
  "ĠOn": 3249,
  "Ġtak": 3250,
  "NA": 3251,
  "lev": 3252,
  "ency": 3253,
  "orn": 3257,
  "idth": 3258,
  "Ġcontin": 3259,
  "Ġavec": 3261,
  "user": 3263,
  "ĠShe": 3264,
  "the": 3265,
  "ours": 3267,
  "lection": 3268,
  "Ã¨s": 3269,
  "med": 3273,
  "ify": 3274,
  "ross": 3275,
  "Ġfalse": 3276,
  "Le": 3277,
  "yd": 3282,
  "ĠInd": 3283,
  "Ġhist": 3284,
  "br": 3285,
  "ĠPar": 3286,
  "ually": 3287,
  "press": 3288,
  "ales": 3289,
  "itÃ©": 3291,
  "Ġproble": 3292,
  "iet": 3293,
  "ĠBr": 3295,
  "iven": 3296,
  "https": 3299,
  "Ġthree": 3300,
  "Ġals": 3303,
  "ici": 3305,
  "Ġpeople": 3306,
  "itions": 3307,
  "idad": 3309,
  "Ġstring": 3310,
  "Ġwur": 3311,
  "print": 3312,
  "AT": 3313,
  "Ġref": 3314,
  "Ġmuch": 3315,
  "ĠIs": 3316,
  "uro": 3317,
  "Ġsich": 3320,
  "Ġfile": 3323,
  "Ġmany": 3325,
  "by": 3326,
  "Ġcond": 3328,
  "pression": 3329,
  "Ġuser": 3330,
  "part": 3332,
  "ting": 3333,
  "Ġsignific": 3334,
  "Ã§Ã£o": 3335,
  "Ġexample": 3336,
  "Ġorgan": 3338,
  "earch": 3342,
  "ille": 3344,
  "Ġread": 3346,
  "var": 3347,
  "Ġident": 3348,
  "Ġevent": 3349,
  "Ġyears": 3351,
  "Ġtry": 3352,
  "ĉif": 3353,
  "Ġplay": 3354,
  "Ġlog": 3355,
  "arly": 3356,
  "Ġpatients": 3358,
  "Ġmus": 3361,
  "ains": 3365,
  "ĠIf": 3367,
  "Ġmov": 3368,
  "Ġconsider": 3369,
  "Ġcommun": 3371,
  "Ġprof": 3374,
  "Ġcu": 3376,
  "ĠTe": 3377,
  "play": 3378,
  "ĠFran": 3381,
  "hor": 3382,
  "_id": 3384,
  "Ġthose": 3385,
  "value": 3386,
  "Ġevery": 3387,
  "ette": 3390,
  "mi": 3391,
  "gu": 3394,
  "ĠCar": 3395,
  "alk": 3396,
  "ione": 3397,
  "Ġret": 3398,
  "Ġann": 3399,
  "Ġhum": 3401,
  "Ġtext": 3403,
  "chn": 3406,
  "lected": 3407,
  "ems": 3409,
  "Ġocc": 3412,
  "Ġenc": 3413,
  "ena": 3414,
  "indow": 3415,
  "raw": 3416,
  "Ġpu": 3417,
  "Ġpot": 3418,
  "action": 3419,
  "ito": 3424,
  "ential": 3427,
  "ohn": 3428,
  "serv": 3430,
  "Ġopen": 3432,
  "frac": 3433,
  "ĠSp": 3434,
  "Ġvery": 3435,
  "ocument": 3436,
  "td": 3438,
  "ĠSystem": 3439,
  "Ġmil": 3441,
  "Ġist": 3444,
  "_l": 3445,
  "yt": 3446,
  "Ġstruct": 3449,
  "ĠAnswer": 3450,
  "ĠCol": 3451,
  "He": 3452,
  "La": 3453,
  "Ġfa": 3456,
  "amente": 3457,
  "unt": 3458,
  "Ġcells": 3459,
  "Ã©es": 3462,
  "Ġreport": 3463,
  "alt": 3464,
  "bject": 3465,
  "Ġprogram": 3467,
  "Ġstate": 3468,
  "lar": 3469,
  "ination": 3470,
  "Ġsupport": 3471,
  "Ġchild": 3472,
  "ished": 3473,
  "ived": 3474,
  "Ġcode": 3475,
  "fig": 3478,
  "erc": 3479,
  "_c": 3480,
  "Ġobject": 3481,
  "Ġappro": 3482,
  "org": 3484,
  "ration": 3485,
  "rain": 3486,
  "Ġsing": 3487,
  "arch": 3489,
  "ama": 3490,
  "ny": 3491,
  "word": 3494,
  "alth": 3495,
  "present": 3497,
  "Ġmo": 3498,
  "Ġbi": 3499,
  "ĠNo": 3501,
  "Ġfamil": 3503,
  "tre": 3504,
  "ko": 3505,
  "ush": 3506,
  "bed": 3507,
  "Ġhelp": 3508,
  "right": 3509,
  "ides": 3512,
  "Ġserv": 3515,
  "Ġmais": 3516,
  "Ġhead": 3518,
  "Ġcurrent": 3519,
  "zy": 3520,
  "tion": 3522,
  "mp": 3524,
  "Ġentre": 3527,
  "Ġmult": 3528,
  "ission": 3529,
  "aterial": 3532,
  "ense": 3533,
  "Ġplace": 3535,
  "ita": 3537,
  "Ġword": 3541,
  "Ġorder": 3542,
  "Ġexpl": 3543,
  "Ġpath": 3549,
  "ben": 3554,
  "plication": 3555,
  "nh": 3556,
  "_f": 3557,
  "Ġaus": 3558,
  "Ġbest": 3560,
  "LE": 3561,
  "ĠGr": 3564,
  "rist": 3565,
  "ey": 3566,
  "ĠAd": 3567,
  "Ġarr": 3568,
  "ken": 3569,
  "order": 3570,
  "ĠPh": 3571,
  "Ġlim": 3572,
  "Ġbas": 3575,
  "ga": 3577,
  "Ġelect": 3578,
  "Ġtarget": 3579,
  "Ġorig": 3580,
  "back": 3581,
  "ĠJe": 3582,
  "Ġelement": 3584,
  "ĠBl": 3585,
  "inter": 3586,
  "ording": 3592,
  "Ġsus": 3593,
  "ĠAmer": 3597,
  "ini": 3598,
  "Ġsou": 3600,
  "cer": 3601,
  "_d": 3602,
  "itor": 3604,
  "By": 3606,
  "string": 3607,
  "ĠfÃ¼r": 3608,
  "RE": 3609,
  "lete": 3611,
  "adi": 3614,
  "Ġchang": 3615,
  "Im": 3617,
  "Ġaff": 3619,
  "_m": 3620,
  "stand": 3623,
  "omen": 3624,
  "urther": 3625,
  "ĠBut": 3626,
  "ysis": 3627,
  "Ġfollowing": 3629,
  "Ġpod": 3630,
  "ream": 3631,
  "Ġredu": 3632,
  "Ġdat": 3633,
  "ided": 3634,
  "Al": 3635,
  "isk": 3636,
  "Ġstill": 3637,
  "arr": 3638,
  "ĠRes": 3641,
  "Ġur": 3642,
  "ification": 3643,
  "aving": 3644,
  "Ġrece": 3645,
  "Ġthink": 3648,
  "Ġsch": 3649,
  "rm": 3650,
  "ness": 3651,
  "hib": 3652,
  "ĠQu": 3653,
  "px": 3654,
  "elt": 3656,
  "Ġresults": 3657,
  "ager": 3658,
  "oj": 3659,
  "eta": 3662,
  "oint": 3663,
  "ĠMe": 3664,
  "Ġmemb": 3666,
  "Ġmi": 3667,
  "roid": 3668,
  "Ġog": 3669,
  "xim": 3672,
  "ocial": 3673,
  "mit": 3674,
  "Ġagainst": 3675,
  "uf": 3676,
  "ology": 3678,
  "Ġstand": 3679,
  "On": 3680,
  "iron": 3681,
  "ora": 3682,
  "Ġgood": 3683,
  "ples": 3684,
  "Ġlocal": 3685,
  "Ġinformation": 3686,
  "Ġbeh": 3687,
  "Ġcle": 3689,
  "Ġcall": 3690,
  "Ġdiv": 3691,
  "php": 3692,
  "ison": 3693,
  "rite": 3694,
  "Ġvi": 3695,
  "ters": 3701,
  "Ġmot": 3702,
  "ischen": 3705,
  "Ġdos": 3707,
  "Ġsmall": 3709,
  "ĠVer": 3711,
  "Ġmeas": 3713,
  "ĠFr": 3714,
  "not": 3715,
  "Ã©m": 3716,
  "Ġview": 3719,
  "Ġinit": 3720,
  "Value": 3721,
  "Ġconne": 3722,
  "Ġdisc": 3724,
  "ference": 3726,
  "Ġfield": 3727,
  "ista": 3728,
  "Ġsize": 3729,
  "ĠThere": 3730,
  "itive": 3731,
  "vious": 3732,
  "ĠDie": 3734,
  "Ġeine": 3736,
  "ĉreturn": 3739,
  "Ġdom": 3740,
  "ves": 3741,
  "ists": 3742,
  "ume": 3743,
  "Ġstatic": 3744,
  "ubl": 3745,
  "Ġwithin": 3746,
  "Ġassoci": 3748,
  "OR": 3749,
  "Ġsignificant": 3750,
  "zen": 3752,
  "ela": 3753,
  "Ġown": 3754,
  "iones": 3756,
  "ki": 3757,
  "De": 3761,
  "Ġprint": 3763,
  "Ġnov": 3764,
  "ends": 3769,
  "chool": 3770,
  "empl": 3771,
  "Ġinc": 3778,
  "gl": 3779,
  "Ġmark": 3780,
  "arge": 3783,
  "Ġtotal": 3788,
  "_p": 3791,
  "ĠAm": 3792,
  "ood": 3793,
  "ude": 3794,
  "ĠAll": 3797,
  "Ġqual": 3799,
  "come": 3800,
  "Ġhet": 3801,
  "arm": 3802,
  "Ġlast": 3804,
  "mente": 3808,
  "http": 3809,
  "oss": 3810,
  "Ġdiff": 3811,
  "ives": 3813,
  "Par": 3814,
  "Ġwithout": 3816,
  "Ġlead": 3820,
  "Tr": 3821,
  "Ġleg": 3823,
  "ĠUS": 3825,
  "Ġwer": 3827,
  "Ġcomb": 3830,
  "Ġcare": 3831,
  "ige": 3832,
  "Ġva": 3834,
  "ww": 3837,
  "igen": 3838,
  "Ãªn": 3839,
  "Ġopt": 3841,
  "Ġfre": 3842,
  "iod": 3843,
  "Ġkey": 3844,
  "do": 3846,
  "Ġdeterm": 3847,
  "Ġmu": 3849,
  "ability": 3850,
  "Ġcou": 3851,
  "Ġdou": 3852,
  "Ġprom": 3854,
  "Ġnh": 3855,
  "ustom": 3856,
  "Ġinf": 3857,
  "Ġsie": 3858,
  "Er": 3859,
  "jor": 3860,
  "pi": 3861,
  "ots": 3862,
  "ival": 3865,
  "Ġanother": 3866,
  "Ġcour": 3867,
  "pond": 3869,
  "ĠTo": 3870,
  "Ġproper": 3875,
  "Ġarg": 3876,
  "Un": 3877,
  "Ġsuper": 3878,
  "Ġaround": 3879,
  "Ġerror": 3880,
  "zt": 3881,
  "ĠRo": 3883,
  "Ġturn": 3884,
  "ĠHowever": 3886,
  "ati": 3888,
  "Ġli": 3889,
  "But": 3890,
  "key": 3892,
  "vert": 3893,
  "Ġallow": 3894,
  "Ġappe": 3898,
  "clude": 3899,
  "Ä±n": 3903,
  "ÃŃt": 3904,
  "AR": 3905,
  "State": 3906,
  "Ġincluding": 3907,
  "Ġod": 3909,
  "ograph": 3910,
  "cle": 3911,
  "endo": 3916,
  "Ġindic": 3917,
  "Ġimp": 3918,
  "Ġsem": 3919,
  "Ġdan": 3920,
  "ively": 3923,
  "Ġmak": 3925,
  "Ġobserv": 3927,
  "ently": 3929,
  "Ġcome": 3930,
  "ĠAt": 3931,
  "SE": 3932,
  "my": 3933,
  "rel": 3934,
  "Ġproduct": 3935,
  "Ġdesign": 3936,
  "Ġimage": 3937,
  "Ġseg": 3939,
  "Ġev": 3940,
  "Ġha": 3944,
  "Ġrespect": 3945,
  "Ġfour": 3946,
  "bar": 3947,
  "Ġday": 3950,
  "Ġlui": 3952,
  "try": 3953,
  "bum": 3954,
  "iving": 3956,
  "Ġwurde": 3958,
  "ilar": 3962,
  "ende": 3963,
  "Ġdue": 3964,
  "Ġtro": 3965,
  "Ġsont": 3966,
  "left": 3967,
  "load": 3970,
  "ormal": 3973,
  "umber": 3974,
  "Ã³n": 3975,
  "orth": 3976,
  "Ġtop": 3977,
  "net": 3978,
  "Ġleft": 3979,
  "Ġposition": 3980,
  "roller": 3981,
  "ones": 3983,
  "ĠJohn": 3986,
  "Ġaddition": 3988,
  "bu": 3991,
  "Ġold": 3992,
  "ief": 3993,
  "ypes": 3994,
  "Ġste": 3995,
  "Ġpolit": 3998,
  "Item": 3999,
  "erg": 4002,
  "ially": 4003,
  "ately": 4004,
  "Ġresponse": 4005,
  "Ġide": 4006,
  "ables": 4007,
  "param": 4008,
  "ffer": 4009,
  "ĠPol": 4010,
  "ras": 4011,
  "Ġcert": 4012,
  "Ġcount": 4014,
  "Ġmust": 4016,
  "bert": 4017,
  "User": 4019,
  "Ġtreat": 4020,
  "arn": 4021,
  "Ġimportant": 4023,
  "ury": 4024,
  "Ġlater": 4025,
  "span": 4027,
  "Ġhref": 4029,
  "unc": 4030,
  "lease": 4031,
  "af": 4032,
  "Ġera": 4033,
  "vern": 4035,
  "Ġchange": 4036,
  "ua": 4037,
  "Ġcult": 4038,
  "Ġsens": 4040,
  "Ġnicht": 4041,
  "Ġja": 4042,
  "ĠIm": 4045,
  "ook": 4046,
  "Ġemb": 4047,
  "Time": 4049,
  "An": 4051,
  "Ã©d": 4052,
  "Ġpower": 4053,
  "ĠEst": 4055,
  "Ġbased": 4057,
  "ards": 4058,
  "CT": 4061,
  "Object": 4062,
  "ackage": 4063,
  "Ġjava": 4067,
  "Ġtake": 4069,
  "ases": 4070,
  "As": 4072,
  "itch": 4073,
  "Ġsugg": 4074,
  "Ġfilm": 4076,
  "ali": 4077,
  "icon": 4079,
  "Ã¡t": 4081,
  "input": 4082,
  "ift": 4083,
  "ĠGe": 4085,
  "Ġcirc": 4087,
  "Ġindiv": 4089,
  "incip": 4090,
  "err": 4091,
  "Ġpred": 4092,
  "Ġsam": 4095,
  "idual": 4096,
  "ĠUnivers": 4097,
  "Ġquestion": 4098,
  "Ġsrc": 4101,
  "ething": 4103,
  "ku": 4106,
  "Ġsent": 4108,
  "Ġprop": 4109,
  "ily": 4110,
  "ites": 4111,
  "Ġaz": 4112,
  "ining": 4114,
  "Ġfac": 4116,
  "Ġinfl": 4117,
  "ably": 4118,
  "Ġeng": 4119,
  "Ġmem": 4120,
  "ĠII": 4121,
  "ĠSu": 4122,
  "ĠMan": 4123,
  "using": 4125,
  "Ġproblem": 4127,
  "Ġsuggest": 4128,
  "Ġlife": 4129,
  "hel": 4131,
  "Ġrepresent": 4133,
  "Ġadv": 4134,
  "Ġpri": 4135,
  "Ġsince": 4136,
  "Ġdest": 4138,
  "Ġmight": 4139,
  "Ã©c": 4141,
  "arl": 4144,
  "Ġcharacter": 4145,
  "ges": 4146,
  "Get": 4147,
  "Ġsay": 4150,
  "iá»": 4151,
  "Exception": 4152,
  "Ġhat": 4153,
  "ĠmÃ¡s": 4154,
  "Ġsever": 4155,
  "item": 4157,
  "nÃŃ": 4158,
  "ĠThey": 4159,
  "Ġconc": 4160,
  "ector": 4161,
  "Ġbro": 4163,
  "Ġcho": 4164,
  "Ġspe": 4166,
  "ĠSc": 4167,
  "El": 4168,
  "Ġpossible": 4171,
  "ley": 4172,
  "Ġgre": 4174,
  "ĠFl": 4176,
  "urch": 4178,
  "Ġwater": 4180,
  "ican": 4181,
  "ala": 4182,
  "ih": 4183,
  "Ġgrand": 4186,
  "ways": 4189,
  "index": 4190,
  "ima": 4191,
  "ils": 4194,
  "Ġenv": 4195,
  "cted": 4196,
  "embre": 4197,
  "cha": 4202,
  "Ġaf": 4203,
  "Ġmean": 4204,
  "Ġcheck": 4206,
  "Ġih": 4208,
  "Ġexpect": 4209,
  "Ã©g": 4210,
  "Ġbody": 4212,
  "Ġvalues": 4213,
  "sole": 4215,
  "Ġgra": 4216,
  "Ġses": 4217,
  "Ġrecord": 4218,
  "abl": 4219,
  "ried": 4221,
  "ira": 4222,
  "ured": 4223,
  "ploy": 4224,
  "off": 4228,
  "Ġorg": 4229,
  "Ġcontain": 4231,
  "Ġactiv": 4232,
  "uel": 4233,
  "Ġtable": 4234,
  "ires": 4235,
  "Ġstat": 4236,
  "Ġask": 4237,
  "aim": 4238,
  "Ġexp": 4240,
  "ention": 4242,
  "Ġiss": 4245,
  "Ġmill": 4246,
  "ĠvÃł": 4247,
  "Ġsingle": 4249,
  "Ġsw": 4250,
  "Ġlow": 4253,
  "obre": 4255,
  "Ġside": 4258,
  "Ġsuccess": 4259,
  "ya": 4263,
  "Ġinvest": 4264,
  "Ġgiven": 4265,
  "Ġbar": 4266,
  "We": 4268,
  "iste": 4269,
  "ought": 4270,
  "Service": 4271,
  "Ġmom": 4273,
  "Ġnet": 4274,
  "Ġnext": 4275,
  "ario": 4276,
  "ocal": 4277,
  "aba": 4278,
  "Ġperiod": 4279,
  "mon": 4280,
  "ised": 4281,
  "aux": 4282,
  "Ġput": 4283,
  "ĠEng": 4284,
  "ĠSte": 4285,
  "AL": 4286,
  "pons": 4288,
  "Ġless": 4289,
  "SS": 4290,
  "Ġcoun": 4291,
  "Ġinput": 4292,
  "cia": 4293,
  "iam": 4296,
  "Ġmor": 4298,
  "pu": 4301,
  "uit": 4302,
  "log": 4303,
  "Ġworld": 4304,
  "Ġcreate": 4305,
  "uring": 4307,
  "Ġaw": 4308,
  "include": 4310,
  "aint": 4311,
  "iled": 4312,
  "ria": 4313,
  "ret": 4314,
  "ĠJul": 4315,
  "Ġbuild": 4317,
  "Ġmaterial": 4318,
  "Ġanalysis": 4319,
  "mes": 4320,
  "ET": 4321,
  "ili": 4322,
  "Ġbreak": 4323,
  "ĠÃ©s": 4325,
  "Ġshown": 4326,
  "eder": 4327,
  "Ind": 4328,
  "Ġlarge": 4329,
  "Ġintern": 4330,
  "Ġsz": 4331,
  "Form": 4334,
  "Ġexist": 4335,
  "icro": 4336,
  "ĠReg": 4337,
  "atal": 4339,
  "Ġparam": 4340,
  "Ġnach": 4345,
  "Ġsocial": 4346,
  "ische": 4349,
  "IG": 4351,
  "Ġgeneral": 4352,
  "Ġtre": 4354,
  "Ġcaus": 4357,
  "ety": 4359,
  "ete": 4360,
  "Ġten": 4361,
  "Ġcost": 4362,
  "ttp": 4364,
  "Ġq": 4367,
  "Ġparticular": 4369,
  "Ġsal": 4373,
  "rame": 4374,
  "jo": 4375,
  "Ġlang": 4376,
  "inn": 4377,
  "amm": 4378,
  "ither": 4379,
  "This": 4380,
  "Ġwrit": 4381,
  "Ġtoo": 4382,
  "Ġinte": 4384,
  "ittle": 4386,
  "Ġneg": 4387,
  "Ġbeg": 4388,
  "Ġkon": 4389,
  "Ġlight": 4391,
  "For": 4393,
  "Ġmatch": 4395,
  "ĠEd": 4396,
  "Ã¤r": 4397,
  "ba": 4402,
  "Ġleast": 4403,
  "Ġcrit": 4404,
  "ground": 4405,
  "icle": 4407,
  "Ġol": 4408,
  "ias": 4409,
  "ĠGu": 4414,
  "irm": 4416,
  "test": 4417,
  "Ġcalled": 4418,
  "ological": 4420,
  "oph": 4421,
  "Ġprincip": 4422,
  "Or": 4423,
  "ĠCan": 4425,
  "ula": 4427,
  "aron": 4429,
  "rap": 4430,
  "Ġpa": 4431,
  "Ġeen": 4432,
  "Ġsomething": 4433,
  "aster": 4435,
  "ede": 4436,
  "Ġpress": 4438,
  "Ġdocument": 4440,
  "Ġtechn": 4441,
  "Ġbus": 4442,
  "Pl": 4444,
  "ances": 4446,
  "Ġvir": 4447,
  "ache": 4450,
  "ements": 4451,
  "Man": 4452,
  "Ġstyle": 4453,
  "ĠMay": 4454,
  "Ġabove": 4455,
  "EN": 4456,
  "Ġarea": 4457,
  "osed": 4458,
  "Ġtrad": 4459,
  "Ġarray": 4460,
  "ti": 4464,
  "rix": 4465,
  "Ġbir": 4467,
  "Ġbase": 4469,
  "Ġaux": 4470,
  "ands": 4471,
  "ĠDes": 4472,
  "ĠPer": 4473,
  "ĠCent": 4474,
  "ched": 4475,
  "Ġcontinu": 4476,
  "ience": 4477,
  "Ġcompon": 4478,
  "Ġabs": 4480,
  "usion": 4481,
  "ayout": 4482,
  "conom": 4484,
  "Ġtu": 4487,
  "ride": 4488,
  "Ġparticip": 4489,
  "ahr": 4490,
  "ban": 4491,
  "Ġgrow": 4492,
  "ĠSo": 4493,
  "Ġey": 4494,
  "Ġgrou": 4495,
  "abor": 4496,
  "ries": 4501,
  "urg": 4502,
  "Ġhuman": 4503,
  "ona": 4504,
  "Ġfut": 4505,
  "Error": 4507,
  "ponent": 4508,
  "Ġsimilar": 4510,
  "Ġsein": 4512,
  "mun": 4513,
  "Ġfurther": 4514,
  "ĠPart": 4515,
  "Ġfew": 4517,
  "outh": 4519,
  "ador": 4520,
  "Ġrange": 4521,
  "Ġcur": 4524,
  "cal": 4526,
  "less": 4527,
  "Ġuma": 4531,
  "cription": 4532,
  "Ġprob": 4534,
  "zo": 4536,
  "kan": 4537,
  "ĠPa": 4538,
  "Ġdepend": 4539,
  "File": 4541,
  "thing": 4543,
  "ules": 4544,
  "Ġrequest": 4546,
  "ious": 4548,
  "iles": 4549,
  "Bu": 4551,
  "Ġwon": 4552,
  "iness": 4555,
  "Ġsum": 4556,
  "idence": 4557,
  "Ġcolor": 4558,
  "adas": 4560,
  "och": 4561,
  "though": 4562,
  "stit": 4565,
  "Ġdefault": 4566,
  "You": 4568,
  "Ġdies": 4569,
  "Ġuntil": 4570,
  "ĠNov": 4571,
  "ension": 4574,
  "bol": 4575,
  "ĠStad": 4577,
  "Ġdella": 4578,
  "ĠSer": 4579,
  "ffic": 4582,
  "Ġhaving": 4583,
  "Ġsitu": 4585,
  "Ġir": 4589,
  "Ġhome": 4590,
  "mod": 4591,
  "vention": 4592,
  "ourn": 4594,
  "Ġindividual": 4597,
  "_C": 4598,
  "bb": 4600,
  "Ġproject": 4601,
  "Ġtou": 4602,
  "encia": 4603,
  "ling": 4604,
  "zi": 4606,
  "Ġprevious": 4607,
  "ungen": 4609,
  "Ġhom": 4610,
  "Ġhealth": 4612,
  "UL": 4614,
  "Ġmajor": 4616,
  "ails": 4617,
  "Ġoriginal": 4618,
  "Ġmes": 4619,
  "Ġlink": 4622,
  "ĠAug": 4623,
  "Ã¡l": 4624,
  "Ġben": 4625,
  "Ġinclude": 4626,
  "ĠJan": 4628,
  "Ġknown": 4629,
  "error": 4630,
  "Ġseveral": 4631,
  "pen": 4632,
  "ĠThese": 4634,
  "Ġess": 4635,
  "Ġcompr": 4636,
  "Ġgovern": 4637,
  "Date": 4638,
  "Ġbes": 4639,
  "Ġkh": 4640,
  "Ġcomme": 4642,
  "day": 4643,
  "Event": 4645,
  "_name": 4646,
  "ailable": 4649,
  "ĠChrist": 4652,
  "Ġinvol": 4655,
  "Ġtreatment": 4656,
  "Ġkm": 4661,
  "igher": 4663,
  "Ã¡c": 4665,
  "Ġstudies": 4666,
  "All": 4668,
  "Ġpopulation": 4669,
  "Ġgoing": 4670,
  "ĠNe": 4671,
  "Ġpi": 4675,
  "aps": 4677,
  "acc": 4679,
  "ync": 4680,
  "ored": 4681,
  "ĠEm": 4682,
  "Ġep": 4683,
  "Ġng": 4684,
  "urope": 4689,
  "Ġelle": 4690,
  "Ġsurface": 4691,
  "init": 4692,
  "Ġutil": 4695,
  "ych": 4697,
  "Element": 4699,
  "Ġcontent": 4701,
  "oman": 4702,
  "ĉpublic": 4704,
  "loat": 4706,
  "ald": 4707,
  "ĠÃ¼ber": 4710,
  "atter": 4713,
  "ended": 4716,
  "ources": 4717,
  "met": 4719,
  "Ġkom": 4721,
  "rid": 4722,
  "Ġlarg": 4724,
  "Ġdise": 4725,
  "ĠAss": 4727,
  "ades": 4728,
  "Ġsym": 4729,
  "Ġfem": 4730,
  "Ġaccess": 4731,
  "Ġele": 4733,
  "Ġmoment": 4735,
  "Ġimpro": 4736,
  "ĠMon": 4740,
  "irect": 4741,
  "Ġauch": 4742,
  "ii": 4743,
  "Ġho": 4744,
  "void": 4746,
  "Ġwhe": 4747,
  "opt": 4750,
  "ĠLes": 4752,
  "No": 4753,
  "html": 4754,
  "RO": 4755,
  "Key": 4756,
  "Ġsec": 4758,
  "Ã©l": 4759,
  "wa": 4761,
  "Ġanim": 4763,
  "ql": 4765,
  "Ġdeux": 4767,
  "Ġlib": 4768,
  "Ġalg": 4769,
  "Ġrequire": 4771,
  "Ġnever": 4772,
  "Ġmal": 4773,
  "Ġplan": 4777,
  "IT": 4778,
  "Info": 4781,
  "creen": 4787,
  "Ġface": 4788,
  "chan": 4792,
  "atures": 4793,
  "mail": 4795,
  "file": 4796,
  "Ġtitle": 4798,
  "Ġobtain": 4800,
  "Ġtemper": 4801,
  "Ġhal": 4802,
  "Ã¤n": 4803,
  "Ġred": 4804,
  "utes": 4805,
  "ids": 4807,
  "Ġservice": 4810,
  "Ġspecific": 4811,
  "Ġdidn": 4814,
  "andom": 4815,
  "Ġcamp": 4817,
  "Ġexpression": 4818,
  "Ġweek": 4819,
  "sc": 4821,
  "ika": 4822,
  "oad": 4823,
  "Ġgreat": 4824,
  "mand": 4826,
  "tn": 4829,
  "Ġamb": 4831,
  "Ġanswer": 4832,
  "Ã³w": 4833,
  "ories": 4834,
  "Ġalong": 4837,
  "rie": 4838,
  "rodu": 4840,
  "aces": 4841,
  "anto": 4842,
  "ĠBar": 4844,
  "sum": 4845,
  "Ġsat": 4846,
  "Ġoutput": 4848,
  "eters": 4849,
  "App": 4850,
  "apt": 4851,
  "Ġhigher": 4853,
  "depend": 4855,
  "Ġcontr": 4856,
  "ĠUnited": 4857,
  "Ã¶n": 4861,
  "ivo": 4862,
  "plement": 4863,
  "Ġair": 4864,
  "export": 4865,
  "ilt": 4867,
  "ready": 4868,
  "stract": 4870,
  "box": 4873,
  "Ã¼n": 4874,
  "ln": 4876,
  "Ġcommon": 4878,
  "ĠMed": 4879,
  "oot": 4880,
  "ĠVal": 4882,
  "_n": 4883,
  "Ġgot": 4884,
  "ogn": 4885,
  "Ġeas": 4886,
  "vis": 4888,
  "oper": 4889,
  "ĠMy": 4890,
  "Ġindex": 4891,
  "uration": 4892,
  "Ġom": 4895,
  "Ġhapp": 4896,
  "Ġdevelopment": 4900,
  "lick": 4903,
  "kl": 4904,
  "Ġresearch": 4909,
  "idd": 4910,
  "Ġconcent": 4912,
  "Ġfran": 4913,
  "Ġthought": 4914,
  "Ġmonth": 4917,
  "Ġbis": 4918,
  "ony": 4919,
  "Ġinterest": 4920,
  "iro": 4921,
  "Test": 4922,
  "Ġfue": 4924,
  "ĠWhen": 4925,
  "rect": 4926,
  "Ġyang": 4929,
  "aff": 4932,
  "older": 4933,
  "Ġrole": 4934,
  "Ġrad": 4935,
  "Model": 4936,
  "Ġmeans": 4938,
  "ump": 4939,
  "iff": 4940,
  "bre": 4941,
  "Ġbetter": 4942,
  "Table": 4944,
  "Ġlittle": 4945,
  "Ġsepar": 4946,
  "Ġblock": 4950,
  "Button": 4951,
  "Ġlower": 4953,
  "Ġfar": 4955,
  "valu": 4957,
  "Ġshort": 4958,
  "Ġiz": 4961,
  "Ġpap": 4962,
  "Ġassociated": 4963,
  "etic": 4965,
  "Ġphys": 4966,
  "Request": 4967,
  "Ġdevice": 4968,
  "wards": 4969,
  "odes": 4970,
  "ĠWill": 4971,
  "Ġpract": 4972,
  "ĠHer": 4973,
  "Ġchildren": 4974,
  "ao": 4975,
  "Ġbook": 4978,
  "minist": 4980,
  "uter": 4981,
  "Set": 4982,
  "Ġclaim": 4983,
  "ogen": 4985,
  "Ġsignal": 4987,
  "ĠCont": 4988,
  "Ġcomplet": 4989,
  "Ġversion": 4991,
  "empt": 4993,
  "type": 4994,
  "Ġteam": 4995,
  "Ġexam": 4996,
  "ako": 4997,
  "And": 4998,
  "Log": 4999,
  "Ġamong": 5002,
  "ĠdÃ©c": 5003,
  "abil": 5009,
  "AN": 5010,
  "from": 5011,
  "Ã¢n": 5012,
  "img": 5014,
  "ises": 5015,
  "opy": 5016,
  "ideo": 5017,
  "ironment": 5018,
  "Ġill": 5019,
  "Ġandroid": 5022,
  "Ġpers": 5023,
  "Ġespec": 5025,
  "Ġcertain": 5029,
  "atory": 5030,
  "ster": 5032,
  "Ġrate": 5033,
  "ained": 5034,
  "hem": 5037,
  "SB": 5038,
  "Ġsequ": 5041,
  "Ġesc": 5042,
  "Ġsil": 5043,
  "ĠWest": 5046,
  "Color": 5047,
  "Ġunderstand": 5048,
  "Ġot": 5049,
  "Ġrelations": 5050,
  "Ġnat": 5051,
  "Ġza": 5052,
  "url": 5053,
  "Ġdescribed": 5055,
  "rug": 5057,
  "Ġvia": 5059,
  "mission": 5061,
  "icult": 5063,
  "ombre": 5067,
  "ties": 5068,
  "osition": 5069,
  "ĠCor": 5070,
  "Ġdays": 5072,
  "Ġmag": 5073,
  "Ġrequired": 5074,
  "Ġrespons": 5075,
  "abase": 5076,
  "iy": 5077,
  "Ġgame": 5079,
  "pha": 5080,
  "Field": 5082,
  "Ġable": 5083,
  "Map": 5084,
  "gress": 5085,
  "ptember": 5086,
  "DE": 5088,
  "Ġschool": 5090,
  "ising": 5091,
  "ĠAust": 5092,
  "egin": 5093,
  "util": 5094,
  "Sh": 5095,
  "Ġsolution": 5097,
  "Ãªme": 5098,
  "Ġdisplay": 5100,
  "ĠMin": 5101,
  "_st": 5103,
  "Ã¤t": 5105,
  "Ġren": 5107,
  "iem": 5108,
  "Ġaway": 5109,
  "Ġang": 5110,
  "Ġcy": 5112,
  "Context": 5114,
  "Ġmessage": 5117,
  "PI": 5119,
  "bit": 5121,
  "ocation": 5123,
  "Ġearly": 5124,
  "Ġapproach": 5125,
  "ION": 5126,
  "Ġage": 5128,
  "uth": 5130,
  "pring": 5131,
  "Ġhard": 5132,
  "result": 5133,
  "Ġfamily": 5135,
  "bs": 5136,
  "Ġaccording": 5138,
  "ĠlÃł": 5139,
  "button": 5140,
  "pa": 5142,
  "Ġtout": 5143,
  "Ġlik": 5144,
  "Ġnom": 5146,
  "unk": 5148,
  "Ġut": 5149,
  "ĠAmerican": 5150,
  "ĠSan": 5151,
  "ĠYork": 5152,
  "Ġoften": 5153,
  "Ġsobre": 5155,
  "obal": 5156,
  "imin": 5158,
  "sequ": 5161,
  "Of": 5162,
  "Ġsupp": 5163,
  "function": 5165,
  "ĠApr": 5167,
  "Ġalt": 5169,
  "ĠAnt": 5170,
  "thers": 5171,
  "osp": 5172,
  "aring": 5173,
  "Ġload": 5174,
  "zer": 5176,
  "Ġactivity": 5177,
  "Ġavailable": 5178,
  "ĠAng": 5179,
  "ME": 5180,
  "Ġnetwork": 5182,
  "head": 5184,
  "rt": 5185,
  "Ġsort": 5186,
  "ĠAugust": 5187,
  "ĠUniversity": 5189,
  "jet": 5190,
  "ola": 5191,
  "icial": 5192,
  "AC": 5193,
  "Ġstructure": 5194,
  "len": 5197,
  "Path": 5198,
  "agement": 5199,
  "Ġgroups": 5200,
  "ori": 5202,
  "cz": 5206,
  "trans": 5207,
  "oria": 5208,
  "Ġfrequ": 5209,
  "Ġsource": 5211,
  "Ġdurch": 5212,
  "Ġtimes": 5213,
  "Ġvor": 5215,
  "Ġcommand": 5216,
  "lood": 5218,
  "Ġmut": 5219,
  "Ġpel": 5220,
  "cht": 5223,
  "ategory": 5224,
  "antes": 5227,
  "ĠIntern": 5228,
  "Ġgi": 5229,
  "Ġprovide": 5234,
  "Ġsin": 5235,
  "Ġreported": 5237,
  "Over": 5238,
  "Pr": 5240,
  "apter": 5241,
  "Class": 5242,
  "Ġtook": 5244,
  "acy": 5245,
  "Ġfait": 5246,
  "ĠList": 5247,
  "Int": 5248,
  "Ġeither": 5250,
  "ipp": 5251,
  "Ġsure": 5257,
  "ĠBu": 5258,
  "Ġeiner": 5259,
  "Ġwerden": 5261,
  "Ġaction": 5263,
  "respond": 5264,
  "âĢĻd": 5265,
  "Ġchanges": 5266,
  "Ġnormal": 5270,
  "ĠBrit": 5271,
  "query": 5272,
  "Ġinflu": 5273,
  "Array": 5274,
  "Ġfull": 5275,
  "Ġalways": 5282,
  "Ġlevels": 5283,
  "ney": 5284,
  "Ġerr": 5285,
  "With": 5286,
  "Ġband": 5287,
  "Ġpotential": 5289,
  "ball": 5290,
  "ruction": 5292,
  "ji": 5297,
  "chen": 5299,
  "Ġber": 5300,
  "lem": 5301,
  "ribute": 5302,
  "ĠMc": 5303,
  "Ġstop": 5304,
  "Ġpoints": 5305,
  "ĠÃ®n": 5309,
  "otal": 5310,
  "ĠBer": 5311,
  "ication": 5312,
  "tes": 5313,
  "Ġalready": 5314,
  "Ġcontext": 5315,
  "ibility": 5316,
  "oi": 5317,
  "static": 5319,
  "ĠÃ©tÃ©": 5320,
  "Figure": 5321,
  "Index": 5323,
  "ĠWorld": 5325,
  "Ġrefer": 5326,
  "Ġcomplex": 5327,
  "âĢĻest": 5328,
  "aced": 5333,
  "Ġmechan": 5334,
  "Ġcá»§": 5335,
  "oto": 5336,
  "abe": 5337,
  "ware": 5340,
  "ieve": 5341,
  "Ġwomen": 5343,
  "Ġrepl": 5345,
  "Ġfront": 5346,
  "ebru": 5347,
  "Size": 5348,
  "Ġroom": 5349,
  "Ġpur": 5351,
  "ocus": 5353,
  "Ġsubject": 5355,
  "Is": 5356,
  "Ġeta": 5357,
  "idos": 5358,
  "create": 5359,
  "Ġzur": 5360,
  "ĠCo": 5361,
  "Ġcá»§a": 5363,
  "nen": 5364,
  "Ġju": 5365,
  "stance": 5366,
  "Ġfree": 5370,
  "Ġcam": 5372,
  "Ġpage": 5373,
  "ÉĻr": 5374,
  "Ġincreased": 5376,
  "oma": 5378,
  "eld": 5379,
  "Ġze": 5381,
  "where": 5383,
  "Ġthrow": 5388,
  "Ġfeel": 5389,
  "ĠMus": 5390,
  "Add": 5391,
  "side": 5392,
  "Ġinvestig": 5393,
  "Ġrap": 5394,
  "Ġseries": 5395,
  "ĠApp": 5398,
  "api": 5400,
  "ols": 5401,
  "ilter": 5402,
  "volution": 5408,
  "ĠDav": 5413,
  "ĠAfter": 5417,
  "Ġcoll": 5418,
  "ending": 5420,
  "ixed": 5422,
  "ĠCal": 5424,
  "ĠGerm": 5425,
  "ĠBo": 5426,
  "ilder": 5427,
  "umb": 5430,
  "content": 5431,
  "pace": 5432,
  "Ġdoor": 5433,
  "ctor": 5434,
  "Ġtamb": 5436,
  "verage": 5437,
  "Ġmer": 5441,
  "Ġdal": 5442,
  "Ġcases": 5443,
  "Ġhowever": 5444,
  "raf": 5445,
  "Ad": 5448,
  "Ġaccount": 5449,
  "Ġdate": 5451,
  "Ġmas": 5452,
  "ĠZe": 5453,
  "itar": 5455,
  "uage": 5456,
  "Controller": 5459,
  "ĠAf": 5460,
  "Mod": 5461,
  "Ġdass": 5462,
  "ram": 5463,
  "mo": 5464,
  "Ġwidth": 5465,
  "Ġproduction": 5466,
  "ĠDo": 5469,
  "mu": 5470,
  "Ġland": 5471,
  "else": 5472,
  "rict": 5474,
  "If": 5475,
  "Ġunit": 5476,
  "array": 5477,
  "_T": 5479,
  "Ġconditions": 5481,
  "_P": 5482,
  "Not": 5484,
  "position": 5486,
  "Ġdam": 5488,
  "UT": 5489,
  "Sc": 5492,
  "Result": 5493,
  "plit": 5495,
  "Ġcompared": 5496,
  "image": 5497,
  "ĠFrance": 5498,
  "lin": 5499,
  "ĠNot": 5500,
  "ering": 5501,
  "package": 5502,
  "ĠEs": 5504,
  "Ġens": 5506,
  "US": 5507,
  "ÃŃn": 5509,
  "Ġapplication": 5510,
  "ĠSim": 5511,
  "Ġcorrespond": 5512,
  "Ã§a": 5513,
  "AD": 5516,
  "ju": 5517,
  "Ġbei": 5520,
  "Ġrow": 5522,
  "Ġreally": 5524,
  "ello": 5525,
  "Ġseason": 5526,
  "Up": 5528,
  "Ġjed": 5530,
  "iple": 5533,
  "Ġmach": 5534,
  "Ġcolumn": 5535,
  "Ġperformed": 5537,
  "ened": 5539,
  "raft": 5540,
  "Ġdir": 5541,
  "Ġmass": 5543,
  "uto": 5546,
  "ES": 5548,
  "ĠEurope": 5550,
  "bf": 5551,
  "Ġjo": 5552,
  "UR": 5553,
  "amed": 5555,
  "Ġdouble": 5558,
  "SBN": 5559,
  "iga": 5560,
  "Ġvarious": 5561,
  "Ġworking": 5564,
  "ached": 5565,
  "Ġalbum": 5566,
  "aren": 5567,
  "Ġvá»": 5568,
  "iu": 5570,
  "Ġans": 5571,
  "Ġthough": 5572,
  "ected": 5573,
  "Ġestim": 5575,
  "osis": 5577,
  "Ġregion": 5578,
  "posed": 5579,
  "cret": 5581,
  "hen": 5583,
  "Ġtell": 5584,
  "irl": 5585,
  "Ġsite": 5586,
  "olean": 5587,
  "Ġregard": 5590,
  "Ġlength": 5592,
  "Ġbien": 5593,
  "ality": 5594,
  "Ġdone": 5595,
  "Ġincrease": 5597,
  "Ġeffects": 5598,
  "Ġpubl": 5599,
  "Ġparte": 5600,
  "Ġopp": 5602,
  "Code": 5603,
  "ribution": 5604,
  "ips": 5607,
  "Ġcette": 5609,
  "Ġitem": 5610,
  "illa": 5612,
  "Ġdeb": 5614,
  "osa": 5615,
  "Ġont": 5617,
  "_S": 5618,
  "ĠGener": 5619,
  "Ġlaw": 5622,
  "Ġao": 5623,
  "iva": 5625,
  "Ġwhether": 5627,
  "Ġgive": 5628,
  "At": 5629,
  "este": 5633,
  "Ġrep": 5634,
  "inding": 5635,
  "emp": 5636,
  "igned": 5637,
  "Ġnecess": 5639,
  "iques": 5641,
  "Ġrat": 5643,
  "Ġdig": 5645,
  "ĠThat": 5646,
  "Ġamount": 5647,
  "Ġconfig": 5648,
  "annel": 5650,
  "Ġoch": 5651,
  "ĠBy": 5652,
  "Act": 5653,
  "Message": 5654,
  "Ġincluded": 5656,
  "ĠÃ©tait": 5657,
  "nes": 5658,
  "Ġbit": 5659,
  "ĠOne": 5661,
  "Ġprovided": 5662,
  "ĠSeptember": 5663,
  "oz": 5665,
  "Ġstrong": 5666,
  "ynam": 5667,
  "apan": 5668,
  "Ġacross": 5669,
  "ĠPat": 5670,
  "Ġach": 5672,
  "ĠWar": 5674,
  "ĠWhat": 5675,
  "Ġdeg": 5676,
  "Ġstatus": 5677,
  "uck": 5678,
  "resh": 5680,
  "Ã©ri": 5681,
  "ĠMa": 5682,
  "ester": 5683,
  "ydro": 5684,
  "Ġimplement": 5687,
  "aine": 5689,
  "icip": 5690,
  "ila": 5691,
  "Ġflow": 5692,
  "asta": 5693,
  "esis": 5694,
  "Ġfri": 5698,
  "Ġexpress": 5700,
  "yth": 5701,
  "Ġspace": 5702,
  "Ġsig": 5703,
  "Ġthings": 5705,
  "assword": 5706,
  "ÈĻi": 5708,
  "Ġclin": 5710,
  "Ġmis": 5711,
  "cel": 5714,
  "oud": 5715,
  "Ġexec": 5716,
  "rack": 5717,
  "Ġhouse": 5718,
  "Ġinitial": 5719,
  "Ġdro": 5720,
  "label": 5721,
  "lam": 5722,
  "Ġmm": 5724,
  "Ġcourse": 5725,
  "Ã¡r": 5728,
  "iento": 5729,
  "Ġeyes": 5731,
  "orage": 5732,
  "Ġbehav": 5733,
  "Ġsel": 5734,
  "Ġrisk": 5735,
  "hal": 5736,
  "uy": 5739,
  "Ġcame": 5740,
  "Ġmembers": 5742,
  "Ġestabl": 5743,
  "istic": 5744,
  "omet": 5745,
  "Ġvalid": 5746,
  "Ġaddress": 5751,
  "Ġseen": 5753,
  "iert": 5755,
  "Ã©rie": 5756,
  "cher": 5757,
  "Manager": 5758,
  "Ġmind": 5759,
  "asing": 5760,
  "ĠCO": 5761,
  "Ġselect": 5762,
  "color": 5764,
  "Ġtw": 5766,
  "Ġener": 5768,
  "iction": 5769,
  "ismo": 5771,
  "Ġsex": 5772,
  "Ġhor": 5775,
  "reate": 5776,
  "het": 5777,
  "Node": 5778,
  "Ġconsole": 5779,
  "Att": 5780,
  "Ġwhy": 5782,
  "mathrm": 5784,
  "Ġonce": 5785,
  "uv": 5786,
  "medi": 5787,
  "ĠpÃ¥": 5789,
  "iding": 5791,
  "Ġseu": 5792,
  "Ġavait": 5793,
  "icy": 5794,
  "ĠMart": 5795,
  "Ġpal": 5796,
  "Ġtil": 5797,
  "istance": 5798,
  "ape": 5799,
  "Ġobserved": 5802,
  "Ġstd": 5803,
  "ÃŃs": 5804,
  "ĠNational": 5805,
  "Ġheight": 5806,
  "Ġkeep": 5807,
  "ĠnÃ£o": 5808,
  "asi": 5809,
  "Ã´ng": 5811,
  "ĠJanu": 5814,
  "Ġfund": 5815,
  "Ġtoget": 5816,
  "isp": 5818,
  "ĠApril": 5821,
  "si": 5822,
  "Ġtogether": 5823,
  "Ġdiscuss": 5826,
  "Ġevalu": 5827,
  "iments": 5829,
  "Ġavo": 5833,
  "Ġindust": 5834,
  "Ġintegr": 5835,
  "uz": 5836,
  "perty": 5837,
  "ague": 5838,
  "Ġemploy": 5840,
  "Ġwie": 5843,
  "ĠAct": 5845,
  "Ġeinem": 5846,
  "Des": 5847,
  "point": 5848,
  "nie": 5850,
  "Ġprotein": 5852,
  "Bl": 5855,
  "Ġdecl": 5860,
  "Ġdecre": 5861,
  "Def": 5863,
  "Ġhold": 5864,
  "aÅĤ": 5865,
  "rat": 5867,
  "sel": 5868,
  "iente": 5870,
  "Ġbecame": 5872,
  "Box": 5873,
  "true": 5876,
  "Ġcalcul": 5878,
  "ĠDec": 5879,
  "Image": 5881,
  "Ġarm": 5882,
  "Ġfra": 5886,
  "Ġthird": 5888,
  "gn": 5891,
  "urity": 5895,
  "Ġlie": 5897,
  "Ġkind": 5898,
  "cular": 5900,
  "eur": 5902,
  "imal": 5903,
  "Ãµes": 5904,
  "Ä±r": 5906,
  "ainer": 5908,
  "Ã±o": 5910,
  "Ġok": 5913,
  "max": 5914,
  "ĠInt": 5915,
  "ago": 5916,
  "Ġprec": 5917,
  "itz": 5918,
  "Ġsua": 5919,
  "Ġtyp": 5921,
  "Ġgovernment": 5922,
  "Ġdemon": 5923,
  "Ġsyn": 5925,
  "iers": 5927,
  "Ġax": 5928,
  "sten": 5929,
  "ĠWith": 5930,
  "Ġsy": 5931,
  "Ġzum": 5932,
  "anks": 5933,
  "Be": 5934,
  "table": 5935,
  "Ġcustom": 5936,
  "ches": 5937,
  "ĠDr": 5939,
  "anz": 5940,
  "most": 5943,
  "Ġmeasure": 5944,
  "Ġincl": 5945,
  "Ġsix": 5946,
  "Ġadded": 5949,
  "Ã¤nd": 5951,
  "alle": 5953,
  "Ġweight": 5954,
  "indows": 5955,
  "Ġbelow": 5956,
  "ema": 5957,
  "ounds": 5961,
  "ĠGl": 5962,
  "Ġpattern": 5965,
  "Ġstep": 5966,
  "eme": 5968,
  "Em": 5969,
  "Ġcity": 5970,
  "Ġreason": 5972,
  "Ġalle": 5974,
  "Ġshowed": 5978,
  "cd": 5979,
  "lag": 5981,
  "valid": 5983,
  "orge": 5985,
  "ottom": 5987,
  "rab": 5988,
  "Ġsind": 5989,
  "Ġstandard": 5990,
  "Ġgru": 5992,
  "Ġunter": 5995,
  "esch": 5997,
  "uid": 5998,
  "Ġhar": 5999,
  "ĠMal": 6000,
  "Ġconduct": 6002,
  "AS": 6003,
  "Ġmember": 6004,
  "config": 6007,
  "ĠArt": 6009,
  "Ġquant": 6010,
  "Ġpay": 6012,
  "Ġeconom": 6015,
  "Fig": 6018,
  "isc": 6020,
  "Ġmethods": 6021,
  "Ġsett": 6025,
  "Ġcontact": 6026,
  "utsch": 6027,
  "una": 6028,
  "ĠPaul": 6031,
  "ĠNovember": 6032,
  "Ġhost": 6033,
  "andid": 6034,
  "ee": 6035,
  "begin": 6036,
  "Ã¼ck": 6037,
  "ĠStud": 6038,
  "Ã¨me": 6041,
  "Ġrelationship": 6042,
  "Ġtit": 6043,
  "ĠMor": 6044,
  "IC": 6048,
  "ober": 6049,
  "rav": 6051,
  "Ġintrodu": 6053,
  "entes": 6054,
  "Ġmodels": 6056,
  "list": 6059,
  "idade": 6060,
  "Ġspecial": 6061,
  "mary": 6063,
  "Ġdeath": 6064,
  "Ġresol": 6065,
  "ĠAbstract": 6066,
  "Cap": 6068,
  "ĠOct": 6069,
  "Ä±nd": 6070,
  "Ġeinen": 6071,
  "iÃ¨re": 6072,
  "Ġtransform": 6074,
  "Ġconsist": 6076,
  "des": 6078,
  "Ġsection": 6079,
  "Die": 6080,
  "ham": 6081,
  "iddle": 6082,
  "Ġprot": 6083,
  "itory": 6085,
  "ĠStates": 6086,
  "elles": 6088,
  "Ġauthor": 6089,
  "Ġconsidered": 6090,
  "Ġenergy": 6091,
  "Ġenvironment": 6093,
  "ators": 6094,
  "Ġnou": 6095,
  "aria": 6097,
  "iten": 6098,
  "Ġfont": 6099,
  "Input": 6100,
  "Ġperformance": 6103,
  "New": 6105,
  "board": 6108,
  "request": 6109,
  "ucle": 6111,
  "aire": 6112,
  "Ġworks": 6113,
  "Ġpan": 6114,
  "Ġnear": 6117,
  "pat": 6118,
  "Ġdar": 6120,
  "idget": 6121,
  "Ġshows": 6122,
  "Ġsearch": 6123,
  "Ġaccept": 6124,
  "uments": 6125,
  "Ġbecome": 6127,
  "plied": 6129,
  "Ġcross": 6130,
  "Ġfav": 6131,
  "www": 6132,
  "Ġclear": 6133,
  "âĢĻm": 6135,
  "Ġasked": 6136,
  "Ġdisease": 6137,
  "Ġtemperature": 6138,
  "Ġlimit": 6139,
  "Ġps": 6140,
  "ĠDer": 6142,
  "iber": 6144,
  "ĠGod": 6145,
  "ĠCD": 6146,
  "ULL": 6147,
  "_b": 6149,
  "olo": 6150,
  "Ġsche": 6151,
  "aged": 6152,
  "Ġrather": 6153,
  "code": 6154,
  "sub": 6156,
  "Ġcompar": 6157,
  "char": 6159,
  "Ġpen": 6160,
  "Ġprem": 6162,
  "Ġrelated": 6164,
  "Ġsimple": 6165,
  "Ġgro": 6167,
  "Ġnational": 6168,
  "Ġbusiness": 6170,
  "Ġenough": 6171,
  "pty": 6172,
  "ifier": 6173,
  "ky": 6174,
  "Ent": 6175,
  "ota": 6178,
  "rier": 6180,
  "Config": 6181,
  "Ġoder": 6183,
  "Ġfive": 6184,
  "Ġsample": 6186,
  "Ġmaking": 6187,
  "Ġmicro": 6188,
  "ĠPort": 6189,
  "urt": 6190,
  "ĠDan": 6192,
  "Ġnode": 6194,
  "Ġdirection": 6195,
  "ĠChar": 6196,
  "elta": 6200,
  "Ġleur": 6201,
  "heck": 6202,
  "Ġfoi": 6203,
  "Ġdin": 6204,
  "Ġmort": 6206,
  "Ġmiss": 6207,
  "Ed": 6208,
  "Hand": 6209,
  "anta": 6210,
  "alls": 6211,
  "Ġpou": 6212,
  "ead": 6214,
  "Ġeste": 6215,
  "gi": 6216,
  "IV": 6217,
  "Ġothers": 6218,
  "Override": 6219,
  "Ġox": 6220,
  "Out": 6221,
  "Page": 6222,
  "script": 6223,
  "ris": 6224,
  "ĠAdd": 6225,
  "ĠFil": 6228,
  "Ġawait": 6230,
  "Ġclose": 6231,
  "oney": 6236,
  "Ġpul": 6237,
  "lor": 6238,
  "ĠHar": 6239,
  "Ġlayer": 6240,
  "ija": 6242,
  "ML": 6243,
  "ĠÈĻi": 6244,
  "Ġmultiple": 6245,
  "ensive": 6246,
  "imo": 6248,
  "ialog": 6249,
  "Ġcreated": 6254,
  "Ġtask": 6255,
  "Ġtá»": 6256,
  "Ġnav": 6257,
  "Ġcompet": 6258,
  "bon": 6262,
  "rary": 6263,
  "acional": 6264,
  "Ġoffer": 6266,
  "Ġtour": 6267,
  "iano": 6268,
  "Ref": 6269,
  "see": 6270,
  "ĠPe": 6271,
  "Ġseem": 6274,
  "Ġeduc": 6276,
  "Ġindepend": 6277,
  "enu": 6278,
  "ĠAg": 6279,
  "ogle": 6280,
  "ĠmÃªme": 6281,
  "icos": 6282,
  "She": 6284,
  "Ġdim": 6285,
  "iden": 6286,
  "Ġwird": 6287,
  "Ġpet": 6290,
  "atz": 6291,
  "AP": 6292,
  "Ġci": 6294,
  "Ġmagn": 6296,
  "Ġcorrect": 6298,
  "Ġich": 6299,
  "geb": 6301,
  "Ġinstead": 6302,
  "Ġba": 6303,
  "ĠHis": 6304,
  "Ġrom": 6305,
  "Ġobtained": 6306,
  "Ġreceived": 6307,
  "ĠCity": 6308,
  "Ġcard": 6309,
  "Ġnel": 6315,
  "Ġexc": 6316,
  "pan": 6318,
  "Il": 6319,
  "Ġselected": 6322,
  "ĠInter": 6323,
  "ĠMich": 6324,
  "oms": 6325,
  "icas": 6326,
  "mitt": 6327,
  "isation": 6328,
  "aten": 6329,
  "Ġhistory": 6330,
  "Ġacid": 6331,
  "ĠFig": 6333,
  "Ġpast": 6334,
  "Ġembod": 6335,
  "Ġdrug": 6336,
  "ĠJo": 6337,
  "aining": 6338,
  "emplate": 6340,
  "amento": 6341,
  "lim": 6342,
  "ischer": 6343,
  "yr": 6345,
  "ĠMarch": 6346,
  "Ġcatch": 6347,
  "Ġthá»": 6353,
  "Ġdoesn": 6354,
  "Ġsn": 6355,
  "Ġclub": 6356,
  "anced": 6357,
  "iqu": 6358,
  "Ġdescription": 6360,
  "Ġdemonstr": 6361,
  "ving": 6362,
  "isi": 6364,
  "Ġadminist": 6366,
  "Ġreview": 6369,
  "Ġtrying": 6370,
  "object": 6371,
  "Ġmap": 6373,
  "Ġrele": 6375,
  "itude": 6376,
  "ithub": 6377,
  "osph": 6378,
  "Ġpoly": 6380,
  "stant": 6383,
  "raz": 6384,
  "alpha": 6385,
  "Ġwent": 6387,
  "aciones": 6389,
  "check": 6390,
  "Ġassess": 6391,
  "ĠForm": 6392,
  "Ġserver": 6395,
  "Ġbegin": 6396,
  "Ġimag": 6397,
  "Ġled": 6398,
  "ĠcÃ³": 6400,
  "cing": 6403,
  "Ġrelig": 6404,
  "iene": 6405,
  "Ġloss": 6410,
  "pm": 6411,
  "Ġtypes": 6413,
  "berg": 6415,
  "âĢĻre": 6417,
  "Ġimm": 6418,
  "Ġwin": 6419,
  "Ġhalf": 6420,
  "ĠSal": 6424,
  "eria": 6427,
  "Content": 6428,
  "oved": 6429,
  "ius": 6431,
  "Ġcover": 6432,
  "verse": 6433,
  "Ġconv": 6435,
  "ĠPre": 6438,
  "uery": 6440,
  "ĠSie": 6441,
  "Ġliter": 6442,
  "ĠSouth": 6443,
  "Ġsoft": 6444,
  "omas": 6445,
  "uan": 6446,
  "Ġframe": 6448,
  "ĠLond": 6450,
  "rica": 6451,
  "Ġheld": 6452,
  "su": 6453,
  "las": 6454,
  "Ġsv": 6459,
  "ternal": 6463,
  "ops": 6465,
  "oles": 6466,
  "Ġsystems": 6467,
  "Ġfocus": 6468,
  "ĠGet": 6470,
  "ĠEin": 6471,
  "post": 6472,
  "Line": 6473,
  "Ġfun": 6475,
  "ensity": 6476,
  "ĠPhil": 6477,
  "ael": 6479,
  "Ġapr": 6480,
  "ĠPark": 6481,
  "Ġpatient": 6482,
  "change": 6484,
  "bor": 6488,
  "ono": 6489,
  "ĠRuss": 6490,
  "esta": 6492,
  "Ġdefined": 6493,
  "ĠState": 6496,
  "áº¡i": 6497,
  "iÃ©n": 6498,
  "anger": 6500,
  "Component": 6502,
  "Ġrespectively": 6505,
  "FA": 6507,
  "Ġord": 6508,
  "Ġround": 6509,
  "with": 6510,
  "Ġni": 6512,
  "hing": 6513,
  "ande": 6514,
  "Ġblood": 6517,
  "js": 6519,
  "erd": 6520,
  "Ġnombre": 6522,
  "ĠBel": 6523,
  "Ġcommune": 6526,
  "Ġclos": 6530,
  "Ġmeet": 6531,
  "BC": 6535,
  "Ġmole": 6537,
  "Ġinhib": 6539,
  "ĠPres": 6544,
  "Ġdit": 6549,
  "iar": 6551,
  "Ġyoung": 6552,
  "Ġconcern": 6553,
  "Ġrot": 6554,
  "product": 6556,
  "ulated": 6557,
  "Ġcannot": 6560,
  "_in": 6561,
  "Response": 6566,
  "fect": 6567,
  "define": 6568,
  "Ġcondition": 6570,
  "Ġsen": 6572,
  "ĠKing": 6573,
  "Ġtaken": 6574,
  "bers": 6575,
  "Ġcin": 6576,
  "Ġadj": 6577,
  "mt": 6578,
  "ĠpÅĻ": 6579,
  "Ġcompany": 6580,
  "rown": 6581,
  "Ġnu": 6582,
  "ledge": 6583,
  "Ġspecies": 6584,
  "ĠSam": 6585,
  "ĠLu": 6586,
  "Ġthing": 6588,
  "ĠItal": 6590,
  "Ġservices": 6591,
  "Ġdifference": 6592,
  "Ġdifficult": 6593,
  "Ġnature": 6594,
  "van": 6596,
  "cciÃ³n": 6597,
  "ĠprÃ©s": 6598,
  "Ġinstance": 6599,
  "Ġment": 6600,
  "Ġprefer": 6604,
  "Qu": 6605,
  "Ġoc": 6608,
  "Ġbegan": 6609,
  "Ġupon": 6610,
  "oke": 6611,
  "Ġforce": 6613,
  "Ġhy": 6614,
  "iáº¿": 6616,
  "Ġneeded": 6618,
  "Ġwords": 6619,
  "Status": 6620,
  "ube": 6621,
  "ĉc": 6622,
  "urop": 6624,
  "Ġinside": 6625,
  "ĠMark": 6627,
  "Ġmemory": 6628,
  "Ġpero": 6630,
  "ĠJune": 6633,
  "isplay": 6635,
  "enden": 6636,
  "Ġtum": 6638,
  "ĠFebru": 6640,
  "Click": 6641,
  "Ġconstruct": 6642,
  "ĠPal": 6645,
  "Ľi": 6646,
  "ags": 6647,
  "ordin": 6648,
  "aven": 6649,
  "mas": 6650,
  "next": 6651,
  "ĠTrans": 6652,
  "ĠOctober": 6653,
  "Ġvolt": 6654,
  "atively": 6655,
  "Ġcontra": 6656,
  "Ġexperiment": 6657,
  "ĠGo": 6658,
  "abled": 6659,
  "oken": 6661,
  "Ġattack": 6663,
  "anda": 6665,
  "body": 6667,
  "Count": 6669,
  "ills": 6671,
  "ĠData": 6672,
  "IS": 6673,
  "Ġidea": 6674,
  "nÃ©": 6677,
  "uns": 6679,
  "ged": 6683,
  "ije": 6684,
  "Ġnor": 6685,
  "Ġspect": 6686,
  "Ġelements": 6689,
  "ĠFre": 6691,
  "place": 6692,
  "Ġsignificantly": 6695,
  "ĠAustral": 6697,
  "ouble": 6698,
  "Ġauss": 6701,
  "_data": 6703,
  "Ġetc": 6704,
  "Ġmax": 6705,
  "Ġcause": 6706,
  "ports": 6708,
  "Ġcomponent": 6709,
  "From": 6711,
  "Ġsoci": 6712,
  "âĢĻun": 6713,
  "Ġlot": 6715,
  "Ġrecom": 6716,
  "Ġmaxim": 6717,
  "Ġtor": 6718,
  "enz": 6719,
  "My": 6720,
  "aft": 6722,
  "ani": 6724,
  "Ġecho": 6725,
  "Ġupdate": 6726,
  "Ġyet": 6727,
  "react": 6729,
  "Ġappear": 6730,
  "adem": 6731,
  "Ġbig": 6732,
  "azione": 6734,
  "gs": 6735,
  "ĠIII": 6738,
  "Ġcancer": 6742,
  "lichen": 6743,
  "actions": 6745,
  "ipe": 6746,
  "Ġvot": 6747,
  "istics": 6750,
  "Ġreference": 6752,
  "kn": 6754,
  "Ġwr": 6756,
  "Ġnight": 6757,
  "AM": 6758,
  "âĢĻil": 6759,
  "ĠSm": 6760,
  "ĠÃ©l": 6761,
  "Ġgrowth": 6762,
  "Ġfactors": 6763,
  "Ġpun": 6764,
  "Ġlabel": 6765,
  "ĠSw": 6767,
  "teger": 6768,
  "Ġissue": 6769,
  "iti": 6770,
  "rl": 6772,
  "Ġvel": 6773,
  "System": 6775,
  "ĠJuly": 6776,
  "ĠJapan": 6777,
  "Ġcapac": 6778,
  "blank": 6779,
  "omin": 6784,
  "uh": 6786,
  "ander": 6787,
  "Ġvous": 6790,
  "ĠFe": 6792,
  "Ġven": 6796,
  "ĠDon": 6797,
  "Ġappar": 6798,
  "lie": 6803,
  "plications": 6804,
  "Ġvez": 6805,
  "private": 6806,
  "Ġnous": 6807,
  "Ġkil": 6809,
  "ady": 6810,
  "Æ°á»£c": 6811,
  "aking": 6812,
  "ĠSaint": 6815,
  "Ġcountry": 6816,
  "Ġtod": 6817,
  "Ġpositive": 6818,
  "Ġtried": 6820,
  "Ġautom": 6822,
  "pose": 6825,
  "down": 6826,
  "option": 6827,
  "ĠNor": 6828,
  "ĠThen": 6830,
  "Ġproced": 6831,
  "Ġtim": 6832,
  "Ġprimary": 6833,
  "gt": 6834,
  "Ġpeu": 6835,
  "Ġwhole": 6836,
  "Ã±os": 6840,
  "lib": 6841,
  "Ġfol": 6842,
  "obile": 6848,
  "ker": 6850,
  "Ġassert": 6852,
  "ĠGre": 6853,
  "Ġjob": 6854,
  "Ġterms": 6856,
  "ye": 6857,
  "Ġrecogn": 6858,
  "ĠComp": 6860,
  "angle": 6861,
  "rio": 6864,
  "ĠJanuary": 6866,
  "ĠsiÄĻ": 6867,
  "Ser": 6868,
  "ĠPo": 6869,
  "ustr": 6870,
  "Ġcm": 6872,
  "Ġesp": 6873,
  "ĠLand": 6874,
  "atur": 6875,
  "Ġsqu": 6876,
  "Ġexpected": 6878,
  "argin": 6880,
  "Trans": 6881,
  "Inter": 6882,
  "Ġsor": 6883,
  "arning": 6887,
  "center": 6888,
  "Ġenter": 6889,
  "Ġpain": 6890,
  "Ġthus": 6894,
  "oul": 6895,
  "Ġlines": 6896,
  "Ġmodern": 6897,
  "Ġconse": 6898,
  "ieder": 6900,
  "Ġdesc": 6902,
  "ĠJahr": 6903,
  "Ġtransfer": 6904,
  "Ġlikely": 6906,
  "cos": 6907,
  "Ġactive": 6908,
  "Ġpressure": 6909,
  "ĠISBN": 6910,
  "_M": 6911,
  "Ġlat": 6913,
  "ĠLos": 6914,
  "actory": 6915,
  "ipo": 6916,
  "OT": 6918,
  "ospital": 6919,
  "Ġmove": 6920,
  "Ġhttp": 6924,
  "Param": 6925,
  "Ġmechanism": 6927,
  "Ġterrit": 6929,
  "Ġaverage": 6931,
  "Ġtrack": 6933,
  "Ġclient": 6934,
  "Ġgrad": 6935,
  "iá»ĩ": 6936,
  "Ġviol": 6938,
  "Ġfood": 6939,
  "onom": 6940,
  "Ġnur": 6941,
  "Ġvoor": 6943,
  "Ġcut": 6945,
  "Ġsong": 6947,
  "aÃ§Ã£o": 6948,
  "fully": 6949,
  "lish": 6951,
  "Ġsav": 6953,
  "Ġquel": 6954,
  "Ġbenef": 6955,
  "Ġya": 6957,
  "There": 6958,
  "ĠDavid": 6959,
  "Ġentire": 6960,
  "roy": 6961,
  "Ġfall": 6962,
  "á»Ļt": 6963,
  "OS": 6964,
  "Ġdoing": 6965,
  "Ġnatural": 6967,
  "Ġarch": 6968,
  "Ġrev": 6969,
  "AG": 6970,
  "Ġfeatures": 6971,
  "Ġmonths": 6972,
  "Ġrandom": 6974,
  "Ġdiagn": 6976,
  "Ġjun": 6977,
  "ĠNa": 6978,
  "Ġlooked": 6980,
  "Ġsold": 6981,
  "pret": 6982,
  "Ġattempt": 6983,
  "Number": 6984,
  "rich": 6985,
  "ĠDem": 6986,
  "Ġincludes": 6987,
  "field": 6989,
  "Ġstarted": 6990,
  "ĠParis": 6993,
  "Ġpie": 6994,
  "Ã¼l": 6995,
  "Ph": 6996,
  "Ġauth": 6997,
  "rea": 6998,
  "ND": 6999,
  "Ġzw": 7000,
  "Ġpremi": 7001,
  "Ġels": 7005,
  "reet": 7006,
  "Ġbal": 7007,
  "Ġheart": 7008,
  "esse": 7011,
  "ÃŃan": 7012,
  "hn": 7014,
  "amespace": 7015,
  "Listener": 7016,
  "ĠNorth": 7018,
  "thern": 7023,
  "Ġphot": 7024,
  "Ġscreen": 7026,
  "comes": 7028,
  "Ġcentral": 7030,
  "iller": 7033,
  "Ġcenter": 7034,
  "Ġdefin": 7035,
  "Ġdei": 7036,
  "Ġextends": 7038,
  "Ġaltern": 7039,
  "ĠRec": 7040,
  "uct": 7041,
  "Ġbackground": 7042,
  "ĠAp": 7043,
  "ĠAlex": 7044,
  "Ġko": 7047,
  "gal": 7048,
  "ED": 7051,
  "enter": 7052,
  "Ġaud": 7054,
  "Ġnie": 7056,
  "Ġimpact": 7060,
  "Ġexperience": 7061,
  "active": 7063,
  "fr": 7064,
  "Ġgas": 7066,
  "Ġmillion": 7067,
  "iger": 7069,
  "utions": 7071,
  "ply": 7072,
  "ĠÄĳÆ°á»£c": 7075,
  "Ġvariable": 7078,
  "Ġphase": 7079,
  "Ġorganiz": 7080,
  "ening": 7081,
  "Ġreve": 7082,
  "ĠAcc": 7083,
  "Query": 7087,
  "Ã¼hr": 7088,
  "Ġstudents": 7089,
  "Ġtal": 7090,
  "Ġoption": 7091,
  "Ġexact": 7092,
  "Ġmilit": 7094,
  "ĠKe": 7097,
  "auf": 7098,
  "encies": 7099,
  "ttps": 7100,
  "ĠStr": 7101,
  "inary": 7102,
  "Caption": 7103,
  "undo": 7104,
  "Ġlove": 7107,
  "Ġtempor": 7109,
  "Ġprior": 7110,
  "select": 7111,
  "Ġtiss": 7113,
  "ĠEnd": 7114,
  "Ġalmost": 7115,
  "Les": 7116,
  "Ġzwe": 7117,
  "Ġgene": 7118,
  "Ġfollowed": 7125,
  "itation": 7126,
  "Ġradi": 7127,
  "Ġevents": 7129,
  "Ġhatte": 7131,
  "lying": 7132,
  "Ġpercent": 7133,
  "PE": 7134,
  "Ġwanted": 7135,
  "Ġcer": 7136,
  "Ġpredict": 7137,
  "ĠMil": 7139,
  "inde": 7141,
  "Ġunivers": 7142,
  "Ġhydro": 7143,
  "ponents": 7145,
  "Ġmusic": 7146,
  "Ġfuture": 7147,
  "rial": 7150,
  "pped": 7151,
  "Ġbed": 7153,
  "Ġhttps": 7155,
  "Rep": 7156,
  "ĠElle": 7157,
  "mathbf": 7159,
  "Ġground": 7161,
  "Ġdont": 7163,
  "ĠRich": 7164,
  "Ġmedia": 7165,
  "ijn": 7166,
  "Ġclinical": 7167,
  "ĠMad": 7169,
  "Ġhac": 7170,
  "inen": 7171,
  "Ġmode": 7172,
  "di": 7173,
  "Us": 7176,
  "umer": 7178,
  "ambda": 7180,
  "Det": 7181,
  "Ġindu": 7183,
  "Ġextra": 7185,
  "zn": 7186,
  "ova": 7187,
  "Ġvert": 7188,
  "hl": 7191,
  "Ġproperties": 7192,
  "Ġanc": 7194,
  "Ġfail": 7195,
  "_to": 7198,
  "ĠDecember": 7199,
  "ares": 7200,
  "Ġtalk": 7201,
  "endant": 7203,
  "Ġhistor": 7204,
  "Ġchem": 7205,
  "rew": 7206,
  "Ġcop": 7207,
  "ĠRed": 7209,
  "Ġanything": 7211,
  "vement": 7212,
  "sen": 7214,
  "Ġlig": 7215,
  "ĠHen": 7217,
  "ivil": 7218,
  "itional": 7219,
  "alla": 7220,
  "link": 7222,
  "Ġareas": 7224,
  "ername": 7225,
  "Ġtom": 7226,
  "Ġformer": 7228,
  "Ä±l": 7230,
  "Ġmarket": 7232,
  "yles": 7233,
  "Ġsans": 7234,
  "blic": 7235,
  "ĠIN": 7236,
  "_F": 7237,
  "mat": 7238,
  "uted": 7239,
  "version": 7240,
  "apy": 7241,
  "Ġblack": 7244,
  "asse": 7245,
  "CH": 7247,
  "lig": 7249,
  "Ã½ch": 7251,
  "Ġfer": 7254,
  "Ġever": 7256,
  "anged": 7257,
  "book": 7258,
  "Ġevidence": 7259,
  "Ġoccur": 7260,
  "Ġvie": 7262,
  "Ġwalk": 7263,
  "Client": 7264,
  "iting": 7265,
  "Ġtut": 7266,
  "ĠVol": 7267,
  "isse": 7268,
  "ĠText": 7269,
  "fort": 7270,
  "Ġnos": 7271,
  "Ġgran": 7272,
  "ĠJean": 7275,
  "Ġlate": 7276,
  "Ġdraw": 7277,
  "Ġlanguage": 7278,
  "Ġsamples": 7280,
  "Ġlooking": 7283,
  "Ġlocation": 7285,
  "Ġwurden": 7287,
  "Ġaccom": 7288,
  "hand": 7289,
  "Ġdeveloped": 7291,
  "Ġactual": 7293,
  "ython": 7294,
  "cu": 7296,
  "Ġproperty": 7299,
  "dom": 7302,
  "ĠLog": 7303,
  "Ġsurv": 7304,
  "mar": 7306,
  "Ġstra": 7307,
  "ford": 7308,
  "Ġfiles": 7309,
  "icles": 7310,
  "rs": 7311,
  "Ġparameters": 7313,
  "akt": 7314,
  "Ġstage": 7316,
  "ĠBro": 7317,
  "Ġhabit": 7320,
  "rec": 7321,
  "adio": 7322,
  "Ġfuer": 7323,
  "Sub": 7324,
  "ĠMore": 7325,
  "Ġfeature": 7326,
  "ampions": 7327,
  "eller": 7329,
  "Ġquery": 7330,
  "Ġaussi": 7332,
  "hline": 7333,
  "Ġminutes": 7334,
  "Equ": 7338,
  "title": 7341,
  "Ġfactor": 7342,
  "ĠDep": 7344,
  "ami": 7345,
  "Ġanti": 7346,
  "used": 7347,
  "ĠÃªtre": 7350,
  "Ã´t": 7351,
  "Su": 7352,
  "Ġquality": 7353,
  "yz": 7354,
  "Ġsous": 7356,
  "Ġpersonal": 7357,
  "Ġreleased": 7358,
  "map": 7359,
  "Ġpresence": 7361,
  "Ġhimself": 7363,
  "ceed": 7365,
  "ging": 7366,
  "Ġfilter": 7367,
  "path": 7368,
  "ĠStadium": 7369,
  "ĠAc": 7370,
  "ĠLou": 7371,
  "âĢĻll": 7372,
  "fficient": 7373,
  "Ġnoch": 7374,
  "ĠEnt": 7376,
  "Ġwait": 7377,
  "igo": 7378,
  "enta": 7379,
  "Ġcompos": 7382,
  "ĠFinal": 7385,
  "ords": 7386,
  "Ġfunctions": 7389,
  "ungs": 7390,
  "astic": 7391,
  "ography": 7393,
  "ieved": 7395,
  "aled": 7397,
  "Ġplayer": 7398,
  "leep": 7400,
  "Ġconcept": 7401,
  "oro": 7402,
  "Ġwindow": 7404,
  "inte": 7406,
  "Ġnucle": 7407,
  "SC": 7408,
  "Ġfig": 7409,
  "ĠHist": 7410,
  "Ġplant": 7411,
  "pir": 7414,
  "izing": 7415,
  "flow": 7416,
  "ĠDiv": 7417,
  "Ġwrite": 7418,
  "oire": 7419,
  "Ġborder": 7420,
  "light": 7421,
  "Ġitself": 7423,
  "ĠTable": 7424,
  "ĠoÃ¹": 7426,
  "Ġtold": 7427,
  "arth": 7428,
  "Ġweb": 7430,
  "airs": 7432,
  "Ġbil": 7433,
  "Ġru": 7434,
  "Ġbehind": 7435,
  "width": 7436,
  "open": 7439,
  "Ġactually": 7442,
  "Ġseems": 7444,
  "ĠestÃ¡": 7445,
  "One": 7446,
  "Ġuns": 7447,
  "pg": 7449,
  "Ġinstall": 7450,
  "Group": 7451,
  "Ġcommunity": 7452,
  "Ġsense": 7453,
  "response": 7454,
  "Ġsaw": 7455,
  "ĠJames": 7456,
  "frame": 7458,
  "OD": 7460,
  "Ġprincipal": 7462,
  "izer": 7463,
  "Ãºn": 7464,
  "Ġcapt": 7465,
  "ĠAir": 7466,
  "Ã±a": 7467,
  "Ġmol": 7469,
  "vin": 7470,
  "ril": 7473,
  "ĠSa": 7474,
  "_D": 7475,
  "Ġvideo": 7476,
  "Ġclim": 7477,
  "ĠChina": 7478,
  "lege": 7480,
  "Ġadditional": 7481,
  "Ġfire": 7482,
  "ĠcÃ¡c": 7484,
  "oute": 7486,
  "ĠGeneral": 7487,
  "iana": 7489,
  "ĠJust": 7490,
  "ĠBen": 7492,
  "What": 7493,
  "Ġurl": 7494,
  "Ġprevent": 7495,
  "Ġwhite": 7496,
  "Ġteach": 7497,
  "Ġstress": 7500,
  "Äĥm": 7502,
  "fol": 7503,
  "Ġguer": 7505,
  "ĠSome": 7506,
  "Ġdistribution": 7507,
  "Ġmakes": 7510,
  "ĠkÃ¶": 7511,
  "ĠID": 7513,
  "Ġinvention": 7514,
  "Ġfelt": 7516,
  "more": 7517,
  "unicip": 7518,
  "enced": 7519,
  "ĠBritish": 7520,
  "attle": 7522,
  "Ġrunning": 7523,
  "ĠAus": 7524,
  "agen": 7528,
  "Ġprobably": 7529,
  "Ġswitch": 7530,
  "_type": 7532,
  "kin": 7533,
  "Ġta": 7535,
  "ĠJah": 7536,
  "Ġfoot": 7537,
  "Ġmai": 7538,
  "dev": 7539,
  "Ġinvolved": 7540,
  "ahl": 7541,
  "race": 7544,
  "Ġnothing": 7545,
  "Ã¨res": 7546,
  "Ġces": 7551,
  "imm": 7552,
  "Ġalla": 7553,
  "Ġengine": 7555,
  "egen": 7556,
  "how": 7557,
  "Ġpack": 7558,
  "Ġaber": 7559,
  "Ġneeds": 7560,
  "aves": 7561,
  "Ġformed": 7563,
  "Ġstation": 7566,
  "ĠNULL": 7567,
  "Ġvill": 7569,
  "ped": 7572,
  "ĠOb": 7574,
  "Ġportion": 7575,
  "clus": 7576,
  "ĠÃ©p": 7578,
  "ournal": 7582,
  "formation": 7585,
  "Ġquick": 7586,
  "Ġple": 7587,
  "atives": 7588,
  "adding": 7589,
  "ope": 7590,
  "ring": 7591,
  "Action": 7592,
  "Ġhon": 7593,
  "Ġdivers": 7595,
  "Ãªte": 7596,
  "ĠMod": 7597,
  "olf": 7598,
  "ĠDate": 7600,
  "ĠCap": 7601,
  "burg": 7602,
  "ĠsÃ©": 7603,
  "Select": 7605,
  "Ġgreater": 7607,
  "olic": 7608,
  "ĠFirst": 7610,
  "ĠHol": 7613,
  "requ": 7614,
  "context": 7615,
  "Ġbox": 7616,
  "Ġfunc": 7617,
  "LO": 7618,
  "CC": 7619,
  "amer": 7621,
  "III": 7622,
  "unn": 7624,
  "Ġassum": 7625,
  "HE": 7626,
  "web": 7627,
  "nection": 7630,
  "ĠCr": 7633,
  "Ġculture": 7635,
  "eren": 7636,
  "ĠTest": 7637,
  "Ġproblems": 7638,
  "Ã¡m": 7640,
  "apping": 7641,
  "ĠJack": 7643,
  "Ġacqu": 7644,
  "Ġperm": 7645,
  "ffect": 7646,
  "time": 7647,
  "Ġgel": 7648,
  "ersion": 7650,
  "When": 7651,
  "Ġalthough": 7652,
  "Ġbuilding": 7654,
  "Ġdirectly": 7655,
  "uj": 7657,
  "arrow": 7658,
  "idden": 7659,
  "endre": 7660,
  "Ġcomplete": 7662,
  "Rec": 7663,
  "ragment": 7664,
  "Ġdatabase": 7667,
  "Ġdep": 7668,
  "parent": 7669,
  "amin": 7670,
  "Ġpens": 7671,
  "ĠSub": 7672,
  "áº¥t": 7673,
  "Ġturned": 7674,
  "Ġpopular": 7676,
  "ĠrÃ©s": 7677,
  "anti": 7680,
  "Ã§Ãµes": 7682,
  "avy": 7683,
  "Ġoperation": 7685,
  "iat": 7687,
  "Ġmir": 7689,
  "MP": 7690,
  "cil": 7691,
  "email": 7692,
  "Ġmention": 7693,
  "now": 7697,
  "Ġjud": 7698,
  "ulations": 7699,
  "Ġhours": 7700,
  "Ġespecially": 7702,
  "chi": 7704,
  "Column": 7705,
  "ego": 7707,
  "Ġinn": 7708,
  "ÃŃm": 7710,
  "Ġble": 7712,
  "Ã¡g": 7713,
  "uff": 7714,
  "Ġtraining": 7716,
  "Ġgar": 7717,
  "zie": 7718,
  "lik": 7719,
  "Ġfast": 7720,
  "Ġsept": 7721,
  "ĠMag": 7724,
  "bes": 7725,
  "reich": 7726,
  "Ġpeut": 7727,
  "ĠAut": 7729,
  "elling": 7730,
  "Ġmel": 7731,
  "uta": 7734,
  "Ġmá»Ļt": 7737,
  "Ġcomment": 7739,
  "Ġhyp": 7740,
  "Ġegy": 7742,
  "Ġtransport": 7744,
  "rik": 7745,
  "env": 7747,
  "Ġitems": 7748,
  "ĠSchool": 7750,
  "sg": 7751,
  "ĠrÃ©g": 7752,
  "Ġcorrel": 7753,
  "Ġusually": 7754,
  "ĠhabÃŃa": 7755,
  "cis": 7756,
  "update": 7757,
  "ĠFIG": 7758,
  "Ġsound": 7759,
  "Ġpolitical": 7761,
  "FF": 7762,
  "SON": 7764,
  "Ġhan": 7765,
  "Ġmaintain": 7766,
  "sche": 7767,
  "ĠUs": 7770,
  "Ġfine": 7771,
  "Ġbound": 7773,
  "imer": 7774,
  "atform": 7775,
  "Acc": 7776,
  "ĠUser": 7777,
  "Ġoffic": 7781,
  "Ġhandle": 7782,
  "Ġglobal": 7783,
  "df": 7785,
  "Ġdistance": 7786,
  "ĠCons": 7788,
  "etch": 7789,
  "igr": 7790,
  "Ġoptions": 7791,
  "itÃł": 7792,
  "Ġnumer": 7794,
  "isa": 7795,
  "Ġgetting": 7796,
  "vas": 7797,
  "Ġelectro": 7798,
  "Ġsud": 7799,
  "How": 7801,
  "ename": 7802,
  "Ġsolo": 7803,
  "Ġdell": 7804,
  "Ġoutside": 7805,
  "Ġknowledge": 7807,
  "Ġforma": 7808,
  "ocket": 7809,
  "Ġagre": 7810,
  "Ġfu": 7811,
  "BS": 7814,
  "Ġdurante": 7815,
  "Ġvict": 7816,
  "tres": 7818,
  "lation": 7819,
  "Ġtrav": 7821,
  "sz": 7825,
  "ski": 7826,
  "ĠDen": 7830,
  "Ġpow": 7834,
  "eline": 7835,
  "PO": 7836,
  "sa": 7839,
  "Ã§o": 7841,
  "ikan": 7842,
  "Default": 7843,
  "Ġfore": 7845,
  "ĠEnglish": 7846,
  "Ġdetermined": 7847,
  "True": 7848,
  "Ġidentified": 7850,
  "ania": 7851,
  "Reg": 7852,
  "istry": 7853,
  "edia": 7855,
  "Ġscore": 7856,
  "iki": 7857,
  "Ġrelative": 7858,
  "ĠFebruary": 7859,
  "iciÃ³n": 7860,
  "Ġinstit": 7861,
  "lections": 7863,
  "Ġgave": 7867,
  "esto": 7868,
  "ĠSi": 7869,
  "ĠsiÃ¨": 7870,
  "ĠTom": 7871,
  "adores": 7872,
  "Ġpaper": 7873,
  "Ġcel": 7874,
  "Ġbool": 7881,
  "Ġca": 7887,
  "aires": 7888,
  "ĠWil": 7889,
  "ĠLondon": 7893,
  "idades": 7894,
  "Ġreduced": 7896,
  "tex": 7897,
  "Ġinj": 7898,
  "Ġaspect": 7900,
  "bal": 7903,
  "Ġtherefore": 7905,
  "soft": 7906,
  "Entity": 7907,
  "ĠResult": 7908,
  "grad": 7909,
  "insi": 7910,
  "height": 7911,
  "Ġtemp": 7912,
  "ĠSet": 7916,
  "Ġparent": 7917,
  "fa": 7918,
  "erve": 7919,
  "Ġnecessary": 7924,
  "Ġinterpret": 7926,
  "rote": 7927,
  "ioni": 7929,
  "jen": 7930,
  "Util": 7931,
  "eles": 7932,
  "Ġlonger": 7934,
  "igma": 7935,
  "Ġconnection": 7936,
  "Ġdifferences": 7938,
  "ĠTer": 7941,
  "default": 7942,
  "orith": 7944,
  "Url": 7946,
  "Ġgew": 7948,
  "Ġtur": 7949,
  "sl": 7950,
  "Ġrepr": 7951,
  "Ġknew": 7953,
  "liche": 7955,
  "Ġcast": 7958,
  "db": 7959,
  "Ġapplied": 7960,
  "lands": 7963,
  "rench": 7964,
  "Ġsist": 7966,
  "oding": 7967,
  "Ġannoun": 7969,
  "Ġlive": 7971,
  "QL": 7972,
  "ĠFigure": 7973,
  "ĠfÃ¶r": 7974,
  "Ġflex": 7975,
  "ĠMont": 7976,
  "ograf": 7977,
  "Ġpromot": 7978,
  "Ġsequence": 7980,
  "Ġmanagement": 7981,
  "Ġfaire": 7982,
  "amma": 7983,
  "MS": 7985,
  "iner": 7987,
  "rd": 7989,
  "Ġcat": 7990,
  "ĠMit": 7991,
  "nia": 7992,
  "Ġcomponents": 7995,
  "ĠtambiÃ©n": 7997,
  "ĠDNA": 7998,
  "rane": 7999,
  "Ġprofession": 8000,
  "ĠPC": 8001,
  "atin": 8002,
  "iko": 8003,
  "Ġhands": 8004,
  "rait": 8006,
  "pite": 8007,
  "Ġvit": 8008,
  "Ġihr": 8012,
  "Ġcandid": 8014,
  "ĠMo": 8015,
  "Ġlost": 8017,
  "ĠInternational": 8018,
  "ez": 8019,
  "Ġboolean": 8020,
  "Ġrelease": 8021,
  "RNA": 8022,
  "itect": 8023,
  "arc": 8026,
  "github": 8027,
  "ptions": 8028,
  "gent": 8029,
  "ĠNone": 8030,
  "Ġlimited": 8031,
  "So": 8032,
  "Ġbehavior": 8033,
  "Ġincreasing": 8035,
  "irt": 8036,
  "_B": 8037,
  "Ġminim": 8039,
  "ÅĤa": 8040,
  "rak": 8041,
  "Ġcentury": 8042,
  "Ġconnect": 8044,
  "oring": 8045,
  "ĠMet": 8047,
  "Ġsul": 8048,
  "Ġentr": 8049,
  "eler": 8051,
  "ĠRobert": 8052,
  "ĠThus": 8055,
  "âĢĻve": 8056,
  "Ġtend": 8059,
  "eli": 8060,
  "Ġimages": 8061,
  "AB": 8062,
  "Layout": 8064,
  "ÉĻn": 8065,
  "Ġproducts": 8066,
  "Ġfort": 8067,
  "_list": 8069,
  "Ġvs": 8070,
  "Ġvariables": 8072,
  "ĠOs": 8075,
  "Ġaffect": 8076,
  "Ġproduced": 8077,
  "Instance": 8078,
  "isf": 8080,
  "inder": 8081,
  "last": 8084,
  "Ġdeliver": 8085,
  "ĠprÃ©": 8087,
  "Ġbuilt": 8088,
  "Ġwaren": 8089,
  "Ġnumbers": 8091,
  "format": 8092,
  "Ġwasn": 8094,
  "nu": 8096,
  "Ġgenes": 8097,
  "rij": 8098,
  "Ġexcept": 8100,
  "hi": 8101,
  "Ġfloat": 8103,
  "ocr": 8104,
  "Ġvirt": 8106,
  "Ġther": 8108,
  "aling": 8110,
  "dy": 8111,
  "Ġcolon": 8112,
  "ronic": 8113,
  "Ġconvert": 8114,
  "Ġspeed": 8115,
  "Ġdynam": 8116,
  "Ġvent": 8117,
  "ously": 8119,
  "ĠGru": 8120,
  "Ġmatter": 8122,
  "vey": 8123,
  "Ġfit": 8125,
  "vere": 8126,
  "Ġtrou": 8128,
  "Ġreach": 8132,
  "Ã¤ng": 8134,
  "Ġnas": 8135,
  "udo": 8136,
  "Ġphysical": 8137,
  "ĠSing": 8139,
  "Ġstore": 8141,
  "engan": 8142,
  "Ġbad": 8143,
  "Ġalors": 8144,
  "upport": 8145,
  "uses": 8146,
  "PS": 8148,
  "Ġwor": 8150,
  "Ġcart": 8151,
  "ĠUSA": 8152,
  "oli": 8153,
  "Ġchall": 8155,
  "Ġprime": 8156,
  "Ġdisco": 8157,
  "Ġsend": 8160,
  "Ġwherein": 8161,
  "Ġconstru": 8163,
  "Ġstates": 8164,
  "Ã¼nd": 8165,
  "struct": 8166,
  "Ġvolume": 8167,
  "Bar": 8168,
  "ĠDas": 8169,
  "ĠAz": 8170,
  "ĠDi": 8171,
  "duc": 8172,
  "ellen": 8173,
  "Ġformat": 8174,
  "Ġbran": 8177,
  "Ġlearn": 8178,
  "Ġroot": 8181,
  "iler": 8182,
  "Point": 8183,
  "chaft": 8184,
  "aur": 8185,
  "Ġconcentration": 8186,
  "Ġconcentr": 8187,
  "artment": 8188,
  "cope": 8189,
  "ĠgÃ©n": 8190,
  "Ã¤hr": 8191,
  "lu": 8196,
  "Ġtaking": 8198,
  "ĠTur": 8206,
  "Ġris": 8207,
  "Ġepis": 8208,
  "Ġfavor": 8209,
  "ĠCoun": 8210,
  "ajo": 8211,
  "Ġcontinue": 8214,
  "base": 8215,
  "hol": 8216,
  "abs": 8217,
  "ĠCount": 8220,
  "Ġnorm": 8221,
  "Ġprovides": 8222,
  "Ġsays": 8223,
  "Ġtax": 8224,
  "ĠMac": 8225,
  "rage": 8226,
  "Ġwoman": 8227,
  "ĠClass": 8228,
  "arter": 8229,
  "Row": 8230,
  "lav": 8231,
  "ĠJos": 8233,
  "aging": 8234,
  "server": 8236,
  "udi": 8237,
  "ĠTor": 8238,
  "Ġfigure": 8240,
  "Change": 8241,
  "rÃ©": 8243,
  "ĠMichael": 8246,
  "Stream": 8247,
  "Ġtrong": 8248,
  "rip": 8249,
  "ĠUp": 8250,
  "Ġpremier": 8251,
  "eturn": 8252,
  "Ġlors": 8253,
  "Ġprimer": 8255,
  "Ġtown": 8256,
  "ibil": 8258,
  "aciÃ³": 8260,
  "Ġparts": 8262,
  "Source": 8263,
  "_r": 8264,
  "Ġpreviously": 8265,
  "Ġeffort": 8267,
  "Ġnue": 8268,
  "itud": 8270,
  "Ġpublished": 8272,
  "Ġfinanc": 8276,
  "Ġconstant": 8278,
  "ĠTV": 8281,
  "ĉthis": 8282,
  "bi": 8283,
  "ĠHigh": 8284,
  "car": 8285,
  "ĠKon": 8286,
  "Link": 8287,
  "Ġinterface": 8288,
  "Ġnegative": 8289,
  "Ġillustr": 8290,
  "Ġadapt": 8291,
  "Ġmehr": 8292,
  "adre": 8295,
  "ĠMat": 8296,
  "acing": 8297,
  "Ġdomin": 8299,
  "uge": 8300,
  "aya": 8302,
  "Ġstory": 8303,
  "host": 8304,
  "Ġbutton": 8305,
  "Ġpuis": 8306,
  "ĠpiÃ¹": 8307,
  "Ġplayed": 8308,
  "ĠWilliam": 8310,
  "ĉfor": 8311,
  "Ãłnh": 8312,
  "ishing": 8314,
  "ington": 8315,
  "Ġcompl": 8316,
  "uten": 8318,
  "ingu": 8319,
  "rot": 8320,
  "Handler": 8322,
  "ĠGeorge": 8323,
  "Ġzijn": 8327,
  "Ġisol": 8328,
  "Ġinfe": 8331,
  "size": 8332,
  "ĠGroup": 8333,
  "Ãły": 8336,
  "ovi": 8337,
  "ĠEt": 8338,
  "Ġprz": 8339,
  "ĠSur": 8342,
  "ĠFrank": 8343,
  "ethyl": 8345,
  "ÃŁen": 8347,
  "Ġesta": 8348,
  "mark": 8351,
  "Ġquestions": 8352,
  "json": 8353,
  "Ġexperi": 8354,
  "click": 8356,
  "Ġnem": 8357,
  "Ġwritten": 8360,
  "Ġfrequency": 8361,
  "Ġexpos": 8362,
  "Ġcontre": 8363,
  "Ġmid": 8364,
  "Ġobj": 8365,
  "Ġcorresponding": 8366,
  "Ġimmedi": 8372,
  "Ġasync": 8373,
  "gar": 8374,
  "aban": 8375,
  "rib": 8376,
  "Ġdeep": 8378,
  "times": 8379,
  "Ġbur": 8380,
  "Ġsomeone": 8381,
  "mm": 8383,
  "Ġfriend": 8384,
  "Ġregular": 8385,
  "Ġlug": 8386,
  "ĠRoy": 8388,
  "Ġlocated": 8389,
  "amen": 8391,
  "ĠSen": 8392,
  "agne": 8393,
  "Ġful": 8394,
  "HT": 8395,
  "Per": 8396,
  "arily": 8397,
  "Ġrender": 8398,
  "Ġgirl": 8401,
  "Property": 8402,
  "owie": 8403,
  "Ġgraph": 8404,
  "Ġgoal": 8406,
  "ĠObject": 8407,
  "Ġtemps": 8408,
  "Ġwa": 8411,
  "Ġlack": 8412,
  "term": 8414,
  "ĠDu": 8415,
  "Ġveh": 8416,
  "Ġprogress": 8417,
  "Ġstim": 8418,
  "Ä±nda": 8419,
  "eden": 8420,
  "Ġfather": 8421,
  "ĠInstit": 8422,
  "Ġmur": 8423,
  "TP": 8426,
  "Ġpick": 8427,
  "section": 8428,
  "atu": 8430,
  "Start": 8431,
  "Str": 8432,
  "ocol": 8433,
  "Ġpriv": 8437,
  "loor": 8438,
  "ulate": 8439,
  "Ġprep": 8441,
  "UI": 8442,
  "local": 8443,
  "aker": 8444,
  "Ġpub": 8446,
  "Ġantib": 8447,
  "atre": 8448,
  "Builder": 8449,
  "Ġbul": 8450,
  "Ġformation": 8451,
  "rian": 8452,
  "cy": 8453,
  "Ġslow": 8455,
  "ĠJose": 8457,
  "ĠnÃ©": 8458,
  "Am": 8459,
  "Ġpresented": 8460,
  "Ġwrong": 8462,
  "level": 8465,
  "Ġscript": 8466,
  "Ġpsych": 8468,
  "Ġunt": 8471,
  "uni": 8472,
  "Ġmys": 8473,
  "ufact": 8474,
  "Ã¡k": 8475,
  "ĠGal": 8476,
  "iche": 8477,
  "cles": 8478,
  "ĠBlack": 8479,
  "Ġhot": 8480,
  "Ġpractice": 8482,
  "Search": 8483,
  "args": 8484,
  "ĠaprÃ¨s": 8486,
  "ĠQue": 8487,
  "UE": 8489,
  "Ġmother": 8491,
  "itting": 8492,
  "wise": 8493,
  "ĠFurther": 8494,
  "can": 8495,
  "lad": 8496,
  "Ġdetermine": 8497,
  "ĠSol": 8498,
  "Ġrecomm": 8499,
  "Ġdark": 8500,
  "SP": 8504,
  "ulo": 8505,
  "Ġfeed": 8506,
  "ĠCarl": 8507,
  "ĠtÃ«": 8509,
  "ĠDef": 8512,
  "End": 8513,
  "std": 8514,
  "nost": 8515,
  "Ġsituation": 8516,
  "ĠNet": 8517,
  "Ġki": 8518,
  "Ġissues": 8520,
  "ATE": 8521,
  "aient": 8522,
  "alled": 8524,
  "ĠLeague": 8525,
  "fil": 8526,
  "Ġhier": 8527,
  "asa": 8528,
  "onal": 8529,
  "Ġrecent": 8531,
  "Ġchanged": 8533,
  "CL": 8534,
  "ellow": 8536,
  "Ġay": 8540,
  "ĠDist": 8542,
  "Ġbring": 8548,
  "Ġmulti": 8549,
  "Ġmoney": 8551,
  "uster": 8552,
  "ĠST": 8553,
  "Ġoct": 8554,
  "equ": 8557,
  "ĠSon": 8558,
  "Ġremove": 8559,
  "terior": 8561,
  "acht": 8562,
  "Ġrecept": 8563,
  "Ġapproxim": 8564,
  "Ġreaction": 8566,
  "Ġratio": 8567,
  "OL": 8568,
  "oca": 8569,
  "aks": 8571,
  "Ġeg": 8572,
  "dated": 8573,
  "Ġinternational": 8574,
  "Ġdre": 8575,
  "atabase": 8576,
  "Ġrealiz": 8577,
  "Ġgrande": 8578,
  "aje": 8579,
  "Ġcouple": 8580,
  "Ġestablished": 8582,
  "Ġreturned": 8583,
  "CD": 8584,
  "portun": 8585,
  "Label": 8586,
  "Ġjug": 8587,
  "oir": 8589,
  "Ġtempl": 8590,
  "partial": 8591,
  "Ġdop": 8592,
  "anning": 8594,
  "ĠOl": 8595,
  "Ġeffective": 8598,
  "Ġvoice": 8602,
  "Ġsed": 8603,
  "Ġeverything": 8605,
  "ieron": 8606,
  "Ġgli": 8607,
  "Ã©tÃ©": 8608,
  "Ġdesde": 8611,
  "Ġka": 8614,
  "Ġusers": 8616,
  "Ġsimply": 8617,
  "ĠAlthough": 8618,
  "Ġkar": 8626,
  "Ġsegu": 8627,
  "Ġmoved": 8628,
  "ĠGi": 8631,
  "Ġrepe": 8632,
  "Ġcontract": 8633,
  "Ġmount": 8634,
  "Ġlab": 8636,
  "ĠtrÃ¨s": 8638,
  "Ġmeasured": 8640,
  "Ġcountries": 8641,
  "Ġkt": 8644,
  "Ġstrength": 8646,
  "Ġcomputer": 8648,
  "Ġsac": 8649,
  "Ġauto": 8652,
  "umin": 8654,
  "ĠReport": 8656,
  "prime": 8658,
  "After": 8659,
  "Product": 8660,
  "vor": 8662,
  "Ġfacil": 8663,
  "arse": 8664,
  "pload": 8665,
  "Ġded": 8667,
  "Http": 8668,
  "schaft": 8669,
  "esso": 8670,
  "Ġdisp": 8671,
  "Ġprocessing": 8673,
  "bin": 8676,
  "ĠCour": 8680,
  "hold": 8681,
  "sv": 8684,
  "Ġemail": 8686,
  "Ġincor": 8687,
  "Ġcontains": 8688,
  "ĠFrench": 8689,
  "vider": 8690,
  "Token": 8693,
  "comp": 8696,
  "find": 8697,
  "ĠOut": 8702,
  "Ġsave": 8704,
  "Ġcollection": 8705,
  "iale": 8706,
  "RI": 8707,
  "Ġmatrix": 8708,
  "tab": 8710,
  "ights": 8713,
  "ÃŃst": 8717,
  "igu": 8718,
  "Ġcontaining": 8719,
  "ĠPeter": 8720,
  "assert": 8723,
  "Ġbat": 8724,
  "Ġconserv": 8725,
  "Ġaqu": 8726,
  "Ġability": 8727,
  "Ġquite": 8729,
  "Ġconsum": 8730,
  "xy": 8731,
  "Ġadult": 8732,
  "isme": 8735,
  "Activity": 8737,
  "igt": 8738,
  "Ġjan": 8739,
  "odo": 8740,
  "Ġtoward": 8741,
  "Ġrapid": 8744,
  "Ġbra": 8746,
  "Ġsites": 8747,
  "Ġenh": 8748,
  "inger": 8749,
  "Ġwall": 8751,
  "zia": 8753,
  "Ġdengan": 8757,
  "Ġaim": 8758,
  "elen": 8759,
  "ĠPost": 8763,
  "Ġgest": 8765,
  "hes": 8766,
  "Ġtill": 8769,
  "amos": 8770,
  "NS": 8772,
  "rÃ³": 8773,
  "Ġmeg": 8774,
  "Ġroku": 8775,
  "ĠHouse": 8776,
  "Ġaccur": 8778,
  "ĉint": 8779,
  "kom": 8780,
  "Ġdecision": 8781,
  "icol": 8782,
  "Ġplate": 8783,
  "ogy": 8785,
  "Ġfix": 8786,
  "Ġnp": 8790,
  "Ġges": 8792,
  "nder": 8793,
  "Ġhasta": 8795,
  "cast": 8799,
  "fin": 8800,
  "gression": 8801,
  "Ġavant": 8802,
  "Ġcit": 8803,
  "Ġaan": 8804,
  "ĠThomas": 8805,
  "Ġgenerally": 8806,
  "Ġallowed": 8807,
  "Ġeffic": 8808,
  "ĠCharles": 8810,
  "uen": 8811,
  "âĢĻÃ©t": 8813,
  "Ġinsert": 8814,
  "ignment": 8815,
  "irk": 8816,
  "Ġdiss": 8817,
  "iser": 8819,
  "akan": 8821,
  "Ġconnected": 8822,
  "phi": 8823,
  "ĠDet": 8825,
  "Ġpartir": 8826,
  "rome": 8828,
  "ropri": 8831,
  "Ġmachine": 8832,
  "Ġindividuals": 8833,
  "ĠCe": 8834,
  "roph": 8835,
  "Ġtodo": 8837,
  "Ġphen": 8838,
  "Ġak": 8839,
  "Ġnil": 8843,
  "aries": 8844,
  "jer": 8845,
  "âĢĻune": 8847,
  "Ġforward": 8848,
  "rum": 8849,
  "ĠArray": 8851,
  "argo": 8853,
  "Ġstay": 8855,
  "mal": 8856,
  "state": 8857,
  "Ġcos": 8860,
  "igation": 8861,
  "ancy": 8862,
  "ĠGerman": 8863,
  "gest": 8865,
  "ĠTeam": 8866,
  "ĠDis": 8867,
  "ĠSl": 8868,
  "emble": 8869,
  "Ġmess": 8871,
  "rought": 8872,
  "lambda": 8873,
  "uri": 8874,
  "Style": 8875,
  "Ġnamed": 8876,
  "Ġunique": 8877,
  "ĠnÄĥm": 8880,
  "usqu": 8881,
  "inct": 8882,
  "imento": 8884,
  "cdot": 8886,
  "Ġlabor": 8887,
  "cons": 8890,
  "Ġmetal": 8893,
  "idas": 8894,
  "Ġfond": 8896,
  "jection": 8898,
  "MA": 8900,
  "Ġbelieve": 8902,
  "group": 8903,
  "Ġabsol": 8904,
  "Ġmaximum": 8905,
  "ĠJer": 8906,
  "Ġforces": 8908,
  "ENT": 8911,
  "ĠXV": 8912,
  "pert": 8913,
  "Ġcru": 8917,
  "embly": 8918,
  "unch": 8919,
  "ĠMax": 8923,
  "Ġleading": 8924,
  "images": 8926,
  "Ġbroad": 8927,
  "search": 8928,
  "UN": 8929,
  "known": 8931,
  "ĠFile": 8933,
  "Ġcro": 8934,
  "Ġattention": 8935,
  "ĠTime": 8936,
  "Ġmodule": 8939,
  "uden": 8941,
  "Ġuses": 8942,
  "Ob": 8944,
  "ugin": 8945,
  "Ġliving": 8947,
  "Ġprotected": 8949,
  "Ap": 8952,
  "Ġdoc": 8953,
  "ĠmÃ¡": 8954,
  "Ġequip": 8955,
  "ĠFrom": 8956,
  "rows": 8957,
  "Ġcapital": 8961,
  "ĠView": 8962,
  "Ã¤l": 8963,
  "Ġparticularly": 8964,
  "zu": 8966,
  "Ġparty": 8967,
  "Ġvector": 8968,
  "ytes": 8969,
  "Ġcontinued": 8971,
  "ĠLin": 8972,
  "Ġvom": 8973,
  "eno": 8974,
  "Ġinternal": 8977,
  "Ġsolid": 8978,
  "unit": 8979,
  "ĠaÃ±os": 8981,
  "oni": 8982,
  "puis": 8986,
  "Ġmont": 8987,
  "idge": 8988,
  "area": 8990,
  "cut": 8992,
  "bra": 8993,
  "Ġtowards": 8994,
  "ĠHand": 8995,
  "ership": 8996,
  "ributed": 8997,
  "Ġconstit": 9004,
  "Ã¬nh": 9005,
  "has": 9006,
  "Ġgod": 9007,
  "Ġkan": 9008,
  "Ġfois": 9011,
  "Ġsoon": 9012,
  "Ġmovement": 9014,
  "ĠIV": 9015,
  "Order": 9016,
  "ĠWeb": 9020,
  "Ġaj": 9022,
  "Ġrelev": 9023,
  "Ġcab": 9024,
  "py": 9025,
  "Ġlen": 9027,
  "Ġappropri": 9028,
  "beta": 9029,
  "auth": 9030,
  "ĠNow": 9032,
  "Ġcontrast": 9033,
  "itter": 9034,
  "Ġainsi": 9035,
  "ltim": 9036,
  "Ġemerg": 9037,
  "Ġlarger": 9039,
  "Ġkl": 9040,
  "Ġextract": 9041,
  "nÄĽ": 9042,
  "Ġinfluence": 9044,
  "Ġsession": 9048,
  "Ã¸r": 9051,
  "nect": 9054,
  "Ġlearning": 9055,
  "Ġmunicip": 9056,
  "uls": 9057,
  "itable": 9059,
  "ÅĽci": 9061,
  "Control": 9062,
  "Ġscale": 9065,
  "Ġtag": 9066,
  "Ġpes": 9067,
  "erk": 9068,
  "estival": 9069,
  "ĠAuf": 9070,
  "ection": 9071,
  "Ġprepar": 9073,
  "style": 9074,
  "ĠWhile": 9076,
  "Ġcred": 9077,
  "Check": 9080,
  "ÃŃas": 9081,
  "ensions": 9083,
  "Ġembodiment": 9084,
  "Ġmotor": 9085,
  "Ġidentify": 9086,
  "hat": 9087,
  "hibang": 9089,
  "Ġrock": 9091,
  "puÃ©s": 9092,
  "ĠOther": 9093,
  "Ġger": 9094,
  "Ġbon": 9095,
  "cin": 9096,
  "Ġuit": 9098,
  "Method": 9100,
  "organ": 9101,
  "irit": 9104,
  "summary": 9105,
  "Ġcateg": 9106,
  "Ã¡ng": 9108,
  "ampionship": 9109,
  "ĠMais": 9110,
  "Ġfib": 9111,
  "ekt": 9112,
  "Ġuntuk": 9113,
  "ĠAu": 9114,
  "Ġresid": 9118,
  "oin": 9119,
  "Ġrecon": 9121,
  "Ġagr": 9126,
  "Ġroute": 9127,
  "Ġraz": 9128,
  "Ġchannel": 9129,
  "ĠPor": 9130,
  "asion": 9131,
  "Ã¶l": 9132,
  "Ġnote": 9134,
  "Ġoccup": 9136,
  "ĉprivate": 9137,
  "Ġroz": 9138,
  "band": 9139,
  "ĠTherefore": 9144,
  "quad": 9145,
  "Ġcaused": 9147,
  "Ġrespond": 9148,
  "Ġign": 9149,
  "Ġcommunication": 9150,
  "oco": 9151,
  "obj": 9152,
  "ĠSuper": 9153,
  "selves": 9155,
  "circ": 9156,
  "ienne": 9157,
  "CE": 9158,
  "Ãºs": 9159,
  "Ġradio": 9160,
  "Ġdepart": 9161,
  "Ġcant": 9164,
  "Ġloop": 9165,
  "ierre": 9166,
  "empor": 9167,
  "Ġregister": 9168,
  "Ġprice": 9169,
  "ĠRel": 9170,
  "Ġton": 9172,
  "ifest": 9173,
  "Ġreached": 9174,
  "iform": 9175,
  "uman": 9176,
  "Ġcircuit": 9177,
  "Me": 9180,
  "ributes": 9182,
  "illing": 9184,
  "remove": 9185,
  "Ġorient": 9188,
  "augh": 9189,
  "Ġtheory": 9191,
  "ĠCast": 9192,
  "Ġpoor": 9194,
  "Ġequal": 9196,
  "TO": 9197,
  "Ġpolicy": 9200,
  "ĠKom": 9203,
  "Ġmargin": 9204,
  "Ġvisit": 9206,
  "Ġdelle": 9207,
  "Ġhighly": 9210,
  "unda": 9211,
  "Ġgeb": 9212,
  "header": 9213,
  "ĠOf": 9214,
  "Ġlay": 9215,
  "Ġactivities": 9216,
  "haps": 9221,
  "otype": 9222,
  "ĠRob": 9225,
  "Ġweeks": 9227,
  "aan": 9228,
  "Ġupper": 9229,
  "root": 9230,
  "iny": 9231,
  "lia": 9232,
  "aro": 9234,
  "Ġtrop": 9235,
  "Ġplaced": 9236,
  "iren": 9238,
  "then": 9239,
  "Menu": 9240,
  "Ġpare": 9241,
  "ĠZeit": 9242,
  "Ġcollect": 9243,
  "Ġdetect": 9244,
  "parse": 9245,
  "ĠLet": 9246,
  "Ġfixed": 9247,
  "ĠPrem": 9249,
  "Ġconstruction": 9253,
  "efore": 9255,
  "Ass": 9259,
  "Ġsatisf": 9261,
  "event": 9262,
  "ecause": 9263,
  "Ġped": 9264,
  "TE": 9265,
  "Ġproteins": 9266,
  "Ġwy": 9268,
  "ĠIndia": 9269,
  "Ġtelev": 9270,
  "Ãºblic": 9271,
  "ifer": 9272,
  "elij": 9274,
  "Ġbasis": 9275,
  "Ġparameter": 9276,
  "Create": 9279,
  "Ġtras": 9280,
  "Ġresources": 9281,
  "Repos": 9282,
  "Ġwhose": 9284,
  "Ġclick": 9285,
  "Ġbinding": 9286,
  "Ġstorage": 9287,
  "Ġleave": 9288,
  "Ġpil": 9290,
  "igger": 9292,
  "enne": 9293,
  "Ġcha": 9294,
  "RA": 9295,
  "ĠParty": 9296,
  "ĠEuropean": 9298,
  "Ġdemand": 9300,
  "Ġforms": 9301,
  "Ġball": 9302,
  "Ġsubsequ": 9305,
  "Ãªtre": 9306,
  "stra": 9308,
  "Ġthemselves": 9309,
  "ĠLouis": 9310,
  "ĠChristian": 9311,
  "Ġeducation": 9313,
  "Ġsoftware": 9314,
  "PD": 9315,
  "Ġpartie": 9316,
  "tras": 9317,
  "Ġprocesses": 9320,
  "_size": 9322,
  "Ġclosed": 9323,
  "Base": 9324,
  "Ġcounter": 9325,
  "acement": 9326,
  "ells": 9327,
  "Ġtous": 9329,
  "uda": 9330,
  "itÃ©s": 9331,
  "Ġdra": 9333,
  "Update": 9334,
  "CO": 9335,
  "Ã¡z": 9336,
  "Ġimmun": 9340,
  "hood": 9341,
  "ĠRichard": 9342,
  "ardo": 9343,
  "icture": 9347,
  "ĠBa": 9350,
  "Ġflu": 9351,
  "ĠFrancis": 9352,
  "Ġindependent": 9353,
  "Ġsono": 9354,
  "lan": 9355,
  "Ġdess": 9356,
  "izes": 9357,
  "ingen": 9358,
  "Ġjou": 9359,
  "Ġwieder": 9362,
  "req": 9363,
  "qrt": 9364,
  "Ġtermin": 9366,
  "Ġliv": 9367,
  "Ġtakes": 9368,
  "Ġarticle": 9369,
  "imiento": 9370,
  "Ġmedical": 9371,
  "Load": 9373,
  "Ġheat": 9374,
  "Ġclean": 9375,
  "Ġpassword": 9377,
  "Ġworked": 9378,
  "ĠHere": 9380,
  "udio": 9383,
  "Ġways": 9384,
  "Ġbuffer": 9385,
  "ĠAmerica": 9386,
  "IL": 9387,
  "Ġhous": 9388,
  "Ã³s": 9389,
  "Ã¤h": 9391,
  "Ġtissue": 9392,
  "Ġuno": 9393,
  "orial": 9394,
  "mitted": 9395,
  "rupt": 9396,
  "Ġfields": 9399,
  "istas": 9400,
  "illes": 9401,
  "Ġhij": 9402,
  "Ġbrain": 9403,
  "arlier": 9404,
  "Ġcharg": 9405,
  "Ġtoday": 9406,
  "Ġinstr": 9407,
  "Ġhospital": 9411,
  "Ġalone": 9412,
  "Factory": 9414,
  "Ġcele": 9416,
  "alo": 9417,
  "Ġwest": 9418,
  "otic": 9419,
  "Ã©k": 9420,
  "framework": 9423,
  "Ġmice": 9425,
  "pc": 9427,
  "ĠLuc": 9431,
  "ĠClub": 9433,
  "Ġargs": 9434,
  "Ġtouch": 9435,
  "Ġsetting": 9436,
  "ĠPet": 9437,
  "Ġeu": 9440,
  "Ġcopy": 9441,
  "Ġtan": 9443,
  "ategy": 9445,
  "Ġwat": 9446,
  "Ġadjust": 9447,
  "Ã¼t": 9449,
  "utt": 9450,
  "ĠMain": 9451,
  "Ġsecret": 9452,
  "ĠOpen": 9453,
  "Ġdomain": 9454,
  "ĠGold": 9456,
  "ming": 9457,
  "Ġtests": 9458,
  "Ġyield": 9459,
  "occ": 9460,
  "Ġalgorith": 9461,
  "Ġhit": 9462,
  "CA": 9467,
  "Ġproduce": 9470,
  "Ġrates": 9471,
  "ej": 9472,
  "ĠSil": 9473,
  "IR": 9474,
  "Ġexhib": 9475,
  "Do": 9476,
  "ĠOk": 9477,
  "Ġbottom": 9478,
  "ĠÃ©gal": 9479,
  "Ġroad": 9480,
  "Ġofficial": 9481,
  "mathbb": 9483,
  "Ġbere": 9484,
  "Ġorigin": 9486,
  "ĠGen": 9487,
  "ĉm": 9488,
  "Ġencore": 9489,
  "Ġmanufact": 9490,
  "Ġopened": 9491,
  "Ġmeng": 9492,
  "Ġbud": 9493,
  "Ġonline": 9495,
  "aily": 9499,
  "coming": 9500,
  "Ġsymbol": 9501,
  "ĠFin": 9502,
  "Ġtel": 9503,
  "aste": 9504,
  "osto": 9505,
  "otation": 9507,
  "ĠSE": 9508,
  "riter": 9509,
  "Te": 9510,
  "Ġdepuis": 9511,
  "Repository": 9513,
  "osen": 9514,
  "ĠGrand": 9515,
  "Num": 9516,
  "Ġeasy": 9517,
  "Ġtool": 9519,
  "pective": 9520,
  "Ġcarried": 9523,
  "iera": 9525,
  "mathcal": 9526,
  "useum": 9527,
  "Ġvisual": 9533,
  "Ġobjects": 9536,
  "ĠBest": 9538,
  "Char": 9542,
  "Ġdesigned": 9543,
  "han": 9545,
  "Ġvá»Ľi": 9547,
  "Pre": 9548,
  "Ġig": 9550,
  "Ġgenerated": 9553,
  "ĠAv": 9554,
  "Ġjson": 9555,
  "Ġfat": 9556,
  "ĠRepublic": 9557,
  "Ġcual": 9558,
  "ĠDel": 9559,
  "maz": 9561,
  "Ġlip": 9562,
  "Der": 9565,
  "Ġmedium": 9566,
  "ev": 9568,
  "Call": 9570,
  "ercial": 9571,
  "ĠLi": 9572,
  "ĠEast": 9573,
  "Ġsau": 9574,
  "agy": 9575,
  "Ġdetails": 9576,
  "ĠBre": 9577,
  "Ġsteps": 9578,
  "Ġmac": 9579,
  "ĠSci": 9580,
  "ĠCam": 9581,
  "Width": 9583,
  "adow": 9584,
  "params": 9587,
  "ĠCanada": 9591,
  "Ġgames": 9594,
  "ĠLong": 9595,
  "_path": 9596,
  "Ġmg": 9597,
  "bt": 9599,
  "URL": 9605,
  "rent": 9606,
  "ĠgÃ©nÃ©r": 9609,
  "Ġproposed": 9614,
  "column": 9615,
  "Ġresolution": 9617,
  "Ġshape": 9619,
  "Ġcore": 9620,
  "asons": 9621,
  "ĠNon": 9623,
  "ded": 9625,
  "Ġdeal": 9626,
  "Ġmic": 9627,
  "vest": 9628,
  "ĠBay": 9629,
  "Ġdb": 9631,
  "Ġuseful": 9632,
  "odies": 9633,
  "Vis": 9635,
  "Ġstru": 9636,
  "Ġgegen": 9638,
  "Ġunits": 9639,
  "ĠMartin": 9640,
  "onia": 9642,
  "ĠId": 9643,
  "Ġcouldn": 9645,
  "ĠCenter": 9648,
  "ursor": 9649,
  "Ġti": 9650,
  "Ġcuando": 9651,
  "Ġul": 9653,
  "Ġthick": 9654,
  "Ġstar": 9655,
  "Ġprotect": 9656,
  "ahn": 9661,
  "Ġimpl": 9662,
  "ĠIr": 9663,
  "Ġwriting": 9664,
  "âĢĻa": 9665,
  "gle": 9667,
  "ociation": 9669,
  "Frame": 9670,
  "ĠdÃ©s": 9671,
  "Ġwel": 9672,
  "Ġfab": 9675,
  "ĠNach": 9676,
  "ĠDE": 9677,
  "âĢĻen": 9678,
  "Ġsomet": 9680,
  "Ġnation": 9682,
  "ĠMel": 9683,
  "arde": 9688,
  "ÅĤo": 9690,
  "Æ°Æ¡ng": 9694,
  "arios": 9697,
  "Ġoverall": 9698,
  "Ġpra": 9699,
  "Ġfailed": 9700,
  "Ġmayor": 9701,
  "Ġessential": 9703,
  "Ġunderstanding": 9705,
  "âĢĻai": 9707,
  "rypt": 9708,
  "Ġboard": 9710,
  "otes": 9712,
  "Ġtech": 9713,
  "Ġny": 9714,
  "ĠRoman": 9718,
  "Ġsurpr": 9719,
  "Ġresistance": 9721,
  "room": 9722,
  "Ġsuiv": 9724,
  "Post": 9725,
  "Ġannounced": 9726,
  "ĠRom": 9727,
  "Ġshare": 9730,
  "Ġsympt": 9732,
  "ĠBas": 9733,
  "quer": 9734,
  "ĠCamp": 9736,
  "ĠEngland": 9739,
  "nya": 9740,
  "Ġoptim": 9741,
  "Ġmetab": 9742,
  "Ġthroughout": 9743,
  "ounter": 9745,
  "anner": 9747,
  "ĠSince": 9748,
  "isions": 9749,
  "Ġoffice": 9750,
  "ĠLib": 9751,
  "Ġtodos": 9752,
  "ĠPan": 9753,
  "ĠJac": 9754,
  "ÃŁe": 9755,
  "andon": 9758,
  "Ġjusqu": 9759,
  "show": 9761,
  "Ġsaf": 9766,
  "inese": 9767,
  "ĠSpec": 9770,
  "Ġik": 9772,
  "ÃŃcul": 9773,
  "ING": 9774,
  "Ġfollows": 9775,
  "ĠNord": 9778,
  "Ġfinally": 9779,
  "Valid": 9780,
  "Ġearlier": 9781,
  "inci": 9782,
  "Ġliqu": 9783,
  "ĠPress": 9785,
  "ilo": 9790,
  "Ġmonitor": 9792,
  "PC": 9793,
  "Ġargument": 9794,
  "pected": 9795,
  "ĠEurop": 9796,
  "ĠHall": 9798,
  "rad": 9799,
  "Ġhav": 9801,
  "iciency": 9802,
  "Ġparticipants": 9803,
  "iker": 9807,
  "lice": 9808,
  "ĠRem": 9809,
  "Ġcatal": 9810,
  "ĠsiÃ¨cle": 9812,
  "page": 9813,
  "ĠArch": 9814,
  "Ġfight": 9817,
  "Ġtreated": 9818,
  "Ġpada": 9819,
  "aga": 9820,
  "zz": 9821,
  "node": 9822,
  "isen": 9823,
  "Back": 9824,
  "ĠYour": 9825,
  "Ġscient": 9827,
  "_N": 9828,
  "Ġempty": 9829,
  "Ġbrought": 9831,
  "keit": 9832,
  "Ġregions": 9833,
  "Ã¼h": 9835,
  "nav": 9836,
  "ĠPerson": 9837,
  "Ġperfect": 9839,
  "ĠAlso": 9840,
  "That": 9842,
  "clusion": 9843,
  "Ġrevealed": 9844,
  "ĠpremiÃ¨re": 9845,
  "idente": 9846,
  "ROM": 9848,
  "Ġadvant": 9849,
  "ĠEsp": 9850,
  "niques": 9851,
  "Ġpassed": 9852,
  "_w": 9853,
  "current": 9855,
  "ĠGame": 9856,
  "Child": 9857,
  "atsapp": 9862,
  "theta": 9865,
  "Ġalter": 9866,
  "ĠMarc": 9867,
  "Ãªt": 9868,
  "Ġeconomic": 9870,
  "ederal": 9871,
  "Ġcompan": 9872,
  "Ġbrit": 9873,
  "Ġtumor": 9874,
  "long": 9876,
  "Ġskin": 9877,
  "ĠName": 9878,
  "Ġinner": 9879,
  "Ġmaterials": 9882,
  "gel": 9884,
  "oval": 9885,
  "Ġdegree": 9886,
  "Ã¡d": 9888,
  "Ġye": 9889,
  "Ġale": 9895,
  "Ġcomes": 9896,
  "isten": 9897,
  "ĠÃ©galement": 9901,
  "dir": 9902,
  "Ġresulting": 9903,
  "Ġremoved": 9905,
  "Ã¡p": 9907,
  "Ġtrois": 9908,
  "lang": 9909,
  "Command": 9910,
  "Ġphone": 9916,
  "Ġtree": 9917,
  "IP": 9918,
  "sw": 9920,
  "enda": 9922,
  "imi": 9923,
  "Ġwide": 9924,
  "Ġtent": 9925,
  "Ãłn": 9926,
  "Ġnames": 9928,
  "Title": 9930,
  "Ġseine": 9931,
  "lÄ±": 9935,
  "osc": 9937,
  "Ġviv": 9938,
  "Ã¡nd": 9939,
  "ĠReact": 9942,
  "Ġcombination": 9943,
  "ĠvÉĻ": 9944,
  "Ġcours": 9945,
  "Ġopportun": 9946,
  "Æ°á»Ŀi": 9948,
  "Ġmiddle": 9949,
  "aja": 9950,
  "Ġwatch": 9951,
  "elo": 9952,
  "ĠGer": 9953,
  "Ġdeutsch": 9954,
  "orb": 9955,
  "Ġwrote": 9956,
  "Ġelev": 9958,
  "ĠOff": 9959,
  "Ġseparate": 9960,
  "Ġsuite": 9962,
  "ĠOur": 9966,
  "Ġdonde": 9967,
  "build": 9968,
  "Init": 9969,
  "ĠLeg": 9970,
  "Mode": 9972,
  "Ġthread": 9974,
  "Ġtherm": 9976,
  "Ġfam": 9977,
  "Ġsit": 9978,
  "Ġreduce": 9980,
  "orig": 9981,
  "TS": 9983,
  "ĠSk": 9984,
  "Ġallows": 9985,
  "Ġwerd": 9986,
  "Ġjam": 9987,
  "enge": 9988,
  "Ġdrive": 9990,
  "ĠEll": 9991,
  "vec": 9993,
  "istan": 9994,
  "Ġmars": 9995,
  "Ġsubstr": 9997,
  "áº§n": 9998,
  "Ġnovel": 9999,
  "Ġek": 10002,
  "udad": 10003,
  "aki": 10004,
  "Ġslight": 10005,
  "Ġcarbon": 10006,
  "ĠMer": 10007,
  "Ġsupported": 10009,
  "ĠFilm": 10010,
  "note": 10011,
  "Ġpolice": 10012,
  "Ġvu": 10013,
  "Ġcs": 10015,
  "ailed": 10017,
  "Ġtrain": 10018,
  "Ġmoins": 10019,
  "Ġgan": 10020,
  "ued": 10021,
  "inh": 10022,
  "ĠIsra": 10023,
  "ĠJoh": 10024,
  "ental": 10025,
  "_pro": 10026,
  "block": 10028,
  "icrosoft": 10029,
  "Ã¶s": 10030,
  "acters": 10031,
  "Ã©p": 10032,
  "ĠCup": 10033,
  "atro": 10034,
  "Ġavoid": 10035,
  "chÃ©": 10036,
  "prim": 10037,
  "Ġdelete": 10041,
  "endance": 10042,
  "Ġisn": 10045,
  "ĠkÃ¶n": 10047,
  "Ã¨ne": 10049,
  "mann": 10050,
  "Ġsuggested": 10051,
  "arts": 10052,
  "ĠTu": 10053,
  "Ġcomput": 10054,
  "Ġiniti": 10055,
  "erior": 10056,
  "ĠDa": 10058,
  "Ġrang": 10060,
  "isÃ©": 10062,
  "allel": 10063,
  "Ġkaj": 10065,
  "Ġlock": 10066,
  "ĠFC": 10068,
  "iforn": 10070,
  "Ġdari": 10073,
  "aign": 10074,
  "Ġmilitary": 10076,
  "ĠSee": 10078,
  "Task": 10080,
  "_h": 10081,
  "undle": 10083,
  "Ã©v": 10085,
  "ĠGeorg": 10087,
  "Ġcivil": 10088,
  "lymp": 10093,
  "Ġplas": 10094,
  "kg": 10096,
  "Ġrule": 10097,
  "Ġsecurity": 10098,
  "aka": 10100,
  "Ġintent": 10103,
  "Ġconfir": 10104,
  "ns": 10105,
  "Null": 10106,
  "First": 10107,
  "ĠPour": 10108,
  "ĠEvent": 10109,
  "ĠOper": 10111,
  "Ġfi": 10112,
  "sta": 10113,
  "output": 10114,
  "gio": 10117,
  "Ġtherapy": 10118,
  "Ġcoming": 10119,
  "ÅĤy": 10120,
  "Ġcada": 10121,
  "ĠCre": 10122,
  "overn": 10124,
  "ĠStreet": 10126,
  "uma": 10128,
  "ĠRiver": 10129,
  "Ġclasses": 10130,
  "whatsapp": 10131,
  "ĠMr": 10133,
  "ĠDies": 10134,
  "ĉf": 10135,
  "Ġparents": 10136,
  "Ġstructures": 10137,
  "Ġmeaning": 10138,
  "ifi": 10139,
  "Options": 10140,
  "ĠKir": 10142,
  "ĠMusic": 10144,
  "VID": 10145,
  "admin": 10147,
  "Ġexerc": 10148,
  "ierte": 10151,
  "Ġutiliz": 10152,
  "Ġdensity": 10154,
  "âĢĻav": 10155,
  "Ġnouve": 10156,
  "ĠUK": 10159,
  "Ġai": 10160,
  "Ġcharge": 10162,
  "Ġwebs": 10163,
  "EX": 10164,
  "ĠUm": 10165,
  "isiÃ³n": 10167,
  "ĠrÃ©al": 10168,
  "Ġcharacteristics": 10169,
  "ĠCong": 10171,
  "Ġregul": 10172,
  "Ġcz": 10173,
  "Ġnj": 10174,
  "Ġdiam": 10175,
  "Ġkun": 10176,
  "Ġgives": 10177,
  "agon": 10178,
  "Ġautor": 10181,
  "contr": 10183,
  "while": 10184,
  "Ġcompletely": 10185,
  "LECT": 10187,
  "Ġhair": 10188,
  "tml": 10189,
  "atas": 10191,
  "Ġtele": 10192,
  "ĠprÃ©c": 10193,
  "ĠGes": 10194,
  "ĠAD": 10195,
  "Ġdifer": 10196,
  "Ġstream": 10197,
  "ĠPop": 10198,
  "ech": 10199,
  "sec": 10201,
  "Ġexpressed": 10203,
  "Ext": 10204,
  "Ġcomun": 10205,
  "ĠSoci": 10206,
  "_IN": 10208,
  "vet": 10209,
  "nik": 10210,
  "Ġjul": 10213,
  "ĠWork": 10215,
  "Ġpair": 10217,
  "zione": 10218,
  "Ġliber": 10220,
  "Ġmale": 10222,
  "weight": 10223,
  "Ġanalys": 10224,
  "ĠAccording": 10228,
  "Ġvoc": 10229,
  "Ġtid": 10231,
  "win": 10232,
  "Ġpresident": 10233,
  "Ġbasic": 10234,
  "Ġreflect": 10235,
  "Ġsynth": 10236,
  "client": 10238,
  "atar": 10242,
  "ĠAustralia": 10243,
  "aper": 10244,
  "tee": 10245,
  "Ġperman": 10247,
  "Ġkann": 10248,
  "Ġappears": 10249,
  "ateur": 10250,
  "apa": 10251,
  "Ġrob": 10253,
  "Ġconfiguration": 10254,
  "Ġfindings": 10257,
  "Ġterminal": 10258,
  "rest": 10261,
  "ĠType": 10264,
  "LA": 10265,
  "iej": 10266,
  "null": 10267,
  "amily": 10268,
  "onio": 10269,
  "Ġtab": 10271,
  "Open": 10272,
  "phone": 10277,
  "Ġphosph": 10279,
  "namespace": 10280,
  "Ġrecorded": 10281,
  "ront": 10282,
  "Ġchoice": 10284,
  "Ġinterval": 10285,
  "Ġlu": 10286,
  "wood": 10288,
  "_file": 10289,
  "ĠBet": 10294,
  "Ġdigital": 10295,
  "cape": 10297,
  "ĠDay": 10298,
  "Ġsleep": 10301,
  "Ġappropriate": 10304,
  "related": 10305,
  "ĠMiss": 10306,
  "ĠSmith": 10307,
  "num": 10309,
  "Read": 10311,
  "ĠÃ©c": 10312,
  "Ġedge": 10314,
  "Ġoperations": 10317,
  "ĠHT": 10318,
  "Ġfon": 10321,
  "ĠSecond": 10322,
  "message": 10326,
  "ĠMost": 10327,
  "Ġcommit": 10328,
  "ĠWhite": 10330,
  "Ġtechnology": 10331,
  "Ġej": 10332,
  "Foot": 10333,
  "ĠDivision": 10335,
  "zet": 10337,
  "Card": 10338,
  "Ġker": 10339,
  "plicit": 10340,
  "Ġshall": 10341,
  "Ġbeginning": 10343,
  "ĠTrue": 10344,
  "_ST": 10345,
  "stein": 10346,
  "enen": 10347,
  "Ġstarting": 10348,
  "ĠPresident": 10349,
  "ĠMary": 10350,
  "izont": 10351,
  "âĢĻh": 10353,
  "Ġappeared": 10354,
  "ĠVict": 10355,
  "child": 10356,
  "Ġnella": 10358,
  "cs": 10359,
  "Ġvida": 10362,
  "uje": 10363,
  "ĠktÃ³": 10365,
  "igration": 10367,
  "nel": 10370,
  "ĠMethod": 10371,
  "Ġconducted": 10372,
  "Ġcritical": 10374,
  "ptr": 10375,
  "_A": 10376,
  "Filter": 10379,
  "Ġdead": 10384,
  "Ġstudent": 10385,
  "ĠCounty": 10386,
  "Game": 10387,
  "_H": 10388,
  "_RE": 10389,
  "isl": 10390,
  "ĠVan": 10391,
  "vant": 10392,
  "Ġplatform": 10393,
  "Ġquando": 10396,
  "RL": 10397,
  "Ġremain": 10399,
  "Ġroll": 10401,
  "Ġeines": 10402,
  "duction": 10404,
  "Ġanche": 10405,
  "Ġcalculated": 10407,
  "Ġpropos": 10408,
  "iling": 10409,
  "Ġassist": 10410,
  "Ġelimin": 10411,
  "ieren": 10412,
  "oder": 10414,
  "_re": 10417,
  "Ġtesting": 10418,
  "zte": 10419,
  "ĠTra": 10420,
  "Ġeasily": 10421,
  "Ġheard": 10423,
  "ĠKar": 10424,
  "Ã¼k": 10425,
  "Ġleurs": 10427,
  "Ġthrows": 10429,
  "Ġexisting": 10430,
  "Ġopening": 10431,
  "heit": 10432,
  "Ġbtn": 10435,
  "ĠAtt": 10436,
  "ĠChurch": 10438,
  "Ġselection": 10439,
  "Whats": 10441,
  "md": 10442,
  "ieurs": 10444,
  "IX": 10445,
  "ĠnÃº": 10446,
  "Ġstrateg": 10447,
  "ĠThanks": 10448,
  "arian": 10449,
  "Ġfunctional": 10452,
  "Ã©ho": 10453,
  "start": 10460,
  "Ġlic": 10462,
  "Ġsometimes": 10463,
  "ĠVir": 10464,
  "Ġzen": 10465,
  "Ġran": 10467,
  "Module": 10468,
  "Ġrules": 10469,
  "ĠTour": 10470,
  "enty": 10472,
  "ĠDuring": 10473,
  "Ġrank": 10474,
  "Ġreceive": 10477,
  "Ġdefe": 10479,
  "voir": 10480,
  "atrix": 10481,
  "Ġguard": 10482,
  "Ġdevices": 10483,
  "Ġzwei": 10484,
  "Ġpurpose": 10485,
  "Ġkor": 10486,
  "Ġexception": 10487,
  "Po": 10488,
  "rim": 10489,
  "Ġjour": 10492,
  "Ġfemale": 10493,
  "ĠLaw": 10495,
  "Ġagent": 10496,
  "oration": 10497,
  "miss": 10499,
  "Ġconfirm": 10500,
  "stream": 10502,
  "Ġstatist": 10503,
  "TC": 10504,
  "Ġentry": 10505,
  "ilon": 10506,
  "Block": 10508,
  "Ġfeet": 10509,
  "ĠAS": 10510,
  "Ġbacter": 10511,
  "Ste": 10512,
  "Ġrelatively": 10513,
  "Ġsubs": 10517,
  "ĠBern": 10518,
  "Ġud": 10519,
  "Ġincorpor": 10520,
  "Ġrend": 10521,
  "ĠAPI": 10523,
  "views": 10524,
  "iÄį": 10525,
  "Ġonto": 10529,
  "âĢĻÃ©tait": 10530,
  "Ġremember": 10532,
  "Ġquickly": 10533,
  "akes": 10535,
  "cial": 10536,
  "Ġwonder": 10537,
  "Ġnam": 10538,
  "ae": 10539,
  "Ġlinear": 10540,
  "perties": 10543,
  "nte": 10544,
  "Format": 10547,
  "Ġcurrently": 10548,
  "Ġreduction": 10550,
  "Ġcapacity": 10551,
  "zeich": 10552,
  "gin": 10553,
  "Stack": 10554,
  "olit": 10556,
  "ĠMas": 10557,
  "Ġyards": 10558,
  "lock": 10559,
  "status": 10560,
  "ashington": 10561,
  "ĠJes": 10562,
  "Ġils": 10563,
  "Ġverb": 10564,
  "Bo": 10565,
  "VD": 10566,
  "tty": 10567,
  "Ġelectr": 10568,
  "aught": 10569,
  "Ġswe": 10570,
  "rÃ¡": 10572,
  "BA": 10574,
  "Ġdog": 10575,
  "Ġreli": 10576,
  "ping": 10577,
  "Ġtransl": 10579,
  "Ġanyone": 10580,
  "eten": 10581,
  "Ġseb": 10583,
  "Top": 10584,
  "ĠPolit": 10586,
  "Address": 10587,
  "Ġpros": 10589,
  "Ġimprove": 10591,
  "Ġsources": 10592,
  "holder": 10594,
  "ĠYear": 10596,
  "Ġdemonstrated": 10597,
  "ugh": 10598,
  "ying": 10599,
  "cert": 10600,
  "Ġtravel": 10601,
  "ians": 10602,
  "Ġhers": 10603,
  "Ġdamage": 10605,
  "Ġital": 10606,
  "Player": 10608,
  "ÃŃc": 10610,
  "Ġwid": 10611,
  "Ġinteraction": 10613,
  "Ġinsp": 10615,
  "Ġgenerate": 10616,
  "oly": 10617,
  "ĠStadt": 10619,
  "fic": 10620,
  "ieux": 10621,
  "Ġkur": 10623,
  "GF": 10624,
  "bur": 10625,
  "Ġhighest": 10626,
  "Header": 10627,
  "Ġtechniques": 10633,
  "Ġgold": 10634,
  "ĠGovern": 10635,
  "Ġactions": 10636,
  "Ġlooks": 10637,
  "ĠTwo": 10638,
  "Gener": 10639,
  "Ġfel": 10642,
  "ifs": 10643,
  "Ġperd": 10644,
  "ĠCa": 10645,
  "Ġneigh": 10646,
  "sqrt": 10647,
  "ensor": 10648,
  "Ã¤ch": 10649,
  "Ġinfection": 10650,
  "Ġsets": 10651,
  "áº¿n": 10652,
  "aupt": 10654,
  "ĠTechn": 10655,
  "Ġnoted": 10656,
  "Ġcham": 10657,
  "itos": 10658,
  "Je": 10659,
  "anie": 10660,
  "alar": 10661,
  "omic": 10662,
  "yond": 10663,
  "atan": 10664,
  "Ġcasa": 10666,
  "IM": 10667,
  "ĠLas": 10670,
  "ĠUnion": 10672,
  "Ġoil": 10673,
  "Ġstatement": 10674,
  "áº§u": 10675,
  "Ġlegal": 10676,
  "Auth": 10677,
  "Ġplease": 10678,
  "Ġletter": 10679,
  "essa": 10680,
  "like": 10683,
  "Ġproport": 10685,
  "ervices": 10686,
  "ĠLo": 10689,
  "Ġmoy": 10690,
  "ĠChe": 10691,
  "Ġexactly": 10693,
  "eds": 10694,
  "Ġcomposition": 10695,
  "Cell": 10696,
  "Ġprze": 10697,
  "ipped": 10700,
  "ĠNS": 10703,
  "jon": 10705,
  "ĠUnter": 10706,
  "Ġremains": 10714,
  "Ġreading": 10718,
  "Ãªncia": 10720,
  "Ġreturns": 10721,
  "rig": 10722,
  "ĠHealth": 10723,
  "Attribute": 10724,
  "Hel": 10725,
  "Ġscen": 10726,
  "fty": 10731,
  "nek": 10732,
  "iance": 10733,
  "rowser": 10734,
  "Ġdalam": 10735,
  "Ġpob": 10737,
  "Ġconflic": 10738,
  "Ġcarry": 10739,
  "Ġshift": 10740,
  "Ġrights": 10741,
  "ĠngÆ°á»Ŀi": 10742,
  "Integer": 10743,
  "Å¼e": 10745,
  "Ab": 10746,
  "Ġring": 10749,
  "ĉelse": 10750,
  "Ġsmaller": 10752,
  "ifically": 10753,
  "under": 10754,
  "Ġneut": 10755,
  "riz": 10756,
  "auc": 10758,
  "ĠBook": 10759,
  "áº¿t": 10760,
  "psilon": 10763,
  "author": 10764,
  "plete": 10765,
  "Edit": 10767,
  "Ġdecided": 10769,
  "Ġindicated": 10770,
  "Ġell": 10771,
  "xture": 10773,
  "break": 10774,
  "Ġlugar": 10776,
  "Ġprocedure": 10777,
  "Ã³l": 10779,
  "imens": 10780,
  "Ġnorth": 10783,
  "wick": 10786,
  "ĠGermany": 10787,
  "ĠService": 10788,
  "Ġhope": 10789,
  "Ġsoll": 10790,
  "Ġdied": 10791,
  "Ġapplications": 10792,
  "Lo": 10793,
  "Provider": 10794,
  "ĠaÃ±o": 10795,
  "ĠHenry": 10796,
  "Ġregist": 10798,
  "ului": 10799,
  "Ġexternal": 10801,
  "Ġpurch": 10805,
  "Aut": 10807,
  "ĠChinese": 10808,
  "taient": 10809,
  "obe": 10811,
  "ĠBud": 10812,
  "entity": 10813,
  "ĠRE": 10814,
  "ĠWal": 10815,
  "Ã»t": 10818,
  "Part": 10819,
  "_O": 10820,
  "ymbol": 10821,
  "rod": 10822,
  "Ġweak": 10824,
  "uego": 10825,
  "áºŃn": 10826,
  "Ġprotest": 10827,
  "Ġrace": 10830,
  "river": 10831,
  "ĠKl": 10832,
  "aman": 10833,
  "inin": 10834,
  "Ġtoken": 10835,
  "printf": 10836,
  "Ã¶g": 10837,
  "FIG": 10839,
  "Ġcontro": 10840,
  "Ġfirm": 10841,
  "Ġbond": 10842,
  "Ġing": 10844,
  "adr": 10845,
  "ruit": 10847,
  "Container": 10849,
  "ville": 10850,
  "ĠSum": 10852,
  "values": 10855,
  "Empty": 10856,
  "ĠBur": 10857,
  "FC": 10858,
  "main": 10860,
  "Ġneur": 10862,
  "ston": 10864,
  "ĠCla": 10865,
  "Ġrequires": 10867,
  "ĠMach": 10868,
  "Ġsuo": 10871,
  "ĠFlor": 10873,
  "ĠBerlin": 10874,
  "ĠGreen": 10876,
  "Ġtres": 10877,
  "DA": 10878,
  "Ã¤s": 10879,
  "Ġmand": 10880,
  "Ġconj": 10882,
  "Icon": 10884,
  "enti": 10885,
  "Ġfully": 10886,
  "Refere": 10887,
  "ĠCu": 10888,
  "ĠCompany": 10889,
  "Ġfailure": 10890,
  "POST": 10891,
  "Ã³d": 10892,
  "Ġzone": 10893,
  "Height": 10897,
  "pling": 10898,
  "Ġreact": 10900,
  "amiento": 10903,
  "Items": 10904,
  "ĠMot": 10905,
  "ĠMaria": 10906,
  "Ġones": 10907,
  "assen": 10908,
  "Ġmentioned": 10910,
  "Ġziren": 10911,
  "Ġimmediately": 10912,
  "ĠCentral": 10913,
  "Ġtechnique": 10914,
  "Ġnod": 10916,
  "utter": 10917,
  "Ġindustry": 10923,
  "bour": 10924,
  "ĠAle": 10925,
  "Ġsoit": 10926,
  "Ġmonde": 10928,
  "embl": 10930,
  "Ġcav": 10931,
  "Ġvac": 10932,
  "ÃŃnh": 10934,
  "Ġseemed": 10935,
  "ĠBi": 10936,
  "ĠDaniel": 10937,
  "ĠOver": 10938,
  "Ġintroduced": 10939,
  "Ġsubstant": 10941,
  "Ġville": 10944,
  "ango": 10945,
  "inner": 10946,
  "pecific": 10947,
  "_set": 10953,
  "Ġampl": 10955,
  "ovo": 10956,
  "Ġerrors": 10957,
  "atically": 10958,
  "Ġexpand": 10959,
  "Ġconsequ": 10960,
  "ĠMath": 10963,
  "Ġemot": 10964,
  "oup": 10965,
  "Ġzwischen": 10966,
  "Ġtemplate": 10968,
  "Ġnut": 10969,
  "Buffer": 10970,
  "Ġsuccessful": 10973,
  "Position": 10975,
  "Ġseiner": 10976,
  "yan": 10978,
  "Ġcontroller": 10979,
  "ibly": 10980,
  "Ġsang": 10981,
  "Ġindicate": 10982,
  "Ġlag": 10983,
  "rer": 10984,
  "ĠWindows": 10986,
  "ĠcrÃ©": 10987,
  "Ġfriends": 10989,
  "ĠMinister": 10990,
  "Ġblue": 10991,
  "onna": 10994,
  "reshold": 10995,
  "wers": 10998,
  "Ġoppos": 10999,
  "iders": 11003,
  "Ġcoordin": 11004,
  "sigma": 11005,
  "Ġbecomes": 11006,
  "aram": 11008,
  "omy": 11009,
  "ĠpaÃŃs": 11010,
  "ĠEv": 11011,
  "uis": 11015,
  "ampion": 11016,
  "which": 11018,
  "Å¡t": 11020,
  "Ġaug": 11021,
  "Ġcontainer": 11024,
  "Ġprimera": 11026,
  "ĠCollege": 11027,
  "osoph": 11029,
  "Ġmoi": 11033,
  "Ġglass": 11035,
  "Ġku": 11037,
  "Ġkont": 11040,
  "Sche": 11041,
  "Connection": 11042,
  "Ġsab": 11045,
  "Ġchurch": 11047,
  "ĠdespuÃ©s": 11048,
  "Ġshowing": 11050,
  "Ġsaying": 11051,
  "Ġnun": 11052,
  "Ġdelay": 11053,
  "iring": 11055,
  "ested": 11056,
  "eto": 11057,
  "nych": 11059,
  "Ġimpos": 11060,
  "Ġbomb": 11062,
  "Ġverd": 11063,
  "ifornia": 11066,
  "ĠMex": 11067,
  "edit": 11070,
  "ĠResearch": 11071,
  "Ġfur": 11072,
  "ikt": 11073,
  "Ġdistinct": 11074,
  "apon": 11075,
  "ĠDeutsch": 11076,
  "Ġsowie": 11080,
  "ettings": 11081,
  "font": 11082,
  "Ġactivation": 11083,
  "Ġcharacters": 11084,
  "ĠBes": 11086,
  "ĠNav": 11087,
  "items": 11089,
  "Ġmoving": 11090,
  "Ġremained": 11092,
  "Ġdetection": 11093,
  "Ġihm": 11094,
  "etzt": 11097,
  "IF": 11098,
  "Ġconvers": 11100,
  "Ġextrem": 11101,
  "Dialog": 11102,
  "Ġhogy": 11104,
  "Ġbank": 11105,
  "Ġcourt": 11106,
  "itted": 11107,
  "Ġcompleted": 11110,
  "ĠTop": 11112,
  "Ġlleg": 11114,
  "Ġanimals": 11115,
  "Ġdetected": 11116,
  "ifications": 11117,
  "Ġzero": 11118,
  "Ġcycle": 11119,
  "etime": 11120,
  "Off": 11122,
  "illo": 11123,
  "ĠdiffÃ©r": 11124,
  "icate": 11125,
  "ologie": 11126,
  "Ġemp": 11129,
  "PT": 11130,
  "Ġintr": 11131,
  "ifying": 11133,
  "Ġdieser": 11134,
  "OM": 11135,
  "Ġresource": 11136,
  "Ġcombined": 11137,
  "Case": 11139,
  "istes": 11140,
  "Ġkept": 11141,
  "anel": 11142,
  "Ġwave": 11144,
  "Ġapply": 11145,
  "Ġhem": 11146,
  "Ġcategory": 11147,
  "Json": 11148,
  "ĠSin": 11150,
  "Ġchrom": 11151,
  "Ġminor": 11154,
  "aza": 11155,
  "Ġrelevant": 11157,
  "yy": 11158,
  "ģu": 11160,
  "Ġprepared": 11161,
  "ĠTim": 11164,
  "Delta": 11166,
  "Ġtrab": 11168,
  "ĠPD": 11171,
  "sm": 11176,
  "ustomer": 11177,
  "ÅŁt": 11178,
  "endar": 11179,
  "Ġkg": 11182,
  "Ġantes": 11184,
  "Output": 11186,
  "ĠChampionship": 11187,
  "Ġolder": 11190,
  "Ġrare": 11191,
  "Ġanalyz": 11193,
  "Ġsea": 11196,
  "oche": 11197,
  "ĠSeg": 11198,
  "Thread": 11199,
  "Äħc": 11200,
  "ĠpolÃŃt": 11201,
  "Ġarms": 11203,
  "Fe": 11204,
  "Ġpackage": 11205,
  "Ġtip": 11210,
  "rapper": 11211,
  "Ġstaff": 11212,
  "EL": 11213,
  "nej": 11214,
  "Ġgal": 11216,
  "ĠannÃ©es": 11217,
  "aden": 11218,
  "Ġoverride": 11219,
  "Ġvirtual": 11220,
  "_v": 11221,
  "Ġgreen": 11223,
  "Ġequival": 11224,
  "war": 11225,
  "ĠCommun": 11226,
  "ĠPublic": 11227,
  "ĠRod": 11228,
  "ĠHo": 11229,
  "Ġautres": 11231,
  "only": 11234,
  "Ġconver": 11235,
  "urer": 11236,
  "Ġfloor": 11237,
  "ĠWashington": 11238,
  "Ġnord": 11239,
  "Ġpoder": 11240,
  "Ġvas": 11242,
  "Ġnaj": 11243,
  "Ġspread": 11244,
  "ĠProf": 11245,
  "reci": 11246,
  "Ġexperiments": 11248,
  "Ġdefine": 11249,
  "Ġassociation": 11250,
  "ĠDirect": 11251,
  "vier": 11254,
  "Ġrelation": 11255,
  "ecute": 11256,
  "Down": 11257,
  "Ġvoltage": 11258,
  "Ġmyself": 11259,
  "Ġavoir": 11260,
  "Ġnap": 11261,
  "Ã¡ch": 11262,
  "Ġeight": 11263,
  "Ġsouth": 11265,
  "Ġole": 11266,
  "Ġapproximately": 11267,
  "illet": 11273,
  "chat": 11274,
  "Ġwhereas": 11275,
  "Ġserie": 11276,
  "Ġexamples": 11277,
  "ĠHa": 11278,
  "anal": 11280,
  "Ġseven": 11282,
  "options": 11284,
  "Ã«r": 11285,
  "Ġtransition": 11286,
  "zent": 11287,
  "uno": 11290,
  "Ġbeaut": 11294,
  "issance": 11295,
  "áº£i": 11296,
  "ĠOp": 11297,
  "styles": 11298,
  "Ġsupply": 11299,
  "Ġliquid": 11301,
  "Ġtoute": 11302,
  "faces": 11303,
  "Ġserious": 11304,
  "Ġplayers": 11306,
  "Max": 11309,
  "ket": 11310,
  "Eng": 11313,
  "Ġauthors": 11314,
  "Ġez": 11317,
  "Ġpays": 11318,
  "ĠProgram": 11319,
  "atura": 11321,
  "asis": 11322,
  "Ġlibrary": 11329,
  "ĠFern": 11331,
  "_time": 11332,
  "ĠJosÃ©": 11333,
  "Ġeing": 11335,
  "Sp": 11336,
  "Ġconfigure": 11337,
  "false": 11339,
  "ialize": 11340,
  "Ġresist": 11343,
  "Ġbehavi": 11344,
  "edi": 11345,
  "Ġadministration": 11348,
  "iverse": 11349,
  "omain": 11350,
  "Ġpush": 11354,
  "ieler": 11355,
  "ĠTod": 11358,
  "ĠlÃŃ": 11359,
  "edy": 11361,
  "ĉvar": 11363,
  "IO": 11364,
  "YPE": 11365,
  "Grid": 11366,
  "ĠVor": 11367,
  "Ġdivision": 11368,
  "ĠHel": 11369,
  "Ġnovembre": 11370,
  "Ġcentre": 11371,
  "Ġhund": 11372,
  "Ġpull": 11373,
  "ĠSanta": 11374,
  "ĠMur": 11375,
  "Ã¡v": 11376,
  "abet": 11377,
  "ĠGro": 11378,
  "msg": 11380,
  "rican": 11381,
  "Ġstated": 11383,
  "ĠPlay": 11384,
  "ĠStat": 11385,
  "Ġanimal": 11386,
  "Ġadopt": 11387,
  "PP": 11388,
  "olid": 11393,
  "osta": 11394,
  "iced": 11395,
  "Ġmobile": 11396,
  "Ġmant": 11399,
  "emy": 11400,
  "Ġmolecular": 11401,
  "olar": 11403,
  "Ġsido": 11404,
  "Ġvec": 11405,
  "Ġworden": 11408,
  "Ġelection": 11412,
  "angan": 11413,
  "Ġini": 11414,
  "Ġveloc": 11416,
  "Ġkilled": 11417,
  "Ġhaben": 11419,
  "ĠWay": 11420,
  "rey": 11423,
  "âĢĻelle": 11425,
  "Pos": 11426,
  "Window": 11427,
  "ammen": 11431,
  "Ġcomparison": 11432,
  "Ġaxis": 11438,
  "menu": 11439,
  "Ġbill": 11440,
  "Ġpy": 11442,
  "Ġwife": 11444,
  "Ġpolic": 11445,
  "ĠDur": 11446,
  "irection": 11447,
  "asc": 11448,
  "gery": 11451,
  "Ġov": 11452,
  "ĠScott": 11455,
  "Ġdil": 11456,
  "ycl": 11457,
  "UM": 11458,
  "Ġcultural": 11459,
  "Ġnad": 11460,
  "ĠBon": 11461,
  "Ġincreases": 11462,
  "Ã§ais": 11463,
  "estra": 11465,
  "Ġtanto": 11466,
  "Ġexperimental": 11467,
  "ĠSy": 11470,
  "olt": 11472,
  "Server": 11473,
  "bool": 11474,
  "Ġsurround": 11476,
  "áº£n": 11477,
  "ĠCreate": 11478,
  "ÃŃo": 11479,
  "Ġdrop": 11480,
  "Ġliterature": 11482,
  "Ġthinking": 11483,
  "Ġvariety": 11485,
  "iza": 11486,
  "Password": 11487,
  "TV": 11488,
  "Ġstored": 11489,
  "Ġvehicle": 11491,
  "ĠJoseph": 11493,
  "itate": 11494,
  "Ġproviding": 11495,
  "ĠXX": 11496,
  "Ġsuffer": 11497,
  "Ġruns": 11500,
  "ĠCouncil": 11501,
  "ĠEven": 11503,
  "Ġmouth": 11504,
  "itis": 11505,
  "beit": 11507,
  "reme": 11508,
  "stell": 11509,
  "Ġtiem": 11510,
  "ĠAtl": 11511,
  "ĠModel": 11512,
  "rog": 11513,
  "Ġmuy": 11514,
  "Ġcollected": 11515,
  "stall": 11516,
  "first": 11517,
  "Ġnone": 11518,
  "endif": 11519,
  "ĠvÃło": 11520,
  "Ġstraight": 11521,
  "Ġarchitect": 11522,
  "ĠRNA": 11523,
  "Ġvillage": 11525,
  "uso": 11526,
  "ĠArmy": 11527,
  "template": 11528,
  "Ġshared": 11530,
  "adata": 11531,
  "plot": 11532,
  "ĠIndian": 11533,
  "Ġcareer": 11534,
  "Ġkoj": 11535,
  "ĠLeb": 11537,
  "ocs": 11540,
  "avas": 11541,
  "ĠMann": 11542,
  "Ġbatt": 11543,
  "zten": 11545,
  "Ġtraditional": 11546,
  "Web": 11547,
  "ieg": 11548,
  "ĠFra": 11549,
  "Ġprofile": 11551,
  "ĠRoyal": 11552,
  "Ġkap": 11553,
  "ĠRa": 11554,
  "Ġtub": 11555,
  "ĠJew": 11557,
  "ums": 11558,
  "Ġalternative": 11559,
  "ĠGreat": 11560,
  "well": 11564,
  "Ġfle": 11565,
  "omer": 11566,
  "Ġsucc": 11567,
  "ĠmÃ©d": 11569,
  "ĠCourt": 11570,
  "unque": 11572,
  "Ġbirth": 11573,
  "ĠIL": 11574,
  "izontal": 11575,
  "Ġnan": 11576,
  "Ġsust": 11577,
  "android": 11578,
  "efined": 11579,
  "ierung": 11581,
  "ĠUI": 11583,
  "Ġserve": 11584,
  "Es": 11587,
  "Ġgaz": 11589,
  "Ġbor": 11591,
  "Ġmedic": 11593,
  "larÄ±": 11595,
  "greg": 11597,
  "eln": 11598,
  "ĠSS": 11599,
  "Ġmismo": 11604,
  "Ġcamb": 11605,
  "Ġihre": 11606,
  "Ġhypoth": 11607,
  "Ġfinished": 11608,
  "oven": 11609,
  "Ġchance": 11611,
  "Resource": 11613,
  "Ġedit": 11616,
  "Ġsecondary": 11618,
  "Ġseus": 11619,
  "ĠAny": 11623,
  "eda": 11626,
  "Main": 11627,
  "ymph": 11628,
  "ĠBill": 11630,
  "NAME": 11631,
  "ĠMill": 11632,
  "Ã¼d": 11633,
  "ĠCalifornia": 11634,
  "Ġplural": 11635,
  "Ġgior": 11636,
  "ĠLee": 11637,
  "Ġhop": 11638,
  "attr": 11639,
  "raint": 11642,
  "jours": 11643,
  "emple": 11644,
  "uint": 11646,
  "Script": 11648,
  "Ġsexual": 11649,
  "ĠCOVID": 11651,
  "ĠJuan": 11654,
  "Dep": 11655,
  "Ġdels": 11657,
  "Ġstack": 11658,
  "Ġdiscover": 11659,
  "riÃ¨re": 11661,
  "ellig": 11662,
  "peed": 11663,
  "ĠWestern": 11664,
  "Ġmanner": 11665,
  "iri": 11667,
  "auto": 11668,
  "ÉĻl": 11670,
  "anya": 11671,
  "Ġmoder": 11673,
  "Ġsoc": 11675,
  "Ġtested": 11676,
  "Ġimportance": 11678,
  "ests": 11680,
  "_url": 11681,
  "ĠRock": 11682,
  "ĠIg": 11685,
  "ĠÃ©v": 11686,
  "ads": 11687,
  "Ġresponses": 11688,
  "ĠReal": 11690,
  "atori": 11691,
  "Ġmist": 11692,
  "nis": 11694,
  "Ġangle": 11695,
  "Ġpatterns": 11696,
  "username": 11697,
  "Ġalign": 11701,
  "Ġpadding": 11705,
  "ĠthÃ¡ng": 11706,
  "Ġimplementation": 11708,
  "aby": 11711,
  "elli": 11712,
  "Ġdav": 11714,
  "Ġmeant": 11715,
  "Ġexecut": 11716,
  "Types": 11717,
  "Location": 11719,
  "Ġrod": 11720,
  "Ġakt": 11721,
  "Ġiter": 11723,
  "Ġtransmission": 11724,
  "Ġreb": 11725,
  "joy": 11727,
  "Ġsun": 11729,
  "ĠBig": 11732,
  "Ġplays": 11733,
  "iembre": 11734,
  "Ġgiving": 11735,
  "ÉĻt": 11736,
  "ĠRos": 11737,
  "Ġcryst": 11739,
  "Ġdriver": 11742,
  "Ġphil": 11743,
  "Here": 11745,
  "Ġmembrane": 11746,
  "ĠPA": 11747,
  "ĠJSON": 11748,
  "Ġenf": 11749,
  "Ġdent": 11750,
  "ĠLord": 11751,
  "ativa": 11752,
  "tok": 11754,
  "ĠAnn": 11755,
  "Ġtheor": 11756,
  "uras": 11757,
  "Ġago": 11759,
  "reb": 11760,
  "Ġalk": 11762,
  "uble": 11764,
  "Email": 11765,
  "ographic": 11768,
  "Ġrecently": 11771,
  "Ġbag": 11772,
  "Ġanterior": 11773,
  "Ġmajority": 11774,
  "Ġjako": 11777,
  "Ġmeasures": 11778,
  "Ġmissing": 11779,
  "Ġow": 11781,
  "ĠDar": 11782,
  "inda": 11785,
  "player": 11786,
  "Ġrepro": 11787,
  "ĠLove": 11788,
  "inas": 11791,
  "ibli": 11794,
  "ĠEach": 11796,
  "Ġnit": 11797,
  "Ġreform": 11798,
  "core": 11799,
  "Ġban": 11803,
  "Ġteams": 11805,
  "Ġchalleng": 11806,
  "nb": 11807,
  "Ã³g": 11808,
  "Ġensure": 11811,
  "Ġbreath": 11812,
  "Ġcampaign": 11814,
  "OC": 11815,
  "ĠOrgan": 11818,
  "pis": 11819,
  "Ġinfo": 11820,
  "ĠHome": 11821,
  "lear": 11822,
  "ĠStand": 11823,
  "Ġprotection": 11824,
  "ĠMaj": 11826,
  "Ġpert": 11827,
  "Ġmorning": 11828,
  "Ġremaining": 11829,
  "ĠKore": 11830,
  "Ġready": 11831,
  "Ġnews": 11832,
  "Ġihn": 11833,
  "Ġdann": 11834,
  "Ġminimum": 11835,
  "uciÃ³n": 11838,
  "ĠiÃ§": 11839,
  "Ġprograms": 11840,
  "ĠColor": 11841,
  "Ġll": 11842,
  "Ġversch": 11843,
  "bul": 11844,
  "Ġsettings": 11846,
  "anned": 11847,
  "ĠRep": 11848,
  "Ġcreating": 11851,
  "ĠIsland": 11854,
  "Ġbeyond": 11855,
  "ĠDepartment": 11856,
  "Ġalgorithm": 11857,
  "ĠFort": 11858,
  "aille": 11860,
  "Ġnouveau": 11861,
  "aughter": 11863,
  "Ġdestroy": 11864,
  "Ġconfirmed": 11865,
  "Ġsan": 11866,
  "Ġsufficient": 11867,
  "Ġstudied": 11868,
  "zd": 11869,
  "ĠMatt": 11872,
  "Ġpron": 11873,
  "Don": 11874,
  "_L": 11876,
  "ĠsÃ©rie": 11878,
  "Ġjournal": 11879,
  "Ġpelo": 11880,
  "infty": 11881,
  "ĠWH": 11882,
  "Ġchemical": 11883,
  "ĠInc": 11884,
  "Ġcommercial": 11885,
  "ikk": 11887,
  "ĠÃīt": 11888,
  "itat": 11890,
  "Mon": 11891,
  "Ġweiter": 11892,
  "Oper": 11893,
  "Ġonder": 11895,
  "ĉcase": 11896,
  "card": 11897,
  "_g": 11898,
  "icio": 11901,
  "btn": 11903,
  "Ġclearly": 11904,
  "ĠJava": 11905,
  "Ġmond": 11908,
  "Ġplusieurs": 11911,
  "leich": 11912,
  "bst": 11913,
  "ĠAward": 11914,
  "Ġexposure": 11915,
  "Ġsubjects": 11916,
  "Das": 11917,
  "ls": 11919,
  "ĠMic": 11920,
  "ĠnÃ«": 11922,
  "ervlet": 11923,
  "Ġestablish": 11925,
  "angular": 11928,
  "Ġsymptoms": 11929,
  "Ġpon": 11931,
  "ibt": 11932,
  "Ġmainten": 11934,
  "Ġorganization": 11936,
  "ĠmÃ©": 11937,
  "auer": 11940,
  "SA": 11941,
  "Ġfluid": 11944,
  "ĠFurthermore": 11947,
  "hm": 11950,
  "antic": 11952,
  "Ġtradition": 11953,
  "ws": 11954,
  "Ġtempo": 11956,
  "Ġheader": 11957,
  "Ġrecords": 11958,
  "sin": 11959,
  "ĠVo": 11962,
  "ĠImage": 11967,
  "iÄĻ": 11969,
  "ĠUr": 11972,
  "Ġestaba": 11973,
  "adius": 11974,
  "encing": 11975,
  "ĠBor": 11976,
  "cluded": 11980,
  "Ġmeeting": 11981,
  "asp": 11982,
  "Ġwebsite": 11985,
  "Ġmix": 11986,
  "_V": 11990,
  "uced": 11991,
  "Ne": 11993,
  "uent": 11994,
  "yon": 11995,
  "ientes": 11996,
  "ĠCH": 11998,
  "_ex": 11999,
  "TH": 12001,
  "Ġimproved": 12002,
  "ĠAssociation": 12003,
  "Æ°á»Ŀng": 12004,
  "ims": 12006,
  "Ġbelong": 12007,
  "Nav": 12008,
  "ĠSom": 12009,
  "Ġcardi": 12010,
  "onic": 12011,
  "Ġconcentrations": 12012,
  "ĠmÃ¼": 12013,
  "eurs": 12014,
  "riend": 12017,
  "Ġinstrument": 12019,
  "yer": 12020,
  "ologies": 12021,
  "Ġdispos": 12022,
  "oking": 12023,
  "Ġlung": 12025,
  "Ġabandon": 12026,
  "reek": 12027,
  "Ġpuede": 12028,
  "Ġwild": 12038,
  "Ġkter": 12040,
  "ĠasÃŃ": 12043,
  "Ġsistema": 12046,
  "Ġdiese": 12048,
  "zeit": 12053,
  "ĠPortug": 12054,
  "km": 12055,
  "ĠDev": 12056,
  "Ġtard": 12057,
  "Ġdecreased": 12058,
  "Ġstrategy": 12059,
  "Ġgeh": 12061,
  "Ġhay": 12063,
  "Ġparallel": 12066,
  "Ġquarter": 12067,
  "Current": 12068,
  "ĠkhÃ´ng": 12070,
  "Api": 12071,
  "Ġved": 12073,
  "Ġtourn": 12074,
  "Ġplane": 12077,
  "oo": 12078,
  "ĠSant": 12079,
  "Now": 12082,
  "ĠLang": 12083,
  "Ġprison": 12084,
  "ĠShow": 12085,
  "obil": 12087,
  "Ġmedi": 12088,
  "Ġvend": 12089,
  "iÃ¨me": 12090,
  "Ġestimated": 12092,
  "Ġelectric": 12093,
  "ĠvÃ½": 12094,
  "Ġobvious": 12095,
  "ĠSz": 12096,
  "Ġpark": 12097,
  "Ġchain": 12099,
  "Ġdatas": 12102,
  "Ġlan": 12103,
  "Utils": 12105,
  "Ġideas": 12106,
  "pass": 12107,
  "emi": 12109,
  "Ä±nÄ±": 12110,
  "ĠnÃºmer": 12111,
  "Ġciudad": 12112,
  "Ã´le": 12113,
  "ĠRen": 12116,
  "essor": 12117,
  "PA": 12118,
  "ĠJim": 12119,
  "ĠTre": 12121,
  "Ġexists": 12123,
  "Ġdose": 12124,
  "outer": 12125,
  "Ġchose": 12126,
  "func": 12127,
  "Ġeye": 12128,
  "anim": 12129,
  "hund": 12131,
  "Ġicon": 12132,
  "Work": 12133,
  "Ġbij": 12134,
  "ĠdÃ©f": 12138,
  "Widget": 12139,
  "ĠSocial": 12140,
  "iego": 12143,
  "Ġwir": 12144,
  "ĠSD": 12147,
  "richt": 12148,
  "ele": 12149,
  "Ġscre": 12150,
  "oster": 12151,
  "ĠTotal": 12153,
  "ieu": 12154,
  "ILE": 12157,
  "Ġsegment": 12158,
  "Hz": 12160,
  "ĠReturn": 12162,
  "Ġexplain": 12163,
  "ĠAND": 12164,
  "Ġbou": 12165,
  "Ġfif": 12167,
  "Ġstock": 12169,
  "Ġrepres": 12170,
  "Ġkam": 12171,
  "Referee": 12173,
  "Equal": 12174,
  "Ġmedian": 12175,
  "Ġcauses": 12178,
  "Ġoperator": 12180,
  "_add": 12181,
  "Ġapro": 12182,
  "Ġsolutions": 12183,
  "emente": 12184,
  "Ġguess": 12185,
  "Ġcoe": 12186,
  "Ġoccurred": 12187,
  "ĠEle": 12190,
  "Ġtrade": 12191,
  "ĠTit": 12192,
  "ĠBus": 12193,
  "Ġcompanies": 12195,
  "ĠdÃ©part": 12196,
  "Ġpositions": 12197,
  "orders": 12198,
  "rank": 12200,
  "Ġjoint": 12201,
  "ĠArab": 12202,
  "Ġheavy": 12203,
  "enses": 12204,
  "iful": 12206,
  "Ġlatter": 12207,
  "asure": 12209,
  "ĠWhy": 12211,
  "eni": 12215,
  "Ġsafety": 12216,
  "Ġreplaced": 12217,
  "icket": 12218,
  "Comp": 12219,
  "Ġupdated": 12220,
  "DB": 12223,
  "ĠGeb": 12224,
  "Ġpolymer": 12225,
  "Ġmusical": 12226,
  "Ġdecrease": 12228,
  "Dec": 12230,
  "ĠGra": 12232,
  "Ġotherwise": 12233,
  "Ġmomento": 12234,
  "ĠPoint": 12235,
  "ĠkÃ¶z": 12236,
  "ictionary": 12237,
  "ĠBecause": 12238,
  "Ã©ric": 12241,
  "ĠAnal": 12243,
  "Ġcomprising": 12244,
  "Ġdirector": 12245,
  "ĠCarol": 12246,
  "Ġpeak": 12248,
  "ushed": 12249,
  "fs": 12250,
  "Ġduration": 12251,
  "Ġappoint": 12252,
  "inos": 12253,
  "Ġnearly": 12254,
  "loss": 12256,
  "Ġdol": 12257,
  "ĠÃ§a": 12258,
  "imit": 12259,
  "ivation": 12261,
  "Ġsociety": 12262,
  "Ŀi": 12263,
  "west": 12264,
  "Ġachieve": 12267,
  "amment": 12268,
  "Ġdefinition": 12270,
  "Ġhour": 12271,
  "oral": 12272,
  "Footnote": 12274,
  "Ġalert": 12276,
  "Ġoli": 12280,
  "Ġdisput": 12282,
  "Ġlit": 12283,
  "Ġwouldn": 12285,
  "ĠAfrica": 12286,
  "ocratic": 12287,
  "password": 12288,
  "Level": 12289,
  "Ġtrial": 12290,
  "Ġdescribe": 12293,
  "Ġaccord": 12294,
  "Ġmanifest": 12295,
  "count": 12296,
  "ĠCop": 12297,
  "Ġserved": 12298,
  "enza": 12299,
  "Ġforeign": 12300,
  "ĠHor": 12301,
  "roke": 12303,
  "Ġsignals": 12305,
  "Ġfinancial": 12306,
  "rov": 12307,
  "del": 12309,
  "users": 12312,
  "ģn": 12313,
  "idi": 12314,
  "ĠOlymp": 12315,
  "nak": 12318,
  "Ġtrust": 12319,
  "white": 12320,
  "Ġpanel": 12321,
  "Ġcanc": 12322,
  "Ġgoals": 12324,
  "ĠAk": 12325,
  "Ġadding": 12327,
  "Co": 12328,
  "Ġwind": 12330,
  "Ġtoujours": 12332,
  "Ġsquare": 12333,
  "Ġprofessional": 12334,
  "ĠSov": 12335,
  "esk": 12336,
  "cat": 12338,
  "Ġfaz": 12339,
  "oded": 12341,
  "ĠLine": 12343,
  "ERR": 12344,
  "ovan": 12345,
  "Ġlargest": 12347,
  "ĠProv": 12348,
  "Adapter": 12349,
  "âĢĻaut": 12351,
  "uÃŁ": 12352,
  "oses": 12353,
  "nten": 12356,
  "Ġseek": 12358,
  "Each": 12359,
  "ĠOt": 12360,
  "Ġhall": 12361,
  "gru": 12362,
  "ielt": 12364,
  "hetic": 12365,
  "Ġoccurs": 12366,
  "agram": 12367,
  "Ġfill": 12369,
  "rics": 12371,
  "Ġcort": 12373,
  "model": 12377,
  "Ġresponsible": 12378,
  "Ãłi": 12380,
  "OW": 12381,
  "ĠBob": 12382,
  "Ġcritic": 12383,
  "icity": 12387,
  "Ġgeneration": 12388,
  "Ġtorn": 12389,
  "oon": 12392,
  "ĠFried": 12395,
  "space": 12398,
  "orf": 12399,
  "enas": 12400,
  "ĠError": 12401,
  "ĠInstitute": 12403,
  "ientras": 12404,
  "wan": 12407,
  "ĠSar": 12409,
  "ĠSel": 12412,
  "Ġreserv": 12417,
  "Ġtiene": 12418,
  "Ġaffected": 12419,
  "Ġplaces": 12421,
  "rif": 12423,
  "ĠgÃ©nÃ©ral": 12425,
  "Ġherself": 12427,
  "leq": 12428,
  "Ġgrid": 12429,
  "ĠMoreover": 12431,
  "Ġfourth": 12432,
  "á»ĳc": 12433,
  "Ġpom": 12435,
  "urb": 12436,
  "porte": 12437,
  "Ġdownload": 12438,
  "Ġbin": 12439,
  "Ġplaying": 12440,
  "igne": 12441,
  "Ġbone": 12442,
  "phen": 12443,
  "Ġpela": 12444,
  "ĠRoad": 12445,
  "Ã¤hrend": 12446,
  "Ġoh": 12447,
  "agai": 12448,
  "Ġsensor": 12450,
  "_x": 12454,
  "ariable": 12456,
  "ERE": 12457,
  "Ġpla": 12458,
  "Ġhear": 12459,
  "ĠCard": 12460,
  "Ġrect": 12461,
  "itivity": 12462,
  "Left": 12463,
  "Option": 12465,
  "atos": 12466,
  "issa": 12467,
  "utils": 12469,
  "Ġscience": 12470,
  "Ġharm": 12471,
  "Ġplants": 12474,
  "Ġuint": 12476,
  "tober": 12477,
  "Ġrich": 12478,
  "inet": 12479,
  "Ġvy": 12480,
  "Ġgoes": 12481,
  "ading": 12482,
  "Can": 12483,
  "idel": 12484,
  "Ġdich": 12486,
  "Net": 12489,
  "ometry": 12490,
  "ska": 12491,
  "Ġquelques": 12492,
  "Ġperhaps": 12494,
  "yal": 12495,
  "ĠGuer": 12498,
  "Ġdaily": 12499,
  "icated": 12500,
  "Ġreports": 12501,
  "zw": 12503,
  "inu": 12505,
  "Ġcollabor": 12507,
  "Details": 12508,
  "Ġjavax": 12511,
  "Ġopin": 12514,
  "Args": 12515,
  "pressed": 12516,
  "Å¾e": 12518,
  "strong": 12521,
  "Ġregarding": 12522,
  "Ġvirus": 12524,
  "ĠpÃ©ri": 12525,
  "Ġembodiments": 12527,
  "Æ°á»Ľc": 12528,
  "Ġprima": 12529,
  "esa": 12530,
  "ĠtambÃ©m": 12531,
  "ĠKn": 12532,
  "ĠBra": 12534,
  "echo": 12535,
  "ĠMem": 12536,
  "Ġtant": 12537,
  "document": 12538,
  "CR": 12540,
  "top": 12541,
  "Ġgain": 12542,
  "ĠHot": 12543,
  "Ġdonc": 12546,
  "ĠtÃªte": 12547,
  "Ã¨rent": 12550,
  "Ġsuggests": 12551,
  "Ġboy": 12552,
  "ouv": 12553,
  "venue": 12555,
  "Ġautre": 12556,
  "ĠCheck": 12558,
  "Ġcontrols": 12559,
  "SELECT": 12562,
  "Ġore": 12564,
  "ĠBack": 12565,
  "Ġking": 12566,
  "Ġfueron": 12567,
  "ĠBase": 12569,
  "ĠOh": 12573,
  "azz": 12574,
  "orph": 12575,
  "ĠTw": 12576,
  "Ġspecified": 12581,
  "Ġrout": 12582,
  "Selector": 12584,
  "Ġflag": 12585,
  "ĠIll": 12587,
  "ĠVis": 12588,
  "Ġtools": 12589,
  "ĠSpan": 12591,
  "Ġslightly": 12593,
  "Port": 12596,
  "Let": 12598,
  "Ġkle": 12601,
  "Ġwood": 12603,
  "ĠCult": 12604,
  "Ġmainly": 12606,
  "atever": 12609,
  "Ġquer": 12610,
  "ecut": 12611,
  "Dev": 12612,
  "fix": 12613,
  "Ġstre": 12614,
  "heim": 12616,
  "Length": 12618,
  "teen": 12622,
  "KE": 12623,
  "Ġuz": 12624,
  "Ġmanager": 12625,
  "rant": 12626,
  "Ġconsult": 12627,
  "Ġcum": 12628,
  "Ġmechanisms": 12630,
  "Ġtiempo": 12631,
  "nam": 12632,
  "ĠBank": 12634,
  "Ġdiscussed": 12636,
  "ĠGar": 12638,
  "mult": 12639,
  "Ġcui": 12640,
  "Ġtrat": 12642,
  "Ġminist": 12644,
  "empty": 12647,
  "ĠCON": 12648,
  "Ġreq": 12649,
  "owa": 12650,
  "ĠEqu": 12652,
  "stru": 12653,
  "ĠTeil": 12654,
  "weise": 12657,
  "ĠMass": 12658,
  "Body": 12660,
  "Ġdiagnosis": 12661,
  "Ġsafe": 12663,
  "iáº¿n": 12664,
  "Ġconvent": 12665,
  "Ġeth": 12666,
  "Ġaur": 12667,
  "Ġapparatus": 12669,
  "router": 12670,
  "Ġjest": 12672,
  "ĠTex": 12673,
  "ĠMen": 12674,
  "cules": 12675,
  "Ã¡ny": 12676,
  "Ġhundred": 12677,
  "ĠResults": 12678,
  "ĠProm": 12681,
  "Ġinflamm": 12682,
  "_ID": 12683,
  "Ġrepresented": 12685,
  "delete": 12686,
  "eh": 12687,
  "Hist": 12688,
  "Ġdry": 12689,
  "Ġsag": 12690,
  "Ġproc": 12691,
  "Ġsurvival": 12692,
  "overs": 12694,
  "Ġsubstrate": 12695,
  "usammen": 12696,
  "ĠHal": 12697,
  "price": 12698,
  "Ġquart": 12699,
  "Ġenjoy": 12700,
  "aug": 12702,
  "Ġstri": 12704,
  "Ġdetail": 12705,
  "Ġamer": 12706,
  "nal": 12707,
  "emic": 12708,
  "conf": 12709,
  "nah": 12710,
  "Ġconsistent": 12714,
  "gamma": 12715,
  "ĠFrancisco": 12717,
  "Ġcelebr": 12718,
  "gang": 12720,
  "ĠQual": 12722,
  "icago": 12723,
  "Ġfear": 12725,
  "Ġchoose": 12729,
  "Ġsynt": 12730,
  "Ġotros": 12731,
  "ribu": 12732,
  "delta": 12734,
  "uelle": 12736,
  "GB": 12737,
  "Ġreasons": 12738,
  "anges": 12740,
  "jan": 12742,
  "Ġmaster": 12743,
  "Ġbio": 12745,
  "Ġpag": 12746,
  "ĠGeme": 12748,
  "erman": 12749,
  "Ġhappened": 12751,
  "ĠmÃ©t": 12752,
  "ourse": 12753,
  "isher": 12754,
  "sey": 12757,
  "mond": 12759,
  "á»¯ng": 12760,
  "Ġequipment": 12761,
  "AF": 12763,
  "arp": 12765,
  "ĠIsrael": 12766,
  "Ġadvantage": 12772,
  "avel": 12773,
  "hundert": 12774,
  "Ġrestaur": 12777,
  "reh": 12779,
  "velle": 12781,
  "Ġmission": 12782,
  "Route": 12783,
  "ĠAcadem": 12784,
  "Ġship": 12785,
  "Ġeveryone": 12787,
  "ĠPS": 12789,
  "cm": 12790,
  "Note": 12791,
  "Ġestas": 12792,
  "Ġmater": 12793,
  "Ġbooks": 12796,
  "_value": 12797,
  "untime": 12798,
  "Ġshot": 12800,
  "Â°C": 12801,
  "ĠField": 12803,
  "Ġmenu": 12804,
  "ĠStra": 12805,
  "Ġburn": 12811,
  "Ġrestrict": 12812,
  "ĠSud": 12813,
  "unes": 12814,
  "Ġdrink": 12815,
  "ĠGall": 12816,
  "Ġdifferenti": 12817,
  "othing": 12818,
  "ĠFalse": 12819,
  "Ġspirit": 12820,
  "Ġnaz": 12821,
  "bro": 12823,
  "Ġrit": 12824,
  "ĠSociety": 12826,
  "ĠMap": 12829,
  "Ġmixed": 12830,
  "áºŃp": 12831,
  "ĠJahre": 12835,
  "teil": 12836,
  "Ġtypically": 12837,
  "Ġcolumns": 12838,
  "Ġsuis": 12839,
  "big": 12840,
  "ĠKarl": 12841,
  "Ġpp": 12842,
  "ĠInteger": 12844,
  "aran": 12845,
  "Red": 12846,
  "icks": 12849,
  "Ġassembly": 12850,
  "izo": 12852,
  "otte": 12854,
  "Ġjoin": 12855,
  "number": 12856,
  "Ġpretty": 12857,
  "Ġformal": 12859,
  "Ġselon": 12860,
  "stad": 12861,
  "raction": 12862,
  "Sl": 12863,
  "Ġeventually": 12864,
  "Ġanalyses": 12865,
  "Ġdynamic": 12866,
  "Ġoxid": 12868,
  "Ġefficient": 12871,
  "Ġworth": 12872,
  "Ġdru": 12875,
  "nat": 12876,
  "ĠCI": 12877,
  "Ġgets": 12878,
  "Ġconstitu": 12879,
  "omega": 12880,
  "_str": 12881,
  "Ġdebut": 12882,
  "Ġdepth": 12883,
  "Ġvier": 12884,
  "Ġcaso": 12886,
  "TA": 12887,
  "Ġsuperior": 12888,
  "Ġcosts": 12889,
  "Ġdespite": 12890,
  "Rem": 12891,
  "ĠFestival": 12892,
  "Application": 12893,
  "iams": 12895,
  "Login": 12897,
  "Ġjur": 12898,
  "Ġspr": 12899,
  "Ġseconds": 12900,
  "src": 12901,
  "lat": 12902,
  "velopment": 12905,
  "cie": 12907,
  "ĠMuseum": 12909,
  "ĠCE": 12911,
  "Ġtah": 12914,
  "appe": 12915,
  "embro": 12916,
  "ĠArgent": 12917,
  "chron": 12918,
  "ĠJapanese": 12919,
  "Ġmouse": 12920,
  "Ġcool": 12921,
  "annels": 12922,
  "Ġrecommend": 12923,
  "Ġequation": 12927,
  "ĠFROM": 12929,
  "vector": 12931,
  "ĠSand": 12933,
  "ĠAfrican": 12934,
  "lio": 12935,
  "Ġdia": 12936,
  "Ġuniform": 12937,
  "ĠUne": 12939,
  "Ġspeak": 12940,
  "ĠBrown": 12944,
  "Ġreceiving": 12946,
  "Ġpok": 12947,
  "Ġllam": 12949,
  "asÄ±": 12950,
  "rar": 12951,
  "ĠBoth": 12953,
  "Ġachieved": 12955,
  "dule": 12956,
  "Ġmental": 12957,
  "ĠlÃ©g": 12958,
  "Ġsubstit": 12959,
  "Next": 12961,
  "ridge": 12962,
  "Ġrows": 12964,
  "ĠJon": 12965,
  "áºŃt": 12966,
  "ĠSun": 12967,
  "Ġmotion": 12968,
  "Ġwhom": 12970,
  "Ã¤ter": 12972,
  "Ġinjury": 12973,
  "avascript": 12974,
  "Ġoperating": 12975,
  "ĠJahrhundert": 12977,
  "Ġseit": 12978,
  "Ġtá»«": 12980,
  "á»ĳi": 12981,
  "ÃŃch": 12985,
  "ĠnhÆ°": 12987,
  "Ã¢t": 12990,
  "oso": 12992,
  "Ġpent": 12994,
  "inha": 12996,
  "Store": 12997,
  "Ġion": 12998,
  "ĠNacional": 13000,
  "Ġhus": 13003,
  "ĠJohann": 13005,
  "Ġidentity": 13006,
  "insert": 13007,
  "appro": 13008,
  "heet": 13009,
  "background": 13012,
  "ĠÃºlt": 13013,
  "Ps": 13014,
  "Ġsevere": 13015,
  "Ġast": 13018,
  "Ġsigned": 13019,
  "_info": 13021,
  "Ġcyt": 13022,
  "second": 13023,
  "kon": 13024,
  "Ġvacc": 13025,
  "iot": 13030,
  "Ġthreat": 13035,
  "Ġscope": 13036,
  "ceived": 13038,
  "aca": 13039,
  "register": 13040,
  "ĠÃºn": 13041,
  "Ġrepresents": 13043,
  "ĠHam": 13044,
  "Ġcriteria": 13045,
  "Ġraised": 13046,
  "Ġjanvier": 13048,
  "Que": 13049,
  "aret": 13050,
  "normal": 13052,
  "Ġschools": 13053,
  "Ġadmin": 13054,
  "riage": 13055,
  "Session": 13056,
  "ĠJun": 13057,
  "Version": 13058,
  "yes": 13059,
  "AGE": 13060,
  "ento": 13061,
  "ĠMi": 13064,
  "boot": 13066,
  "Ġfilms": 13068,
  "Ä±k": 13070,
  "Ġextended": 13071,
  "Ġoblig": 13072,
  "oren": 13073,
  "Ġcold": 13074,
  "ogo": 13075,
  "unter": 13076,
  "Ġcalc": 13077,
  "Ġpiece": 13079,
  "ĠreprÃ©s": 13080,
  "ansion": 13081,
  "Ġpicture": 13083,
  "isto": 13084,
  "Ġworkers": 13085,
  "Ġenerg": 13086,
  "Ġextension": 13088,
  "cribe": 13089,
  "aha": 13090,
  "Ġvid": 13091,
  "Ġoutcomes": 13092,
  "Ġgard": 13093,
  "âĢĻin": 13095,
  "fÃ¼hr": 13096,
  "Reader": 13097,
  "Ġimper": 13098,
  "Ġcorre": 13100,
  "stances": 13101,
  "lieÃŁ": 13102,
  "ĠEduc": 13103,
  "Ġpopulations": 13104,
  "Ġjamais": 13106,
  "Ġsurgery": 13109,
  "ongo": 13110,
  "ivos": 13111,
  "Ġgrupo": 13113,
  "orie": 13115,
  "ĠPri": 13117,
  "ĠVers": 13120,
  "crete": 13123,
  "zel": 13124,
  "ipher": 13125,
  "pet": 13127,
  "Ġguerra": 13128,
  "amo": 13129,
  "Ġvic": 13130,
  "Ġty": 13132,
  "ĠthÃłnh": 13133,
  "Storage": 13134,
  "ĠzurÃ¼ck": 13135,
  "Ġcompounds": 13136,
  "roc": 13137,
  "zÅĳ": 13138,
  "Ġparams": 13139,
  "Ġheter": 13140,
  "Ġgone": 13141,
  "ĠmÃ©s": 13142,
  "Ã¨n": 13143,
  "Ġbrother": 13147,
  "Ver": 13148,
  "nbsp": 13151,
  "login": 13153,
  "Ġespecial": 13154,
  "Ã¡ri": 13155,
  "Ġsplit": 13156,
  "ĠSong": 13157,
  "ĠÃ©qu": 13158,
  "jar": 13159,
  "ĠDistrict": 13160,
  "ĠPas": 13161,
  "Ġmaybe": 13162,
  "zÄħ": 13164,
  "Ġvertical": 13166,
  "acity": 13167,
  "Ġfinding": 13170,
  "lementary": 13171,
  "ĠMS": 13172,
  "Ġpure": 13173,
  "ulating": 13176,
  "Ġfair": 13177,
  "unden": 13178,
  "Ġgenetic": 13179,
  "Params": 13180,
  "Ġella": 13182,
  "_count": 13183,
  "Ġsek": 13185,
  "Ġfamilies": 13187,
  "dem": 13188,
  "rogen": 13191,
  "Ġcalls": 13193,
  "apped": 13194,
  "rosc": 13195,
  "_e": 13196,
  "Ġsod": 13197,
  "nier": 13198,
  "process": 13199,
  "Ã¶t": 13201,
  "Ġersten": 13202,
  "ostic": 13203,
  "Function": 13204,
  "info": 13205,
  "asil": 13209,
  "rays": 13210,
  "nih": 13212,
  "urance": 13213,
  "ĠProject": 13217,
  "Ġmask": 13218,
  "oti": 13219,
  "onym": 13221,
  "ĠArm": 13222,
  "ĠOrder": 13223,
  "Ã¡st": 13224,
  "ĠUnder": 13225,
  "ĠEgy": 13226,
  "ygen": 13227,
  "Min": 13228,
  "ĠÃ©taient": 13229,
  "ĠEuropa": 13230,
  "Ġstood": 13231,
  "Ġreceptor": 13232,
  "Ġderived": 13233,
  "aped": 13234,
  "ĠURL": 13236,
  "GET": 13239,
  "ĠIns": 13240,
  "iá»ĩn": 13241,
  "ĠAre": 13242,
  "Ġiron": 13245,
  "kins": 13247,
  "ĠDans": 13248,
  "selected": 13250,
  "Ġfais": 13251,
  "Ġdiet": 13252,
  "Ġsport": 13253,
  "gli": 13254,
  "Process": 13255,
  "Account": 13256,
  "OK": 13257,
  "Project": 13258,
  "Ġgroupe": 13259,
  "ĠCharl": 13261,
  "osi": 13263,
  "inity": 13265,
  "double": 13267,
  "Ġfinale": 13268,
  "Ġagents": 13269,
  "Ġerst": 13271,
  "Ġencou": 13272,
  "Ġbez": 13273,
  "Ġoffset": 13274,
  "EC": 13275,
  "etting": 13276,
  "Ġhaut": 13277,
  "Ġbatter": 13279,
  "Ġhtml": 13280,
  "acion": 13281,
  "Ġalc": 13282,
  "Ġformula": 13284,
  "Ġanalyzed": 13285,
  "_key": 13286,
  "Ġcompound": 13288,
  "Ġcorrelation": 13289,
  "Ġagosto": 13290,
  "Ġagreement": 13291,
  "Ġapart": 13292,
  "ĉs": 13293,
  "Ġfeeling": 13294,
  "ĠHans": 13295,
  "Ġadministr": 13296,
  "False": 13297,
  "det": 13300,
  "Ġzeuden": 13302,
  "Ġentity": 13304,
  "unkt": 13305,
  "ancer": 13307,
  "etti": 13309,
  "isÃ©e": 13310,
  "Ġwenn": 13313,
  "aat": 13317,
  "ĠNam": 13319,
  "iek": 13320,
  "Ġngh": 13324,
  "Ġmetabol": 13325,
  "inden": 13326,
  "Ġscene": 13327,
  "Ġmodified": 13330,
  "esti": 13332,
  "ĠScience": 13333,
  "Ġleads": 13335,
  "ĠStart": 13336,
  "AX": 13339,
  "Ġwish": 13341,
  "Unit": 13344,
  "Ġreferred": 13345,
  "ĠGoogle": 13346,
  "iendo": 13348,
  "Ġmundo": 13349,
  "_user": 13350,
  "Ġdonn": 13351,
  "Ġconoc": 13353,
  "cious": 13354,
  "Ġleaving": 13355,
  "Ġinstru": 13357,
  "ĠFound": 13358,
  "Right": 13362,
  "rick": 13365,
  "Ã¹ng": 13367,
  "orte": 13368,
  "Ġoptical": 13369,
  "Art": 13370,
  "Ġriv": 13371,
  "Ġtrigger": 13372,
  "Ġprod": 13373,
  "Ġdistrict": 13375,
  "Ġemph": 13379,
  "Non": 13382,
  "Ġlands": 13383,
  "Ġkonnte": 13386,
  "ĠInf": 13387,
  "Ġnodes": 13390,
  "Ġappreci": 13391,
  "Ġjoined": 13392,
  "Ġporte": 13393,
  "what": 13394,
  "ostaÅĤ": 13395,
  "Ġpoll": 13396,
  "Ġdirectory": 13401,
  "TR": 13404,
  "Ġframework": 13406,
  "ĠGesch": 13407,
  "chter": 13409,
  "itet": 13410,
  "Ġsuccessfully": 13411,
  "Ġenvironmental": 13412,
  "Ġaccum": 13413,
  "presa": 13414,
  "Ġquand": 13415,
  "Ġost": 13416,
  "length": 13418,
  "Ġparticles": 13419,
  "born": 13421,
  "ÈĽi": 13422,
  "Ġcamera": 13424,
  "Ġbrief": 13426,
  "Ġfabric": 13430,
  "Ġrein": 13433,
  "Ġmere": 13435,
  "halten": 13436,
  "Ġjedoch": 13438,
  "Ġposit": 13439,
  "ĠHill": 13441,
  "Ġparse": 13442,
  "ibles": 13443,
  "omes": 13444,
  "Ġinfer": 13445,
  "ĠBand": 13446,
  "ĠLife": 13447,
  "Ġfarm": 13448,
  "Ġplans": 13449,
  "alah": 13450,
  "bitro": 13451,
  "Ġretr": 13452,
  "Ġnm": 13454,
  "ellt": 13457,
  "Total": 13458,
  "ĠOld": 13459,
  "MI": 13460,
  "ĠCA": 13461,
  "cipl": 13462,
  "ISBN": 13463,
  "ĠStar": 13465,
  "Ġgef": 13466,
  "Ġcomprises": 13468,
  "Ġexplained": 13471,
  "Ġthreshold": 13472,
  "aÃ±a": 13473,
  "_index": 13475,
  "Ġmine": 13476,
  "itors": 13479,
  "Ġcycl": 13480,
  "ĠIS": 13481,
  "Ã¼m": 13482,
  "Ã©ment": 13483,
  "Los": 13484,
  "Ġleader": 13485,
  "Ġatm": 13486,
  "ĠRay": 13488,
  "ĠIP": 13489,
  "ÉĻs": 13491,
  "Ġgly": 13492,
  "grid": 13493,
  "Ġinde": 13494,
  "Ġexempl": 13496,
  "ners": 13497,
  "Ġcelui": 13499,
  "ĠbaÅŁ": 13500,
  "Ġtox": 13501,
  "Ġoffered": 13502,
  "eri": 13503,
  "yo": 13504,
  "Collection": 13505,
  "anno": 13507,
  "Last": 13508,
  "Ġodd": 13509,
  "rice": 13512,
  "rez": 13514,
  "LC": 13515,
  "ĠUse": 13516,
  "Sim": 13517,
  "stood": 13518,
  "ĠOR": 13519,
  "orption": 13521,
  "ateurs": 13522,
  "Ġrub": 13523,
  "ffent": 13525,
  "oving": 13526,
  "ecurity": 13527,
  "Ġett": 13528,
  "Ã½m": 13529,
  "Stat": 13530,
  "Ġcircum": 13533,
  "Ġcontrolled": 13534,
  "Ġpages": 13536,
  "ixel": 13537,
  "Ġpulled": 13538,
  "ĠKr": 13539,
  "sim": 13540,
  "Ġfootball": 13546,
  "Ġdirig": 13547,
  "Ġdress": 13548,
  "vare": 13549,
  "ĠMany": 13551,
  "zk": 13552,
  "hape": 13553,
  "wart": 13555,
  "ĠException": 13556,
  "Ã©ra": 13557,
  "Ġrh": 13558,
  "Ġplasma": 13561,
  "azine": 13563,
  "Ġnome": 13564,
  "ovie": 13569,
  "ĠfranÃ§ais": 13570,
  "elijk": 13572,
  "zym": 13573,
  "ĠExt": 13575,
  "assets": 13577,
  "Ġrepeated": 13578,
  "ĠsÃ£o": 13579,
  "Ġdeveloping": 13580,
  "ĠPed": 13581,
  "Ġprojects": 13584,
  "Ġfrag": 13585,
  "ĠBal": 13586,
  "Ġweit": 13588,
  "Ġkol": 13589,
  "eko": 13590,
  "Ġexchange": 13591,
  "Ġencontr": 13592,
  "Ġlives": 13595,
  "ingle": 13597,
  "Ġpier": 13598,
  "plex": 13600,
  "itas": 13601,
  "Ġkr": 13603,
  "Ġib": 13604,
  "Ġinteractions": 13606,
  "Ġpand": 13608,
  "estion": 13611,
  "Ġmuscle": 13612,
  "Ġaspects": 13613,
  "Ġcogn": 13615,
  "Delete": 13616,
  "_W": 13618,
  "Ġderiv": 13619,
  "ĠUk": 13621,
  "uler": 13623,
  "Ġsimpl": 13625,
  "rique": 13626,
  "Ġcoach": 13627,
  "ĠTri": 13629,
  "fen": 13630,
  "omo": 13632,
  "pping": 13633,
  "Ġultim": 13634,
  "uli": 13636,
  "Ġsyst": 13637,
  "Ġdiscussion": 13639,
  "ĠRh": 13640,
  "ĠgÃ¶": 13641,
  "umes": 13642,
  "Ġmeasurement": 13644,
  "ĠBund": 13646,
  "Ġalgun": 13647,
  "Attendance": 13648,
  "ĠGood": 13649,
  "Ġintended": 13650,
  "olds": 13654,
  "module": 13655,
  "ĠnÃºmero": 13657,
  "Ġbesch": 13658,
  "Ġprol": 13659,
  "cale": 13660,
  "ĠForce": 13661,
  "Ġevaluation": 13664,
  "Ġdetermin": 13668,
  "ommen": 13669,
  "ĠsÃ³": 13671,
  "layout": 13672,
  "istence": 13674,
  "Ġjuillet": 13675,
  "once": 13676,
  "Ġparl": 13678,
  "cence": 13679,
  "Ġrail": 13680,
  "Ġkat": 13681,
  "haus": 13682,
  "_test": 13683,
  "Ġsuitable": 13684,
  "xx": 13686,
  "console": 13687,
  "ĠCarlos": 13688,
  "Ġjuin": 13691,
  "ĠdÃ©but": 13692,
  "Ġwire": 13694,
  "Ġtruth": 13697,
  "Ġcelle": 13698,
  "asy": 13699,
  "into": 13702,
  "Ġspecifically": 13703,
  "ĠSir": 13704,
  "DR": 13705,
  "izz": 13706,
  "amental": 13707,
  "ĠNote": 13708,
  "Ġindicates": 13709,
  "Category": 13711,
  "Ġdrei": 13712,
  "Ġcir": 13715,
  "Ġelectron": 13717,
  "Ġtipo": 13718,
  "HP": 13719,
  "Ġchi": 13720,
  "Ġaer": 13721,
  "olution": 13722,
  "Ġsá»ĳ": 13728,
  "Ġurban": 13729,
  "Ġabsence": 13730,
  "ees": 13731,
  "iral": 13732,
  "refer": 13733,
  "ĠKey": 13734,
  "Ġsigu": 13735,
  "grade": 13736,
  "apat": 13738,
  "ouch": 13741,
  "Ġfest": 13743,
  "clos": 13744,
  "ĠElect": 13747,
  "Ġscores": 13748,
  "ĠVen": 13749,
  "iá»ģu": 13750,
  "Ġprzez": 13751,
  "ERT": 13752,
  "bas": 13753,
  "CS": 13754,
  "_i": 13755,
  "Ġposterior": 13756,
  "Ġpreced": 13758,
  "awa": 13759,
  "ĠkÃ¶nnen": 13760,
  "ĠSport": 13762,
  "ĠCommand": 13763,
  "emia": 13765,
  "Ġdisse": 13767,
  "pository": 13769,
  "Ġmaj": 13770,
  "Ġfal": 13772,
  "Ġvary": 13774,
  "kk": 13775,
  "Ġbreast": 13777,
  "Ġmagnetic": 13778,
  "was": 13779,
  "Ġdistingu": 13780,
  "Ġbah": 13781,
  "Ġefforts": 13782,
  "Ġjours": 13784,
  "oter": 13790,
  "Ġtwe": 13791,
  "Ġrequirements": 13795,
  "ĠpÃºblic": 13797,
  "ĠEmp": 13798,
  "ĠMount": 13799,
  "that": 13800,
  "edom": 13804,
  "ĠJones": 13806,
  "ĠAlf": 13807,
  "istent": 13808,
  "Ġmixture": 13810,
  "ĠWilliams": 13812,
  "bug": 13813,
  "Ġhin": 13814,
  "opic": 13815,
  "Ġextent": 13820,
  "anted": 13821,
  "ijo": 13822,
  "Ġeditor": 13823,
  "Ġsubsequent": 13827,
  "Ġaward": 13828,
  "atik": 13829,
  "ĠYes": 13830,
  "iffer": 13831,
  "ACK": 13832,
  "Ġapare": 13834,
  "Ġstopped": 13835,
  "ĠPlan": 13836,
  "Ġscored": 13837,
  "Obj": 13838,
  "Equals": 13840,
  "Selected": 13841,
  "ourd": 13842,
  "cor": 13843,
  "Ġniet": 13844,
  "Ġdeclar": 13846,
  "ĠDeb": 13847,
  "Ã§on": 13850,
  "mid": 13852,
  "ulla": 13853,
  "ĠStan": 13855,
  "Tag": 13856,
  "ĠSche": 13863,
  "Ġbalance": 13864,
  "ĠPac": 13866,
  "esen": 13867,
  "Ġmeasurements": 13868,
  "Ġpunt": 13871,
  "Ġefficiency": 13873,
  "Ġvisible": 13874,
  "Ġcovered": 13875,
  "entry": 13877,
  "Ġsusp": 13879,
  "aines": 13880,
  "Ġretain": 13881,
  "Ġook": 13882,
  "rho": 13883,
  "vÃ©": 13885,
  "lets": 13886,
  "ĠAth": 13889,
  "Ġhá»į": 13891,
  "ĠBru": 13893,
  "Ġthous": 13894,
  "ĠSign": 13896,
  "Op": 13897,
  "ĠHan": 13898,
  "itative": 13899,
  "_com": 13900,
  "Ã¡rio": 13901,
  "_date": 13902,
  "Ġdalla": 13903,
  "erta": 13904,
  "ĠvÃ©": 13906,
  "Ġplot": 13910,
  "ĠAR": 13911,
  "ollowing": 13912,
  "Ġspent": 13914,
  "zon": 13915,
  "operator": 13917,
  "Ġgy": 13918,
  "ĠNumber": 13920,
  "Ġclaims": 13921,
  "ulin": 13922,
  "Ãªs": 13923,
  "Ġindustrial": 13924,
  "ois": 13927,
  "application": 13928,
  "Access": 13929,
  "ĠIls": 13930,
  "Price": 13931,
  "owe": 13933,
  "Ã¶rt": 13934,
  "Ä±nÄ±n": 13936,
  "Go": 13937,
  "Ã¢y": 13941,
  "CP": 13943,
  "eding": 13944,
  "Ġalco": 13945,
  "Ġjs": 13946,
  "float": 13948,
  "Ġmarked": 13949,
  "ĠDisc": 13950,
  "Ġlogic": 13951,
  "anza": 13952,
  "ilarly": 13953,
  "osh": 13954,
  "Ġended": 13955,
  "iso": 13956,
  "Ġreconst": 13957,
  "Ke": 13958,
  "Ġrien": 13961,
  "Entry": 13962,
  "rate": 13963,
  "Ġfragment": 13964,
  "_E": 13965,
  "ircraft": 13966,
  "Ġdeutscher": 13967,
  "ĠCode": 13968,
  "Ġmerc": 13969,
  "Ġdanger": 13970,
  "Ġchair": 13971,
  "Ġgem": 13974,
  "Ġpermit": 13976,
  "Ġvide": 13978,
  "ancia": 13979,
  "ĠPlease": 13980,
  "enger": 13981,
  "Arg": 13983,
  "unde": 13984,
  "Ġevaluated": 13985,
  "ega": 13987,
  "Ġappearance": 13988,
  "amples": 13989,
  "encias": 13990,
  "Ġmanaged": 13991,
  "paÃ±": 13993,
  "Ġprintf": 13995,
  "icians": 13997,
  "Ġgrowing": 13999,
  "ĠDam": 14001,
  "Ġforced": 14006,
  "ichte": 14007,
  "Ġsynd": 14009,
  "ĠInternet": 14011,
  "ĠProduct": 14012,
  "Ġassessment": 14013,
  "ĠCommit": 14014,
  "Ġsuppl": 14015,
  "quare": 14016,
  "Ġpied": 14017,
  "ĠRog": 14018,
  "Ġyourself": 14019,
  "uar": 14020,
  "Ġchanging": 14022,
  "Ġdesired": 14024,
  "Ġconfigured": 14025,
  "Ġhighlight": 14026,
  "Ġparties": 14027,
  "Ġviews": 14028,
  "Ġbranch": 14029,
  "ĠPierre": 14033,
  "uture": 14036,
  "Ġquatre": 14037,
  "Ġflat": 14038,
  "Ġspring": 14039,
  "ĠJud": 14043,
  "ician": 14044,
  "Ġporque": 14046,
  "Ġguide": 14047,
  "Ġplurality": 14049,
  "source": 14050,
  "Ġsister": 14051,
  "abeth": 14054,
  "Ġartist": 14055,
  "Ġstable": 14056,
  "Ġgrandes": 14057,
  "dependent": 14058,
  "ĠsÃº": 14059,
  "Ġdiseases": 14060,
  "Ġliver": 14061,
  "mic": 14062,
  "Ġentered": 14063,
  "Ġnhá»¯ng": 14067,
  "Ġcompare": 14068,
  "ilib": 14070,
  "Ġcapable": 14071,
  "Ġers": 14072,
  "ĠRam": 14073,
  "Ġtravers": 14075,
  "ogene": 14076,
  "Ġlinked": 14078,
  "Ġmiles": 14079,
  "actor": 14080,
  "Ġinterview": 14081,
  "Ġesper": 14084,
  "Ġpin": 14086,
  "Ġgab": 14087,
  "ĠNO": 14089,
  "Ġsalt": 14091,
  "stead": 14092,
  "Ġinvent": 14093,
  "ĠMai": 14094,
  "ship": 14096,
  "Ġgiá»": 14098,
  "ĠOnly": 14099,
  "aneous": 14100,
  "after": 14101,
  "Ġei": 14102,
  "ĠHistory": 14103,
  "Ġspot": 14104,
  "Ġinduced": 14107,
  "Ġkhi": 14110,
  "edd": 14111,
  "Ġmenos": 14112,
  "agi": 14114,
  "Ġregional": 14115,
  "ĠFire": 14116,
  "ĠRecords": 14117,
  "Ġcontinuous": 14118,
  "Ġexclus": 14119,
  "Ġile": 14121,
  "ĠWelt": 14122,
  "rees": 14124,
  "Ã¤m": 14125,
  "onne": 14126,
  "Ġearth": 14127,
  "Ġobjet": 14128,
  "Ġouter": 14129,
  "amt": 14131,
  "ucture": 14132,
  "ĉt": 14133,
  "ĠSQL": 14136,
  "Ġhyper": 14137,
  "_R": 14138,
  "Ã¤d": 14139,
  "Ġneu": 14141,
  "stack": 14143,
  "ĠDou": 14144,
  "Ġcustomer": 14146,
  "ĠJohnson": 14148,
  "Cal": 14150,
  "ĠTown": 14151,
  "Ġdoll": 14153,
  "Ġpendant": 14154,
  "Ġmostly": 14155,
  "Ġimmune": 14156,
  "lov": 14157,
  "Ġoutcome": 14162,
  "Ã©ration": 14163,
  "Ġinteresting": 14165,
  "Ġprotocol": 14166,
  "usi": 14168,
  "Ã©rieur": 14169,
  "Ġsequences": 14170,
  "ĠRussian": 14171,
  "Ġchosen": 14173,
  "Ġmatches": 14175,
  "amine": 14176,
  "Ġkick": 14178,
  "lij": 14179,
  "unci": 14180,
  "Ġserum": 14181,
  "ĠsÄĥ": 14182,
  "Ġunknown": 14183,
  "ĠChicago": 14184,
  "Ġgrav": 14186,
  "Ġvariation": 14187,
  "ancing": 14188,
  "ĠON": 14189,
  "Ġconstructor": 14191,
  "mb": 14192,
  "Ġmessages": 14193,
  "antly": 14194,
  "ensus": 14197,
  "ĠJu": 14198,
  "orio": 14202,
  "Ġderni": 14205,
  "Ġintensity": 14208,
  "Description": 14209,
  "ĠAwards": 14210,
  "Ġdispl": 14212,
  "access": 14213,
  "acer": 14214,
  "ĠCS": 14215,
  "Ġadvance": 14216,
  "byte": 14218,
  "Ġmigr": 14219,
  "eral": 14220,
  "Ġhappen": 14222,
  "weg": 14225,
  "ĠUsing": 14226,
  "Ġese": 14227,
  "rastr": 14228,
  "AA": 14229,
  "transform": 14230,
  "ĠNap": 14231,
  "Ġholding": 14234,
  "Ġbattle": 14235,
  "Panel": 14236,
  "Ġarrang": 14237,
  "ORT": 14238,
  "Template": 14240,
  "Ġllev": 14241,
  "Ġclar": 14242,
  "ĠCath": 14243,
  "imp": 14244,
  "Ġexplan": 14245,
  "Ġresulted": 14246,
  "Ġanderen": 14247,
  "Ġfeb": 14248,
  "DS": 14249,
  "ÄĽt": 14250,
  "ellular": 14252,
  "ĠPower": 14254,
  "Ã©b": 14255,
  "ĠTask": 14256,
  "keys": 14258,
  "Ġequivalent": 14259,
  "Ġspat": 14260,
  "Show": 14261,
  "oggle": 14263,
  "ĠÄĳáº¿n": 14264,
  "xis": 14269,
  "Long": 14270,
  "sible": 14271,
  "Ġincome": 14273,
  "Ġsections": 14275,
  "ĠRadio": 14279,
  "ĠCette": 14280,
  "Ġprev": 14281,
  "ĠKim": 14282,
  "Ġbow": 14285,
  "gun": 14287,
  "ĠMadrid": 14288,
  "integr": 14289,
  "ĠSuch": 14290,
  "Ġindivid": 14291,
  "Ġimportante": 14292,
  "Ġarter": 14293,
  "Ġmorph": 14294,
  "roduction": 14296,
  "Ġoxygen": 14297,
  "riv": 14298,
  "ĠBul": 14300,
  "tau": 14305,
  "Ġhacia": 14306,
  "á»Ļc": 14307,
  "iveness": 14308,
  "Ġcorps": 14309,
  "ĠLiber": 14311,
  "ĠIch": 14314,
  "ĠCentre": 14317,
  "entication": 14319,
  "quel": 14321,
  "Ä±m": 14323,
  "container": 14331,
  "wend": 14332,
  "Users": 14333,
  "Ġgesch": 14334,
  "Ġsuff": 14336,
  "role": 14338,
  "ĠCommission": 14339,
  "Ġcapit": 14340,
  "pol": 14342,
  "Ġmsg": 14343,
  "ĠBelg": 14344,
  "ĠAngeles": 14347,
  "asser": 14348,
  "Ġexit": 14349,
  "Ġexamined": 14351,
  "ppen": 14352,
  "strap": 14353,
  "Impl": 14354,
  "Effect": 14355,
  "adian": 14356,
  "aÃ±": 14358,
  "Ġlieu": 14359,
  "draw": 14361,
  "Ã®t": 14363,
  "Ġtheme": 14364,
  "None": 14365,
  "Ġvul": 14366,
  "Ġvivo": 14367,
  "avo": 14368,
  "Interface": 14371,
  "hab": 14372,
  "Ġfell": 14374,
  "essions": 14377,
  "Ġsurg": 14379,
  "Ġprobability": 14381,
  "Ġadvanced": 14382,
  "jected": 14384,
  "Åĵur": 14385,
  "Ġcontempor": 14387,
  "Ġcalling": 14388,
  "ĠSup": 14389,
  "Active": 14391,
  "venir": 14393,
  "Book": 14394,
  "Ġgol": 14395,
  "aved": 14396,
  "bing": 14397,
  "ĉSystem": 14399,
  "Ġminute": 14400,
  "Ġzn": 14401,
  "Ġunderstood": 14404,
  "Ġali": 14405,
  "Run": 14406,
  "isis": 14407,
  "Ġdaughter": 14408,
  "izi": 14412,
  "tx": 14413,
  "cap": 14414,
  "aken": 14418,
  "Ġcluster": 14419,
  "Ġfresh": 14420,
  "Ġri": 14421,
  "Ġreplace": 14422,
  "ĠJoe": 14424,
  "arten": 14425,
  "Ġnob": 14427,
  "tons": 14428,
  "Ġsah": 14429,
  "close": 14431,
  "illed": 14434,
  "Ġmientras": 14435,
  "udent": 14437,
  "prise": 14438,
  "Ġchez": 14439,
  "Ġlinks": 14440,
  "ĠcÃ´t": 14441,
  "Ġcurr": 14442,
  "ĠCR": 14443,
  "ierno": 14444,
  "ĠMachine": 14445,
  "Ġgou": 14447,
  "Ġsurvey": 14449,
  "Ġproces": 14450,
  "Ġassigned": 14451,
  "Ġsudden": 14454,
  "ĠGran": 14455,
  "Ġpassage": 14456,
  "Ġzo": 14458,
  "operative": 14459,
  "Ġoccurr": 14460,
  "Ġfing": 14462,
  "ĠpÃ©riode": 14463,
  "Ġkid": 14464,
  "Ġnerv": 14465,
  "Ġhelped": 14467,
  "emÃ¡s": 14468,
  "display": 14470,
  "Ġinvestigated": 14472,
  "Ġloro": 14476,
  "_y": 14482,
  "lay": 14484,
  "ĠprÃ³": 14485,
  "Ã³m": 14486,
  "ĠOS": 14487,
  "Values": 14488,
  "Ġseinen": 14489,
  "fall": 14490,
  "Ġdefinit": 14491,
  "ppe": 14492,
  "Ġdelivery": 14496,
  "Ġdeploy": 14497,
  "Ġhousing": 14503,
  "ĠYoung": 14505,
  "Ġseat": 14506,
  "Ġexport": 14509,
  "Pa": 14510,
  "acent": 14513,
  "Ġdrugs": 14515,
  "Ġphilosoph": 14517,
  "TER": 14520,
  "Ġbelieved": 14521,
  "Ġdram": 14524,
  "Ġmarzo": 14527,
  "âĢĻex": 14528,
  "Ġinher": 14529,
  "ĠJesus": 14530,
  "Ġdivided": 14533,
  "MD": 14534,
  "ĠtÃ©l": 14536,
  "Ġbyte": 14537,
  "gers": 14539,
  "account": 14540,
  "Ġpossibility": 14541,
  "Ġreligious": 14543,
  "nung": 14544,
  "Ġhacer": 14545,
  "HTML": 14546,
  "Ġattract": 14547,
  "Ġcommunes": 14549,
  "ĠSou": 14550,
  "rand": 14551,
  "Ġseptembre": 14552,
  "ĠPers": 14553,
  "Ġessere": 14555,
  "Cre": 14556,
  "Ġmich": 14557,
  "Play": 14559,
  "ĠMicrosoft": 14560,
  "ĠUN": 14561,
  "ĠLie": 14562,
  "Ġcontained": 14563,
  "ĠLink": 14564,
  "Ġdelet": 14567,
  "Parameter": 14568,
  "Ä±ndan": 14569,
  "Ġaccepted": 14571,
  "Est": 14572,
  "props": 14577,
  "assa": 14579,
  "larak": 14580,
  "Helper": 14581,
  "Ġmodo": 14584,
  "Ġly": 14586,
  "Ġexercise": 14587,
  "Na": 14589,
  "Ġimaging": 14590,
  "Ġmarried": 14591,
  "Ġserial": 14593,
  "Ġrig": 14594,
  "Ġlif": 14595,
  "Ġsei": 14596,
  "Ġenviron": 14600,
  "ĠnÃły": 14602,
  "atie": 14604,
  "ynamic": 14605,
  "Ġrelationships": 14608,
  "ĠCP": 14609,
  "Ġcontribut": 14610,
  "Ġdepending": 14611,
  "Enter": 14612,
  "rito": 14613,
  "Ġborn": 14614,
  "iÄħ": 14615,
  "ĠPen": 14616,
  "Ġcontroll": 14618,
  "iji": 14619,
  "Ġdepends": 14620,
  "Ġchapter": 14622,
  "Ġquien": 14624,
  "Ġneuro": 14625,
  "Ġgender": 14626,
  "Ġskills": 14627,
  "Ġkin": 14628,
  "ĠAntonio": 14629,
  "Ġpartial": 14631,
  "ĠEvery": 14632,
  "Ġbol": 14634,
  "Ġlogin": 14635,
  "ĠBox": 14636,
  "illy": 14637,
  "ĠPrim": 14638,
  "Ge": 14639,
  "plements": 14643,
  "Ġapproaches": 14644,
  "ensa": 14645,
  "ĠAL": 14646,
  "Ġoleh": 14648,
  "Ġassume": 14649,
  "chte": 14652,
  "description": 14653,
  "Ġindicating": 14655,
  "Ġinstalled": 14656,
  "ielle": 14658,
  "jem": 14659,
  "ĠSecret": 14660,
  "Ġandere": 14662,
  "ĠProdu": 14663,
  "Ġstrugg": 14664,
  "ĠEstados": 14667,
  "Ġimg": 14668,
  "ĠEnter": 14669,
  "Ġsector": 14670,
  "ĠTHE": 14671,
  "ĠÃītats": 14672,
  "Ġfolder": 14673,
  "indo": 14674,
  "gesch": 14677,
  "Ġham": 14679,
  "Modal": 14680,
  "Ġhousehold": 14682,
  "Ġub": 14684,
  "ĠDC": 14686,
  "jÃł": 14687,
  "Ġbuy": 14688,
  "enÃŃ": 14690,
  "chester": 14691,
  "Ġsand": 14693,
  "uts": 14694,
  "Ġtelevision": 14696,
  "Ġbrand": 14697,
  "ĠAlbum": 14699,
  "Ġtahun": 14701,
  "ientos": 14703,
  "Ġvra": 14705,
  "Ġcad": 14707,
  "onde": 14711,
  "Ġbenefit": 14712,
  "ĠmÃºs": 14713,
  "Ġfilled": 14715,
  "Ġevolution": 14717,
  "Ġsummer": 14719,
  "ancel": 14720,
  "Ġattach": 14722,
  "ĠKre": 14723,
  "plicated": 14724,
  "Ġfrequently": 14725,
  "late": 14726,
  "igan": 14727,
  "ĠUnidos": 14728,
  "icia": 14729,
  "Found": 14730,
  "ĠAli": 14735,
  "ĠMaterial": 14736,
  "uries": 14740,
  "Ġdiameter": 14741,
  "oted": 14744,
  "inations": 14746,
  "ĠSem": 14747,
  "OP": 14748,
  "Ġimplemented": 14749,
  "ĠPos": 14750,
  "_of": 14753,
  "ĠChild": 14754,
  "ĠSeries": 14755,
  "pez": 14756,
  "Ġincub": 14757,
  "_get": 14758,
  "Ġpregn": 14759,
  "Ġyeux": 14760,
  "Ġraise": 14761,
  "Ġanos": 14763,
  "Ġmens": 14764,
  "Ġio": 14765,
  "esi": 14766,
  "Ġwidely": 14769,
  "Ġsmile": 14771,
  "Ġinterior": 14772,
  "racy": 14773,
  "ĠWomen": 14774,
  "low": 14775,
  "Ġfinish": 14776,
  "Å¡e": 14777,
  "Ġaccuracy": 14780,
  "Ġfocused": 14781,
  "Ġundefined": 14783,
  "Ġsoil": 14784,
  "Ġsubt": 14786,
  "Ġvess": 14788,
  "Ġembargo": 14791,
  "Ġnuclear": 14792,
  "abilities": 14793,
  "Ġfranc": 14794,
  "offset": 14795,
  "icker": 14796,
  "Ġdut": 14798,
  "handle": 14800,
  "Ġpathway": 14801,
  "berto": 14802,
  "oks": 14804,
  "Ġsebagai": 14805,
  "ĠGab": 14806,
  "Ġevol": 14807,
  "Ġfamiliar": 14809,
  "Ġnoise": 14812,
  "Ġimmer": 14817,
  "Ġstrain": 14819,
  "Ġsaison": 14821,
  "Ġarguments": 14823,
  "anna": 14824,
  "ocker": 14825,
  "aylor": 14826,
  "Ġencuent": 14828,
  "Ġdialog": 14829,
  "Ġade": 14831,
  "Ġtight": 14832,
  "ĠER": 14833,
  "Ġchart": 14837,
  "Ġhealthy": 14838,
  "stan": 14839,
  "owaÅĤ": 14841,
  "Ġyes": 14842,
  "aver": 14844,
  "ĠCro": 14846,
  "Ġpreval": 14848,
  "ÃŃv": 14849,
  "Ġrise": 14851,
  "Ġkas": 14852,
  "Ġcurve": 14853,
  "project": 14854,
  "Ġcoup": 14855,
  "ĠRus": 14856,
  "ĠColl": 14857,
  "Second": 14859,
  "rir": 14860,
  "ĠEngine": 14861,
  "zone": 14864,
  "ĠTheir": 14865,
  "ĠFer": 14866,
  "ennes": 14867,
  "ĠÃ¤r": 14868,
  "oves": 14869,
  "Å¼y": 14870,
  "arroll": 14872,
  "ernel": 14874,
  "They": 14875,
  "Home": 14876,
  "unto": 14877,
  "emos": 14878,
  "Ġemployed": 14880,
  "ĠPhilip": 14881,
  "ĠCamb": 14882,
  "ĠRap": 14883,
  "Ġopportunity": 14885,
  "Ġfost": 14886,
  "Ġela": 14888,
  "estamp": 14889,
  "Ġvote": 14890,
  "Ġwo": 14891,
  "ĠsÃŃ": 14892,
  "oko": 14895,
  "Ġshop": 14897,
  "ĠNetwork": 14898,
  "Ġthanks": 14899,
  "arte": 14900,
  "fois": 14902,
  "ĠFar": 14904,
  "Ġideal": 14905,
  "Ġproportion": 14906,
  "Ġsimult": 14907,
  "Ġobt": 14909,
  "ĠTurn": 14910,
  "device": 14911,
  "Ġverm": 14913,
  "ĠJahren": 14915,
  "á»©c": 14917,
  "Ġsetup": 14919,
  "ODE": 14920,
  "neh": 14923,
  "Ġstructural": 14927,
  "Ġaggreg": 14928,
  "ĠLat": 14929,
  "Ġsuc": 14932,
  "Ġdispar": 14935,
  "Ġloading": 14936,
  "orter": 14937,
  "Rect": 14938,
  "wide": 14939,
  "ĠChapter": 14940,
  "Met": 14943,
  "ĉbreak": 14945,
  "cluding": 14948,
  "Ġvoy": 14949,
  "athan": 14950,
  "ĠIslam": 14951,
  "Ġlayers": 14953,
  "Ġsaved": 14954,
  "plet": 14956,
  "adora": 14957,
  "Ġexplicit": 14960,
  "ulle": 14965,
  "ĠVirgin": 14967,
  "Ãłng": 14968,
  "ĠMike": 14969,
  "Ġft": 14972,
  "Ġenable": 14975,
  "ications": 14976,
  "Ġtran": 14978,
  "John": 14979,
  "Ġoffers": 14980,
  "issions": 14984,
  "igi": 14985,
  "_DE": 14986,
  "Ġcommonly": 14987,
  "Ġbot": 14988,
  "Ġstabil": 14990,
  "kov": 14991,
  "ĠCommittee": 14992,
  "Ġhi": 14994,
  "Ġisolated": 14995,
  "Pat": 14996,
  "Ġrapport": 14997,
  "Ġolarak": 15001,
  "Changed": 15002,
  "ĠJackson": 15004,
  "ĠVi": 15005,
  "ingly": 15006,
  "Ġabsolute": 15007,
  "ĠMens": 15008,
  "Ġcache": 15009,
  "Ġestado": 15010,
  "Ġepisode": 15011,
  "Ġevaluate": 15013,
  "Ġhappy": 15015,
  "Ġconflict": 15016,
  "token": 15017,
  "Ġdip": 15018,
  "Ġopposite": 15019,
  "Ã©ny": 15020,
  "Ġbenefits": 15021,
  "ĠdÃŃa": 15022,
  "Ġneck": 15023,
  "Ġtalking": 15025,
  "Ġress": 15029,
  "emo": 15030,
  "Ġnotes": 15031,
  "Ġcitiz": 15032,
  "Ġacadem": 15033,
  "ĠPeople": 15035,
  "Ġprzy": 15036,
  "Ã¼lt": 15038,
  "xi": 15039,
  "Ġclassification": 15040,
  "ispatch": 15042,
  "ĠVill": 15044,
  "SQL": 15045,
  "Ġsolve": 15047,
  "Ġtasks": 15048,
  "Ġtet": 15049,
  "ĠResponse": 15050,
  "ĠChris": 15051,
  "Ġgrab": 15053,
  "Ġchallenge": 15054,
  "Ġdys": 15055,
  "Some": 15057,
  "asket": 15060,
  "points": 15061,
  "Target": 15063,
  "ÄĻd": 15064,
  "Ġoctobre": 15065,
  "etz": 15067,
  "rÃŃa": 15068,
  "Ã¶tt": 15069,
  "Ġspl": 15070,
  "Ġattribute": 15071,
  "real": 15074,
  "Ġkeine": 15075,
  "Ġagreed": 15077,
  "ĠSus": 15079,
  "just": 15080,
  "ĠAnother": 15081,
  "Ġdipl": 15082,
  "Ġconn": 15083,
  "region": 15084,
  "Ġgate": 15085,
  "ĠCas": 15087,
  "ĠzostaÅĤ": 15089,
  "Ġexistence": 15090,
  "ipes": 15092,
  "Ġerh": 15093,
  "non": 15095,
  "Then": 15096,
  "components": 15097,
  "uren": 15098,
  "scope": 15099,
  "Ġproceed": 15100,
  "jango": 15101,
  "ĠHuman": 15102,
  "Ġfemme": 15103,
  "Ġchronic": 15104,
  "ĠConf": 15105,
  "Ġintervention": 15110,
  "ĠKh": 15112,
  "Ġimplements": 15113,
  "Ġdetailed": 15115,
  "_by": 15116,
  "Ġtoutes": 15117,
  "ĠÄĳáº§u": 15119,
  "Ġlymph": 15120,
  "Range": 15121,
  "Ġdf": 15122,
  "ĠCall": 15123,
  "mut": 15124,
  "Ġdict": 15126,
  "oda": 15127,
  "Ġarmy": 15128,
  "bat": 15129,
  "ĠMult": 15131,
  "Ġeigen": 15133,
  "Ġpercentage": 15134,
  "ĠTexas": 15135,
  "ĠMedia": 15136,
  "Ġdot": 15137,
  "Ġchap": 15139,
  "ĠKong": 15140,
  "Ġaver": 15143,
  "_code": 15144,
  "Ġaveva": 15145,
  "Ã¡nÃŃ": 15146,
  "ĠDom": 15147,
  "Ġplanning": 15148,
  "apse": 15149,
  "IZ": 15152,
  "Dir": 15153,
  "Ġnumerous": 15159,
  "Ġkill": 15160,
  "Ġnacional": 15162,
  "ĠcÄĥ": 15163,
  "ellent": 15165,
  "Ġnive": 15166,
  "buffer": 15170,
  "Ġguerre": 15171,
  "Ġclaimed": 15172,
  "Ġseed": 15173,
  "ĠcÃ´ng": 15174,
  "avi": 15177,
  "ĠHttp": 15178,
  "Ġdirected": 15179,
  "ĠSP": 15180,
  "Ro": 15181,
  "Close": 15183,
  "ivel": 15184,
  "Ġtemporada": 15186,
  "EM": 15187,
  "ĠAsia": 15188,
  "iros": 15190,
  "Ġnative": 15191,
  "Ġnarrow": 15192,
  "ĠspÃ¤ter": 15193,
  "lez": 15195,
  "cr": 15196,
  "Ġbiological": 15197,
  "Ġvision": 15198,
  "Ġcela": 15201,
  "Ġends": 15202,
  "Ġattached": 15205,
  "kÃ©": 15206,
  "ĠTimes": 15210,
  "Ġforme": 15213,
  "Mapping": 15214,
  "Sign": 15216,
  "omal": 15218,
  "Ġlin": 15220,
  "Ġconna": 15221,
  "liament": 15222,
  "ierra": 15224,
  "ubre": 15226,
  "itionally": 15227,
  "igue": 15228,
  "Ġgap": 15229,
  "ĠAlexander": 15230,
  "Ġpreferred": 15231,
  "Ġcompetition": 15232,
  "ativo": 15233,
  "seg": 15237,
  "Ã¤lt": 15238,
  "estic": 15239,
  "ĠLocal": 15240,
  "Ġsheet": 15241,
  "ĠLive": 15243,
  "Ġsegundo": 15245,
  "ytic": 15246,
  "ĠNight": 15247,
  "ĠEarth": 15248,
  "Ġallowing": 15249,
  "success": 15251,
  "entre": 15253,
  "Ġfederal": 15256,
  "Ġmad": 15258,
  "Ġreco": 15260,
  "á»ģn": 15261,
  "ĠTa": 15264,
  "going": 15266,
  "Ġwaiting": 15267,
  "Ġante": 15268,
  "Ġstrategies": 15269,
  "Ãªm": 15271,
  "_de": 15272,
  "Ġfetch": 15273,
  "Ġpept": 15275,
  "Collections": 15279,
  "Ġapi": 15280,
  "ĠMari": 15282,
  "itÃ¤t": 15285,
  "quis": 15286,
  "Ġip": 15287,
  "Ã®tre": 15292,
  "Ã¡i": 15293,
  "Ġgluc": 15295,
  "ĠControl": 15296,
  "Ã¡b": 15297,
  "Ġfraction": 15298,
  "Ġwhatever": 15299,
  "Props": 15300,
  "Ġpowerful": 15301,
  "Ġnaar": 15302,
  "wen": 15303,
  "ĠAustralian": 15304,
  "irectory": 15305,
  "rin": 15306,
  "Ã´n": 15309,
  "Ġsmo": 15314,
  "Ġprinci": 15315,
  "lements": 15316,
  "Build": 15317,
  "_NAME": 15318,
  "Ġneces": 15319,
  "imate": 15320,
  "inta": 15321,
  "ĠPass": 15322,
  "esh": 15324,
  "Mark": 15325,
  "Ġvest": 15327,
  "Ġperspective": 15329,
  "ĠBlue": 15330,
  "Ġfir": 15332,
  "isons": 15334,
  "hou": 15337,
  "Æ¡n": 15339,
  "ĠFunction": 15340,
  "reck": 15343,
  "ĠMichel": 15344,
  "_string": 15347,
  "ART": 15348,
  "iá»ĥ": 15349,
  "ĠdÃ©cembre": 15350,
  "ĠKo": 15352,
  "Ġwriter": 15353,
  "Ġdepos": 15354,
  "Ġelectronic": 15356,
  "Ã©ro": 15358,
  "Ġcharacterized": 15359,
  "Ġetx": 15360,
  "gie": 15362,
  "Ġplaceholder": 15365,
  "Ġcout": 15366,
  "ĠWood": 15367,
  "ĠWall": 15368,
  "áº±ng": 15370,
  "Ġalloc": 15372,
  "ULT": 15373,
  "ĠSoviet": 15374,
  "Ġvast": 15375,
  "mbox": 15376,
  "ĠFol": 15377,
  "Vector": 15378,
  "zyme": 15379,
  "thur": 15380,
  "onda": 15381,
  "Ġmolecules": 15382,
  "Ġpointer": 15383,
  "total": 15384,
  "jed": 15385,
  "ublik": 15386,
  "Ġunless": 15388,
  "onder": 15392,
  "ijd": 15393,
  "OST": 15394,
  "home": 15395,
  "ĠIndust": 15396,
  "reen": 15397,
  "lbum": 15398,
  "Ġintra": 15400,
  "UP": 15401,
  "Ġsensitivity": 15404,
  "astern": 15405,
  "Ġthá»ĥ": 15406,
  "Ġintellig": 15407,
  "Ġmul": 15410,
  "Ġthank": 15412,
  "require": 15413,
  "dis": 15414,
  "ĠTag": 15415,
  "porter": 15416,
  "utch": 15418,
  "Ġtypical": 15421,
  "Ġinitially": 15423,
  "Ġihrer": 15424,
  "Ġdentro": 15425,
  "Ġdio": 15426,
  "Ġbind": 15427,
  "Ġpool": 15428,
  "Ġnuevo": 15430,
  "Ġbiz": 15431,
  "cement": 15433,
  "flu": 15436,
  "Ġhabitants": 15437,
  "ĠHy": 15438,
  "voj": 15440,
  "roups": 15441,
  "Ġthickness": 15444,
  "nosti": 15445,
  "ĠAction": 15446,
  "Ġstem": 15447,
  "Ġchest": 15448,
  "Ġtwice": 15449,
  "ĠTal": 15450,
  "Ġshell": 15451,
  "Ġfant": 15453,
  "house": 15454,
  "Ġpubli": 15455,
  "ĠHaw": 15458,
  "Tree": 15460,
  "Detail": 15461,
  "usk": 15465,
  "CI": 15466,
  "aco": 15467,
  "Ã¢te": 15469,
  "uages": 15470,
  "jÄħ": 15473,
  "Ġvariant": 15474,
  "Ġkiss": 15475,
  "Ġcomments": 15476,
  "Ġwalked": 15477,
  "ĠiÃ§in": 15478,
  "Ġhusband": 15479,
  "Ġsha": 15480,
  "ĠPot": 15481,
  "enny": 15482,
  "ayment": 15483,
  "Ã¶nig": 15484,
  "Ġsera": 15485,
  "Ġml": 15489,
  "Ġpropri": 15491,
  "ĠEuro": 15493,
  "Ġpaid": 15494,
  "aph": 15495,
  "Ġcondu": 15498,
  "Press": 15500,
  "Ġaircraft": 15501,
  "_text": 15503,
  "Ġpaint": 15504,
  "Ã¼ber": 15506,
  "jes": 15507,
  "Ġtam": 15511,
  "ĠRome": 15512,
  "ĠFinally": 15513,
  "Ġfot": 15514,
  "Ġrid": 15515,
  "ĠoÊ»": 15516,
  "Ġnamespace": 15517,
  "Ġfos": 15518,
  "ERROR": 15520,
  "Spec": 15521,
  "peut": 15523,
  "Ġcet": 15524,
  "Ġavril": 15526,
  "Ġsemi": 15527,
  "JSON": 15528,
  "Ġoraz": 15530,
  "Ġdoct": 15531,
  "ĠCru": 15533,
  "onte": 15534,
  "ukan": 15535,
  "Configuration": 15536,
  "Ġdriving": 15538,
  "Ġrecording": 15539,
  "uti": 15540,
  "Ġstudio": 15541,
  "epend": 15542,
  "ountry": 15543,
  "Ġintens": 15545,
  "Ġlett": 15546,
  "igkeit": 15547,
  "ocytes": 15549,
  "Ġstone": 15551,
  "Ġcorner": 15552,
  "oked": 15553,
  "ĠBraz": 15554,
  "aland": 15555,
  "Ġbem": 15556,
  "nic": 15559,
  "ĠVI": 15560,
  "Ġpobl": 15564,
  "care": 15565,
  "Ġlisted": 15566,
  "Record": 15567,
  "Ġbeautiful": 15568,
  "Ġexcess": 15570,
  "uly": 15572,
  "sect": 15573,
  "ows": 15575,
  "Ġamino": 15576,
  "Ġgut": 15577,
  "Ġdisplayed": 15578,
  "ÃŃf": 15579,
  "ĠUE": 15580,
  "got": 15581,
  "ĠNews": 15584,
  "Ġlayout": 15585,
  "Ġstuff": 15586,
  "Async": 15587,
  "arÃŃa": 15588,
  "azi": 15589,
  "Ġfish": 15591,
  "lla": 15592,
  "ĠArena": 15595,
  "Ġconventional": 15596,
  "typ": 15597,
  "iele": 15598,
  "Ġnouvelle": 15599,
  "rz": 15600,
  "Ġbeste": 15602,
  "iÃ§Ã£o": 15603,
  "bind": 15604,
  "Ġcandidate": 15605,
  "ÄŁi": 15606,
  "ĠÅ¾e": 15607,
  "ĠAdam": 15608,
  "kat": 15609,
  "lung": 15613,
  "ĠRun": 15614,
  "erie": 15617,
  "Ġhell": 15620,
  "ĠLike": 15621,
  "Ġdopo": 15622,
  "iÃŁ": 15623,
  "ĠJuni": 15624,
  "ĠatÃ©": 15626,
  "Ġversions": 15628,
  "Ġdegli": 15629,
  "Ġpeace": 15630,
  "Ġdevant": 15631,
  "ĠIF": 15633,
  "Ġhun": 15634,
  "ĠProte": 15635,
  "iku": 15636,
  "Ġsales": 15638,
  "Ġgun": 15640,
  "css": 15641,
  "Ġcul": 15642,
  "ipping": 15643,
  "Ġgather": 15646,
  "Ã¨tres": 15647,
  "Ġric": 15648,
  "aju": 15650,
  "dt": 15651,
  "Ġhadn": 15652,
  "Ġmoral": 15653,
  "Ġsupposed": 15654,
  "Ġtáº¡i": 15655,
  "eks": 15656,
  "Final": 15658,
  "fte": 15659,
  "Ġere": 15660,
  "Ġtranscription": 15661,
  "Ġcere": 15662,
  "Ġdhe": 15666,
  "Ġpoco": 15668,
  "Ġthr": 15669,
  "Ġec": 15670,
  "Ġfuel": 15673,
  "Ġremote": 15674,
  "ĠMarie": 15675,
  "Ġrepresentation": 15676,
  "Ġpolar": 15679,
  "Ä±s": 15680,
  "words": 15681,
  "Ġsignaling": 15683,
  "Screen": 15684,
  "ĠOnce": 15685,
  "Car": 15687,
  "Ġbá»ĭ": 15688,
  "acts": 15691,
  "Local": 15692,
  "ĠKan": 15694,
  "ĠInformation": 15696,
  "Ġearn": 15697,
  "leton": 15698,
  "ĠValue": 15699,
  "enth": 15700,
  "Ġwarm": 15701,
  "Ġpharm": 15702,
  "ĠKingdom": 15703,
  "arda": 15705,
  "halb": 15706,
  "gex": 15707,
  "tschaft": 15709,
  "Ġcomfort": 15710,
  "Ġrecover": 15711,
  "Ġintermedi": 15713,
  "Ġsop": 15716,
  "Ġpossibly": 15717,
  "ĠdÃ©jÃł": 15718,
  "Ġorganic": 15719,
  "Ġroles": 15720,
  "Ġexperienced": 15721,
  "Ġkw": 15722,
  "ĠSimon": 15723,
  "pool": 15724,
  "VA": 15725,
  "Ġprocedures": 15727,
  "Ġconsists": 15730,
  "Ġetwa": 15731,
  "Ġlev": 15732,
  "ORD": 15734,
  "acio": 15735,
  "Ġdisk": 15739,
  "FO": 15740,
  "Ġlado": 15742,
  "Ġneighbor": 15745,
  "har": 15746,
  "ĠKen": 15747,
  "Ġinteger": 15748,
  "CTION": 15749,
  "Ġkoji": 15750,
  "arga": 15752,
  "MR": 15755,
  "ienen": 15757,
  "Ġtrials": 15758,
  "required": 15760,
  "ierten": 15762,
  "ochem": 15764,
  "Ġnetworks": 15765,
  "Ġotro": 15768,
  "ĠtÃ¶": 15769,
  "chor": 15770,
  "Gu": 15771,
  "raine": 15772,
  "Return": 15773,
  "ĠVector": 15774,
  "Ġinstructions": 15776,
  "ĠAls": 15777,
  "Ġlaws": 15778,
  "Ġtodas": 15779,
  "cido": 15780,
  "ĠdÃ©velop": 15781,
  "ĠMah": 15782,
  "Ġhors": 15784,
  "Ġpurpos": 15785,
  "Ġleaves": 15786,
  "primary": 15787,
  "Ġsole": 15790,
  "utz": 15791,
  "nego": 15793,
  "ussion": 15794,
  "Ġjunto": 15795,
  "Ġqued": 15796,
  "Ġsale": 15797,
  "erein": 15799,
  "ĠFour": 15802,
  "Ġnotice": 15803,
  "mons": 15807,
  "ĠXIX": 15808,
  "ĠJane": 15809,
  "Bean": 15811,
  "ĠLab": 15812,
  "Ġversus": 15815,
  "Ġradical": 15816,
  "jos": 15818,
  "Ġsides": 15819,
  "Ġwen": 15820,
  "Ġordered": 15823,
  "ÃŃp": 15826,
  "Ġraw": 15828,
  "Ġsempre": 15830,
  "ĠGovernment": 15831,
  "Ġarrived": 15832,
  "Ġinvestigation": 15834,
  "Ġarticles": 15837,
  "Ġassay": 15838,
  "Ġbecoming": 15839,
  "agem": 15840,
  "Ġtap": 15842,
  "Ã©qu": 15843,
  "abei": 15848,
  "ieb": 15849,
  "ĠNat": 15850,
  "Ġstrict": 15851,
  "ĠFoot": 15855,
  "iture": 15856,
  "Ġcorpor": 15859,
  "ĠTR": 15860,
  "ĠFeder": 15861,
  "kor": 15862,
  "zas": 15863,
  "Ġmaior": 15864,
  "Ġrol": 15865,
  "Ġstanding": 15866,
  "FL": 15869,
  "Ġmesmo": 15871,
  "Ġtoler": 15872,
  "Ġciv": 15874,
  "Ġstability": 15875,
  "Ġmortality": 15876,
  "icular": 15878,
  "Ġannual": 15880,
  "ĠMir": 15882,
  "ĠCat": 15883,
  "issement": 15884,
  "Ġexposed": 15886,
  "nea": 15887,
  "Ġnotamment": 15888,
  "ĠWin": 15890,
  "Ġtitre": 15891,
  "ĠNode": 15893,
  "dr": 15894,
  "cias": 15897,
  "Ġexpansion": 15898,
  "rance": 15899,
  "iginal": 15900,
  "MT": 15901,
  "ctx": 15902,
  "Ġconform": 15906,
  "Ġpropag": 15907,
  "Use": 15908,
  "leri": 15909,
  "stv": 15911,
  "Ġchampion": 15912,
  "NT": 15913,
  "ucht": 15914,
  "Ġstages": 15915,
  "eros": 15916,
  "Ġpont": 15917,
  "Ġfolg": 15918,
  "ATION": 15919,
  "ĠInit": 15920,
  "Ġstato": 15921,
  "Ġreader": 15923,
  "utsche": 15924,
  "Ġmanip": 15925,
  "ÃŃtulo": 15926,
  "_array": 15927,
  "Ġargu": 15929,
  "Ġcommunities": 15930,
  "ĠTH": 15931,
  "raj": 15932,
  "imen": 15933,
  "Ġlum": 15935,
  "Ġthu": 15937,
  "ĠEnde": 15938,
  "agu": 15939,
  "folg": 15940,
  "Ġning": 15942,
  "ĠEducation": 15944,
  "ĠIts": 15947,
  "gew": 15948,
  "ĠHarr": 15949,
  "ĠReich": 15952,
  "imation": 15953,
  "Ġusername": 15954,
  "eu": 15955,
  "ĠVari": 15956,
  "ĠEconom": 15957,
  "yi": 15958,
  "Ġcher": 15959,
  "ĠLeon": 15960,
  "ĠTro": 15961,
  "Ġstret": 15964,
  "Ġschon": 15966,
  "Ġcategories": 15967,
  "Ich": 15968,
  "ĠDevelopment": 15972,
  "Ġeast": 15973,
  "append": 15974,
  "geben": 15975,
  "ĠServer": 15976,
  "nement": 15977,
  "Ġcombat": 15978,
  "Ġhistorical": 15979,
  "raining": 15981,
  "Ã¨te": 15982,
  "ĠJournal": 15983,
  "otion": 15984,
  "ds": 15988,
  "Ġremark": 15989,
  "ĠPage": 15990,
  "anje": 15994,
  "plant": 15995,
  "Ġsongs": 15996,
  "standing": 15998,
  "Ġpractices": 15999,
  "java": 16000,
  "IST": 16002,
  "atches": 16003,
  "ĠRad": 16006,
  "Ġoficial": 16007,
  "anas": 16008,
  "Ġconstraint": 16009,
  "imensional": 16010,
  "á»Ļi": 16011,
  "Ġacute": 16012,
  "alan": 16013,
  "yar": 16014,
  "gener": 16015,
  "Ġseinem": 16016,
  "Ġgia": 16017,
  "Ġhang": 16018,
  "ĠMu": 16020,
  "Ġinnov": 16021,
  "acher": 16022,
  "Ġaudio": 16023,
  "ĠMarg": 16024,
  "Ġpartner": 16025,
  "Ġbelief": 16027,
  "Ġarte": 16030,
  "ulus": 16031,
  "ahan": 16034,
  "road": 16035,
  "ĠKap": 16036,
  "Ġvá»ģ": 16039,
  "Ġcallback": 16040,
  "Ġrecognized": 16044,
  "ĠRussia": 16045,
  "isms": 16046,
  "ĠJeff": 16047,
  "ĠUnd": 16048,
  "mean": 16050,
  "Profile": 16051,
  "Ġhidden": 16052,
  "Ġdevi": 16054,
  "uba": 16055,
  "usal": 16056,
  "Ġtek": 16058,
  "Ġhumans": 16059,
  "Document": 16060,
  "angel": 16063,
  "ĠDB": 16064,
  "ĠTi": 16065,
  "Ġretrou": 16067,
  "Ġelectrode": 16068,
  "ĠOber": 16069,
  "Ġmovie": 16070,
  "NO": 16071,
  "Ã¥r": 16073,
  "flex": 16075,
  "legate": 16076,
  "esc": 16078,
  "iske": 16079,
  "erapeut": 16081,
  "ktr": 16082,
  "Ġprest": 16084,
  "brid": 16085,
  "Ġassumed": 16088,
  "Flag": 16090,
  "ĠPlayer": 16091,
  "plicate": 16092,
  "Ġhash": 16094,
  "Ġpetit": 16095,
  "Settings": 16098,
  "Ġcreation": 16099,
  "Ġproxim": 16100,
  "ĠBau": 16101,
  "ĠExper": 16103,
  "ĠUpdate": 16104,
  "Ġindeed": 16106,
  "ĠNorm": 16107,
  "DP": 16108,
  "iety": 16109,
  "ĠHong": 16111,
  "obierno": 16112,
  "Ġagricult": 16113,
  "hell": 16114,
  "Ġnarr": 16115,
  "ĠTem": 16118,
  "Ġrib": 16120,
  "oe": 16122,
  "Ġprove": 16123,
  "According": 16124,
  "MC": 16126,
  "ĠFel": 16127,
  "Ġtube": 16129,
  "licher": 16130,
  "oden": 16132,
  "rift": 16133,
  "occup": 16134,
  "ĠEdward": 16136,
  "Ã¡o": 16138,
  "yg": 16141,
  "ĠHet": 16142,
  "ĠBuild": 16143,
  "Ġblocks": 16144,
  "Ġaccident": 16145,
  "Ġlaser": 16148,
  "Database": 16149,
  "Ġcloud": 16152,
  "fit": 16153,
  "ĠAh": 16154,
  "igate": 16155,
  "Ġtechnical": 16157,
  "ĠaoÃ»t": 16160,
  "Ġautomatically": 16162,
  "Ġeasier": 16163,
  "Ġhur": 16165,
  "ĠprÃ©sent": 16168,
  "tat": 16169,
  "Ġsob": 16170,
  "kÃ¶": 16171,
  "Ġdependent": 16172,
  "ĠLight": 16178,
  "exp": 16180,
  "Ġspeech": 16181,
  "âĢĻon": 16185,
  "Ġcompte": 16186,
  "ĠOktober": 16187,
  "Ġrotation": 16189,
  "Ġmejor": 16190,
  "rine": 16191,
  "ĠAndrew": 16192,
  "ĉp": 16193,
  "Ġriver": 16194,
  "ĠSpecial": 16195,
  "ĠInput": 16196,
  "azioni": 16197,
  "fi": 16198,
  "Ġmanus": 16199,
  "anden": 16200,
  "ĠHay": 16201,
  "ĠDal": 16202,
  "otherapy": 16203,
  "Ġsistem": 16204,
  "Ġfaut": 16205,
  "Ġadults": 16206,
  "ĠngÃły": 16207,
  "Ġmari": 16208,
  "Ġforeach": 16209,
  "ĠLew": 16210,
  "Ġjustify": 16212,
  "akter": 16213,
  "ĠBir": 16219,
  "Score": 16220,
  "Ġrespective": 16221,
  "inson": 16222,
  "Ġfly": 16223,
  "elte": 16225,
  "ragon": 16226,
  "ĠTaylor": 16229,
  "Ġcontents": 16231,
  "Ġassessed": 16232,
  "Ġblev": 16233,
  "Ġpermet": 16234,
  "Dr": 16236,
  "Ġveget": 16238,
  "Ġsá»±": 16239,
  "Ġsph": 16241,
  "Ġunable": 16245,
  "otto": 16246,
  "Ġnine": 16250,
  "Ġdoubt": 16251,
  "ohl": 16253,
  "Ġice": 16254,
  "Tab": 16256,
  "Ġconven": 16257,
  "Ġequipo": 16259,
  "Ġabund": 16260,
  "Ġprimarily": 16262,
  "Ġkir": 16263,
  "Ġbehaviour": 16264,
  "ĠdÃ©cl": 16265,
  "activ": 16266,
  "Ġselbst": 16267,
  "Ġmarg": 16269,
  "Ġligne": 16271,
  "Ġrecib": 16272,
  "emon": 16273,
  "Ġinterested": 16275,
  "Ġwaar": 16276,
  "Ġconversion": 16278,
  "Ã©vrier": 16279,
  "Ġshoot": 16280,
  "racht": 16281,
  "Ġknock": 16283,
  "enschaft": 16285,
  "ĠRet": 16286,
  "ĠreprÃ©sent": 16287,
  "ĠAT": 16288,
  "Ã§ois": 16289,
  "Font": 16290,
  "ĠwÃ¼r": 16293,
  "aci": 16295,
  "ycz": 16298,
  "avor": 16299,
  "mÃ©": 16301,
  "Ġpoz": 16305,
  "Ġtraffic": 16308,
  "esp": 16309,
  "Ġkeys": 16311,
  "Ġcausing": 16312,
  "Ġbass": 16313,
  "Ġcri": 16314,
  "Ġkult": 16315,
  "ĠBol": 16317,
  "Ġneutral": 16318,
  "eres": 16319,
  "Ġconcert": 16321,
  "aison": 16323,
  "Ġdere": 16324,
  "Ġsout": 16326,
  "Ġouv": 16328,
  "Dto": 16329,
  "ĠWHERE": 16331,
  "essen": 16332,
  "Ã³r": 16333,
  "Ġmenj": 16335,
  "Ġanalog": 16336,
  "property": 16338,
  "ilor": 16339,
  "Ġscientific": 16340,
  "ĠBoard": 16342,
  "Ġforam": 16343,
  "Ġintel": 16345,
  "uerto": 16347,
  "Ġhelps": 16348,
  "Ġlargely": 16349,
  "Ġsuggesting": 16350,
  "Ġbras": 16351,
  "run": 16353,
  "article": 16354,
  "Ġapplic": 16355,
  "ĠSC": 16357,
  "Ġlips": 16358,
  "Ġdiffusion": 16359,
  "Ġacceler": 16360,
  "ĠSpe": 16361,
  "cean": 16362,
  "Ġwalls": 16363,
  "enos": 16365,
  "Ġstrongly": 16369,
  "Ġshock": 16371,
  "Ġbytes": 16372,
  "Ġsiglo": 16374,
  "ĠTok": 16377,
  "Ġdesarroll": 16379,
  "Ġdependencies": 16380,
  "Ġabril": 16381,
  "ĠSpanish": 16382,
  "emory": 16383,
  "Ġtwenty": 16385,
  "ĠThree": 16386,
  "legal": 16387,
  "Ġcloser": 16388,
  "Ġcertainly": 16389,
  "Ġobst": 16390,
  "ĠHospital": 16391,
  "reland": 16392,
  "ĠDid": 16393,
  "Ġmunicipal": 16395,
  "Ġdefect": 16396,
  "Ġrespir": 16397,
  "ĉString": 16398,
  "Ġthin": 16402,
  "vironment": 16403,
  "ĠTy": 16405,
  "Ġpentru": 16407,
  "Ġhub": 16408,
  "Ġbird": 16409,
  "Si": 16410,
  "ĠRu": 16411,
  "Ġchamber": 16413,
  "Ġtiáº¿": 16414,
  "Ã«s": 16415,
  "However": 16418,
  "ATA": 16420,
  "Ġcoast": 16422,
  "ĠNOT": 16424,
  "Ġpret": 16425,
  "Ġassign": 16426,
  "Ġpurposes": 16427,
  "Ġtrees": 16429,
  "ĠThank": 16431,
  "Ġpode": 16432,
  "IB": 16433,
  "Dis": 16434,
  "oston": 16436,
  "Ġpad": 16441,
  "Ġrats": 16444,
  "Ġelif": 16445,
  "unst": 16447,
  "Ġreverse": 16448,
  "Ġsle": 16450,
  "Ġminister": 16451,
  "nap": 16454,
  "ÃŃd": 16455,
  "ĠCou": 16456,
  "Ġvalor": 16458,
  "ĠGrund": 16459,
  "ĠMessage": 16460,
  "hora": 16461,
  "ivamente": 16462,
  "Ġreality": 16463,
  "ĠLake": 16464,
  "Ġeurop": 16465,
  "ĠNik": 16467,
  "kol": 16468,
  "onces": 16470,
  "Ġobra": 16471,
  "vez": 16472,
  "Ġclock": 16475,
  "Ġchaque": 16476,
  "Ġextr": 16479,
  "ĠSection": 16481,
  "Ġalcohol": 16482,
  "Ġcoron": 16486,
  "Ġpov": 16488,
  "Two": 16489,
  "Ġlived": 16491,
  "glise": 16495,
  "ĠHon": 16496,
  "GC": 16497,
  "Ġoccasion": 16498,
  "Ġcities": 16500,
  "Ġimpossible": 16501,
  "Ġpassing": 16504,
  "dam": 16505,
  "ĠItalian": 16506,
  "ĠItaly": 16507,
  "cover": 16509,
  "riers": 16514,
  "Ġsecre": 16515,
  "Display": 16517,
  "Ġkne": 16518,
  "Ġsynthesis": 16520,
  "Ġquesto": 16521,
  "anos": 16522,
  "ĠCongress": 16523,
  "ĠBat": 16525,
  "Ġprovinc": 16526,
  "Ġtidak": 16527,
  "inition": 16528,
  "Ġnice": 16530,
  "Ã¤ll": 16532,
  "Ġcaught": 16533,
  "Ġhommes": 16534,
  "rut": 16535,
  "Sum": 16536,
  "write": 16539,
  "Ġoriginally": 16541,
  "Ġelected": 16542,
  "Ġcapture": 16543,
  "ĠLast": 16544,
  "ÉĻd": 16545,
  "Ġvitro": 16547,
  "Ġfigures": 16549,
  "Ġprend": 16551,
  "Ġfeat": 16553,
  "Pol": 16554,
  "ionale": 16555,
  "Ġdial": 16556,
  "Ġaller": 16557,
  "Ġslowly": 16558,
  "Ġimprovement": 16559,
  "Ġbajo": 16561,
  "ĠSchw": 16564,
  "ĠNick": 16566,
  "Ġleaders": 16567,
  "IVE": 16568,
  "activity": 16570,
  "abetes": 16571,
  "aming": 16572,
  "Ã¤u": 16573,
  "Ġthereby": 16574,
  "Msg": 16576,
  "VE": 16578,
  "izione": 16580,
  "Ġhappens": 16581,
  "fang": 16583,
  "Ġfold": 16584,
  "ĠSta": 16585,
  "ivat": 16586,
  "Ġidentification": 16591,
  "tag": 16593,
  "Ġfluores": 16596,
  "ĠGa": 16597,
  "Ġasc": 16599,
  "Ġcollege": 16602,
  "Ġjump": 16603,
  "jas": 16604,
  "ahren": 16605,
  "iminal": 16608,
  "example": 16609,
  "ĠFree": 16611,
  "Ġdimension": 16612,
  "Ġunderlying": 16614,
  "Ġfan": 16617,
  "pack": 16618,
  "isted": 16620,
  "ictures": 16621,
  "ĠOF": 16622,
  "Ġaware": 16624,
  "ĠBad": 16626,
  "sql": 16627,
  "Gl": 16631,
  "Ġtar": 16633,
  "rawing": 16635,
  "ĠwÃ¤hrend": 16636,
  "onz": 16637,
  "ĠLor": 16638,
  "kte": 16643,
  "arante": 16645,
  "ifies": 16646,
  "Ġdocuments": 16647,
  "Ġphoto": 16649,
  "Ġvelocity": 16650,
  "Engine": 16651,
  "ĠAlbert": 16653,
  "arta": 16654,
  "expected": 16655,
  "Ġcompens": 16656,
  "case": 16657,
  "ĠMos": 16661,
  "Device": 16662,
  "etry": 16663,
  "Ġregulation": 16664,
  "atore": 16665,
  "Ġcategor": 16666,
  "ĠPara": 16667,
  "unately": 16668,
  "Ġadalah": 16669,
  "Ġmujer": 16670,
  "ĠCross": 16671,
  "Ġauc": 16672,
  "Ġrough": 16673,
  "Ġstreet": 16674,
  "route": 16675,
  "ĉconst": 16676,
  "Ġagree": 16677,
  "Ġlocations": 16678,
  "clear": 16679,
  "Ã¥n": 16681,
  "Print": 16682,
  "ĠJuli": 16684,
  "riel": 16686,
  "Ġbeam": 16688,
  "ĠdÃ©partement": 16690,
  "Ġowner": 16692,
  "Ġtables": 16695,
  "Ġpreserv": 16696,
  "ĠConsole": 16697,
  "meta": 16698,
  "ĠLud": 16699,
  "Ġconsumption": 16700,
  "itaire": 16702,
  "Ġdropped": 16704,
  "NG": 16705,
  "ĠKÃ¶nig": 16706,
  "Ġretour": 16707,
  "Ã©rÃ©": 16708,
  "ĠOffice": 16711,
  "hy": 16713,
  "ĠOd": 16715,
  "Ġcalculate": 16716,
  "ipit": 16718,
  "utional": 16719,
  "nom": 16721,
  "OH": 16724,
  "Ġanni": 16725,
  "ĠDVD": 16726,
  "Ġconstructed": 16727,
  "cknow": 16730,
  "ĠGard": 16731,
  "While": 16734,
  "Ġvoir": 16735,
  "Ġtissues": 16737,
  "blem": 16738,
  "Ġbodies": 16740,
  "ĠGreg": 16741,
  "Phone": 16742,
  "Hash": 16743,
  "Ġchlor": 16745,
  "ĠRail": 16746,
  "Ġmog": 16747,
  "EE": 16748,
  "ĠNh": 16749,
  "Ġtarde": 16750,
  "ĠfÃ©vrier": 16751,
  "Ġvil": 16752,
  "ĠLim": 16755,
  "During": 16756,
  "Ġdiscovered": 16757,
  "Ġlaun": 16758,
  "ĠfÃ¼hr": 16759,
  "Ġradiation": 16760,
  "Ġmeta": 16761,
  "connect": 16762,
  "Ġbrowser": 16764,
  "Ġfonction": 16765,
  "ĠTamb": 16766,
  "acji": 16768,
  "Ġzones": 16772,
  "Ġchannels": 16773,
  "Ang": 16775,
  "Ġniveau": 16777,
  "Ġparticul": 16779,
  "Ġantibody": 16780,
  "ĠspÃ©c": 16781,
  "á»ĳng": 16783,
  "ĠPi": 16784,
  "Ġdisch": 16786,
  "jekt": 16787,
  "Ġbiom": 16788,
  "atique": 16789,
  "ĠBoy": 16790,
  "ĠJr": 16791,
  "ovÃ¡": 16794,
  "ĠCi": 16795,
  "Ġreste": 16796,
  "itness": 16797,
  "Ġasking": 16798,
  "ĠBarcel": 16800,
  "ĠLuis": 16801,
  "enso": 16802,
  "ĠFI": 16803,
  "Ġshoulder": 16804,
  "Ġfundamental": 16805,
  "AND": 16807,
  "Ġextend": 16808,
  "Ġpiano": 16809,
  "Ġrecovery": 16810,
  "Ġestava": 16811,
  "Ġconsid": 16812,
  "Ġvice": 16813,
  "Ġnatur": 16814,
  "Ġcomposed": 16815,
  "ĠEth": 16816,
  "Äĥng": 16817,
  "Any": 16820,
  "ĠMexico": 16822,
  "Core": 16823,
  "ĠSpring": 16825,
  "Ġdoit": 16826,
  "Ġdernier": 16828,
  "ĠpÃ¨re": 16830,
  "Ġjej": 16833,
  "wing": 16835,
  "Ġstad": 16838,
  "Ġrecognition": 16839,
  "Since": 16840,
  "ĠMÃ©": 16841,
  "Ġextremely": 16843,
  "filter": 16844,
  "Ġprojet": 16845,
  "Ġstories": 16846,
  "Ġjeune": 16848,
  "Ġjak": 16849,
  "ĠMÃ¤r": 16851,
  "yw": 16852,
  "Ġengines": 16853,
  "ĠBundes": 16856,
  "Ġpurs": 16857,
  "Ġdecide": 16859,
  "Yes": 16860,
  "hist": 16861,
  "Ġgirls": 16862,
  "_log": 16864,
  "Ġrevol": 16866,
  "overflow": 16867,
  "Ġtir": 16869,
  "Ġovers": 16870,
  "ciÃ³": 16872,
  "Ġguitar": 16874,
  "ĠAdminist": 16875,
  "rale": 16876,
  "Ġelectrical": 16878,
  "atalog": 16879,
  "Ġarriv": 16880,
  "Ġhabe": 16881,
  "Ġsehr": 16882,
  "Ġtail": 16883,
  "Ġcellular": 16885,
  "Ġtherapeut": 16886,
  "amera": 16887,
  "Ġtv": 16890,
  "undial": 16891,
  "Ġdoctor": 16892,
  "ĠthÃ©": 16893,
  "Ġnodded": 16895,
  "Ġstarts": 16896,
  "Ġanswers": 16897,
  "Ġlect": 16898,
  "âĢĻe": 16899,
  "cio": 16901,
  "Ġmonitoring": 16902,
  "Ġmillions": 16903,
  "Ġpose": 16906,
  "ĠPortugal": 16908,
  "Ġdataset": 16910,
  "ashion": 16912,
  "Ã¡ban": 16914,
  "Ġbereits": 16915,
  "allow": 16917,
  "_state": 16918,
  "udes": 16919,
  "Ġdecor": 16920,
  "ĠprÃ¨s": 16921,
  "Ã¢nd": 16923,
  "chant": 16924,
  "Ġprompt": 16925,
  "anne": 16926,
  "ogenic": 16927,
  "los": 16931,
  "Ġquan": 16932,
  "Ġvib": 16935,
  "Ġlaiss": 16936,
  "ĠPak": 16937,
  "usher": 16938,
  "Elle": 16940,
  "Ġvoix": 16941,
  "ĠDesign": 16942,
  "ĠFont": 16943,
  "oka": 16944,
  "jel": 16945,
  "Ġstandards": 16947,
  "Ġili": 16948,
  "_dir": 16950,
  "ĠErn": 16951,
  "Ġdiesem": 16952,
  "Ġhydrogen": 16953,
  "Ġgibt": 16954,
  "Ġgleich": 16955,
  "Offset": 16956,
  "ikel": 16957,
  "Ġraison": 16958,
  "Ġzap": 16961,
  "Ġear": 16962,
  "ldots": 16963,
  "Ġrequests": 16964,
  "ĠquÃ¢n": 16965,
  "Ġexpert": 16967,
  "Ġdamit": 16969,
  "adu": 16970,
  "Ġhu": 16972,
  "Ġvolta": 16975,
  "Ġprolifer": 16976,
  "acle": 16977,
  "Ã¶v": 16978,
  "Ġpunto": 16979,
  "Ġolan": 16980,
  "ĠRoss": 16982,
  "Ġlearned": 16984,
  "rient": 16986,
  "Ġlean": 16987,
  "Ġviolence": 16988,
  "cket": 16990,
  "kre": 16991,
  "Ġzona": 16993,
  "Your": 16994,
  "ateral": 16996,
  "ĠFa": 16997,
  "yk": 16998,
  "ĠDown": 16999,
  "Ġwants": 17000,
  "mÄ±ÅŁ": 17001,
  "haust": 17003,
  "ĠWhere": 17005,
  "Ġbeiden": 17006,
  "Ġrum": 17009,
  "Ġfn": 17010,
  "yte": 17011,
  "Please": 17013,
  "bel": 17014,
  "Ġbare": 17015,
  "ĠBrasil": 17017,
  "helial": 17018,
  "Ġga": 17019,
  "Ġdistributed": 17021,
  "Ġbef": 17022,
  "Åĳl": 17026,
  "Ġcaracter": 17027,
  "erte": 17028,
  "ĠIran": 17030,
  "prote": 17031,
  "Ġgiorn": 17033,
  "ighter": 17034,
  "odi": 17035,
  "Ġmaar": 17036,
  "Ġblanc": 17038,
  "Av": 17039,
  "Ġregression": 17041,
  "osti": 17042,
  "ĠSab": 17043,
  "mega": 17044,
  "Ġviel": 17046,
  "Ġcorrectly": 17047,
  "ĠMaybe": 17048,
  "Ġacquired": 17049,
  "ĠjÃ¡": 17052,
  "ĠAnna": 17053,
  "Ġmechanical": 17054,
  "Ġcyl": 17057,
  "Ġbroadcast": 17058,
  "Ġaccompl": 17059,
  "Ġmois": 17060,
  "method": 17062,
  "Ġdoch": 17064,
  "_back": 17066,
  "ĠFab": 17068,
  "ĠNeg": 17071,
  "ifik": 17075,
  "Fragment": 17076,
  "Ġaunque": 17077,
  "Ġara": 17080,
  "Ġpouvoir": 17082,
  "water": 17083,
  "Ġwound": 17084,
  "ĠIntroduction": 17085,
  "icans": 17087,
  "Ġmaintained": 17088,
  "Ġgau": 17089,
  "Ġdebug": 17090,
  "aked": 17091,
  "Ġusage": 17094,
  "ETH": 17095,
  "ĠWilson": 17099,
  "Ġproperly": 17103,
  "Ġcompreh": 17104,
  "Ġhonor": 17105,
  "Ġorden": 17106,
  "ĠExample": 17108,
  "Ġtoda": 17109,
  "Ġfro": 17110,
  "ĠÃ¡lbum": 17112,
  "yled": 17113,
  "Render": 17114,
  "ĠGirl": 17115,
  "neo": 17116,
  "Ġlaugh": 17119,
  "Ġalgo": 17120,
  "unsigned": 17122,
  "ĠEgypt": 17125,
  "Ġtun": 17126,
  "ÃŃcula": 17128,
  "Enabled": 17129,
  "ĠHTML": 17130,
  "CK": 17131,
  "Ġachie": 17133,
  "ĠCT": 17134,
  "Ġorders": 17135,
  "Ġonde": 17137,
  "ĠKel": 17138,
  "omme": 17140,
  "eti": 17141,
  "Ġobjective": 17142,
  "Transaction": 17143,
  "Ġforest": 17144,
  "Ġkal": 17145,
  "Ġillustrated": 17146,
  "Callback": 17148,
  "Ġleb": 17149,
  "Ġihren": 17150,
  "Ġvictory": 17153,
  "Ġaccordance": 17154,
  "Ġchecked": 17155,
  "Ġanx": 17158,
  "Ġphotos": 17159,
  "ĠMajor": 17162,
  "_SE": 17163,
  "Ġinjection": 17165,
  "ietnam": 17166,
  "ĠSpiel": 17168,
  "raciÃ³n": 17169,
  "ĠHead": 17170,
  "ĠCommon": 17171,
  "SD": 17173,
  "aneously": 17174,
  "Ġwindows": 17176,
  "Ġestimate": 17177,
  "ĠUl": 17178,
  "falls": 17179,
  "Ġdiverse": 17180,
  "ĠChem": 17181,
  "vait": 17182,
  "Ġhuge": 17183,
  "jn": 17186,
  "ĠWolf": 17188,
  "Ġsender": 17189,
  "ĠBell": 17190,
  "Ġstatistical": 17192,
  "ĠKol": 17193,
  "Ġacet": 17195,
  "Ġtmp": 17197,
  "Ġrecommended": 17201,
  "_a": 17202,
  "adel": 17204,
  "Ġseparated": 17205,
  "Ġthermal": 17207,
  "Ġsmooth": 17208,
  "Ġseeing": 17209,
  "ears": 17210,
  "Ġrim": 17211,
  "Ġeffet": 17212,
  "Ġaid": 17217,
  "Ġadjacent": 17220,
  "illon": 17221,
  "Ġinclu": 17224,
  "Ã¼ll": 17225,
  "Ġactor": 17226,
  "Ġcoh": 17228,
  "Ġenqu": 17229,
  "IZE": 17230,
  "ĠWater": 17231,
  "Ġnag": 17233,
  "uper": 17234,
  "ĠBos": 17235,
  "ĠAcademy": 17236,
  "EG": 17238,
  "Ġcabe": 17239,
  "ĠPlatz": 17240,
  "ĠQueen": 17241,
  "cole": 17242,
  "igung": 17243,
  "agger": 17246,
  "isti": 17247,
  "Ġauthority": 17249,
  "roit": 17251,
  "psi": 17252,
  "Ġweather": 17253,
  "ĠseÃ±": 17254,
  "essages": 17255,
  "ruck": 17257,
  "Ġsizeof": 17258,
  "queue": 17259,
  "Ġentirely": 17262,
  "uite": 17263,
  "xe": 17264,
  "olve": 17265,
  "Ġsect": 17266,
  "ĠCanadian": 17267,
  "_num": 17268,
  "Cor": 17270,
  "force": 17271,
  "axis": 17272,
  "Ġeer": 17273,
  "Ġmigration": 17274,
  "Ġinstitutions": 17275,
  "Properties": 17276,
  "Ġahead": 17277,
  "category": 17278,
  "hu": 17279,
  "Ġfaster": 17280,
  "ĠJord": 17281,
  "Ġnada": 17283,
  "Ġkao": 17284,
  "Big": 17285,
  "Ġdegrad": 17286,
  "Head": 17287,
  "Ġperipher": 17288,
  "Ġcharacteristic": 17289,
  "Rel": 17290,
  "Ġreducing": 17291,
  "Ġdici": 17292,
  "pare": 17293,
  "Ġmeille": 17295,
  "Ġfingers": 17296,
  "unte": 17297,
  "Reference": 17298,
  "Ġforming": 17299,
  "Ġsoul": 17300,
  "Ptr": 17302,
  "Ġbroken": 17303,
  "Success": 17304,
  "idal": 17305,
  "Ġincident": 17307,
  "FT": 17310,
  "Ġmou": 17312,
  "wig": 17314,
  "Ġsupporting": 17317,
  "hang": 17319,
  "Ġsignificance": 17329,
  "sterreich": 17330,
  "Ġnast": 17333,
  "ĠIC": 17335,
  "Ġtrip": 17336,
  "Ġdois": 17337,
  "mus": 17338,
  "Ġsensitive": 17340,
  "Ġalpha": 17341,
  "Ġtransformation": 17342,
  "Ġerste": 17344,
  "Ġspatial": 17345,
  "rero": 17346,
  "ĠLabor": 17347,
  "ziaÅĤ": 17348,
  "Ġappl": 17349,
  "nas": 17351,
  "Ġpieces": 17352,
  "Ġpredicted": 17353,
  "Ġscan": 17354,
  "ĠCrist": 17359,
  "rÃ¤": 17360,
  "pois": 17362,
  "ĠFoundation": 17364,
  "Ġcustomers": 17365,
  "fon": 17366,
  "ABLE": 17367,
  "Ġzd": 17370,
  "Ġrural": 17371,
  "Ġstroke": 17372,
  "aml": 17373,
  "ĠSteve": 17374,
  "Ġrain": 17378,
  "ĠJacob": 17379,
  "ĠNH": 17380,
  "Mar": 17381,
  "Ġcoal": 17383,
  "address": 17384,
  "hin": 17385,
  "Ġeconomy": 17387,
  "Just": 17388,
  "tu": 17391,
  "izaciÃ³n": 17392,
  "Ġhistoria": 17394,
  "ĠPhys": 17395,
  "Ġparticle": 17396,
  "ĠKrie": 17398,
  "ĠNic": 17399,
  "Ã©se": 17400,
  "reas": 17401,
  "ĠButton": 17402,
  "Ġhomme": 17403,
  "DTO": 17404,
  "Ġterror": 17406,
  "Ġinvestigate": 17407,
  "upload": 17410,
  "ECT": 17411,
  "Ġclients": 17412,
  "rior": 17413,
  "ders": 17416,
  "Ġquiet": 17417,
  "Ġange": 17418,
  "ĠLiter": 17419,
  "ĠZwe": 17420,
  "Ġpreferably": 17421,
  "Ġgrade": 17422,
  "ĠKat": 17424,
  "Ġmarriage": 17425,
  "Ġneurons": 17426,
  "Ġcentro": 17429,
  "ksi": 17430,
  "ĠEC": 17431,
  "Ġspectrum": 17432,
  "ĠKur": 17435,
  "rett": 17436,
  "Ġmilitar": 17437,
  "Ġpromote": 17438,
  "ircle": 17439,
  "ĠtrÃªn": 17440,
  "usr": 17441,
  "Ġlift": 17443,
  "Ġfaith": 17444,
  "Ġosc": 17445,
  "Ġocup": 17446,
  "Ġsupports": 17448,
  "Ġbek": 17451,
  "ĠhÃ¡": 17452,
  "Ġisland": 17453,
  "ĠRoma": 17454,
  "ĠEste": 17455,
  "ĠcÃ´tÃ©": 17458,
  "iciones": 17459,
  "ĠRef": 17460,
  "miÅŁ": 17463,
  "Ġeffectively": 17470,
  "á»ĩn": 17474,
  "ĠDespite": 17475,
  "Admin": 17476,
  "ĠHard": 17477,
  "omatic": 17479,
  "ĠUTC": 17480,
  "Ġbuildings": 17482,
  "Ġpython": 17483,
  "ĠSeb": 17484,
  "Ġwordt": 17485,
  "Match": 17486,
  "referto": 17487,
  "ĠTen": 17488,
  "Ġorganizations": 17489,
  "Ġcrow": 17491,
  "ĠZealand": 17492,
  "EST": 17493,
  "stÃ¤nd": 17494,
  "Ġbene": 17495,
  "Ġacids": 17497,
  "aa": 17498,
  "gos": 17500,
  "ĠCes": 17501,
  "Ac": 17502,
  "Ġsql": 17503,
  "ĠEner": 17504,
  "ĠRon": 17505,
  "Where": 17507,
  "_at": 17509,
  "ĠPod": 17510,
  "operation": 17511,
  "Ġpris": 17512,
  "Ġsuit": 17513,
  "ĠPs": 17515,
  "Ġmentre": 17516,
  "hof": 17517,
  "ĠAlexand": 17521,
  "ĠEss": 17524,
  "Ġdisappe": 17525,
  "UTC": 17526,
  "Requ": 17527,
  "hard": 17528,
  "eless": 17531,
  "sto": 17534,
  "ĠmÄĽ": 17535,
  "Cache": 17536,
  "Ġrou": 17538,
  "Ġzusammen": 17539,
  "ĠEU": 17541,
  "anter": 17542,
  "Ġattributes": 17543,
  "_G": 17545,
  "Ġlegs": 17547,
  "Ġcub": 17548,
  "Ġconfidence": 17549,
  "ĠrÃ©c": 17550,
  "Ġmanera": 17553,
  "PR": 17554,
  "Ġescrit": 17556,
  "Ġclosely": 17558,
  "nog": 17560,
  "azu": 17561,
  "Ġafin": 17564,
  "Ġconclusion": 17565,
  "ATH": 17569,
  "Ġmathem": 17570,
  "Our": 17573,
  "Ġmurder": 17574,
  "heid": 17576,
  "ashboard": 17577,
  "Ġestar": 17578,
  "Ġoral": 17580,
  "Ġdrawn": 17584,
  "Ġpossess": 17585,
  "Ġboundary": 17586,
  "Ġabstract": 17587,
  "âĢĻavait": 17588,
  "Ġexperiences": 17590,
  "etan": 17591,
  "_TYPE": 17592,
  "zeichnet": 17594,
  "Trace": 17595,
  "Ã¤Ã¤n": 17596,
  "Ġletters": 17597,
  "ĠFace": 17598,
  "ilation": 17599,
  "dz": 17602,
  "etween": 17603,
  "Ġexcellent": 17605,
  "azio": 17607,
  "Ġpersonnes": 17608,
  "ĠPf": 17609,
  "ritten": 17610,
  "location": 17611,
  "Ġgent": 17612,
  "Ġcontribute": 17613,
  "ĠPython": 17616,
  "usa": 17617,
  "rei": 17618,
  "Ġnah": 17619,
  "ĠHash": 17620,
  "Ġdiscipl": 17622,
  "Ġspin": 17625,
  "Ġneither": 17626,
  "ĠHIV": 17627,
  "izabeth": 17629,
  "ĠEX": 17631,
  "Ġdegrees": 17633,
  "otta": 17634,
  "ependant": 17635,
  "Logger": 17636,
  "Ġhorizontal": 17638,
  "Ġoldu": 17639,
  "Many": 17640,
  "eneric": 17641,
  "vision": 17644,
  "Loading": 17646,
  "ĠCab": 17647,
  "cito": 17649,
  "ĠGlobal": 17650,
  "Ã¼g": 17651,
  "Ins": 17653,
  "Ġconcerned": 17656,
  "Ġfet": 17658,
  "ĠNever": 17660,
  "bus": 17662,
  "Enc": 17663,
  "multicol": 17664,
  "ĠProp": 17665,
  "Ġprinciple": 17666,
  "Ã©rica": 17667,
  "ĠMoh": 17668,
  "ĠPath": 17669,
  "none": 17670,
  "ĠNi": 17671,
  "cribed": 17675,
  "Ġscheme": 17676,
  "dern": 17677,
  "Ġbias": 17678,
  "target": 17679,
  "Ã¡ly": 17682,
  "lean": 17683,
  "Ġpairs": 17684,
  "ĠcÃ©l": 17685,
  "Ġproof": 17686,
  "Ġorganis": 17687,
  "thread": 17688,
  "ĠHarry": 17690,
  "naire": 17691,
  "Ġpilot": 17692,
  "Ġadm": 17693,
  "Ġstan": 17694,
  "ĠSports": 17695,
  "ĠÃ©tant": 17696,
  "ĠCare": 17697,
  "Ġsteel": 17698,
  "ĠÅ¼e": 17699,
  "Ġchief": 17701,
  "ĠFund": 17703,
  "ĠnÃ©cess": 17704,
  "Sw": 17705,
  "Ġembed": 17706,
  "Ġexecute": 17707,
  "ĠOrt": 17708,
  "Ġoverl": 17710,
  "Ġyo": 17711,
  "Ġrac": 17712,
  "rÃ¡s": 17715,
  "Ġexceed": 17717,
  "Ġtransaction": 17718,
  "Ġdurant": 17721,
  "multicolumn": 17722,
  "áº£ng": 17723,
  "Ġcausa": 17725,
  "ĠCorpor": 17726,
  "Author": 17727,
  "ĠDemocratic": 17728,
  "edge": 17729,
  "Ġencoding": 17731,
  "Ġsubsequently": 17732,
  "integrity": 17734,
  "ĠIreland": 17736,
  "Ġexhaust": 17737,
  "quier": 17740,
  "itchen": 17742,
  "Ġblo": 17744,
  "Ġdefeated": 17745,
  "ĠDez": 17746,
  "Ġpresidente": 17747,
  "riction": 17749,
  "rv": 17750,
  "ĠTÃ¼r": 17751,
  "ggi": 17752,
  "ĠBow": 17753,
  "izar": 17754,
  "Ġupload": 17755,
  "amount": 17756,
  "ĠHD": 17757,
  "Step": 17759,
  "iese": 17760,
  "Ġsegunda": 17761,
  "Ġatmosph": 17763,
  "Ġsurfaces": 17764,
  "NF": 17766,
  "Ġdepict": 17767,
  "Ġintegrated": 17769,
  "Ä±z": 17770,
  "Report": 17773,
  "Ġvotes": 17774,
  "ĠWars": 17776,
  "aws": 17777,
  "Ġpreparation": 17778,
  "INE": 17779,
  "Ġpointed": 17780,
  "BI": 17782,
  "Ġloaded": 17784,
  "bau": 17785,
  "Ġfamille": 17786,
  "Ġbanda": 17788,
  "kehr": 17789,
  "ĠBall": 17792,
  "Ġsummary": 17793,
  "aucoup": 17795,
  "erek": 17796,
  "iak": 17797,
  "Ġactu": 17802,
  "ETHOD": 17805,
  "ĠchÃŃnh": 17806,
  "ĠMethods": 17807,
  "Ġpromin": 17809,
  "ALL": 17810,
  "Ġobservation": 17811,
  "ĠIndones": 17814,
  "Ġbaby": 17815,
  "Ġláº¡i": 17816,
  "icz": 17817,
  "Ġconce": 17819,
  "final": 17820,
  "ĠHaupt": 17821,
  "Ġblank": 17822,
  "ĠGil": 17823,
  "Ġhaven": 17824,
  "_error": 17827,
  "Ġrevers": 17828,
  "Ġthá»©": 17829,
  "Ġencourag": 17832,
  "Ġtargets": 17833,
  "Ġmie": 17835,
  "ĠIndepend": 17837,
  "helm": 17838,
  "ĠCore": 17839,
  "Writer": 17841,
  "ĠOx": 17842,
  "Ġcoff": 17843,
  "closure": 17844,
  "Ġtransferred": 17845,
  "_mod": 17846,
  "help": 17847,
  "tek": 17848,
  "Ġreligion": 17849,
  "Pe": 17851,
  "submit": 17852,
  "Conf": 17854,
  "ĠhistÃ³": 17855,
  "Cons": 17857,
  "merican": 17859,
  "nem": 17862,
  "ĠDeutschland": 17863,
  "raphics": 17864,
  "Ġcognitive": 17866,
  "UG": 17869,
  "eting": 17870,
  "Ġapparent": 17871,
  "apor": 17872,
  "Ä±na": 17879,
  "_image": 17880,
  "Queue": 17883,
  "irtual": 17885,
  "Ġfeedback": 17887,
  "Ġcitizens": 17888,
  "Ġsorry": 17889,
  "avam": 17892,
  "KEY": 17893,
  "ppo": 17894,
  "ĠKorea": 17896,
  "Ġsecure": 17898,
  "GL": 17899,
  "ĠBritain": 17900,
  "Ġuniversity": 17901,
  "ĠFall": 17903,
  "Ġparticipation": 17904,
  "Ġinspir": 17906,
  "kow": 17907,
  "pson": 17908,
  "ĠHit": 17909,
  "Ġqueue": 17911,
  "oten": 17912,
  "Ġinhibition": 17914,
  "Ġtopic": 17915,
  "Ġenzyme": 17917,
  "Ġobservations": 17919,
  "Ġunsigned": 17920,
  "ĠhÃ¶": 17921,
  "ĠRub": 17922,
  "quelle": 17925,
  "ĠtenÃŃa": 17928,
  "ennis": 17929,
  "Ġxml": 17930,
  "Ġclust": 17933,
  "ĠInstead": 17934,
  "ailability": 17935,
  "_ch": 17936,
  "Ġteaching": 17937,
  "idents": 17938,
  "itel": 17939,
  "ĠFlorida": 17940,
  "Ġemployees": 17942,
  "Ġrealized": 17943,
  "matrix": 17944,
  "Although": 17945,
  "shot": 17947,
  "ĠBrazil": 17948,
  "okal": 17949,
  "Ġencounter": 17950,
  "ĠpÃ«r": 17951,
  "ĠDescription": 17952,
  "agers": 17954,
  "enci": 17955,
  "Ġhai": 17956,
  "ĠApplication": 17957,
  "send": 17958,
  "Ġcredit": 17959,
  "plan": 17960,
  "ERS": 17961,
  "rado": 17963,
  "varphi": 17964,
  "Ġcook": 17966,
  "ĠPrince": 17968,
  "rika": 17970,
  "Ġphysi": 17971,
  "Ġpolicies": 17973,
  "Ġconcerns": 17975,
  "Ġdiagram": 17977,
  "Ġopinion": 17978,
  "Ġacts": 17980,
  "ĠLatin": 17981,
  "UB": 17982,
  "ordon": 17983,
  "Ġexplanation": 17984,
  "Ġplastic": 17985,
  "Ġdw": 17987,
  "Ġcinq": 17990,
  "Ġhip": 17993,
  "Ġapproved": 17995,
  "Ġmaison": 17996,
  "Ġdemonstrate": 17997,
  "Ġexplo": 17998,
  "clip": 17999,
  "Ġgradu": 18001,
  "ogenesis": 18004,
  "endi": 18005,
  "Ġpip": 18006,
  "ĠvÃŃ": 18007,
  "ĠPedro": 18009,
  "ĠAdditionally": 18011,
  "Ġcoupled": 18015,
  "Ġdeclared": 18016,
  "etto": 18017,
  "Ġdispon": 18018,
  "Ġescape": 18020,
  "Ġdok": 18021,
  "ĠPra": 18022,
  "clusions": 18024,
  "Ã©sz": 18025,
  "Ġvalidation": 18028,
  "eterm": 18029,
  "Ġdove": 18030,
  "Ġtheoret": 18032,
  "Ġflight": 18034,
  "ĠKenn": 18035,
  "_number": 18036,
  "Ġsto": 18037,
  "áº·c": 18040,
  "jÄĻ": 18042,
  "Ã¨le": 18043,
  "Ġvalve": 18044,
  "Ġdimin": 18046,
  "Ġcomple": 18048,
  "ionen": 18050,
  "Ġpeng": 18051,
  "Ġwaste": 18052,
  "Ġhavia": 18053,
  "ĠSund": 18055,
  "certain": 18058,
  "Ġglucose": 18060,
  "icons": 18063,
  "Ġpump": 18064,
  "âĢĻy": 18066,
  "Parser": 18067,
  "ĠKal": 18068,
  "Å©ng": 18069,
  "Ġupd": 18070,
  "igos": 18071,
  "ĠgÃ©": 18073,
  "Ġohne": 18075,
  "iju": 18076,
  "Ġcommission": 18077,
  "ĠMaster": 18078,
  "ĠrÃ©gion": 18079,
  "Ġsurrounding": 18080,
  "Ã¶glich": 18082,
  "ether": 18084,
  "Ġlanguages": 18085,
  "_length": 18086,
  "ĠCatholic": 18087,
  "Ġgiornata": 18088,
  "Ġbudget": 18089,
  "ĠperÃ²": 18090,
  "ĠComput": 18093,
  "Ġrent": 18096,
  "indre": 18098,
  "lers": 18099,
  "orr": 18100,
  "Ġplanned": 18102,
  "rical": 18104,
  "Ġstations": 18105,
  "Ġconversation": 18106,
  "Ġpractical": 18107,
  "Ġmanage": 18108,
  "ensk": 18109,
  "Ġrelax": 18110,
  "ĠProcess": 18111,
  "ĠStone": 18112,
  "ĠRES": 18113,
  "ĠHein": 18114,
  "Ġenhanced": 18115,
  "Ġusual": 18119,
  "Ġpolitique": 18120,
  "ĠGuard": 18121,
  "Ġkad": 18122,
  "ĠBrig": 18123,
  "Ġdimensions": 18128,
  "ĠFamil": 18129,
  "Ġmise": 18131,
  "Ġleague": 18132,
  "Ġsyndrome": 18134,
  "ĠBang": 18135,
  "Ġske": 18136,
  "ferences": 18140,
  "Ġtroops": 18141,
  "Ġuk": 18142,
  "Ġroi": 18143,
  "Ġgall": 18145,
  "ĠNext": 18147,
  "Ġinfrastr": 18149,
  "Inv": 18150,
  "ĠtravÃ©s": 18152,
  "xml": 18154,
  "Ġbeim": 18157,
  "Ġalleg": 18158,
  "Ġknows": 18159,
  "Ġirr": 18160,
  "gather": 18161,
  "uez": 18163,
  "Var": 18164,
  "Ġtranslation": 18165,
  "Ġfeatured": 18166,
  "Ġdens": 18167,
  "Ġbright": 18168,
  "ĠsÃ¥": 18169,
  "cn": 18170,
  "Ġotras": 18171,
  "ĠSever": 18173,
  "Area": 18176,
  "Ġmuito": 18177,
  "Ġmyst": 18179,
  "Ġaccomp": 18180,
  "ĠVictor": 18182,
  "Ġpadre": 18183,
  "orted": 18184,
  "Ġspett": 18185,
  "Visible": 18186,
  "neg": 18188,
  "Ġdocumentation": 18189,
  "alert": 18190,
  "Ġpotentially": 18191,
  "á»ĥn": 18193,
  "control": 18194,
  "ĠStock": 18196,
  "ĠWeek": 18197,
  "Holder": 18198,
  "ĠItalia": 18200,
  "Ġcompat": 18202,
  "ĠPR": 18203,
  "Ġbaseline": 18204,
  "Ġrecip": 18205,
  "ĠAst": 18207,
  "ĠManagement": 18208,
  "Ġjourn": 18209,
  "untu": 18212,
  "wd": 18213,
  "Ġroutes": 18214,
  "Ġkit": 18216,
  "Ġlatest": 18217,
  "clam": 18218,
  "ÉĻk": 18220,
  "created": 18221,
  "Ġhorm": 18223,
  "Ġseva": 18224,
  "ĠRead": 18228,
  "Ġadopted": 18230,
  "Ġgouvern": 18232,
  "ĠSupp": 18233,
  "Ġincom": 18234,
  "modal": 18235,
  "emps": 18236,
  "media": 18242,
  "Ġoptimal": 18243,
  "ĠRequest": 18244,
  "Ġbinary": 18246,
  "ishop": 18249,
  "Double": 18251,
  "poque": 18254,
  "á»¥c": 18255,
  "ĠConstit": 18256,
  "iÃªn": 18257,
  "Ġwet": 18258,
  "Ġinternet": 18259,
  "Ġtall": 18260,
  "here": 18262,
  "Ġunha": 18263,
  "Ġconsecut": 18264,
  "Ġsounds": 18267,
  "Ġrear": 18268,
  "ĠPremier": 18270,
  "yect": 18272,
  "ĠvÃ¡l": 18273,
  "ĠCur": 18275,
  "Ġflash": 18276,
  "idity": 18277,
  "theless": 18279,
  "ĠrÃ´le": 18280,
  "Ġanaly": 18282,
  "Ġpic": 18283,
  "Ġdepartment": 18284,
  "igital": 18289,
  "ombres": 18292,
  "hos": 18293,
  "atti": 18294,
  "ĠdÃ©m": 18296,
  "Ġprin": 18298,
  "ĠMÃ¤rz": 18300,
  "ĠdÃ¼": 18301,
  "Names": 18302,
  "Ġszer": 18303,
  "ĠBild": 18304,
  "Ġschol": 18305,
  "Serial": 18306,
  "ĠHistor": 18307,
  "Ġethn": 18308,
  "Ġshut": 18309,
  "Ġfemales": 18311,
  "opath": 18313,
  "Ġbridge": 18314,
  "Ġlaunch": 18316,
  "aque": 18318,
  "ĠHaus": 18319,
  "INT": 18320,
  "bell": 18324,
  "bach": 18326,
  "store": 18327,
  "eed": 18331,
  "_model": 18332,
  "Ġarranged": 18333,
  "ropolit": 18335,
  "Ġsigns": 18336,
  "ilde": 18337,
  "ossa": 18338,
  "Ġpathways": 18341,
  "Ġfert": 18342,
  "ĠEmpire": 18344,
  "igte": 18345,
  "Ġproven": 18348,
  "oor": 18349,
  "oku": 18350,
  "Ġenemy": 18351,
  "Ġpesso": 18352,
  "Ġtrabaj": 18356,
  "alloc": 18357,
  "ĠCrit": 18361,
  "anja": 18362,
  "ĠBoston": 18363,
  "Ġtherapeutic": 18365,
  "loc": 18366,
  "Ġcompt": 18368,
  "LS": 18369,
  "Ġinvolving": 18371,
  "game": 18372,
  "ĠAlt": 18374,
  "Ġsov": 18375,
  "Ġbord": 18376,
  "Ġclimate": 18377,
  "Ġdecisions": 18379,
  "irty": 18381,
  "Ġeller": 18382,
  "ĠSource": 18383,
  "varepsilon": 18386,
  "Ġhence": 18387,
  "alf": 18388,
  "Ġphotograph": 18390,
  "Ġappointed": 18391,
  "Ġpossibil": 18393,
  "These": 18395,
  "Ãºt": 18396,
  "Ġnar": 18398,
  "Ġtravail": 18400,
  "Ã¨ve": 18401,
  "Ġepit": 18402,
  "ulu": 18403,
  "ĠDomin": 18404,
  "ĠJanuar": 18408,
  "arry": 18410,
[...]
