{
  "version": "1.0",
  "truncation": null,
  "padding": null,
  "added_tokens": [],
  "normalizer": null,
  "pre_tokenizer": {
    "type": "Sequence",
    "pretokenizers": [
      {
        "type": "Split",
        "pattern": {
          "Regex": "[^\\r\\n\\p{L}\\p{N}]?[\\p{Lu}\\p{Lt}\\p{Lm}\\p{Lo}\\p{M}]*[\\p{Ll}\\p{Lm}\\p{Lo}\\p{M}]+(?i:'s|'t|'re|'ve|'m|'ll|'d)?|[^\\r\\n\\p{L}\\p{N}]?[\\p{Lu}\\p{Lt}\\p{Lm}\\p{Lo}\\p{M}]+[\\p{Ll}\\p{Lm}\\p{Lo}\\p{M}]*(?i:'s|'t|'re|'ve|'m|'ll|'d)?|\\p{N}{1,3}| ?[^\\s\\p{L}\\p{N}]+[\\r\\n/]*|\\s*[\\r\\n]+|\\s+(?!\\S)|\\s+"
        },
        "behavior": "Isolated",
        "invert": false
      },
      {
        "type": "ByteLevel",
        "add_prefix_space": false,
        "trim_offsets": true,
        "use_regex": false
      }
    ]
  },
  "post_processor": {
    "type": "ByteLevel",
    "add_prefix_space": true,
    "trim_offsets": false,
    "use_regex": true
  },
  "decoder": {
    "type": "ByteLevel",
    "add_prefix_space": true,
    "trim_offsets": true,
    "use_regex": true
  },
  "model": {
    "type": "BPE",
    "dropout": null,
    "unk_token": null,
    "continuing_subword_prefix": null,
    "end_of_word_suffix": null,
    "fuse_unk": false,
    "byte_fallback": false,
    "ignore_merges": true,
    "vocab": {
      "!": 0,
      "\"": 1,
      "#": 2,
      "$": 3,
      "%": 4,
      "&": 5,
      "'": 6,
      "(": 7,
      ")": 8,
      "*": 9,
      "+": 10,
      ",": 11,
      "-": 12,
      ".": 13,
      "/": 14,
      "0": 15,
      "1": 16,
      "2": 17,
      "3": 18,
      "4": 19,
      "5": 20,
      "6": 21,
      "7": 22,
      "8": 23,
      "9": 24,
      ":": 25,
      ";": 26,
      "<": 27,
      "=": 28,
      ">": 29,
      "?": 30,
      "@": 31,
      "A": 32,
      "B": 33,
      "C": 34,
      "D": 35,
      "E": 36,
      "F": 37,
      "G": 38,
      "H": 39,
      "I": 40,
      "J": 41,
      "K": 42,
      "L": 43,
      "M": 44,
      "N": 45,
      "O": 46,
      "P": 47,
      "Q": 48,
      "R": 49,
      "S": 50,
      "T": 51,
      "U": 52,
      "V": 53,
      "W": 54,
      "X": 55,
      "Y": 56,
      "Z": 57,
      "[": 58,
      "\\": 59,
      "]": 60,
      "^": 61,
      "_": 62,
      "`": 63,
      "a": 64,
      "b": 65,
      "c": 66,
      "d": 67,
      "e": 68,
      "f": 69,
      "g": 70,
      "h": 71,
      "i": 72,
      "j": 73,
      "k": 74,
      "l": 75,
      "m": 76,
      "n": 77,
      "o": 78,
      "p": 79,
      "q": 80,
      "r": 81,
      "s": 82,
      "t": 83,
      "u": 84,
      "v": 85,
      "w": 86,
      "x": 87,
      "y": 88,
      "z": 89,
      "{": 90,
      "|": 91,
      "}": 92,
      "~": 93,
      "¡": 94,
      "¢": 95,
      "£": 96,
      "¤": 97,
      "¥": 98,
      "¦": 99,
      "§": 100,
      "¨": 101,
      "©": 102,
      "ª": 103,
      "«": 104,
      "¬": 105,
      "®": 106,
      "¯": 107,
      "°": 108,
      "±": 109,
      "²": 110,
      "³": 111,
      "´": 112,
      "µ": 113,
      "¶": 114,
      "·": 115,
      "¸": 116,
      "¹": 117,
      "º": 118,
      "»": 119,
      "¼": 120,
      "½": 121,
      "¾": 122,
      "¿": 123,
      "À": 124,
      "Á": 125,
      "Â": 126,
      "Ã": 127,
      "Ä": 128,
      "Å": 129,
      "Æ": 130,
      "Ç": 131,
      "È": 132,
      "É": 133,
      "Ê": 134,
      "Ë": 135,
      "Ì": 136,
      "Í": 137,
      "Î": 138,
      "Ï": 139,
      "Ð": 140,
      "Ñ": 141,
      "Ò": 142,
      "Ó": 143,
      "Ô": 144,
      "Õ": 145,
      "Ö": 146,
      "×": 147,
      "Ø": 148,
      "Ù": 149,
      "Ú": 150,
      "Û": 151,
      "Ü": 152,
      "Ý": 153,
      "Þ": 154,
      "ß": 155,
      "à": 156,
      "á": 157,
      "â": 158,
      "ã": 159,
      "ä": 160,
      "å": 161,
      "æ": 162,
      "ç": 163,
      "è": 164,
      "é": 165,
      "ê": 166,
      "ë": 167,
      "ì": 168,
      "í": 169,
      "î": 170,
      "ï": 171,
      "ð": 172,
      "ñ": 173,
      "ò": 174,
      "ó": 175,
      "ô": 176,
      "õ": 177,
      "ö": 178,
      "÷": 179,
      "ø": 180,
      "ù": 181,
      "ú": 182,
      "û": 183,
      "ü": 184,
      "ý": 185,
      "þ": 186,
      "ÿ": 187,
      "Ā": 188,
      "ā": 189,
      "Ă": 190,
      "ă": 191,
      "Ą": 192,
      "ą": 193,
      "Ć": 194,
      "ć": 195,
      "Ĉ": 196,
      "Ď": 197,
      "ď": 198,
      "Đ": 199,
      "đ": 200,
      "Ē": 201,
      "ē": 202,
      "Ĕ": 203,
      "ĕ": 204,
      "Ė": 205,
      "ė": 206,
      "Ę": 207,
      "ę": 208,
      "Ě": 209,
      "ě": 210,
      "ġ": 211,
      "Ģ": 212,
      "ģ": 213,
      "Ĥ": 214,
      "ĥ": 215,
      "Ħ": 216,
      "ħ": 217,
      "Ĩ": 218,
      "ĩ": 219,
      "Ī": 220,
      "ī": 221,
      "Ĭ": 222,
      "ĭ": 223,
      "Į": 224,
      "į": 225,
      "İ": 226,
      "ı": 227,
      "Ĳ": 228,
      "ĳ": 229,
      "Ĵ": 230,
      "ĵ": 231,
      "Ķ": 232,
      "ķ": 233,
      "ĸ": 234,
      "Ĺ": 235,
      "ĺ": 236,
      "Ļ": 237,
      "ļ": 238,
      "Ľ": 239,
      "ľ": 240,
      "Ŀ": 241,
      "ŀ": 242,
      "Ł": 243,
      "ł": 244,
      "Ń": 245,
      "in": 246,
      "er": 247,
      "Ġt": 248,
      "Ġa": 249,
      "en": 250,
      "on": 251,
      "re": 252,
      "Ġs": 253,
      "at": 254,
      "or": 255,
      "es": 256,
      "an": 257,
      "Ġd": 258,
      "he": 259,
      "Ġc": 260,
      "Ġp": 261,
      "is": 262,
      "ar": 263,
      "it": 264,
      "al": 265,
      "à¤": 266,
      "le": 267,
      "ou": 268,
      "Ġm": 269,
      "Ġf": 270,
      "Ġw": 271,
      "Ġb": 272,
      "as": 273,
      "ing": 274,
      "Ġthe": 275,
      "ic": 276,
      "et": 277,
      "Ġo": 278,
      "ion": 279,
      "ed": 280,
      "el": 281,
      "Ġn": 282,
      "ro": 283,
      "ent": 284,
      "ĠÐ": 285,
      "nd": 286,
      "st": 287,
      "áĥ": 288,
      "Ð°": 289,
      "Ġl": 290,
      "Ġin": 291,
      ";Ċ": 292,
      "ct": 293,
      "om": 294,
      "il": 295,
      "Ġh": 296,
      "am": 297,
      "Ġ=": 298,
      "id": 299,
      "Ġto": 300,
      "Ð¾": 301,
      "âĢ": 302,
      "Ġe": 303,
      "Ø§": 304,
      "im": 305,
      "Ġre": 306,
      "Ġv": 307,
      "ad": 308,
      "Ġth": 309,
      "Ġand": 310,
      "Ðµ": 311,
      "Ġof": 312,
      "Ġg": 313,
      "ur": 314,
      "Ð¸": 315,
      "ch": 316,
      "Ġà": 317,
      "Ġde": 318,
      "ĠS": 319,
      "Ġu": 320,
      "ÑĤ": 321,
      "ut": 322,
      "ol": 323,
      "Ð½": 324,
      "Ġy": 325,
      "ig": 326,
      "se": 327,
      "ÑĢ": 328,
      "ot": 329,
      "em": 330,
      "ag": 331,
      "iv": 332,
      "Ġ(": 333,
      "qu": 334,
      "ĠT": 335,
      "Ġ{": 336,
      "ĠA": 337,
      "ay": 338,
      "ĠI": 339,
      "à¥": 340,
      "ac": 341,
      "à¦": 342,
      "ul": 343,
      ");Ċ": 344,
      "ĠC": 345,
      ".ĊĊ": 346,
      "os": 347,
      "if": 348,
      "Ġà¤": 349,
      "od": 350,
      "Ñģ": 351,
      "tr": 352,
      "Ġk": 353,
      "un": 354,
      "ÙĦ": 355,
      "--": 356,
      "est": 357,
      "Ã©": 358,
      "ab": 359,
      "ate": 360,
      "ir": 361,
      "à¸": 362,
      "Ġis": 363,
      "Ð»": 364,
      "ow": 365,
      "us": 366,
      "à´": 367,
      "ation": 368,
      "Ġ}": 369,
      "ĠØ": 370,
      "ort": 371,
      "ĠM": 372,
      "Ġ\"": 373,
      "//": 374,
      "um": 375,
      "Ġfor": 376,
      "ie": 377,
      "àª": 378,
      "ĠP": 379,
      "ter": 380,
      "ce": 381,
      "our": 382,
      "Ġon": 383,
      "ap": 384,
      "th": 385,
      "Ġ{Ċ": 386,
      "Ġcon": 387,
      "av": 388,
      "ers": 389,
      "**": 390,
      "te": 391,
      ",Ċ": 392,
      "Ġbe": 393,
      "Ùħ": 394,
      "ĠD": 395,
      "()": 396,
      "ÙĪ": 397,
      "ĠB": 398,
      "end": 399,
      "Ġst": 400,
      "ist": 401,
      "ak": 402,
      "ly": 403,
      "pe": 404,
      "Ġ*": 405,
      "ÙĨ": 406,
      "and": 407,
      "Ġr": 408,
      "à²": 409,
      "res": 410,
      "ub": 411,
      "oc": 412,
      "Ø±": 413,
      "Ġal": 414,
      "à°": 415,
      "ess": 416,
      "ith": 417,
      "âĢĻ": 418,
      "Ð¾Ð": 419,
      "Ġpro": 420,
      "Ġj": 421,
      "Ñĥ": 422,
      "ÙĬ": 423,
      "ame": 424,
      "ver": 425,
      ")Ċ": 426,
      "port": 427,
      "Ġan": 428,
      "Ã¡": 429,
      "Ã¤": 430,
      "ĠL": 431,
      "Ġcom": 432,
      "Ġne": 433,
      "ĠF": 434,
      "20": 435,
      "ass": 436,
      "ĠE": 437,
      "Ġse": 438,
      "lic": 439,
      "ĠR": 440,
      "Ġ'": 441,
      "Ðº": 442,
      "Ġ×": 443,
      "Ġ<": 444,
      "Ñĭ": 445,
      "ue": 446,
      "op": 447,
      "out": 448,
      "Ġen": 449,
      "ht": 450,
      "Ġwh": 451,
      "Ġas": 452,
      "à®": 453,
      "Ġqu": 454,
      "ction": 455,
      "ãĢ": 456,
      "age": 457,
      "ĠN": 458,
      "og": 459,
      "Ġit": 460,
      "Ġyou": 461,
      "iz": 462,
      "Ġwith": 463,
      "Ġthat": 464,
      "..": 465,
      "ĠW": 466,
      "ĠH": 467,
      "ip": 468,
      "Ð´": 469,
      "ex": 470,
      "int": 471,
      "ill": 472,
      "ant": 473,
      "urn": 474,
      "Ġthis": 475,
      "ĠØ§": 476,
      "art": 477,
      "Ġtr": 478,
      "ĠG": 479,
      "Ð¼": 480,
      "Ġhe": 481,
      ";ĊĊ": 482,
      "Ġor": 483,
      "00": 484,
      "Ġle": 485,
      "ik": 486,
      "ment": 487,
      "à§": 488,
      "ore": 489,
      "rom": 490,
      "ere": 491,
      "Ġex": 492,
      "ine": 493,
      "àµ": 494,
      "ang": 495,
      "Øª": 496,
      "----": 497,
      "à¤¾": 498,
      "Ð²": 499,
      "ind": 500,
      "get": 501,
      ">Ċ": 502,
      "ain": 503,
      "ok": 504,
      "ib": 505,
      "ud": 506,
      "pl": 507,
      "turn": 508,
      "Ã³": 509,
      "ĠO": 510,
      "Ġ-": 511,
      "ect": 512,
      "ia": 513,
      "ity": 514,
      "Ġun": 515,
      "Ġif": 516,
      "Ùĩ": 517,
      "Ġat": 518,
      "ÛĮ": 519,
      "con": 520,
      "per": 521,
      "Ñı": 522,
      "á»": 523,
      "ata": 524,
      "Ø¯": 525,
      "Ġ$": 526,
      "Ġch": 527,
      "Ġpr": 528,
      "orm": 529,
      "ack": 530,
      "Ġare": 531,
      "ile": 532,
      "pt": 533,
      "ÃŃ": 534,
      "Ġla": 535,
      ".Ċ": 536,
      "ĠâĢ": 537,
      "==": 538,
      "import": 539,
      "able": 540,
      "ial": 541,
      "ost": 542,
      "cl": 543,
      "ies": 544,
      "Ġcl": 545,
      "(\"": 546,
      "ov": 547,
      "ust": 548,
      "Ġà¦": 549,
      "Ã¼": 550,
      "Ã¶": 551,
      "à«": 552,
      "Ġi": 553,
      "ult": 554,
      "ave": 555,
      "nt": 556,
      "Ġz": 557,
      "=\"": 558,
      "Ġwe": 559,
      "ld": 560,
      "ight": 561,
      "ublic": 562,
      "ive": 563,
      "all": 564,
      "áĥĲ": 565,
      "act": 566,
      "ĠØ§ÙĦ": 567,
      "ï¼": 568,
      "Ġfrom": 569,
      "Ã¥": 570,
      "Ġsu": 571,
      "ire": 572,
      "****": 573,
      "ell": 574,
      "ard": 575,
      "×Ļ": 576,
      "ser": 577,
      "tring": 578,
      "ĠU": 579,
      "Ġ//": 580,
      "ice": 581,
      "ord": 582,
      "ãģ": 583,
      "Ġ}Ċ": 584,
      "Ġàª": 585,
      "ff": 586,
      "->": 587,
      ";čĊ": 588,
      "ne": 589,
      "Ä±": 590,
      "de": 591,
      "ra": 592,
      "ÑĮ": 593,
      "ans": 594,
      "ide": 595,
      "ase": 596,
      "Õ¡": 597,
      "Ġnew": 598,
      "Ġdo": 599,
      "Ġreturn": 600,
      "ĠThe": 601,
      "ä¸": 602,
      "Ġnot": 603,
      "ure": 604,
      "à¥ĩ": 605,
      "ast": 606,
      "ob": 607,
      "ĠV": 608,
      "à¤°": 609,
      "Ġpl": 610,
      "Ġyour": 611,
      "Ð·": 612,
      "Ġáĥ": 613,
      "In": 614,
      "pr": 615,
      "com": 616,
      ".s": 617,
      "Ġsh": 618,
      "ime": 619,
      "ĠJ": 620,
      "are": 621,
      "ont": 622,
      "Ġar": 623,
      "à¯": 624,
      "ĠÐ¿": 625,
      "ype": 626,
      "Ġel": 627,
      "ite": 628,
      "Ø³": 629,
      "×ķ": 630,
      "pp": 631,
      "å¤": 632,
      "Ġby": 633,
      "Ø¨": 634,
      "ĠK": 635,
      "Ġ+": 636,
      "à±": 637,
      "Ġque": 638,
      "iew": 639,
      "ail": 640,
      "Ñĩ": 641,
      "Ġcan": 642,
      "Ð¿": 643,
      "201": 644,
      "Ġme": 645,
      "ĠÑģ": 646,
      "à³": 647,
      "áĥĲáĥ": 648,
      "\",": 649,
      "Ġwas": 650,
      "àµį": 651,
      "ace": 652,
      "ode": 653,
      "Ġint": 654,
      "ach": 655,
      "Ġhave": 656,
      "ll": 657,
      "ij": 658,
      "à¥į": 659,
      "Ð³": 660,
      "ge": 661,
      "elf": 662,
      "Ġpar": 663,
      "Ġad": 664,
      "áĥĺ": 665,
      "str": 666,
      "one": 667,
      "rou": 668,
      "Ġab": 669,
      "âĢĿ": 670,
      "Ġres": 671,
      "St": 672,
      "ens": 673,
      "Ùģ": 674,
      "du": 675,
      "form": 676,
      "ĠÕ": 677,
      "10": 678,
      "ich": 679,
      "Ã§": 680,
      "ong": 681,
      "('": 682,
      "Ã°": 683,
      "Ãł": 684,
      "Õ¡Õ": 685,
      "cc": 686,
      "xt": 687,
      "Ġ:": 688,
      "Ø©": 689,
      "ÑĢÐ°": 690,
      "Ø¹": 691,
      "pon": 692,
      "Ġget": 693,
      "ber": 694,
      "Ð¹": 695,
      "Re": 696,
      "à¤¾à¤": 697,
      "Ġall": 698,
      "Ġ[": 699,
      "Ñħ": 700,
      "ath": 701,
      "io": 702,
      "Î±": 703,
      "ject": 704,
      "Ġte": 705,
      "ĠIn": 706,
      "Ġdes": 707,
      "Ñĸ": 708,
      "ign": 709,
      ":Ċ": 710,
      "alue": 711,
      "ork": 712,
      "ve": 713,
      "Ġwill": 714,
      "}Ċ": 715,
      "();Ċ": 716,
      ").": 717,
      "::": 718,
      "ĠÐ²": 719,
      "Ġclass": 720,
      "{Ċ": 721,
      "lo": 722,
      "ome": 723,
      "ĠTh": 724,
      "ÑģÑĤ": 725,
      "ize": 726,
      "Ġpublic": 727,
      "ĠÙħ": 728,
      "au": 729,
      "ull": 730,
      "å½": 731,
      "ions": 732,
      "Ð±": 733,
      "Ġ}ĊĊ": 734,
      "Ġ@": 735,
      "×Ļ×": 736,
      "der": 737,
      "ook": 738,
      "--------": 739,
      "ÑĪ": 740,
      "Ġus": 741,
      "ance": 742,
      "ould": 743,
      "ĠÐ½": 744,
      "ãĥ": 745,
      "Ġim": 746,
      "__": 747,
      "put": 748,
      "ient": 749,
      "äº": 750,
      ".get": 751,
      "ÐµÐ½": 752,
      "Ġper": 753,
      "Ġvo": 754,
      "ext": 755,
      "ated": 756,
      "Äį": 757,
      "ÙĤ": 758,
      "yst": 759,
      "ous": 760,
      "à¤¿": 761,
      "so": 762,
      "',": 763,
      "ãĢĤ": 764,
      "ple": 765,
      "×ķ×": 766,
      "Ú©": 767,
      "erv": 768,
      "áĥĶ": 769,
      "à¹": 770,
      "par": 771,
      "à¦¾": 772,
      "cr": 773,
      "ress": 774,
      "Ġà´": 775,
      "ck": 776,
      "âĢĻs": 777,
      "áº": 778,
      "Ġì": 779,
      "ert": 780,
      "ey": 781,
      "ount": 782,
      "</": 783,
      "ma": 784,
      "Ġgo": 785,
      "à¥įà¤": 786,
      "Å¡": 787,
      "Ġso": 788,
      "ake": 789,
      "ary": 790,
      "ĠÐ¸": 791,
      "up": 792,
      "vent": 793,
      "ory": 794,
      "Ġ/": 795,
      "Î¿": 796,
      "pro": 797,
      "ÏĦ": 798,
      "Ã£": 799,
      "ft": 800,
      "Ġ&": 801,
      "ĠÐº": 802,
      "Ġdis": 803,
      "ear": 804,
      "Ġma": 805,
      "àµįà´": 806,
      "ÓĻ": 807,
      "unction": 808,
      "Ġcont": 809,
      "err": 810,
      "_t": 811,
      "ystem": 812,
      "à¥Ģ": 813,
      "Ð°Ð½": 814,
      "Ġout": 815,
      "row": 816,
      "Ġund": 817,
      "ãĤ": 818,
      "ug": 819,
      "ien": 820,
      "Ġà¤ķ": 821,
      "ah": 822,
      "ual": 823,
      "this": 824,
      "ock": 825,
      "Ġhas": 826,
      "we": 827,
      "fer": 828,
      "áĥĶáĥ": 829,
      "áĢ": 830,
      "19": 831,
      "Ġet": 832,
      "Ġno": 833,
      ");ĊĊ": 834,
      "div": 835,
      "Ġem": 836,
      "Name": 837,
      "ĠY": 838,
      "ER": 839,
      "ition": 840,
      "Ġup": 841,
      "Ùĥ": 842,
      "Ġ=>": 843,
      "ri": 844,
      "Ġman": 845,
      "Î¹": 846,
      "ery": 847,
      "Ġpre": 848,
      "##": 849,
      "Ġes": 850,
      "ĠÐ±": 851,
      "Ġsa": 852,
      "ink": 853,
      "eng": 854,
      "ĠÐ´": 855,
      "àª¾": 856,
      "'s": 857,
      "ek": 858,
      "Ġ.": 859,
      "ĠÙĪ": 860,
      "Ġbut": 861,
      "Ġà°": 862,
      "Îµ": 863,
      "ng": 864,
      "Ġest": 865,
      "cre": 866,
      "ound": 867,
      "gr": 868,
      "name": 869,
      "Ġna": 870,
      "12": 871,
      "Ġà²": 872,
      "ĠSt": 873,
      "à¯į": 874,
      "app": 875,
      "====": 876,
      "ier": 877,
      "Id": 878,
      "ĠRe": 879,
      "ree": 880,
      "Con": 881,
      "********": 882,
      "à¤¿à¤": 883,
      "ÖĢ": 884,
      "ĠÐ¾": 885,
      "ors": 886,
      "))": 887,
      "String": 888,
      "à§ĩ": 889,
      "ose": 890,
      "text": 891,
      "Ġset": 892,
      "lect": 893,
      "Ġmy": 894,
      "ild": 895,
      "ÑĨ": 896,
      "Ã¸": 897,
      "che": 898,
      "ĠØ¨": 899,
      "áĥĺáĥ": 900,
      "ations": 901,
      "iel": 902,
      "ĠÑĤ": 903,
      "Ġ*/": 904,
      "ical": 905,
      "ann": 906,
      "to": 907,
      "),": 908,
      "ew": 909,
      "Ð¾Ð²": 910,
      "Ġam": 911,
      "own": 912,
      "ark": 913,
      "ther": 914,
      "}ĊĊ": 915,
      "ener": 916,
      "Ġmore": 917,
      "ĠÐ¼": 918,
      "ps": 919,
      "åı": 920,
      "ØŃ": 921,
      "List": 922,
      "Ġ==": 923,
      "à¥ĭ": 924,
      "cept": 925,
      "Î½": 926,
      "ìĿ": 927,
      "gh": 928,
      "Ã¨": 929,
      "Pro": 930,
      "odel": 931,
      "ĠÐ°": 932,
      "ph": 933,
      "ement": 934,
      "ings": 935,
      "add": 936,
      "IN": 937,
      "ĠâĢľ": 938,
      "à¦¾à¦": 939,
      "Ð°ÑĢ": 940,
      "ike": 941,
      "ool": 942,
      "Ġvar": 943,
      "ade": 944,
      "Ġro": 945,
      "ON": 946,
      "The": 947,
      "set": 948,
      "ivate": 949,
      "ï¼Į": 950,
      "und": 951,
      "ÅŁ": 952,
      "áŀ": 953,
      "Ġgr": 954,
      "æľ": 955,
      "Ã£o": 956,
      "atch": 957,
      "ung": 958,
      "Ġstr": 959,
      "clud": 960,
      "Ġop": 961,
      "Ex": 962,
      "Ġinter": 963,
      "11": 964,
      "ç¥": 965,
      "Ġcol": 966,
      "Ġpart": 967,
      "à¤¨": 968,
      "her": 969,
      ".l": 970,
      "Ġone": 971,
      "vel": 972,
      "ick": 973,
      "à¤Ĥ": 974,
      "ater": 975,
      "rr": 976,
      "ec": 977,
      "...": 978,
      "iss": 979,
      "Ġvoid": 980,
      "Ø¬": 981,
      "Õ¸": 982,
      "ton": 983,
      "Ġsp": 984,
      "×¨": 985,
      "à¤ķ": 986,
      "Ġag": 987,
      "Å¾": 988,
      "Ð°Ð»": 989,
      "Ã¦": 990,
      ".m": 991,
      "Ġ|": 992,
      "Ġthey": 993,
      "æĹ": 994,
      "ÐµÑĢ": 995,
      "Ġconst": 996,
      "ep": 997,
      "inal": 998,
      ")ĊĊ": 999,
      "Ø´": 1000,
      "Ð¾Ð»": 1001,
      "les": 1002,
      "Ġda": 1003,
      "return": 1004,
      "Ð°ÑĤ": 1005,
      "ĠCh": 1006,
      "tt": 1007,
      "enc": 1008,
      "Ġour": 1009,
      "Ġ</": 1010,
      "ÐµÑĤ": 1011,
      "Ãº": 1012,
      "Ġtheir": 1013,
      "ays": 1014,
      "Ġpe": 1015,
      "àª¾àª": 1016,
      "me": 1017,
      "ove": 1018,
      "Ġcomp": 1019,
      "Ġself": 1020,
      "ange": 1021,
      "Ġapp": 1022,
      "anc": 1023,
      "15": 1024,
      "bject": 1025,
      "Ġdef": 1026,
      "urr": 1027,
      "Ġtime": 1028,
      "Com": 1029,
      "Ġà®": 1030,
      "quest": 1031,
      "Ġany": 1032,
      "Äĥ": 1033,
      "ado": 1034,
      "Ð¶": 1035,
      "ven": 1036,
      "Ġob": 1037,
      "eth": 1038,
      "Ġ#": 1039,
      "fo": 1040,
      "az": 1041,
      "Ġover": 1042,
      "Ġ!": 1043,
      "data": 1044,
      "à´¿": 1045,
      "Ġdie": 1046,
      "ĠÚ©": 1047,
      "Ġabout": 1048,
      "ef": 1049,
      "à§į": 1050,
      ".c": 1051,
      "ence": 1052,
      "Ġdel": 1053,
      "led": 1054,
      "Ġstat": 1055,
      "Ñİ": 1056,
      "ss": 1057,
      "alse": 1058,
      "']": 1059,
      "à¦¿": 1060,
      "ĠÎ": 1061,
      "\"Ċ": 1062,
      "ava": 1063,
      "ents": 1064,
      "Õ¥": 1065,
      "ise": 1066,
      "View": 1067,
      ");čĊ": 1068,
      "RE": 1069,
      "âĢľ": 1070,
      "Ġwork": 1071,
      "ry": 1072,
      "pos": 1073,
      "ank": 1074,
      "val": 1075,
      "åħ": 1076,
      "oy": 1077,
      "Ð¸ÑĤ": 1078,
      "ish": 1079,
      "Õ¶": 1080,
      "Ġer": 1081,
      "Ġë": 1082,
      "eb": 1083,
      "Ġfunction": 1084,
      "Ø§ÙĦ": 1085,
      "sh": 1086,
      "ST": 1087,
      "Ġwhich": 1088,
      "pec": 1089,
      "oint": 1090,
      "Ġent": 1091,
      "à¨": 1092,
      "reat": 1093,
      "ble": 1094,
      "16": 1095,
      "que": 1096,
      "ĠâĢĵ": 1097,
      "ix": 1098,
      "à§įà¦": 1099,
      "30": 1100,
      "âĢ¦": 1101,
      "duct": 1102,
      "tem": 1103,
      "aw": 1104,
      "Ġ*/Ċ": 1105,
      ".com": 1106,
      "line": 1107,
      "à«ĩ": 1108,
      "Th": 1109,
      "ä¹": 1110,
      "tion": 1111,
      "Ø²": 1112,
      "abel": 1113,
      "à³į": 1114,
      "Cont": 1115,
      "Ð¾ÑĢ": 1116,
      "Ġadd": 1117,
      "sp": 1118,
      "áĥĿ": 1119,
      "\",Ċ": 1120,
      "ely": 1121,
      "irst": 1122,
      "iÃ³": 1123,
      "public": 1124,
      "ĠØª": 1125,
      "self": 1126,
      "18": 1127,
      "×Ĳ": 1128,
      "mer": 1129,
      "uk": 1130,
      "25": 1131,
      "Ġbl": 1132,
      "Type": 1133,
      "Ġvan": 1134,
      "ied": 1135,
      "rit": 1136,
      "ale": 1137,
      "Ïĥ": 1138,
      "essage": 1139,
      "arg": 1140,
      "\");Ċ": 1141,
      "Ãª": 1142,
      "ific": 1143,
      "ield": 1144,
      "Ġ_": 1145,
      "oll": 1146,
      "à±į": 1147,
      "Ãµ": 1148,
      "200": 1149,
      "erm": 1150,
      "['": 1151,
      "uch": 1152,
      "dd": 1153,
      "Ïģ": 1154,
      "cess": 1155,
      "Data": 1156,
      "Äĩ": 1157,
      "Ġbu": 1158,
      "ĠString": 1159,
      "vo": 1160,
      "co": 1161,
      "×ľ": 1162,
      "Ġfe": 1163,
      "ada": 1164,
      "Ø§ÙĨ": 1165,
      ".f": 1166,
      "crip": 1167,
      "×Ķ": 1168,
      "Ġuse": 1169,
      "ian": 1170,
      ".p": 1171,
      "Ġelse": 1172,
      "Res": 1173,
      "Ch": 1174,
      "ty": 1175,
      "eg": 1176,
      "Ð½Ñĭ": 1177,
      "Ġpara": 1178,
      "Ġà¸": 1179,
      "Ġid": 1180,
      "ĠÃ©": 1181,
      "',Ċ": 1182,
      "Ġx": 1183,
      "Ġalso": 1184,
      "Ġwho": 1185,
      "ĠSystem": 1186,
      "ese": 1187,
      "ĠÃł": 1188,
      "Ġå": 1189,
      "ervice": 1190,
      "ĉif": 1191,
      "ĠIt": 1192,
      "Ñį": 1193,
      "Ġder": 1194,
      "AT": 1195,
      "ash": 1196,
      ".set": 1197,
      "Ð¾Ð¼": 1198,
      "Ġhis": 1199,
      "ox": 1200,
      "()Ċ": 1201,
      "ĠÐ½Ð°": 1202,
      "Ġsome": 1203,
      "umber": 1204,
      "Ġdata": 1205,
      "uth": 1206,
      "ID": 1207,
      "Col": 1208,
      ".S": 1209,
      "\":": 1210,
      "Õ«": 1211,
      "Ġver": 1212,
      "ator": 1213,
      "ner": 1214,
      "pect": 1215,
      "Ġprivate": 1216,
      "×¢": 1217,
      "igh": 1218,
      "any": 1219,
      "Ġpos": 1220,
      "lement": 1221,
      "aj": 1222,
      "Ġnull": 1223,
      "à¯įà®": 1224,
      "ĠPro": 1225,
      "Ġacc": 1226,
      "ÐµÐ»": 1227,
      "Ġwhen": 1228,
      "EN": 1229,
      "Ġà¤¸": 1230,
      "Ġje": 1231,
      "14": 1232,
      "ĠÐ¿ÑĢ": 1233,
      "Ð¾Ð´": 1234,
      "Ġend": 1235,
      "fig": 1236,
      "($": 1237,
      "ait": 1238,
      "ke": 1239,
      "Ġother": 1240,
      "Ùī": 1241,
      "ÒĽ": 1242,
      "yn": 1243,
      "Ġoff": 1244,
      "_s": 1245,
      "Text": 1246,
      "old": 1247,
      "ger": 1248,
      "view": 1249,
      "Ġaf": 1250,
      "Ġyear": 1251,
      "_m": 1252,
      "erson": 1253,
      "Ð½Ð¸": 1254,
      "als": 1255,
      "\">": 1256,
      "Äĳ": 1257,
      "red": 1258,
      ".b": 1259,
      "read": 1260,
      "Ġbr": 1261,
      "à²¿": 1262,
      "ĠÐ·": 1263,
      "----------------": 1264,
      "tern": 1265,
      "Ġlike": 1266,
      "à³įà²": 1267,
      "OR": 1268,
      "000": 1269,
      "_c": 1270,
      "iÃ³n": 1271,
      "ten": 1272,
      "à´¿à´": 1273,
      "li": 1274,
      "Ġname": 1275,
      "Ġneed": 1276,
      "ource": 1277,
      "13": 1278,
      "AR": 1279,
      "Ġkn": 1280,
      "def": 1281,
      "urrent": 1282,
      "roup": 1283,
      "ception": 1284,
      "ÅĤ": 1285,
      "date": 1286,
      "Ġdi": 1287,
      "Øµ": 1288,
      "ĠÂ": 1289,
      "202": 1290,
      "Ġreg": 1291,
      "Ø§Ø±": 1292,
      "áĥĿáĥ": 1293,
      "Ġjust": 1294,
      "ĠThis": 1295,
      "à¤¤": 1296,
      "Ġact": 1297,
      "ute": 1298,
      "Ð½Ð¾": 1299,
      "Ġorg": 1300,
      "Ġser": 1301,
      "Ġher": 1302,
      ".A": 1303,
      "_f": 1304,
      "wo": 1305,
      "Ġbeen": 1306,
      "Ġmay": 1307,
      "Ġles": 1308,
      "ĠØ¯": 1309,
      "Ġtrue": 1310,
      "quire": 1311,
      "ÏĢ": 1312,
      "ÉĻ": 1313,
      "let": 1314,
      "its": 1315,
      "Ġmin": 1316,
      "uct": 1317,
      "Ġeen": 1318,
      "ÖĤ": 1319,
      "100": 1320,
      "Ġthere": 1321,
      "param": 1322,
      "son": 1323,
      "Ø®": 1324,
      "ĠÙĦ": 1325,
      "_p": 1326,
      "ict": 1327,
      "ai": 1328,
      "ax": 1329,
      "à·": 1330,
      "íķ": 1331,
      "ating": 1332,
      "Ġ,": 1333,
      "ĠUn": 1334,
      "ØĮ": 1335,
      "Ġrec": 1336,
      ".t": 1337,
      "ys": 1338,
      "ader": 1339,
      "Ġthem": 1340,
      "Ġreal": 1341,
      "Ġac": 1342,
      "å®": 1343,
      "cont": 1344,
      "Ġche": 1345,
      "oun": 1346,
      ".d": 1347,
      "ates": 1348,
      "Ġpor": 1349,
      "Ġind": 1350,
      "à¸²": 1351,
      "To": 1352,
      "ices": 1353,
      "itt": 1354,
      "Cl": 1355,
      "new": 1356,
      "ĠCom": 1357,
      "Ġph": 1358,
      "Ġhel": 1359,
      "ĉreturn": 1360,
      "Ġcomm": 1361,
      "ãĢģ": 1362,
      "à°¿": 1363,
      "32": 1364,
      "utton": 1365,
      "LE": 1366,
      "ning": 1367,
      ":ĊĊ": 1368,
      "Ġlos": 1369,
      "\")": 1370,
      "ues": 1371,
      "Ġco": 1372,
      "Ø·": 1373,
      "Ġà¤¹": 1374,
      "Tr": 1375,
      "åĪ": 1376,
      "Ġwhat": 1377,
      "Ġbet": 1378,
      "ond": 1379,
      "ĠWe": 1380,
      "arch": 1381,
      "Ð»Ð¸": 1382,
      "Ġap": 1383,
      "trib": 1384,
      "Ġmet": 1385,
      "17": 1386,
      "Ġ?": 1387,
      "Ġ>": 1388,
      "Î·": 1389,
      "////": 1390,
      "uf": 1391,
      "user": 1392,
      "vid": 1393,
      "ible": 1394,
      "yle": 1395,
      "Ġvalue": 1396,
      "ÏĤ": 1397,
      "50": 1398,
      "à¸Ļ": 1399,
      "ength": 1400,
      "very": 1401,
      "ĠÙģ": 1402,
      "ponse": 1403,
      "of": 1404,
      "Ġfr": 1405,
      "iet": 1406,
      "Ð¾Ð³": 1407,
      "class": 1408,
      "Ġlo": 1409,
      "ault": 1410,
      "ask": 1411,
      "Ġhet": 1412,
      "ĠÑĥ": 1413,
      "\";Ċ": 1414,
      "Ob": 1415,
      "Ġav": 1416,
      "à±įà°": 1417,
      "().": 1418,
      "à¤²": 1419,
      "à¶": 1420,
      "à§ĩà¦": 1421,
      "Ġhad": 1422,
      "Ġval": 1423,
      "Ġsc": 1424,
      "ages": 1425,
      "Ġdu": 1426,
      "ames": 1427,
      "be": 1428,
      "var": 1429,
      "à¦¿à¦": 1430,
      "ä»": 1431,
      "IT": 1432,
      "Ġ×Ķ": 1433,
      "ÑĦ": 1434,
      "åĲ": 1435,
      "clude": 1436,
      "Ġcons": 1437,
      "ĠÃ": 1438,
      "Ġmed": 1439,
      "Ġdet": 1440,
      "ument": 1441,
      "_l": 1442,
      "Ð½Ð°": 1443,
      "ana": 1444,
      "Ġwould": 1445,
      "Ïħ": 1446,
      "AL": 1447,
      "roll": 1448,
      "Ġfalse": 1449,
      "ĠQ": 1450,
      "Ù¾": 1451,
      "ĠZ": 1452,
      "Ġtype": 1453,
      "ole": 1454,
      "ular": 1455,
      "olum": 1456,
      "min": 1457,
      "24": 1458,
      "Ġhow": 1459,
      "à¤¸": 1460,
      "ãĢĤĊĊ": 1461,
      "Ġdr": 1462,
      "AN": 1463,
      "ful": 1464,
      "Ġdif": 1465,
      "til": 1466,
      "na": 1467,
      "Ġwere": 1468,
      "Ûģ": 1469,
      "ĠØ¹": 1470,
      "'t": 1471,
      ".h": 1472,
      "####": 1473,
      "ople": 1474,
      "Ġinto": 1475,
      "Ġsur": 1476,
      "ows": 1477,
      "ĠTr": 1478,
      "amp": 1479,
      "ĠDe": 1480,
      "air": 1481,
      "Ġ{čĊ": 1482,
      "Ġcre": 1483,
      "Ġmake": 1484,
      "rol": 1485,
      "ina": 1486,
      "Ð¾ÑĤ": 1487,
      "ta": 1488,
      "Ġ×Ĳ": 1489,
      "(f": 1490,
      "Õ¸ÖĤ": 1491,
      "ëĭ": 1492,
      "SE": 1493,
      "à«į": 1494,
      "ÛĴ": 1495,
      "ĠCon": 1496,
      "à¥ģ": 1497,
      "Ġresult": 1498,
      "_b": 1499,
      "Ġrel": 1500,
      "_id": 1501,
      "Ø§Øª": 1502,
      "Ġloc": 1503,
      "\">Ċ": 1504,
      "ics": 1505,
      "')": 1506,
      "Ġsub": 1507,
      "error": 1508,
      "ethod": 1509,
      "Ġ)": 1510,
      "ze": 1511,
      "Ġfl": 1512,
      "à«Ģ": 1513,
      "ĠSe": 1514,
      "========": 1515,
      "à«įàª": 1516,
      "af": 1517,
      "à¤¹": 1518,
      "ho": 1519,
      "åľ": 1520,
      "Ġjava": 1521,
      "ody": 1522,
      "Ġà¤®": 1523,
      "ml": 1524,
      "ts": 1525,
      "Ġlist": 1526,
      "çļ": 1527,
      "ins": 1528,
      "_d": 1529,
      "ww": 1530,
      "×ª": 1531,
      "En": 1532,
      "à°¾": 1533,
      "×ŀ": 1534,
      "å¹": 1535,
      "Ġthan": 1536,
      "âĢĻt": 1537,
      "ÐµÐ¼": 1538,
      "itle": 1539,
      "ente": 1540,
      "Ġfirst": 1541,
      "ica": 1542,
      "Ġaw": 1543,
      "ÄĻ": 1544,
      "Ġbo": 1545,
      "By": 1546,
      "Ġà¤ª": 1547,
      "Se": 1548,
      "âĢĵ": 1549,
      "Par": 1550,
      "je": 1551,
      "Ġimport": 1552,
      "Ġtem": 1553,
      "Item": 1554,
      "àµģ": 1555,
      "]Ċ": 1556,
      "ĠØ³": 1557,
      "value": 1558,
      "ious": 1559,
      "work": 1560,
      "ause": 1561,
      "print": 1562,
      "ÐºÐ°": 1563,
      "lick": 1564,
      "ule": 1565,
      "Ġback": 1566,
      "ense": 1567,
      "Ġstart": 1568,
      "Ġein": 1569,
      "Ġonly": 1570,
      "(Ċ": 1571,
      "ĠYou": 1572,
      "ures": 1573,
      "Ġke": 1574,
      "ower": 1575,
      "**Ċ": 1576,
      "****************": 1577,
      "arr": 1578,
      "æĸ": 1579,
      "Ġits": 1580,
      "raw": 1581,
      "à¸£": 1582,
      "Ġfil": 1583,
      "Ġstring": 1584,
      "ces": 1585,
      "Ġinform": 1586,
      "Äħ": 1587,
      "Ġform": 1588,
      "ments": 1589,
      "Ò¯": 1590,
      "urs": 1591,
      "ities": 1592,
      "ayer": 1593,
      "Ġlook": 1594,
      "Ġlet": 1595,
      "Ġstatic": 1596,
      "ember": 1597,
      "day": 1598,
      "Ġbest": 1599,
      "à¤®": 1600,
      "Value": 1601,
      "ler": 1602,
      "Ġunder": 1603,
      "à±ģ": 1604,
      "Ġtrans": 1605,
      "ender": 1606,
      "Ġmost": 1607,
      "Ġfind": 1608,
      "Ġperson": 1609,
      "Ġed": 1610,
      "ustom": 1611,
      "Ð»Ð°": 1612,
      "].": 1613,
      "Ġhelp": 1614,
      "olog": 1615,
      "ÐºÐ¸": 1616,
      "string": 1617,
      "ĠWh": 1618,
      "Ġng": 1619,
      "ateg": 1620,
      "lection": 1621,
      "den": 1622,
      "oth": 1623,
      "Ġrem": 1624,
      "Ø§Ø": 1625,
      "Îº": 1626,
      "Ġpeople": 1627,
      "Ġ!=": 1628,
      "ĠAl": 1629,
      "Ø£": 1630,
      "Ġcar": 1631,
      "à¥¤": 1632,
      "const": 1633,
      "à®¿": 1634,
      "á»į": 1635,
      "à´¾": 1636,
      "la": 1637,
      "à²¿à²": 1638,
      "ÐµÐ´": 1639,
      "ÄŁ": 1640,
      "ĠHe": 1641,
      "Ġass": 1642,
      "irect": 1643,
      "Ġwant": 1644,
      "ari": 1645,
      "://": 1646,
      "ession": 1647,
      "ren": 1648,
      "Õ¡Õ¶": 1649,
      "ĠAn": 1650,
      "à¥Ī": 1651,
      "Ð¸Ñı": 1652,
      "bo": 1653,
      "={": 1654,
      "à¯ģ": 1655,
      "gram": 1656,
      ".D": 1657,
      "olumn": 1658,
      "br": 1659,
      "Ġdon": 1660,
      "Ġlong": 1661,
      "Ð¾Ð½": 1662,
      "!ĊĊ": 1663,
      "Ġgu": 1664,
      "Ġsk": 1665,
      "ern": 1666,
      "Im": 1667,
      "wa": 1668,
      "22": 1669,
      "Ġinst": 1670,
      "load": 1671,
      "rough": 1672,
      "Ġum": 1673,
      "ç½": 1674,
      "?ĊĊ": 1675,
      "ha": 1676,
      "Ñī": 1677,
      "ĠØ£": 1678,
      "ets": 1679,
      "_C": 1680,
      "Ġfinal": 1681,
      "Î¼": 1682,
      "40": 1683,
      "Ġarr": 1684,
      "Ġ&&": 1685,
      "×ĳ": 1686,
      "Î»": 1687,
      "Ġread": 1688,
      "Ã«": 1689,
      "×©": 1690,
      "à¸Ń": 1691,
      "orld": 1692,
      "uc": 1693,
      "];Ċ": 1694,
      "hed": 1695,
      ".F": 1696,
      "reak": 1697,
      "fr": 1698,
      "atus": 1699,
      "Ġge": 1700,
      "Ð¾Ð¹": 1701,
      "Ġve": 1702,
      "ting": 1703,
      "';Ċ": 1704,
      "Ġtest": 1705,
      "Ã§Ã£o": 1706,
      "++": 1707,
      "åĽ": 1708,
      "no": 1709,
      "bl": 1710,
      "Object": 1711,
      "Ġevery": 1712,
      "ĠAr": 1713,
      "Ġspec": 1714,
      "Ã©s": 1715,
      "Ġshould": 1716,
      "ponent": 1717,
      "ES": 1718,
      ".j": 1719,
      "Ġknow": 1720,
      "ood": 1721,
      "ility": 1722,
      "Exception": 1723,
      "Ġsm": 1724,
      "×ł": 1725,
      "Ġmon": 1726,
      "[i": 1727,
      "Ġcr": 1728,
      "Ġshe": 1729,
      "ĠEx": 1730,
      "wn": 1731,
      "ĉpublic": 1732,
      "Ġê": 1733,
      "Ġwell": 1734,
      "ush": 1735,
      "Å¼": 1736,
      "ux": 1737,
      "ĠÚ": 1738,
      "Ġpres": 1739,
      "Ġsch": 1740,
      "ms": 1741,
      "Ð´Ð°": 1742,
      "Ġsi": 1743,
      "yp": 1744,
      "Ġden": 1745,
      "tra": 1746,
      "iver": 1747,
      "à´¾à´": 1748,
      "ager": 1749,
      "ĠÙĨ": 1750,
      "à²¾": 1751,
      "Ġil": 1752,
      "Ġexper": 1753,
      "Ó©": 1754,
      "Ġsom": 1755,
      "Ġæ": 1756,
      "col": 1757,
      "ative": 1758,
      "ĠÐ³": 1759,
      "word": 1760,
      "reg": 1761,
      "Ġhand": 1762,
      "url": 1763,
      "ãĢĲ": 1764,
      "try": 1765,
      "rap": 1766,
      "ons": 1767,
      "ream": 1768,
      "ily": 1769,
      "iness": 1770,
      "Ġmod": 1771,
      "ãĢĳ": 1772,
      "Ġdat": 1773,
      "Ġthen": 1774,
      "Get": 1775,
      "ï¼ļ": 1776,
      "ym": 1777,
      "Ġthrough": 1778,
      "));Ċ": 1779,
      "use": 1780,
      "ccess": 1781,
      "Ġpol": 1782,
      "uss": 1783,
      "Ġuser": 1784,
      "Ġchar": 1785,
      "Ġinv": 1786,
      "aut": 1787,
      "fore": 1788,
      "idth": 1789,
      "Ġopt": 1790,
      "àª¨": 1791,
      "arent": 1792,
      "à°¾à°": 1793,
      ".n": 1794,
      "fl": 1795,
      "icht": 1796,
      "ats": 1797,
      "ĠÑĢ": 1798,
      "Ã½": 1799,
      "Ġrequire": 1800,
      "Ã¢": 1801,
      "ĠIf": 1802,
      "User": 1803,
      "Ġsim": 1804,
      "using": 1805,
      "ends": 1806,
      "ĠÑĩ": 1807,
      "Ġright": 1808,
      "serv": 1809,
      "Ġ%": 1810,
      "è§": 1811,
      "Ġpass": 1812,
      "ka": 1813,
      "amb": 1814,
      "à®¿à®": 1815,
      "£áĥ": 1816,
      "(s": 1817,
      "ĠØ§ÙĦÙħ": 1818,
      "23": 1819,
      "Ã¾": 1820,
      "Ġ},Ċ": 1821,
      "áĥĺáĥ¡": 1822,
      "Ġstud": 1823,
      "Î¯": 1824,
      "ui": 1825,
      "ÙĬØ©": 1826,
      "sert": 1827,
      "Ġvery": 1828,
      "ough": 1829,
      "Ã±": 1830,
      "ife": 1831,
      "ais": 1832,
      "ref": 1833,
      "_S": 1834,
      "void": 1835,
      "ĠAs": 1836,
      "ior": 1837,
      "Ġthese": 1838,
      "Ġweb": 1839,
      "State": 1840,
      "ased": 1841,
      "):Ċ": 1842,
      "àµģà´": 1843,
      "Ġdec": 1844,
      "Ð°Ð¼": 1845,
      "Ġsol": 1846,
      "Ġproduct": 1847,
      "Ġcase": 1848,
      "àª°": 1849,
      "à²¾à²": 1850,
      "cond": 1851,
      "áĥĶáĥĳ": 1852,
      "CT": 1853,
      "\")Ċ": 1854,
      "èµ": 1855,
      "key": 1856,
      "Ġgood": 1857,
      "ene": 1858,
      "Ø§Ùħ": 1859,
      "Ġmak": 1860,
      "à«ĭ": 1861,
      "ars": 1862,
      "çĶ": 1863,
      "ni": 1864,
      "Ġcor": 1865,
      "Ġka": 1866,
      "Ġvis": 1867,
      "60": 1868,
      "Õ¥Õ": 1869,
      "Ġbel": 1870,
      "à³ģ": 1871,
      "lient": 1872,
      "rray": 1873,
      "Ġprof": 1874,
      "Ġdur": 1875,
      "Ġdown": 1876,
      "Ġbus": 1877,
      "Ġwhere": 1878,
      "Ġtwo": 1879,
      "Ġsee": 1880,
      "unc": 1881,
      "De": 1882,
      "Â»": 1883,
      "Ġsl": 1884,
      "Ġpost": 1885,
      "Ġatt": 1886,
      "perty": 1887,
      "Time": 1888,
      "Ġpour": 1889,
      "Ġaut": 1890,
      "Ġhigh": 1891,
      "ÑģÑı": 1892,
      "Ġafter": 1893,
      "rem": 1894,
      "Ġext": 1895,
      "php": 1896,
      "for": 1897,
      "cent": 1898,
      ".g": 1899,
      "ouse": 1900,
      "ru": 1901,
      "ackage": 1902,
      "Ð°Ðº": 1903,
      "ature": 1904,
      "ister": 1905,
      "Ã¼r": 1906,
      "UL": 1907,
      ".add": 1908,
      "[]": 1909,
      "Ġeven": 1910,
      "ational": 1911,
      "Ġnow": 1912,
      "ĠSh": 1913,
      "ara": 1914,
      "Ġart": 1915,
      "ĠAnd": 1916,
      "Ġeff": 1917,
      "ouble": 1918,
      "à°¿à°": 1919,
      "ote": 1920,
      "ience": 1921,
      "round": 1922,
      "Ģà¸": 1923,
      "Ġmen": 1924,
      "ĠÐ½Ðµ": 1925,
      "ÙĪØ±": 1926,
      "Ġuna": 1927,
      "ider": 1928,
      "rror": 1929,
      "uff": 1930,
      "ivers": 1931,
      "Ġfile": 1932,
      "ando": 1933,
      "action": 1934,
      "ersion": 1935,
      "arn": 1936,
      "oin": 1937,
      ".st": 1938,
      "include": 1939,
      "Ġsup": 1940,
      "Ġmark": 1941,
      "Set": 1942,
      "ify": 1943,
      "ane": 1944,
      "rite": 1945,
      "umn": 1946,
      "els": 1947,
      "Ð¸Ð½": 1948,
      "Ġmany": 1949,
      "arget": 1950,
      "Ind": 1951,
      "Ġos": 1952,
      "Ġlas": 1953,
      "Ġ×ŀ": 1954,
      "htt": 1955,
      "Ġgl": 1956,
      "leg": 1957,
      "att": 1958,
      "play": 1959,
      "è½": 1960,
      "Ġcal": 1961,
      "Ġway": 1962,
      ".P": 1963,
      "_P": 1964,
      "Ġmuch": 1965,
      ".C": 1966,
      "-s": 1967,
      "hr": 1968,
      "RO": 1969,
      "×ĺ": 1970,
      ".M": 1971,
      "ayout": 1972,
      "Ġbec": 1973,
      "ĠLe": 1974,
      "Ġdem": 1975,
      "press": 1976,
      "Ġho": 1977,
      "IC": 1978,
      "Ġcould": 1979,
      ".L": 1980,
      "(t": 1981,
      "à¤¾à¤°": 1982,
      "ants": 1983,
      "ines": 1984,
      "28": 1985,
      "Ġom": 1986,
      "Ġou": 1987,
      "lease": 1988,
      "à¤ª": 1989,
      "ÖĢÕ": 1990,
      "Key": 1991,
      "ĠNew": 1992,
      "ride": 1993,
      "Service": 1994,
      "ìĹ": 1995,
      "21": 1996,
      "à¦°": 1997,
      "Õ¸ÖĤÕ": 1998,
      "ution": 1999,
      "ION": 2000,
      "ĠØ¬": 2001,
      "æĪ": 2002,
      "roid": 2003,
      "ĠÐ¶": 2004,
      "Ġwhile": 2005,
      "ced": 2006,
      "za": 2007,
      "DE": 2008,
      "='": 2009,
      "((": 2010,
      "à¹Ī": 2011,
      "util": 2012,
      "item": 2013,
      "99": 2014,
      "Ġsaid": 2015,
      "era": 2016,
      "Ġused": 2017,
      "à¥įà¤°": 2018,
      "velop": 2019,
      "ĠPl": 2020,
      "ĠÙħÙĨ": 2021,
      "He": 2022,
      "ja": 2023,
      "org": 2024,
      "Ġ×ľ": 2025,
      "çº": 2026,
      "../": 2027,
      "emb": 2028,
      "Wh": 2029,
      "opy": 2030,
      "Ġtry": 2031,
      "ward": 2032,
      "å¥": 2033,
      "wh": 2034,
      "Ġfam": 2035,
      "');Ċ": 2036,
      "ino": 2037,
      "alk": 2038,
      "vis": 2039,
      "à¸²à¸": 2040,
      "Ġog": 2041,
      "Ġnumber": 2042,
      "cription": 2043,
      "Ð¾Ð±": 2044,
      "×ĵ": 2045,
      "ya": 2046,
      "Event": 2047,
      "rint": 2048,
      "27": 2049,
      "Ġmo": 2050,
      "çī": 2051,
      "Ġ×ĳ": 2052,
      "Ġserv": 2053,
      "ÏĮ": 2054,
      "Ð¾Ñģ": 2055,
      "Ġ*Ċ": 2056,
      "ä½": 2057,
      "Ġyears": 2058,
      "ocument": 2059,
      "Ø³Øª": 2060,
      "Ġevent": 2061,
      "Ġhere": 2062,
      "ited": 2063,
      "Ġplay": 2064,
      "Ġcas": 2065,
      "26": 2066,
      "ized": 2067,
      "Ã´": 2068,
      "Ĥà°": 2069,
      "cript": 2070,
      "ci": 2071,
      "ÐµÑģ": 2072,
      "ante": 2073,
      "land": 2074,
      "-b": 2075,
      "aciÃ³n": 2076,
      "idad": 2077,
      "łáĥ": 2078,
      "à³Ĩ": 2079,
      "Ġprint": 2080,
      "Ġ///": 2081,
      "aar": 2082,
      "-m": 2083,
      "ĠX": 2084,
      "Ø¶": 2085,
      "ĠÙĩ": 2086,
      "ĠEn": 2087,
      "Ġfin": 2088,
      "Î¬": 2089,
      "log": 2090,
      "Info": 2091,
      "ĠÙ¾": 2092,
      "uit": 2093,
      "ãĢĳãĢĲ": 2094,
      "){Ċ": 2095,
      "Ġà¤¬": 2096,
      "Ġkey": 2097,
      "other": 2098,
      "Ġlog": 2099,
      "order": 2100,
      "ken": 2101,
      "(m": 2102,
      "ally": 2103,
      "());Ċ": 2104,
      "AM": 2105,
      "Ġcomple": 2106,
      "à¦¨": 2107,
      "Æ°": 2108,
      "ama": 2109,
      "cho": 2110,
      "_T": 2111,
      "],": 2112,
      "Ã©r": 2113,
      "kt": 2114,
      "AS": 2115,
      "å¼": 2116,
      "ĠOn": 2117,
      "...ĊĊ": 2118,
      "ĠÙģÙĬ": 2119,
      "Ġday": 2120,
      "Ġinformation": 2121,
      "#include": 2122,
      "åį": 2123,
      "We": 2124,
      "ĠÑĢÐ°": 2125,
      "Ġitem": 2126,
      "_n": 2127,
      "Ġdiffer": 2128,
      "ttp": 2129,
      "Ġpas": 2130,
      "Ġlast": 2131,
      "ET": 2132,
      "Button": 2133,
      "umm": 2134,
      "Sh": 2135,
      "dit": 2136,
      "æĺ": 2137,
      "alth": 2138,
      "áŁ": 2139,
      "UR": 2140,
      "Åĳ": 2141,
      "ìĿ´": 2142,
      "Ġsin": 2143,
      "Ġtak": 2144,
      "à©": 2145,
      "ĠCl": 2146,
      "Ġà¨": 2147,
      "ÑĤÐ¾": 2148,
      "Ġprogram": 2149,
      "ollow": 2150,
      "Ġword": 2151,
      "ails": 2152,
      "Pl": 2153,
      "Òĵ": 2154,
      "ros": 2155,
      "Ġinclud": 2156,
      "Ġtext": 2157,
      "unt": 2158,
      "Ĥ¬": 2159,
      "struct": 2160,
      "back": 2161,
      "è¿": 2162,
      "'Ċ": 2163,
      "Ġcurrent": 2164,
      "Ø°": 2165,
      "))Ċ": 2166,
      "mp": 2167,
      "Ġgreat": 2168,
      "éĩ": 2169,
      "ĠFor": 2170,
      "Ġins": 2171,
      "ĠØ±": 2172,
      "Ġgener": 2173,
      "arm": 2174,
      "On": 2175,
      "64": 2176,
      "ĠÙĬ": 2177,
      "ique": 2178,
      "An": 2179,
      "Ð²Ð°": 2180,
      "ga": 2181,
      "Ġdoes": 2182,
      "roller": 2183,
      "atur": 2184,
      "Ġfa": 2185,
      "Ġ--": 2186,
      "Qu": 2187,
      "Ġsign": 2188,
      ".w": 2189,
      "pre": 2190,
      "Ġbecause": 2191,
      "Ġhome": 2192,
      "Ġsuch": 2193,
      "Model": 2194,
      "Ġfree": 2195,
      "80": 2196,
      "Ġdid": 2197,
      "At": 2198,
      "ĠÏĦ": 2199,
      ");": 2200,
      "Man": 2201,
      "ams": 2202,
      "à¸¥": 2203,
      "ÐµÐº": 2204,
      ".in": 2205,
      "Or": 2206,
      "ED": 2207,
      "tn": 2208,
      "Ġbefore": 2209,
      "Error": 2210,
      "Ġ<<": 2211,
      "index": 2212,
      "ital": 2213,
      "ÅĽ": 2214,
      "UT": 2215,
      "ida": 2216,
      "ample": 2217,
      "è¯": 2218,
      "ives": 2219,
      "Un": 2220,
      "ware": 2221,
      "_in": 2222,
      "ÙĪÙĨ": 2223,
      "Ġnum": 2224,
      "29": 2225,
      "Ð¸Ð¼": 2226,
      "[\"": 2227,
      "Ġprocess": 2228,
      "],Ċ": 2229,
      "uthor": 2230,
      "ëĭ¤": 2231,
      "ste": 2232,
      ")čĊ": 2233,
      "File": 2234,
      "comm": 2235,
      "Ġprovid": 2236,
      "ç»": 2237,
      "rop": 2238,
      "ĠPr": 2239,
      "ache": 2240,
      "ector": 2241,
      "loat": 2242,
      "Ð¸Ð»": 2243,
      "Ġya": 2244,
      "01": 2245,
      "IS": 2246,
      "à¸µ": 2247,
      "Ã¡s": 2248,
      "ido": 2249,
      "Ġonline": 2250,
      "Ġvoor": 2251,
      "Over": 2252,
      "oad": 2253,
      "face": 2254,
      "ĠÒ": 2255,
      "fe": 2256,
      "Request": 2257,
      "Ġtake": 2258,
      "As": 2259,
      "ional": 2260,
      "Map": 2261,
      "oh": 2262,
      "man": 2263,
      "Ġste": 2264,
      "chn": 2265,
      "ĠFr": 2266,
      "),Ċ": 2267,
      "Ġ×©": 2268,
      "Ġown": 2269,
      "ĠRes": 2270,
      "file": 2271,
      "go": 2272,
      "Ġchild": 2273,
      "à¤Ĺ": 2274,
      "âĢĶ": 2275,
      "enu": 2276,
      "Color": 2277,
      "Ġview": 2278,
      "Ar": 2279,
      "ours": 2280,
      "Ġcap": 2281,
      "Ġà¤ķà¥ĩ": 2282,
      "Ġà¤¨": 2283,
      "Ġdas": 2284,
      "imes": 2285,
      "è®": 2286,
      "ĠáĥĽ": 2287,
      "Ġq": 2288,
      "td": 2289,
      "':": 2290,
      "Ġbreak": 2291,
      "vert": 2292,
      "iter": 2293,
      "Ġarg": 2294,
      ".W": 2295,
      "ared": 2296,
      "Ġtop": 2297,
      "by": 2298,
      "ually": 2299,
      "erg": 2300,
      "Al": 2301,
      "Ġsize": 2302,
      "ason": 2303,
      "atic": 2304,
      "ains": 2305,
      "Ġsit": 2306,
      "ailable": 2307,
      "ocation": 2308,
      "Ġshow": 2309,
      "Ġce": 2310,
      "....": 2311,
      "Ġmodel": 2312,
      "Ġusing": 2313,
      "Ò£": 2314,
      "enn": 2315,
      "ini": 2316,
      "Ġdesign": 2317,
      "ÙĬÙĨ": 2318,
      "rc": 2319,
      "ism": 2320,
      "Index": 2321,
      "ĠÐ·Ð°": 2322,
      "Ġsal": 2323,
      "Ġcheck": 2324,
      "_M": 2325,
      "Ġ{ĊĊ": 2326,
      "áĥķ": 2327,
      "Ġworld": 2328,
      "Ġà¤ľ": 2329,
      "eter": 2330,
      "-t": 2331,
      "ÙĪÙĦ": 2332,
      "ijn": 2333,
      "Ġ\\": 2334,
      "ament": 2335,
      "à¥įà¤¯": 2336,
      "Ġweek": 2337,
      "å¿": 2338,
      "à¯ģà®": 2339,
      "ĠÑį": 2340,
      "×§": 2341,
      "lication": 2342,
      "ĠÐ»": 2343,
      "Ġson": 2344,
      "Ġbook": 2345,
      "ĠdÃ©": 2346,
      "Element": 2347,
      "Ġhim": 2348,
      "itch": 2349,
      "lete": 2350,
      "Ġ||": 2351,
      "ĠØ´": 2352,
      "Form": 2353,
      "Ð¸Ðµ": 2354,
      "(self": 2355,
      "Ġmit": 2356,
      "ĠÐµ": 2357,
      "ght": 2358,
      "(n": 2359,
      "(p": 2360,
      "do": 2361,
      "ivity": 2362,
      "(c": 2363,
      "Ġthink": 2364,
      "Ð¾Ð³Ð¾": 2365,
      "Ġbusiness": 2366,
      "Test": 2367,
      "ĠÂ«": 2368,
      "AD": 2369,
      "Ġtot": 2370,
      "Ġagain": 2371,
      "Ġsystem": 2372,
      "Ġcall": 2373,
      "ye": 2374,
      "Ġprote": 2375,
      "ico": 2376,
      "ua": 2377,
      "ados": 2378,
      "Ġcent": 2379,
      "Ġpa": 2380,
      "(this": 2381,
      "×Ĺ": 2382,
      "ih": 2383,
      "×ķ×ª": 2384,
      "Ġzu": 2385,
      "ìŀ": 2386,
      "AC": 2387,
      "package": 2388,
      "Ġpoint": 2389,
      "ĠBe": 2390,
      "×Ļ×Ŀ": 2391,
      "ott": 2392,
      "ĠÑħ": 2393,
      "Ġprodu": 2394,
      "Ø«": 2395,
      "ĠCol": 2396,
      "à¸±": 2397,
      "Ġbeing": 2398,
      "oto": 2399,
      "Ġrep": 2400,
      "Ġmat": 2401,
      "ideo": 2402,
      "Ġmade": 2403,
      "ios": 2404,
      "Ġeach": 2405,
      "oot": 2406,
      "Ġposs": 2407,
      "();ĊĊ": 2408,
      "åĬ": 2409,
      "Ð»Ñı": 2410,
      "right": 2411,
      "Ġrun": 2412,
      "Ġà¹": 2413,
      "Ġune": 2414,
      "ero": 2415,
      "âĢĮ": 2416,
      "è´": 2417,
      "35": 2418,
      "gen": 2419,
      "-d": 2420,
      "aterial": 2421,
      "Int": 2422,
      "Ġha": 2423,
      "Ġà¤ħ": 2424,
      "export": 2425,
      "Ġplace": 2426,
      "ĠâĢĺ": 2427,
      "ident": 2428,
      "Ġqual": 2429,
      "Ð¸ÑĢ": 2430,
      "ape": 2431,
      "à²°": 2432,
      "Ġpo": 2433,
      "_name": 2434,
      "ks": 2435,
      "Äģ": 2436,
      "Le": 2437,
      "Ġà¤¹à¥Ī": 2438,
      "oken": 2439,
      "Ġcle": 2440,
      "Ġsoc": 2441,
      "Ġfound": 2442,
      "Ú¯": 2443,
      "type": 2444,
      "Ġopen": 2445,
      "à¥ĩà¤Ĥ": 2446,
      "Ġist": 2447,
      "×¤": 2448,
      "Ġsupport": 2449,
      "This": 2450,
      "Ġcreate": 2451,
      "ĠGr": 2452,
      "á»¥": 2453,
      "hip": 2454,
      "ora": 2455,
      "Ġpat": 2456,
      "Date": 2457,
      "ather": 2458,
      "×¡": 2459,
      "////////": 2460,
      "ê³": 2461,
      "come": 2462,
      "å°": 2463,
      "ĠTo": 2464,
      "')Ċ": 2465,
      "Ġ__": 2466,
      "ollection": 2467,
      ".âĢĿ": 2468,
      "_st": 2469,
      "po": 2470,
      "à§ģ": 2471,
      "result": 2472,
      "Context": 2473,
      "ìł": 2474,
      "âĢį": 2475,
      "ÙĩØ§": 2476,
      "Ġcomo": 2477,
      "ÐµÐ¹": 2478,
      "ala": 2479,
      "da": 2480,
      "ined": 2481,
      "ëĬ": 2482,
      "Box": 2483,
      "Ð¾Ðº": 2484,
      "istr": 2485,
      "ql": 2486,
      "olean": 2487,
      "create": 2488,
      "Ð¾Ð¶": 2489,
      "Ġsuper": 2490,
      "ters": 2491,
      "ende": 2492,
      "nen": 2493,
      "Ġline": 2494,
      "ween": 2495,
      "ĠAll": 2496,
      "33": 2497,
      "(),": 2498,
      "45": 2499,
      "ists": 2500,
      "Ġ...": 2501,
      "Size": 2502,
      "Ġcho": 2503,
      "sole": 2504,
      "vice": 2505,
      "à¤µ": 2506,
      "Ġku": 2507,
      "Ġpartic": 2508,
      "orn": 2509,
      "à§°": 2510,
      ".e": 2511,
      "une": 2512,
      "é¢": 2513,
      "App": 2514,
      "icense": 2515,
      "Ġni": 2516,
      "Of": 2517,
      "ocal": 2518,
      "Ð°Ð¹": 2519,
      "Ġorder": 2520,
      "Ġservice": 2521,
      "ê°": 2522,
      "(d": 2523,
      "ainer": 2524,
      "ÎŃ": 2525,
      "Ġdevelop": 2526,
      "lected": 2527,
      "ĠØŃ": 2528,
      "Add": 2529,
      "Class": 2530,
      "ita": 2531,
      "iment": 2532,
      "Ø§Ø¯": 2533,
      "ĠApp": 2534,
      "ync": 2535,
      "Em": 2536,
      "input": 2537,
      "à¤¦": 2538,
      "ÃŃa": 2539,
      "×Ł": 2540,
      "Ġcontin": 2541,
      ".util": 2542,
      "Ġ/**Ċ": 2543,
      "lich": 2544,
      "All": 2545,
      "Ġmethod": 2546,
      "Ġ);Ċ": 2547,
      "indow": 2548,
      "ÙĦÙī": 2549,
      "itor": 2550,
      ".T": 2551,
      "\"]": 2552,
      "Ġcustom": 2553,
      "àµĨ": 2554,
      "ĠOr": 2555,
      "åº": 2556,
      "Ġquest": 2557,
      "Ġà¦ķ": 2558,
      "Ġstate": 2559,
      "ige": 2560,
      "Field": 2561,
      ".B": 2562,
      "ĠclassName": 2563,
      "pace": 2564,
      "pany": 2565,
      "Ġnext": 2566,
      "ploy": 2567,
      "Ġlife": 2568,
      "Ġrequest": 2569,
      "Ġthose": 2570,
      "!!": 2571,
      "Path": 2572,
      "ctions": 2573,
      "Ġeas": 2574,
      "Ġfollow": 2575,
      "trans": 2576,
      "loy": 2577,
      "search": 2578,
      "à®¾": 2579,
      "itial": 2580,
      "çľ": 2581,
      "indows": 2582,
      "á»ĭ": 2583,
      "Ġà¤¦": 2584,
      "Ġcare": 2585,
      "ĠSo": 2586,
      "ira": 2587,
      "Øº": 2588,
      "ÑĭÐ½": 2589,
      "36": 2590,
      "Ġmu": 2591,
      "ĠØ®": 2592,
      "Ġvol": 2593,
      "Ġvi": 2594,
      "list": 2595,
      "tract": 2596,
      "ump": 2597,
      "Ġarray": 2598,
      "icle": 2599,
      "Ad": 2600,
      "Ġdifferent": 2601,
      "(new": 2602,
      "aining": 2603,
      "Ġoper": 2604,
      "Ġà¤°": 2605,
      "ÂŃ": 2606,
      "For": 2607,
      "IL": 2608,
      "ĠList": 2609,
      "Ġprov": 2610,
      "æĢ": 2611,
      "Up": 2612,
      ".log": 2613,
      "áĥ£áĥ": 2614,
      "à¹ī": 2615,
      "Ġbeg": 2616,
      "<?": 2617,
      "Ð°Ñģ": 2618,
      "Ġexpect": 2619,
      "raph": 2620,
      "Ġmov": 2621,
      "rows": 2622,
      "ìĦ": 2623,
      "wer": 2624,
      "Ġdans": 2625,
      "ĠSch": 2626,
      "ĠTe": 2627,
      "Ġmar": 2628,
      "Ġà¤µ": 2629,
      "Ġà¤²": 2630,
      "ots": 2631,
      "\"ĊĊ": 2632,
      "Ð¾ÑģÑĤ": 2633,
      "à´¤": 2634,
      "Ġorgan": 2635,
      "ias": 2636,
      "à¹Ģà¸": 2637,
      "Ġsame": 2638,
      "AP": 2639,
      "ĠAd": 2640,
      "Ã®": 2641,
      "define": 2642,
      ".app": 2643,
      "iving": 2644,
      "########": 2645,
      "Ġcoun": 2646,
      "Ġintern": 2647,
      "ING": 2648,
      "less": 2649,
      "][": 2650,
      "._": 2651,
      "Ġlocal": 2652,
      "LO": 2653,
      "Ġ`": 2654,
      "Node": 2655,
      "Ġsite": 2656,
      "nect": 2657,
      "åĮ": 2658,
      "ura": 2659,
      "function": 2660,
      "Ġrece": 2661,
      "stance": 2662,
      "Ġ});Ċ": 2663,
      "à´¨": 2664,
      "Ġproble": 2665,
      "men": 2666,
      "Ġstyle": 2667,
      "Ġref": 2668,
      "Ġreally": 2669,
      "ird": 2670,
      "ela": 2671,
      "×Ľ": 2672,
      "Log": 2673,
      "ified": 2674,
      "____": 2675,
      "omb": 2676,
      "},Ċ": 2677,
      "åĨ": 2678,
      "Array": 2679,
      "uil": 2680,
      "ission": 2681,
      "Î³": 2682,
      "_F": 2683,
      "Ġik": 2684,
      "span": 2685,
      "ÑĢÑĥ": 2686,
      "ĠâĢĶ": 2687,
      "ÑĤÐ°": 2688,
      "Ġpop": 2689,
      "ĉc": 2690,
      "--------------------------------": 2691,
      "Ġwrit": 2692,
      "Message": 2693,
      "ric": 2694,
      "tribut": 2695,
      "(int": 2696,
      "Ġsem": 2697,
      "90": 2698,
      "Úº": 2699,
      "Component": 2700,
      "Ġ->": 2701,
      "Group": 2702,
      "à±ģà°": 2703,
      "Ġide": 2704,
      "ili": 2705,
      "éĢ": 2706,
      "ished": 2707,
      "ato": 2708,
      "æ³": 2709,
      "áĥ¡": 2710,
      "Ġ+=": 2711,
      "Ġmain": 2712,
      "site": 2713,
      "OM": 2714,
      "ĠInd": 2715,
      "à¤¯": 2716,
      "ĠIs": 2717,
      "ever": 2718,
      "atab": 2719,
      "mit": 2720,
      "Ġsw": 2721,
      "Öģ": 2722,
      "inc": 2723,
      "Result": 2724,
      "ëĬĶ": 2725,
      "ways": 2726,
      "urch": 2727,
      "Ġà¤Ĩ": 2728,
      "Manager": 2729,
      "Ġnet": 2730,
      "Ġpay": 2731,
      "ĠÄĳ": 2732,
      "Ð¸Ð¸": 2733,
      "Ġqui": 2734,
      "à¸´": 2735,
      "àª¤": 2736,
      "àª¿": 2737,
      "Ġ/*": 2738,
      "sc": 2739,
      "Ġdefault": 2740,
      "à²¦": 2741,
      "70": 2742,
      "Image": 2743,
      "Ġau": 2744,
      "à®°": 2745,
      "ÛĲ": 2746,
      "Ġexp": 2747,
      "à¸ĩ": 2748,
      "à¥Ĥ": 2749,
      "Ġcommun": 2750,
      "Ġ(!": 2751,
      "ency": 2752,
      "Override": 2753,
      "Ġequ": 2754,
      "lock": 2755,
      "Ġí": 2756,
      "Ġmust": 2757,
      "Ġdan": 2758,
      "Ïī": 2759,
      "else": 2760,
      "pty": 2761,
      "ä¼": 2762,
      "Config": 2763,
      "Ġvon": 2764,
      "Ġgame": 2765,
      "ĠÐ¾ÑĤ": 2766,
      "Ġconf": 2767,
      "ness": 2768,
      "Ġobject": 2769,
      "Act": 2770,
      "ÃŁ": 2771,
      "ÑģÑĤÐ²": 2772,
      "àªµ": 2773,
      "tes": 2774,
      "Ġdirect": 2775,
      "OT": 2776,
      "();čĊ": 2777,
      "Ġ×ķ": 2778,
      "Ġfun": 2779,
      "ï¿": 2780,
      "ENT": 2781,
      "à¸¡": 2782,
      "erc": 2783,
      "ti": 2784,
      "IM": 2785,
      "Ġdep": 2786,
      "irm": 2787,
      "Code": 2788,
      "heck": 2789,
      "ross": 2790,
      "Ġavailable": 2791,
      "Ġfact": 2792,
      "à¦ķ": 2793,
      "ĠÙĤ": 2794,
      "88": 2795,
      "Ġhab": 2796,
      "from": 2797,
      "Ġaround": 2798,
      "ÑĤÐ¸": 2799,
      "à¦¤": 2800,
      "Ã¤r": 2801,
      "Des": 2802,
      "uck": 2803,
      "ijk": 2804,
      ".print": 2805,
      "html": 2806,
      "ĠSp": 2807,
      "aff": 2808,
      ".id": 2809,
      ".re": 2810,
      "ization": 2811,
      "stand": 2812,
      "Ġcu": 2813,
      "Val": 2814,
      "off": 2815,
      "ĠBr": 2816,
      "Ġrest": 2817,
      "Ġta": 2818,
      "Ġ()": 2819,
      "Ġbetween": 2820,
      "Ġcour": 2821,
      "àª®": 2822,
      "va": 2823,
      "Not": 2824,
      ">čĊ": 2825,
      "Ã¶r": 2826,
      "not": 2827,
      "ĠáĥĲáĥ": 2828,
      "Ġáĥĵ": 2829,
      "Ġret": 2830,
      "ee": 2831,
      "ium": 2832,
      "uro": 2833,
      "cul": 2834,
      "With": 2835,
      "-l": 2836,
      "ì§": 2837,
      "Ġwer": 2838,
      "Ġold": 2839,
      "Ġsay": 2840,
      "iles": 2841,
      "Ġnon": 2842,
      "Ã©e": 2843,
      "HE": 2844,
      "ĠMe": 2845,
      "plate": 2846,
      "over": 2847,
      "Ġmais": 2848,
      "================": 2849,
      "por": 2850,
      "http": 2851,
      "posit": 2852,
      "ically": 2853,
      "àªķ": 2854,
      "oss": 2855,
      "×Ĵ": 2856,
      "orth": 2857,
      "Ġmarket": 2858,
      "31": 2859,
      "AB": 2860,
      "omen": 2861,
      "Ġterm": 2862,
      "Ġerror": 2863,
      "ags": 2864,
      "odule": 2865,
      "Ġcert": 2866,
      "Ġti": 2867,
      "vir": 2868,
      "åŃ": 2869,
      "05": 2870,
      "Ġpu": 2871,
      "Ø§Ø¨": 2872,
      "Ġandroid": 2873,
      "UN": 2874,
      "Ġmus": 2875,
      "Ġstill": 2876,
      "Ġang": 2877,
      "(String": 2878,
      "pen": 2879,
      "Ġplus": 2880,
      "Ġauf": 2881,
      "Î®": 2882,
      "Ġwithout": 2883,
      "Ð°Ð²": 2884,
      "áĥł": 2885,
      "Pr": 2886,
      "crib": 2887,
      "obal": 2888,
      "Hand": 2889,
      "ĠGet": 2890,
      "ln": 2891,
      "Ġmonth": 2892,
      "Ð¸Ð¹": 2893,
      "Ġak": 2894,
      "Controller": 2895,
      "Ġmas": 2896,
      "ubl": 2897,
      "Ð°ÑĤÑĮ": 2898,
      ".r": 2899,
      "ĠUS": 2900,
      "ĠÙĥ": 2901,
      "aan": 2902,
      "ito": 2903,
      "./": 2904,
      "_D": 2905,
      "ilter": 2906,
      "Ġdisc": 2907,
      "Ġoffer": 2908,
      "Ġerr": 2909,
      "ron": 2910,
      "æī": 2911,
      "/*": 2912,
      "Ġgoing": 2913,
      "à¤¾à¤¨": 2914,
      "×Ŀ": 2915,
      "Ġâ": 2916,
      "iven": 2917,
      "AG": 2918,
      "ential": 2919,
      "Ġboth": 2920,
      "Ġben": 2921,
      "query": 2922,
      "ift": 2923,
      "Ġà¦¬": 2924,
      "vol": 2925,
      "ÐµÐ³": 2926,
      "çİ": 2927,
      "nection": 2928,
      "ĠÑĪ": 2929,
      "Ġà¦¸": 2930,
      "ading": 2931,
      "ULL": 2932,
      "Sc": 2933,
      "pons": 2934,
      "Ð¸Ñģ": 2935,
      "anel": 2936,
      "bar": 2937,
      "37": 2938,
      "older": 2939,
      "Ġproject": 2940,
      "à´°": 2941,
      "ena": 2942,
      "reate": 2943,
      "tribute": 2944,
      "teger": 2945,
      "Ġmax": 2946,
      "04": 2947,
      "met": 2948,
      "-f": 2949,
      "></": 2950,
      "ĠNo": 2951,
      "ategory": 2952,
      "Ġput": 2953,
      "ÖĦ": 2954,
      "ny": 2955,
      "ati": 2956,
      "ali": 2957,
      "Ġpage": 2958,
      "ipp": 2959,
      "à¤°à¥įà¤": 2960,
      "Ġ}čĊ": 2961,
      "à¸ģ": 2962,
      "}čĊ": 2963,
      "ĠAmeric": 2964,
      "ftware": 2965,
      "Ġreport": 2966,
      "34": 2967,
      "oney": 2968,
      "ãĥ¼": 2969,
      "n't": 2970,
      "Ġbuild": 2971,
      "aving": 2972,
      "Î¿Ïħ": 2973,
      "ingle": 2974,
      "Fr": 2975,
      "ummary": 2976,
      "Ġuma": 2977,
      "Is": 2978,
      "Ġincre": 2979,
      "ground": 2980,
      "Ġhapp": 2981,
      "ology": 2982,
      "Ð¾Ð·": 2983,
      ">ĊĊ": 2984,
      "ĠLa": 2985,
      "à¦¾à¦°": 2986,
      "adi": 2987,
      "Ġann": 2988,
      "US": 2989,
      "Ð¡": 2990,
      "ved": 2991,
      "ittle": 2992,
      "Ġlove": 2993,
      "ani": 2994,
      "Õ¸Õ": 2995,
      "Ġleg": 2996,
      "Ò³": 2997,
      "oud": 2998,
      "Ġclient": 2999,
      "isplay": 3000,
      "Ġseg": 3001,
      "code": 3002,
      "ĠOb": 3003,
      "Ġàªķ": 3004,
      "à§Ł": 3005,
      "Ġáĥ¡": 3006,
      "à¦²": 3007,
      "08": 3008,
      "Ġcome": 3009,
      "www": 3010,
      "áº¿": 3011,
      "çĽ": 3012,
      "_re": 3013,
      "ypes": 3014,
      "Ġter": 3015,
      "thing": 3016,
      "#define": 3017,
      "ĠBut": 3018,
      "ustr": 3019,
      "ÐĲ": 3020,
      "Ġals": 3021,
      "ÑĥÑĢ": 3022,
      "ĠÐ¾Ð±": 3023,
      "ÑĬ": 3024,
      "Ġba": 3025,
      "_N": 3026,
      "Ġstd": 3027,
      "inter": 3028,
      "à«ģ": 3029,
      "sg": 3030,
      "the": 3031,
      "lar": 3032,
      "Ã²": 3033,
      "Ġcolor": 3034,
      "áº¡": 3035,
      "à¸Ķ": 3036,
      "book": 3037,
      "dition": 3038,
      "Ġfri": 3039,
      "api": 3040,
      "ume": 3041,
      "private": 3042,
      "Ġcost": 3043,
      "ards": 3044,
      "Ġsecond": 3045,
      "Ġcontent": 3046,
      "Ġtoo": 3047,
      "rist": 3048,
      "ba": 3049,
      "Ġpath": 3050,
      "Ġà¤Ĺ": 3051,
      "ĠQu": 3052,
      "ìĹĲ": 3053,
      "ogle": 3054,
      ".is": 3055,
      "Ð¸Ð·": 3056,
      "PE": 3057,
      "Ð°ÑĢÐ°": 3058,
      "ika": 3059,
      "09": 3060,
      "Ġeng": 3061,
      ".length": 3062,
      "ĠCont": 3063,
      "ÐŁ": 3064,
      "ÙĬØ±": 3065,
      "Ġfew": 3066,
      "zi": 3067,
      "Ġà¦ª": 3068,
      "Ġwa": 3069,
      "Ġhist": 3070,
      "ĠfÃ¼r": 3071,
      "creen": 3072,
      "):": 3073,
      "ben": 3074,
      "ki": 3075,
      "ĠBl": 3076,
      "íķĺ": 3077,
      "ference": 3078,
      "ĠIm": 3079,
      "åĵ": 3080,
      "Ġport": 3081,
      "Ġaan": 3082,
      "ano": 3083,
      "Ø§Ø¦": 3084,
      "resent": 3085,
      "pring": 3086,
      "Ð¾Ð»ÑĮ": 3087,
      "{čĊ": 3088,
      "Layout": 3089,
      "]ĊĊ": 3090,
      "ĠMar": 3091,
      "ĠrÃ©": 3092,
      "Ġlim": 3093,
      "inn": 3094,
      "Ġfull": 3095,
      "38": 3096,
      "å¸": 3097,
      "55": 3098,
      "Ġappro": 3099,
      "config": 3100,
      "Ġpod": 3101,
      "ief": 3102,
      "Ø¦": 3103,
      "Ġaccess": 3104,
      "Ġeffect": 3105,
      "No": 3106,
      "-p": 3107,
      "OL": 3108,
      "Ġkan": 3109,
      "ĠThey": 3110,
      "Ġja": 3111,
      "ification": 3112,
      "Param": 3113,
      "ĠPh": 3114,
      "áĥĲáĥľ": 3115,
      "cle": 3116,
      "eld": 3117,
      "\").": 3118,
      "07": 3119,
      "ë¡": 3120,
      "Ġcompany": 3121,
      "Ġmessage": 3122,
      "Ġà¤¤": 3123,
      "lex": 3124,
      "ona": 3125,
      "Ġstand": 3126,
      "à§ĭ": 3127,
      "chen": 3128,
      "assword": 3129,
      "Response": 3130,
      "Ġspe": 3131,
      "à¤¬": 3132,
      "Ġhead": 3133,
      "test": 3134,
      "Ê»": 3135,
      "vec": 3136,
      "Gr": 3137,
      "Ġko": 3138,
      "Ġfeel": 3139,
      "ĠDes": 3140,
      "valid": 3141,
      "label": 3142,
      "lt": 3143,
      "ips": 3144,
      "_B": 3145,
      "Ġkom": 3146,
      "ĠIN": 3147,
      "199": 3148,
      "IG": 3149,
      "It": 3150,
      "px": 3151,
      "Ġpot": 3152,
      "àªĤ": 3153,
      "Ġzijn": 3154,
      "Ġlevel": 3155,
      "oci": 3156,
      "Ġdocument": 3157,
      "Ġteam": 3158,
      "Ġmill": 3159,
      "Ġ\"\"": 3160,
      "med": 3161,
      "06": 3162,
      "Ġenc": 3163,
      "pert": 3164,
      "Ġbas": 3165,
      "Opt": 3166,
      "ĠÛģ": 3167,
      "ework": 3168,
      "Ġmem": 3169,
      "ima": 3170,
      "Out": 3171,
      "max": 3172,
      "(b": 3173,
      "Ġhealth": 3174,
      ".pro": 3175,
      "ables": 3176,
      ".Cont": 3177,
      "Status": 3178,
      "500": 3179,
      "æĿ": 3180,
      "iones": 3181,
      "Be": 3182,
      "Ġsure": 3183,
      "Ġexperience": 3184,
      "ĠEl": 3185,
      "ĠÑģÑĤ": 3186,
      "place": 3187,
      "zen": 3188,
      "Ġinvest": 3189,
      "ÈĽ": 3190,
      "aces": 3191,
      "Trans": 3192,
      "gg": 3193,
      "éľ": 3194,
      "ï¿½": 3195,
      "content": 3196,
      "ĠHow": 3197,
      "FF": 3198,
      "39": 3199,
      "ĠØ¥": 3200,
      "char": 3201,
      "ending": 3202,
      "Ġfield": 3203,
      "idget": 3204,
      "Ġlot": 3205,
      "ìĭ": 3206,
      "Ent": 3207,
      "cur": 3208,
      "ĠMan": 3209,
      "Ïĩ": 3210,
      "fect": 3211,
      "Ġca": 3212,
      "ĠØ§ÙĦØª": 3213,
      "Ġ)Ċ": 3214,
      "alt": 3215,
      "ething": 3216,
      "ination": 3217,
      "ĠThere": 3218,
      "Input": 3219,
      "ived": 3220,
      "ĠÑı": 3221,
      "ĠÒĽ": 3222,
      "ories": 3223,
      "pecial": 3224,
      "ìĿĦ": 3225,
      "Ġimp": 3226,
      "Ġthings": 3227,
      "Ġmag": 3228,
      "ê¸": 3229,
      "02": 3230,
      "init": 3231,
      "Ġir": 3232,
      "Ã©n": 3233,
      "à®¾à®": 3234,
      "Ġsmall": 3235,
      "elt": 3236,
      "Ġtable": 3237,
      "mb": 3238,
      "isk": 3239,
      "à°¨": 3240,
      "Õ¡Õ¯": 3241,
      "Ġiss": 3242,
      "uffer": 3243,
      "Ġà¶": 3244,
      "ille": 3245,
      "len": 3246,
      "à¤ľ": 3247,
      "tings": 3248,
      "uration": 3249,
      "ĠÐ¿Ð¾": 3250,
      "cer": 3251,
      "true": 3252,
      "âĢĭ": 3253,
      "ìļ": 3254,
      "ĠLicense": 3255,
      "Ġwon": 3256,
      "Ġki": 3257,
      "à´ķ": 3258,
      "Ġsex": 3259,
      "Ġmom": 3260,
      "ĠÃ¼": 3261,
      "Ġprotect": 3262,
      "System": 3263,
      "ling": 3264,
      "Ġresponse": 3265,
      "angu": 3266,
      "Ġalways": 3267,
      "Page": 3268,
      "ç«": 3269,
      "ĠAmer": 3270,
      "à¸ķ": 3271,
      "OD": 3272,
      "à¤Ł": 3273,
      "Ġconsider": 3274,
      "room": 3275,
      "Ġpresent": 3276,
      "Ġtu": 3277,
      "If": 3278,
      "44": 3279,
      "Õ¥ÖĢ": 3280,
      ".out": 3281,
      "Util": 3282,
      "æĬ": 3283,
      "ĠÐ²Ñĭ": 3284,
      "Ġà¤®à¥ĩà¤Ĥ": 3285,
      "Ġchange": 3286,
      "acter": 3287,
      "Ġans": 3288,
      "Ġperform": 3289,
      "Ġé": 3290,
      "Ġjob": 3291,
      "ves": 3292,
      "atures": 3293,
      "Ġrange": 3294,
      "ĠÐĲ": 3295,
      "Ġduring": 3296,
      "Î´": 3297,
      "Ġkeep": 3298,
      "Ġreview": 3299,
      "à¸ļ": 3300,
      "OS": 3301,
      "array": 3302,
      "Ġprom": 3303,
      "igen": 3304,
      "å·": 3305,
      "image": 3306,
      "ÐµÐ»ÑĮ": 3307,
      "ĉthis": 3308,
      "********************************": 3309,
      "object": 3310,
      ";čĊčĊ": 3311,
      "ĠPar": 3312,
      "à°Ĥà°": 3313,
      "Ñŀ": 3314,
      "opt": 3315,
      "ids": 3316,
      "Ġdays": 3317,
      "Ġimportant": 3318,
      "ĠÐŁ": 3319,
      "ĠSc": 3320,
      "ought": 3321,
      "ĠØ¢": 3322,
      "à°°": 3323,
      "75": 3324,
      "ãģ®": 3325,
      "Ġaff": 3326,
      "Equ": 3327,
      "ÑĥÐ´": 3328,
      "Ġlittle": 3329,
      "áº£": 3330,
      "Ġàªª": 3331,
      "\\n": 3332,
      "ï¼ģ": 3333,
      "æ¸": 3334,
      ".R": 3335,
      "Inter": 3336,
      "Ġtechn": 3337,
      "rl": 3338,
      "irt": 3339,
      "Ð°Ð·": 3340,
      "ÙĨØ¯": 3341,
      "Ġhum": 3342,
      "iy": 3343,
      "Ð¸Ð´": 3344,
      "Ġ:=": 3345,
      "Ġdos": 3346,
      "Ġthree": 3347,
      "ìĿĺ": 3348,
      "stru": 3349,
      "Ø§ÛĮ": 3350,
      "Ġwater": 3351,
      "oi": 3352,
      "ĠI'": 3353,
      "ãĢĤĊ": 3354,
      "Ö·": 3355,
      "check": 3356,
      "Count": 3357,
      "ialog": 3358,
      "ula": 3359,
      "Õ¡Õµ": 3360,
      "Ġexpl": 3361,
      "Ġinput": 3362,
      "Ġva": 3363,
      "ÑĭÐ»": 3364,
      "Ġinterest": 3365,
      "').": 3366,
      "Ġè": 3367,
      "Table": 3368,
      "earch": 3369,
      "ret": 3370,
      "Ġbetter": 3371,
      "uild": 3372,
      "_h": 3373,
      "Ġroom": 3374,
      "And": 3375,
      "ĠÕ°": 3376,
      "Ġwebsite": 3377,
      "çł": 3378,
      "Label": 3379,
      "à¦¬": 3380,
      "_r": 3381,
      "New": 3382,
      "amente": 3383,
      "Ġà¤Ń": 3384,
      "ÐµÐ·": 3385,
      "amespace": 3386,
      "å¨": 3387,
      "Ġess": 3388,
      "Reg": 3389,
      "-c": 3390,
      "Ġtil": 3391,
      "(e": 3392,
      "pi": 3393,
      "ĠÐ¡": 3394,
      "ĠÙĪØ§ÙĦ": 3395,
      "ao": 3396,
      "ales": 3397,
      "ands": 3398,
      "Ġlink": 3399,
      "âĢĻre": 3400,
      "Ġincluding": 3401,
      "Ġbig": 3402,
      "Ġol": 3403,
      "Listener": 3404,
      ",čĊ": 3405,
      "à±ĭ": 3406,
      "Ġmult": 3407,
      "Ġpower": 3408,
      "ources": 3409,
      "Ġindex": 3410,
      "ĠAN": 3411,
      "Ġschool": 3412,
      "ĠÐĴ": 3413,
      "Ġli": 3414,
      "Def": 3415,
      "ĠÏĢ": 3416,
      "Ġhard": 3417,
      "à¦®": 3418,
      "áĥļ": 3419,
      ".ex": 3420,
      "ĠAb": 3421,
      "à´Ĥ": 3422,
      "resh": 3423,
      "elle": 3424,
      "cht": 3425,
      "cord": 3426,
      "arly": 3427,
      "Ġcode": 3428,
      "umb": 3429,
      "ativ": 3430,
      "iled": 3431,
      "Ġcatch": 3432,
      "ï¼ī": 3433,
      "Ġplan": 3434,
      "isa": 3435,
      "mon": 3436,
      "way": 3437,
      "Ġvous": 3438,
      "Pos": 3439,
      "Ġfamily": 3440,
      "Ġdouble": 3441,
      "Str": 3442,
      "Ġsuccess": 3443,
      "aps": 3444,
      "Ġgot": 3445,
      "oute": 3446,
      "Client": 3447,
      "ä¿": 3448,
      "Ġfac": 3449,
      "img": 3450,
      "å¾": 3451,
      "())": 3452,
      "á»ĩ": 3453,
      "Ġwithin": 3454,
      "48": 3455,
      "ĉs": 3456,
      "Ġdate": 3457,
      "eder": 3458,
      "Click": 3459,
      "ude": 3460,
      "rawing": 3461,
      "Ġaccount": 3462,
      "ances": 3463,
      "Ġexc": 3464,
      "Ġ===": 3465,
      "ques": 3466,
      ",\"": 3467,
      "áº¹": 3468,
      "uilder": 3469,
      "Ġsam": 3470,
      "Ġ((": 3471,
      "_data": 3472,
      "Dis": 3473,
      "Ġstruct": 3474,
      "ÐĴ": 3475,
      "Action": 3476,
      "ĠÑĦ": 3477,
      "Ġsomething": 3478,
      "ario": 3479,
      "aa": 3480,
      "Ġbit": 3481,
      "enter": 3482,
      "Ġ×¢": 3483,
      "ede": 3484,
      "uid": 3485,
      ".to": 3486,
      "abase": 3487,
      "Ø¥": 3488,
      "àµįà´¤": 3489,
      "otal": 3490,
      "Ġbeh": 3491,
      "Õµ": 3492,
      "Ġnicht": 3493,
      "ibr": 3494,
      "Ġleft": 3495,
      "agement": 3496,
      "ability": 3497,
      "cia": 3498,
      "Ġgroup": 3499,
      "_w": 3500,
      "ormal": 3501,
      "à¯Ī": 3502,
      "erties": 3503,
      "ĠÃ¡": 3504,
      "Ġmight": 3505,
      "ii": 3506,
      "ÑĥÑĤ": 3507,
      "You": 3508,
      "Ø±ÙĬ": 3509,
      "Ġelement": 3510,
      "aka": 3511,
      "éĻ": 3512,
      "Ġcontrol": 3513,
      "Ġservices": 3514,
      "Ġspecial": 3515,
      "CH": 3516,
      "amework": 3517,
      "mt": 3518,
      "Ġprovide": 3519,
      "ById": 3520,
      "aster": 3521,
      "eta": 3522,
      "åİ": 3523,
      "ÈĻ": 3524,
      "Ġred": 3525,
      "ko": 3526,
      "Ð´Ñĭ": 3527,
      "idade": 3528,
      "à®¤": 3529,
      "à¤¨à¥ĩ": 3530,
      "Ġmot": 3531,
      "ores": 3532,
      "iginal": 3533,
      "Ġdist": 3534,
      "Ú¾": 3535,
      "ï¼Ī": 3536,
      "ĠAt": 3537,
      "Ġcount": 3538,
      "gl": 3539,
      "Ġbar": 3540,
      "Ġtotal": 3541,
      "ĠÎº": 3542,
      "Ġbase": 3543,
      "Ġchang": 3544,
      "Ġanother": 3545,
      "Content": 3546,
      "itional": 3547,
      "ones": 3548,
      "66": 3549,
      "idd": 3550,
      "ìķ": 3551,
      "Ġimage": 3552,
      "ĠÙħÛĮ": 3553,
      "viron": 3554,
      "Ġarea": 3555,
      "ision": 3556,
      "igned": 3557,
      "ĠShe": 3558,
      "riter": 3559,
      "à²Ĥ": 3560,
      "Ġsince": 3561,
      "andom": 3562,
      "ĠFl": 3563,
      "avor": 3564,
      "ights": 3565,
      "head": 3566,
      "Ġç": 3567,
      "Sub": 3568,
      "Det": 3569,
      "Ġvers": 3570,
      "Ġbody": 3571,
      "SS": 3572,
      "yl": 3573,
      "Ġgive": 3574,
      "Ġgen": 3575,
      "EM": 3576,
      "à¯įà®ķ": 3577,
      "Ġhot": 3578,
      "(i": 3579,
      "à±ĩ": 3580,
      "EL": 3581,
      "Ġtrav": 3582,
      "Ġ($": 3583,
      "à²²": 3584,
      "atis": 3585,
      "Ġwar": 3586,
      "fter": 3587,
      "Ġextends": 3588,
      "03": 3589,
      "Ġsich": 3590,
      "ĠáĥĴ": 3591,
      "ready": 3592,
      "ĠpÃ¥": 3593,
      "Ġhar": 3594,
      "Line": 3595,
      "Ġutil": 3596,
      "arge": 3597,
      "ĠÏĥ": 3598,
      "åĩ": 3599,
      "ĠnÃ£o": 3600,
      "Ðŀ": 3601,
      "ĠMy": 3602,
      "vers": 3603,
      "Ġkind": 3604,
      "ÙĦØ§": 3605,
      "ÛĮÙĨ": 3606,
      "ills": 3607,
      "icon": 3608,
      "*/": 3609,
      "Ä±n": 3610,
      "Ðļ": 3611,
      "Ġsearch": 3612,
      "Ġàª¸": 3613,
      "hi": 3614,
      "db": 3615,
      "Ð¼Ð¸": 3616,
      "ĠØ§ÙĦØ£": 3617,
      "mo": 3618,
      "Õ¸ÖĤÕ´": 3619,
      ".\"": 3620,
      "Ġair": 3621,
      "Õ¿": 3622,
      "Number": 3623,
      "Ġassert": 3624,
      "comp": 3625,
      "Ġsocial": 3626,
      "oogle": 3627,
      ".x": 3628,
      "Ġcontact": 3629,
      "Ã¹": 3630,
      "ieve": 3631,
      "Ġrecord": 3632,
      "zy": 3633,
      "ched": 3634,
      "Ð¸ÑĤÑĮ": 3635,
      "ÄĽ": 3636,
      ".append": 3637,
      "ë¡ľ": 3638,
      "Ã¡n": 3639,
      "Ġecho": 3640,
      "Ġbro": 3641,
      "Ġturn": 3642,
      "acc": 3643,
      "à¸¢": 3644,
      "Ġemail": 3645,
      "Ð¾Ð¿": 3646,
      "ately": 3647,
      "ĉb": 3648,
      "ador": 3649,
      "ocus": 3650,
      "ĉprivate": 3651,
      "map": 3652,
      "Ġgre": 3653,
      "Ġfore": 3654,
      "Ġhref": 3655,
      "uy": 3656,
      "77": 3657,
      "ÙĪØ¯": 3658,
      "ired": 3659,
      "Ġaction": 3660,
      "Ġbed": 3661,
      "Ãµes": 3662,
      "×¦": 3663,
      "Ġable": 3664,
      "Ġbir": 3665,
      "ca": 3666,
      "Ġniet": 3667,
      "Ïį": 3668,
      "ÐµÐ½Ð¸Ñı": 3669,
      "imer": 3670,
      "íķľ": 3671,
      "ìĬ": 3672,
      ".println": 3673,
      "orage": 3674,
      "jor": 3675,
      "Ð¸Ñĩ": 3676,
      "Ġdest": 3677,
      "ĠDo": 3678,
      "ici": 3679,
      "Ġanal": 3680,
      "Ġrequired": 3681,
      "Ġless": 3682,
      "itÃ©": 3683,
      "ĠâĢ¦": 3684,
      "Ġallow": 3685,
      "Ser": 3686,
      "gress": 3687,
      "ÙĦÙĬ": 3688,
      "actory": 3689,
      "Ø¸": 3690,
      "ette": 3691,
      "Column": 3692,
      "Ġaddress": 3693,
      ".G": 3694,
      "à¤ļ": 3695,
      "Ġjavax": 3696,
      "ÑĥÐ»": 3697,
      "Ġlooking": 3698,
      "Ġnever": 3699,
      "Ph": 3700,
      "Õ¡ÖĢ": 3701,
      "oo": 3702,
      "Ġtarget": 3703,
      "><": 3704,
      "Ġmaterial": 3705,
      "post": 3706,
      "ules": 3707,
      "à¸§": 3708,
      "Ġsus": 3709,
      "Ã¬": 3710,
      "Ø§Ø¡": 3711,
      "Ġbool": 3712,
      "ĠÎ±": 3713,
      "uto": 3714,
      "áĥĶáĥļ": 3715,
      "49": 3716,
      "áĥĵ": 3717,
      "è¡": 3718,
      "IP": 3719,
      "à¤¿à¤¯": 3720,
      "Ġmil": 3721,
      "Ġparam": 3722,
      "æ´": 3723,
      "_type": 3724,
      "acy": 3725,
      "joy": 3726,
      "Ġdig": 3727,
      "ĠDr": 3728,
      "Ġtitle": 3729,
      "Ġask": 3730,
      "ë¥": 3731,
      "ĠWith": 3732,
      "Ġcontext": 3733,
      "apt": 3734,
      "ÙħØ§": 3735,
      "sk": 3736,
      "ÐĿ": 3737,
      "endo": 3738,
      "Ð¸Ð²": 3739,
      "odes": 3740,
      "context": 3741,
      "Ġvideo": 3742,
      "à¥ĭà¤Ĥ": 3743,
      "my": 3744,
      "ãģĦ": 3745,
      "UE": 3746,
      "ë¦": 3747,
      "ãģĹ": 3748,
      "iversity": 3749,
      "aper": 3750,
      "Ġpersonal": 3751,
      "Ġconfig": 3752,
      "sub": 3753,
      "à²¨": 3754,
      "cha": 3755,
      "aph": 3756,
      "Instance": 3757,
      "Ġgrow": 3758,
      "Ġcou": 3759,
      "vious": 3760,
      "mand": 3761,
      "open": 3762,
      "àµįà´ķ": 3763,
      "fic": 3764,
      "Ġà¤ī": 3765,
      "Ġmal": 3766,
      "request": 3767,
      "ences": 3768,
      "ĠVer": 3769,
      "Ġentre": 3770,
      "á»ĳ": 3771,
      "pository": 3772,
      "Ġà´ª": 3773,
      "ista": 3774,
      "áĥĲáĥĽ": 3775,
      "yd": 3776,
      "Ġsent": 3777,
      "summary": 3778,
      "Ġindiv": 3779,
      "à¤¾à¤²": 3780,
      "èī": 3781,
      "Entity": 3782,
      "yr": 3783,
      "ican": 3784,
      "abled": 3785,
      "icy": 3786,
      "Ġboolean": 3787,
      "à¤¡": 3788,
      "Ġprofession": 3789,
      "áĥĽ": 3790,
      "ently": 3791,
      "iod": 3792,
      "çĲ": 3793,
      "Ġbuy": 3794,
      "Ġdom": 3795,
      "From": 3796,
      "Ġoptions": 3797,
      ",âĢĿ": 3798,
      "imal": 3799,
      "ained": 3800,
      "apter": 3801,
      ".data": 3802,
      "Ġmes": 3803,
      "Ġconsole": 3804,
      "ÑģÐº": 3805,
      "iti": 3806,
      "aÃ§Ã£o": 3807,
      "Ġproducts": 3808,
      "UI": 3809,
      "ĠSu": 3810,
      "Î±Î¹": 3811,
      "Property": 3812,
      "PO": 3813,
      "Control": 3814,
      "65": 3815,
      "pa": 3816,
      "mi": 3817,
      "?Ċ": 3818,
      "ension": 3819,
      "ĉfor": 3820,
      "ç¾": 3821,
      "Ġmoney": 3822,
      ".de": 3823,
      "Ð½Ðµ": 3824,
      "ì§Ģ": 3825,
      "àª¾àªĤ": 3826,
      "Ġadv": 3827,
      "Ġprice": 3828,
      "àª²": 3829,
      "Ã©t": 3830,
      "Ċ//": 3831,
      "ites": 3832,
      ".create": 3833,
      "Ãªn": 3834,
      "èĢ": 3835,
      "perties": 3836,
      ">>": 3837,
      "adas": 3838,
      "EX": 3839,
      "Ð°Ð»ÑĮ": 3840,
      "ÙĨØ§": 3841,
      "Ġversion": 3842,
      "Ġindivid": 3843,
      "embers": 3844,
      "annel": 3845,
      "Ġinclude": 3846,
      "ounc": 3847,
      "ĠmÃ¡s": 3848,
      "ended": 3849,
      "Ġ×¤": 3850,
      "board": 3851,
      "ering": 3852,
      "Ġavec": 3853,
      "message": 3854,
      "assert": 3855,
      "option": 3856,
      "link": 3857,
      "ĠNULL": 3858,
      "lev": 3859,
      "æķ": 3860,
      "ĠDis": 3861,
      "Ġdev": 3862,
      "à¯įà®¤": 3863,
      "àµįà´¨": 3864,
      "ĠEng": 3865,
      "Ġident": 3866,
      "box": 3867,
      "Ġchildren": 3868,
      "Ġlaw": 3869,
      "ĠReg": 3870,
      "ê³ł": 3871,
      "ĠSet": 3872,
      "Ġhttp": 3873,
      "Ð½ÑĭÑħ": 3874,
      ".Get": 3875,
      "({Ċ": 3876,
      "Query": 3877,
      "Ġfre": 3878,
      "wing": 3879,
      "à§ĩà¦°": 3880,
      "akt": 3881,
      "Ġsn": 3882,
      "ster": 3883,
      "Ã¶n": 3884,
      "Õ«Õ¶": 3885,
      "ĠÐļ": 3886,
      "({": 3887,
      "ls": 3888,
      "Ġnov": 3889,
      "Ġuns": 3890,
      "Ġaus": 3891,
      "Style": 3892,
      "md": 3893,
      "àª¾àª°": 3894,
      "fort": 3895,
      "Ġmatch": 3896,
      "IO": 3897,
      "ĠMed": 3898,
      "Ġza": 3899,
      "umer": 3900,
      "Ġàª®": 3901,
      "Ġbes": 3902,
      "ÙĪØ§": 3903,
      "ither": 3904,
      ").ĊĊ": 3905,
      "Ġfollowing": 3906,
      "áº¥": 3907,
      "agen": 3908,
      "ĠÐ¸Ð·": 3909,
      "Ġgover": 3910,
      "Ġmi": 3911,
      "à¸Ĺ": 3912,
      "åĿ": 3913,
      "Ġà¦Ĩ": 3914,
      "Ġnos": 3915,
      "×ĸ": 3916,
      "à¤¶": 3917,
      "ĠCar": 3918,
      "ention": 3919,
      "ĠSie": 3920,
      "select": 3921,
      "à§Ģ": 3922,
      "à°²": 3923,
      "Ġposition": 3924,
      "Ġing": 3925,
      "opp": 3926,
      "Ġmap": 3927,
      "éĹ": 3928,
      "ĠØ¹ÙĦÙī": 3929,
      "\\\"": 3930,
      "ĠåĮ": 3931,
      ".Drawing": 3932,
      "Ð°ÑĪ": 3933,
      "Ġawait": 3934,
      "Ġshort": 3935,
      "ename": 3936,
      "una": 3937,
      "ãĥ³": 3938,
      "Ġà¤ķà¤°": 3939,
      "Ġupdate": 3940,
      "Ġ×ĵ": 3941,
      "Ġlat": 3942,
      "Ġvisit": 3943,
      "icro": 3944,
      "Õ¥Õ¬": 3945,
      "à²µ": 3946,
      "×Ļ×Ļ×": 3947,
      "ĠIntern": 3948,
      "Ġuit": 3949,
      "ĠNot": 3950,
      "Ġnil": 3951,
      "Ġhal": 3952,
      ".Form": 3953,
      "Ã§a": 3954,
      "Ġà¤ķà¥Ģ": 3955,
      "button": 3956,
      "Ġtoday": 3957,
      "Ġà¤ķà¥ĭ": 3958,
      "Ġeine": 3959,
      "Ġsob": 3960,
      "obile": 3961,
      "\".": 3962,
      ".Add": 3963,
      "à´¯": 3964,
      "à¤¿à¤ķ": 3965,
      ".cl": 3966,
      "raft": 3967,
      "Ġmach": 3968,
      "Ġcreat": 3969,
      "ouch": 3970,
      "plit": 3971,
      "unk": 3972,
      "(x": 3973,
      "ê²": 3974,
      "ĠAdd": 3975,
      "amos": 3976,
      "(st": 3977,
      "ĠÕ§": 3978,
      "Ġìŀ": 3979,
      "Ġsou": 3980,
      "ĠØ§ÙĦØ¹": 3981,
      "Ġdire": 3982,
      "å±": 3983,
      "Ġfut": 3984,
      "','": 3985,
      "ÑĢÐ¸": 3986,
      "update": 3987,
      "à§įà¦¯": 3988,
      "format": 3989,
      "Ġbij": 3990,
      "ê°Ģ": 3991,
      "maz": 3992,
      "uz": 3993,
      "ĉint": 3994,
      "clus": 3995,
      "tre": 3996,
      "anguage": 3997,
      "ÑİÑĤ": 3998,
      "iction": 3999,
      "di": 4000,
      "(R": 4001,
      "æŃ": 4002,
      "${": 4003,
      "300": 4004,
      "anks": 4005,
      "ìľ": 4006,
      "ollections": 4007,
      "upport": 4008,
      "Ġobj": 4009,
      "eturn": 4010,
      "ĠCan": 4011,
      "ande": 4012,
      "ðŁ": 4013,
      "rect": 4014,
      "ides": 4015,
      "ÏĨ": 4016,
      "ĠìĿ": 4017,
      "json": 4018,
      "Ġblog": 4019,
      "ëĭĪ": 4020,
      "Ġà¦ı": 4021,
      "Ġ(Ċ": 4022,
      "Ġworking": 4023,
      "Î¸": 4024,
      "aring": 4025,
      "web": 4026,
      "des": 4027,
      "'re": 4028,
      "Ã¨s": 4029,
      "Ġnu": 4030,
      "Ġdoor": 4031,
      "Ġbased": 4032,
      "ML": 4033,
      "Ġlead": 4034,
      "opyright": 4035,
      "à²¤": 4036,
      "Ġappe": 4037,
      "Ġdon't": 4038,
      "95": 4039,
      "Ġlik": 4040,
      "eters": 4041,
      "yles": 4042,
      "ji": 4043,
      "Ġcomb": 4044,
      "Ã©m": 4045,
      "Ð½Ð¾ÑģÑĤ": 4046,
      "Ġmaking": 4047,
      "Ġocc": 4048,
      "Handler": 4049,
      "ĠGener": 4050,
      "Ġze": 4051,
      "ored": 4052,
      "bol": 4053,
      "conom": 4054,
      "HT": 4055,
      "47": 4056,
      "ÙĪÙħ": 4057,
      "ĠÐľ": 4058,
      "Ġpossible": 4059,
      "Ġfar": 4060,
      "zo": 4061,
      "ĠØ¯Ø±": 4062,
      "ĠÕ´": 4063,
      "æĶ": 4064,
      "Ġactiv": 4065,
      "ãĥ»": 4066,
      "Ġkun": 4067,
      "Ġmeet": 4068,
      "ku": 4069,
      "Collection": 4070,
      "hel": 4071,
      "_list": 4072,
      "Ġsever": 4073,
      "OP": 4074,
      "Ġcourse": 4075,
      "Ġcam": 4076,
      "Ġdone": 4077,
      "abil": 4078,
      "Ġquality": 4079,
      "ĠID": 4080,
      "itive": 4081,
      "https": 4082,
      "áĥľ": 4083,
      "Ġauch": 4084,
      "!Ċ": 4085,
      "Ġresearch": 4086,
      "();": 4087,
      "aur": 4088,
      "(l": 4089,
      "},": 4090,
      "abor": 4091,
      "Ġ/>Ċ": 4092,
      "à´Ł": 4093,
      "\"></": 4094,
      "ĠInt": 4095,
      "mente": 4096,
      "cope": 4097,
      ".Text": 4098,
      "path": 4099,
      "Edit": 4100,
      "Ġur": 4101,
      "Ġyang": 4102,
      "Stream": 4103,
      "Ġaway": 4104,
      "ÑĨÐ¸": 4105,
      "rix": 4106,
      "ATE": 4107,
      "Ġalle": 4108,
      "Ġay": 4109,
      "-in": 4110,
      "utes": 4111,
      "table": 4112,
      "js": 4113,
      "Ã¤n": 4114,
      "Ġmoment": 4115,
      "Ġcell": 4116,
      "Ġlight": 4117,
      "Ġlabel": 4118,
      "Ġimple": 4119,
      "default": 4120,
      "ëı": 4121,
      ".,": 4122,
      "SON": 4123,
      "Ġsum": 4124,
      "aba": 4125,
      "46": 4126,
      "Ġunderstand": 4127,
      "Point": 4128,
      "dis": 4129,
      "ply": 4130,
      "ĉf": 4131,
      "Ġdiv": 4132,
      "Ġeasy": 4133,
      "ĠEr": 4134,
      "Arg": 4135,
      "mas": 4136,
      "Ġvot": 4137,
      "eren": 4138,
      ".find": 4139,
      "Ġfood": 4140,
      "Ġvari": 4141,
      "Ġwel": 4142,
      "ably": 4143,
      "ÑĸÐ½": 4144,
      "udio": 4145,
      "Ġtimes": 4146,
      "Url": 4147,
      "Ġ[Ċ": 4148,
      "Ġpast": 4149,
      "Ġfour": 4150,
      "vironment": 4151,
      "Â«": 4152,
      "Fl": 4153,
      "»¿": 4154,
      "Ġmind": 4155,
      "lation": 4156,
      "ury": 4157,
      ".âĢĿĊĊ": 4158,
      "bsite": 4159,
      "ades": 4160,
      "Ġalong": 4161,
      "Ġbegin": 4162,
      "Ġà´ķ": 4163,
      "Ġà¤¯": 4164,
      "ÐµÑģÑĤ": 4165,
      "Ġsource": 4166,
      "ograph": 4167,
      "_L": 4168,
      "ÅĪ": 4169,
      "Ð°Ð´": 4170,
      "email": 4171,
      "Ġod": 4172,
      "á»ģ": 4173,
      "obj": 4174,
      "Ġseem": 4175,
      "Ġens": 4176,
      "static": 4177,
      "Ġthrow": 4178,
      "âĢ¢": 4179,
      "response": 4180,
      "Ġenjoy": 4181,
      "thers": 4182,
      "ĠMay": 4183,
      "ëĵ": 4184,
      "Ġit's": 4185,
      "Ġhouse": 4186,
      ".sh": 4187,
      "ĠÎµ": 4188,
      "Ġalready": 4189,
      "Ø±Ø§": 4190,
      "ĠØĮ": 4191,
      "Vis": 4192,
      "ê¸°": 4193,
      "aat": 4194,
      "args": 4195,
      "Ñĳ": 4196,
      "ients": 4197,
      "ĠàªĽ": 4198,
      "uns": 4199,
      "Ġà¤¸à¥ĩ": 4200,
      "Ab": 4201,
      "ĠUser": 4202,
      "\",\"": 4203,
      "ibility": 4204,
      "ĠWhen": 4205,
      "Ġiz": 4206,
      "å¯": 4207,
      "elo": 4208,
      "áĥĲáĥĵ": 4209,
      "net": 4210,
      "ĠÕ¸": 4211,
      "icial": 4212,
      "Ġsoftware": 4213,
      "ĠÐĳ": 4214,
      "Ġside": 4215,
      "/c": 4216,
      "ĠLog": 4217,
      "Ġexist": 4218,
      "ĠPol": 4219,
      "âĢĻve": 4220,
      "TR": 4221,
      "Ġdeb": 4222,
      "avig": 4223,
      "à§įà¦°": 4224,
      ".Windows": 4225,
      "Pre": 4226,
      "};ĊĊ": 4227,
      "Ġcover": 4228,
      "Ġproperty": 4229,
      "group": 4230,
      "ases": 4231,
      "Ġten": 4232,
      "à²Ĺ": 4233,
      "Ġwhe": 4234,
      "Å£": 4235,
      "ivo": 4236,
      "ponents": 4237,
      "Ð½ÑĭÐµ": 4238,
      "ÐµÐ²": 4239,
      "ĠÂ»": 4240,
      "Ġgiven": 4241,
      "ral": 4242,
      "Menu": 4243,
      "Ġimpro": 4244,
      "ĠEm": 4245,
      "Ġdownload": 4246,
      "side": 4247,
      "Select": 4248,
      "iety": 4249,
      "ãģ§": 4250,
      "Ġwidth": 4251,
      "Ã¨re": 4252,
      "æĭ": 4253,
      "Ġprotected": 4254,
      "ĠÐĿ": 4255,
      "Ġemploy": 4256,
      ".class": 4257,
      "++)": 4258,
      "Õ¡ÖĢÕ": 4259,
      "Ð½Ð¾Ð³Ð¾": 4260,
      "Ġblock": 4261,
      "ley": 4262,
      "Ġpract": 4263,
      "Ġcalled": 4264,
      "á»Ļ": 4265,
      "Ġtre": 4266,
      "Ġmer": 4267,
      "×¢×¨": 4268,
      "atform": 4269,
      "Ġkw": 4270,
      "ÐĶ": 4271,
      "(&": 4272,
      "ured": 4273,
      "IR": 4274,
      "âĢ¦ĊĊ": 4275,
      "uh": 4276,
      "Ġ×Ľ": 4277,
      "Ġagainst": 4278,
      "ÐºÑĥ": 4279,
      "_RE": 4280,
      "Ġresults": 4281,
      "àµĩ": 4282,
      "jo": 4283,
      "ĠChrist": 4284,
      "ĠBo": 4285,
      "nes": 4286,
      "Check": 4287,
      "àµĭ": 4288,
      "à¥įà¤¤": 4289,
      "ĠDE": 4290,
      "Ġperfect": 4291,
      "78": 4292,
      "ports": 4293,
      "Ġredu": 4294,
      "_H": 4295,
      "Ġáĥł": 4296,
      "Ð½Ð¾Ð¹": 4297,
      "×ķ×¨": 4298,
      "á»Ľ": 4299,
      "Ġcur": 4300,
      "pose": 4301,
      "æ°": 4302,
      "sol": 4303,
      "ÑĤÑĭ": 4304,
      "ë§": 4305,
      "asi": 4306,
      "ĠÎ¼": 4307,
      "Ġprim": 4308,
      "ĠDate": 4309,
      "à¸ª": 4310,
      "Per": 4311,
      "ohn": 4312,
      "Ġra": 4313,
      "Ġlarge": 4314,
      "';ĊĊ": 4315,
      "Ġà¦®": 4316,
      "portun": 4317,
      "Ġneeds": 4318,
      "à¨¾": 4319,
      "_IN": 4320,
      "ıà¤ķ": 4321,
      "à®Ł": 4322,
      "Ġ×Ļ": 4323,
      "Ġbenef": 4324,
      "Token": 4325,
      "El": 4326,
      "Ġny": 4327,
      "Ġbi": 4328,
      "ëĤ": 4329,
      "Ð¢": 4330,
      "ymb": 4331,
      "ĠàªĨ": 4332,
      "Ġfloat": 4333,
      "ney": 4334,
      "sel": 4335,
      "ges": 4336,
      "Ġpag": 4337,
      "CC": 4338,
      "ĠØ¨Ùĩ": 4339,
      "Ġthing": 4340,
      "Ġwhy": 4341,
      "Õ«Õ": 4342,
      "ĠMin": 4343,
      ".N": 4344,
      "Ġdin": 4345,
      "aim": 4346,
      "iff": 4347,
      "æİ": 4348,
      "Ġindividual": 4349,
      "unch": 4350,
      "ottom": 4351,
      "Ġwin": 4352,
      "-w": 4353,
      "à¦¾à¦¨": 4354,
      "ĠCal": 4355,
      "Ġcertain": 4356,
      "Read": 4357,
      "à®©": 4358,
      "Ġeste": 4359,
      "à±Ģ": 4360,
      "Start": 4361,
      "ĉm": 4362,
      "size": 4363,
      "æł": 4364,
      ".size": 4365,
      ",ĊĊ": 4366,
      "Ġlow": 4367,
      "Ġcamp": 4368,
      "Ġà¹Ģà¸": 4369,
      "Ġconc": 4370,
      "à·Ĭ": 4371,
      "éĿ": 4372,
      "Ġelect": 4373,
      "à«įàª¯": 4374,
      "Ðľ": 4375,
      "ĠNe": 4376,
      "Ġrespons": 4377,
      "Ġinte": 4378,
      "IV": 4379,
      "ĠView": 4380,
      "Ð½Ñı": 4381,
      "elling": 4382,
      "kan": 4383,
      "Ġfund": 4384,
      "Ġlearn": 4385,
      "Ġalg": 4386,
      ".y": 4387,
      "Ġdies": 4388,
      "à²ķ": 4389,
      "Ġàª¤": 4390,
      "ony": 4391,
      "incip": 4392,
      "izer": 4393,
      "Ġvia": 4394,
      "à¹Į": 4395,
      "Ġstatus": 4396,
      "isi": 4397,
      "ÑĥÑĩ": 4398,
      "×ķ×Ł": 4399,
      "Ġenerg": 4400,
      "sl": 4401,
      "Ġstudents": 4402,
      "ube": 4403,
      "mission": 4404,
      "position": 4405,
      "Õ¨": 4406,
      "Ġsort": 4407,
      "ements": 4408,
      "oon": 4409,
      "iro": 4410,
      "ÐµÐ½Ð¸Ðµ": 4411,
      "á»ķ": 4412,
      "ging": 4413,
      ">(": 4414,
      "Ð¼Ð°": 4415,
      "Ã¼n": 4416,
      "};Ċ": 4417,
      "Us": 4418,
      "Ġut": 4419,
      ".org": 4420,
      "elijk": 4421,
      "pression": 4422,
      "where": 4423,
      "cy": 4424,
      "ples": 4425,
      "Ġthought": 4426,
      "Ġtrad": 4427,
      "Ġamount": 4428,
      "Ġneg": 4429,
      "Ġvalid": 4430,
      "left": 4431,
      "Product": 4432,
      "Ġàªľ": 4433,
      "ĠBy": 4434,
      "®à¯į": 4435,
      "gether": 4436,
      "imo": 4437,
      "Ġsrc": 4438,
      "mm": 4439,
      "ete": 4440,
      "UM": 4441,
      "dr": 4442,
      "Builder": 4443,
      "ternal": 4444,
      "gy": 4445,
      "Ġhat": 4446,
      "artment": 4447,
      "ĠØ§ÙĨ": 4448,
      "cover": 4449,
      "æŀ": 4450,
      "ifier": 4451,
      ".Forms": 4452,
      "rary": 4453,
      "ival": 4454,
      "_V": 4455,
      "Ð¾Ñĩ": 4456,
      "ĠEst": 4457,
      "imum": 4458,
      "ĠSer": 4459,
      "ctor": 4460,
      "-h": 4461,
      "uis": 4462,
      "Ġlive": 4463,
      "Ġ}čĊčĊ": 4464,
      "ÓĻÑĢ": 4465,
      "ĠText": 4466,
      "Ïİ": 4467,
      "Ġhaving": 4468,
      "uments": 4469,
      "ĠThat": 4470,
      "Ġinc": 4471,
      "num": 4472,
      "âĢĻm": 4473,
      "Ġook": 4474,
      "())Ċ": 4475,
      "Ġesc": 4476,
      "title": 4477,
      "sa": 4478,
      "La": 4479,
      "time": 4480,
      "Ġsitu": 4481,
      "lish": 4482,
      "Ġland": 4483,
      "Ġtool": 4484,
      "CE": 4485,
      "kl": 4486,
      "ĠÐ´Ð°": 4487,
      ".html": 4488,
      "Ġdisplay": 4489,
      "Ġsingle": 4490,
      "ĠSte": 4491,
      "ĠÚ¯": 4492,
      "ĠÚ©ÛĮ": 4493,
      "ÙĬØ¯": 4494,
      "Ġtalk": 4495,
      "Ġnode": 4496,
      "ĠDie": 4497,
      "ication": 4498,
      "Ä°": 4499,
      "ĠÐ´Ð»Ñı": 4500,
      "Ð³Ð°": 4501,
      "ella": 4502,
      "ema": 4503,
      "Ñĺ": 4504,
      "Ġ;": 4505,
      "Post": 4506,
      "Ġà¤ªà¥įà¤°": 4507,
      "ĠÕ¥": 4508,
      "Ġuntil": 4509,
      "cel": 4510,
      "aga": 4511,
      "atter": 4512,
      "mes": 4513,
      "ĠWhat": 4514,
      "uer": 4515,
      "uccess": 4516,
      "_pro": 4517,
      "_e": 4518,
      "uel": 4519,
      "Ð¸Ðº": 4520,
      "59": 4521,
      "Bar": 4522,
      "ĉvar": 4523,
      "Ġant": 4524,
      "68": 4525,
      "amento": 4526,
      "vi": 4527,
      "ç§": 4528,
      "Ġich": 4529,
      "ÑĥÑģ": 4530,
      "Ġlen": 4531,
      "Ġà¦¨": 4532,
      "ĠMore": 4533,
      "Ref": 4534,
      "58": 4535,
      "])": 4536,
      "react": 4537,
      "Ġkon": 4538,
      "uts": 4539,
      "]);Ċ": 4540,
      "ĠàªĽà«ĩ": 4541,
      "ĠCo": 4542,
      "Ðĺ": 4543,
      "ungen": 4544,
      "ops": 4545,
      "////////////////": 4546,
      "Ðł": 4547,
      "IF": 4548,
      "aint": 4549,
      "à¥ģà¤": 4550,
      "ĠPer": 4551,
      "arning": 4552,
      "down": 4553,
      "ÑĢÐ°Ð²": 4554,
      "ione": 4555,
      "outh": 4556,
      "àµįà´°": 4557,
      "Ġmor": 4558,
      "ĠPre": 4559,
      "Ġfunc": 4560,
      "Ġgovern": 4561,
      "ĠNone": 4562,
      "ĠÐŀ": 4563,
      "Ġcond": 4564,
      "Ġtreat": 4565,
      "Ġurl": 4566,
      "Ġà´¸": 4567,
      "Comp": 4568,
      "Ġeduc": 4569,
      "ĠÚĨ": 4570,
      "Ġà¦¹": 4571,
      "ulation": 4572,
      "Ġpubl": 4573,
      "ĠTest": 4574,
      "Ġgro": 4575,
      "âĢĺ": 4576,
      "ĠObject": 4577,
      "ĠJe": 4578,
      "Ġheight": 4579,
      "Ã¡r": 4580,
      "body": 4581,
      "Http": 4582,
      ".value": 4583,
      "âĢŀ": 4584,
      "Ġcult": 4585,
      "ĠUp": 4586,
      "Ġclean": 4587,
      "lege": 4588,
      "42": 4589,
      "formation": 4590,
      "}čĊčĊ": 4591,
      "ince": 4592,
      "Ã§Ãµes": 4593,
      "Ġmis": 4594,
      "à¦¸": 4595,
      "ìĸ": 4596,
      "Ġoch": 4597,
      "Ø¹Ø¯": 4598,
      "Ġload": 4599,
      "Call": 4600,
      "ĠÑĢÐ°Ð·": 4601,
      "Ġpurch": 4602,
      "áĥĲáĥķ": 4603,
      "Ġsimple": 4604,
      "ĠÑģÐ²": 4605,
      "Ġtoget": 4606,
      "Link": 4607,
      "True": 4608,
      "anda": 4609,
      "\");čĊ": 4610,
      "ocket": 4611,
      "ÅĻ": 4612,
      "=>": 4613,
      "á»£": 4614,
      "Ġtogether": 4615,
      "oke": 4616,
      "à´®": 4617,
      "âĢĻll": 4618,
      "Mod": 4619,
      "atal": 4620,
      "Method": 4621,
      "lin": 4622,
      "Ġnie": 4623,
      "ipe": 4624,
      "ourn": 4625,
      "ĠØµ": 4626,
      "(r": 4627,
      "Ġonce": 4628,
      "ë°": 4629,
      "Ġitems": 4630,
      "Ġoutput": 4631,
      "ju": 4632,
      "field": 4633,
      "Ġselect": 4634,
      "Ġwat": 4635,
      "itter": 4636,
      "ÐµÑĩ": 4637,
      "ìĿĢ": 4638,
      ".spring": 4639,
      "etch": 4640,
      "aged": 4641,
      "ĠAss": 4642,
      "198": 4643,
      "áĥĲáĥłáĥ": 4644,
      "Activity": 4645,
      "Ġmeans": 4646,
      "df": 4647,
      "AY": 4648,
      "à°ķ": 4649,
      "Ġ};Ċ": 4650,
      "uly": 4651,
      "Ġoriginal": 4652,
      "Ġdit": 4653,
      "Ġ})Ċ": 4654,
      "arl": 4655,
      "orr": 4656,
      "oom": 4657,
      "Ġok": 4658,
      "End": 4659,
      "ĥ½": 4660,
      "Ġcard": 4661,
      "ilt": 4662,
      "Ġàªħ": 4663,
      "ANT": 4664,
      "Ġcir": 4665,
      "Ġactually": 4666,
      "ÑĥÑİ": 4667,
      "Ð½ÑĭÐ¹": 4668,
      "Ġmean": 4669,
      "áĥ¢": 4670,
      "ker": 4671,
      "ĠØ£ÙĨ": 4672,
      "si": 4673,
      "rij": 4674,
      "Ġbeaut": 4675,
      "à¤¾à¤¤": 4676,
      "çĪ": 4677,
      "Ġoften": 4678,
      "Ġeither": 4679,
      "Õ¸ÖĤÕ©": 4680,
      "Ġmakes": 4681,
      "uring": 4682,
      "ĠÃº": 4683,
      "Ġbad": 4684,
      "Ġtod": 4685,
      "Ġproblem": 4686,
      "Ġcomput": 4687,
      "IZ": 4688,
      "ounds": 4689,
      "iga": 4690,
      "namespace": 4691,
      "mun": 4692,
      "Null": 4693,
      "ĠÐ¸Ð½": 4694,
      "Ġhom": 4695,
      "ï¼Ł": 4696,
      "Ùĭ": 4697,
      "Ø±ÙĪ": 4698,
      "Ġsupp": 4699,
      "eller": 4700,
      "vider": 4701,
      "áĥĶáĥľ": 4702,
      "ĠGod": 4703,
      "Ġgetting": 4704,
      "Ð°Ð": 4705,
      "400": 4706,
      "ĠÐ¢": 4707,
      "annot": 4708,
      "àª¨à«ĩ": 4709,
      "Īĺ": 4710,
      "erd": 4711,
      "Ġdam": 4712,
      "(data": 4713,
      "ĠAm": 4714,
      "ÑĢÑĭ": 4715,
      "script": 4716,
      "Source": 4717,
      "Ġvalues": 4718,
      "ĠArray": 4719,
      "framework": 4720,
      "What": 4721,
      "Ġdeal": 4722,
      "ram": 4723,
      "ÓĻÐ°": 4724,
      "ë¥¼": 4725,
      "Ġcommunity": 4726,
      "ĠData": 4727,
      ".name": 4728,
      "Ð¸Ñħ": 4729,
      "Change": 4730,
      "Ġconnect": 4731,
      "Ġcred": 4732,
      "æµ": 4733,
      "ators": 4734,
      "parse": 4735,
      "Ġmass": 4736,
      "Ġplease": 4737,
      "Ġsobre": 4738,
      "Ġamb": 4739,
      "Ġbon": 4740,
      "mod": 4741,
      "ÐµÐ±": 4742,
      "Ġlater": 4743,
      "ĠMon": 4744,
      "à´¸": 4745,
      "Ġgeb": 4746,
      "Ġquick": 4747,
      "Ġao": 4748,
      "Ġnight": 4749,
      "Ġspecific": 4750,
      "Ġtal": 4751,
      "point": 4752,
      "ĠÕ¯": 4753,
      "Order": 4754,
      "Ġever": 4755,
      "ĠÑĩÑĤÐ¾": 4756,
      "../../": 4757,
      "ìĦľ": 4758,
      "params": 4759,
      "TH": 4760,
      "ãģĻ": 4761,
      "Ġstory": 4762,
      "Factory": 4763,
      "Ġinitial": 4764,
      "iste": 4765,
      "ĠáĥĵáĥĲ": 4766,
      "cret": 4767,
      "ÐºÐ¾": 4768,
      "áĥĲáĥ¡": 4769,
      "Ġfeatures": 4770,
      "Ġdetails": 4771,
      "Ġnatur": 4772,
      "ĠÐ¿Ð¾Ð´": 4773,
      "Ġà¤ĩ": 4774,
      "Base": 4775,
      "Ġparticip": 4776,
      ".push": 4777,
      "ĠYour": 4778,
      "ÑģÐ¿": 4779,
      "Ġele": 4780,
      "Ġìł": 4781,
      "«ĺ": 4782,
      "ĠÚ©ÛĴ": 4783,
      "Ġauthor": 4784,
      "agn": 4785,
      "Ġbelow": 4786,
      "ĠâĢŀ": 4787,
      "Ġstore": 4788,
      ")(": 4789,
      "ĠWeb": 4790,
      "ural": 4791,
      "Ġcontinue": 4792,
      "ÐµÐ½ÑĤ": 4793,
      "parent": 4794,
      "ÑĥÐ¿": 4795,
      "abe": 4796,
      "ĠPart": 4797,
      "Æ¡": 4798,
      "...Ċ": 4799,
      "anto": 4800,
      "Ġà¤Ķ": 4801,
      "Ø§Ø³": 4802,
      "service": 4803,
      "Õ¡Õ´": 4804,
      "àª¸": 4805,
      ".php": 4806,
      "Sp": 4807,
      "ĠOR": 4808,
      "Ġspace": 4809,
      "Ġseveral": 4810,
      "<String": 4811,
      "Ġprob": 4812,
      "Ġrecomm": 4813,
      "ĠUniversity": 4814,
      "Ġà´µ": 4815,
      "yo": 4816,
      "Ġáĥĺ": 4817,
      "Ġemp": 4818,
      "Ġquestion": 4819,
      "Ġà²®": 4820,
      "Ġont": 4821,
      "Ġcountry": 4822,
      "atabase": 4823,
      "Back": 4824,
      "Ġinstance": 4825,
      "source": 4826,
      "ĠÙĦÙĦ": 4827,
      "imate": 4828,
      "ami": 4829,
      "change": 4830,
      "pond": 4831,
      "remove": 4832,
      "used": 4833,
      "áĥĿáĥĽ": 4834,
      "Acc": 4835,
      "std": 4836,
      "Ġcook": 4837,
      "Ġface": 4838,
      "Ġenough": 4839,
      "Ġsend": 4840,
      "anch": 4841,
      "Ġ),Ċ": 4842,
      "Update": 4843,
      "ĠGl": 4844,
      "æ¬": 4845,
      "Ġà°ª": 4846,
      "oved": 4847,
      "ë¦¬": 4848,
      "Ġphot": 4849,
      "Ġpur": 4850,
      "(_": 4851,
      "ĠÐ¿ÑĢÐ¾": 4852,
      "aging": 4853,
      "Ġargs": 4854,
      ".swing": 4855,
      "fa": 4856,
      "ÎµÎ¹": 4857,
      "Repository": 4858,
      "à¤¿à¤¤": 4859,
      "ÓĻÐ½": 4860,
      "áŁĴ": 4861,
      "_ST": 4862,
      "ĠÃ©t": 4863,
      "ila": 4864,
      "éģ": 4865,
      "Ġuint": 4866,
      "ļáĥĺ": 4867,
      "cribe": 4868,
      "ording": 4869,
      "à¤£": 4870,
      "ĠÔ": 4871,
      "Ġclos": 4872,
      "41": 4873,
      "×ĲÖ·": 4874,
      "Ġpress": 4875,
      "oper": 4876,
      "color": 4877,
      "Ġà²¸": 4878,
      "ĠGu": 4879,
      "Ġexample": 4880,
      "ÐµÐ¿": 4881,
      "èĩ": 4882,
      "(j": 4883,
      "uri": 4884,
      "Ġà¥": 4885,
      "Ġmembers": 4886,
      "Ġalt": 4887,
      "iday": 4888,
      "Ġsays": 4889,
      "uint": 4890,
      ".J": 4891,
      "ĠThese": 4892,
      "56": 4893,
      "Ġbal": 4894,
      "Ġber": 4895,
      "Ġà¦¦": 4896,
      "ĠOff": 4897,
      "Ġstudy": 4898,
      "Ġgar": 4899,
      "Ġhost": 4900,
      "dated": 4901,
      "aking": 4902,
      "Ġ<=": 4903,
      "Ġextra": 4904,
      "ÐµÑĤÑģÑı": 4905,
      "ĠáĢ": 4906,
      "Ġheb": 4907,
      "Ġfinanc": 4908,
      "Ġach": 4909,
      "Ġparticular": 4910,
      "Ġbecome": 4911,
      "çĻ": 4912,
      "idden": 4913,
      "stit": 4914,
      "Ġsind": 4915,
      "Ġcity": 4916,
      "/s": 4917,
      "à®³": 4918,
      "Ġplayer": 4919,
      "Ġà¤Ķà¤°": 4920,
      "Ġmajor": 4921,
      "Ġothers": 4922,
      "mark": 4923,
      "!--": 4924,
      "active": 4925,
      ".springframework": 4926,
      "apping": 4927,
      "ãģ¾": 4928,
      "Ġà®ª": 4929,
      "_size": 4930,
      "One": 4931,
      "Ð¸ÑģÑĤ": 4932,
      "_de": 4933,
      "Ġgames": 4934,
      "Ġmedia": 4935,
      "Ġsens": 4936,
      "ilar": 4937,
      "ball": 4938,
      "ĠGe": 4939,
      "ĠÛĮ": 4940,
      "Ġespecial": 4941,
      "Ġbutton": 4942,
      "Ð¸Ð»Ð¸": 4943,
      "Ġàªµ": 4944,
      "Ġhold": 4945,
      "ĠEuro": 4946,
      "Ø±ÛĮ": 4947,
      "\"))": 4948,
      "Ġ>=": 4949,
      "Ġ×ł": 4950,
      "ising": 4951,
      "Ġwrite": 4952,
      "kn": 4953,
      "Ġnecess": 4954,
      "ĠMark": 4955,
      "Ġà¤ļ": 4956,
      "ison": 4957,
      "Ġyet": 4958,
      "Ġprec": 4959,
      "TE": 4960,
      "Mode": 4961,
      "iento": 4962,
      "Ġkl": 4963,
      "model": 4964,
      "98": 4965,
      "iri": 4966,
      "UP": 4967,
      "ged": 4968,
      "57": 4969,
      "Ġpolit": 4970,
      "âĤ¬": 4971,
      "ustry": 4972,
      "_to": 4973,
      "Ġlib": 4974,
      "ĠØ·": 4975,
      "Ġstay": 4976,
      "Ġsave": 4977,
      "aya": 4978,
      "ental": 4979,
      "Ġ'./": 4980,
      "height": 4981,
      "URL": 4982,
      "icult": 4983,
      "Ġautom": 4984,
      "Ġlocation": 4985,
      "Ġfavor": 4986,
      "Ġnews": 4987,
      "Ġpers": 4988,
      "Create": 4989,
      "AME": 4990,
      "Õ¸ÖĤÕ©Õµ": 4991,
      "ĉelse": 4992,
      "ĠOne": 4993,
      "Ġfont": 4994,
      "à¹ĩ": 4995,
      "Ġnga": 4996,
      "pu": 4997,
      "Ġteach": 4998,
      "Ġthrows": 4999,
      "gt": 5000,
      "edd": 5001,
      "ĠÐĶ": 5002,
      "Ġsche": 5003,
      "ester": 5004,
      "Î¹Îº": 5005,
      "NS": 5006,
      "à·Ĵ": 5007,
      "Ġhours": 5008,
      "Ġcomes": 5009,
      "anu": 5010,
      "Ġoder": 5011,
      "Ġcomplet": 5012,
      "inding": 5013,
      "zer": 5014,
      "gu": 5015,
      "à¸Ħ": 5016,
      "Ġê°": 5017,
      ".put": 5018,
      "Ġà¤ªà¤°": 5019,
      "ĠTHE": 5020,
      "atu": 5021,
      "ministr": 5022,
      "à´¿à´²": 5023,
      "Ġsav": 5024,
      "Ġ['": 5025,
      "Ġmiss": 5026,
      "Ġwomen": 5027,
      "Ġshare": 5028,
      "Off": 5029,
      "áĥ®": 5030,
      "ĠÃ¾": 5031,
      "Ġpie": 5032,
      "osp": 5033,
      "Ġcopy": 5034,
      "Ġabove": 5035,
      "################": 5036,
      "Ġleast": 5037,
      "Î½Î±": 5038,
      "à²³": 5039,
      "Width": 5040,
      "Ġlarg": 5041,
      ".on": 5042,
      "à«įàª°": 5043,
      "ORT": 5044,
      "Ã©es": 5045,
      ".con": 5046,
      "ecut": 5047,
      "ĠVal": 5048,
      "Ġnam": 5049,
      "iful": 5050,
      "à¸¸": 5051,
      "Ġfriend": 5052,
      "])Ċ": 5053,
      "97": 5054,
      "ĠÐ±Ð¾Ð»": 5055,
      "hand": 5056,
      "PL": 5057,
      "encia": 5058,
      "OK": 5059,
      "quired": 5060,
      "à°¾à°°": 5061,
      "Ġetc": 5062,
      "ë³": 5063,
      "inate": 5064,
      "Ġprovided": 5065,
      "à´¤àµįà´¤": 5066,
      "Ġfocus": 5067,
      "å¦": 5068,
      "æĥ": 5069,
      "ĠAct": 5070,
      "Ġrepresent": 5071,
      "Tem": 5072,
      "_R": 5073,
      "zt": 5074,
      "Ġdue": 5075,
      "antes": 5076,
      "([": 5077,
      "à¤¾à¤®": 5078,
      "YPE": 5079,
      "ĠÐ¿ÐµÑĢ": 5080,
      "áŁĴáŀ": 5081,
      "ĠÐł": 5082,
      "Ġapplication": 5083,
      "ESS": 5084,
      "AX": 5085,
      "fully": 5086,
      "ola": 5087,
      "ãģ¯": 5088,
      "ensive": 5089,
      "Ġreason": 5090,
      "elen": 5091,
      "endif": 5092,
      "ipo": 5093,
      "ĠComp": 5094,
      ".model": 5095,
      "igr": 5096,
      "ÒŃ": 5097,
      "150": 5098,
      "Ġseason": 5099,
      "Ġbre": 5100,
      "-n": 5101,
      "DB": 5102,
      "à¤¿à¤²": 5103,
      "ogn": 5104,
      "cast": 5105,
      "Ðĳ": 5106,
      "Ġrow": 5107,
      "á»Ŀ": 5108,
      "pload": 5109,
      "icles": 5110,
      "Ġwalk": 5111,
      "Ġpick": 5112,
      "Ġ...ĊĊ": 5113,
      ".text": 5114,
      "Ã¤t": 5115,
      "Ġà´¨": 5116,
      "start": 5117,
      "ingen": 5118,
      "Ġwait": 5119,
      "ĠNov": 5120,
      "yt": 5121,
      "Ġpou": 5122,
      "Ġsont": 5123,
      "ĠDec": 5124,
      "argin": 5125,
      "ìĽ": 5126,
      "á¹": 5127,
      "anger": 5128,
      "ĠØ§ÙĦØ³": 5129,
      "Ġacross": 5130,
      "ãĢį": 5131,
      "Ã³n": 5132,
      "ĠØ§ÙĦØŃ": 5133,
      "ires": 5134,
      "Ġáĥ¨": 5135,
      "ï½": 5136,
      "Valid": 5137,
      "Ġcompan": 5138,
      "product": 5139,
      "ÑıÑĤ": 5140,
      "ĠFile": 5141,
      "Ġclose": 5142,
      "inary": 5143,
      "Ġperiod": 5144,
      "Command": 5145,
      "________": 5146,
      "ĠUs": 5147,
      "Ġdevelopment": 5148,
      "ÑĥÐ½": 5149,
      "Ġauto": 5150,
      "/**Ċ": 5151,
      "Ûķ": 5152,
      "Ġhu": 5153,
      "Ġmove": 5154,
      "eft": 5155,
      "Ġfuture": 5156,
      "à´µ": 5157,
      "Ġtamb": 5158,
      "ãģ«": 5159,
      "Ġwriting": 5160,
      "server": 5161,
      "ecess": 5162,
      "just": 5163,
      "àµįà´Ł": 5164,
      "Ġwerden": 5165,
      "à¸°": 5166,
      "ĠForm": 5167,
      "Ġago": 5168,
      "ĠÙħØ¹": 5169,
      "Ġtrack": 5170,
      "ÙħÙĦ": 5171,
      "Ġclick": 5172,
      "pend": 5173,
      "state": 5174,
      "istance": 5175,
      "Ġtask": 5176,
      "Ġoffers": 5177,
      "ĠØ§Ø³Øª": 5178,
      "How": 5179,
      "Module": 5180,
      "Ġsie": 5181,
      "à«ĭàª": 5182,
      "åĴ": 5183,
      "Ġdating": 5184,
      "âĢĿ,": 5185,
      "Ġdoing": 5186,
      "ĠOF": 5187,
      "Hel": 5188,
      "most": 5189,
      "Ġopportun": 5190,
      "Const": 5191,
      "Ġinn": 5192,
      "struction": 5193,
      "Ġoption": 5194,
      "Ġhandle": 5195,
      "43": 5196,
      "iddle": 5197,
      "Ġprincip": 5198,
      "wards": 5199,
      "structor": 5200,
      "Ġgir": 5201,
      "Ġ×Ĳ×Ļ×": 5202,
      "adio": 5203,
      "ÛĶ": 5204,
      "ĠIl": 5205,
      "ãģ¨": 5206,
      "req": 5207,
      "Ġev": 5208,
      "lear": 5209,
      "Ġá»į": 5210,
      "iple": 5211,
      "rea": 5212,
      "Ġpal": 5213,
      "Õ¾": 5214,
      "ĠOur": 5215,
      "Ġbien": 5216,
      "anz": 5217,
      "page": 5218,
      "à±Ĩ": 5219,
      "ĮĢ": 5220,
      "AV": 5221,
      "Cell": 5222,
      "à±įà°°": 5223,
      "ÃŃt": 5224,
      "à®²": 5225,
      "ÚĨ": 5226,
      "Grid": 5227,
      "Address": 5228,
      "åĳ": 5229,
      "<<": 5230,
      "Ġcommon": 5231,
      "Ġpack": 5232,
      "Ġsym": 5233,
      "ĠFree": 5234,
      "Ġquestions": 5235,
      "Options": 5236,
      "Default": 5237,
      "Ġ});ĊĊ": 5238,
      "ĠÑĸ": 5239,
      "Ġclear": 5240,
      "ixed": 5241,
      "Â·": 5242,
      "ijd": 5243,
      "iki": 5244,
      "Ġah": 5245,
      "Ð°Ð±": 5246,
      "Ġcreated": 5247,
      "Ġzo": 5248,
      "iate": 5249,
      "Ġnp": 5250,
      "Ġcomment": 5251,
      "Ùİ": 5252,
      "Ġinfo": 5253,
      "Ġtyp": 5254,
      "urther": 5255,
      "nh": 5256,
      "Ġdiscuss": 5257,
      "ĠÑģÐ¿": 5258,
      "Ġmusic": 5259,
      "áºŃ": 5260,
      "Ġusers": 5261,
      "Ġmga": 5262,
      "ĠÐ²Ñģ": 5263,
      "ĠState": 5264,
      "ĠÑĨ": 5265,
      "_v": 5266,
      ".js": 5267,
      "ERR": 5268,
      "leep": 5269,
      "Ġpict": 5270,
      "iten": 5271,
      "Ġhuman": 5272,
      "ĠBar": 5273,
      "null": 5274,
      "adding": 5275,
      "unit": 5276,
      "Ġsubject": 5277,
      "Ġnetwork": 5278,
      "Ġà´®": 5279,
      "Ġsignific": 5280,
      "ĠRead": 5281,
      "lim": 5282,
      "ÑĢÐ¾": 5283,
      "Attribute": 5284,
      "reet": 5285,
      "åģ": 5286,
      "lu": 5287,
      "aha": 5288,
      "ecute": 5289,
      "Ð°ÑģÑĤ": 5290,
      "Title": 5291,
      "ï»": 5292,
      "OV": 5293,
      "Ġdeterm": 5294,
      "agment": 5295,
      "count": 5296,
      "ĠØ¨Ø§": 5297,
      "Child": 5298,
      "base": 5299,
      "Ġstarted": 5300,
      "Ġmaint": 5301,
      "êµ": 5302,
      "Ġren": 5303,
      "\");ĊĊ": 5304,
      "has": 5305,
      "Ġrole": 5306,
      "ĠArt": 5307,
      "Ġtw": 5308,
      "Ġà¦¤": 5309,
      "header": 5310,
      "edia": 5311,
      "ĠIS": 5312,
      "Integer": 5313,
      "Ġminutes": 5314,
      "_g": 5315,
      "à¹Ħ": 5316,
      "æı": 5317,
      "ART": 5318,
      "Ġtele": 5319,
      "My": 5320,
      "ÑĥÐ¼": 5321,
      "valu": 5322,
      "hen": 5323,
      "Ġbil": 5324,
      "ele": 5325,
      "asure": 5326,
      "_set": 5327,
      "Ġcompet": 5328,
      "Ġpred": 5329,
      "aux": 5330,
      "curity": 5331,
      "ÐµÑĪ": 5332,
      "áĥĲáĥł": 5333,
      "Ã¥r": 5334,
      "_G": 5335,
      "-se": 5336,
      "à§įà¦¤": 5337,
      "67": 5338,
      "center": 5339,
      "Block": 5340,
      "à®ķ": 5341,
      "Ġglobal": 5342,
      "Ġnh": 5343,
      "imple": 5344,
      "ĠÃ¼ber": 5345,
      "Ġeconom": 5346,
      "ĠÃŃ": 5347,
      "àµįà´±": 5348,
      "ĠPublic": 5349,
      "Ġà¤¶": 5350,
      "ÙĬÙĦ": 5351,
      "è¦": 5352,
      "ĠI'm": 5353,
      "itted": 5354,
      "PI": 5355,
      "ÄĲ": 5356,
      "ÑħÐ¾Ð´": 5357,
      "Panel": 5358,
      "à´³": 5359,
      "Ġtemp": 5360,
      "Ġtell": 5361,
      "ĠÐ¿Ð¾Ð»": 5362,
      "oman": 5363,
      "root": 5364,
      "});Ċ": 5365,
      "Ġ×Ĵ": 5366,
      "áŀ¶": 5367,
      "Ġà¤¹à¥ĭ": 5368,
      "_W": 5369,
      "loor": 5370,
      "Ġthough": 5371,
      "atie": 5372,
      "Icon": 5373,
      "Ġhope": 5374,
      "ignment": 5375,
      "itions": 5376,
      "Ġtout": 5377,
      "Ġapplic": 5378,
      "Ġmonths": 5379,
      "Ġcy": 5380,
      "etr": 5381,
      "Ġbox": 5382,
      "ÐµÐ": 5383,
      "Me": 5384,
      "inder": 5385,
      "itar": 5386,
      "åķ": 5387,
      "ĠPost": 5388,
      "hal": 5389,
      "Row": 5390,
      "Load": 5391,
      "ĠTrans": 5392,
      "Ġassoci": 5393,
      "Ġlength": 5394,
      "amm": 5395,
      "Ġeverything": 5396,
      ".v": 5397,
      "pli": 5398,
      "idades": 5399,
      "Ġrelations": 5400,
      "author": 5401,
      "ãĤ¹": 5402,
      "show": 5403,
      "ĠEs": 5404,
      "(function": 5405,
      "Ġà°ķ": 5406,
      "quals": 5407,
      "Ġstrong": 5408,
      "Ġcomplete": 5409,
      "oma": 5410,
      "ĠDet": 5411,
      "Ġbei": 5412,
      "ìĤ¬": 5413,
      "icas": 5414,
      "olo": 5415,
      "ĉcase": 5416,
      "ĠestÃ¡": 5417,
      "Ġknown": 5418,
      "ìĿ¸": 5419,
      "Ġges": 5420,
      "éĽ": 5421,
      "Ġnach": 5422,
      "QL": 5423,
      "à´²": 5424,
      "ĠHowever": 5425,
      "Ð´Ð¸": 5426,
      "ĠUnited": 5427,
      "Ġ×©×ľ": 5428,
      "ises": 5429,
      "lig": 5430,
      "_path": 5431,
      "(C": 5432,
      "hing": 5433,
      "illa": 5434,
      "à¤§": 5435,
      "Fe": 5436,
      "Ġobt": 5437,
      "IB": 5438,
      "Ġà²ķ": 5439,
      "Ġfront": 5440,
      "Ġ},": 5441,
      "ĠÏĦÎ·": 5442,
      "isch": 5443,
      ".getElement": 5444,
      "Ġpoints": 5445,
      "eni": 5446,
      "child": 5447,
      "ï»¿": 5448,
      "eds": 5449,
      "Ø±Ø¯": 5450,
      "Ġtax": 5451,
      "oe": 5452,
      "Ö¸": 5453,
      "ĠCor": 5454,
      "ving": 5455,
      "ĠAg": 5456,
      "Ġ×ĸ": 5457,
      "Ġasync": 5458,
      "Ġfilm": 5459,
      "(name": 5460,
      "Ġwhether": 5461,
      "Ð°Ð»Ð°": 5462,
      "Ġple": 5463,
      "ische": 5464,
      "Ø±Ø¨": 5465,
      "OW": 5466,
      "Ġseries": 5467,
      "urg": 5468,
      ".Size": 5469,
      "Ġdeg": 5470,
      "ãģŁ": 5471,
      "FA": 5472,
      "Ġmaar": 5473,
      "ĠSee": 5474,
      "(){Ċ": 5475,
      "Ġinf": 5476,
      "Ġheart": 5477,
      "ĠInter": 5478,
      "printf": 5479,
      "ĠRE": 5480,
      "ett": 5481,
      "Ġdir": 5482,
      "Ã¡t": 5483,
      "sy": 5484,
      "Ġyoung": 5485,
      "à¸«": 5486,
      "asy": 5487,
      "ffect": 5488,
      "Ġfall": 5489,
      "Ġrespect": 5490,
      "typ": 5491,
      "astic": 5492,
      "Ġwatch": 5493,
      "Stack": 5494,
      "ibrary": 5495,
      "Ġbring": 5496,
      "Container": 5497,
      "control": 5498,
      "à¯įà®ª": 5499,
      "usiness": 5500,
      "Ġàª¹": 5501,
      "×ķ×ľ": 5502,
      "There": 5503,
      "Ġ*/ĊĊ": 5504,
      "sm": 5505,
      "Ġdb": 5506,
      "ìĭľ": 5507,
      "iva": 5508,
      "ÑĹ": 5509,
      "ÙĩÙħ": 5510,
      "ĠStr": 5511,
      "urt": 5512,
      "asa": 5513,
      "à´£": 5514,
      "Õ¡Õ¿": 5515,
      "ĠClass": 5516,
      "Position": 5517,
      "ìĬ¤": 5518,
      "plied": 5519,
      "íķ´": 5520,
      "entes": 5521,
      "func": 5522,
      "Ġdar": 5523,
      "ìĥ": 5524,
      "Ġchoose": 5525,
      "CL": 5526,
      "Ġinstall": 5527,
      "Ġeu": 5528,
      "Ġhappen": 5529,
      "Õ¸ÖĤÕ¶": 5530,
      "Ġfast": 5531,
      "ãĥĪ": 5532,
      ".čĊ": 5533,
      "Ġfriends": 5534,
      "áº¯": 5535,
      "Ġstop": 5536,
      "Ġinvol": 5537,
      "æ¯": 5538,
      "uma": 5539,
      "ëł": 5540,
      "event": 5541,
      "Ġà¥¤": 5542,
      "àªª": 5543,
      "urance": 5544,
      "Ã©c": 5545,
      "Equal": 5546,
      "á»§": 5547,
      "Ġhistory": 5548,
      "á»±": 5549,
      "Serv": 5550,
      "Part": 5551,
      "year": 5552,
      "Ġhor": 5553,
      "TO": 5554,
      "ĠÓ©": 5555,
      "ĠCity": 5556,
      "Utils": 5557,
      "à³ĩ": 5558,
      "é¡": 5559,
      "Î¹Î±": 5560,
      "à¦ª": 5561,
      "Empty": 5562,
      "Ġsomeone": 5563,
      "ĠGeneral": 5564,
      "197": 5565,
      "à²¡": 5566,
      "á»ĥ": 5567,
      "ynam": 5568,
      ":čĊ": 5569,
      "Ġwie": 5570,
      "Ġjson": 5571,
      "Num": 5572,
      "Ġquery": 5573,
      "Ð¾Ð²Ð°Ð½": 5574,
      "ugin": 5575,
      "iente": 5576,
      "ĠDep": 5577,
      "èĤ": 5578,
      "ATION": 5579,
      "ãģ¦": 5580,
      "/m": 5581,
      "%%": 5582,
      "Ġphone": 5583,
      "ODE": 5584,
      "Ġpet": 5585,
      "anged": 5586,
      "acebook": 5587,
      "asing": 5588,
      "ledge": 5589,
      "Buffer": 5590,
      "auth": 5591,
      "_ex": 5592,
      "ufact": 5593,
      "ĠØ²": 5594,
      "Ġanim": 5595,
      "åī": 5596,
      "è¾": 5597,
      "à¦¼": 5598,
      ":\"": 5599,
      "Ġinfl": 5600,
      "Ġpopular": 5601,
      "Ġwindow": 5602,
      "Ġindustry": 5603,
      "Ġbtn": 5604,
      "Header": 5605,
      "\";ĊĊ": 5606,
      "æ²": 5607,
      "Char": 5608,
      "à³įà²°": 5609,
      "àµįà´¯": 5610,
      "atrix": 5611,
      "Ġage": 5612,
      "ç²": 5613,
      "Ġunique": 5614,
      "Ġenter": 5615,
      "ustomer": 5616,
      "Ġmillion": 5617,
      "ĠÑĤÐ°Ðº": 5618,
      "ocol": 5619,
      "Ġkh": 5620,
      "à¤ķà¥ĭ": 5621,
      "//Ċ//": 5622,
      "à±ĩà°": 5623,
      "rief": 5624,
      "ombre": 5625,
      "(),Ċ": 5626,
      "soft": 5627,
      "69": 5628,
      "à¤¿à¤¨": 5629,
      "ised": 5630,
      "Ä§": 5631,
      "à¦Ł": 5632,
      "admin": 5633,
      "ĠAmerican": 5634,
      "Ø¢": 5635,
      "anta": 5636,
      "Ġadded": 5637,
      "Ġfit": 5638,
      "unn": 5639,
      "verage": 5640,
      "ÐµÑĢÐ°": 5641,
      "utions": 5642,
      "Ġvor": 5643,
      "ĠAng": 5644,
      "Ġstrateg": 5645,
      "ĠÖ": 5646,
      "ÙĬØ§": 5647,
      "256": 5648,
      "ky": 5649,
      ".annot": 5650,
      "Dialog": 5651,
      "ãģª": 5652,
      "het": 5653,
      "Ġsil": 5654,
      "Ġarticle": 5655,
      "asse": 5656,
      "info": 5657,
      "ĠCr": 5658,
      "Ð³Ð¾": 5659,
      "ipping": 5660,
      "undle": 5661,
      "Ġwir": 5662,
      "ĠÐ¼Ð¾Ð¶": 5663,
      "egin": 5664,
      "Ġà°µ": 5665,
      "ĠÐĺ": 5666,
      "à¤²à¥ĩ": 5667,
      "ĠGoogle": 5668,
      "Ġcollection": 5669,
      "ĠCON": 5670,
      "current": 5671,
      "options": 5672,
      "Ġot": 5673,
      "Ġë°": 5674,
      "So": 5675,
      "Ġuk": 5676,
      "Ã³r": 5677,
      "ĠÃ§": 5678,
      "entity": 5679,
      "uper": 5680,
      "à¶±": 5681,
      "part": 5682,
      "ttps": 5683,
      "Height": 5684,
      "local": 5685,
      "aten": 5686,
      "Ġà®ķ": 5687,
      "Dr": 5688,
      "py": 5689,
      "Ġvirt": 5690,
      "eme": 5691,
      "ĠÑģÐ»": 5692,
      "ëıĦ": 5693,
      "ysis": 5694,
      "ued": 5695,
      "''": 5696,
      "Ġcame": 5697,
      "<T": 5698,
      "Ä«": 5699,
      "ìĺ": 5700,
      "Ġà¦ħ": 5701,
      "Ġih": 5702,
      "outer": 5703,
      "Ġyn": 5704,
      "Ġfig": 5705,
      "à²¿à²¦": 5706,
      "cal": 5707,
      "Ġexperien": 5708,
      "Ġ×§": 5709,
      "iert": 5710,
      "Ġexam": 5711,
      "Ġphys": 5712,
      "uj": 5713,
      "Ø§Ùģ": 5714,
      "Ġaux": 5715,
      "á»įn": 5716,
      "ota": 5717,
      "este": 5718,
      "ĠFe": 5719,
      "Ġcharacter": 5720,
      "Ġaddition": 5721,
      "Ġìķ": 5722,
      "OUT": 5723,
      "Ãī": 5724,
      "ĠÐ¿ÑĢÐ¸": 5725,
      "ively": 5726,
      "Ġnear": 5727,
      "Ġjoin": 5728,
      "stract": 5729,
      "Õ´": 5730,
      "iam": 5731,
      "andid": 5732,
      "Ġtim": 5733,
      "ĠOf": 5734,
      "Ġenvironment": 5735,
      "urrenc": 5736,
      "patch": 5737,
      "ĠÃ¶": 5738,
      "iger": 5739,
      "()ĊĊ": 5740,
      "Format": 5741,
      "roups": 5742,
      ".se": 5743,
      "<div": 5744,
      "ils": 5745,
      "Ġprevious": 5746,
      "ÑĭÐ¼": 5747,
      "Ġworks": 5748,
      "Ġhon": 5749,
      "Ġtrab": 5750,
      "Ġconse": 5751,
      "Ġoverride": 5752,
      "Ġvarious": 5753,
      "à¤¾à¤Ĥ": 5754,
      "Ġprop": 5755,
      "áĥĺáĥĹ": 5756,
      "ivery": 5757,
      "PS": 5758,
      "Player": 5759,
      "Ġdevice": 5760,
      "Ġrender": 5761,
      "Ġwr": 5762,
      "gn": 5763,
      "aily": 5764,
      "Connection": 5765,
      "Bl": 5766,
      "CK": 5767,
      "aciones": 5768,
      "ditions": 5769,
      "ached": 5770,
      "Õ½": 5771,
      "vas": 5772,
      "Ġhi": 5773,
      "iden": 5774,
      "etwork": 5775,
      "Ġnd": 5776,
      "áº§": 5777,
      "Ġà¦ķà¦°": 5778,
      "Ø¨Ø±": 5779,
      "Ġhttps": 5780,
      "rodu": 5781,
      "ÉĻr": 5782,
      "ĠWorld": 5783,
      "Ġaccept": 5784,
      "à´¿à´ķ": 5785,
      "Gener": 5786,
      "Task": 5787,
      "ĠJohn": 5788,
      "Ġregister": 5789,
      "Ġexpected": 5790,
      "à´¿à´¯": 5791,
      "oor": 5792,
      "_file": 5793,
      "ĠSub": 5794,
      "Resource": 5795,
      "phone": 5796,
      "Ġprofessional": 5797,
      "ako": 5798,
      "ĠÕ¶": 5799,
      "ë©": 5800,
      "Ġterms": 5801,
      "essages": 5802,
      "à«ĩàª": 5803,
      "Filter": 5804,
      "Ġà°¸": 5805,
      "Ġà®µ": 5806,
      "ìŀĲ": 5807,
      "lood": 5808,
      ".user": 5809,
      "IZE": 5810,
      "ĠØ¨Ø§ÙĦ": 5811,
      "ĠRed": 5812,
      "ccount": 5813,
      "ulo": 5814,
      "Ġenergy": 5815,
      "áĥĹ": 5816,
      "ald": 5817,
      "Ġà¤ķà¤¾": 5818,
      "When": 5819,
      "ìĸ´": 5820,
      "Ġblack": 5821,
      "Ġperm": 5822,
      "itude": 5823,
      "à´±": 5824,
      "ption": 5825,
      "idos": 5826,
      "Ġep": 5827,
      "Ġlimit": 5828,
      "enda": 5829,
      "ĠSm": 5830,
      ".V": 5831,
      "ĉd": 5832,
      "roy": 5833,
      "{{": 5834,
      "Ġnaar": 5835,
      "Search": 5836,
      "gan": 5837,
      "uses": 5838,
      "Ð´Ðµ": 5839,
      "ØªØ±": 5840,
      "Ġparent": 5841,
      "Ġwent": 5842,
      "à²¾à²°": 5843,
      "Ġstep": 5844,
      "ĠNews": 5845,
      "Ġgeneral": 5846,
      "wner": 5847,
      "à¦¦": 5848,
      "à¤¤à¤¾": 5849,
      "Ġcustomer": 5850,
      "àµģà´Ĥ": 5851,
      "///": 5852,
      "à¤¼": 5853,
      "ĠaÃ°": 5854,
      "\\\\": 5855,
      "Ġchall": 5856,
      "Eng": 5857,
      "lib": 5858,
      "Location": 5859,
      "Provider": 5860,
      "Ġcolumn": 5861,
      "ĠCent": 5862,
      "æ±": 5863,
      "KE": 5864,
      "rel": 5865,
      "Ġcompanies": 5866,
      "ç¬": 5867,
      ");čĊčĊ": 5868,
      "Ġprovides": 5869,
      "Ġtypes": 5870,
      "iner": 5871,
      "Ġformat": 5872,
      "jet": 5873,
      "II": 5874,
      "Ġsugg": 5875,
      "ervlet": 5876,
      "width": 5877,
      "Ġserver": 5878,
      "Ġengine": 5879,
      "sv": 5880,
      "×Ļ×¨": 5881,
      "Ġdass": 5882,
      "Ġpen": 5883,
      "Ġsel": 5884,
      "gle": 5885,
      "ĠAug": 5886,
      "Õ¡Õ½": 5887,
      "Ġmember": 5888,
      "Ġcustomers": 5889,
      "ĠWest": 5890,
      "Ġcontr": 5891,
      "acity": 5892,
      "áĥĿáĥĳ": 5893,
      "Ġek": 5894,
      "attr": 5895,
      "Ġàª¨": 5896,
      "client": 5897,
      "light": 5898,
      "eli": 5899,
      "Ġdiffic": 5900,
      "ĠPa": 5901,
      "ĠOut": 5902,
      "udi": 5903,
      "ç®": 5904,
      "Ġ]": 5905,
      "Top": 5906,
      "Ġearly": 5907,
      "ĠPlease": 5908,
      "Ġweight": 5909,
      "tributed": 5910,
      "Ġdim": 5911,
      "Ġanswer": 5912,
      "ello": 5913,
      "Ġà´ħ": 5914,
      "ãĢĮ": 5915,
      "Ġidea": 5916,
      "Ġterr": 5917,
      "Ġhier": 5918,
      "Ġgovernment": 5919,
      "ĠApr": 5920,
      "ĉp": 5921,
      "Ġwhole": 5922,
      "status": 5923,
      "Down": 5924,
      "undo": 5925,
      "Ġtook": 5926,
      "iler": 5927,
      "#if": 5928,
      "ĠÐºÐ¾ÑĤ": 5929,
      "ĠDon": 5930,
      "abs": 5931,
      "åĢ": 5932,
      "env": 5933,
      "ÒĵÐ°Ð½": 5934,
      "ĠCopyright": 5935,
      "à¨¾à¨": 5936,
      "xy": 5937,
      "Ġnormal": 5938,
      "Ġindic": 5939,
      "à¥įà¤Ł": 5940,
      "plac": 5941,
      "#endif": 5942,
      "ĠSome": 5943,
      "Ġ*)": 5944,
      "Ġreading": 5945,
      "Ġissues": 5946,
      "à¤ĸ": 5947,
      "Ġpassword": 5948,
      "ried": 5949,
      "'ll": 5950,
      "Ġà²¨": 5951,
      "Ġcut": 5952,
      "ÒĻ": 5953,
      "àª¹": 5954,
      "Ġapply": 5955,
      "ns": 5956,
      "(const": 5957,
      "Ġreceived": 5958,
      "Ġexpress": 5959,
      "¨áĥĺ": 5960,
      "(M": 5961,
      "address": 5962,
      "àª¾àª¨": 5963,
      "120": 5964,
      "Ġbeautiful": 5965,
      "Ġsuggest": 5966,
      "inen": 5967,
      "Ġcoll": 5968,
      "orte": 5969,
      "oria": 5970,
      "Ð°Ñħ": 5971,
      "aker": 5972,
      "views": 5973,
      "Ġmel": 5974,
      "ĠEd": 5975,
      "Ġneeded": 5976,
      "Ġ+Ċ": 5977,
      "'.": 5978,
      "tributes": 5979,
      "à¤¨à¤¾": 5980,
      "ĠØ¨Ø±": 5981,
      "Ġevents": 5982,
      "Types": 5983,
      "Ġ[]": 5984,
      "ÑĭÑĢ": 5985,
      "Ġ],Ċ": 5986,
      "qual": 5987,
      "output": 5988,
      "ÙħÙĨ": 5989,
      "()->": 5990,
      "omain": 5991,
      "Ġfi": 5992,
      "Description": 5993,
      "ĠHome": 5994,
      "Ġanything": 5995,
      "×ķ×ł": 5996,
      "áĢ¹": 5997,
      "straint": 5998,
      "Ġáĥ¡áĥĲáĥ": 5999,
      "........": 6000,
      "255": 6001,
      "icip": 6002,
      "Ġcorrect": 6003,
      "ĠÐ£": 6004,
      "TER": 6005,
      "olume": 6006,
      "à¤Ń": 6007,
      "Ġonder": 6008,
      "Ġtraining": 6009,
      "Ġà¸ª": 6010,
      "Tag": 6011,
      "àµĢ": 6012,
      "Ġ[âĢ¦": 6013,
      "Ġà®®": 6014,
      "Ġsy": 6015,
      "áģ": 6016,
      "ĠCre": 6017,
      "Ġswitch": 6018,
      "ITY": 6019,
      "ums": 6020,
      "Ġregard": 6021,
      "level": 6022,
      "tty": 6023,
      "ffer": 6024,
      "Ġtaking": 6025,
      "Ġdelete": 6026,
      "é¦": 6027,
      "Ġcenter": 6028,
      "Ġgi": 6029,
      "ÑĭÑħ": 6030,
      "ĠPe": 6031,
      "ighb": 6032,
      "Ġdraw": 6033,
      "ĠYork": 6034,
      "Ġnous": 6035,
      "Ġseen": 6036,
      "ĠAND": 6037,
      "Ġinternet": 6038,
      "ë¶": 6039,
      "(S": 6040,
      "_str": 6041,
      "ĠReact": 6042,
      "àª¯": 6043,
      "ĠTV": 6044,
      "Case": 6045,
      "Ġscreen": 6046,
      "-M": 6047,
      "Ð¶Ðµ": 6048,
      "emos": 6049,
      "Õ¶Õ¥ÖĢ": 6050,
      "acht": 6051,
      "rowser": 6052,
      "Frame": 6053,
      "rt": 6054,
      "Ġperformance": 6055,
      "Ġamong": 6056,
      "now": 6057,
      "ieren": 6058,
      "ĠØ§Ø³": 6059,
      "Ô¥": 6060,
      "anced": 6061,
      "Dec": 6062,
      "istic": 6063,
      "ĠCheck": 6064,
      "Ġà°®": 6065,
      "Ġsing": 6066,
      "Ġlang": 6067,
      "Ġwonder": 6068,
      "ĠJust": 6069,
      "à®µ": 6070,
      "(false": 6071,
      "Ġprior": 6072,
      "éĺ": 6073,
      "ipment": 6074,
      "ĠÐºÐ°Ðº": 6075,
      "Ġtag": 6076,
      "riend": 6077,
      "Ġsession": 6078,
      "Ġinterface": 6079,
      "ILE": 6080,
      "Ġ*/čĊ": 6081,
      "ibil": 6082,
      "bs": 6083,
      "block": 6084,
      "51": 6085,
      "Ġimpact": 6086,
      "Ġwww": 6087,
      "Ġremove": 6088,
      "igo": 6089,
      "_url": 6090,
      "anner": 6091,
      "Äĵ": 6092,
      "Ġ**": 6093,
      "untime": 6094,
      "Items": 6095,
      "msg": 6096,
      "ÛĮØ¯": 6097,
      "Ð¸Ð½Ð¸": 6098,
      "Ġauth": 6099,
      "Ġnatural": 6100,
      "gi": 6101,
      ".io": 6102,
      "Ġkann": 6103,
      "Ġrate": 6104,
      "åŁ": 6105,
      "DA": 6106,
      "Ġpriv": 6107,
      ".H": 6108,
      "Ù¹": 6109,
      "Ġrap": 6110,
      "IST": 6111,
      "áĥłáĥ": 6112,
      "aven": 6113,
      "áĥĶáĥ¡": 6114,
      "æĻ": 6115,
      "à´ª": 6116,
      ".getElementById": 6117,
      "ĉt": 6118,
      "ounter": 6119,
      "Ġloss": 6120,
      "ĠEurope": 6121,
      "á»Ł": 6122,
      "Oper": 6123,
      "bor": 6124,
      "(a": 6125,
      "ĠÃ¨": 6126,
      "then": 6127,
      "à³įà²²": 6128,
      "Am": 6129,
      "oj": 6130,
      "×Ļ×ª": 6131,
      "ĠAcc": 6132,
      "Ġvotre": 6133,
      "áĢº": 6134,
      "ĠáĥĹ": 6135,
      "Ġbuilding": 6136,
      "52": 6137,
      "Ġcannot": 6138,
      "ras": 6139,
      "Ġfeature": 6140,
      "Ġintegr": 6141,
      "================================": 6142,
      "ĠÐ±Ñĭ": 6143,
      "Ġactual": 6144,
      "Ġfiles": 6145,
      "ë¬": 6146,
      ").Ċ": 6147,
      "à°Ĥ": 6148,
      "issions": 6149,
      "adu": 6150,
      "Ġà¤ıà¤ķ": 6151,
      ".label": 6152,
      "hl": 6153,
      "Ġrelationship": 6154,
      "icos": 6155,
      "à®¯": 6156,
      "à«ģàªĤ": 6157,
      "asta": 6158,
      "à¸¹": 6159,
      "à¤¿à¤ı": 6160,
      "Output": 6161,
      "ĠAfter": 6162,
      "Ġsec": 6163,
      "chema": 6164,
      "imento": 6165,
      "ULT": 6166,
      "ÅĦ": 6167,
      "istrib": 6168,
      "adem": 6169,
      "ĠReturn": 6170,
      "ÏĦÎ±": 6171,
      "áĥĲáĥļ": 6172,
      "-st": 6173,
      "Ġopp": 6174,
      "à¤¹à¥Ģ": 6175,
      "ëĿ": 6176,
      "Ġàª°": 6177,
      "Ġinit": 6178,
      "host": 6179,
      "à¸Ľ": 6180,
      "Ġà¤¨à¥ĩ": 6181,
      "Ġopport": 6182,
      "Î²": 6183,
      "with": 6184,
      "(value": 6185,
      "ago": 6186,
      "-r": 6187,
      "Ġtro": 6188,
      "à¥¤ĊĊ": 6189,
      "(true": 6190,
      "ãĤ¤": 6191,
      "Ġtechnology": 6192,
      "Ġbrand": 6193,
      "kin": 6194,
      "âĢĿĊĊ": 6195,
      "pc": 6196,
      "Ġê²": 6197,
      "Ð£": 6198,
      "àª£": 6199,
      "Ġcommand": 6200,
      "UG": 6201,
      "ided": 6202,
      "ÙĦÙħ": 6203,
      "Te": 6204,
      "Ġvoc": 6205,
      "Ġexact": 6206,
      "Ġcomfort": 6207,
      "Õ¯": 6208,
      "Ġbackground": 6209,
      "ober": 6210,
      "MS": 6211,
      "edit": 6212,
      "Ġplatform": 6213,
      "Rel": 6214,
      "Ġgrand": 6215,
      "ellen": 6216,
      "Ġimplement": 6217,
      "heet": 6218,
      "Ġworden": 6219,
      "Ġpercent": 6220,
      "alle": 6221,
      "izes": 6222,
      "\"\"": 6223,
      "Ġhotel": 6224,
      "Õ¡Õ¾": 6225,
      "Ġà¤¹à¥Īà¤Ĥ": 6226,
      "Ġhalf": 6227,
      "Card": 6228,
      "Ġsig": 6229,
      "\"/": 6230,
      "àµįà´ļ": 6231,
      "ÃŃs": 6232,
      "semb": 6233,
      "ĠÎºÎ±Î¹": 6234,
      "kom": 6235,
      "Ã©d": 6236,
      "bserv": 6237,
      "Ġexcept": 6238,
      "Ġsen": 6239,
      "Ġselected": 6240,
      "ĠHot": 6241,
      "Auth": 6242,
      "Ġpan": 6243,
      "Ġwords": 6244,
      "Ġcomponent": 6245,
      "Ġrights": 6246,
      "Ġresol": 6247,
      "ĠPres": 6248,
      "izing": 6249,
      "odo": 6250,
      "Ð»Ð°ÑĢ": 6251,
      "Ð¸ÑĪ": 6252,
      "ĠEvent": 6253,
      "ĠÑģÐ¾": 6254,
      "Ver": 6255,
      "ĠØ§Ø²": 6256,
      "Ġpi": 6257,
      "Ġliving": 6258,
      "à¸£à¸µ": 6259,
      "Ġà°ħ": 6260,
      "acion": 6261,
      "Ġconditions": 6262,
      "Ġtravel": 6263,
      "Ġmanagement": 6264,
      "ĠPark": 6265,
      "ä¾": 6266,
      "Ġà¤¥": 6267,
      "Ð»Ðµ": 6268,
      "ÑĢÐµÐ´": 6269,
      "POST": 6270,
      "Ġseu": 6271,
      "vision": 6272,
      "Br": 6273,
      "Ġbelieve": 6274,
      "ĠÐºÐ¾Ð¼": 6275,
      "_time": 6276,
      "Ġsites": 6277,
      "Ġfoot": 6278,
      ".assert": 6279,
      "ÐºÑĤ": 6280,
      "ĠÙħÛĮÚº": 6281,
      "ĠTrue": 6282,
      "ĠST": 6283,
      "ĠÐ¿ÑĢÐµÐ´": 6284,
      "rs": 6285,
      "ĠEnd": 6286,
      "ĠØ§ÙĦØ¬": 6287,
      "Ġlanguage": 6288,
      "ership": 6289,
      "Ġreceive": 6290,
      ".TabIndex": 6291,
      "ROM": 6292,
      "Server": 6293,
      "Ġclaim": 6294,
      "Ġdog": 6295,
      "Open": 6296,
      "Window": 6297,
      "Do": 6298,
      "player": 6299,
      "Ġpotential": 6300,
      "Ġfire": 6301,
      "ĠGre": 6302,
      "ÑĭÐµ": 6303,
      "Ġstaff": 6304,
      "dir": 6305,
      "Ġnog": 6306,
      "ÙĤØ¯": 6307,
      "though": 6308,
      "Ġwhite": 6309,
      "Ġsimply": 6310,
      "Ġà¤ĸ": 6311,
      "×ļ": 6312,
      "Ġ${": 6313,
      "Stat": 6314,
      "Ġveh": 6315,
      "Ġfive": 6316,
      "fs": 6317,
      "ÑĥÐ±": 6318,
      "section": 6319,
      "à¸²à¸£": 6320,
      "tries": 6321,
      "á¹£": 6322,
      "Ã±o": 6323,
      "Ġesta": 6324,
      "aria": 6325,
      "}}": 6326,
      "ëĭĪëĭ¤": 6327,
      "×ķ×Ĳ": 6328,
      "ismo": 6329,
      "Thread": 6330,
      "enta": 6331,
      "inner": 6332,
      "efore": 6333,
      "Ġill": 6334,
      "-to": 6335,
      "gest": 6336,
      "igin": 6337,
      "Ġkar": 6338,
      "ĠáĥĻ": 6339,
      "translation": 6340,
      "ĠService": 6341,
      "ety": 6342,
      "ERT": 6343,
      "Ġdescription": 6344,
      "Ġàªķàª°": 6345,
      "airs": 6346,
      "Max": 6347,
      "uni": 6348,
      "ĠOct": 6349,
      "oph": 6350,
      "tex": 6351,
      "ĠPort": 6352,
      "Ġmut": 6353,
      "Ð°Ð³": 6354,
      "esta": 6355,
      "Ġentire": 6356,
      "Ġhol": 6357,
      "ori": 6358,
      "à¯įà®Ł": 6359,
      "Ġ\"\\": 6360,
      "Level": 6361,
      "196": 6362,
      "à¤¾à¤¯": 6363,
      "bit": 6364,
      "Ġdro": 6365,
      "Ġ.ĊĊ": 6366,
      "ursor": 6367,
      "Ġtodo": 6368,
      "Ġcasino": 6369,
      "Ġju": 6370,
      "Ġà®¤": 6371,
      "Ġeveryone": 6372,
      "à¸·": 6373,
      "ĠHer": 6374,
      "alo": 6375,
      "Ġà¦ľ": 6376,
      "ĠSw": 6377,
      "ÛĮÚº": 6378,
      "ptember": 6379,
      "iso": 6380,
      "_get": 6381,
      "Ø¨ÙĬ": 6382,
      "Ġconv": 6383,
      "ĠDef": 6384,
      "ĠAp": 6385,
      "Ġbud": 6386,
      "alls": 6387,
      "Ġnou": 6388,
      "Ġdifficult": 6389,
      "ĠSE": 6390,
      "ÑĥÐ¶": 6391,
      "Ġfurther": 6392,
      "omet": 6393,
      "Ġstock": 6394,
      "Ðķ": 6395,
      "ĠìĿ´": 6396,
      "ĠNow": 6397,
      "ĠÎ´": 6398,
      "izar": 6399,
      "ĠÒ¯": 6400,
      "find": 6401,
      "Ġger": 6402,
      "Ġwird": 6403,
      "icrosoft": 6404,
      "-g": 6405,
      "à¸±à¸Ļ": 6406,
      "ture": 6407,
      "ĠStud": 6408,
      "à²¸": 6409,
      "Length": 6410,
      "Ġdeze": 6411,
      "Ġ'@": 6412,
      "ìľ¼": 6413,
      "Ġdecl": 6414,
      "Ã¡l": 6415,
      "istry": 6416,
      "áĢ¸": 6417,
      "ĠÑĤÐ°": 6418,
      "Ġ~": 6419,
      "Ġnas": 6420,
      "Current": 6421,
      "Ġroot": 6422,
      "¯à¦¼": 6423,
      "Ġgam": 6424,
      "click": 6425,
      "Bo": 6426,
      "AGE": 6427,
      "Ðĵ": 6428,
      "_E": 6429,
      "ĠCreate": 6430,
      "ĠSchool": 6431,
      "coming": 6432,
      "Ġemb": 6433,
      "(id": 6434,
      "Ġsaf": 6435,
      "igt": 6436,
      "Ġvir": 6437,
      "ÐµÐ½ÑĮ": 6438,
      "ellent": 6439,
      "ham": 6440,
      "lem": 6441,
      "ĠHigh": 6442,
      "Params": 6443,
      "ĠZe": 6444,
      "uw": 6445,
      "Ġts": 6446,
      "Ġtoken": 6447,
      "itting": 6448,
      "aste": 6449,
      "Õ¡Õ¯Õ¡Õ¶": 6450,
      "ABLE": 6451,
      "Õ¥ÖĢÕ": 6452,
      "Ġord": 6453,
      "istory": 6454,
      "ĠSan": 6455,
      "ĠInteger": 6456,
      "×Ļ×ł": 6457,
      "à¬": 6458,
      "ĠÒ»": 6459,
      "ĠSol": 6460,
      "'est": 6461,
      "('/": 6462,
      "à®¿à®²": 6463,
      "Ġdescri": 6464,
      "ĠMus": 6465,
      ",'": 6466,
      "ĠMa": 6467,
      "Email": 6468,
      "Ġadditional": 6469,
      "DF": 6470,
      "ĠAir": 6471,
      "Ġissue": 6472,
      "Game": 6473,
      "iene": 6474,
      "Ġchanges": 6475,
      "Úĵ": 6476,
      ".annotation": 6477,
      "ãģĮ": 6478,
      "Web": 6479,
      "Ã©g": 6480,
      ".\"ĊĊ": 6481,
      "ije": 6482,
      "Ä±r": 6483,
      "\"));Ċ": 6484,
      ";ĊĊ/": 6485,
      "Adapter": 6486,
      "_ID": 6487,
      "oder": 6488,
      "·¸": 6489,
      "_DE": 6490,
      "aren": 6491,
      ">();Ċ": 6492,
      "à´¨àµįà´¨": 6493,
      "Ġhan": 6494,
      "imm": 6495,
      "Ð½Ð°Ñı": 6496,
      "Ġpaper": 6497,
      "à¤¿à¤¸": 6498,
      "Ġcele": 6499,
      "ÑĨÐ¸Ð¸": 6500,
      "à§ĩà¦¨": 6501,
      "æĦ": 6502,
      "SP": 6503,
      "*Ċ": 6504,
      "Ð»ÐµÐ½": 6505,
      "ãĥĥ": 6506,
      "ÓĻÑĤ": 6507,
      "/d": 6508,
      "ëĿ¼": 6509,
      "Ġincludes": 6510,
      "cher": 6511,
      "Ġga": 6512,
      "see": 6513,
      "sem": 6514,
      "ĠArrayList": 6515,
      "ÙĦÙĥ": 6516,
      "weet": 6517,
      ".ap": 6518,
      "ERS": 6519,
      "anning": 6520,
      "Ġyourself": 6521,
      "ãĤĵ": 6522,
      "Ġsua": 6523,
      "ÑĥÑĪ": 6524,
      "ĠPat": 6525,
      "offset": 6526,
      "Lo": 6527,
      "ÙĪÙĤ": 6528,
      "last": 6529,
      "800": 6530,
      "Ġmarketing": 6531,
      ".toString": 6532,
      "Ġforward": 6533,
      "ĠTime": 6534,
      ".next": 6535,
      "Ġfilter": 6536,
      "pg": 6537,
      "Ġmir": 6538,
      "Ġ×¨": 6539,
      "enses": 6540,
      "æĮ": 6541,
      ".state": 6542,
      "Ġtaken": 6543,
      "Ġcontract": 6544,
      "Ġ\"/": 6545,
      "Ġtrying": 6546,
      "idge": 6547,
      "Json": 6548,
      "Ġconnection": 6549,
      "ÑĢÐ°ÑĤ": 6550,
      "Ġtech": 6551,
      "Ġbab": 6552,
      "Ġses": 6553,
      "igher": 6554,
      "Ġcrit": 6555,
      "à´¿à´¨": 6556,
      "actions": 6557,
      "Min": 6558,
      "Ġbill": 6559,
      "osed": 6560,
      "Ġàª¬": 6561,
      "Ġrefer": 6562,
      "Ġaz": 6563,
      "600": 6564,
      "lose": 6565,
      "lik": 6566,
      "Record": 6567,
      "sten": 6568,
      "Ġareas": 6569,
      "_key": 6570,
      "Ġactive": 6571,
      "Ġhowever": 6572,
      "Unit": 6573,
      "Ã¸r": 6574,
      "Ã¤nd": 6575,
      "ĠfÃ¶r": 6576,
      "ØŃØ¯": 6577,
      "54": 6578,
      "_value": 6579,
      "ĠÅ¡": 6580,
      "Ġà¤Ľ": 6581,
      "ĠStates": 6582,
      "bi": 6583,
      "Equals": 6584,
      "ointer": 6585,
      "Ġinde": 6586,
      ".Name": 6587,
      "ĠNational": 6588,
      "_info": 6589,
      "ÑīÐµ": 6590,
      "Password": 6591,
      "ĠØ¹ÙĨ": 6592,
      "éĴ": 6593,
      "à¤¾à¤¸": 6594,
      "dev": 6595,
      "Ġquite": 6596,
      "Ġreserv": 6597,
      "Ġ};ĊĊ": 6598,
      "ĠÄį": 6599,
      "Ġensure": 6600,
      "AND": 6601,
      "ĠServ": 6602,
      "Ġstudent": 6603,
      "Ġborder": 6604,
      "âĸ": 6605,
      "yes": 6606,
      "Ġ×Ĺ": 6607,
      ".write": 6608,
      "Ġmode": 6609,
      "96": 6610,
      "ÑĭÐ¹": 6611,
      "Ġsimilar": 6612,
      "Ġinside": 6613,
      "Ãªtre": 6614,
      "Ð½Ñĸ": 6615,
      "Ġeinen": 6616,
      "cing": 6617,
      "\"><": 6618,
      "Ã©l": 6619,
      "×ķ×ĵ": 6620,
      "Ġsoon": 6621,
      "CA": 6622,
      "Ġdal": 6623,
      "(\"#": 6624,
      "Ġtom": 6625,
      "Ġwor": 6626,
      "Ġalmost": 6627,
      "Ġrunning": 6628,
      "ĠCount": 6629,
      "Ġfinancial": 6630,
      "Ġsepar": 6631,
      "áĥĺáĥľ": 6632,
      "Â°": 6633,
      "ĠTH": 6634,
      "})Ċ": 6635,
      "Ġboard": 6636,
      "lam": 6637,
      "53": 6638,
      "ĠØ§ÙĪ": 6639,
      "ĠSouth": 6640,
      "('#": 6641,
      "gar": 6642,
      "pected": 6643,
      "Ġplant": 6644,
      "ÐµÐ¶": 6645,
      "Ġdoc": 6646,
      "Ġax": 6647,
      "aves": 6648,
      "Ġmodern": 6649,
      "ç¨": 6650,
      "áĥĶáĥł": 6651,
      "udo": 6652,
      "Ġ\",": 6653,
      "Ġ\\Ċ": 6654,
      "ĠEnt": 6655,
      "Entry": 6656,
      "Application": 6657,
      "87": 6658,
      "ĠáĥĶ": 6659,
      ".png": 6660,
      "Ġcurrently": 6661,
      "ĠColor": 6662,
      "ĠWork": 6663,
      "uli": 6664,
      "ĠÛģÛĴ": 6665,
      "ĠÐºÐ¾ÑĤÐ¾ÑĢ": 6666,
      "endar": 6667,
      "ç¤": 6668,
      "_A": 6669,
      "car": 6670,
      "Ġfan": 6671,
      "Ġ>>": 6672,
      "Ġwaar": 6673,
      "oz": 6674,
      "ĠWill": 6675,
      "Ġsv": 6676,
      "Ġera": 6677,
      "âĢĻest": 6678,
      "æĴ": 6679,
      "Ġproblems": 6680,
      "CTION": 6681,
      "Ġtab": 6682,
      "opping": 6683,
      "Ø°Ø§": 6684,
      "anga": 6685,
      "ëŀ": 6686,
      "£¼": 6687,
      "áŀ¶áŀ": 6688,
      "Ġà²ª": 6689,
      "ĠException": 6690,
      "Ġflex": 6691,
      "áĢ¬": 6692,
      "Ġ<!--": 6693,
      "Ġstream": 6694,
      "Ġful": 6695,
      "empty": 6696,
      "íĻ": 6697,
      "ç±": 6698,
      ".Data": 6699,
      "akes": 6700,
      "Ġë§": 6701,
      "hem": 6702,
      "Ø§Ùĩ": 6703,
      "bon": 6704,
      "Ġnur": 6705,
      "(\"/": 6706,
      "à¤¿à¤¯à¤¾": 6707,
      "vest": 6708,
      "Ġprem": 6709,
      "Ġcredit": 6710,
      "ĠÅ¾": 6711,
      "Ġmuit": 6712,
      "tx": 6713,
      "}>Ċ": 6714,
      "Ġjed": 6715,
      "ERE": 6716,
      "Ġded": 6717,
      ".view": 6718,
      "Ã¡c": 6719,
      "Rem": 6720,
      "Ð°Ð½Ð´": 6721,
      "Ġdesigned": 6722,
      "Ġoffice": 6723,
      "hib": 6724,
      "ÏĦÎ¿": 6725,
      "ĠNa": 6726,
      "uda": 6727,
      "ĠRem": 6728,
      "æĽ": 6729,
      "Function": 6730,
      "ban": 6731,
      "Ġtemplate": 6732,
      "igger": 6733,
      "container": 6734,
      "ifi": 6735,
      "Ġlatest": 6736,
      "ĠBest": 6737,
      "pare": 6738,
      "adius": 6739,
      "à¸Ńà¸ĩ": 6740,
      "afe": 6741,
      "Book": 6742,
      "ĠUI": 6743,
      "iting": 6744,
      "ahr": 6745,
      "Work": 6746,
      "tml": 6747,
      "ĠOnline": 6748,
      "250": 6749,
      "áĥĲáĥª": 6750,
      "Ġthird": 6751,
      "çĤ": 6752,
      "hu": 6753,
      "à¥įà¤µ": 6754,
      "items": 6755,
      "peed": 6756,
      "Ġfamil": 6757,
      "Ġinsp": 6758,
      "Ġbank": 6759,
      "ev": 6760,
      "ìĿ¼": 6761,
      "Ġtodos": 6762,
      "Ġaqu": 6763,
      "Ġfem": 6764,
      "Ġsab": 6765,
      "can": 6766,
      "Ġlower": 6767,
      "(v": 6768,
      "Ġsignificant": 6769,
      "selves": 6770,
      "osa": 6771,
      "Init": 6772,
      "otype": 6773,
      "èģ": 6774,
      "Ġnothing": 6775,
      "Ùĳ": 6776,
      "Session": 6777,
      "Ġeffort": 6778,
      "à¦Ĺ": 6779,
      "à¯ĩ": 6780,
      "Õ¥Õ¶": 6781,
      "ĠHet": 6782,
      "Ġtakes": 6783,
      "Last": 6784,
      "ĠNS": 6785,
      "ĠBook": 6786,
      "à©Ģ": 6787,
      "Ġregular": 6788,
      "Ġfill": 6789,
      "rapper": 6790,
      "Ġheeft": 6791,
      "Ġcompr": 6792,
      "Ġbin": 6793,
      "Ġmid": 6794,
      "Ġlikely": 6795,
      "??": 6796,
      "king": 6797,
      "àª®àª¾àªĤ": 6798,
      "Ġfra": 6799,
      "Ãªncia": 6800,
      "Parameter": 6801,
      "Ġtold": 6802,
      "-S": 6803,
      "isse": 6804,
      "Ġtour": 6805,
      "Ġusually": 6806,
      "Ð·Ñĭ": 6807,
      "ĠìĹ": 6808,
      "quence": 6809,
      "++;Ċ": 6810,
      "Ġready": 6811,
      "core": 6812,
      "Ġhac": 6813,
      "Ġespecially": 6814,
      "Ġmsg": 6815,
      "Ġgew": 6816,
      "çĦ": 6817,
      "Ġways": 6818,
      "cry": 6819,
      "ĠAc": 6820,
      "Ġáŀ": 6821,
      "och": 6822,
      "Ð¸ÑĤÐµ": 6823,
      "Ð°ÒĽ": 6824,
      "pm": 6825,
      "uv": 6826,
      "isation": 6827,
      "fin": 6828,
      "icient": 6829,
      "ãĤĭ": 6830,
      "Ġorganiz": 6831,
      "eler": 6832,
      "Args": 6833,
      "Ġdeliver": 6834,
      ".net": 6835,
      "Ġib": 6836,
      "ĠType": 6837,
      "çŃ": 6838,
      "node": 6839,
      "ĠFacebook": 6840,
      "Ġà°ļ": 6841,
      "bers": 6842,
      "fil": 6843,
      "uta": 6844,
      "ALL": 6845,
      "Ġrestaur": 6846,
      "Ġrecommend": 6847,
      "(T": 6848,
      "Ġmodels": 6849,
      "Av": 6850,
      "ĠìŀĪ": 6851,
      "Ø¹Ø©": 6852,
      "ĠAnt": 6853,
      "Collections": 6854,
      "ÏģÎ¿": 6855,
      "ĠGame": 6856,
      "×ķ×ĳ": 6857,
      "Ġstandard": 6858,
      "adata": 6859,
      "ĠØ§ÙĦØ´": 6860,
      "CR": 6861,
      "Ġrequ": 6862,
      "ĠLes": 6863,
      "register": 6864,
      "Ġrisk": 6865,
      "while": 6866,
      "Ġ×Ķ×ŀ": 6867,
      "ithub": 6868,
      "à³įà²¤": 6869,
      "awa": 6870,
      "Ġ\"\"\"Ċ": 6871,
      "Ġprobably": 6872,
      "Ġparams": 6873,
      "pha": 6874,
      "Ġ'/": 6875,
      "Ġreviews": 6876,
      ".prot": 6877,
      "íĬ": 6878,
      "Ò»": 6879,
      "images": 6880,
      "ÐµÐºÑĤ": 6881,
      "ĠkÃ¶n": 6882,
      "Ġmanufact": 6883,
      "ischen": 6884,
      "(!": 6885,
      "ãĥ«": 6886,
      "Ġagre": 6887,
      "_x": 6888,
      "Ð±Ð¾ÑĤ": 6889,
      "Ð½ÑĭÐ¼": 6890,
      "Ġtar": 6891,
      "Ġdigital": 6892,
      "ĠØ§ÙĦÙģ": 6893,
      "Ġannounc": 6894,
      "Ġcondition": 6895,
      "efined": 6896,
      "ĠSoc": 6897,
      "apa": 6898,
      "Ġincrease": 6899,
      "Ġaccording": 6900,
      "ĉString": 6901,
      "nÃŃ": 6902,
      "IA": 6903,
      "iding": 6904,
      "*/Ċ": 6905,
      "ĠÒ³": 6906,
      "Ġentr": 6907,
      "ãĢĬ": 6908,
      "Ġcause": 6909,
      "àª¾àª®": 6910,
      "ĠTw": 6911,
      "Interface": 6912,
      "ĠInc": 6913,
      "ÙĦÙĩ": 6914,
      "Phone": 6915,
      "à¤¾à¤¹": 6916,
      "ĠÐ°Ð»": 6917,
      "×ķ×¢": 6918,
      "atas": 6919,
      "ĠÃ¥": 6920,
      "arth": 6921,
      "Mon": 6922,
      "tribution": 6923,
      "amily": 6924,
      "(pro": 6925,
      "verse": 6926,
      "Ġvez": 6927,
      "Ġtut": 6928,
      "Version": 6929,
      "Ġplac": 6930,
      "avigation": 6931,
      "ĠDel": 6932,
      "ĠDay": 6933,
      "Ġà®ħ": 6934,
      "Ġsection": 6935,
      "Ġhit": 6936,
      "Ð¸ÑĤÐµÐ»ÑĮ": 6937,
      "ctx": 6938,
      "Ġlov": 6939,
      "mos": 6940,
      "à³įà²¯": 6941,
      "Ġ(\"": 6942,
      "ĠHand": 6943,
      "Ġfail": 6944,
      "Api": 6945,
      "Ġìĭ": 6946,
      "FT": 6947,
      "ĠNOT": 6948,
      "Ġsong": 6949,
      "Ġtransform": 6950,
      "(get": 6951,
      "mbly": 6952,
      "Obj": 6953,
      "à·ı": 6954,
      "_se": 6955,
      "Ġknowledge": 6956,
      "iny": 6957,
      "ĉbreak": 6958,
      "First": 6959,
      "ãģĭ": 6960,
      "alar": 6961,
      "ourse": 6962,
      "enge": 6963,
      "aki": 6964,
      "ustral": 6965,
      "Ã±os": 6966,
      "rest": 6967,
      "ĠÐ´Ð¾": 6968,
      "ĠÐºÐ¾Ð½": 6969,
      "Ġapproach": 6970,
      "angle": 6971,
      "Ġmobile": 6972,
      "Ġproduction": 6973,
      "ĠØº": 6974,
      "Ġbag": 6975,
      "bsp": 6976,
      "\";čĊ": 6977,
      ".ToString": 6978,
      "_user": 6979,
      "oding": 6980,
      "Ġlie": 6981,
      "Ġhappy": 6982,
      "adores": 6983,
      "Details": 6984,
      ".To": 6985,
      "INT": 6986,
      "Ġsales": 6987,
      "à°¤": 6988,
      "heid": 6989,
      "Ġchoice": 6990,
      "merc": 6991,
      "Ġfab": 6992,
      "ĠÑįÑĤ": 6993,
      "Å±": 6994,
      "Ġyou're": 6995,
      "Ġconsum": 6996,
      "Ġmatter": 6997,
      "holder": 6998,
      "Ġcouple": 6999,
      "Ġrelated": 7000,
      "ĠRob": 7001,
      "dule": 7002,
      "Reader": 7003,
      "ĠÅŁ": 7004,
      "Helper": 7005,
      "Ġà¤«": 7006,
      "emp": 7007,
      "Ġfo": 7008,
      "à¨°": 7009,
      "Ġrecent": 7010,
      "ĠØ¥ÙĦÙī": 7011,
      "ĠNorth": 7012,
      "Ġdefinit": 7013,
      "Ð°Ð¶": 7014,
      "avi": 7015,
      "Ð°Ñı": 7016,
      "âĢĭáŀ": 7017,
      ".txt": 7018,
      "Ġbooks": 7019,
      "ĠPM": 7020,
      "86": 7021,
      "ÐºÑĸ": 7022,
      "ĠMod": 7023,
      "ikk": 7024,
      "Ð³Ð°Ð½": 7025,
      "à¦¿à¦ķ": 7026,
      "(user": 7027,
      "emo": 7028,
      "tras": 7029,
      "apan": 7030,
      "Tool": 7031,
      "Ġà®ļ": 7032,
      "Ġwanted": 7033,
      "btn": 7034,
      "Ġsecurity": 7035,
      "Ġbis": 7036,
      "src": 7037,
      "ĠWindows": 7038,
      "è¶": 7039,
      "àµ¼": 7040,
      "ØªÙĩ": 7041,
      "Ġà²ħ": 7042,
      ".read": 7043,
      "Process": 7044,
      "à¸Ńà¸¥": 7045,
      "iko": 7046,
      "imi": 7047,
      "byte": 7048,
      "ĠFrom": 7049,
      "Ġestab": 7050,
      "ĠAM": 7051,
      "à¤¤à¥ĩ": 7052,
      "ĠÕ«": 7053,
      "values": 7054,
      "ÙĬÙħ": 7055,
      "Ġsubs": 7056,
      "Ġru": 7057,
      "ĠSl": 7058,
      "ĠMet": 7059,
      "Ġdise": 7060,
      "Ġfoi": 7061,
      "à©ĩ": 7062,
      "Ġdrug": 7063,
      "UB": 7064,
      "ĠÚ©ÙĪ": 7065,
      "sets": 7066,
      "ches": 7067,
      "ĠÐ¾Ñģ": 7068,
      "Body": 7069,
      "Ġplayers": 7070,
      "'),Ċ": 7071,
      "Ġimm": 7072,
      "Ġ<?": 7073,
      "atar": 7074,
      "Ġyo": 7075,
      "ÐĹ": 7076,
      "Ġcoming": 7077,
      "Sl": 7078,
      "Ġamaz": 7079,
      "Ġ×Ĳ×ª": 7080,
      "ĠCenter": 7081,
      "eline": 7082,
      "Ġentry": 7083,
      "×ĲÖ¸": 7084,
      "sch": 7085,
      "auto": 7086,
      "_col": 7087,
      "à¯Ĩ": 7088,
      "Ġreq": 7089,
      "áĥĶáĥĳáĥĺáĥ¡": 7090,
      ".parse": 7091,
      "ÐµÑħ": 7092,
      "Ġaj": 7093,
      "×Ļ×ľ": 7094,
      "(err": 7095,
      "Ġpretty": 7096,
      "Ġdesc": 7097,
      "Ġhigher": 7098,
      "Ġmeer": 7099,
      "ĠMath": 7100,
      "Ġpublished": 7101,
      "irit": 7102,
      "Ġbol": 7103,
      "ì²": 7104,
      "ospital": 7105,
      "ĠFeb": 7106,
      "ÑĢÐ°Ð½": 7107,
      "ining": 7108,
      "ãĤĴ": 7109,
      "Ste": 7110,
      "à¤¨à¥įà¤": 7111,
      "ishing": 7112,
      "uster": 7113,
      "ĠFound": 7114,
      "Ġpero": 7115,
      "raint": 7116,
      "Engine": 7117,
      "ãĢĭ": 7118,
      "-up": 7119,
      "bum": 7120,
      "echo": 7121,
      "nb": 7122,
      "àµįà´ª": 7123,
      "à°¿à°Ĥà°": 7124,
      "à®ª": 7125,
      "atory": 7126,
      "PT": 7127,
      "ãĤĬ": 7128,
      "Ġframe": 7129,
      "ening": 7130,
      "chan": 7131,
      "ëª": 7132,
      "Ø±Ùģ": 7133,
      "Account": 7134,
      "à²¯": 7135,
      "Ġà¤ĩà¤¸": 7136,
      "ĠHere": 7137,
      "Ð¾Ð¸": 7138,
      "ĠÐ¾Ð´": 7139,
      "');ĊĊ": 7140,
      "Ġaltern": 7141,
      "next": 7142,
      "ÐºÐ¾Ð²": 7143,
      "Ġofficial": 7144,
      "Ġpurchase": 7145,
      "à²²à³įà²²": 7146,
      "kr": 7147,
      "ĠName": 7148,
      "àªĹ": 7149,
      "Store": 7150,
      ".col": 7151,
      "lice": 7152,
      "Ġimmedi": 7153,
      "Ġgas": 7154,
      "ekt": 7155,
      "Access": 7156,
      "ĠØ§ÙĦØ¥": 7157,
      "Ġvel": 7158,
      "ÃŃn": 7159,
      "Ġig": 7160,
      "ìłķ": 7161,
      "aling": 7162,
      "ead": 7163,
      "Ġprevent": 7164,
      "empl": 7165,
      "Ġsun": 7166,
      "ĠProgram": 7167,
      "ĠÏĦÎ¿": 7168,
      "à³Ĥ": 7169,
      "ĠÙħØ§": 7170,
      "Ġris": 7171,
      "temp": 7172,
      "'ve": 7173,
      "Ġmachine": 7174,
      "ĠMap": 7175,
      "Ġthems": 7176,
      "à°®": 7177,
      "à¤°à¥Ģ": 7178,
      "Ġvirtual": 7179,
      "_SIZE": 7180,
      "orge": 7181,
      "PC": 7182,
      "ļàµįà´ļ": 7183,
      "Ġsound": 7184,
      "rown": 7185,
      "Ġround": 7186,
      "ĠWH": 7187,
      "ØªÙħ": 7188,
      "Widget": 7189,
      "Ġsale": 7190,
      "ĠÐ¹": 7191,
      "etime": 7192,
      "Ġincluded": 7193,
      ".status": 7194,
      "Ġparty": 7195,
      "Ġprefer": 7196,
      "Ġnoch": 7197,
      "ĠØ§ÙĦØ¯": 7198,
      "lluminate": 7199,
      "ITH": 7200,
      "acks": 7201,
      "()čĊ": 7202,
      "Ġtur": 7203,
      "à´¾à´¯": 7204,
      "ads": 7205,
      "Ġconcern": 7206,
      "à¦¿à¦¨": 7207,
      "Ġabsol": 7208,
      "idas": 7209,
      "ACK": 7210,
      "Ġreturns": 7211,
      "ASS": 7212,
      "Ġeiner": 7213,
      "ĠInternet": 7214,
      "Ġtouch": 7215,
      "ensor": 7216,
      "));ĊĊ": 7217,
      "Ext": 7218,
      "dom": 7219,
      "Ġarch": 7220,
      "ÄĹ": 7221,
      "ĠÐ¸Ð»Ð¸": 7222,
      "à¨¿": 7223,
      "arter": 7224,
      "}</": 7225,
      "Ġinvestig": 7226,
      "only": 7227,
      "tag": 7228,
      "àªľ": 7229,
      "Ġoil": 7230,
      "ideos": 7231,
      "Ġshows": 7232,
      "inition": 7233,
      "asc": 7234,
      "ensions": 7235,
      "Ġpel": 7236,
      "Ġnice": 7237,
      "Ġzum": 7238,
      "Ġci": 7239,
      "Ò¡": 7240,
      "Ġprogress": 7241,
      "Ġtemper": 7242,
      "_tr": 7243,
      "Ġlonger": 7244,
      "Ġmai": 7245,
      "-Ċ": 7246,
      "quare": 7247,
      "oni": 7248,
      "Ġresources": 7249,
      "Price": 7250,
      "enden": 7251,
      "Ġà²¹": 7252,
      "(w": 7253,
      "ìĨ": 7254,
      "adh": 7255,
      "=$": 7256,
      ".setText": 7257,
      "àµ½": 7258,
      "geb": 7259,
      "ÐµÐ½Ð¸": 7260,
      "Ġ/**": 7261,
      "ĠEX": 7262,
      "Ġsix": 7263,
      "Ġkr": 7264,
      "BA": 7265,
      "Ġpain": 7266,
      "ptr": 7267,
      "Ġà¤¸à¤®": 7268,
      "oko": 7269,
      "Ġsell": 7270,
      "styles": 7271,
      "é»": 7272,
      "ournal": 7273,
      "Ġparte": 7274,
      "ĠÃ®": 7275,
      "oring": 7276,
      "Ð½Ð¾Ðµ": 7277,
      "Ġfol": 7278,
      "Ġà¦¯": 7279,
      "ague": 7280,
      "<quote": 7281,
      "Ġtreatment": 7282,
      "Ġweeks": 7283,
      "`Ċ": 7284,
      "ĠProduct": 7285,
      "duc": 7286,
      "à¹ģ": 7287,
      "LL": 7288,
      "Ø±Ø©": 7289,
      "áĥĶáĥĳáĥĲ": 7290,
      "Ġà®ĩ": 7291,
      "ares": 7292,
      "ë²": 7293,
      "Category": 7294,
      "Ġesp": 7295,
      "ĠsÃ©": 7296,
      "prise": 7297,
      "alia": 7298,
      "Ġgraph": 7299,
      "iser": 7300,
      "ictionary": 7301,
      "à®¿à®¯": 7302,
      "otion": 7303,
      "Ġeinem": 7304,
      "Left": 7305,
      "Ġáĥŀ": 7306,
      "Ġfait": 7307,
      "Ġ-->Ċ": 7308,
      "à¸Ī": 7309,
      "ailed": 7310,
      "Ġnote": 7311,
      "ARR": 7312,
      "89": 7313,
      "wise": 7314,
      "fol": 7315,
      "acional": 7316,
      "auf": 7317,
      "esc": 7318,
      "Ġclients": 7319,
      ".core": 7320,
      "ĠÕ¿": 7321,
      "áĥĴ": 7322,
      "ÛĮØ±": 7323,
      "Åł": 7324,
      "wi": 7325,
      "Ġmenu": 7326,
      "Ġimages": 7327,
      "ĠØ§ÙĦÙĤ": 7328,
      "ÑĢÐµÐ¼": 7329,
      "yy": 7330,
      "'ĊĊ": 7331,
      "Selected": 7332,
      "ÑĶ": 7333,
      "ãģķ": 7334,
      "à¯ģà®®à¯į": 7335,
      "area": 7336,
      "ĠÐ¸Ð¼": 7337,
      "Ġheld": 7338,
      "Ġannoun": 7339,
      "bug": 7340,
      "Ġhaben": 7341,
      "iche": 7342,
      "ÑĨÑĮ": 7343,
      "Ġsystems": 7344,
      "ÏĦÎ·": 7345,
      "Ð¾Ð¼Ñĥ": 7346,
      "ĠonClick": 7347,
      "ÙĦÛĮ": 7348,
      "Ġdrive": 7349,
      "Ġtor": 7350,
      "ĠÙ¾Ùĩ": 7351,
      "ango": 7352,
      "à¥Į": 7353,
      "Ġ);ĊĊ": 7354,
      "180": 7355,
      "Ġhun": 7356,
      "Ġlearning": 7357,
      "Ġrandom": 7358,
      "ĠØ±Ø§": 7359,
      "ĠUR": 7360,
      "Ġgest": 7361,
      "ÑĤÐµ": 7362,
      "_con": 7363,
      "Ġcontinu": 7364,
      "ilo": 7365,
      "\":\"": 7366,
      "----------------------------------------------------------------": 7367,
      "_count": 7368,
      "Ġhy": 7369,
      "Ġviol": 7370,
      "Ġoutside": 7371,
      "ĠÏĦÎ¿Ïħ": 7372,
      "ĠAv": 7373,
      "Ġrather": 7374,
      "Ð»Ñĸ": 7375,
      "Ġinternational": 7376,
      "Ġanyone": 7377,
      "esso": 7378,
      "inst": 7379,
      "Ġforma": 7380,
      "Ġworth": 7381,
      "ĠÕ¡Õ": 7382,
      "BC": 7383,
      "éĥ": 7384,
      "enz": 7385,
      "aks": 7386,
      "eto": 7387,
      "false": 7388,
      "Ġupon": 7389,
      "ests": 7390,
      "Ġcalcul": 7391,
      "ĠÐ¾Ð¿": 7392,
      "ĠMarch": 7393,
      "Ġpolicy": 7394,
      "à¦¹": 7395,
      "ĠSoftware": 7396,
      "ĠØ§ÙĦÙĨ": 7397,
      "Ġlocated": 7398,
      "anuary": 7399,
      "Ġintrodu": 7400,
      "\\u": 7401,
      "flow": 7402,
      "Press": 7403,
      "àµģà´¨": 7404,
      "Ġãĥ": 7405,
      "Ġaud": 7406,
      "Ð°ÑĢÑĭ": 7407,
      "ÒĵÐ°": 7408,
      "Ġsolution": 7409,
      "Ġfaz": 7410,
      "Vector": 7411,
      "Ġdistributed": 7412,
      "Ġwritten": 7413,
      "Ġvert": 7414,
      "Ġ?>": 7415,
      "lang": 7416,
      "Ġfacil": 7417,
      "ography": 7418,
      "onder": 7419,
      "ì¹": 7420,
      "jes": 7421,
      "ĠHar": 7422,
      "istics": 7423,
      "dy": 7424,
      "bed": 7425,
      "Ġcomputer": 7426,
      "ĠØ§ÙĦÙĥ": 7427,
      "àª¨àª¾": 7428,
      "Ġmultiple": 7429,
      "à®®": 7430,
      "Ġ++": 7431,
      "aman": 7432,
      "Ġ^": 7433,
      "vector": 7434,
      "amera": 7435,
      "xx": 7436,
      "aly": 7437,
      "INE": 7438,
      ".query": 7439,
      "ady": 7440,
      "à¸ŀ": 7441,
      "/b": 7442,
      "password": 7443,
      "ĠBlack": 7444,
      "imary": 7445,
      "Ò±": 7446,
      "ynamic": 7447,
      "hol": 7448,
      ".sub": 7449,
      "Ġconfirm": 7450,
      ".Ċ//": 7451,
      "++)Ċ": 7452,
      "ÐµÐ³Ð¾": 7453,
      "ĠFOR": 7454,
      "nav": 7455,
      "Ġreach": 7456,
      "ÏĦÎµ": 7457,
      "price": 7458,
      "Ġhij": 7459,
      "ÙĪØ¨": 7460,
      "agram": 7461,
      "123": 7462,
      "Ġmens": 7463,
      "Î¾": 7464,
      "íĺ": 7465,
      "Å«": 7466,
      "Ã§o": 7467,
      "atisf": 7468,
      "nie": 7469,
      "Ġnem": 7470,
      "ramework": 7471,
      "itu": 7472,
      "ĠInst": 7473,
      "á»©": 7474,
      "\"),": 7475,
      "Ġnt": 7476,
      "à°¸": 7477,
      "ÏģÎ±": 7478,
      "ĠUse": 7479,
      "Configuration": 7480,
      "Pol": 7481,
      "ĠØ§ÙĪØ±": 7482,
      "ìķĦ": 7483,
      "IE": 7484,
      "ĠApril": 7485,
      "Route": 7486,
      "ĠâĢ¢": 7487,
      "ĠÐ¼ÐµÐ½": 7488,
      "001": 7489,
      "ungs": 7490,
      "ĠEN": 7491,
      "ëĤĺ": 7492,
      "à¶º": 7493,
      "Ġinstead": 7494,
      "raf": 7495,
      "à±įà°¨": 7496,
      "Ġleave": 7497,
      "':Ċ": 7498,
      "Ġunit": 7499,
      "END": 7500,
      "102": 7501,
      ".Set": 7502,
      "Que": 7503,
      "Ġei": 7504,
      "?.": 7505,
      ".json": 7506,
      "ees": 7507,
      "à¤¾à¤¦": 7508,
      "Ġappear": 7509,
      "ìŀ¥": 7510,
      "à¤Ī": 7511,
      "ascript": 7512,
      "TP": 7513,
      "Ã¤l": 7514,
      "Ġfeed": 7515,
      "riteria": 7516,
      "card": 7517,
      "Ġpropos": 7518,
      "OST": 7519,
      "Ġsan": 7520,
      "ountry": 7521,
      "location": 7522,
      "ĠcÃ³": 7523,
      "Next": 7524,
      "Ġcette": 7525,
      "Ġrele": 7526,
      "Ġwordt": 7527,
      "Local": 7528,
      "Ġdia": 7529,
      "eno": 7530,
      "Ġsafe": 7531,
      "Ġtransport": 7532,
      "Ġ×¦": 7533,
      "ĠÃ¤r": 7534,
      ".apache": 7535,
      "Õ¡Öģ": 7536,
      "ayment": 7537,
      "Ãģ": 7538,
      "Cal": 7539,
      "ĠØ§ÙĦØ¨": 7540,
      "eh": 7541,
      "Ġà²¬": 7542,
      "à±įà°¯": 7543,
      "Ã¢n": 7544,
      "inar": 7545,
      "cu": 7546,
      "Ġà°¨": 7547,
      "NU": 7548,
      "ÏĢÎ¿": 7549,
      "ÑĨÐ°": 7550,
      "ĠEnglish": 7551,
      "FO": 7552,
      "ĠÐĵ": 7553,
      "itchen": 7554,
      "XX": 7555,
      "main": 7556,
      "Ġ=Ċ": 7557,
      "Ġspeed": 7558,
      "å§": 7559,
      "à¸²à¸¢": 7560,
      "rupt": 7561,
      "Ġ$_": 7562,
      "Ø±Ùĥ": 7563,
      "~~": 7564,
      "Ġground": 7565,
      "à¥įà¤·": 7566,
      "ToString": 7567,
      "à¹Ĥ": 7568,
      "first": 7569,
      "ĠIt's": 7570,
      "Ġkids": 7571,
      "irection": 7572,
      "Ġasked": 7573,
      "_index": 7574,
      "Ġlegal": 7575,
      "Ġbul": 7576,
      "ERROR": 7577,
      ".Collections": 7578,
      "adr": 7579,
      "Ġul": 7580,
      "Ġadministr": 7581,
      "Ġassist": 7582,
      "Ġvac": 7583,
      "akan": 7584,
      "ĠAfr": 7585,
      "Ãºn": 7586,
      "login": 7587,
      "Úª": 7588,
      "à³Ģ": 7589,
      "Ġàªı": 7590,
      "Op": 7591,
      "79": 7592,
      "à´ķàµįà´ķ": 7593,
      "Ġnational": 7594,
      "ael": 7595,
      "Ġcelebr": 7596,
      "ĠÃ½": 7597,
      "ĠFin": 7598,
      "ellow": 7599,
      "Ġmedical": 7600,
      "ederal": 7601,
      "à³įà²¨": 7602,
      "mercial": 7603,
      "à¶»": 7604,
      "arden": 7605,
      "ĠÄ": 7606,
      "Ġà´İ": 7607,
      "ĠDesign": 7608,
      "Ð´Ñĥ": 7609,
      "ĠAustr": 7610,
      "pack": 7611,
      "ãĤ¯": 7612,
      "ĠOpen": 7613,
      "urrency": 7614,
      "ĠLong": 7615,
      "(g": 7616,
      "ĠHis": 7617,
      "ÑģÑĭ": 7618,
      "tocol": 7619,
      "Ġapr": 7620,
      "oub": 7621,
      "Settings": 7622,
      "Ä±nd": 7623,
      "Å³": 7624,
      "GET": 7625,
      "ĠThen": 7626,
      "esch": 7627,
      "ĠØªÙĪ": 7628,
      "æį": 7629,
      "Red": 7630,
      "à¦ĩ": 7631,
      "Ġbehind": 7632,
      "[:": 7633,
      "Ġrom": 7634,
      "âĢĿ.": 7635,
      "âĻ": 7636,
      "hood": 7637,
      "nder": 7638,
      "à¦¾à¦²": 7639,
      "ĉSystem": 7640,
      ".*": 7641,
      "plete": 7642,
      "Found": 7643,
      "Ġrecogn": 7644,
      "ìĪĺ": 7645,
      "icha": 7646,
      "áĢ¯": 7647,
      "Ġà·": 7648,
      "CP": 7649,
      "ĠMal": 7650,
      "ĠHouse": 7651,
      "=True": 7652,
      "ĠÐ¿Ð¾Ñģ": 7653,
      "float": 7654,
      "ĠÑĤÐ¾": 7655,
      "Ġtit": 7656,
      "ĠSi": 7657,
      "GL": 7658,
      "Storage": 7659,
      "Ġeasily": 7660,
      "ĠFre": 7661,
      "ĠÐ¾Ð½": 7662,
      "è¨": 7663,
      "ipl": 7664,
      "Ġproced": 7665,
      "hold": 7666,
      "ĠJune": 7667,
      "Ġlate": 7668,
      "Ġflow": 7669,
      "zu": 7670,
      "ajo": 7671,
      "Ġstri": 7672,
      "Ġaverage": 7673,
      "ĠGroup": 7674,
      "Ġeducation": 7675,
      "ĠSal": 7676,
      "LECT": 7677,
      "ÑĤÐµÑĢ": 7678,
      "Õ¤": 7679,
      "à¤®à¤¾": 7680,
      "è°": 7681,
      "ĠGo": 7682,
      "ĠDirect": 7683,
      "edi": 7684,
      "Ãŀ": 7685,
      ")ĊĊĊ": 7686,
      "Ġdatabase": 7687,
      "-e": 7688,
      "ĠBro": 7689,
      "Ġideas": 7690,
      "195": 7691,
      "Ġnature": 7692,
      "Ġopportunity": 7693,
      "ifest": 7694,
      "Ġskills": 7695,
      "cm": 7696,
      "Rect": 7697,
      "ĠMag": 7698,
      "Ġspr": 7699,
      "Ġmaterials": 7700,
      "Ġthroughout": 7701,
      "Ã¼ck": 7702,
      "inda": 7703,
      "ecur": 7704,
      "Ġball": 7705,
      "Ġparts": 7706,
      "Ġnorm": 7707,
      "Ġimag": 7708,
      "Ġcha": 7709,
      "iza": 7710,
      "grid": 7711,
      "Ġcomments": 7712,
      "ĠvocÃª": 7713,
      "Target": 7714,
      "Ġseems": 7715,
      "ono": 7716,
      "Ġtill": 7717,
      "amin": 7718,
      "ĠANY": 7719,
      "[j": 7720,
      "RA": 7721,
      "ĠÙħØŃ": 7722,
      "Sign": 7723,
      "×Ļ×©": 7724,
      "ĠÐ±ÑĥÐ´": 7725,
      "Ġaffect": 7726,
      "ilder": 7727,
      "à°Ł": 7728,
      "illed": 7729,
      "Ġicon": 7730,
      "Ġpaint": 7731,
      "Ł¥": 7732,
      "ĠSk": 7733,
      "Ġcases": 7734,
      "blic": 7735,
      "à²®": 7736,
      "ViewById": 7737,
      "length": 7738,
      "oday": 7739,
      "Ġcollect": 7740,
      "Ġ×ª": 7741,
      "ĠTO": 7742,
      "Each": 7743,
      "110": 7744,
      "ĠHol": 7745,
      "imation": 7746,
      "ĠHealth": 7747,
      "That": 7748,
      "('.": 7749,
      "ĠKey": 7750,
      "Ġallows": 7751,
      "Ġstorage": 7752,
      "àµĤ": 7753,
      "Long": 7754,
      "ĠOver": 7755,
      "Ø®Øª": 7756,
      "Ġmethods": 7757,
      "Ġà¤¦à¥ĩ": 7758,
      "ĠMc": 7759,
      "ragment": 7760,
      "Ġcharg": 7761,
      "Ġproper": 7762,
      "Ġcandid": 7763,
      "æº": 7764,
      "ĠAugust": 7765,
      "icket": 7766,
      "Our": 7767,
      "But": 7768,
      "icker": 7769,
      "Ġneighb": 7770,
      "ceed": 7771,
      "(str": 7772,
      "76": 7773,
      "ÙĲ": 7774,
      "itation": 7775,
      "ĠâĤ¬": 7776,
      "avy": 7777,
      "ìļĶ": 7778,
      ".WriteLine": 7779,
      "vey": 7780,
      "Ġà®¨": 7781,
      "áĥĺáĥļ": 7782,
      "ĠMain": 7783,
      "aje": 7784,
      "ĠÕº": 7785,
      "101": 7786,
      "Project": 7787,
      "Ãªme": 7788,
      "entry": 7789,
      "unities": 7790,
      "anya": 7791,
      "Ġzur": 7792,
      "UD": 7793,
      "Ġsein": 7794,
      "Ġregion": 7795,
      "Ġvariety": 7796,
      "inger": 7797,
      "ĠÚ©Ùĩ": 7798,
      "Ġcomme": 7799,
      "ĠStart": 7800,
      "ĠSim": 7801,
      "'))": 7802,
      ".map": 7803,
      "sql": 7804,
      "GridView": 7805,
      "graph": 7806,
      "ĠImage": 7807,
      "Ġ;Ċ": 7808,
      "áĥĶáĥĽ": 7809,
      "ociety": 7810,
      "band": 7811,
      "ĠFalse": 7812,
      "íĬ¸": 7813,
      "Ð»Ñİ": 7814,
      ".remove": 7815,
      "Ġskin": 7816,
      "àª¨à«Ģ": 7817,
      "Ġpun": 7818,
      ":(": 7819,
      "Changed": 7820,
      "à¤¾à¤µ": 7821,
      "Ġip": 7822,
      "Ġexcellent": 7823,
      "ëħ": 7824,
      "ê²Į": 7825,
      "gorith": 7826,
      "acing": 7827,
      "ĠÚª": 7828,
      "Ġchat": 7829,
      "Dep": 7830,
      "Ġà´¤": 7831,
      "emory": 7832,
      "(string": 7833,
      "ORD": 7834,
      "van": 7835,
      "àª¦": 7836,
      "íĸ": 7837,
      "àµģà´¨àµįà´¨": 7838,
      "ĠìĦ": 7839,
      "âĢ¦âĢ¦": 7840,
      "Selector": 7841,
      "Ġcomplex": 7842,
      "zz": 7843,
      "ĠÚ©Ø±": 7844,
      "atives": 7845,
      "Ġáĥ¬": 7846,
      "85": 7847,
      "à®±": 7848,
      "à¸Ł": 7849,
      "Ġexception": 7850,
      "ìłľ": 7851,
      "ityEngine": 7852,
      "ĠTop": 7853,
      "_of": 7854,
      "Ġfort": 7855,
      "BO": 7856,
      "ocr": 7857,
      "Ġdeath": 7858,
      "ç´": 7859,
      "×Ļ×§": 7860,
      "Ð½Ð¾ÑģÑĤÐ¸": 7861,
      "Ġ[âĢ¦]ĊĊ": 7862,
      "Ġ!==": 7863,
      "ĠAS": 7864,
      "194": 7865,
      "Ġhebben": 7866,
      "ÑĢÐ°Ð·": 7867,
      "Co": 7868,
      "ÐºÐµ": 7869,
      "Ġcop": 7870,
      "ancel": 7871,
      "eneric": 7872,
      "èį": 7873,
      "_SE": 7874,
      "term": 7875,
      "ÑĨÐ¸Ñı": 7876,
      "ODO": 7877,
      "Ġ×¡": 7878,
      "à¦¿à¦¤": 7879,
      "Õ¸ÖĤÕ©ÕµÕ¸ÖĤÕ¶": 7880,
      "Õ¸Õ²": 7881,
      "ĠSeptember": 7882,
      "ĠlÃł": 7883,
      "ëĲ": 7884,
      "quer": 7885,
      "aign": 7886,
      "module": 7887,
      "Ò¯ÑĢ": 7888,
      "Ġchance": 7889,
      "Ġà¤ķà¤¿": 7890,
      "ugu": 7891,
      "Tree": 7892,
      "Ġgel": 7893,
      ".Group": 7894,
      "Ġquickly": 7895,
      "ĠCas": 7896,
      "exp": 7897,
      "lan": 7898,
      "Õ¸Õ¾": 7899,
      "à¸µà¹Ī": 7900,
      "ĠÐ±Ð°": 7901,
      "vez": 7902,
      "riday": 7903,
      "region": 7904,
      "-F": 7905,
      "ÙĪÚº": 7906,
      "128": 7907,
      "¡Õ": 7908,
      "ÐĽ": 7909,
      "Ð¸Ð³": 7910,
      "Ġnom": 7911,
      "ĠÕ¤": 7912,
      "imit": 7913,
      "ijke": 7914,
      "ĠBusiness": 7915,
      "ĠáĥłáĥĿáĥĽ": 7916,
      "(-": 7917,
      "Ġcross": 7918,
      "jen": 7919,
      "icate": 7920,
      "ëĮĢ": 7921,
      "Option": 7922,
      "Ġprograms": 7923,
      "ÛĮÚ©": 7924,
      "number": 7925,
      "ÙĤØ©": 7926,
      "Ġáĥ£áĥ": 7927,
      "EXT": 7928,
      "lat": 7929,
      "Ġsist": 7930,
      "cs": 7931,
      "Ġdeep": 7932,
      "Ġones": 7933,
      "ÏĥÎ·": 7934,
      "Var": 7935,
      "Ġhair": 7936,
      "ĠAmerica": 7937,
      "Ġlock": 7938,
      "Ġactivity": 7939,
      "(result": 7940,
      "Ġinsurance": 7941,
      "Ġbuilt": 7942,
      "ĠChina": 7943,
      "Ġwish": 7944,
      "ayers": 7945,
      "Ġleading": 7946,
      "ÑģÐºÐ¸": 7947,
      "Ġfaire": 7948,
      "(h": 7949,
      "Ø§Ø²": 7950,
      "Ġweap": 7951,
      "ë³´": 7952,
      "}ĊĊ//": 7953,
      "à®°à¯į": 7954,
      "ropri": 7955,
      "/or": 7956,
      "engan": 7957,
      "qq": 7958,
      "Ø¡": 7959,
      "Ġà¤°à¤¹": 7960,
      "MA": 7961,
      "\"),Ċ": 7962,
      "Login": 7963,
      "ĠDav": 7964,
      "ëį": 7965,
      "/p": 7966,
      "eting": 7967,
      "Impl": 7968,
      "URE": 7969,
      "Ġseek": 7970,
      "ìĽĲ": 7971,
      "Ġ'<": 7972,
      "192": 7973,
      "Mapping": 7974,
      "imb": 7975,
      "Ġpatients": 7976,
      "Ġcart": 7977,
      "rot": 7978,
      "éŁ": 7979,
      "Ľà§ĩ": 7980,
      ".path": 7981,
      "attle": 7982,
      "Ġnecessary": 7983,
      "ĠDan": 7984,
      "Ġcool": 7985,
      "Ġ}ĊĊĊ": 7986,
      "izont": 7987,
      "witch": 7988,
      "ĠCons": 7989,
      "ç¦": 7990,
      "*)": 7991,
      "à«Ĥ": 7992,
      "Ġtree": 7993,
      "});ĊĊ": 7994,
      "à°µ": 7995,
      "False": 7996,
      "top": 7997,
      "ĠJuly": 7998,
      "ahl": 7999,
      "wood": 8000,
      "Ġactivities": 8001,
      "Ġwide": 8002,
      "tempt": 8003,
      "Ġband": 8004,
      "(re": 8005,
      "Ne": 8006,
      "API": 8007,
      "font": 8008,
      ".aw": 8009,
      ".close": 8010,
      "Ġà¤¸à¤Ĥ": 8011,
      "mar": 8012,
      "ĠModel": 8013,
      "ÑĢÐ¾Ð²": 8014,
      "After": 8015,
      "aire": 8016,
      "Ġnan": 8017,
      "Return": 8018,
      ".List": 8019,
      "ipped": 8020,
      "à°¾à°²": 8021,
      "Ġresid": 8022,
      "à´°àµį": 8023,
      "Ġmemory": 8024,
      "Ġinstit": 8025,
      "Ġconsult": 8026,
      "inos": 8027,
      "Ġwrong": 8028,
      ",-": 8029,
      "Ġremember": 8030,
      "-year": 8031,
      "ĠJSON": 8032,
      "users": 8033,
      "style": 8034,
      "ï½ŀ": 8035,
      "Ð½Ð¾ÑģÑĤÑĮ": 8036,
      "ĠId": 8037,
      "Ġheader": 8038,
      "[$": 8039,
      "Ġempty": 8040,
      "_by": 8041,
      "Ġslot": 8042,
      "Ð¸ÑĩÐµÑģ": 8043,
      "à¤ı": 8044,
      "account": 8045,
      "ĠÑģÐ°Ð¼": 8046,
      "ĠSuper": 8047,
      "ÑģÑĤÐ°Ð½": 8048,
      "Ġunt": 8049,
      "Delete": 8050,
      "Ġlooks": 8051,
      "Õ¸ÖĢ": 8052,
      "Port": 8053,
      "Ġimplements": 8054,
      "Ġà¤µà¤¿à¤": 8055,
      "more": 8056,
      "tect": 8057,
      "à¤ķà¥ĩ": 8058,
      "Ġrelease": 8059,
      "Ġcirc": 8060,
      "Ġtown": 8061,
      "-based": 8062,
      "ĠBer": 8063,
      "Ġquant": 8064,
      "ship": 8065,
      "Ð¾ÑĪ": 8066,
      "Active": 8067,
      "__(": 8068,
      "}/": 8069,
      "zie": 8070,
      "sen": 8071,
      "Ġfant": 8072,
      "Ġfilename": 8073,
      "à¸Ĭ": 8074,
      "Ġpractice": 8075,
      "Ġmovie": 8076,
      "weight": 8077,
      "ikt": 8078,
      "Ġplaying": 8079,
      "Ġstar": 8080,
      "_at": 8081,
      "Ð°Ð»Ð¸": 8082,
      "Please": 8083,
      "CD": 8084,
      "upp": 8085,
      "JSON": 8086,
      "jer": 8087,
      "¨à¯įà®¤": 8088,
      "Î¼Î±": 8089,
      "ĠPerson": 8090,
      "ĠMac": 8091,
      "Ġgan": 8092,
      "Ġgrowth": 8093,
      "olute": 8094,
      "Ġaber": 8095,
      "ordin": 8096,
      "ĠCounty": 8097,
      "Total": 8098,
      "à¦ľ": 8099,
      "Ġcada": 8100,
      "anges": 8101,
      "Ġsaw": 8102,
      "Ġdiscover": 8103,
      "Ð°Ð½Ñĭ": 8104,
      "Ġkas": 8105,
      "Values": 8106,
      ".res": 8107,
      "ĠKe": 8108,
      "ĠAny": 8109,
      "à¯įà®±": 8110,
      "Ġmeng": 8111,
      "Ġimmed": 8112,
      "Ġability": 8113,
      "oker": 8114,
      "-B": 8115,
      "ĠÙ¾Ø±": 8116,
      "ÒŁ": 8117,
      "âĢĶâĢĶ": 8118,
      "Ð°Ð¿": 8119,
      "EST": 8120,
      "but": 8121,
      "atan": 8122,
      "Dir": 8123,
      "ĠDer": 8124,
      "Ġpap": 8125,
      "gal": 8126,
      "ĠØ³ÛĴ": 8127,
      "cd": 8128,
      "Ġpattern": 8129,
      "ington": 8130,
      "(@": 8131,
      "Ġresource": 8132,
      "ĠÙ": 8133,
      "èĭ": 8134,
      "ĠÕ£": 8135,
      "Ġphotos": 8136,
      "CO": 8137,
      "lÄ±": 8138,
      "Ġhay": 8139,
      "Show": 8140,
      "template": 8141,
      "ymbol": 8142,
      "Ġuseful": 8143,
      "Controls": 8144,
      "ouw": 8145,
      "ĠáĥĲáĥł": 8146,
      "à²¾à²Ĺ": 8147,
      "ĠMicrosoft": 8148,
      "ATA": 8149,
      "Ġtan": 8150,
      "cz": 8151,
      "Ġì§": 8152,
      "ĠØ§ÙĦØµ": 8153,
      "icens": 8154,
      "Å¯": 8155,
      "×ĳ×¨": 8156,
      "_code": 8157,
      "(res": 8158,
      "ï¼¿": 8159,
      "ueue": 8160,
      "Ġexpert": 8161,
      "ãģ£": 8162,
      "Ø§Ø¹": 8163,
      "ategories": 8164,
      "ĠFirst": 8165,
      "ological": 8166,
      "Ġfavorite": 8167,
      "ëŁ": 8168,
      "Ġcompar": 8169,
      "ÙĦØ©": 8170,
      "ĠÑŀ": 8171,
      "avel": 8172,
      "Õ¥Õ¿": 8173,
      "Ð¾ÑĢÐ°": 8174,
      "ĠLink": 8175,
      "Ġton": 8176,
      "Ġfloor": 8177,
      "ĠHttp": 8178,
      "Ð»Ñĭ": 8179,
      "à¤¾à¤ľ": 8180,
      "Ġlives": 8181,
      "ÑĤÓĻ": 8182,
      "áĥ§": 8183,
      ".current": 8184,
      "Ġmargin": 8185,
      "Ġproperties": 8186,
      "Ó£": 8187,
      "@Override": 8188,
      "Ġcharge": 8189,
      ".In": 8190,
      "ĠJes": 8191,
      "à¤ķà¤¾": 8192,
      "Ġtend": 8193,
      "arios": 8194,
      "ĠPRO": 8195,
      "ĠUK": 8196,
      "aken": 8197,
      "Art": 8198,
      "Ð¾Ð´Ð°": 8199,
      "Ġlevels": 8200,
      "itable": 8201,
      "Ġàª¦": 8202,
      "ongo": 8203,
      "Ġjour": 8204,
      "ARE": 8205,
      "Ġwur": 8206,
      "esh": 8207,
      "sta": 8208,
      ".cont": 8209,
      "acters": 8210,
      "amed": 8211,
      "Õ¡Õ®": 8212,
      "ĠÕ¢": 8213,
      "Ġpool": 8214,
      "_add": 8215,
      "ulu": 8216,
      "ĠPal": 8217,
      "ĠØ§ÙĦØ®": 8218,
      "Gl": 8219,
      "components": 8220,
      "Template": 8221,
      "Ġavoid": 8222,
      "Ø¤": 8223,
      "mazon": 8224,
      "Ġimprove": 8225,
      "Vari": 8226,
      "Ġà¦¶": 8227,
      "Ġevalu": 8228,
      "Del": 8229,
      "ĠIndia": 8230,
      "ĠWhile": 8231,
      "Enabled": 8232,
      "thes": 8233,
      "yg": 8234,
      "(B": 8235,
      "lag": 8236,
      "xim": 8237,
      "Ġà°¤": 8238,
      "ecurity": 8239,
      "iring": 8240,
      "Ġgod": 8241,
      "Ġfrequ": 8242,
      "Ġvida": 8243,
      "scope": 8244,
      "olf": 8245,
      "Ġparse": 8246,
      "aro": 8247,
      "Ġrecently": 8248,
      "ìļ©": 8249,
      "Ġdaily": 8250,
      "Ġmehr": 8251,
      "onday": 8252,
      "Îĳ": 8253,
      "actor": 8254,
      "Ġscore": 8255,
      "Ġempres": 8256,
      "long": 8257,
      "Ġcompl": 8258,
      "ÙĬÙĪ": 8259,
      "âĺ": 8260,
      "Ġequipment": 8261,
      "exports": 8262,
      "Ġtools": 8263,
      "Il": 8264,
      "Ġfirm": 8265,
      "Ġai": 8266,
      "Ġselection": 8267,
      "Properties": 8268,
      "Ġabs": 8269,
      "hest": 8270,
      "Ġcapt": 8271,
      "truct": 8272,
      "ãĤĤ": 8273,
      "Main": 8274,
      "=\\\"": 8275,
      "Ġliter": 8276,
      "Ġanalysis": 8277,
      "Ġprices": 8278,
      "Ġconvert": 8279,
      "ÙĬØ³": 8280,
      ".dis": 8281,
      "ĠSa": 8282,
      "Font": 8283,
      "à¯ģà®ķ": 8284,
      "ova": 8285,
      "encies": 8286,
      "eden": 8287,
      "Ġcareer": 8288,
      "ĠBen": 8289,
      "Ãį": 8290,
      "ĠÂ·": 8291,
      "Ġroll": 8292,
      ".string": 8293,
      "Ġamazing": 8294,
      "ãģĵ": 8295,
      "oms": 8296,
      "Use": 8297,
      "âĢĻd": 8298,
      "à²Ĥà²¦": 8299,
      "Ġboy": 8300,
      "Ġà¦Ĺ": 8301,
      "Can": 8302,
      ".)": 8303,
      "(null": 8304,
      "ĠÎ¿": 8305,
      "acket": 8306,
      "ÑģÑĤÐ²ÐµÐ½": 8307,
      ".css": 8308,
      "Ġjo": 8309,
      "çķ": 8310,
      "Ġverd": 8311,
      "Ġfinally": 8312,
      "fit": 8313,
      "Ġeffective": 8314,
      "Ġupdated": 8315,
      "Î¯Î±": 8316,
      "Ġinflu": 8317,
      "Ġdemand": 8318,
      "Ð¸Ð½Ð°": 8319,
      "Ó©ÑĢ": 8320,
      "à¶Ń": 8321,
      "Ġconcept": 8322,
      "è·": 8323,
      "ĠdÃ©c": 8324,
      "iÃ©n": 8325,
      "elles": 8326,
      "Ġtrust": 8327,
      "nu": 8328,
      "Ġbath": 8329,
      "utt": 8330,
      "None": 8331,
      "ersist": 8332,
      "aires": 8333,
      "Ġpros": 8334,
      "delete": 8335,
      "Ġfer": 8336,
      "Ġkle": 8337,
      "Ġsense": 8338,
      "Ġtrain": 8339,
      "unday": 8340,
      "Ġsz": 8341,
      "Ġdirectly": 8342,
      "ĠAut": 8343,
      ".$": 8344,
      "ĠFROM": 8345,
      "known": 8346,
      "Ġ×ľ×Ķ": 8347,
      "Ġclub": 8348,
      "Ġdh": 8349,
      "Ġalert": 8350,
      ".ĊĊĊ": 8351,
      "aries": 8352,
      "oro": 8353,
      "?:": 8354,
      "ĠTechn": 8355,
      "Ġliv": 8356,
      "Ġfields": 8357,
      "à®¿à®²à¯į": 8358,
      "otes": 8359,
      "Ġcan't": 8360,
      "Ġdidn": 8361,
      "Ġpages": 8362,
      "Ð´Ñĸ": 8363,
      "Ã¡rio": 8364,
      "72": 8365,
      "Ag": 8366,
      "Detail": 8367,
      "About": 8368,
      "àª§": 8369,
      "ĠWar": 8370,
      "ãĥ©": 8371,
      "Ġ..": 8372,
      "ĠCommun": 8373,
      "agem": 8374,
      "ondon": 8375,
      "NE": 8376,
      "Ġprojects": 8377,
      "ĠProm": 8378,
      "yth": 8379,
      "ĠsÃ¥": 8380,
      "ĠÎ³": 8381,
      "ds": 8382,
      "éĶ": 8383,
      "ooth": 8384,
      "inde": 8385,
      "ê³¼": 8386,
      "urer": 8387,
      ".new": 8388,
      "ĠÐ°ÑĢ": 8389,
      "Ġaspect": 8390,
      "Ġëĭ": 8391,
      "Ġgold": 8392,
      "ĠÛ": 8393,
      "Ġåį": 8394,
      "Ġkm": 8395,
      "Ġbuffer": 8396,
      "ãģĨ": 8397,
      "-a": 8398,
      "Props": 8399,
      "ĠÑįÑĤÐ¾": 8400,
      "(()": 8401,
      "Hash": 8402,
      "firm": 8403,
      "izontal": 8404,
      "Ã´ng": 8405,
      ".</": 8406,
      "Ġgoal": 8407,
      "ĠPC": 8408,
      "Ġvie": 8409,
      "ĠtÃ«": 8410,
      ".ch": 8411,
      "Ġàªħàª¨à«ĩ": 8412,
      "ÑģÐ°": 8413,
      "Ġthread": 8414,
      "Ã¤h": 8415,
      "Msg": 8416,
      "():Ċ": 8417,
      "Ã»": 8418,
      "dat": 8419,
      "stream": 8420,
      "****************************************************************": 8421,
      "ĠDateTime": 8422,
      "à·Ģ": 8423,
      "Ġstarting": 8424,
      "eda": 8425,
      "Ã¶g": 8426,
      "pat": 8427,
      "isc": 8428,
      "arante": 8429,
      "ĠBel": 8430,
      "cciÃ³n": 8431,
      "_string": 8432,
      "ĠBrit": 8433,
      "Ġnotice": 8434,
      "ìĥģ": 8435,
      "à°¿à°¨": 8436,
      "Range": 8437,
      "Ġmoet": 8438,
      "Ġexerc": 8439,
      "-re": 8440,
      "ugar": 8441,
      "Ġlu": 8442,
      "PR": 8443,
      "ners": 8444,
      "ĠInformation": 8445,
      "ussi": 8446,
      "Ġgets": 8447,
      "+\"": 8448,
      "Right": 8449,
      ".error": 8450,
      "Ġtechni": 8451,
      "ĠØ§ÛĮÙĨ": 8452,
      "Ð´Ð°Ð½": 8453,
      "Ġelements": 8454,
      "Ġmention": 8455,
      "Ġà¤Ńà¥Ģ": 8456,
      "ëĵ¤": 8457,
      "ÑĪÐµ": 8458,
      "Ġkam": 8459,
      "isode": 8460,
      "ÐºÐ°Ð·": 8461,
      "lay": 8462,
      "IGHT": 8463,
      "Ø§ØŃ": 8464,
      "Ġblood": 8465,
      "Mark": 8466,
      "$this": 8467,
      "rame": 8468,
      ".web": 8469,
      "iana": 8470,
      "Ġ::": 8471,
      ".min": 8472,
      "asons": 8473,
      "ÑĭÐ·": 8474,
      "ija": 8475,
      "à§įà¦¬": 8476,
      "ĠError": 8477,
      "Ġviews": 8478,
      "à³ĭ": 8479,
      "ÙĥÙĨ": 8480,
      "ez": 8481,
      "Ġdecision": 8482,
      "arts": 8483,
      "ìĬµ": 8484,
      "Ġnumbers": 8485,
      "Ġobserv": 8486,
      "har": 8487,
      "ĠNovember": 8488,
      "Ġowner": 8489,
      "Ġassociated": 8490,
      "à®£": 8491,
      "eur": 8492,
      "toString": 8493,
      "à²°à³ģ": 8494,
      "lean": 8495,
      "aus": 8496,
      "ĠSen": 8497,
      "PTION": 8498,
      "Ġdelivery": 8499,
      "contr": 8500,
      "ivil": 8501,
      "ÑģÐ»Ð¸": 8502,
      "Ġadult": 8503,
      "Ġhistor": 8504,
      "ĠkÃ¶nnen": 8505,
      "Õ¸ÖĢÕ": 8506,
      "Ġattention": 8507,
      "ĠJanuary": 8508,
      "Ġ''": 8509,
      "Ġrob": 8510,
      "ĠInternational": 8511,
      ".update": 8512,
      "Ġrais": 8513,
      "Display": 8514,
      "Ġtid": 8515,
      "áĢŃ": 8516,
      "åł": 8517,
      "OC": 8518,
      "chaft": 8519,
      "method": 8520,
      "Ġlines": 8521,
      "\\x": 8522,
      "ÏīÎ½": 8523,
      "kk": 8524,
      "ĠReal": 8525,
      "cil": 8526,
      "Ġattempt": 8527,
      "Ã¤Ã¤": 8528,
      "onom": 8529,
      "Ġrock": 8530,
      "oter": 8531,
      "Ġmorning": 8532,
      "oggle": 8533,
      "Ġcategory": 8534,
      "Ġshall": 8535,
      "Ġà²µ": 8536,
      "ĠEin": 8537,
      "_back": 8538,
      "role": 8539,
      "áĥĿáĥ¡": 8540,
      "Ġoh": 8541,
      "ran": 8542,
      "ĠWITH": 8543,
      "Ġê³": 8544,
      "close": 8545,
      "Ġpicture": 8546,
      "Ġdag": 8547,
      "Ġbottom": 8548,
      "ĠSam": 8549,
      "Ġverb": 8550,
      "Ġkwa": 8551,
      "ĠBase": 8552,
      "Ġcollege": 8553,
      "Ġessential": 8554,
      "ÑĤÑĮ": 8555,
      "Ġroad": 8556,
      "ĠIT": 8557,
      "áĥĶáĥĳáĥĺ": 8558,
      "icks": 8559,
      "Ġcommit": 8560,
      "Serial": 8561,
      "àª°à«įàª": 8562,
      "Ġdoesn't": 8563,
      "unsigned": 8564,
      "'];Ċ": 8565,
      "Ġsettings": 8566,
      "Ġinnov": 8567,
      "Ġsleep": 8568,
      "ViewController": 8569,
      "Ġnames": 8570,
      "Ġearn": 8571,
      "Ð¾Ðµ": 8572,
      "ĠOctober": 8573,
      "}ĊĊĊ": 8574,
      "à°¦": 8575,
      "sych": 8576,
      "Ġsold": 8577,
      "ĠDown": 8578,
      "reci": 8579,
      "ÑģÐ»": 8580,
      "ccording": 8581,
      "ims": 8582,
      "Ġcin": 8583,
      "ĠProject": 8584,
      "à´Ļ": 8585,
      "×ķ×Ļ×": 8586,
      "ĠVector": 8587,
      "ĠØ¬ÙĬ": 8588,
      "_array": 8589,
      "Ġphoto": 8590,
      "ĠKing": 8591,
      "Ġign": 8592,
      "Ġ×Ķ×Ĳ": 8593,
      "Ġextrem": 8594,
      ".a": 8595,
      "Ġwoman": 8596,
      "Ġunsigned": 8597,
      "space": 8598,
      "Ġawá»įn": 8599,
      "Ð°ÑĢÑĤ": 8600,
      "Ġpul": 8601,
      "BUG": 8602,
      "111": 8603,
      "iller": 8604,
      "à³Ĭ": 8605,
      "Ġparents": 8606,
      ")).": 8607,
      "Ġsolid": 8608,
      "ĠLo": 8609,
      "Ġdurch": 8610,
      "ĠÐ¾ÑĢ": 8611,
      "Ġsituation": 8612,
      "aturday": 8613,
      "ç³": 8614,
      "Render": 8615,
      "Trace": 8616,
      "oles": 8617,
      "Die": 8618,
      "-de": 8619,
      "_TYPE": 8620,
      "ĠmÃ¡": 8621,
      "ibly": 8622,
      "éķ": 8623,
      "angular": 8624,
      "wargs": 8625,
      "Ġlost": 8626,
      "DS": 8627,
      "Ġgoes": 8628,
      "Ġadvert": 8629,
      "Ġitself": 8630,
      "Ġbenefits": 8631,
      "à·Ķ": 8632,
      "OG": 8633,
      "ws": 8634,
      "Ġinternal": 8635,
      "property": 8636,
      "à®®à¯į": 8637,
      "ĠÕ¸ÖĢ": 8638,
      "Ġ\"<": 8639,
      "Ġenh": 8640,
      "Ġevid": 8641,
      "ĠAlso": 8642,
      "istration": 8643,
      "à¦¾à¦ķ": 8644,
      "_sh": 8645,
      "ouncil": 8646,
      "Ġsatisf": 8647,
      "Ġhour": 8648,
      "Ġmodule": 8649,
      "ÑģÑĮ": 8650,
      "Ġmuy": 8651,
      "ancy": 8652,
      "Ġtrip": 8653,
      "Ã³s": 8654,
      "ĠGNU": 8655,
      "_date": 8656,
      "ĠÐĹ": 8657,
      "fg": 8658,
      "cat": 8659,
      "ÙĦØ§Ùħ": 8660,
      ".key": 8661,
      "Ġregul": 8662,
      "Ġpositive": 8663,
      "à¸Ĥ": 8664,
      "Ùı": 8665,
      "Ġuses": 8666,
      "Ġrot": 8667,
      "oriz": 8668,
      "Ġsmart": 8669,
      "Ġà¤²à¤¿à¤ı": 8670,
      ".widget": 8671,
      "Ġcab": 8672,
      "Ġgreen": 8673,
      "à¤¾à¤Ī": 8674,
      "áĢĢ": 8675,
      "Ġprofile": 8676,
      ".'": 8677,
      "AA": 8678,
      "Ãľ": 8679,
      "ngth": 8680,
      "Ġdesde": 8681,
      "ÙĪØ³": 8682,
      "Ġchalleng": 8683,
      "store": 8684,
      "Ptr": 8685,
      "aja": 8686,
      "Cache": 8687,
      "Ġstructure": 8688,
      "éĤ": 8689,
      "Ġdiff": 8690,
      ".X": 8691,
      "ãĤī": 8692,
      ".show": 8693,
      "mat": 8694,
      ".body": 8695,
      "Ġà¸ļ": 8696,
      "craft": 8697,
      "63": 8698,
      "_CON": 8699,
      "ruary": 8700,
      "Ġdrink": 8701,
      "lichen": 8702,
      "Ġgirl": 8703,
      "áĥĺáĥĵ": 8704,
      "Ġdark": 8705,
      "Home": 8706,
      "Ġcov": 8707,
      "Ð¾Ñı": 8708,
      "ĠMost": 8709,
      "ĠBig": 8710,
      "ĠØ°": 8711,
      "Ġtransfer": 8712,
      ".Point": 8713,
      ".info": 8714,
      "asic": 8715,
      "Ġdoesn": 8716,
      "Ġcontains": 8717,
      "Ġgroups": 8718,
      "Ġconsist": 8719,
      "à¸Ńà¸Ļ": 8720,
      "iu": 8721,
      ".google": 8722,
      "Ġopin": 8723,
      "refix": 8724,
      "eles": 8725,
      "Database": 8726,
      "à°ª": 8727,
      "Ġpes": 8728,
      "Ġrat": 8729,
      "Device": 8730,
      "Ġkut": 8731,
      "Ġ[]Ċ": 8732,
      "ĠCreated": 8733,
      "_ch": 8734,
      "Ġhighly": 8735,
      ".send": 8736,
      "Ġê¸": 8737,
      "Ġtmp": 8738,
      "Ġled": 8739,
      "Ġ?>Ċ": 8740,
      "Ġraz": 8741,
      "how": 8742,
      "version": 8743,
      "ASE": 8744,
      "Ġà¦ªà§įà¦°": 8745,
      "imiento": 8746,
      "]]": 8747,
      "à¥ģà¤°": 8748,
      "ãģĬ": 8749,
      "Ġdriver": 8750,
      "(key": 8751,
      "Ġà¹ģ": 8752,
      "udent": 8753,
      "Ġplans": 8754,
      "alled": 8755,
      "Offset": 8756,
      "Ġà¦ļ": 8757,
      "legate": 8758,
      "otos": 8759,
      "à¤«": 8760,
      "à¤¸à¥ĩ": 8761,
      "Ġàª²": 8762,
      "62": 8763,
      "ĠÐ»Ñİ": 8764,
      "{ĊĊ": 8765,
      "Ġhands": 8766,
      "Callback": 8767,
      "(P": 8768,
      "Ð¾ÑĢÐ¼": 8769,
      "61": 8770,
      "usher": 8771,
      "91": 8772,
      "Ġmm": 8773,
      "ovie": 8774,
      "Ġcosts": 8775,
      "/*Ċ": 8776,
      "Ġnue": 8777,
      "Ð°ÑĤÐ°": 8778,
      "ĠìĪĺ": 8779,
      "ĠLos": 8780,
      "Ġscr": 8781,
      "iqu": 8782,
      "Ġgives": 8783,
      "vari": 8784,
      "à±įà°¤": 8785,
      "Ġìĺ": 8786,
      "uga": 8787,
      "Ġindepend": 8788,
      "áĥĶáĥķ": 8789,
      "Ġcos": 8790,
      "Ġfine": 8791,
      "ĠHel": 8792,
      "Arr": 8793,
      "Visible": 8794,
      "Ġnj": 8795,
      "Â®": 8796,
      "Ġcountries": 8797,
      "Ġfresh": 8798,
      "outes": 8799,
      "ĠÐķ": 8800,
      "bruary": 8801,
      "Ġoffset": 8802,
      ".Log": 8803,
      "enty": 8804,
      "à¶¸": 8805,
      "ĠÂ£": 8806,
      "æģ": 8807,
      "voir": 8808,
      ".tr": 8809,
      "'=>": 8810,
      "ĠOpt": 8811,
      "IX": 8812,
      "à²Ł": 8813,
      "rypt": 8814,
      "Ġcit": 8815,
      "(*": 8816,
      "look": 8817,
      "imest": 8818,
      "Ò¯Ð½": 8819,
      "ÙĪÙĬ": 8820,
      "à¸²à¸Ļ": 8821,
      "Ġà´ļ": 8822,
      "ãĥª": 8823,
      "á»ĵ": 8824,
      "Ð¸Ð¿": 8825,
      ".Is": 8826,
      "ebug": 8827,
      "Ġmyself": 8828,
      "grade": 8829,
      "ĠUN": 8830,
      "Ġkat": 8831,
      "Ð¸Ð±": 8832,
      "ë©´": 8833,
      "akk": 8834,
      "uario": 8835,
      "Direct": 8836,
      ".event": 8837,
      "ĠìĤ¬": 8838,
      "ĠLet": 8839,
      "Ġlic": 8840,
      "ORM": 8841,
      "á»¯": 8842,
      "Ġcapital": 8843,
      "Ġnut": 8844,
      "oga": 8845,
      ".E": 8846,
      "Report": 8847,
      "apped": 8848,
      "augh": 8849,
      "bool": 8850,
      "ĠÚ©Ûģ": 8851,
      ".k": 8852,
      "Ġsyn": 8853,
      "totype": 8854,
      "à±įà°²": 8855,
      "Ġinj": 8856,
      "ÙħØ±": 8857,
      "ĠëĤ": 8858,
      "Ġpiece": 8859,
      "ĠÎ½Î±": 8860,
      "Run": 8861,
      "Spec": 8862,
      "×Ļ×Ķ": 8863,
      "ĠCollege": 8864,
      "Ġjud": 8865,
      "Ġven": 8866,
      "ĠsÃ£o": 8867,
      "ANG": 8868,
      "ĨĴ": 8869,
      "Ġcat": 8870,
      "crypt": 8871,
      "Exp": 8872,
      "Transaction": 8873,
      "oration": 8874,
      "Ġideal": 8875,
      ".Write": 8876,
      "Ġ×ľ×Ĳ": 8877,
      "icio": 8878,
      "GB": 8879,
      "ĠVol": 8880,
      "áĥĿáĥľ": 8881,
      "Ġproviding": 8882,
      "âĢĻun": 8883,
      "ĠIh": 8884,
      "Ġnumer": 8885,
      "Ġmedic": 8886,
      "iber": 8887,
      ")->": 8888,
      "uen": 8889,
      "avior": 8890,
      "stants": 8891,
      "covery": 8892,
      "ÛĮÙħ": 8893,
      "uu": 8894,
      "ĠProf": 8895,
      "Ġini": 8896,
      "áĥ£áĥł": 8897,
      "à¤¨à¥Ģ": 8898,
      "Ġfat": 8899,
      "Ġmog": 8900,
      "Ø³Ø¨": 8901,
      "IES": 8902,
      "<int": 8903,
      "));čĊ": 8904,
      "Ass": 8905,
      "Ġindustr": 8906,
      "}`": 8907,
      "ĠÐ²Ð¾Ð·": 8908,
      "Ø§ÙĤ": 8909,
      "Ġshop": 8910,
      "ĠvÃł": 8911,
      "aron": 8912,
      "ĠPlay": 8913,
      "ĠÃªtre": 8914,
      "ĠØ§ÙĦØ±": 8915,
      "Ġuntuk": 8916,
      "Ġprimary": 8917,
      "(request": 8918,
      "Ġneigh": 8919,
      "ifications": 8920,
      "nik": 8921,
      "ĠResult": 8922,
      "Ġdefined": 8923,
      "ĠÓĻ": 8924,
      "Ġfinish": 8925,
      "edef": 8926,
      "_text": 8927,
      "andle": 8928,
      "Profile": 8929,
      "ĠFoundation": 8930,
      "OB": 8931,
      "ĠâĢ¦ĊĊ": 8932,
      "Ġpelo": 8933,
      "MP": 8934,
      "war": 8935,
      "_NAME": 8936,
      "Ġ[\"": 8937,
      "999": 8938,
      "Ø§Øµ": 8939,
      "append": 8940,
      "Contact": 8941,
      ".I": 8942,
      "ĠPor": 8943,
      ".equals": 8944,
      "Ġë³": 8945,
      "Ġsizeof": 8946,
      "process": 8947,
      "Ġrequirements": 8948,
      "Ġcompletely": 8949,
      "ords": 8950,
      "Ð¾Ð»ÑĮÐºÐ¾": 8951,
      "Ġwarm": 8952,
      "del": 8953,
      "Ãĸ": 8954,
      "Ġ×¢×ľ": 8955,
      "ONE": 8956,
      "KEY": 8957,
      "Ġdaar": 8958,
      "'],": 8959,
      "ĠUpdate": 8960,
      "Î¶": 8961,
      "à¦¾à¦®": 8962,
      "Ġoc": 8963,
      "Ġbak": 8964,
      "LOG": 8965,
      "éĵ": 8966,
      "ĠTR": 8967,
      "Ġpare": 8968,
      ".z": 8969,
      "router": 8970,
      "Ġagus": 8971,
      "×ķ×ŀ": 8972,
      "Ġguide": 8973,
      ".type": 8974,
      "IND": 8975,
      ".content": 8976,
      "SD": 8977,
      "ĠFil": 8978,
      "Ġban": 8979,
      "());ĊĊ": 8980,
      "ĠÎ¼Îµ": 8981,
      "gre": 8982,
      "idi": 8983,
      "Ġmeeting": 8984,
      "ĠÕ¸ÖĤ": 8985,
      "ĠMessage": 8986,
      "áĢ±": 8987,
      "Ġchanged": 8988,
      "à²¨à³įà²¨": 8989,
      "\",čĊ": 8990,
      "Ġworked": 8991,
      "ĠNumber": 8992,
      "description": 8993,
      "ĠPage": 8994,
      "ming": 8995,
      "ĠPresident": 8996,
      "returns": 8997,
      "BD": 8998,
      "Ġmol": 8999,
      "Ġ'../": 9000,
      "angan": 9001,
      "Ġindividuals": 9002,
      "ĠDi": 9003,
      "Ġprime": 9004,
      "Ġserious": 9005,
      ".trans": 9006,
      "ĠØ§ÙĦØ°": 9007,
      "ford": 9008,
      "ÛĮØ§": 9009,
      "ĠãĤ": 9010,
      "Ġedit": 9011,
      "Ã³w": 9012,
      "ĠURL": 9013,
      "ĠDecember": 9014,
      "uka": 9015,
      "ĠInitial": 9016,
      "plot": 9017,
      "ĠÙĦØ§": 9018,
      "VER": 9019,
      "\":Ċ": 9020,
      "dates": 9021,
      "Ġpeut": 9022,
      "Ġoo": 9023,
      "à¶ļ": 9024,
      "iek": 9025,
      "Ġconstructor": 9026,
      "ĠRuss": 9027,
      "atz": 9028,
      "utter": 9029,
      "Ġdead": 9030,
      "Ġye": 9031,
      "Met": 9032,
      "ĠHT": 9033,
      "imp": 9034,
      "Parser": 9035,
      "ĠAR": 9036,
      "gs": 9037,
      "×ķ×Ŀ": 9038,
      "Ġpeu": 9039,
      "edding": 9040,
      "Ġ[[": 9041,
      "ĠCall": 9042,
      "Ġbyte": 9043,
      "Ġversch": 9044,
      "More": 9045,
      "build": 9046,
      "Core": 9047,
      "193": 9048,
      "rome": 9049,
      "Ġsafety": 9050,
      "Ġthemselves": 9051,
      "Ð²ÐµÑĢ": 9052,
      "Ġmount": 9053,
      "Ġà¤ħà¤ª": 9054,
      "ï»¿using": 9055,
      "Bean": 9056,
      "Ġformer": 9057,
      "(:": 9058,
      "Ġcm": 9059,
      "uba": 9060,
      "Ġsetting": 9061,
      "Ġexecut": 9062,
      "Ġstress": 9063,
      "ĠØ§ÙĦØªÙĬ": 9064,
      "Ġdirection": 9065,
      "})": 9066,
      "Ġpub": 9067,
      "-control": 9068,
      "ĠItem": 9069,
      "Async": 9070,
      "à°¡": 9071,
      "à¯įà®ķà®³": 9072,
      "estion": 9073,
      "adow": 9074,
      "ì£¼": 9075,
      "ieder": 9076,
      "Ġlig": 9077,
      "uman": 9078,
      "Ġpayment": 9079,
      "Ġcreating": 9080,
      "Ġallowed": 9081,
      "Ġ\"\"\"": 9082,
      "Ġvit": 9083,
      "Ġcontainer": 9084,
      "application": 9085,
      "Ġ*/Ċ/": 9086,
      "rec": 9087,
      "ĠDas": 9088,
      "lients": 9089,
      "ÑĭÐ½Ð´Ð°": 9090,
      "ĠÐ²Ð°": 9091,
      "Ġdidn't": 9092,
      "rd": 9093,
      "connect": 9094,
      "(ex": 9095,
      "ĠÃ®n": 9096,
      "ìĻ": 9097,
      "Ġfix": 9098,
      "embre": 9099,
      "Ġwood": 9100,
      "àµįà´Ļ": 9101,
      "à°¯": 9102,
      "130": 9103,
      "Ġdescrib": 9104,
      "oco": 9105,
      "ÉĻn": 9106,
      "comes": 9107,
      "erman": 9108,
      "Ãºblic": 9109,
      "Ġ-->": 9110,
      "à´¿à´ķàµįà´ķ": 9111,
      "mail": 9112,
      "CS": 9113,
      ":'": 9114,
      "ĠEvery": 9115,
      ".service": 9116,
      "ĠDu": 9117,
      "íĥ": 9118,
      "ĠAus": 9119,
      "Ġscale": 9120,
      "ĠNO": 9121,
      "gb": 9122,
      "icated": 9123,
      "Òµ": 9124,
      ".Font": 9125,
      "Ġdistance": 9126,
      "Ġmb": 9127,
      "Ġeffects": 9128,
      "ÙĪØ¬": 9129,
      "inue": 9130,
      "ander": 9131,
      "ĠChar": 9132,
      "anna": 9133,
      "Ġsummer": 9134,
      "Ġchannel": 9135,
      "Ġhelps": 9136,
      "(\"%": 9137,
      "ARRANT": 9138,
      "Ġraise": 9139,
      "Author": 9140,
      ".api": 9141,
      "ĠÑĢÐ°Ð±Ð¾ÑĤ": 9142,
      "Ġcash": 9143,
      "console": 9144,
      "Document": 9145,
      "ĠIll": 9146,
      "ĠÐ´Ð°ÑĢ": 9147,
      "Ġprepar": 9148,
      "Ġpush": 9149,
      "Ġstuff": 9150,
      "Ġkunnen": 9151,
      "ĠNet": 9152,
      "nap": 9153,
      "Ġped": 9154,
      "Ġbur": 9155,
      "Ð¸Ð»ÑĮ": 9156,
      "gorithm": 9157,
      "ĠQue": 9158,
      "Ġsuccessful": 9159,
      "ìĦ±": 9160,
      "itos": 9161,
      "Ġlinks": 9162,
      "Ġfailed": 9163,
      "-md": 9164,
      "Ġandere": 9165,
      "ATH": 9166,
      "Ġoptim": 9167,
      "Ġsolutions": 9168,
      "Match": 9169,
      ".ComponentModel": 9170,
      "à²¿à²¸": 9171,
      "Ġhem": 9172,
      ";i": 9173,
      "Ġsport": 9174,
      "ĠChe": 9175,
      "REE": 9176,
      ".getString": 9177,
      "iforn": 9178,
      "ĠFriday": 9179,
      "ĠOp": 9180,
      "mploy": 9181,
      "ÙĪØ²": 9182,
      "column": 9183,
      "áĥĲáĥ®": 9184,
      "ĠWARRANT": 9185,
      ".load": 9186,
      "à¤¾à¤ķ": 9187,
      "aku": 9188,
      ".GroupLayout": 9189,
      "Ġstrength": 9190,
      "ĠAssoci": 9191,
      "à³įà²¦": 9192,
      "ëĵľ": 9193,
      "itect": 9194,
      "Ġapplications": 9195,
      "ĠÕ¡Õµ": 9196,
      "ĠMake": 9197,
      "alian": 9198,
      "(context": 9199,
      "sembly": 9200,
      "à´¿à´ļàµįà´ļ": 9201,
      "Ġexclus": 9202,
      "illing": 9203,
      "à¦¿à¦²": 9204,
      "android": 9205,
      "Ġstage": 9206,
      ".awt": 9207,
      "Ð»ÑĮ": 9208,
      "Ġvict": 9209,
      "-A": 9210,
      "Ġstates": 9211,
      "Enter": 9212,
      "queue": 9213,
      "_y": 9214,
      ".sc": 9215,
      "ĠtrÃ¨s": 9216,
      "à®¤à¯ģ": 9217,
      ".jpg": 9218,
      "Ġáĥķ": 9219,
      ".as": 9220,
      "¹Ħ": 9221,
      "Screen": 9222,
      "Ġconduct": 9223,
      "Ġpuede": 9224,
      "Ġprintf": 9225,
      "ĠBit": 9226,
      "Ð°Ð»Ñĭ": 9227,
      "ĠprÃ©": 9228,
      "Ûĩ": 9229,
      "Ġaccur": 9230,
      "Ġcamera": 9231,
      "iture": 9232,
      "Rec": 9233,
      "nbsp": 9234,
      "iately": 9235,
      "Ġmun": 9236,
      "istas": 9237,
      "Ġconvers": 9238,
      "à¦£": 9239,
      "ĠAndroid": 9240,
      "Ġbasic": 9241,
      "Ġdrop": 9242,
      "ĠCode": 9243,
      "():": 9244,
      "ality": 9245,
      "160": 9246,
      "Ġinterested": 9247,
      "Ġcounter": 9248,
      "assen": 9249,
      "à¦¾à§°": 9250,
      "ÄĮ": 9251,
      "/j": 9252,
      "Ð½Ð¾Ð²": 9253,
      "azi": 9254,
      "loc": 9255,
      "erry": 9256,
      "pet": 9257,
      "gel": 9258,
      "ĠDem": 9259,
      "late": 9260,
      "à¦¾à¦ĩ": 9261,
      "Ġdengan": 9262,
      "Ġrent": 9263,
      "extern": 9264,
      "Ġlogin": 9265,
      "ibt": 9266,
      "orial": 9267,
      "hs": 9268,
      "ICE": 9269,
      "ĠVis": 9270,
      "ÑĢÑĥÐ³": 9271,
      "UID": 9272,
      "ãĤĮ": 9273,
      "Ġàª¶": 9274,
      "Ġconsidered": 9275,
      "($_": 9276,
      "volution": 9277,
      "uan": 9278,
      "_state": 9279,
      "wers": 9280,
      "Ġentity": 9281,
      "entifier": 9282,
      "Ø¯Ø§": 9283,
      "ĠÃ©s": 9284,
      "à¤¤à¥Ģ": 9285,
      "'],Ċ": 9286,
      "Ġ{@": 9287,
      "amer": 9288,
      "double": 9289,
      "Ġsuff": 9290,
      "ĠÐ°Ð²": 9291,
      "Servlet": 9292,
      "ĠResponse": 9293,
      "ÑģÑĤÐ²Ð¾": 9294,
      "Ġmuito": 9295,
      "-group": 9296,
      "Ġelif": 9297,
      "à¦¾à¦¤": 9298,
      "kw": 9299,
      "Ð¿ÑĢ": 9300,
      "Ġcallback": 9301,
      "()).": 9302,
      "Ġdefinitely": 9303,
      "ĠUnityEngine": 9304,
      "Ġoperation": 9305,
      "emy": 9306,
      "à¸³": 9307,
      ".Generic": 9308,
      "Ġfair": 9309,
      "HTML": 9310,
      "à²²à³įà²²à²¿": 9311,
      "áĢĲ": 9312,
      "Ġimg": 9313,
      "ìłĦ": 9314,
      "Ð¼ÐµÐ½": 9315,
      "Ġpartner": 9316,
      "aden": 9317,
      "Ġencour": 9318,
      "ÑĨÑĸ": 9319,
      "(file": 9320,
      "asks": 9321,
      "raz": 9322,
      "onn": 9323,
      "_dir": 9324,
      "ville": 9325,
      "avo": 9326,
      "ĠAmazon": 9327,
      "áĥĶáĥĹ": 9328,
      "ClickListener": 9329,
      "ĠÕ½": 9330,
      "Ġàª¤à«ĩ": 9331,
      "700": 9332,
      "áĥĳ": 9333,
      "aled": 9334,
      "ĠåĽ": 9335,
      "Ġalign": 9336,
      "]=": 9337,
      "Ġvehicle": 9338,
      "Ġforeach": 9339,
      "lying": 9340,
      "ĉconst": 9341,
      "_log": 9342,
      "Ġez": 9343,
      "lor": 9344,
      "Ö¼": 9345,
      "othing": 9346,
      "ĠÐ¿Ð»": 9347,
      "Ã¡ri": 9348,
      "ĠðŁ": 9349,
      "Ġemerg": 9350,
      "NA": 9351,
      "ĠâĢĻ": 9352,
      "Ð°Ð¼Ð¸": 9353,
      "ĠÑĥÑĩ": 9354,
      "Ġinteresting": 9355,
      "Ġhuge": 9356,
      "Writer": 9357,
      "à¤¾à¤ĩ": 9358,
      ";ĊĊĊ": 9359,
      ".props": 9360,
      "Att": 9361,
      "write": 9362,
      "Ġcertainly": 9363,
      "ĠSur": 9364,
      "ĠUSA": 9365,
      "Ġrespond": 9366,
      "Ġbasis": 9367,
      "ÑĤÑĥ": 9368,
      "(in": 9369,
      "endre": 9370,
      "-sm": 9371,
      "Tab": 9372,
      "total": 9373,
      "Ġforce": 9374,
      "Ġobtain": 9375,
      "FAULT": 9376,
      "ployee": 9377,
      "éĸ": 9378,
      "Ġpadding": 9379,
      "vention": 9380,
      "×Ļ×ĺ": 9381,
      "aver": 9382,
      "ÙĨÙĬ": 9383,
      "\"+": 9384,
      "onstr": 9385,
      "anti": 9386,
      "Ġshape": 9387,
      "çĭ": 9388,
      "Ð°Ð½Ð¸Ñı": 9389,
      "Ġconstant": 9390,
      "Ġexisting": 9391,
      "Ġbirth": 9392,
      "Aut": 9393,
      "Ġhear": 9394,
      "Ġshared": 9395,
      "Effect": 9396,
      "à´¾à´¨": 9397,
      ".setState": 9398,
      "Ġfest": 9399,
      "home": 9400,
      "ÏģÎ¹": 9401,
      "aca": 9402,
      "venue": 9403,
      "Ġrules": 9404,
      "fi": 9405,
      "ĠReturns": 9406,
      "Ġplaces": 9407,
      "à¥ĭà¤Ĺ": 9408,
      "Ġveel": 9409,
      "\">čĊ": 9410,
[...]
