{
  "version": "1.0",
  "truncation": null,
  "padding": null,
  "added_tokens": [
    {
      "id": 0,
      "content": "<seed:bos>",
      "single_word": false,
      "lstrip": false,
      "rstrip": false,
      "normalized": false,
      "special": true
    },
    {
      "id": 1,
      "content": "<seed:pad>",
      "single_word": false,
      "lstrip": false,
      "rstrip": false,
      "normalized": false,
      "special": true
    },
    {
      "id": 2,
      "content": "<seed:eos>",
      "single_word": false,
      "lstrip": false,
      "rstrip": false,
      "normalized": false,
      "special": true
    },
    {
      "id": 3,
      "content": "<seed:think>",
      "single_word": false,
      "lstrip": false,
      "rstrip": false,
      "normalized": false,
      "special": false
    },
    {
      "id": 4,
      "content": "</seed:think>",
      "single_word": false,
      "lstrip": false,
      "rstrip": false,
      "normalized": false,
      "special": false
    },
    {
      "id": 5,
      "content": "<seed:cot_budget_reflect>",
      "single_word": false,
      "lstrip": false,
      "rstrip": false,
      "normalized": false,
      "special": false
    },
    {
      "id": 6,
      "content": "</seed:cot_budget_reflect>",
      "single_word": false,
      "lstrip": false,
      "rstrip": false,
      "normalized": false,
      "special": false
    },
    {
      "id": 7,
      "content": "<seed:tool_call>",
      "single_word": false,
      "lstrip": false,
      "rstrip": false,
      "normalized": false,
      "special": false
    },
    {
      "id": 8,
      "content": "</seed:tool_call>",
      "single_word": false,
      "lstrip": false,
      "rstrip": false,
      "normalized": false,
      "special": false
    },
    {
      "id": 9,
      "content": "<[PLHD9_never_used]>",
      "single_word": false,
      "lstrip": false,
      "rstrip": false,
      "normalized": false,
      "special": true
    },
    {
      "id": 10,
      "content": "<[PLHD10_never_used]>",
      "single_word": false,
      "lstrip": false,
      "rstrip": false,
      "normalized": false,
      "special": true
    },
    {
      "id": 11,
      "content": "<[PLHD11_never_used]>",
      "single_word": false,
      "lstrip": false,
      "rstrip": false,
      "normalized": false,
      "special": true
    },
    {
      "id": 12,
      "content": "<[PLHD12_never_used]>",
      "single_word": false,
      "lstrip": false,
      "rstrip": false,
      "normalized": false,
      "special": true
    },
    {
      "id": 13,
      "content": "<[PLHD13_never_used]>",
      "single_word": false,
      "lstrip": false,
      "rstrip": false,
      "normalized": false,
      "special": true
    },
    {
      "id": 14,
      "content": "<[PLHD14_never_used]>",
      "single_word": false,
      "lstrip": false,
      "rstrip": false,
      "normalized": false,
      "special": true
    },
    {
      "id": 15,
      "content": "<[PLHD15_never_used]>",
      "single_word": false,
      "lstrip": false,
      "rstrip": false,
      "normalized": false,
      "special": true
    },
    {
      "id": 16,
      "content": "<[PLHD16_never_used]>",
      "single_word": false,
      "lstrip": false,
      "rstrip": false,
      "normalized": false,
      "special": true
    },
    {
      "id": 17,
      "content": "<[PLHD17_never_used]>",
      "single_word": false,
      "lstrip": false,
      "rstrip": false,
      "normalized": false,
      "special": true
    },
    {
      "id": 18,
      "content": "<[PLHD18_never_used]>",
      "single_word": false,
      "lstrip": false,
      "rstrip": false,
      "normalized": false,
      "special": true
    },
    {
      "id": 19,
      "content": "<[PLHD19_never_used]>",
      "single_word": false,
      "lstrip": false,
      "rstrip": false,
      "normalized": false,
      "special": true
    },
    {
      "id": 20,
      "content": "<[PLHD20_never_used]>",
      "single_word": false,
      "lstrip": false,
      "rstrip": false,
      "normalized": false,
      "special": true
    },
    {
      "id": 21,
      "content": "<[PLHD21_never_used]>",
      "single_word": false,
      "lstrip": false,
      "rstrip": false,
      "normalized": false,
      "special": true
    },
    {
      "id": 22,
      "content": "<[PLHD22_never_used]>",
      "single_word": false,
      "lstrip": false,
      "rstrip": false,
      "normalized": false,
      "special": true
    },
    {
      "id": 23,
      "content": "<[PLHD23_never_used]>",
      "single_word": false,
      "lstrip": false,
      "rstrip": false,
      "normalized": false,
      "special": true
    },
    {
      "id": 24,
      "content": "<[PLHD24_never_used]>",
      "single_word": false,
      "lstrip": false,
      "rstrip": false,
      "normalized": false,
      "special": true
    },
    {
      "id": 25,
      "content": "<[PLHD25_never_used]>",
      "single_word": false,
      "lstrip": false,
      "rstrip": false,
      "normalized": false,
      "special": true
    },
    {
      "id": 26,
      "content": "<[PLHD26_never_used]>",
      "single_word": false,
      "lstrip": false,
      "rstrip": false,
      "normalized": false,
      "special": true
    },
    {
      "id": 27,
      "content": "<[PLHD27_never_used]>",
      "single_word": false,
      "lstrip": false,
      "rstrip": false,
      "normalized": false,
      "special": true
    },
    {
      "id": 28,
      "content": "<[PLHD28_never_used]>",
      "single_word": false,
      "lstrip": false,
      "rstrip": false,
      "normalized": false,
      "special": true
    },
    {
      "id": 29,
      "content": "<[PLHD29_never_used]>",
      "single_word": false,
      "lstrip": false,
      "rstrip": false,
      "normalized": false,
      "special": true
    },
    {
      "id": 30,
      "content": "<[PLHD30_never_used]>",
      "single_word": false,
      "lstrip": false,
      "rstrip": false,
      "normalized": false,
      "special": true
    },
    {
      "id": 31,
      "content": "<[PLHD31_never_used]>",
      "single_word": false,
      "lstrip": false,
      "rstrip": false,
      "normalized": false,
      "special": true
    },
    {
      "id": 32,
      "content": "<[PLHD32_never_used]>",
      "single_word": false,
      "lstrip": false,
      "rstrip": false,
      "normalized": false,
      "special": true
    },
    {
      "id": 33,
      "content": "<[PLHD33_never_used]>",
      "single_word": false,
      "lstrip": false,
      "rstrip": false,
      "normalized": false,
      "special": true
    },
    {
      "id": 34,
      "content": "<[PLHD34_never_used]>",
      "single_word": false,
      "lstrip": false,
      "rstrip": false,
      "normalized": false,
      "special": true
    },
    {
      "id": 35,
      "content": "<[PLHD35_never_used]>",
      "single_word": false,
      "lstrip": false,
      "rstrip": false,
      "normalized": false,
      "special": true
    },
    {
      "id": 36,
      "content": "<[PLHD36_never_used]>",
      "single_word": false,
      "lstrip": false,
      "rstrip": false,
      "normalized": false,
      "special": true
    },
    {
      "id": 37,
      "content": "<[PLHD37_never_used]>",
      "single_word": false,
      "lstrip": false,
      "rstrip": false,
      "normalized": false,
      "special": true
    },
    {
      "id": 38,
      "content": "<[PLHD38_never_used]>",
      "single_word": false,
      "lstrip": false,
      "rstrip": false,
      "normalized": false,
      "special": true
    },
    {
      "id": 39,
      "content": "<[PLHD39_never_used]>",
      "single_word": false,
      "lstrip": false,
      "rstrip": false,
      "normalized": false,
      "special": true
    },
    {
      "id": 40,
      "content": "<[PLHD40_never_used]>",
      "single_word": false,
      "lstrip": false,
      "rstrip": false,
      "normalized": false,
      "special": true
    },
    {
      "id": 41,
      "content": "<[PLHD41_never_used]>",
      "single_word": false,
      "lstrip": false,
      "rstrip": false,
      "normalized": false,
      "special": true
    },
    {
      "id": 42,
      "content": "<[PLHD42_never_used]>",
      "single_word": false,
      "lstrip": false,
      "rstrip": false,
      "normalized": false,
      "special": true
    },
    {
      "id": 43,
      "content": "<[PLHD43_never_used]>",
      "single_word": false,
      "lstrip": false,
      "rstrip": false,
      "normalized": false,
      "special": true
    },
    {
      "id": 44,
      "content": "<[PLHD44_never_used]>",
      "single_word": false,
      "lstrip": false,
      "rstrip": false,
      "normalized": false,
      "special": true
    },
    {
      "id": 45,
      "content": "<[PLHD45_never_used]>",
      "single_word": false,
      "lstrip": false,
      "rstrip": false,
      "normalized": false,
      "special": true
    },
    {
      "id": 46,
      "content": "<[PLHD46_never_used]>",
      "single_word": false,
      "lstrip": false,
      "rstrip": false,
      "normalized": false,
      "special": true
    },
    {
      "id": 47,
      "content": "<[PLHD47_never_used]>",
      "single_word": false,
      "lstrip": false,
      "rstrip": false,
      "normalized": false,
      "special": true
    },
    {
      "id": 48,
      "content": "<[PLHD48_never_used]>",
      "single_word": false,
      "lstrip": false,
      "rstrip": false,
      "normalized": false,
      "special": true
    },
    {
      "id": 49,
      "content": "<[PLHD49_never_used]>",
      "single_word": false,
      "lstrip": false,
      "rstrip": false,
      "normalized": false,
      "special": true
    },
    {
      "id": 50,
      "content": "<[PLHD50_never_used]>",
      "single_word": false,
      "lstrip": false,
      "rstrip": false,
      "normalized": false,
      "special": true
    },
    {
      "id": 51,
      "content": "<[PLHD51_never_used]>",
      "single_word": false,
      "lstrip": false,
      "rstrip": false,
      "normalized": false,
      "special": true
    },
    {
      "id": 52,
      "content": "<[PLHD52_never_used]>",
      "single_word": false,
      "lstrip": false,
      "rstrip": false,
      "normalized": false,
      "special": true
    },
    {
      "id": 53,
      "content": "<[PLHD53_never_used]>",
      "single_word": false,
      "lstrip": false,
      "rstrip": false,
      "normalized": false,
      "special": true
    },
    {
      "id": 54,
      "content": "<[PLHD54_never_used]>",
      "single_word": false,
      "lstrip": false,
      "rstrip": false,
      "normalized": false,
      "special": true
    },
    {
      "id": 55,
      "content": "<[PLHD55_never_used]>",
      "single_word": false,
      "lstrip": false,
      "rstrip": false,
      "normalized": false,
      "special": true
    },
    {
      "id": 56,
      "content": "<[PLHD56_never_used]>",
      "single_word": false,
      "lstrip": false,
      "rstrip": false,
      "normalized": false,
      "special": true
    },
    {
      "id": 57,
      "content": "<[PLHD57_never_used]>",
      "single_word": false,
      "lstrip": false,
      "rstrip": false,
      "normalized": false,
      "special": true
    },
    {
      "id": 58,
      "content": "<[PLHD58_never_used]>",
      "single_word": false,
      "lstrip": false,
      "rstrip": false,
      "normalized": false,
      "special": true
    },
    {
      "id": 59,
      "content": "<[PLHD59_never_used]>",
      "single_word": false,
      "lstrip": false,
      "rstrip": false,
      "normalized": false,
      "special": true
    },
    {
      "id": 60,
      "content": "<[PLHD60_never_used]>",
      "single_word": false,
      "lstrip": false,
      "rstrip": false,
      "normalized": false,
      "special": true
    },
    {
      "id": 61,
      "content": "<[PLHD61_never_used]>",
      "single_word": false,
      "lstrip": false,
      "rstrip": false,
      "normalized": false,
      "special": true
    },
    {
      "id": 62,
      "content": "<[PLHD62_never_used]>",
      "single_word": false,
      "lstrip": false,
      "rstrip": false,
      "normalized": false,
      "special": true
    },
    {
      "id": 63,
      "content": "<[PLHD63_never_used]>",
      "single_word": false,
      "lstrip": false,
      "rstrip": false,
      "normalized": false,
      "special": true
    },
    {
      "id": 64,
      "content": "<[PLHD64_never_used]>",
      "single_word": false,
      "lstrip": false,
      "rstrip": false,
      "normalized": false,
      "special": true
    },
    {
      "id": 65,
      "content": "<[PLHD65_never_used]>",
      "single_word": false,
      "lstrip": false,
      "rstrip": false,
      "normalized": false,
      "special": true
    },
    {
      "id": 66,
      "content": "<[PLHD66_never_used]>",
      "single_word": false,
      "lstrip": false,
      "rstrip": false,
      "normalized": false,
      "special": true
    },
    {
      "id": 67,
      "content": "<[PLHD67_never_used]>",
      "single_word": false,
      "lstrip": false,
      "rstrip": false,
      "normalized": false,
      "special": true
    },
    {
      "id": 68,
      "content": "<[PLHD68_never_used]>",
      "single_word": false,
      "lstrip": false,
      "rstrip": false,
      "normalized": false,
      "special": true
    },
    {
      "id": 69,
      "content": "<[PLHD69_never_used]>",
      "single_word": false,
      "lstrip": false,
      "rstrip": false,
      "normalized": false,
      "special": true
    },
    {
      "id": 70,
      "content": "<[PLHD70_never_used]>",
      "single_word": false,
      "lstrip": false,
      "rstrip": false,
      "normalized": false,
      "special": true
    },
    {
      "id": 71,
      "content": "<[PLHD71_never_used]>",
      "single_word": false,
      "lstrip": false,
      "rstrip": false,
      "normalized": false,
      "special": true
    },
    {
      "id": 72,
      "content": "<[PLHD72_never_used]>",
      "single_word": false,
      "lstrip": false,
      "rstrip": false,
      "normalized": false,
      "special": true
    },
    {
      "id": 73,
      "content": "<[PLHD73_never_used]>",
      "single_word": false,
      "lstrip": false,
      "rstrip": false,
      "normalized": false,
      "special": true
    },
    {
      "id": 74,
      "content": "<[PLHD74_never_used]>",
      "single_word": false,
      "lstrip": false,
      "rstrip": false,
      "normalized": false,
      "special": true
    },
    {
      "id": 75,
      "content": "<[PLHD75_never_used]>",
      "single_word": false,
      "lstrip": false,
      "rstrip": false,
      "normalized": false,
      "special": true
    },
    {
      "id": 76,
      "content": "<[PLHD76_never_used]>",
      "single_word": false,
      "lstrip": false,
      "rstrip": false,
      "normalized": false,
      "special": true
    },
    {
      "id": 77,
      "content": "<[PLHD77_never_used]>",
      "single_word": false,
      "lstrip": false,
      "rstrip": false,
      "normalized": false,
      "special": true
    },
    {
      "id": 78,
      "content": "<[PLHD78_never_used]>",
      "single_word": false,
      "lstrip": false,
      "rstrip": false,
      "normalized": false,
      "special": true
    },
    {
      "id": 79,
      "content": "<[PLHD79_never_used]>",
      "single_word": false,
      "lstrip": false,
      "rstrip": false,
      "normalized": false,
      "special": true
    },
    {
      "id": 80,
      "content": "<[PLHD80_never_used]>",
      "single_word": false,
      "lstrip": false,
      "rstrip": false,
      "normalized": false,
      "special": true
    },
    {
      "id": 81,
      "content": "<[PLHD81_never_used]>",
      "single_word": false,
      "lstrip": false,
      "rstrip": false,
      "normalized": false,
      "special": true
    },
    {
      "id": 82,
      "content": "<[PLHD82_never_used]>",
      "single_word": false,
      "lstrip": false,
      "rstrip": false,
      "normalized": false,
      "special": true
    },
    {
      "id": 83,
      "content": "<[PLHD83_never_used]>",
      "single_word": false,
      "lstrip": false,
      "rstrip": false,
      "normalized": false,
      "special": true
    },
    {
      "id": 84,
      "content": "<[PLHD84_never_used]>",
      "single_word": false,
      "lstrip": false,
      "rstrip": false,
      "normalized": false,
      "special": true
    },
    {
      "id": 85,
      "content": "<[PLHD85_never_used]>",
      "single_word": false,
      "lstrip": false,
      "rstrip": false,
      "normalized": false,
      "special": true
    },
    {
      "id": 86,
      "content": "<[PLHD86_never_used]>",
      "single_word": false,
      "lstrip": false,
      "rstrip": false,
      "normalized": false,
      "special": true
    },
    {
      "id": 87,
      "content": "<[PLHD87_never_used]>",
      "single_word": false,
      "lstrip": false,
      "rstrip": false,
      "normalized": false,
      "special": true
    },
    {
      "id": 88,
      "content": "<[PLHD88_never_used]>",
      "single_word": false,
      "lstrip": false,
      "rstrip": false,
      "normalized": false,
      "special": true
    },
    {
      "id": 89,
      "content": "<[PLHD89_never_used]>",
      "single_word": false,
      "lstrip": false,
      "rstrip": false,
      "normalized": false,
      "special": true
    },
    {
      "id": 90,
      "content": "<[PLHD90_never_used]>",
      "single_word": false,
      "lstrip": false,
      "rstrip": false,
      "normalized": false,
      "special": true
    },
    {
      "id": 91,
      "content": "<[PLHD91_never_used]>",
      "single_word": false,
      "lstrip": false,
      "rstrip": false,
      "normalized": false,
      "special": true
    },
    {
      "id": 92,
      "content": "<[PLHD92_never_used]>",
      "single_word": false,
      "lstrip": false,
      "rstrip": false,
      "normalized": false,
      "special": true
    },
    {
      "id": 93,
      "content": "<[PLHD93_never_used]>",
      "single_word": false,
      "lstrip": false,
      "rstrip": false,
      "normalized": false,
      "special": true
    },
    {
      "id": 94,
      "content": "<[PLHD94_never_used]>",
      "single_word": false,
      "lstrip": false,
      "rstrip": false,
      "normalized": false,
      "special": true
    },
    {
      "id": 95,
      "content": "<[PLHD95_never_used]>",
      "single_word": false,
      "lstrip": false,
      "rstrip": false,
      "normalized": false,
      "special": true
    },
    {
      "id": 96,
      "content": "<[PLHD96_never_used]>",
      "single_word": false,
      "lstrip": false,
      "rstrip": false,
      "normalized": false,
      "special": true
    },
    {
      "id": 97,
      "content": "<[PLHD97_never_used]>",
      "single_word": false,
      "lstrip": false,
      "rstrip": false,
      "normalized": false,
      "special": true
    },
    {
      "id": 98,
      "content": "<[PLHD98_never_used]>",
      "single_word": false,
      "lstrip": false,
      "rstrip": false,
      "normalized": false,
      "special": true
    },
    {
      "id": 99,
      "content": "<[PLHD99_never_used]>",
      "single_word": false,
      "lstrip": false,
      "rstrip": false,
      "normalized": false,
      "special": true
    },
    {
      "id": 100,
      "content": "<[PLHD100_never_used]>",
      "single_word": false,
      "lstrip": false,
      "rstrip": false,
      "normalized": false,
      "special": true
    },
    {
      "id": 101,
      "content": "<[PLHD101_never_used]>",
      "single_word": false,
      "lstrip": false,
      "rstrip": false,
      "normalized": false,
      "special": true
    },
    {
      "id": 102,
      "content": "<[PLHD102_never_used]>",
      "single_word": false,
      "lstrip": false,
      "rstrip": false,
      "normalized": false,
      "special": true
    },
    {
      "id": 103,
      "content": "<[PLHD103_never_used]>",
      "single_word": false,
      "lstrip": false,
      "rstrip": false,
      "normalized": false,
      "special": true
    },
    {
      "id": 104,
      "content": "<[PLHD104_never_used]>",
      "single_word": false,
      "lstrip": false,
      "rstrip": false,
      "normalized": false,
      "special": true
    },
    {
      "id": 105,
      "content": "<[PLHD105_never_used]>",
      "single_word": false,
      "lstrip": false,
      "rstrip": false,
      "normalized": false,
      "special": true
    },
    {
      "id": 106,
      "content": "<[PLHD106_never_used]>",
      "single_word": false,
      "lstrip": false,
      "rstrip": false,
      "normalized": false,
      "special": true
    },
    {
      "id": 107,
      "content": "<[PLHD107_never_used]>",
      "single_word": false,
      "lstrip": false,
      "rstrip": false,
      "normalized": false,
      "special": true
    },
    {
      "id": 108,
      "content": "<[PLHD108_never_used]>",
      "single_word": false,
      "lstrip": false,
      "rstrip": false,
      "normalized": false,
      "special": true
    },
    {
      "id": 109,
      "content": "<[PLHD109_never_used]>",
      "single_word": false,
      "lstrip": false,
      "rstrip": false,
      "normalized": false,
      "special": true
    },
    {
      "id": 110,
      "content": "<[PLHD110_never_used]>",
      "single_word": false,
      "lstrip": false,
      "rstrip": false,
      "normalized": false,
      "special": true
    },
    {
      "id": 111,
      "content": "<[PLHD111_never_used]>",
      "single_word": false,
      "lstrip": false,
      "rstrip": false,
      "normalized": false,
      "special": true
    },
    {
      "id": 112,
      "content": "<[PLHD112_never_used]>",
      "single_word": false,
      "lstrip": false,
      "rstrip": false,
      "normalized": false,
      "special": true
    },
    {
      "id": 113,
      "content": "<[PLHD113_never_used]>",
      "single_word": false,
      "lstrip": false,
      "rstrip": false,
      "normalized": false,
      "special": true
    },
    {
      "id": 114,
      "content": "<[PLHD114_never_used]>",
      "single_word": false,
      "lstrip": false,
      "rstrip": false,
      "normalized": false,
      "special": true
    },
    {
      "id": 115,
      "content": "<[PLHD115_never_used]>",
      "single_word": false,
      "lstrip": false,
      "rstrip": false,
      "normalized": false,
      "special": true
    },
    {
      "id": 116,
      "content": "<[PLHD116_never_used]>",
      "single_word": false,
      "lstrip": false,
      "rstrip": false,
      "normalized": false,
      "special": true
    },
    {
      "id": 117,
      "content": "<[PLHD117_never_used]>",
      "single_word": false,
      "lstrip": false,
      "rstrip": false,
      "normalized": false,
      "special": true
    },
    {
      "id": 118,
      "content": "<[PLHD118_never_used]>",
      "single_word": false,
      "lstrip": false,
      "rstrip": false,
      "normalized": false,
      "special": true
    },
    {
      "id": 119,
      "content": "<[PLHD119_never_used]>",
      "single_word": false,
      "lstrip": false,
      "rstrip": false,
      "normalized": false,
      "special": true
    },
    {
      "id": 120,
      "content": "<[PLHD120_never_used]>",
      "single_word": false,
      "lstrip": false,
      "rstrip": false,
      "normalized": false,
      "special": true
    },
    {
      "id": 121,
      "content": "<[PLHD121_never_used]>",
      "single_word": false,
      "lstrip": false,
      "rstrip": false,
      "normalized": false,
      "special": true
    },
    {
      "id": 122,
      "content": "<[PLHD122_never_used]>",
      "single_word": false,
      "lstrip": false,
      "rstrip": false,
      "normalized": false,
      "special": true
    },
    {
      "id": 123,
      "content": "<[PLHD123_never_used]>",
      "single_word": false,
      "lstrip": false,
      "rstrip": false,
      "normalized": false,
      "special": true
    },
    {
      "id": 124,
      "content": "<[PLHD124_never_used]>",
      "single_word": false,
      "lstrip": false,
      "rstrip": false,
      "normalized": false,
      "special": true
    },
    {
      "id": 125,
      "content": "<[PLHD125_never_used]>",
      "single_word": false,
      "lstrip": false,
      "rstrip": false,
      "normalized": false,
      "special": true
    },
    {
      "id": 126,
      "content": "<[PLHD126_never_used]>",
      "single_word": false,
      "lstrip": false,
      "rstrip": false,
      "normalized": false,
      "special": true
    },
    {
      "id": 127,
      "content": "<[PLHD127_never_used]>",
      "single_word": false,
      "lstrip": false,
      "rstrip": false,
      "normalized": false,
      "special": true
    }
  ],
  "normalizer": {
    "type": "NFC"
  },
  "pre_tokenizer": {
    "type": "Sequence",
    "pretokenizers": [
      {
        "type": "Split",
        "pattern": {
          "Regex": "(?i:'s|'t|'re|'ve|'m|'ll|'d)|[^\r\n\\p{L}\\p{N}]?\\p{L}+|\\p{N}{1}| ?[^\\s\\p{L}\\p{N}\r\n]+|\\s*[\r\n]+|\\s+(?!\\S)|\\s+"
        },
        "behavior": "Isolated",
        "invert": false
      },
      {
        "type": "ByteLevel",
        "add_prefix_space": false,
        "trim_offsets": true,
        "use_regex": false
      }
    ]
  },
  "post_processor": {
    "type": "ByteLevel",
    "add_prefix_space": true,
    "trim_offsets": false,
    "use_regex": true
  },
  "decoder": {
    "type": "ByteLevel",
    "add_prefix_space": true,
    "trim_offsets": true,
    "use_regex": true
  },
  "model": {
    "type": "BPE",
    "dropout": null,
    "unk_token": null,
    "continuing_subword_prefix": null,
    "end_of_word_suffix": null,
    "fuse_unk": false,
    "byte_fallback": false,
    "ignore_merges": false,
    "vocab": {
      "<seed:bos>": 0,
      "<seed:pad>": 1,
      "<seed:eos>": 2,
      "<seed:think>": 3,
      "</seed:think>": 4,
      "<seed:cot_budget_reflect>": 5,
      "</seed:cot_budget_reflect>": 6,
      "<seed:tool_call>": 7,
      "</seed:tool_call>": 8,
      "<[PLHD9_never_used]>": 9,
      "<[PLHD10_never_used]>": 10,
      "<[PLHD11_never_used]>": 11,
      "<[PLHD12_never_used]>": 12,
      "<[PLHD13_never_used]>": 13,
      "<[PLHD14_never_used]>": 14,
      "<[PLHD15_never_used]>": 15,
      "<[PLHD16_never_used]>": 16,
      "<[PLHD17_never_used]>": 17,
      "<[PLHD18_never_used]>": 18,
      "<[PLHD19_never_used]>": 19,
      "<[PLHD20_never_used]>": 20,
      "<[PLHD21_never_used]>": 21,
      "<[PLHD22_never_used]>": 22,
      "<[PLHD23_never_used]>": 23,
      "<[PLHD24_never_used]>": 24,
      "<[PLHD25_never_used]>": 25,
      "<[PLHD26_never_used]>": 26,
      "<[PLHD27_never_used]>": 27,
      "<[PLHD28_never_used]>": 28,
      "<[PLHD29_never_used]>": 29,
      "<[PLHD30_never_used]>": 30,
      "<[PLHD31_never_used]>": 31,
      "<[PLHD32_never_used]>": 32,
      "<[PLHD33_never_used]>": 33,
      "<[PLHD34_never_used]>": 34,
      "<[PLHD35_never_used]>": 35,
      "<[PLHD36_never_used]>": 36,
      "<[PLHD37_never_used]>": 37,
      "<[PLHD38_never_used]>": 38,
      "<[PLHD39_never_used]>": 39,
      "<[PLHD40_never_used]>": 40,
      "<[PLHD41_never_used]>": 41,
      "<[PLHD42_never_used]>": 42,
      "<[PLHD43_never_used]>": 43,
      "<[PLHD44_never_used]>": 44,
      "<[PLHD45_never_used]>": 45,
      "<[PLHD46_never_used]>": 46,
      "<[PLHD47_never_used]>": 47,
      "<[PLHD48_never_used]>": 48,
      "<[PLHD49_never_used]>": 49,
      "<[PLHD50_never_used]>": 50,
      "<[PLHD51_never_used]>": 51,
      "<[PLHD52_never_used]>": 52,
      "<[PLHD53_never_used]>": 53,
      "<[PLHD54_never_used]>": 54,
      "<[PLHD55_never_used]>": 55,
      "<[PLHD56_never_used]>": 56,
      "<[PLHD57_never_used]>": 57,
      "<[PLHD58_never_used]>": 58,
      "<[PLHD59_never_used]>": 59,
      "<[PLHD60_never_used]>": 60,
      "<[PLHD61_never_used]>": 61,
      "<[PLHD62_never_used]>": 62,
      "<[PLHD63_never_used]>": 63,
      "<[PLHD64_never_used]>": 64,
      "<[PLHD65_never_used]>": 65,
      "<[PLHD66_never_used]>": 66,
      "<[PLHD67_never_used]>": 67,
      "<[PLHD68_never_used]>": 68,
      "<[PLHD69_never_used]>": 69,
      "<[PLHD70_never_used]>": 70,
      "<[PLHD71_never_used]>": 71,
      "<[PLHD72_never_used]>": 72,
      "<[PLHD73_never_used]>": 73,
      "<[PLHD74_never_used]>": 74,
      "<[PLHD75_never_used]>": 75,
      "<[PLHD76_never_used]>": 76,
      "<[PLHD77_never_used]>": 77,
      "<[PLHD78_never_used]>": 78,
      "<[PLHD79_never_used]>": 79,
      "<[PLHD80_never_used]>": 80,
      "<[PLHD81_never_used]>": 81,
      "<[PLHD82_never_used]>": 82,
      "<[PLHD83_never_used]>": 83,
      "<[PLHD84_never_used]>": 84,
      "<[PLHD85_never_used]>": 85,
      "<[PLHD86_never_used]>": 86,
      "<[PLHD87_never_used]>": 87,
      "<[PLHD88_never_used]>": 88,
      "<[PLHD89_never_used]>": 89,
      "<[PLHD90_never_used]>": 90,
      "<[PLHD91_never_used]>": 91,
      "<[PLHD92_never_used]>": 92,
      "<[PLHD93_never_used]>": 93,
      "<[PLHD94_never_used]>": 94,
      "<[PLHD95_never_used]>": 95,
      "<[PLHD96_never_used]>": 96,
      "<[PLHD97_never_used]>": 97,
      "<[PLHD98_never_used]>": 98,
      "<[PLHD99_never_used]>": 99,
      "<[PLHD100_never_used]>": 100,
      "<[PLHD101_never_used]>": 101,
      "<[PLHD102_never_used]>": 102,
      "<[PLHD103_never_used]>": 103,
      "<[PLHD104_never_used]>": 104,
      "<[PLHD105_never_used]>": 105,
      "<[PLHD106_never_used]>": 106,
      "<[PLHD107_never_used]>": 107,
      "<[PLHD108_never_used]>": 108,
      "<[PLHD109_never_used]>": 109,
      "<[PLHD110_never_used]>": 110,
      "<[PLHD111_never_used]>": 111,
      "<[PLHD112_never_used]>": 112,
      "<[PLHD113_never_used]>": 113,
      "<[PLHD114_never_used]>": 114,
      "<[PLHD115_never_used]>": 115,
      "<[PLHD116_never_used]>": 116,
      "<[PLHD117_never_used]>": 117,
      "<[PLHD118_never_used]>": 118,
      "<[PLHD119_never_used]>": 119,
      "<[PLHD120_never_used]>": 120,
      "<[PLHD121_never_used]>": 121,
      "<[PLHD122_never_used]>": 122,
      "<[PLHD123_never_used]>": 123,
      "<[PLHD124_never_used]>": 124,
      "<[PLHD125_never_used]>": 125,
      "<[PLHD126_never_used]>": 126,
      "<[PLHD127_never_used]>": 127,
      "!": 128,
      "\"": 129,
      "#": 130,
      "$": 131,
      "%": 132,
      "&": 133,
      "'": 134,
      "(": 135,
      ")": 136,
      "*": 137,
      "+": 138,
      ",": 139,
      "-": 140,
      ".": 141,
      "/": 142,
      "0": 143,
      "1": 144,
      "2": 145,
      "3": 146,
      "4": 147,
      "5": 148,
      "6": 149,
      "7": 150,
      "8": 151,
      "9": 152,
      ":": 153,
      ";": 154,
      "<": 155,
      "=": 156,
      ">": 157,
      "?": 158,
      "@": 159,
      "A": 160,
      "B": 161,
      "C": 162,
      "D": 163,
      "E": 164,
      "F": 165,
      "G": 166,
      "H": 167,
      "I": 168,
      "J": 169,
      "K": 170,
      "L": 171,
      "M": 172,
      "N": 173,
      "O": 174,
      "P": 175,
      "Q": 176,
      "R": 177,
      "S": 178,
      "T": 179,
      "U": 180,
      "V": 181,
      "W": 182,
      "X": 183,
      "Y": 184,
      "Z": 185,
      "[": 186,
      "\\": 187,
      "]": 188,
      "^": 189,
      "_": 190,
      "`": 191,
      "a": 192,
      "b": 193,
      "c": 194,
      "d": 195,
      "e": 196,
      "f": 197,
      "g": 198,
      "h": 199,
      "i": 200,
      "j": 201,
      "k": 202,
      "l": 203,
      "m": 204,
      "n": 205,
      "o": 206,
      "p": 207,
      "q": 208,
      "r": 209,
      "s": 210,
      "t": 211,
      "u": 212,
      "v": 213,
      "w": 214,
      "x": 215,
      "y": 216,
      "z": 217,
      "{": 218,
      "|": 219,
      "}": 220,
      "~": 221,
      "¡": 222,
      "¢": 223,
      "£": 224,
      "¤": 225,
      "¥": 226,
      "¦": 227,
      "§": 228,
      "¨": 229,
      "©": 230,
      "ª": 231,
      "«": 232,
      "¬": 233,
      "®": 234,
      "¯": 235,
      "°": 236,
      "±": 237,
      "²": 238,
      "³": 239,
      "´": 240,
      "µ": 241,
      "¶": 242,
      "·": 243,
      "¸": 244,
      "¹": 245,
      "º": 246,
      "»": 247,
      "¼": 248,
      "½": 249,
      "¾": 250,
      "¿": 251,
      "À": 252,
      "Á": 253,
      "Â": 254,
      "Ã": 255,
      "Ä": 256,
      "Å": 257,
      "Æ": 258,
      "Ç": 259,
      "È": 260,
      "É": 261,
      "Ê": 262,
      "Ë": 263,
      "Ì": 264,
      "Í": 265,
      "Î": 266,
      "Ï": 267,
      "Ð": 268,
      "Ñ": 269,
      "Ò": 270,
      "Ó": 271,
      "Ô": 272,
      "Õ": 273,
      "Ö": 274,
      "×": 275,
      "Ø": 276,
      "Ù": 277,
      "Ú": 278,
      "Û": 279,
      "Ü": 280,
      "Ý": 281,
      "Þ": 282,
      "ß": 283,
      "à": 284,
      "á": 285,
      "â": 286,
      "ã": 287,
      "ä": 288,
      "å": 289,
      "æ": 290,
      "ç": 291,
      "è": 292,
      "é": 293,
      "ê": 294,
      "ë": 295,
      "ì": 296,
      "í": 297,
      "î": 298,
      "ï": 299,
      "ð": 300,
      "ñ": 301,
      "ò": 302,
      "ó": 303,
      "ô": 304,
      "õ": 305,
      "ö": 306,
      "÷": 307,
      "ø": 308,
      "ù": 309,
      "ú": 310,
      "û": 311,
      "ü": 312,
      "ý": 313,
      "þ": 314,
      "ÿ": 315,
      "Ā": 316,
      "ā": 317,
      "Ă": 318,
      "ă": 319,
      "Ą": 320,
      "ą": 321,
      "Ć": 322,
      "ć": 323,
      "Ĉ": 324,
      "ĉ": 325,
      "Ċ": 326,
      "ċ": 327,
      "Č": 328,
      "č": 329,
      "Ď": 330,
      "ď": 331,
      "Đ": 332,
      "đ": 333,
      "Ē": 334,
      "ē": 335,
      "Ĕ": 336,
      "ĕ": 337,
      "Ė": 338,
      "ė": 339,
      "Ę": 340,
      "ę": 341,
      "Ě": 342,
      "ě": 343,
      "Ĝ": 344,
      "ĝ": 345,
      "Ğ": 346,
      "ğ": 347,
      "Ġ": 348,
      "ġ": 349,
      "Ģ": 350,
      "ģ": 351,
      "Ĥ": 352,
      "ĥ": 353,
      "Ħ": 354,
      "ħ": 355,
      "Ĩ": 356,
      "ĩ": 357,
      "Ī": 358,
      "ī": 359,
      "Ĭ": 360,
      "ĭ": 361,
      "Į": 362,
      "į": 363,
      "İ": 364,
      "ı": 365,
      "Ĳ": 366,
      "ĳ": 367,
      "Ĵ": 368,
      "ĵ": 369,
      "Ķ": 370,
      "ķ": 371,
      "ĸ": 372,
      "Ĺ": 373,
      "ĺ": 374,
      "Ļ": 375,
      "ļ": 376,
      "Ľ": 377,
      "ľ": 378,
      "Ŀ": 379,
      "ŀ": 380,
      "Ł": 381,
      "ł": 382,
      "Ń": 383,
      "ĠĠ": 384,
      "Ġt": 385,
      "in": 386,
      "Ġa": 387,
      "er": 388,
      "ï¼": 389,
      "ä¸": 390,
      "on": 391,
      "he": 392,
      "en": 393,
      "ĠĠĠĠ": 394,
      "re": 395,
      "ï¼Į": 396,
      "Ġs": 397,
      "at": 398,
      "or": 399,
      "an": 400,
      "ãĢ": 401,
      "Ġc": 402,
      "es": 403,
      "çļ": 404,
      "Ġthe": 405,
      "çļĦ": 406,
      "Ġd": 407,
      "is": 408,
      "it": 409,
      "Ġp": 410,
      "Ġw": 411,
      "Ġo": 412,
      "al": 413,
      "ar": 414,
      "äº": 415,
      "Ġf": 416,
      "Ġb": 417,
      "Ġm": 418,
      "ou": 419,
      "ed": 420,
      "ing": 421,
      "nd": 422,
      "le": 423,
      "ĠÐ": 424,
      "as": 425,
      "ic": 426,
      "æľ": 427,
      "åı": 428,
      "ãĢĤ": 429,
      "Ġin": 430,
      "ä»": 431,
      "ion": 432,
      "Ġh": 433,
      "Ġto": 434,
      "âĢ": 435,
      "om": 436,
      "Ġof": 437,
      "åħ": 438,
      "el": 439,
      "Ġand": 440,
      "å¤": 441,
      "ent": 442,
      "Ð°": 443,
      "Ġl": 444,
      "et": 445,
      "Ð¾": 446,
      "Ġn": 447,
      "è¿": 448,
      "st": 449,
      "å®": 450,
      "il": 451,
      "åĪ": 452,
      "Ġth": 453,
      "æĺ": 454,
      "ro": 455,
      "ä½": 456,
      "ĠĠĠĠĠĠĠĠ": 457,
      "åĲ": 458,
      ".Ċ": 459,
      "Ðµ": 460,
      "çĶ": 461,
      "ct": 462,
      "åľ": 463,
      "Ġe": 464,
      "ĠĠĠ": 465,
      "Ð¸": 466,
      "æĪ": 467,
      "Ġg": 468,
      "Ġre": 469,
      "id": 470,
      "ä¹": 471,
      "am": 472,
      "ãĢģ": 473,
      "ä¸Ģ": 474,
      "ut": 475,
      "ĠS": 476,
      "åĬ": 477,
      "ad": 478,
      "im": 479,
      "æĺ¯": 480,
      "Ð½": 481,
      "ç»": 482,
      "ÑĤ": 483,
      "ol": 484,
      "ĠI": 485,
      "è¯": 486,
      "ch": 487,
      "ur": 488,
      "å°": 489,
      "ot": 490,
      "ĠT": 491,
      "ÑĢ": 492,
      "åŃ": 493,
      "us": 494,
      "ig": 495,
      "Ġv": 496,
      "æĸ": 497,
      "Ġy": 498,
      "ĠA": 499,
      "Ñģ": 500,
      "ve": 501,
      "un": 502,
      "æĹ": 503,
      "åĽ": 504,
      "ĠC": 505,
      "Ġis": 506,
      "Ġde": 507,
      "ow": 508,
      "è®": 509,
      "ce": 510,
      "Ð¾Ð": 511,
      "ä¸į": 512,
      "ay": 513,
      "æľī": 514,
      "ä¼": 515,
      "æĿ": 516,
      "å¹": 517,
      "åį": 518,
      "os": 519,
      "Ġfor": 520,
      "ul": 521,
      "Ġbe": 522,
      "Ġ(": 523,
      "åľ¨": 524,
      "æī": 525,
      "ly": 526,
      "Ġon": 527,
      "ation": 528,
      "ra": 529,
      "Ġst": 530,
      "ĠM": 531,
      "äºĨ": 532,
      "em": 533,
      "od": 534,
      "à¤": 535,
      "ir": 536,
      "å·": 537,
      "éĩ": 538,
      "äºº": 539,
      "ĠP": 540,
      "ter": 541,
      "å¼": 542,
      "å¸": 543,
      "åº": 544,
      "Ġyou": 545,
      "if": 546,
      "ver": 547,
      ";Ċ": 548,
      "å¾": 549,
      "Ġk": 550,
      "ag": 551,
      "th": 552,
      "åĨ": 553,
      "è¡": 554,
      "ith": 555,
      "qu": 556,
      "ĠB": 557,
      "åĩ": 558,
      "èĢ": 559,
      "est": 560,
      "æķ": 561,
      "Ð»": 562,
      "éĢ": 563,
      "å¯": 564,
      "ĥ½": 565,
      "um": 566,
      "Ø§": 567,
      "å¥": 568,
      "åĮ": 569,
      "ri": 570,
      "Ġthat": 571,
      "Ġal": 572,
      "ab": 573,
      "è§": 574,
      "æĢ": 575,
      "Ġcon": 576,
      "ä¸Ń": 577,
      "æł": 578,
      "çĽ": 579,
      "ĠD": 580,
      "åĴ": 581,
      "ac": 582,
      "Ġan": 583,
      "æĪĳ": 584,
      "à®": 585,
      "Ġit": 586,
      "ers": 587,
      "ie": 588,
      "Ġwith": 589,
      "ä¸º": 590,
      "and": 591,
      "æĬ": 592,
      "se": 593,
      "è´": 594,
      "ist": 595,
      "ak": 596,
      "à¸": 597,
      "å¤§": 598,
      "ĠĠĠĠĠĠĠ": 599,
      "ate": 600,
      "áĥ": 601,
      "åĴĮ": 602,
      "ç§": 603,
      "Ñĥ": 604,
      "âĢľ": 605,
      "ä¸ª": 606,
      "Ġas": 607,
      "ĠH": 608,
      "çİ": 609,
      "Ġpro": 610,
      "ä»¥": 611,
      "âĢĿ": 612,
      "å¿": 613,
      "Ġwh": 614,
      "æ°": 615,
      "pp": 616,
      "ere": 617,
      "Ðº": 618,
      "¦ģ": 619,
      "Ġ=": 620,
      "ht": 621,
      "ĠL": 622,
      "èµ": 623,
      "ĠF": 624,
      "åİ": 625,
      "ĠR": 626,
      "ill": 627,
      "res": 628,
      "è¦ģ": 629,
      "å±": 630,
      "ĠW": 631,
      "çī": 632,
      "Ġse": 633,
      "éĹ": 634,
      "Ã©": 635,
      "çĶŁ": 636,
      "op": 637,
      "åŃ¦": 638,
      "ä¸Ĭ": 639,
      "ess": 640,
      "Ġr": 641,
      "ĠE": 642,
      "Ġcom": 643,
      "æŃ": 644,
      "iv": 645,
      "oc": 646,
      "æ³": 647,
      "æĹ¶": 648,
      "ant": 649,
      "ï¼ļ": 650,
      "è¿Ļ": 651,
      "æĶ": 652,
      "Ġhe": 653,
      "ort": 654,
      "å½": 655,
      "éĻ": 656,
      "éĿ": 657,
      "èĩ": 658,
      "åĳ": 659,
      "æŀ": 660,
      "çº": 661,
      "çĶ¨": 662,
      "æ²": 663,
      "end": 664,
      "ĠN": 665,
      "ĠG": 666,
      "âĢĻ": 667,
      "ĉĉ": 668,
      "pe": 669,
      "--": 670,
      "åı¯": 671,
      "Ð²": 672,
      "æİ": 673,
      "..": 674,
      "Ġj": 675,
      "Ġor": 676,
      "te": 677,
      "ä¼ļ": 678,
      "æĥ": 679,
      "çľ": 680,
      "Ġat": 681,
      "Ġu": 682,
      "èĥ½": 683,
      "Ġare": 684,
      "Ġne": 685,
      "ore": 686,
      "ä¿": 687,
      "åĪ°": 688,
      "Ġsu": 689,
      "Ġex": 690,
      "é¢": 691,
      "ld": 692,
      "ment": 693,
      "ĠØ": 694,
      "æµ": 695,
      "Ġ\"": 696,
      "rom": 697,
      "Ġha": 698,
      "art": 699,
      "çŃ": 700,
      "æĿ¥": 701,
      "å¹´": 702,
      "çĲ": 703,
      "Ð´": 704,
      "ä½ľ": 705,
      "æ¯": 706,
      "ain": 707,
      "ĠThe": 708,
      "Ġwas": 709,
      "Ð¼": 710,
      "è¡Į": 711,
      "ass": 712,
      "è¾": 713,
      "æĦ": 714,
      "å¯¹": 715,
      "Ġen": 716,
      "og": 717,
      "è½": 718,
      "ity": 719,
      "Ġle": 720,
      "ik": 721,
      "Ñı": 722,
      "ap": 723,
      "åıĳ": 724,
      "čĊ": 725,
      "åĽ½": 726,
      "ĠĠĠĠĠĠĠĠĠĠĠĠĠĠĠĠ": 727,
      "åĩº": 728,
      "å°±": 729,
      "à°": 730,
      "å¦": 731,
      "æĭ": 732,
      "ud": 733,
      "ĊĊ": 734,
      "Ġthis": 735,
      "ia": 736,
      "æĮ": 737,
      "åĵ": 738,
      "åĪĨ": 739,
      "Ġch": 740,
      "ine": 741,
      "ell": 742,
      "æĪĲ": 743,
      "ĠO": 744,
      "ĠÙ": 745,
      "ä¸ĭ": 746,
      "ang": 747,
      "ction": 748,
      "ight": 749,
      "å·¥": 750,
      "ok": 751,
      "ust": 752,
      "à´": 753,
      "iz": 754,
      "Ġ{": 755,
      "ä»¬": 756,
      "äºİ": 757,
      "ies": 758,
      "åľ°": 759,
      "à¦": 760,
      "ä¸ļ": 761,
      "all": 762,
      "å¤ļ": 763,
      "æĸ¹": 764,
      "éĺ": 765,
      "pt": 766,
      "ame": 767,
      "pl": 768,
      "Ġnot": 769,
      "Ñĭ": 770,
      "èĤ": 771,
      "åĲİ": 772,
      ");Ċ": 773,
      "ost": 774,
      "Ġun": 775,
      "ive": 776,
      "Ġwe": 777,
      "å¥½": 778,
      "åĬ¨": 779,
      "Ġcl": 780,
      "ĠJ": 781,
      "èĩª": 782,
      "ÙĦ": 783,
      "Ġby": 784,
      "ĠÐ¿": 785,
      "åī": 786,
      "ue": 787,
      "Ġsh": 788,
      "çĲĨ": 789,
      "Ġ<": 790,
      "our": 791,
      "=\"": 792,
      "ure": 793,
      "è¿ĩ": 794,
      "Ñĸ": 795,
      "çĤ": 796,
      "ard": 797,
      "Ġfrom": 798,
      "Ġus": 799,
      "ä¹Ł": 800,
      "Ġqu": 801,
      "ç®": 802,
      "å®¶": 803,
      "åŁ": 804,
      "ial": 805,
      "ind": 806,
      "éģ": 807,
      "æ±": 808,
      "ub": 809,
      "Ã¡": 810,
      "åŃĲ": 811,
      "Ġhave": 812,
      "æ´": 813,
      "æ¬": 814,
      "ä½ł": 815,
      "ç«": 816,
      ">Ċ": 817,
      "ä»ĸ": 818,
      "åģ": 819,
      "ÑģÑĤ": 820,
      "//": 821,
      "Ġcan": 822,
      "age": 823,
      "out": 824,
      "æ¸": 825,
      "ä¾": 826,
      "Ġdo": 827,
      "å°ı": 828,
      "ast": 829,
      "ff": 830,
      "per": 831,
      "ĠÎ": 832,
      "ne": 833,
      "ĠK": 834,
      "Ġtr": 835,
      "è¿Ľ": 836,
      "å®ļ": 837,
      "é«": 838,
      "çİ°": 839,
      "Ġla": 840,
      "ç¬": 841,
      "éĿ¢": 842,
      "ich": 843,
      "æ³ķ": 844,
      "é«ĺ": 845,
      "ould": 846,
      "Ø±": 847,
      "è·": 848,
      "ome": 849,
      "ç½": 850,
      "ä½ĵ": 851,
      "Ġpl": 852,
      "ÑĮ": 853,
      "ï¼ī": 854,
      "à¯": 855,
      ",Ċ": 856,
      "av": 857,
      "ack": 858,
      "hen": 859,
      "å®ŀ": 860,
      "ï¼Ī": 861,
      "Ġab": 862,
      "ip": 863,
      "åħ¬": 864,
      "ans": 865,
      "å¼Ģ": 866,
      "ĠÐ²": 867,
      "rou": 868,
      "Ġme": 869,
      "éķ": 870,
      "ĠĠĠĠĠĠĠĠĠĠĠ": 871,
      "å¿ĥ": 872,
      "are": 873,
      "æľ¬": 874,
      "é¡": 875,
      "çŁ": 876,
      "æīĢ": 877,
      "ide": 878,
      "nt": 879,
      "ç¨": 880,
      "à²": 881,
      "å¦Ĥ": 882,
      "éĥ": 883,
      "orm": 884,
      "ç»ı": 885,
      "ect": 886,
      "Ñĩ": 887,
      "ib": 888,
      "ÙĨ": 889,
      "áĢ": 890,
      "ä¹ĭ": 891,
      "ord": 892,
      "åĬĽ": 893,
      "ĠU": 894,
      "à¥": 895,
      "çĿ": 896,
      ")Ċ": 897,
      "ult": 898,
      "to": 899,
      "ire": 900,
      "ĠÑģ": 901,
      "åĲĮ": 902,
      "ĠV": 903,
      "ice": 904,
      "æı": 905,
      "éĥ½": 906,
      "able": 907,
      "ÑĢÐ°": 908,
      "å¾Ĺ": 909,
      "æĢ§": 910,
      "å¤©": 911,
      "imp": 912,
      "Ġyour": 913,
      "ä¸İ": 914,
      "**": 915,
      "cl": 916,
      "è°": 917,
      "'s": 918,
      "Ġ-": 919,
      "á»": 920,
      "åĲĪ": 921,
      "Ġ}": 922,
      "Ã¤": 923,
      "Ġall": 924,
      "ä¹Ī": 925,
      "çŃī": 926,
      "åĢ": 927,
      "ong": 928,
      "åħ¨": 929,
      "one": 930,
      "Ġ{Ċ": 931,
      "ge": 932,
      "con": 933,
      "çĤ¹": 934,
      "ä¸»": 935,
      "int": 936,
      "æĽ": 937,
      "æľº": 938,
      "ÐµÐ½": 939,
      "Ġz": 940,
      "è¯´": 941,
      "åĮĸ": 942,
      "ĠÐ½": 943,
      "æĸĩ": 944,
      "èĢĮ": 945,
      "Ġad": 946,
      "Ġi": 947,
      "Ð·": 948,
      "å»": 949,
      "tr": 950,
      "Ġà¤": 951,
      "é£": 952,
      "åħ³": 953,
      "åĿ": 954,
      "ber": 955,
      "èĬ": 956,
      "éĥ¨": 957,
      "æį": 958,
      "</": 959,
      "ÃŃ": 960,
      "Ġwill": 961,
      "æĸ°": 962,
      "è¿ĺ": 963,
      "ile": 964,
      "ime": 965,
      "Ã³": 966,
      "æŁ": 967,
      "ally": 968,
      "ated": 969,
      "ĠâĢ": 970,
      "åħ¶": 971,
      "åº¦": 972,
      "æĥħ": 973,
      "ork": 974,
      "æĹ¥": 975,
      "ov": 976,
      "ach": 977,
      "cc": 978,
      "æ°´": 979,
      "ĠIn": 980,
      "ĠTh": 981,
      "Ġcomp": 982,
      "Ġbut": 983,
      "ex": 984,
      "Ġgo": 985,
      "ç¤": 986,
      "ru": 987,
      "éĽ": 988,
      "éĹ´": 989,
      "äº§": 990,
      "äºĭ": 991,
      "ase": 992,
      "çĶµ": 993,
      "Ġso": 994,
      "æĻ": 995,
      "ĠØ§": 996,
      "ç¾": 997,
      "èī": 998,
      "Î±": 999,
      "ÙĬ": 1000,
      "åı¯ä»¥": 1001,
      "ear": 1002,
      "act": 1003,
      "ens": 1004,
      "çľĭ": 1005,
      "éĤ": 1006,
      "Ġ'": 1007,
      "ite": 1008,
      "åīį": 1009,
      "Ð¾Ð²": 1010,
      "ep": 1011,
      "çĦ": 1012,
      "Ġif": 1013,
      "åºĶ": 1014,
      "åĬł": 1015,
      "lic": 1016,
      "éĢļ": 1017,
      "Ġ×": 1018,
      "her": 1019,
      "ç§į": 1020,
      "è¶": 1021,
      "ÙĪ": 1022,
      "éķ¿": 1023,
      "å¸Ĥ": 1024,
      "æľĢ": 1025,
      "ÏĦ": 1026,
      "Ð¿": 1027,
      "ĠÃ": 1028,
      "ous": 1029,
      "ook": 1030,
      "ÛĮ": 1031,
      "Ñħ": 1032,
      "Ġres": 1033,
      "éĩį": 1034,
      "du": 1035,
      "Ġper": 1036,
      "urn": 1037,
      "æĦı": 1038,
      "éļ": 1039,
      "éĩı": 1040,
      "Ġout": 1041,
      "ç³": 1042,
      "ng": 1043,
      "åĨħ": 1044,
      "çĿĢ": 1045,
      "Ð¹": 1046,
      "ä¸Ģä¸ª": 1047,
      "éģĵ": 1048,
      "èĢħ": 1049,
      "ign": 1050,
      "çī©": 1051,
      "èģ": 1052,
      "Ġ*": 1053,
      "ance": 1054,
      "ll": 1055,
      "æľĪ": 1056,
      "Ġhas": 1057,
      "ace": 1058,
      "ç¬¬": 1059,
      "âĢĻs": 1060,
      "ck": 1061,
      "å»º": 1062,
      "The": 1063,
      "Î¿": 1064,
      "æ¶": 1065,
      "Ġar": 1066,
      "Ġmy": 1067,
      "è®¾": 1068,
      "å¾Ī": 1069,
      "æķ°": 1070,
      "ry": 1071,
      "Ð³": 1072,
      "ence": 1073,
      "gh": 1074,
      "éĶ": 1075,
      "å§": 1076,
      "ï¼Ł": 1077,
      "Ġcont": 1078,
      "ï¼Ľ": 1079,
      "ob": 1080,
      "åĪ¶": 1081,
      "fer": 1082,
      "éĩĮ": 1083,
      "çĪ": 1084,
      "ake": 1085,
      "ç©": 1086,
      "Ùħ": 1087,
      "ther": 1088,
      "ition": 1089,
      "é¢ĺ": 1090,
      "ata": 1091,
      "ä½į": 1092,
      "åĽł": 1093,
      "Øª": 1094,
      "æķĻ": 1095,
      "ä¸ī": 1096,
      "Ġdes": 1097,
      "----": 1098,
      "ress": 1099,
      "com": 1100,
      "Ġup": 1101,
      "æ²¡": 1102,
      "Ð°Ð½": 1103,
      "æŀľ": 1104,
      "çĽ¸": 1105,
      "çĹ": 1106,
      "éľ": 1107,
      "ail": 1108,
      "ĠÐ¸": 1109,
      "æıĲ": 1110,
      "åıĬ": 1111,
      "æ¡": 1112,
      "çĻ": 1113,
      "so": 1114,
      "èµ·": 1115,
      "çĦ¶": 1116,
      ").": 1117,
      "ĠY": 1118,
      "form": 1119,
      "Ø¯": 1120,
      "ary": 1121,
      "Ġclass": 1122,
      "æľŁ": 1123,
      "éħ": 1124,
      "de": 1125,
      "æģ": 1126,
      "å¢": 1127,
      "ĠÐ¾": 1128,
      "çĸ": 1129,
      "åĮº": 1130,
      "Ġsp": 1131,
      "ç¨ĭ": 1132,
      "Ð±": 1133,
      "get": 1134,
      "Î¹": 1135,
      "æĺİ": 1136,
      "å½ĵ": 1137,
      "åİ»": 1138,
      "Ġhis": 1139,
      "ä¿Ŀ": 1140,
      "åĵģ": 1141,
      "ents": 1142,
      "Ġthey": 1143,
      "ç®¡": 1144,
      "åħ¥": 1145,
      "ont": 1146,
      "ç¡": 1147,
      "ĠÐº": 1148,
      "æĪĳä»¬": 1149,
      "ical": 1150,
      "çł": 1151,
      "æ¯Ķ": 1152,
      "å®ī": 1153,
      "Ġman": 1154,
      "çĥ": 1155,
      "Ġund": 1156,
      "Ġsa": 1157,
      "æ´»": 1158,
      "Ġpr": 1159,
      "),": 1160,
      "è¡¨": 1161,
      "Ġdis": 1162,
      "Ġone": 1163,
      "ç±": 1164,
      "ç¥": 1165,
      "èĥ": 1166,
      "çķ": 1167,
      "Ġpre": 1168,
      "å¸¸": 1169,
      "èĭ": 1170,
      "io": 1171,
      "å±ķ": 1172,
      "td": 1173,
      "éĤ£": 1174,
      "è§£": 1175,
      "Ùĩ": 1176,
      "éĴ": 1177,
      "Ġel": 1178,
      "ç³»": 1179,
      "ose": 1180,
      "æĹł": 1181,
      "åĬ¡": 1182,
      "æīĭ": 1183,
      "ations": 1184,
      "ĠSt": 1185,
      "ç´": 1186,
      "å¤ĸ": 1187,
      "Ġapp": 1188,
      "ĠÐ´": 1189,
      "çĽ®": 1190,
      "å¹³": 1191,
      "ç²": 1192,
      "æĥ³": 1193,
      "Ġmore": 1194,
      "erv": 1195,
      "åķ": 1196,
      "Ġro": 1197,
      "Ġdi": 1198,
      "ink": 1199,
      "ÑĢÐµ": 1200,
      "èµĦ": 1201,
      "Ġte": 1202,
      "ÑĨ": 1203,
      "li": 1204,
      "èį": 1205,
      "lo": 1206,
      "æŃ£": 1207,
      "ç¼": 1208,
      "ĠĠĠĠĠ": 1209,
      "è¢": 1210,
      "èĲ": 1211,
      "æĪĸ": 1212,
      "ike": 1213,
      "æł·": 1214,
      "Ġ$": 1215,
      "ions": 1216,
      "Ġget": 1217,
      "Ã¼": 1218,
      "ert": 1219,
      "èĪ": 1220,
      "äºĮ": 1221,
      "ount": 1222,
      "à¯į": 1223,
      "Ġam": 1224,
      "ah": 1225,
      "Ġnew": 1226,
      "æ¬¡": 1227,
      "äºĽ": 1228,
      "ä½Ĩ": 1229,
      "ä»İ": 1230,
      "å°Ĩ": 1231,
      "ä¿¡": 1232,
      "àµ": 1233,
      "Ġtheir": 1234,
      "çģ": 1235,
      "è®¡": 1236,
      "own": 1237,
      "che": 1238,
      "sp": 1239,
      "æ·": 1240,
      "åģļ": 1241,
      "ick": 1242,
      "Ä±": 1243,
      "å·¥ä½ľ": 1244,
      "Ġwhich": 1245,
      "åľº": 1246,
      "åĲį": 1247,
      "ark": 1248,
      "ç»ĵ": 1249,
      "èĦ": 1250,
      "æĽ´": 1251,
      "ft": 1252,
      "éĹ®": 1253,
      "åĸ": 1254,
      "Î½": 1255,
      "åĳĺ": 1256,
      "ely": 1257,
      "çŁ¥": 1258,
      "ï¼ģ": 1259,
      "we": 1260,
      "å·±": 1261,
      "æĦŁ": 1262,
      "ä½¿": 1263,
      "éĩĳ": 1264,
      "å¹¶": 1265,
      "å¼ı": 1266,
      "è½¦": 1267,
      "Ġfe": 1268,
      "æİ¥": 1269,
      "ãĢĭ": 1270,
      "æ°ĳ": 1271,
      "Ġabout": 1272,
      "ÑĪ": 1273,
      "ph": 1274,
      "vel": 1275,
      "ãĢĬ": 1276,
      "ree": 1277,
      "ath": 1278,
      "ors": 1279,
      "å£": 1280,
      "ci": 1281,
      "à¶": 1282,
      "ĠCh": 1283,
      "Ġet": 1284,
      "à¹": 1285,
      "ory": 1286,
      "Ġno": 1287,
      "ç¾İ": 1288,
      "ĠÐ½Ð°": 1289,
      "èĩªå·±": 1290,
      "èº": 1291,
      "ĠĠĠĠĠĠĠĠĠĠĠĠĠĠĠ": 1292,
      "Ġev": 1293,
      "åĪ©": 1294,
      "ild": 1295,
      "è·¯": 1296,
      "Ġher": 1297,
      "Ã¶": 1298,
      "Îµ": 1299,
      "Ġpart": 1300,
      "==": 1301,
      "ä»¶": 1302,
      "In": 1303,
      "ÑĢÐ¸": 1304,
      "åŁº": 1305,
      "Ġtime": 1306,
      "çī¹": 1307,
      "ings": 1308,
      "Ġag": 1309,
      "æĤ": 1310,
      "reat": 1311,
      "ĠØ§ÙĦ": 1312,
      "Ġpar": 1313,
      "éª": 1314,
      "àª": 1315,
      "Ð°Ð»": 1316,
      "turn": 1317,
      "Ð¾Ð´": 1318,
      "è£": 1319,
      "Ġinter": 1320,
      "ä»£": 1321,
      "ä¸¤": 1322,
      "åıª": 1323,
      "xt": 1324,
      "elf": 1325,
      "Ġwere": 1326,
      "è¢«": 1327,
      "Ð¾Ð»": 1328,
      "ock": 1329,
      "åİŁ": 1330,
      "ays": 1331,
      "áº": 1332,
      "()": 1333,
      "é¦": 1334,
      "ĠÑĤ": 1335,
      "Ġany": 1336,
      "ek": 1337,
      "èĢĥ": 1338,
      "æ°Ķ": 1339,
      "éĵ": 1340,
      "Ġwho": 1341,
      "Ġimp": 1342,
      "aus": 1343,
      "æŃ¤": 1344,
      "Ġwork": 1345,
      "æ»": 1346,
      "Ð¾Ð¼": 1347,
      "èº«": 1348,
      "ug": 1349,
      "è´¨": 1350,
      "åı¸": 1351,
      "cre": 1352,
      "ty": 1353,
      "Ġpe": 1354,
      "à·": 1355,
      "åįķ": 1356,
      "ery": 1357,
      "Ð°ÑĤ": 1358,
      "Ġsome": 1359,
      "ian": 1360,
      "Ġthere": 1361,
      "ys": 1362,
      "Ġhad": 1363,
      "æľ¯": 1364,
      "ound": 1365,
      "ode": 1366,
      "ject": 1367,
      "div": 1368,
      "æį®": 1369,
      "Ġem": 1370,
      "ĠIt": 1371,
      "åĲĳ": 1372,
      "éľĢ": 1373,
      "iew": 1374,
      "iss": 1375,
      "ä»Ģ": 1376,
      "ĠÐ¼": 1377,
      "âĢĶ": 1378,
      "enc": 1379,
      "æłĩ": 1380,
      "Ð½Ð¸": 1381,
      "åħĥ": 1382,
      "'t": 1383,
      "åŀ": 1384,
      "old": 1385,
      "å¸Ī": 1386,
      "èĢģ": 1387,
      "ade": 1388,
      "æ²¡æľī": 1389,
      "\">": 1390,
      "ä»Ģä¹Ī": 1391,
      "ater": 1392,
      "ove": 1393,
      "row": 1394,
      "ps": 1395,
      "å¯¼": 1396,
      "ç»Ħ": 1397,
      "yst": 1398,
      "å¼º": 1399,
      "å¤Ħ": 1400,
      "ual": 1401,
      "äº¤": 1402,
      "à±": 1403,
      "ss": 1404,
      "Ġover": 1405,
      "itt": 1406,
      "ç¦": 1407,
      "Ġalso": 1408,
      "ond": 1409,
      "æ±Ĥ": 1410,
      "çº¿": 1411,
      "ç§ĳ": 1412,
      "æĬĢ": 1413,
      "az": 1414,
      "Ġkn": 1415,
      "åıĺ": 1416,
      "eg": 1417,
      "Ġlike": 1418,
      "æ£": 1419,
      "æµģ": 1420,
      "éĢī": 1421,
      "Ñİ": 1422,
      "æĶ¿": 1423,
      "Ġwhen": 1424,
      "Ġbeen": 1425,
      "Ġthem": 1426,
      "çĶ±": 1427,
      "ĠÐ±": 1428,
      "æľį": 1429,
      "åĲĦ": 1430,
      "æº": 1431,
      "é©": 1432,
      "Ø³": 1433,
      "ç»Ļ": 1434,
      "ĠÐ·": 1435,
      "è§Ħ": 1436,
      "é¡¹": 1437,
      "Ġwould": 1438,
      "oll": 1439,
      "ĠâĢľ": 1440,
      "é£İ": 1441,
      "å½¢": 1442,
      "Ġer": 1443,
      "Ġour": 1444,
      "Ġother": 1445,
      "è®©": 1446,
      "èī²": 1447,
      "eth": 1448,
      "ublic": 1449,
      "Ïģ": 1450,
      "åįģ": 1451,
      "åı£": 1452,
      "Ġ[": 1453,
      "Ð¾Ð³": 1454,
      "Ġjust": 1455,
      "åĪ«": 1456,
      "Ġwhat": 1457,
      "ish": 1458,
      "ÐµÑĤ": 1459,
      "è¿Ľè¡Į": 1460,
      "ç½ĳ": 1461,
      "é»": 1462,
      "éĻ¢": 1463,
      "erm": 1464,
      "Ġim": 1465,
      "Ïĥ": 1466,
      "ull": 1467,
      "Ġì": 1468,
      "å°ĳ": 1469,
      "ari": 1470,
      "amp": 1471,
      "ç»Ł": 1472,
      "irst": 1473,
      "è¿Ĳ": 1474,
      "åĽŀ": 1475,
      "æĮĩ": 1476,
      "anc": 1477,
      "wo": 1478,
      "gr": 1479,
      "Ð¾ÑĢ": 1480,
      "åħ¬åı¸": 1481,
      "¥¿": 1482,
      "fter": 1483,
      "lect": 1484,
      "ĉĉĉĉ": 1485,
      "ä»»": 1486,
      "ÐµÑĢ": 1487,
      "ier": 1488,
      "Ġ&": 1489,
      "ung": 1490,
      "Ġà®": 1491,
      "eng": 1492,
      "Ġest": 1493,
      "à¤¾": 1494,
      "Ð¶": 1495,
      "up": 1496,
      "ank": 1497,
      "ale": 1498,
      "Ġque": 1499,
      "__": 1500,
      "èĻ": 1501,
      "æĶ¶": 1502,
      "å¤´": 1503,
      "ons": 1504,
      "è¥¿": 1505,
      "æł¼": 1506,
      "ec": 1507,
      "×Ļ": 1508,
      "ÑģÐº": 1509,
      "ann": 1510,
      "æ²»": 1511,
      "Ġpo": 1512,
      "?Ċ": 1513,
      "Ġob": 1514,
      "Ġyear": 1515,
      "ef": 1516,
      "çľŁ": 1517,
      "pec": 1518,
      "å·²": 1519,
      "Ġdel": 1520,
      "ize": 1521,
      "ÐµÐ»": 1522,
      "ific": 1523,
      "áŀ": 1524,
      "Ġacc": 1525,
      "éĹ¨": 1526,
      "very": 1527,
      "pr": 1528,
      "ä»·": 1529,
      "çĽ´": 1530,
      "aj": 1531,
      "the": 1532,
      "mer": 1533,
      "åħ·": 1534,
      "æ¯ı": 1535,
      "les": 1536,
      "igh": 1537,
      "Ġ:": 1538,
      "Ġder": 1539,
      "oy": 1540,
      "ener": 1541,
      "ä¹ł": 1542,
      "æĶ¾": 1543,
      "æīĵ": 1544,
      "vers": 1545,
      "èĮ": 1546,
      "æ®": 1547,
      "è§ģ": 1548,
      "åĻ": 1549,
      "Ãł": 1550,
      "Ġbl": 1551,
      "ä¸ĵ": 1552,
      "uch": 1553,
      "oss": 1554,
      "æĬĬ": 1555,
      "æĮģ": 1556,
      "æķĪ": 1557,
      "rib": 1558,
      "iel": 1559,
      "und": 1560,
      "ä¸ľ": 1561,
      "ĠÙħ": 1562,
      "ä¹¦": 1563,
      "âĢ¦": 1564,
      "Th": 1565,
      "ise": 1566,
      "ç¡®": 1567,
      "ä¼ł": 1568,
      "...": 1569,
      "ç«ĭ": 1570,
      "æĢ»": 1571,
      "è°ĥ": 1572,
      "Ġshe": 1573,
      "æ¢": 1574,
      "ç¤¾": 1575,
      "Ġco": 1576,
      "port": 1577,
      "æŁ¥": 1578,
      "ke": 1579,
      "Ġbet": 1580,
      "\",": 1581,
      "åıĹ": 1582,
      "ystem": 1583,
      "æµ·": 1584,
      "ax": 1585,
      "å°±æĺ¯": 1586,
      "è¯ģ": 1587,
      "æĬ¥": 1588,
      "å²": 1589,
      "å±±": 1590,
      "à¯įà®": 1591,
      ":Ċ": 1592,
      "Ġhow": 1593,
      "Ġinto": 1594,
      "çº§": 1595,
      "ric": 1596,
      "åĽ¾": 1597,
      "sh": 1598,
      "Ø¨": 1599,
      "Ġph": 1600,
      "ew": 1601,
      "ç±»": 1602,
      "clud": 1603,
      "×ķ": 1604,
      "ĠÄ": 1605,
      "Ð½Ð¾": 1606,
      "rit": 1607,
      "å®¹": 1608,
      "Ġtra": 1609,
      "Ġval": 1610,
      "å¥³": 1611,
      "ÏĢ": 1612,
      "å®Į": 1613,
      "åŀĭ": 1614,
      "è¯Ŀ": 1615,
      "Ġoff": 1616,
      "Ġreturn": 1617,
      "Ð½Ð°": 1618,
      "Ġcol": 1619,
      "ates": 1620,
      "ĠÑ": 1621,
      "èĬĤ": 1622,
      "åĮ»": 1623,
      "åĽĽ": 1624,
      "****": 1625,
      "au": 1626,
      "(\"": 1627,
      "let": 1628,
      "ç¤º": 1629,
      "ople": 1630,
      "ni": 1631,
      "åħĪ": 1632,
      "è¯¥": 1633,
      "Ġcomm": 1634,
      "ä¸ŃåĽ½": 1635,
      "èĤ²": 1636,
      "Ġmay": 1637,
      "Ġthan": 1638,
      "åĻ¨": 1639,
      "pect": 1640,
      "æ³¨": 1641,
      "æł¡": 1642,
      "ï¿": 1643,
      "è®°": 1644,
      "Ġneed": 1645,
      "åħī": 1646,
      "round": 1647,
      "Ġes": 1648,
      "Ð¸ÑĤ": 1649,
      "æ¸ħ": 1650,
      "å¸¦": 1651,
      "ĠWe": 1652,
      "çĹħ": 1653,
      "æ¡Ī": 1654,
      "çĪ±": 1655,
      "Ġdif": 1656,
      "å½±": 1657,
      "è¾ĥ": 1658,
      "éĹ®é¢ĺ": 1659,
      "ating": 1660,
      "ype": 1661,
      "è±": 1662,
      "ï¿½": 1663,
      "çĬ": 1664,
      "ĠHe": 1665,
      "Ġact": 1666,
      "olog": 1667,
      "ĠÐ³": 1668,
      "è®¤": 1669,
      "Ġstr": 1670,
      "è£ħ": 1671,
      "cess": 1672,
      "##": 1673,
      "Ġits": 1674,
      "å¤ĩ": 1675,
      "Ġint": 1676,
      "Ġsc": 1677,
      "åıĳå±ķ": 1678,
      "ause": 1679,
      "put": 1680,
      "èĬ±": 1681,
      "åıĸ": 1682,
      "ĠâĢĵ": 1683,
      "Ġass": 1684,
      "æĹ¶éĹ´": 1685,
      "å¥¹": 1686,
      "ÏĤ": 1687,
      "Ġknow": 1688,
      "Ġra": 1689,
      "pro": 1690,
      "åķĨ": 1691,
      "Ø©": 1692,
      "ä¸ĩ": 1693,
      "èİ": 1694,
      "ption": 1695,
      "à§": 1696,
      "å®ĥ": 1697,
      "æķ´": 1698,
      "Ġback": 1699,
      "æ¨": 1700,
      "Ġset": 1701,
      "Ġ+": 1702,
      "ient": 1703,
      "è¿Ļä¸ª": 1704,
      "Ġbec": 1705,
      "tt": 1706,
      "Ġonly": 1707,
      "åįĹ": 1708,
      "ble": 1709,
      "Ġ}Ċ": 1710,
      "çħ": 1711,
      "æĸĻ": 1712,
      "æ¼": 1713,
      "ĠThis": 1714,
      "çĻ½": 1715,
      "of": 1716,
      "åĨį": 1717,
      "åı·": 1718,
      "æīį": 1719,
      "å¦Ĥæŀľ": 1720,
      "éĢł": 1721,
      "Ġent": 1722,
      "åŃĹ": 1723,
      "Ġmod": 1724,
      "Ġrec": 1725,
      ";čĊ": 1726,
      "Ġcons": 1727,
      "åĨµ": 1728,
      "Ġreg": 1729,
      "ĠØ¨": 1730,
      "Ġadd": 1731,
      "Ġrel": 1732,
      "Ð½Ñĭ": 1733,
      "ĠÑĥ": 1734,
      "ç½®": 1735,
      "åĦ": 1736,
      "Ġke": 1737,
      "æĿ¡": 1738,
      "ange": 1739,
      "ix": 1740,
      "Î·": 1741,
      "ER": 1742,
      "ning": 1743,
      "åħ±": 1744,
      "èħ": 1745,
      "Ġbu": 1746,
      "ĠÂ": 1747,
      "ç²¾": 1748,
      "åĮħ": 1749,
      "éŁ": 1750,
      "à¨": 1751,
      "çłĶ": 1752,
      "Ïħ": 1753,
      "èĩ³": 1754,
      "æĢĿ": 1755,
      "à³": 1756,
      "Ġfirst": 1757,
      "æģ¯": 1758,
      "ev": 1759,
      "è´¹": 1760,
      "der": 1761,
      "åıĪ": 1762,
      "->": 1763,
      "Ġ//": 1764,
      "åĩĨ": 1765,
      "Ġatt": 1766,
      "áĥĲ": 1767,
      "Ġlook": 1768,
      "åĶ": 1769,
      "riv": 1770,
      "',": 1771,
      "è½¬": 1772,
      "æł¹": 1773,
      "\"Ċ": 1774,
      "è¯ķ": 1775,
      "æŃ¥": 1776,
      "Ġfin": 1777,
      "--------": 1778,
      "Ġpeople": 1779,
      "ood": 1780,
      "ĠZ": 1781,
      "par": 1782,
      "wn": 1783,
      "St": 1784,
      "éĿŀ": 1785,
      "Ġprov": 1786,
      "åŁİ": 1787,
      "ä¸ĸ": 1788,
      "arg": 1789,
      "ÅĤ": 1790,
      "ower": 1791,
      "Ġche": 1792,
      "è¯Ń": 1793,
      "Ġunder": 1794,
      "als": 1795,
      "Ġmed": 1796,
      "å¢ŀ": 1797,
      "å¤į": 1798,
      "éľĢè¦ģ": 1799,
      "è¯Ĩ": 1800,
      "è®®": 1801,
      "åĦ¿": 1802,
      "red": 1803,
      "ç¥ŀ": 1804,
      "Ġfun": 1805,
      "ai": 1806,
      "ç©º": 1807,
      "å¿«": 1808,
      "åĬŀ": 1809,
      "any": 1810,
      "me": 1811,
      "çİ¯": 1812,
      "tern": 1813,
      "ool": 1814,
      "àµį": 1815,
      "Ø¹": 1816,
      "æŀĦ": 1817,
      "æĶ¹": 1818,
      "Ð¾ÑĤ": 1819,
      "Ð°ÑĢ": 1820,
      "è¾¾": 1821,
      "ç®¡çĲĨ": 1822,
      "çĭ": 1823,
      "ern": 1824,
      "Ġgr": 1825,
      "åıĤ": 1826,
      "Ġdie": 1827,
      "ough": 1828,
      "è®º": 1829,
      "ins": 1830,
      "::": 1831,
      "æĸ½": 1832,
      "Ġav": 1833,
      "æºĲ": 1834,
      "ĠÙĪ": 1835,
      "ular": 1836,
      "è§Ĥ": 1837,
      "èģĶ": 1838,
      "its": 1839,
      "Ġdef": 1840,
      "çı": 1841,
      "ä¼ģ": 1842,
      "æĶ¯": 1843,
      "éĺ²": 1844,
      "ement": 1845,
      "Ġprodu": 1846,
      "âĢĻt": 1847,
      "ied": 1848,
      "Ġfl": 1849,
      "Ġà¦": 1850,
      "erson": 1851,
      "é¥": 1852,
      "Ġhim": 1853,
      "ts": 1854,
      "Ġwant": 1855,
      "Ġind": 1856,
      "oth": 1857,
      "Ġhel": 1858,
      "åıį": 1859,
      "ĠÐ°": 1860,
      "be": 1861,
      "ij": 1862,
      "ments": 1863,
      "Ġuse": 1864,
      "Ġtwo": 1865,
      "éĽĨ": 1866,
      "Ġsaid": 1867,
      "×ķ×": 1868,
      "åĪĽ": 1869,
      "}Ċ": 1870,
      "aw": 1871,
      "Ã¥": 1872,
      "!Ċ": 1873,
      "è¿°": 1874,
      "Ð¾Ð½": 1875,
      "ä¹ī": 1876,
      "Ġdet": 1877,
      "Ġop": 1878,
      "ĠĠĠĠĠĠĠĠĠĠĠĠĠĠĠĠĠĠĠ": 1879,
      "åĬŁ": 1880,
      "rough": 1881,
      "åĩł": 1882,
      "Ġsur": 1883,
      "æ£Ģ": 1884,
      "Ð»Ð¸": 1885,
      "åĢĻ": 1886,
      "Ġsub": 1887,
      "Ġstud": 1888,
      "Ġac": 1889,
      "Ġmake": 1890,
      "ox": 1891,
      "äºĶ": 1892,
      "Ġ</": 1893,
      "çĥŃ": 1894,
      "åĮĹ": 1895,
      "ç®Ĺ": 1896,
      ".s": 1897,
      "Ġcould": 1898,
      "Ġmost": 1899,
      "que": 1900,
      "ä½ķ": 1901,
      "ĠPro": 1902,
      "ä»Ĭ": 1903,
      "åŃ¦çĶŁ": 1904,
      "IN": 1905,
      "Ġdid": 1906,
      "Ð»Ð°": 1907,
      "Ġtrans": 1908,
      "Ġinv": 1909,
      "line": 1910,
      "è¯·": 1911,
      "æİ¨": 1912,
      "å¼ķ": 1913,
      "×Ļ×": 1914,
      "æ·±": 1915,
      "åĳĬ": 1916,
      "åı°": 1917,
      "åĢ¼": 1918,
      "app": 1919,
      "Ġ/": 1920,
      "ily": 1921,
      "ÉĻ": 1922,
      "Ġthen": 1923,
      "æĪ·": 1924,
      "atch": 1925,
      "ible": 1926,
      "è¿ĳ": 1927,
      "Ġsm": 1928,
      "æĢİ": 1929,
      "import": 1930,
      "Ġform": 1931,
      "Ġdon": 1932,
      "ics": 1933,
      "Ġafter": 1934,
      "åĲĥ": 1935,
      "ext": 1936,
      "åĨ³": 1937,
      "áĥĺ": 1938,
      "éĢļè¿ĩ": 1939,
      "ife": 1940,
      "str": 1941,
      "è§Ĩ": 1942,
      "à¤¾à¤": 1943,
      "Ġend": 1944,
      "Ġsupp": 1945,
      "é£Ł": 1946,
      "eb": 1947,
      "ĠÏĦ": 1948,
      "Ġpublic": 1949,
      "éªĮ": 1950,
      "å¤ª": 1951,
      "æĥħåĨµ": 1952,
      "åĳ¨": 1953,
      "Ġà°": 1954,
      "åŃĺ": 1955,
      "ict": 1956,
      "Ġwor": 1957,
      "ä»ĸä»¬": 1958,
      "åĥ": 1959,
      "arch": 1960,
      "ym": 1961,
      "æĪĺ": 1962,
      "Ġthese": 1963,
      "Ġevery": 1964,
      "å¹²": 1965,
      "æĺĵ": 1966,
      "ä¾Ľ": 1967,
      "çİĩ": 1968,
      "åĪĻ": 1969,
      "sc": 1970,
      "æĳ": 1971,
      "hat": 1972,
      "æ¶Ī": 1973,
      "æ¸¸": 1974,
      "å¹¿": 1975,
      "ĠCom": 1976,
      "Ġpres": 1977,
      "é¢Ĩ": 1978,
      "ä¼ģä¸ļ": 1979,
      "ten": 1980,
      "Ð¾Ð¹": 1981,
      "Ġvery": 1982,
      "Ġshould": 1983,
      "Ġ.": 1984,
      "Ġgood": 1985,
      "ç´ł": 1986,
      "ody": 1987,
      "ful": 1988,
      "ä¼ĺ": 1989,
      "æĿĥ": 1990,
      "æĬ¤": 1991,
      "æĪ¿": 1992,
      "hed": 1993,
      "Ġrem": 1994,
      "è§ī": 1995,
      "Ġcar": 1996,
      "åħ»": 1997,
      "çĲĥ": 1998,
      "Ġmin": 1999,
      "fore": 2000,
      "Ġgu": 2001,
      "Ġconst": 2002,
      "ĠAn": 2003,
      "Ġser": 2004,
      "ä¸Ķ": 2005,
      "ures": 2006,
      "èĲ¥": 2007,
      "ility": 2008,
      "çķĮ": 2009,
      "ased": 2010,
      "ĠAl": 2011,
      "ident": 2012,
      "Ġsom": 2013,
      "åŃ©": 2014,
      "Ġbr": 2015,
      "ract": 2016,
      "Ġthrough": 2017,
      "ner": 2018,
      "Ġwell": 2019,
      "Ġnum": 2020,
      "....": 2021,
      "æ¨¡": 2022,
      "ä¹Ĳ": 2023,
      "ÐºÐ°": 2024,
      "ON": 2025,
      ".com": 2026,
      "Ġáĥ": 2027,
      "ities": 2028,
      "ave": 2029,
      "æĬĢæľ¯": 2030,
      "çīĩ": 2031,
      "èµ°": 2032,
      "ĠÃ©": 2033,
      "ative": 2034,
      "Ġeff": 2035,
      "æĬķ": 2036,
      "co": 2037,
      "åĽłä¸º": 2038,
      "éļ¾": 2039,
      "ash": 2040,
      "ren": 2041,
      "els": 2042,
      "read": 2043,
      "Ã§": 2044,
      "ĠSe": 2045,
      "Ġinclud": 2046,
      "val": 2047,
      "éĻĲ": 2048,
      "Ġpol": 2049,
      "Ġdata": 2050,
      "('": 2051,
      "oid": 2052,
      "Ġwhere": 2053,
      "Ġna": 2054,
      "pos": 2055,
      "åİĭ": 2056,
      "ä½İ": 2057,
      "Î»": 2058,
      "Ġsee": 2059,
      "Ú©": 2060,
      "ä½¿çĶ¨": 2061,
      "ious": 2062,
      "åħļ": 2063,
      "éĺŁ": 2064,
      "ÐµÐ½Ð¸": 2065,
      "éĢŁ": 2066,
      "è¿ŀ": 2067,
      "æµĭ": 2068,
      "Ġnow": 2069,
      "Ġ|": 2070,
      "urr": 2071,
      "ues": 2072,
      "åŃ¦ä¹ł": 2073,
      "ton": 2074,
      "ting": 2075,
      "Å¡": 2076,
      "-b": 2077,
      "æĢģ": 2078,
      "ĠYou": 2079,
      "æİ§": 2080,
      "å®Ŀ": 2081,
      "éħį": 2082,
      "Ġdiffer": 2083,
      "Ġinst": 2084,
      "æ´»åĬ¨": 2085,
      "æľįåĬ¡": 2086,
      "çª": 2087,
      "å¿ħ": 2088,
      "ĠAr": 2089,
      "Ã¨": 2090,
      "ield": 2091,
      "Ġlong": 2092,
      "æĹ¶åĢĻ": 2093,
      "æİĴ": 2094,
      "ä¸įæĺ¯": 2095,
      "ational": 2096,
      "à¥į": 2097,
      "åı¯èĥ½": 2098,
      "ç©¶": 2099,
      "çĶŁæ´»": 2100,
      "ìĿ": 2101,
      "èį¯": 2102,
      "èı": 2103,
      "ices": 2104,
      "day": 2105,
      "à¯ģ": 2106,
      "è¾¹": 2107,
      "å¼ł": 2108,
      "ada": 2109,
      "åĬ©": 2110,
      "Ġeven": 2111,
      "åĥı": 2112,
      "áĥĲáĥ": 2113,
      "æħ": 2114,
      "Ġaut": 2115,
      "å±Ģ": 2116,
      "Ġhelp": 2117,
      ".,": 2118,
      "ç¦»": 2119,
      "ç§¯": 2120,
      "å§ĭ": 2121,
      "Ġrequ": 2122,
      "yn": 2123,
      "è¯¾": 2124,
      "uk": 2125,
      "çĬ¶": 2126,
      "://": 2127,
      "Ġsk": 2128,
      "å±ŀ": 2129,
      "Ġserv": 2130,
      "åįİ": 2131,
      "èģĮ": 2132,
      "Ġway": 2133,
      "ä¾¿": 2134,
      "à¥įà¤": 2135,
      "Ġ#": 2136,
      "Ġspec": 2137,
      "text": 2138,
      "Ġplay": 2139,
      "æĸŃ": 2140,
      "Îº": 2141,
      "çĸĹ": 2142,
      ";ĊĊ": 2143,
      "æļ": 2144,
      "Ð¾Ð³Ð¾": 2145,
      "Ġë": 2146,
      "àµįà´": 2147,
      "ç»Ĩ": 2148,
      "Ġfr": 2149,
      "ĠRe": 2150,
      "åıĭ": 2151,
      "çº¢": 2152,
      "Ġdown": 2153,
      "span": 2154,
      "å¢ĥ": 2155,
      "åį³": 2156,
      "other": 2157,
      "Ġthink": 2158,
      "ĠÐ·Ð°": 2159,
      "ute": 2160,
      "çľģ": 2161,
      "æ¹": 2162,
      "å¸ĥ": 2163,
      "åĵį": 2164,
      "na": 2165,
      "ien": 2166,
      "ator": 2167,
      "æŀĲ": 2168,
      "gan": 2169,
      "è¡Ģ": 2170,
      "air": 2171,
      "();Ċ": 2172,
      "tring": 2173,
      "pon": 2174,
      "ze": 2175,
      "çħ§": 2176,
      "Ġsl": 2177,
      "Ġed": 2178,
      "ÐµÐ¼": 2179,
      "è´£": 2180,
      "\">Ċ": 2181,
      "ages": 2182,
      "Ġsuch": 2183,
      "uc": 2184,
      "alk": 2185,
      "-s": 2186,
      "éĩĩ": 2187,
      "Ġloc": 2188,
      "Ġmem": 2189,
      "dd": 2190,
      "çİĭ": 2191,
      "è¶Ĭ": 2192,
      "à®¿": 2193,
      "Ġhigh": 2194,
      "Ð²Ð°": 2195,
      "éĻ¤": 2196,
      "æķĻèĤ²": 2197,
      "ms": 2198,
      "à¥ĩ": 2199,
      "Ġdoes": 2200,
      "ĠÄĳ": 2201,
      "ĠQ": 2202,
      "Ġused": 2203,
      "éĢĤ": 2204,
      "ows": 2205,
      "ward": 2206,
      "ç¤¾ä¼ļ": 2207,
      "ï¿½ï¿½": 2208,
      "led": 2209,
      "Ġbest": 2210,
      "æ¬¾": 2211,
      "çŃĶ": 2212,
      "Î¯": 2213,
      "æĮī": 2214,
      "ĠAnd": 2215,
      "æŀģ": 2216,
      "Ġstart": 2217,
      "æĴ": 2218,
      "ĠâĢĶ": 2219,
      "æ»¡": 2220,
      "It": 2221,
      "è±¡": 2222,
      "Ġmon": 2223,
      "ider": 2224,
      "Ã³n": 2225,
      "Ø§Ø": 2226,
      "æ®µ": 2227,
      "ÙĤ": 2228,
      "ho": 2229,
      "ctions": 2230,
      "èĤ¡": 2231,
      "ina": 2232,
      "Ġmuch": 2233,
      "è¨": 2234,
      "çĮ": 2235,
      "ç§°": 2236,
      "Ġbecause": 2237,
      "Ġright": 2238,
      "Ġ@": 2239,
      "atic": 2240,
      "Ġmany": 2241,
      "æĢİä¹Ī": 2242,
      "ç¢": 2243,
      "aking": 2244,
      "Ġread": 2245,
      "åĳ½": 2246,
      "ta": 2247,
      "Ø§ÙĨ": 2248,
      "éŁ³": 2249,
      "ç±³": 2250,
      "ç»Ń": 2251,
      "Ġfind": 2252,
      "Î¼": 2253,
      "å®īåħ¨": 2254,
      "å®¢": 2255,
      "æ¸©": 2256,
      "é¾": 2257,
      "å¡": 2258,
      "====": 2259,
      "é©¬": 2260,
      "ä¸»è¦ģ": 2261,
      "Ùģ": 2262,
      "min": 2263,
      "Ð¾Ñģ": 2264,
      "åĭ": 2265,
      "æľĽ": 2266,
      "ven": 2267,
      "px": 2268,
      "Ġperson": 2269,
      "lement": 2270,
      "æĿĳ": 2271,
      "vent": 2272,
      "æĿ¿": 2273,
      "ution": 2274,
      "{Ċ": 2275,
      ").Ċ": 2276,
      "ines": 2277,
      "br": 2278,
      "æµİ": 2279,
      "Ġhand": 2280,
      "RE": 2281,
      "Ġexper": 2282,
      "land": 2283,
      "ç³»ç»Ł": 2284,
      "æľª": 2285,
      "Ġext": 2286,
      "AT": 2287,
      "çľ¼": 2288,
      "æīĢä»¥": 2289,
      "ww": 2290,
      "Ġfam": 2291,
      "é¦ĸ": 2292,
      "uring": 2293,
      "velop": 2294,
      "ars": 2295,
      "éĻħ": 2296,
      "Å¾": 2297,
      "æĺ¾": 2298,
      "ĠÑĩ": 2299,
      "å£°": 2300,
      "Ġbel": 2301,
      "ä¾ĭ": 2302,
      "fl": 2303,
      "cond": 2304,
      "iet": 2305,
      "ml": 2306,
      "å·ŀ": 2307,
      "Ġyears": 2308,
      "ited": 2309,
      "è¯»": 2310,
      "ĠDe": 2311,
      "èĩ´": 2312,
      "ny": 2313,
      "Ġdu": 2314,
      "Ġcor": 2315,
      "roup": 2316,
      "èĮĥ": 2317,
      "éĺ³": 2318,
      "Ñī": 2319,
      "Ġgreat": 2320,
      "ror": 2321,
      "ç»´": 2322,
      "self": 2323,
      "Ġda": 2324,
      "add": 2325,
      "ma": 2326,
      "æķħ": 2327,
      "åĲĹ": 2328,
      "col": 2329,
      "Ġsol": 2330,
      "Ġx": 2331,
      "çģ«": 2332,
      "ÅŁ": 2333,
      "ST": 2334,
      "æĿĲ": 2335,
      "ç¬¬ä¸Ģ": 2336,
      "ado": 2337,
      "å±Ĥ": 2338,
      "ween": 2339,
      "Äĥ": 2340,
      "Ġresult": 2341,
      "åĨĽ": 2342,
      "åİĨ": 2343,
      "}ĊĊ": 2344,
      "Ġagain": 2345,
      "è¶³": 2346,
      "è¦ģæ±Ĥ": 2347,
      "rol": 2348,
      "uf": 2349,
      "tic": 2350,
      "åĽ¢": 2351,
      "å¨": 2352,
      "ets": 2353,
      "åįĩ": 2354,
      "à®¿à®": 2355,
      "Ġ}ĊĊ": 2356,
      "Äħ": 2357,
      "é¢Ħ": 2358,
      "ÑģÑı": 2359,
      "Ġden": 2360,
      "åĨĻ": 2361,
      "Ġsystem": 2362,
      "ature": 2363,
      "Ġfil": 2364,
      "ç«Ļ": 2365,
      "ĠÃł": 2366,
      "è¿Ļæł·": 2367,
      "Ġà´": 2368,
      "ä½Ĩæĺ¯": 2369,
      "Ġmet": 2370,
      "æĲ": 2371,
      "åĨľ": 2372,
      "å§Ķ": 2373,
      "aut": 2374,
      "ĠX": 2375,
      "ces": 2376,
      "çº¦": 2377,
      "Ġsign": 2378,
      "man": 2379,
      "å¾·": 2380,
      "àº": 2381,
      "ÐºÐ¸": 2382,
      "ĠSh": 2383,
      "çłĶç©¶": 2384,
      "Ġhere": 2385,
      "è¨Ģ": 2386,
      "Ã«": 2387,
      "ä½ı": 2388,
      "ger": 2389,
      "æ²¹": 2390,
      "Ġinform": 2391,
      "ced": 2392,
      "è¶ħ": 2393,
      "way": 2394,
      "ruct": 2395,
      "Ġdec": 2396,
      "åŃ©åŃĲ": 2397,
      "æĸ¹æ³ķ": 2398,
      "ref": 2399,
      "uss": 2400,
      "ames": 2401,
      "è¿ĺæĺ¯": 2402,
      "ĠÐ¿ÑĢ": 2403,
      "æ±Ł": 2404,
      "Pro": 2405,
      "å¤±": 2406,
      "gy": 2407,
      "ä¸Ģç§į": 2408,
      "ÑĨÐ¸": 2409,
      "att": 2410,
      "oh": 2411,
      "alth": 2412,
      "æ¥": 2413,
      "è¯Ħ": 2414,
      "åĪĹ": 2415,
      "é¡¹çĽ®": 2416,
      "view": 2417,
      "èµĽ": 2418,
      "irect": 2419,
      "åĪĩ": 2420,
      "æĭ©": 2421,
      "èĪ¬": 2422,
      "Ġil": 2423,
      "ĠØ¯": 2424,
      "ãĢĳ": 2425,
      "ãĢĲ": 2426,
      "èĲ½": 2427,
      "åĪĴ": 2428,
      "Ġcre": 2429,
      "ĉĉĉ": 2430,
      "Ġgener": 2431,
      "æĸ¯": 2432,
      "ĠIf": 2433,
      "Ġcall": 2434,
      "Ġbefore": 2435,
      "Ġbeing": 2436,
      "åĸľ": 2437,
      "Ġlist": 2438,
      "ÏĮ": 2439,
      "èĭ±": 2440,
      "éĻ©": 2441,
      "Ġname": 2442,
      "à¸²": 2443,
      "éļı": 2444,
      "sk": 2445,
      "ethod": 2446,
      "ĠĠĠĠĠĠĠĠĠ": 2447,
      "gram": 2448,
      "htt": 2449,
      "Ġins": 2450,
      "å¤Ł": 2451,
      "ĠÐ½Ðµ": 2452,
      "iness": 2453,
      "Ġdist": 2454,
      "ĠUn": 2455,
      "åħĭ": 2456,
      "ä¿®": 2457,
      "Ġpos": 2458,
      "áĥĶ": 2459,
      "bl": 2460,
      "Ġlo": 2461,
      "Ġpost": 2462,
      "Ġown": 2463,
      "ÑĤÐ¸": 2464,
      "ĠĊ": 2465,
      "è®¸": 2466,
      "work": 2467,
      "åĽŃ": 2468,
      "Ġbetween": 2469,
      "Ð¾Ð±": 2470,
      "å¸Ĥåľº": 2471,
      "Ġimport": 2472,
      "æ¬¢": 2473,
      "åĽ½å®¶": 2474,
      "ÄĻ": 2475,
      "Ð¼Ð¸": 2476,
      "cont": 2477,
      "çŁ³": 2478,
      "æĵ": 2479,
      "Ġday": 2480,
      "çİ°åľ¨": 2481,
      "cept": 2482,
      "ä¿¡æģ¯": 2483,
      "Ġtake": 2484,
      "Ġreal": 2485,
      "ä¹°": 2486,
      "èĳ": 2487,
      "éĢīæĭ©": 2488,
      "éĿĴ": 2489,
      "åİ¿": 2490,
      "Ã©s": 2491,
      "æĺŁ": 2492,
      "Ġmade": 2493,
      ".get": 2494,
      "ually": 2495,
      "ized": 2496,
      "ÑĢÑĥ": 2497,
      "çĻ¾": 2498,
      "å»ºè®¾": 2499,
      "Äį": 2500,
      "æŀĹ": 2501,
      "Ãª": 2502,
      "æł¹æį®": 2503,
      "Ġdem": 2504,
      "Ã£": 2505,
      "ĠFor": 2506,
      "çŁ¥éģĵ": 2507,
      "name": 2508,
      "AR": 2509,
      "Ġpat": 2510,
      "arm": 2511,
      "Ãº": 2512,
      "å·²ç»ı": 2513,
      "ç»ıæµİ": 2514,
      "yp": 2515,
      "Re": 2516,
      "Ġself": 2517,
      "urs": 2518,
      "ole": 2519,
      "urrent": 2520,
      "ä»½": 2521,
      ".S": 2522,
      "Î¿Ïħ": 2523,
      "é»Ħ": 2524,
      "æĻ¯": 2525,
      ".m": 2526,
      "ĠLe": 2527,
      "å¤§å®¶": 2528,
      "è§Ĵ": 2529,
      "ene": 2530,
      "Ð¾Ðº": 2531,
      "å¾Ģ": 2532,
      "ä¸ĢäºĽ": 2533,
      "å½±åĵį": 2534,
      "cent": 2535,
      "åħħ": 2536,
      "åł": 2537,
      "for": 2538,
      "ane": 2539,
      "Ġmen": 2540,
      "ica": 2541,
      "ollow": 2542,
      "å¾ĭ": 2543,
      "Con": 2544,
      "Ġtem": 2545,
      "èİ·": 2546,
      "åıĮ": 2547,
      "Ġgl": 2548,
      "))": 2549,
      "Ġeach": 2550,
      "Ø§ÙĦ": 2551,
      "this": 2552,
      "Ġtest": 2553,
      "rop": 2554,
      "åľŁ": 2555,
      "ince": 2556,
      "çıŃ": 2557,
      "å¾®": 2558,
      "_t": 2559,
      "ä¼Ĺ": 2560,
      "ç»ĩ": 2561,
      "ouse": 2562,
      "imes": 2563,
      "åĵª": 2564,
      "ght": 2565,
      "go": 2566,
      "Î¬": 2567,
      "Ġdifferent": 2568,
      "å¦Ī": 2569,
      "ĠNew": 2570,
      "ism": 2571,
      "å©": 2572,
      "ä¸įèĥ½": 2573,
      "éĥ½æĺ¯": 2574,
      "äº²": 2575,
      "Ġles": 2576,
      "ional": 2577,
      "EN": 2578,
      "Ġvari": 2579,
      "ait": 2580,
      "Ġver": 2581,
      "åĪĨæŀĲ": 2582,
      "ever": 2583,
      "Ġsame": 2584,
      "Ch": 2585,
      "ĠÂ«": 2586,
      "å¾Īå¤ļ": 2587,
      "ä¸įåĲĮ": 2588,
      "ason": 2589,
      "ask": 2590,
      "Ġsch": 2591,
      "äº§åĵģ": 2592,
      "arn": 2593,
      "éĩįè¦ģ": 2594,
      "Ġlet": 2595,
      "ather": 2596,
      "Ġthose": 2597,
      "åĬ¿": 2598,
      "Ùĥ": 2599,
      "åģ¥": 2600,
      "><": 2601,
      "Â·": 2602,
      "orn": 2603,
      "Ġbo": 2604,
      "æĭī": 2605,
      "-t": 2606,
      "by": 2607,
      "ined": 2608,
      "Ex": 2609,
      "ott": 2610,
      "ĠÑĢÐ°": 2611,
      "Ġstill": 2612,
      "ants": 2613,
      "ä¹Łæĺ¯": 2614,
      "af": 2615,
      "Ð°Ðº": 2616,
      "å°Ķ": 2617,
      "Ġreally": 2618,
      "è¿ľ": 2619,
      "Ġve": 2620,
      "Ø´": 2621,
      "Ġpoint": 2622,
      "Ġbus": 2623,
      "Ġwhile": 2624,
      "ÑĦ": 2625,
      "çĶ·": 2626,
      "Ġsi": 2627,
      "Ġconf": 2628,
      "Ġcent": 2629,
      "oun": 2630,
      "åĲ¬": 2631,
      "ĠÐ¡": 2632,
      "atur": 2633,
      "Â»": 2634,
      "é¸": 2635,
      "ç®Ģ": 2636,
      "ä¾Ŀ": 2637,
      "áĥĺáĥ": 2638,
      "Ġ\\": 2639,
      "ray": 2640,
      "æĤ¨": 2641,
      "AN": 2642,
      "AL": 2643,
      "ä¸ĢèĪ¬": 2644,
      "Ġvis": 2645,
      "son": 2646,
      "å£«": 2647,
      "ä¸Ģå®ļ": 2648,
      "OR": 2649,
      "Ð¸Ð½": 2650,
      "Ġà²": 2651,
      "æĸ¹éĿ¢": 2652,
      "èŀ": 2653,
      "gg": 2654,
      "åºķ": 2655,
      "åº·": 2656,
      "ument": 2657,
      "ense": 2658,
      "ID": 2659,
      "Ġusing": 2660,
      "æī¾": 2661,
      "áĥĶáĥ": 2662,
      "ĠØª": 2663,
      "Ġprocess": 2664,
      "åĳ¢": 2665,
      "à±į": 2666,
      "åĽ´": 2667,
      "ired": 2668,
      "Ġchar": 2669,
      "Ø§Ø±": 2670,
      "inal": 2671,
      "Name": 2672,
      "à¸Ļ": 2673,
      "Ġexp": 2674,
      "åŁ¹": 2675,
      "Ð´Ð°": 2676,
      "æ¼Ķ": 2677,
      "ĠCl": 2678,
      "ser": 2679,
      "Ġsay": 2680,
      "ament": 2681,
      "yl": 2682,
      "ource": 2683,
      "æĹ©": 2684,
      "ç»Ī": 2685,
      "Ġlast": 2686,
      "ä¸¥": 2687,
      "à¦¾": 2688,
      "ives": 2689,
      "æł¸": 2690,
      "Ġlife": 2691,
      "ĠĠĠĠĠĠĠĠĠĠĠĠĠĠĠĠĠĠĠĠĠĠĠ": 2692,
      "åı²": 2693,
      "åĲĮæĹ¶": 2694,
      "åĲ§": 2695,
      "è´Ł": 2696,
      "kt": 2697,
      "raph": 2698,
      "è®¾è®¡": 2699,
      "je": 2700,
      "ä¸ĸçķĮ": 2701,
      "ç¿": 2702,
      "å¼Ģå§ĭ": 2703,
      "Ġdevelop": 2704,
      "fo": 2705,
      "ĠÑģÑĤ": 2706,
      "å®¤": 2707,
      "Ġtype": 2708,
      "Ġ=>": 2709,
      "ka": 2710,
      "ç¾¤": 2711,
      "Ġfunction": 2712,
      "Ø²": 2713,
      "ital": 2714,
      "ared": 2715,
      "æ¯Ķè¾ĥ": 2716,
      "è½»": 2717,
      "à¯ģà®": 2718,
      "...Ċ": 2719,
      "lex": 2720,
      "set": 2721,
      "ç¼ĸ": 2722,
      "Ġshow": 2723,
      "Ġmark": 2724,
      "Ġworld": 2725,
      "ÄĽ": 2726,
      "ats": 2727,
      "********": 2728,
      "éĶĢ": 2729,
      "äººåĳĺ": 2730,
      "åį´": 2731,
      "Ġcap": 2732,
      "ĠCon": 2733,
      "å¸®": 2734,
      "ters": 2735,
      "den": 2736,
      ");ĊĊ": 2737,
      ".p": 2738,
      "èĥ½åĬĽ": 2739,
      "Id": 2740,
      "Ġje": 2741,
      "åĪĿ": 2742,
      "bs": 2743,
      "Ġein": 2744,
      "éĶĻ": 2745,
      "è´¢": 2746,
      "-m": 2747,
      "è®²": 2748,
      "hip": 2749,
      "lood": 2750,
      "ĠFr": 2751,
      "æī¿": 2752,
      "åĿĩ": 2753,
      "\":": 2754,
      "no": 2755,
      "ç¦ı": 2756,
      "ĠTr": 2757,
      "Com": 2758,
      "Ġvan": 2759,
      "çĽĳ": 2760,
      "Ġfound": 2761,
      "è¿ĻäºĽ": 2762,
      "hes": 2763,
      "cri": 2764,
      "ØŃ": 2765,
      "Ġrep": 2766,
      "ç»Ħç»ĩ": 2767,
      "à¤¿": 2768,
      "æĺ¥": 2769,
      "Ġeffect": 2770,
      "yle": 2771,
      "ittle": 2772,
      "Ġpass": 2773,
      "éĴ±": 2774,
      "åı¤": 2775,
      "ĠÐĴ": 2776,
      "åį¡": 2777,
      "ÐµÐ´": 2778,
      "çĶŁäº§": 2779,
      "âĢĵ": 2780,
      "oint": 2781,
      "Ġvalue": 2782,
      "ness": 2783,
      "></": 2784,
      "å·¥ç¨ĭ": 2785,
      "riend": 2786,
      "ron": 2787,
      "çĽĬ": 2788,
      "æıĲä¾Ľ": 2789,
      "-d": 2790,
      "Ġpartic": 2791,
      "Ġdep": 2792,
      "Äģ": 2793,
      "æĸ¹å¼ı": 2794,
      "åĩºçİ°": 2795,
      "Ġweek": 2796,
      "ØĮ": 2797,
      "ology": 2798,
      "Ġcount": 2799,
      "è¯į": 2800,
      "æ²³": 2801,
      "ĠPl": 2802,
      "Ġcare": 2803,
      "åŁŁ": 2804,
      "chn": 2805,
      "Ġhome": 2806,
      "Ġnumber": 2807,
      "ĠAs": 2808,
      "Ã½": 2809,
      "Ġprof": 2810,
      "ross": 2811,
      "çİ¯å¢ĥ": 2812,
      "ample": 2813,
      "å¿Ĺ": 2814,
      "Ð»Ñı": 2815,
      "åįĬ": 2816,
      "akes": 2817,
      "éĿŀå¸¸": 2818,
      "Ġtoo": 2819,
      "åĩ»": 2820,
      "This": 2821,
      "Ġbre": 2822,
      "çĨ": 2823,
      "Ġ*/": 2824,
      "LE": 2825,
      "Ġboth": 2826,
      "Ġrun": 2827,
      "æ¯į": 2828,
      "ĠEx": 2829,
      "Ġgoing": 2830,
      "å·®": 2831,
      "è¿ĩç¨ĭ": 2832,
      "ler": 2833,
      "Æ°": 2834,
      "æ²»çĸĹ": 2835,
      "äººæ°ĳ": 2836,
      "itle": 2837,
      "ä»¥åıĬ": 2838,
      "ä¼¤": 2839,
      "Ġposs": 2840,
      "ral": 2841,
      "ĠBut": 2842,
      "ior": 2843,
      "åħį": 2844,
      "ä»ħ": 2845,
      "æį¢": 2846,
      "åĩı": 2847,
      "ana": 2848,
      "æ¿": 2849,
      "åħ¶ä»ĸ": 2850,
      "ç«ł": 2851,
      "bo": 2852,
      "Ð°Ð½Ð¸": 2853,
      "æ¤": 2854,
      "ey": 2855,
      "çļ®": 2856,
      "Ġmain": 2857,
      ".c": 2858,
      "Ġfollow": 2859,
      "åįı": 2860,
      "ĠÐµ": 2861,
      "Ġincre": 2862,
      "Ġplace": 2863,
      "Ġfact": 2864,
      "æĸĩåĮĸ": 2865,
      "iÃ³n": 2866,
      "Ġchild": 2867,
      "æĪĸèĢħ": 2868,
      "ä¸ĵä¸ļ": 2869,
      "Ð¾ÑģÑĤ": 2870,
      "à¤°": 2871,
      "äº¬": 2872,
      "éĥ¨åĪĨ": 2873,
      "à¸²à¸": 2874,
      "à«": 2875,
      "Ġaround": 2876,
      "ti": 2877,
      "ĠSch": 2878,
      "Ġ==": 2879,
      "Ġtop": 2880,
      "åķĬ": 2881,
      "èīº": 2882,
      "Ġcle": 2883,
      "å¿µ": 2884,
      "çŃĸ": 2885,
      "åŃ¦æł¡": 2886,
      "é¾Ļ": 2887,
      "íķ": 2888,
      "Ġsecond": 2889,
      "ÑĤÐ¾": 2890,
      "äºī": 2891,
      "åĿļ": 2892,
      "ÐµÐ¹": 2893,
      "Ġid": 2894,
      "ĠÐŁ": 2895,
      "ato": 2896,
      "ote": 2897,
      "ĠÙģ": 2898,
      "rem": 2899,
      "Ã£o": 2900,
      "Ġ_": 2901,
      "åħŃ": 2902,
      "éħĴ": 2903,
      "-f": 2904,
      "æķ°æį®": 2905,
      "Ġcour": 2906,
      "wh": 2907,
      "Ð°Ð²": 2908,
      "çķĻ": 2909,
      "rivate": 2910,
      "ux": 2911,
      "Ġinformation": 2912,
      "å¯Ĩ": 2913,
      "abel": 2914,
      "ills": 2915,
      "æŁĲ": 2916,
      "IT": 2917,
      "è´Ń": 2918,
      "rist": 2919,
      "é¦Ļ": 2920,
      "è¿Ļç§į": 2921,
      "-l": 2922,
      "Ġproduct": 2923,
      "Ø¬": 2924,
      "æ¢¦": 2925,
      "åħ´": 2926,
      "à¥Ģ": 2927,
      "ength": 2928,
      "ç«¯": 2929,
      "Ġcase": 2930,
      "ways": 2931,
      "net": 2932,
      "Ñĺ": 2933,
      "ams": 2934,
      "ustom": 2935,
      "Ġtry": 2936,
      "Ķ×": 2937,
      "éĢģ": 2938,
      "ĠÐ»": 2939,
      "Ġ`": 2940,
      "åĲ«": 2941,
      "æĭ¬": 2942,
      "Ġhead": 2943,
      "Ġà¶": 2944,
      "\",Ċ": 2945,
      "æŃ»": 2946,
      "less": 2947,
      "éĻį": 2948,
      "æĿİ": 2949,
      "æŃ¢": 2950,
      "ving": 2951,
      "çĽ¸åħ³": 2952,
      "Ġrest": 2953,
      "Ġsit": 2954,
      "Ġelse": 2955,
      "åĨħå®¹": 2956,
      "play": 2957,
      "ä½ľä¸º": 2958,
      "ï¼İ": 2959,
      "Ġbook": 2960,
      "ought": 2961,
      "è¡¥": 2962,
      "ency": 2963,
      "roll": 2964,
      "ium": 2965,
      "ĠBe": 2966,
      "Ġcommun": 2967,
      ".âĢĿ": 2968,
      "ĠÏĢ": 2969,
      "è¾ĵ": 2970,
      "éĵ¶": 2971,
      "Ġproble": 2972,
      "åĲ¦": 2973,
      "ccess": 2974,
      "à±įà°": 2975,
      "new": 2976,
      "à°¿": 2977,
      "çĶ»": 2978,
      "ĠHow": 2979,
      "ality": 2980,
      "load": 2981,
      "æ¦": 2982,
      "åĳ³": 2983,
      "thing": 2984,
      "å½ķ": 2985,
      "åĤ": 2986,
      "ui": 2987,
      ".l": 2988,
      "ems": 2989,
      "åºĹ": 2990,
      "Ġsupport": 2991,
      "ais": 2992,
      "Ġpor": 2993,
      "å®³": 2994,
      "zy": 2995,
      "æıĲé«ĺ": 2996,
      "å¯¹äºİ": 2997,
      "åºľ": 2998,
      "Ġmat": 2999,
      "æ¿Ģ": 3000,
      "ÑģÑĤÐ²": 3001,
      "Ġdesign": 3002,
      "Ġter": 3003,
      "ks": 3004,
      "_d": 3005,
      "ä½ľçĶ¨": 3006,
      "å®¡": 3007,
      "ify": 3008,
      "Ġhapp": 3009,
      "SE": 3010,
      "Ġcome": 3011,
      "Ġcr": 3012,
      "ĠÎº": 3013,
      ".A": 3014,
      "ience": 3015,
      "Ã¤r": 3016,
      "lease": 3017,
      "è®Ń": 3018,
      "stand": 3019,
      "å°½": 3020,
      "Ġprogram": 3021,
      "med": 3022,
      "Ġsoc": 3023,
      "äºĳ": 3024,
      "urch": 3025,
      "Ġfree": 3026,
      "Ġquest": 3027,
      "čĊčĊ": 3028,
      "We": 3029,
      "å¯Į": 3030,
      "è¿ĺæľī": 3031,
      "ides": 3032,
      "Å¼": 3033,
      "ĠOn": 3034,
      "List": 3035,
      "çīĮ": 3036,
      "Ġvar": 3037,
      "ved": 3038,
      "ä»ĭ": 3039,
      "Ġlittle": 3040,
      "ÐµÐº": 3041,
      "Ġfew": 3042,
      "å±ħ": 3043,
      "åĿĹ": 3044,
      "tain": 3045,
      "à´¿": 3046,
      "Ġpresent": 3047,
      "Ġmus": 3048,
      "ĠTo": 3049,
      "èĽ": 3050,
      "Ġold": 3051,
      "é¡»": 3052,
      "åĸĦ": 3053,
      "ĠÐ¾ÑĤ": 3054,
      "ĠSp": 3055,
      "ä¸ªäºº": 3056,
      "Ġuna": 3057,
      "ŀ×": 3058,
      "Ġum": 3059,
      "æĻ®": 3060,
      "idth": 3061,
      "èī¯": 3062,
      "vis": 3063,
      "Ġopen": 3064,
      "Ïī": 3065,
      "ule": 3066,
      "'m": 3067,
      "ele": 3068,
      "ç¬¬äºĮ": 3069,
      "åĽº": 3070,
      "la": 3071,
      "ister": 3072,
      "Ġlevel": 3073,
      "åĺ": 3074,
      "ç¯": 3075,
      "bre": 3076,
      "è·Ł": 3077,
      "Ð¾Ð¶": 3078,
      "uck": 3079,
      "åºı": 3080,
      "za": 3081,
      "ething": 3082,
      "String": 3083,
      "ember": 3084,
      "é¼": 3085,
      "Ġlot": 3086,
      "ava": 3087,
      "Ġlos": 3088,
      "Ġlead": 3089,
      "ĠÚ©": 3090,
      "Ġnon": 3091,
      "ĠEn": 3092,
      "à®¾": 3093,
      "ĠÐļ": 3094,
      "éĤ£ä¹Ī": 3095,
      "à§ĩ": 3096,
      "ases": 3097,
      "æ¶²": 3098,
      "org": 3099,
      "fe": 3100,
      "åħ³ç³»": 3101,
      "é²": 3102,
      "ĠÏĥ": 3103,
      "essage": 3104,
      "çĵ": 3105,
      "Ġfeel": 3106,
      "çīĪ": 3107,
      "Ġhref": 3108,
      "æīĢè¿°": 3109,
      "IC": 3110,
      "raw": 3111,
      "é»ĳ": 3112,
      "return": 3113,
      "Ã¶r": 3114,
      "Ð¾Ð·": 3115,
      "ault": 3116,
      "ÑĤÐ°": 3117,
      "ĠIs": 3118,
      ".d": 3119,
      "ĠÎ±": 3120,
      "Ð¸Ð»": 3121,
      "ĠĠĠĠĠĠĠĠĠĠĠĠĠĠĠĠĠĠĠĠĠĠĠĠĠĠĠĠĠĠĠĠ": 3122,
      "åºĶè¯¥": 3123,
      "ä¸Ńå¿ĥ": 3124,
      "åı¥": 3125,
      "chen": 3126,
      "ĠInd": 3127,
      "åįķä½į": 3128,
      "åº§": 3129,
      "à°¾": 3130,
      "ird": 3131,
      "ino": 3132,
      "Ġeas": 3133,
      "åĮħæĭ¬": 3134,
      "Ġequ": 3135,
      "Ġthree": 3136,
      "å¸Į": 3137,
      "æ³¨æĦı": 3138,
      "ush": 3139,
      "åı³": 3140,
      "ara": 3141,
      "omen": 3142,
      "Ġmust": 3143,
      "èĥ½å¤Ł": 3144,
      "reg": 3145,
      "ĠWh": 3146,
      "èĨ": 3147,
      "umm": 3148,
      "alse": 3149,
      "à³į": 3150,
      "Ġvers": 3151,
      "hor": 3152,
      "Ġgot": 3153,
      "èĢģå¸Ī": 3154,
      "ization": 3155,
      "å·¦": 3156,
      "Ġdev": 3157,
      "åħ·æľī": 3158,
      "Ð½Ñı": 3159,
      "åĲ¸": 3160,
      "ja": 3161,
      "åįĥ": 3162,
      "----------------": 3163,
      "Ã¼r": 3164,
      "over": 3165,
      "ÎŃ": 3166,
      "ĠThey": 3167,
      "Ġtri": 3168,
      "Ġwr": 3169,
      "Ġwithout": 3170,
      "ĠÐ¿ÑĢÐ¸": 3171,
      "Ġàª": 3172,
      "Ġorgan": 3173,
      "æİ§åĪ¶": 3174,
      "Ġpop": 3175,
      "not": 3176,
      "ĠPh": 3177,
      "åħ«": 3178,
      "æľĭ": 3179,
      "ä¸įä¼ļ": 3180,
      "Ġword": 3181,
      "ľ×": 3182,
      "ĠBl": 3183,
      "arly": 3184,
      "def": 3185,
      "å»ºè®®": 3186,
      "ĠÐ¾Ð±": 3187,
      "ateg": 3188,
      "ĠOr": 3189,
      "Ġoper": 3190,
      "ä¸Ģä¸ĭ": 3191,
      "åıĳçĶŁ": 3192,
      "Ġthings": 3193,
      "ee": 3194,
      "ĠThere": 3195,
      "ining": 3196,
      "ä¸¾": 3197,
      "Ġbusiness": 3198,
      "Ġut": 3199,
      "Ġmethod": 3200,
      "Ġ>": 3201,
      "è´§": 3202,
      "éķĩ": 3203,
      "rag": 3204,
      "æĤ£": 3205,
      "inc": 3206,
      "å¾ħ": 3207,
      "à¦°": 3208,
      "à¤¿à¤": 3209,
      "Ġpower": 3210,
      "ES": 3211,
      "ĠÑĢ": 3212,
      "Ġexpl": 3213,
      "æī§": 3214,
      "atus": 3215,
      "å²ģ": 3216,
      "æłĳ": 3217,
      "äºļ": 3218,
      "Ġcho": 3219,
      "pre": 3220,
      "eter": 3221,
      "Ġvol": 3222,
      "Ġcontin": 3223,
      "ĠMar": 3224,
      "yd": 3225,
      "AC": 3226,
      "une": 3227,
      "è´¨éĩı": 3228,
      "ĠShe": 3229,
      "å¤ĦçĲĨ": 3230,
      "è¯ī": 3231,
      "Ġvon": 3232,
      "ential": 3233,
      "æ£ĢæŁ¥": 3234,
      "nivers": 3235,
      "æķĻåŃ¦": 3236,
      "äºĴ": 3237,
      "html": 3238,
      "Ġput": 3239,
      "Ġduring": 3240,
      "çİ©": 3241,
      "à®¾à®": 3242,
      "çªģ": 3243,
      "ĠÐ¶": 3244,
      "Ġterm": 3245,
      "hr": 3246,
      "çŁ¥è¯Ĩ": 3247,
      "çĭ¬": 3248,
      "bers": 3249,
      "å¼Ĥ": 3250,
      "é£ŀ": 3251,
      "Ġsmall": 3252,
      "Ġide": 3253,
      "Ġpara": 3254,
      ".j": 3255,
      "åıĳçİ°": 3256,
      "Res": 3257,
      "To": 3258,
      "Type": 3259,
      "]Ċ": 3260,
      "Ġ!": 3261,
      "Ġ--": 3262,
      "ĠAd": 3263,
      "ists": 3264,
      "uro": 3265,
      "ç´§": 3266,
      "Ġtrue": 3267,
      "ä¸įè¦ģ": 3268,
      "Ġwater": 3269,
      "åŁºæľ¬": 3270,
      "por": 3271,
      "æľĭåıĭ": 3272,
      "Ġsomething": 3273,
      "æĪĲä¸º": 3274,
      "Ġorder": 3275,
      "Ġvo": 3276,
      "éħ¸": 3277,
      "Cont": 3278,
      "duct": 3279,
      "à¸Ń": 3280,
      "å¾ģ": 3281,
      "ences": 3282,
      "uff": 3283,
      "era": 3284,
      "æĭħ": 3285,
      "Ġog": 3286,
      "ope": 3287,
      "Ø³Øª": 3288,
      "ĠSo": 3289,
      "Ġspe": 3290,
      "à¹Ī": 3291,
      "Ġdirect": 3292,
      "ç¬ĳ": 3293,
      "Î±Î¹": 3294,
      "Ġ)": 3295,
      "Ġà¤ķ": 3296,
      "ished": 3297,
      "èµ·æĿ¥": 3298,
      "Ġ%": 3299,
      "Ġperform": 3300,
      "ention": 3301,
      "til": 3302,
      "åį«": 3303,
      "ç£": 3304,
      "æĻº": 3305,
      "Ġline": 3306,
      "Ã¢": 3307,
      "_s": 3308,
      "Ar": 3309,
      "He": 3310,
      "Ġlove": 3311,
      "use": 3312,
      "ÑĬ": 3313,
      "ĠRes": 3314,
      "èŀį": 3315,
      "-c": 3316,
      "çł´": 3317,
      "Î³": 3318,
      "mp": 3319,
      "Ġê": 3320,
      "æĬķèµĦ": 3321,
      "ponse": 3322,
      "æĹı": 3323,
      "ÑĢÐµÐ´": 3324,
      "ĠÐ¿Ð¾": 3325,
      "×¨": 3326,
      "ves": 3327,
      "ĠÐľ": 3328,
      "amb": 3329,
      "æĵį": 3330,
      "Ġstand": 3331,
      "Ġsim": 3332,
      "çĽĺ": 3333,
      "Ñį": 3334,
      "order": 3335,
      "å®ĺ": 3336,
      "Ġref": 3337,
      "Ġprote": 3338,
      "ĠAll": 3339,
      "oci": 3340,
      "Ġcurrent": 3341,
      "çĹĩ": 3342,
      "èĴ": 3343,
      "è½½": 3344,
      "ÑģÑĮ": 3345,
      "é¢Ŀ": 3346,
      "Ġgame": 3347,
      "çĦ¶åĲİ": 3348,
      "iter": 3349,
      "Ġbetter": 3350,
      "Ð°Ð¼": 3351,
      "Ġanal": 3352,
      "ĠAmer": 3353,
      "ĠØ¹": 3354,
      "Ġturn": 3355,
      "Ġmov": 3356,
      "Ġconsider": 3357,
      "åı¦": 3358,
      "è°¢": 3359,
      "Ġiss": 3360,
      "ÑĹ": 3361,
      "ste": 3362,
      "Ġblood": 3363,
      "####": 3364,
      "ware": 3365,
      "ha": 3366,
      "çĶ³": 3367,
      "èĦĳ": 3368,
      "ä»ĺ": 3369,
      "Ġpot": 3370,
      "éĨ": 3371,
      "\")": 3372,
      "ili": 3373,
      "Ġnext": 3374,
      "Ġap": 3375,
      "ender": 3376,
      "Ġdisc": 3377,
      "isk": 3378,
      "å¯Ł": 3379,
      "æľ¨": 3380,
      "æĭĽ": 3381,
      "Ġask": 3382,
      "ception": 3383,
      "ç§»": 3384,
      "Ġimportant": 3385,
      "ama": 3386,
      "Ġson": 3387,
      "Ġanother": 3388,
      "gen": 3389,
      "ploy": 3390,
      "æĪı": 3391,
      "ified": 3392,
      "çŁŃ": 3393,
      "Ã´": 3394,
      "æīĢæľī": 3395,
      "æĻļ": 3396,
      "ately": 3397,
      "ailable": 3398,
      "ients": 3399,
      "ÑģÐºÐ¸": 3400,
      "face": 3401,
      "æĦ¿": 3402,
      "rc": 3403,
      "ÅĻ": 3404,
      "right": 3405,
      "oot": 3406,
      "Ġcond": 3407,
      "ided": 3408,
      "Ġhealth": 3409,
      "word": 3410,
      "å¦Ĥä½ķ": 3411,
      "iment": 3412,
      "éº": 3413,
      "Ġpress": 3414,
      "ertain": 3415,
      "Ġnever": 3416,
      "Ġproper": 3417,
      "éĵģ": 3418,
      "çĹĽ": 3419,
      "AM": 3420,
      "iron": 3421,
      "åĶ®": 3422,
      "ä¸Ģèµ·": 3423,
      "ream": 3424,
      "aster": 3425,
      "iven": 3426,
      "iving": 3427,
      "Ġalways": 3428,
      "Ġvi": 3429,
      "ä¸´": 3430,
      "acter": 3431,
      "æłĩåĩĨ": 3432,
      "fun": 3433,
      "Î®": 3434,
      "Ġhum": 3435,
      "ä»¥ä¸Ĭ": 3436,
      "Ġwar": 3437,
      "çºª": 3438,
      "æ½": 3439,
      "aterial": 3440,
      "ella": 3441,
      "Ġmonth": 3442,
      "ç¥¨": 3443,
      "ç»§": 3444,
      "Ġbuild": 3445,
      "arge": 3446,
      "à¸£": 3447,
      "Ġbig": 3448,
      "search": 3449,
      "ique": 3450,
      "leg": 3451,
      "type": 3452,
      "åĬ³": 3453,
      "Ġleg": 3454,
      "Ġactiv": 3455,
      "ä¸Ģæł·": 3456,
      "Ġreport": 3457,
      "ç¡Ģ": 3458,
      "Ġkeep": 3459,
      "odel": 3460,
      "Ã¡s": 3461,
      "æī¹": 3462,
      "ä¹¡": 3463,
      "Ġfriend": 3464,
      "inter": 3465,
      "class": 3466,
      "åĸľæ¬¢": 3467,
      "Ġsal": 3468,
      "åĬŁèĥ½": 3469,
      "-p": 3470,
      "èĻ½": 3471,
      "åŁºç¡Ģ": 3472,
      "_m": 3473,
      "Ġart": 3474,
      "ĠÙĦ": 3475,
      "à¹Ģ": 3476,
      "èĢĮä¸Ķ": 3477,
      "Ġstate": 3478,
      "cul": 3479,
      "à³įà²": 3480,
      "comm": 3481,
      "ission": 3482,
      "åħ¶ä¸Ń": 3483,
      "Ġopt": 3484,
      "Ġvoid": 3485,
      "AS": 3486,
      "ÑĩÐµ": 3487,
      "à±ģ": 3488,
      "ĠCol": 3489,
      "éŃ": 3490,
      "Ġmight": 3491,
      "Ġcal": 3492,
      "Val": 3493,
      "Ġhard": 3494,
      "ently": 3495,
      "é¢ĳ": 3496,
      "æ¥¼": 3497,
      "åŃ£": 3498,
      "éĶ®": 3499,
      "Ð¾Ð¿": 3500,
      "Ġfamily": 3501,
      "Ġinterest": 3502,
      "ä¸Ģæ¬¡": 3503,
      "ç»ĵæŀĦ": 3504,
      "è§Ħå®ļ": 3505,
      "lection": 3506,
      "à°¾à°": 3507,
      "æŁĵ": 3508,
      "https": 3509,
      "Ġrece": 3510,
      "å®ŀçİ°": 3511,
      "çķ¥": 3512,
      "back": 3513,
      "åĨ·": 3514,
      "äºĨè§£": 3515,
      "Ġsure": 3516,
      "Ġhist": 3517,
      "åĪ»": 3518,
      "ÅĽ": 3519,
      "æĶ¿åºľ": 3520,
      "åį°": 3521,
      "!!": 3522,
      "Ġbeh": 3523,
      "áŁ": 3524,
      "åģ¥åº·": 3525,
      "åģĩ": 3526,
      "è®¾å¤ĩ": 3527,
      "ours": 3528,
      "ç»ĥ": 3529,
      "åĮ»éĻ¢": 3530,
      "itions": 3531,
      "æŃ¦": 3532,
      "Ø§Øª": 3533,
      "Ġmar": 3534,
      "çŃĶæ¡Ī": 3535,
      "_c": 3536,
      "ida": 3537,
      "Ġopp": 3538,
      "æĹħ": 3539,
      "icht": 3540,
      "çłģ": 3541,
      "ically": 3542,
      "////": 3543,
      "ĠÑĦ": 3544,
      "åĽłæŃ¤": 3545,
      ".C": 3546,
      "åģľ": 3547,
      "è½¯": 3548,
      "Ġonline": 3549,
      "Ġcell": 3550,
      "Data": 3551,
      "Ġappro": 3552,
      "æĬĹ": 3553,
      "elt": 3554,
      "à´¿à´": 3555,
      "èŃ": 3556,
      "Ġsing": 3557,
      "ici": 3558,
      "ĠAm": 3559,
      ".\"": 3560,
      "åĪļ": 3561,
      "itor": 3562,
      "',Ċ": 3563,
      "Ġlight": 3564,
      "Ġcost": 3565,
      "ä¹ĭåĲİ": 3566,
      "ç²¾ç¥ŀ": 3567,
      "æ³¢": 3568,
      "Ġ*/Ċ": 3569,
      "ä¸ĥ": 3570,
      "head": 3571,
      "ĠÐĲ": 3572,
      "æ¯Ĵ": 3573,
      "ç»ľ": 3574,
      "å®£": 3575,
      "çĶ²": 3576,
      "Ġmit": 3577,
      "ç»Ŀ": 3578,
      "quest": 3579,
      "ĠÑį": 3580,
      "')": 3581,
      "lete": 3582,
      "ione": 3583,
      "date": 3584,
      "\\x": 3585,
      "Ġprivate": 3586,
      "ĠSu": 3587,
      "äº«": 3588,
      "Ġtot": 3589,
      "Ġpay": 3590,
      "à¥ĭ": 3591,
      "ably": 3592,
      "Ġview": 3593,
      "ĠØ§ÙĦØ": 3594,
      "sw": 3595,
      "èĹ": 3596,
      "ÄŁ": 3597,
      "Ïĩ": 3598,
      "ĠTe": 3599,
      "enn": 3600,
      "æĿĲæĸĻ": 3601,
      "Ġaff": 3602,
      "ĠÙĩ": 3603,
      "ðŁ": 3604,
      "ç½Ĺ": 3605,
      "å®ĮæĪĲ": 3606,
      "ains": 3607,
      "nal": 3608,
      "Ġsince": 3609,
      "ĠÎµ": 3610,
      "ä¹ĭéĹ´": 3611,
      "å¤§åŃ¦": 3612,
      "å¸ĮæľĽ": 3613,
      "arget": 3614,
      "ination": 3615,
      "çĪ¶": 3616,
      "Ġbody": 3617,
      "èįī": 3618,
      "fig": 3619,
      "ÑģÐ¸": 3620,
      "ling": 3621,
      "oney": 3622,
      "ca": 3623,
      "æįŁ": 3624,
      "Ġschool": 3625,
      "ä½Ļ": 3626,
      "Al": 3627,
      "åı¶": 3628,
      "ĠØ³": 3629,
      "Ø§ÛĮ": 3630,
      "çĶ±äºİ": 3631,
      "å¼Ģå±ķ": 3632,
      "ëĭ": 3633,
      "iver": 3634,
      "ĠMan": 3635,
      "ä¸¤ä¸ª": 3636,
      "èıľ": 3637,
      "men": 3638,
      "æŃĮ": 3639,
      "Ġgrow": 3640,
      "ration": 3641,
      "ĠÙĨ": 3642,
      "ĠNo": 3643,
      "å¿ħé¡»": 3644,
      "_p": 3645,
      "èĤī": 3646,
      "ability": 3647,
      "Ġresp": 3648,
      "ki": 3649,
      "æ¹ĸ": 3650,
      "oj": 3651,
      "åŃĺåľ¨": 3652,
      "Ã¸": 3653,
      "Ġadv": 3654,
      "Ġport": 3655,
      "Ġchang": 3656,
      "Ã¡n": 3657,
      "é¡º": 3658,
      "Ġbro": 3659,
      "Ġconne": 3660,
      "cle": 3661,
      "Ġleft": 3662,
      "ift": 3663,
      "ĠPr": 3664,
      "åĩºæĿ¥": 3665,
      "ç¨³": 3666,
      "mm": 3667,
      "Ġcontrol": 3668,
      "Ġdr": 3669,
      "æĢ¥": 3670,
      "ervice": 3671,
      ".g": 3672,
      "ering": 3673,
      "è´£ä»»": 3674,
      "ĠÎ¼": 3675,
      "Ġmodel": 3676,
      "æħ¢": 3677,
      "Ġprom": 3678,
      "FF": 3679,
      "LL": 3680,
      "ively": 3681,
      "çĽ®åīį": 3682,
      "but": 3683,
      "ubl": 3684,
      "å¥Ĺ": 3685,
      "ç¨İ": 3686,
      "ĠBr": 3687,
      "_l": 3688,
      "åħ³äºİ": 3689,
      "uy": 3690,
      "æ´Ĺ": 3691,
      "Ġlocal": 3692,
      "çº³": 3693,
      "áĥĿ": 3694,
      "ump": 3695,
      "åºĶçĶ¨": 3696,
      ">čĊ": 3697,
      ".f": 3698,
      "åı«": 3699,
      "ground": 3700,
      "åī§": 3701,
      "æľīéĻĲ": 3702,
      "Ġdidn": 3703,
      "ĠØ£": 3704,
      "ä¼¼": 3705,
      "Æ°á»": 3706,
      "çĩ": 3707,
      "Ġless": 3708,
      "ÐµÐ»ÑĮ": 3709,
      "Ġtext": 3710,
      "If": 3711,
      "éĽ¨": 3712,
      "ĠLa": 3713,
      "ini": 3714,
      "Cl": 3715,
      "Ġ×Ķ×": 3716,
      "å·´": 3717,
      "ĠUnivers": 3718,
      "çĽ´æİ¥": 3719,
      "Ġwithin": 3720,
      "Ġcheck": 3721,
      "ç²ī": 3722,
      "ä»·æł¼": 3723,
      "Ġeng": 3724,
      "ĠÐ¸Ð·": 3725,
      "åŁİå¸Ĥ": 3726,
      "irl": 3727,
      "()Ċ": 3728,
      ".t": 3729,
      "Ġweight": 3730,
      "è¡Įä¸ļ": 3731,
      "éļľ": 3732,
      "æ±ī": 3733,
      "æĭ¿": 3734,
      "You": 3735,
      "ches": 3736,
      "çľĭåĪ°": 3737,
      "do": 3738,
      "à¸ģ": 3739,
      "ĠĠĠĠĠĠ": 3740,
      "En": 3741,
      "Ġben": 3742,
      "åĪ¤": 3743,
      "Ġinvest": 3744,
      "ãģ": 3745,
      "ç¼º": 3746,
      "ĠÐ³Ð¾Ð´": 3747,
      "èĵ": 3748,
      "à¤¨": 3749,
      "Ġgroup": 3750,
      "ĠGr": 3751,
      "èĭ¥": 3752,
      "è¯Ĺ": 3753,
      "Ð½Ñĸ": 3754,
      "ched": 3755,
      "ĠUS": 3756,
      "Ġthought": 3757,
      "éģĩ": 3758,
      "Ġmanag": 3759,
      "ĠâĢĺ": 3760,
      "èĥĮ": 3761,
      "Ĳ×": 3762,
      "ĉif": 3763,
      "RO": 3764,
      "ä»¤": 3765,
      "unt": 3766,
      "Ġgive": 3767,
      "Ġbas": 3768,
      "IS": 3769,
      "CT": 3770,
      "ially": 3771,
      "ç»¿": 3772,
      "Ġmil": 3773,
      ",\"": 3774,
      "Ġelect": 3775,
      "../": 3776,
      "æĢĢ": 3777,
      "çģµ": 3778,
      "Ġfull": 3779,
      "ita": 3780,
      "å¤«": 3781,
      "çĤİ": 3782,
      "Ġmag": 3783,
      "à§į": 3784,
      "ett": 3785,
      "Ġmult": 3786,
      "Ġproject": 3787,
      "è§£åĨ³": 3788,
      "Ġexpect": 3789,
      "ision": 3790,
      "Ġdays": 3791,
      "Ġtak": 3792,
      "Ġsw": 3793,
      "Ð°Ñģ": 3794,
      "çŃĳ": 3795,
      "Ġchange": 3796,
      "Ú¯": 3797,
      "adi": 3798,
      "è¡¨ç¤º": 3799,
      "']": 3800,
      "àµģ": 3801,
      "DE": 3802,
      "ä¹ħ": 3803,
      "Ġsimp": 3804,
      "Ð½Ðµ": 3805,
      "à²¿": 3806,
      "Ġavailable": 3807,
      "ards": 3808,
      "========": 3809,
      "ä¹Ŀ": 3810,
      "åĨ²": 3811,
      "è®¡ç®Ĺ": 3812,
      "vious": 3813,
      "cer": 3814,
      "æĴŃ": 3815,
      "©×": 3816,
      "ĠSystem": 3817,
      "ç§ĳåŃ¦": 3818,
      "ĳ×": 3819,
      "âĳ": 3820,
      "éĥ¨éĹ¨": 3821,
      "èĩªçĦ¶": 3822,
      "ference": 3823,
      "Ġside": 3824,
      "ä¸ĢæŃ¥": 3825,
      "Ġapplic": 3826,
      "éĿĻ": 3827,
      "outh": 3828,
      "à¹ī": 3829,
      "å°Ħ": 3830,
      "ÑģÑĤÐ¸": 3831,
      "èŃ¦": 3832,
      "Ġable": 3833,
      "åľ°æĸ¹": 3834,
      "à¦¾à¦": 3835,
      "``": 3836,
      "Ø§Ùħ": 3837,
      "Ġservice": 3838,
      "Ġteam": 3839,
      "æ±½": 3840,
      "['": 3841,
      "Ð°Ð»ÑĮ": 3842,
      "é±": 3843,
      "Ġincluding": 3844,
      "action": 3845,
      "éĿ©": 3846,
      "resent": 3847,
      "ÙĬØ©": 3848,
      "ĠÐĿ": 3849,
      "Ġprim": 3850,
      "ived": 3851,
      "æķĻå¸Ī": 3852,
      "çĸ«": 3853,
      "itive": 3854,
      "Ġaway": 3855,
      "ĠEl": 3856,
      "What": 3857,
      "'re": 3858,
      "ç»ĵæŀľ": 3859,
      "ç¾İåĽ½": 3860,
      "bd": 3861,
      "ano": 3862,
      "Ġcustom": 3863,
      "Ġnull": 3864,
      "Ġà¨": 3865,
      "éĴĪ": 3866,
      "é½": 3867,
      "è½®": 3868,
      "Ġlim": 3869,
      "Ġgen": 3870,
      "æĽ¾": 3871,
      "æĽ²": 3872,
      "èĭı": 3873,
      "ï½": 3874,
      "æĿ¡ä»¶": 3875,
      "As": 3876,
      "opt": 3877,
      "ieve": 3878,
      "ording": 3879,
      "ìĹ": 3880,
      "ĠWhat": 3881,
      "Î¹Îº": 3882,
      "ails": 3883,
      "é±¼": 3884,
      "Ġfac": 3885,
      "Ġret": 3886,
      "Ġmarket": 3887,
      "æľºæŀĦ": 3888,
      "const": 3889,
      "AP": 3890,
      "ohn": 3891,
      "åºŃ": 3892,
      "ley": 3893,
      "Ġsuper": 3894,
      "ä»£è¡¨": 3895,
      "åī¯": 3896,
      "Ġkind": 3897,
      "ĠÑĸ": 3898,
      "Ġbit": 3899,
      "éĴŁ": 3900,
      "åİŁåĽł": 3901,
      "Ġoffer": 3902,
      "Ð²Ð¸": 3903,
      "éĻĦ": 3904,
      "Ð¾Ð»ÑĮ": 3905,
      "ÐºÐ¾": 3906,
      "Ð¡": 3907,
      "www": 3908,
      "ga": 3909,
      "å½©": 3910,
      "æľĿ": 3911,
      "ç½ĳç»ľ": 3912,
      "å¤ľ": 3913,
      "ÐµÑĢÐµ": 3914,
      "var": 3915,
      "_f": 3916,
      "æĿ¾": 3917,
      "Ġlas": 3918,
      "Ġstudy": 3919,
      "ĠÐĳ": 3920,
      "ç»¼": 3921,
      "Ġfinal": 3922,
      "åıªæľī": 3923,
      "ante": 3924,
      "ros": 3925,
      "éĻĪ": 3926,
      "è¿ĲåĬ¨": 3927,
      "va": 3928,
      "èµĦæºĲ": 3929,
      "ances": 3930,
      "Åĳ": 3931,
      "ots": 3932,
      "Ġocc": 3933,
      "Ġbeg": 3934,
      "Ġlog": 3935,
      "ET": 3936,
      "ä»Ĭå¤©": 3937,
      "rain": 3938,
      "ç©¿": 3939,
      "Ġinc": 3940,
      "Ġey": 3941,
      "Ð»ÑĮ": 3942,
      "Ïį": 3943,
      "å©ļ": 3944,
      "éĩĬ": 3945,
      "æľĢåĲİ": 3946,
      "Ġroom": 3947,
      "ĠAt": 3948,
      "ories": 3949,
      "ids": 3950,
      "Ð¼Ð°": 3951,
      "è¡£": 3952,
      "å¾ĹåĪ°": 3953,
      "å¥ĩ": 3954,
      "åįļ": 3955,
      "Ġmom": 3956,
      "ocument": 3957,
      "ä¸įæĸŃ": 3958,
      "äº®": 3959,
      "è®¤ä¸º": 3960,
      "å¥ĸ": 3961,
      "Ġnh": 3962,
      "Ġbi": 3963,
      "rac": 3964,
      "à¤ķ": 3965,
      "inn": 3966,
      "ries": 3967,
      "åĿĲ": 3968,
      "ression": 3969,
      "fect": 3970,
      "éĺ¿": 3971,
      "Ġagainst": 3972,
      "ä¿ĿæĬ¤": 3973,
      "Ġsever": 3974,
      "åħ°": 3975,
      "Ġwhy": 3976,
      "ideo": 3977,
      "Ø·": 3978,
      "à°Ĥ": 3979,
      "æķĪæŀľ": 3980,
      "Ñĳ": 3981,
      "Ġarea": 3982,
      "ulation": 3983,
      "Ġthing": 3984,
      "çĽ®æłĩ": 3985,
      "Ġhtt": 3986,
      "Ø®": 3987,
      "utes": 3988,
      "à¯įà®ķ": 3989,
      "Ġexperience": 3990,
      "ĠĠĠĠĠĠĠĠĠĠĠĠĠ": 3991,
      "ando": 3992,
      "But": 3993,
      "ĠÑĢÐµ": 3994,
      "çŃ¾": 3995,
      "ä¸½": 3996,
      "ç¬Ķ": 3997,
      "ready": 3998,
      "å¸®åĬ©": 3999,
      "erg": 4000,
      "ĠApp": 4001,
      "åİĨåı²": 4002,
      "'ve": 4003,
      "AD": 4004,
      "thers": 4005,
      "ouble": 4006,
      "alt": 4007,
      "ku": 4008,
      "Ġwhe": 4009,
      "Ġge": 4010,
      "Ġnet": 4011,
      "è¿Ľåħ¥": 4012,
      "å®ŀéĻħ": 4013,
      "Ġmot": 4014,
      "ĠÑħ": 4015,
      "ĠCar": 4016,
      "ico": 4017,
      "æ¤į": 4018,
      "à¤Ĥ": 4019,
      "viron": 4020,
      "ured": 4021,
      "yt": 4022,
      "Ġfile": 4023,
      "çī¹åĪ«": 4024,
      "Ġ,": 4025,
      "pped": 4026,
      "Ġmean": 4027,
      "ä¾§": 4028,
      "Ġident": 4029,
      "Col": 4030,
      "nh": 4031,
      "Se": 4032,
      "Ġorig": 4033,
      "ume": 4034,
      ",âĢĿ": 4035,
      "ç´¢": 4036,
      "Ã±": 4037,
      "æ¦Ĥ": 4038,
      "èĸ": 4039,
      "ĠQu": 4040,
      "Tr": 4041,
      "è§īå¾Ĺ": 4042,
      "Ġma": 4043,
      "æĺ¯åĲ¦": 4044,
      "å½¢æĪĲ": 4045,
      "\");Ċ": 4046,
      "ĠEng": 4047,
      "Ġaddition": 4048,
      "à®°": 4049,
      "gu": 4050,
      "ii": 4051,
      "åįł": 4052,
      "Ġur": 4053,
      "ä¸°": 4054,
      "aper": 4055,
      "Ġtechn": 4056,
      "ending": 4057,
      "ä¸ĢçĽ´": 4058,
      "Ġcompany": 4059,
      "ones": 4060,
      "Ġkey": 4061,
      "ED": 4062,
      "çīĽ": 4063,
      "à¦¿": 4064,
      "éģ¿": 4065,
      "Ġfar": 4066,
      "Ġsize": 4067,
      "èĭ¦": 4068,
      "ille": 4069,
      "ĠØ´": 4070,
      "äº§çĶŁ": 4071,
      "æ¯Ľ": 4072,
      "ĠØ±": 4073,
      "ury": 4074,
      "Ð½Ð¾Ð³Ð¾": 4075,
      "Ġist": 4076,
      "é¡µ": 4077,
      "åħ·ä½ĵ": 4078,
      "åĽ½éĻħ": 4079,
      "èĻ½çĦ¶": 4080,
      "æŃ£ç¡®": 4081,
      "Ġcolor": 4082,
      "Ġâ": 4083,
      "Ġunderstand": 4084,
      "à·Ĭ": 4085,
      "On": 4086,
      "Øµ": 4087,
      "ba": 4088,
      "Ġtreat": 4089,
      "éĺ¶": 4090,
      "ris": 4091,
      "éĴ¢": 4092,
      "Ġdas": 4093,
      "ç¯ĩ": 4094,
      "æ°´å¹³": 4095,
      "Ġlooking": 4096,
      "ple": 4097,
      "ä¿ĥ": 4098,
      "èĻĳ": 4099,
      "è´µ": 4100,
      "ĠÑı": 4101,
      "ĠMe": 4102,
      "ession": 4103,
      "Ob": 4104,
      "è¡Įä¸º": 4105,
      "conom": 4106,
      "crib": 4107,
      "ĠdÃ©": 4108,
      "vert": 4109,
      "ero": 4110,
      "éĢĢ": 4111,
      "opy": 4112,
      "à¹Ģà¸": 4113,
      "met": 4114,
      "aim": 4115,
      "è¯¢": 4116,
      "Ġdan": 4117,
      "å®Ī": 4118,
      "Ġann": 4119,
      "à©": 4120,
      "Ġhet": 4121,
      "å³": 4122,
      "éĩĩçĶ¨": 4123,
      "ĠComm": 4124,
      "........": 4125,
      "Ã©e": 4126,
      "Ä±n": 4127,
      "æİ¢": 4128,
      ")ĊĊ": 4129,
      "OT": 4130,
      "Ð´Ð¸": 4131,
      "Î´": 4132,
      "æķ£": 4133,
      "anks": 4134,
      "ko": 4135,
      "ih": 4136,
      "public": 4137,
      "ands": 4138,
      "Ġmaj": 4139,
      "Ġevent": 4140,
      "ĠMed": 4141,
      "ican": 4142,
      "aps": 4143,
      "çĻ»": 4144,
      "ä¸ĢçĤ¹": 4145,
      "ends": 4146,
      "View": 4147,
      "Ġcou": 4148,
      "æľīæķĪ": 4149,
      "ĠThat": 4150,
      "vern": 4151,
      "Ġbased": 4152,
      "lt": 4153,
      "Ġexc": 4154,
      "Ġair": 4155,
      "æ¯ķ": 4156,
      "éª¨": 4157,
      "à¸±": 4158,
      "ç»©": 4159,
      "åīĤ": 4160,
      "Ġfield": 4161,
      "da": 4162,
      "ya": 4163,
      "].": 4164,
      "Ġhaving": 4165,
      "ĠDo": 4166,
      "Ġlow": 4167,
      "ĠChrist": 4168,
      "user": 4169,
      "Ġuser": 4170,
      "æĵįä½ľ": 4171,
      "zen": 4172,
      "Ġredu": 4173,
      "Ġplan": 4174,
      "Ġtyp": 4175,
      "____": 4176,
      ".h": 4177,
      "data": 4178,
      "ĠPar": 4179,
      "ç§¯æŀģ": 4180,
      "Ġjob": 4181,
      "ctor": 4182,
      "ç»į": 4183,
      "åĪĺ": 4184,
      "èİ·å¾Ĺ": 4185,
      "ÑĸÐ´": 4186,
      "ster": 4187,
      "Ġstyle": 4188,
      "CO": 4189,
      "ĠÐł": 4190,
      "ĠString": 4191,
      "æŀ¶": 4192,
      "Ġstruct": 4193,
      "ither": 4194,
      "Ġtimes": 4195,
      "ION": 4196,
      "my": 4197,
      "erc": 4198,
      "IG": 4199,
      "å®ŀæĸ½": 4200,
      "body": 4201,
      "ati": 4202,
      "ÑĤÑĮ": 4203,
      "ĠMy": 4204,
      "Ġreview": 4205,
      "uild": 4206,
      "II": 4207,
      "='": 4208,
      "Ġproblem": 4209,
      "Ġja": 4210,
      "aff": 4211,
      "ips": 4212,
      "iod": 4213,
      "ÑĸÐ²": 4214,
      "Ġzu": 4215,
      "Ġaccess": 4216,
      "Ġmill": 4217,
      "åĲĦç§į": 4218,
      "æĦŁè§ī": 4219,
      "Ġau": 4220,
      "icro": 4221,
      "åĵĪ": 4222,
      "Ġpri": 4223,
      "åłĤ": 4224,
      "è¿ĻéĩĮ": 4225,
      "idual": 4226,
      "Ġtalk": 4227,
      "kan": 4228,
      "åĪ©çĶ¨": 4229,
      "ĉreturn": 4230,
      "åºĵ": 4231,
      "å¢ŀåĬł": 4232,
      "ali": 4233,
      "ç¬¦": 4234,
      "è¯¯": 4235,
      "æ°¸": 4236,
      "åİĤ": 4237,
      "ret": 4238,
      "áĥĿáĥ": 4239,
      "Ġmaterial": 4240,
      "Ġexample": 4241,
      "é¢Ĩå¯¼": 4242,
      "Ġsuccess": 4243,
      "_{": 4244,
      "ĠÑģÐµ": 4245,
      "Ġimpro": 4246,
      "mber": 4247,
      "For": 4248,
      "éĿł": 4249,
      "ograph": 4250,
      "ä¸įè¿ĩ": 4251,
      "Ġlaw": 4252,
      "ÑģÐ¿": 4253,
      "ude": 4254,
      "An": 4255,
      "Ġenc": 4256,
      "ÐºÑĥ": 4257,
      "Ġresearch": 4258,
      "By": 4259,
      "ä¸Ŀ": 4260,
      "AB": 4261,
      "orth": 4262,
      "ç§Ģ": 4263,
      "off": 4264,
      "å¯¼èĩ´": 4265,
      "ification": 4266,
      ".html": 4267,
      "èģļ": 4268,
      "ÎµÎ¹": 4269,
      "âĢĻre": 4270,
      "ych": 4271,
      "ayer": 4272,
      "åıªæĺ¯": 4273,
      "Ġyang": 4274,
      "ĠØ§ÙĦÙħ": 4275,
      "åħ¸": 4276,
      "Ġfour": 4277,
      "ades": 4278,
      "mi": 4279,
      ">ĊĊ": 4280,
      "Ġele": 4281,
      "Ġpract": 4282,
      "):": 4283,
      "],": 4284,
      "éĵ¶è¡Į": 4285,
      "è¡Ĺ": 4286,
      "bar": 4287,
      "æīĺ": 4288,
      "ura": 4289,
      "áº¿": 4290,
      "Ġdat": 4291,
      "å¹¸": 4292,
      "ocus": 4293,
      "Ð³Ð¾": 4294,
      "Ġresults": 4295,
      "ÒĽ": 4296,
      "Ġfre": 4297,
      "ken": 4298,
      "ĠWhen": 4299,
      "Ġfood": 4300,
      "Ġcas": 4301,
      "ua": 4302,
      "ido": 4303,
      "äº¿": 4304,
      "aciÃ³n": 4305,
      "umn": 4306,
      "ÙĪØ±": 4307,
      "ĠFl": 4308,
      "Ġeen": 4309,
      "åĲĮåŃ¦": 4310,
      "è®¡åĪĴ": 4311,
      "Ġsite": 4312,
      "ĠCan": 4313,
      "fr": 4314,
      "Ġsem": 4315,
      "Ġess": 4316,
      "è¿½": 4317,
      "ĠWith": 4318,
      "Ġpossible": 4319,
      "Ġprovide": 4320,
      "lar": 4321,
      "ised": 4322,
      "ĠÙģÙĬ": 4323,
      "èĮ¶": 4324,
      "Ġalready": 4325,
      "åĢŁ": 4326,
      "Ùī": 4327,
      "Le": 4328,
      "å¥¶": 4329,
      "Ġchildren": 4330,
      "ÃŁ": 4331,
      "à¯Ī": 4332,
      "ended": 4333,
      "é¥®": 4334,
      "à´¾": 4335,
      "æĩ": 4336,
      "ortun": 4337,
      "åŃķ": 4338,
      "èĽĭ": 4339,
      "æľīåħ³": 4340,
      "ĠGod": 4341,
      "è°Ī": 4342,
      "à¸ĩ": 4343,
      "Ġindiv": 4344,
      "áº¡": 4345,
      "Ġcontent": 4346,
      "ried": 4347,
      "Ġleast": 4348,
      "Ġlarge": 4349,
      "å®ģ": 4350,
      "Ġmind": 4351,
      "Ġoch": 4352,
      "(Ċ": 4353,
      "Ġom": 4354,
      "Ġfut": 4355,
      "æ²Ļ": 4356,
      "äº§ä¸ļ": 4357,
      "Ġloss": 4358,
      "è°ģ": 4359,
      "è®¾ç½®": 4360,
      "Ġsocial": 4361,
      "åºĬ": 4362,
      "Ã¦": 4363,
      "à®¤": 4364,
      "iá»": 4365,
      "ĠGu": 4366,
      "ural": 4367,
      "ÃŃa": 4368,
      "åľĨ": 4369,
      "çĳ": 4370,
      "Ġmove": 4371,
      "Ġobject": 4372,
      "How": 4373,
      "Ġbreak": 4374,
      "Ġdans": 4375,
      "æ¸¸æĪı": 4376,
      ".D": 4377,
      "Text": 4378,
      "Ġfollowing": 4379,
      "åľ°åĮº": 4380,
      "Ġfalse": 4381,
      "Ġposition": 4382,
      "($": 4383,
      "ples": 4384,
      "-w": 4385,
      "ysis": 4386,
      "Ġallow": 4387,
      "Ġpour": 4388,
      "_id": 4389,
      "irt": 4390,
      "pper": 4391,
      "ĠCent": 4392,
      "å»ºçŃĳ": 4393,
      "Ã²": 4394,
      "ĠÐ¢": 4395,
      "Ġstring": 4396,
      "Ġbuy": 4397,
      "åįĸ": 4398,
      "åĽ°": 4399,
      "Ġnight": 4400,
      "value": 4401,
      "And": 4402,
      "ĠEr": 4403,
      "Ġface": 4404,
      "Ð°Ð»Ð¸": 4405,
      "èľ": 4406,
      "åĲ¯": 4407,
      "ç»ĵåĲĪ": 4408,
      "çĪ¸": 4409,
      "Ġcreate": 4410,
      "Ġcourse": 4411,
      "æŃ£å¸¸": 4412,
      "æĽ´å¤ļ": 4413,
      "aring": 4414,
      "Ġpast": 4415,
      ".set": 4416,
      "Ġtoday": 4417,
      "Ġcir": 4418,
      "å®¹æĺĵ": 4419,
      "Ġtell": 4420,
      "gl": 4421,
      "Ġmaking": 4422,
      "ĠÐĶ": 4423,
      "çĶ³è¯·": 4424,
      "Ġspecial": 4425,
      "ormal": 4426,
      "Ġmoney": 4427,
      "æīĭæľº": 4428,
      "oad": 4429,
      "è·Ŀ": 4430,
      "ÐµÐ½Ð¸Ñı": 4431,
      "Ã¬": 4432,
      "Ġste": 4433,
      "string": 4434,
      "Ð²Ð¾": 4435,
      "Ġlik": 4436,
      "åįĪ": 4437,
      "àµģà´": 4438,
      "zi": 4439,
      "Ġwrit": 4440,
      "Ġphot": 4441,
      "cription": 4442,
      "ç¤¼": 4443,
      "Ġmeet": 4444,
      "åĪ¶åº¦": 4445,
      "ĠMay": 4446,
      "fic": 4447,
      "ÑĪÐ¸": 4448,
      "á»Ļ": 4449,
      "hel": 4450,
      "Ġdone": 4451,
      "åĮĹäº¬": 4452,
      "Ġhal": 4453,
      "æĮĩå¯¼": 4454,
      "Ð°Ð¹": 4455,
      "æĿĤ": 4456,
      "ä¹İ": 4457,
      "ĠØ¯Ø±": 4458,
      "po": 4459,
      "à§įà¦": 4460,
      "è¡¨çİ°": 4461,
      "oman": 4462,
      "Ġuntil": 4463,
      "Ä«": 4464,
      "å°ģ": 4465,
      "Ġshort": 4466,
      "Ġaccount": 4467,
      "ĠĠĠĠĠĠĠĠĠĠĠĠĠĠĠĠĠĠĠĠĠĠĠĠĠĠĠ": 4468,
      "Ġfore": 4469,
      "çĨŁ": 4470,
      "Ġbar": 4471,
      "ager": 4472,
      "Ġworking": 4473,
      "Ġune": 4474,
      "UT": 4475,
      "Ġauf": 4476,
      "æľīéĻĲåħ¬åı¸": 4477,
      "æĤ£èĢħ": 4478,
      "åħ¶å®ŀ": 4479,
      "Ġhouse": 4480,
      "å¤ļå°ĳ": 4481,
      "é¡¶": 4482,
      "Ġprob": 4483,
      "æ³ķå¾ĭ": 4484,
      "çĺ": 4485,
      "èĦļ": 4486,
      "place": 4487,
      "gs": 4488,
      "æĶ¯æĮģ": 4489,
      ".M": 4490,
      "wa": 4491,
      "åĬłå¼º": 4492,
      "åĩĢ": 4493,
      "pping": 4494,
      "ĠUniversity": 4495,
      "ÑĥÐ´": 4496,
      "Wh": 4497,
      "ring": 4498,
      "è¿ŀæİ¥": 4499,
      "itch": 4500,
      "Ġtrad": 4501,
      "æĸĹ": 4502,
      "åĬª": 4503,
      "æĪĲåĬŁ": 4504,
      "à¸µ": 4505,
      ");čĊ": 4506,
      "Ġà¸": 4507,
      "idd": 4508,
      "Ġí": 4509,
      "ape": 4510,
      "ä¸ľè¥¿": 4511,
      "ĠÙħÙĨ": 4512,
      "Ġpod": 4513,
      "ney": 4514,
      "http": 4515,
      "å¤ı": 4516,
      "rel": 4517,
      "ÏĨ": 4518,
      "init": 4519,
      "æıı": 4520,
      "urther": 4521,
      "¤Ĳ": 4522,
      "Ġenough": 4523,
      "æĭį": 4524,
      "Ġsec": 4525,
      "èĥľ": 4526,
      "æĢĿæĥ³": 4527,
      "side": 4528,
      "osed": 4529,
      "Ð½ÑĭÑħ": 4530,
      "ä»ĭç»į": 4531,
      "Î¸": 4532,
      "èĦ¸": 4533,
      "æıĲåįĩ": 4534,
      "ÐŁ": 4535,
      "Ø§Ø¯": 4536,
      "param": 4537,
      "ben": 4538,
      "çĶļ": 4539,
      "ç»¼åĲĪ": 4540,
      "é¡¾": 4541,
      "Ġmeas": 4542,
      "Ġmo": 4543,
      "åıĤåĬł": 4544,
      ".âĢĿĊ": 4545,
      "orld": 4546,
      "æĿ¥è¯´": 4547,
      "ä»¥ä¸ĭ": 4548,
      "Ġos": 4549,
      "Ġcertain": 4550,
      "ĠSte": 4551,
      "Ġgra": 4552,
      "ĠÐ²Ñĭ": 4553,
      "Ġcomb": 4554,
      "Äĩ": 4555,
      "ĠâĢŀ": 4556,
      "code": 4557,
      "CH": 4558,
      "ript": 4559,
      "çĽĸ": 4560,
      "Sh": 4561,
      "ä»·åĢ¼": 4562,
      "bt": 4563,
      "Ġpain": 4564,
      "Ð½Ð¾Ð¹": 4565,
      "Ġsex": 4566,
      "Ġcover": 4567,
      ");": 4568,
      "Ġmeans": 4569,
      "Ġgiven": 4570,
      "ety": 4571,
      "ÑĩÐ¸": 4572,
      "å¹¼": 4573,
      "âĢĭ": 4574,
      "vironment": 4575,
      "ĠÐŀ": 4576,
      "à¤¤": 4577,
      "UR": 4578,
      "å±ŀäºİ": 4579,
      "ä¸ļåĬ¡": 4580,
      "ĠPol": 4581,
      "èĹı": 4582,
      "Ġir": 4583,
      "å¹³åı°": 4584,
      "à¯įà®¤": 4585,
      "Ġdue": 4586,
      "ĠAss": 4587,
      "Ġdri": 4588,
      "Im": 4589,
      "Ġaf": 4590,
      "Ð°ÑĤÑĮ": 4591,
      "Un": 4592,
      "ĠÏĦÎ·": 4593,
      "Ġstep": 4594,
      "Ġinit": 4595,
      "Ġng": 4596,
      "Ġpressure": 4597,
      "print": 4598,
      "eder": 4599,
      "åıĺåĮĸ": 4600,
      "'ll": 4601,
      "umber": 4602,
      "key": 4603,
      "ĠCo": 4604,
      "now": 4605,
      "sel": 4606,
      "joy": 4607,
      "book": 4608,
      "Pl": 4609,
      "ente": 4610,
      "Ġpa": 4611,
      "ored": 4612,
      "å½Ĵ": 4613,
      "Ð³Ð°": 4614,
      "apt": 4615,
      "éĺ´": 4616,
      "angu": 4617,
      "èĳĹ": 4618,
      "çİī": 4619,
      "à²¿à²": 4620,
      "æĪĳåĽ½": 4621,
      "åĪĽæĸ°": 4622,
      "åª": 4623,
      "èº«ä½ĵ": 4624,
      "ç§ĳæĬĢ": 4625,
      "Ġcalled": 4626,
      "ques": 4627,
      "\"><": 4628,
      "èĪª": 4629,
      "éĽª": 4630,
      "Ġabs": 4631,
      "ç¬¬ä¸ī": 4632,
      "atures": 4633,
      "æīįèĥ½": 4634,
      "ÑĢÐ¾Ð²": 4635,
      "ï¿½ï¿½ï¿½ï¿½": 4636,
      "åĬªåĬĽ": 4637,
      "irm": 4638,
      "åŁ¹è®Ń": 4639,
      "Ġcult": 4640,
      "Par": 4641,
      "Ġtoget": 4642,
      "Ġrequire": 4643,
      "Ġli": 4644,
      "reen": 4645,
      "è´Łè´£": 4646,
      "Ġtogether": 4647,
      "Ġod": 4648,
      "ources": 4649,
      "ç§ĭ": 4650,
      "è¾¾åĪ°": 4651,
      "().": 4652,
      "Ġcomplet": 4653,
      "ication": 4654,
      "nÃŃ": 4655,
      "çģ¯": 4656,
      "è¿İ": 4657,
      "à´¾à´": 4658,
      "ĠCont": 4659,
      "atter": 4660,
      "ç«ŀ": 4661,
      "æĶ»": 4662,
      "Ġcame": 4663,
      "Ġthough": 4664,
      "åĢĴ": 4665,
      "ÙĨØ¯": 4666,
      "Ġprint": 4667,
      "ÑĤÐµ": 4668,
      "ena": 4669,
      "ÓĻ": 4670,
      "å®īè£ħ": 4671,
      "Ġmor": 4672,
      "Ġalong": 4673,
      "Ġothers": 4674,
      "Ġstat": 4675,
      "åħ³éĶ®": 4676,
      "åį±": 4677,
      "Ġlink": 4678,
      "Ġsitu": 4679,
      "ëĬ": 4680,
      "Ġspecific": 4681,
      "sch": 4682,
      "Ġhig": 4683,
      "rict": 4684,
      "ÑĨÑĸ": 4685,
      "æĮ¥": 4686,
      "ĠSc": 4687,
      "uz": 4688,
      "vo": 4689,
      "osp": 4690,
      "Ġdeterm": 4691,
      "Ġoften": 4692,
      "é¹": 4693,
      "Er": 4694,
      "Ġland": 4695,
      "rap": 4696,
      "room": 4697,
      "Ġbir": 4698,
      "Ġdom": 4699,
      "ogle": 4700,
      "ä¼ĳ": 4701,
      "US": 4702,
      "ĠÐ±Ñĭ": 4703,
      "æĸ¹åĲĳ": 4704,
      "æĶ¿çŃĸ": 4705,
      "ales": 4706,
      "å®ľ": 4707,
      "å®«": 4708,
      "çĿ£": 4709,
      "ables": 4710,
      "æĿĢ": 4711,
      "Ġsoft": 4712,
      "å¦Īå¦Ī": 4713,
      "æ··": 4714,
      "ìĿ´": 4715,
      "ĊĊĊĊ": 4716,
      "Ġ{čĊ": 4717,
      "ç»§ç»Ń": 4718,
      "uit": 4719,
      "à¸¡": 4720,
      "most": 4721,
      "Ġwind": 4722,
      "æ¸¯": 4723,
      "ĠAb": 4724,
      "ÏĦÎ±": 4725,
      "Ġsam": 4726,
      "Ġà¤¸": 4727,
      "Ġhar": 4728,
      "abor": 4729,
      "äººä»¬": 4730,
      "Ġals": 4731,
      "éĢı": 4732,
      "Get": 4733,
      "åĲĪä½ľ": 4734,
      "Ġcharacter": 4735,
      "æĮīçħ§": 4736,
      "ige": 4737,
      "ĠÐ²Ð¸": 4738,
      "ala": 4739,
      "Ġindust": 4740,
      "åĸĿ": 4741,
      ".\"Ċ": 4742,
      "æĸ½å·¥": 4743,
      "Ġhold": 4744,
      "umb": 4745,
      "Ġwomen": 4746,
      "Ã©n": 4747,
      "ĠÃ¼": 4748,
      "Ãªn": 4749,
      "à·Ĵ": 4750,
      "æİª": 4751,
      "ä¸ºä»Ģä¹Ī": 4752,
      "Ġinclude": 4753,
      "aces": 4754,
      "ç¡¬": 4755,
      "Ġtable": 4756,
      "é¤Ĳ": 4757,
      "Ġrecord": 4758,
      "áº£": 4759,
      "çĶ¨æĪ·": 4760,
      "Ġever": 4761,
      "Ġheart": 4762,
      "ç³ĸ": 4763,
      "Ġindividual": 4764,
      "ji": 4765,
      "èĦ±": 4766,
      "Ġhuman": 4767,
      "color": 4768,
      "ëĭ¤": 4769,
      "Ġexist": 4770,
      "Ġstudents": 4771,
      "Ġwalk": 4772,
      "Ġdiv": 4773,
      "åħ¨åĽ½": 4774,
      "Ġgovern": 4775,
      "åĲĪåĲĮ": 4776,
      "Ġnatur": 4777,
      "stit": 4778,
      "Ġcu": 4779,
      "æĸĩä»¶": 4780,
      "Ġdoesn": 4781,
      "æĢķ": 4782,
      "cted": 4783,
      "é¦Ĩ": 4784,
      "æ±½è½¦": 4785,
      "çĸ¾": 4786,
      "çīĻ": 4787,
      "¢×": 4788,
      "æĸ¹æ¡Ī": 4789,
      "Ġservices": 4790,
      "è¸": 4791,
      "wards": 4792,
      "\"></": 4793,
      "ä»»ä½ķ": 4794,
      "Ġaw": 4795,
      "Ġsignific": 4796,
      "-in": 4797,
      "Ġred": 4798,
      "mod": 4799,
      "äºĪ": 4800,
      "è¯Ĭ": 4801,
      "Ġemploy": 4802,
      "Value": 4803,
      "æı¡": 4804,
      "Ġcreat": 4805,
      "obal": 4806,
      "IM": 4807,
      "æĭ¥": 4808,
      "éĩįçĤ¹": 4809,
      "OS": 4810,
      "æıĲåĩº": 4811,
      "èĥŀ": 4812,
      "Ð¼ÐµÐ½": 4813,
      "à³ģ": 4814,
      "è¿Ľä¸ĢæŃ¥": 4815,
      "Ġseveral": 4816,
      "ered": 4817,
      "èĢĥèĻĳ": 4818,
      "Ġreason": 4819,
      "lected": 4820,
      "ony": 4821,
      "ING": 4822,
      "function": 4823,
      "çĶ°": 4824,
      "ĠRep": 4825,
      "å»ºç«ĭ": 4826,
      "Ġant": 4827,
      "****************": 4828,
      "gar": 4829,
      "æĬĵ": 4830,
      "äºĭæĥħ": 4831,
      "åį·": 4832,
      "Ġgetting": 4833,
      "æķĳ": 4834,
      "lish": 4835,
      "item": 4836,
      "ista": 4837,
      "Ã©r": 4838,
      "Ð½Ñĥ": 4839,
      "èĢĥè¯ķ": 4840,
      "ibr": 4841,
      "Ġkh": 4842,
      "Ġrange": 4843,
      "è·ĳ": 4844,
      "é²ľ": 4845,
      "elle": 4846,
      "ä½įç½®": 4847,
      "idence": 4848,
      "Ġlearn": 4849,
      "Ġpolit": 4850,
      "Ġparticular": 4851,
      "åĩĨå¤ĩ": 4852,
      "AA": 4853,
      "çº¸": 4854,
      "ä¿ĿæĮģ": 4855,
      "ĠReg": 4856,
      "Ġhot": 4857,
      "ç»ıèĲ¥": 4858,
      "ç®±": 4859,
      "\";Ċ": 4860,
      "æİī": 4861,
      "Ġtre": 4862,
      "Ġpas": 4863,
      "éĢĲ": 4864,
      "Ò¯": 4865,
      "åĵģçīĮ": 4866,
      "ÐĴ": 4867,
      "éĺħ": 4868,
      "Ġconc": 4869,
      "Ġabove": 4870,
      "ĠpÃ¥": 4871,
      "èĮĥåĽ´": 4872,
      "Ð»Ðµ": 4873,
      "ä¸»ä¹ī": 4874,
      "Ġstatic": 4875,
      "éĢłæĪĲ": 4876,
      "éľĢæ±Ĥ": 4877,
      "éĹ»": 4878,
      "åħµ": 4879,
      "ober": 4880,
      "ĠDes": 4881,
      "å¸ģ": 4882,
      "è¶£": 4883,
      "Ġartic": 4884,
      "Ġfa": 4885,
      "ores": 4886,
      "ä½łä»¬": 4887,
      "oud": 4888,
      "æİĮ": 4889,
      "atal": 4890,
      "Ġtook": 4891,
      "mit": 4892,
      "img": 4893,
      "log": 4894,
      "includ": 4895,
      "Ġkom": 4896,
      "æĺ¯ä»Ģä¹Ī": 4897,
      "ç«¥": 4898,
      "Ġpage": 4899,
      "Ġwer": 4900,
      "Ġcomo": 4901,
      "Ġsingle": 4902,
      "icy": 4903,
      "Î¹Î±": 4904,
      "avor": 4905,
      "),Ċ": 4906,
      "ÑĥÑĢ": 4907,
      "ilt": 4908,
      "âĢĻm": 4909,
      "çĥŁ": 4910,
      "æ»ĳ": 4911,
      "_S": 4912,
      "ĠChe": 4913,
      "ÛĮÙĨ": 4914,
      "Ġbed": 4915,
      "Ãµ": 4916,
      "åıĬæĹ¶": 4917,
      "Ġsz": 4918,
      "Ġsent": 4919,
      "ĠJohn": 4920,
      "ä»¥åĲİ": 4921,
      "Ã§Ã£o": 4922,
      "ĠÐ¿ÑĢÐ¾": 4923,
      "Ġcur": 4924,
      "ued": 4925,
      "Ġactually": 4926,
      "Ġdevelopment": 4927,
      "acy": 4928,
      "ĠIntern": 4929,
      "çĿ¡": 4930,
      "æľĢå¤§": 4931,
      "Ġbecome": 4932,
      "å»¶": 4933,
      "creen": 4934,
      "å·¦åı³": 4935,
      "Ã°": 4936,
      "vol": 4937,
      "ä¸įä»ħ": 4938,
      "Ġinte": 4939,
      "Ã¤n": 4940,
      "oph": 4941,
      "hing": 4942,
      "æ¬§": 4943,
      "Ġmakes": 4944,
      "Ġ?": 4945,
      "++": 4946,
      "ios": 4947,
      "ules": 4948,
      "ackage": 4949,
      "àª¾": 4950,
      "artment": 4951,
      "Ġpath": 4952,
      "ëĬĶ": 4953,
      "Ġoil": 4954,
      "HE": 4955,
      "Ġperiod": 4956,
      "ĠHowever": 4957,
      "æ´²": 4958,
      "Ġonce": 4959,
      "æ¶Īè´¹": 4960,
      "å¼¹": 4961,
      "é¥Ń": 4962,
      "å¼Ģåıĳ": 4963,
      "ilar": 4964,
      "Ġdoing": 4965,
      "raft": 4966,
      "éĽ¶": 4967,
      "Ġstrong": 4968,
      "Ġlater": 4969,
      "è§¦": 4970,
      "ison": 4971,
      "áĢ¹": 4972,
      "çĮ®": 4973,
      "Ġflo": 4974,
      "ç¡®å®ļ": 4975,
      "ĠComp": 4976,
      "Ïİ": 4977,
      "Ġquality": 4978,
      "æ¡¥": 4979,
      "though": 4980,
      ".F": 4981,
      "hold": 4982,
      "ä¸ĩåħĥ": 4983,
      "Ġol": 4984,
      "ges": 4985,
      "cript": 4986,
      "ĠIm": 4987,
      "ĠPer": 4988,
      "ç®Ģåįķ": 4989,
      "ram": 4990,
      "IP": 4991,
      "Object": 4992,
      "/*": 4993,
      "ä¼´": 4994,
      "ÑĩÐ°": 4995,
      "æĬĺ": 4996,
      "Ġyoung": 4997,
      "Ġwent": 4998,
      "Ġ×ľ×": 4999,
      "ĠEd": 5000,
      "è´·": 5001,
      "ä½³": 5002,
      "è®¨": 5003,
      "ende": 5004,
      "æ°§": 5005,
      "åºĨ": 5006,
      "å®¢æĪ·": 5007,
      "ÑĶ": 5008,
      "Ġpers": 5009,
      "Ġ!=": 5010,
      "ffic": 5011,
      "Ġmajor": 5012,
      "Ind": 5013,
      "Ġpur": 5014,
      "å¸Ŀ": 5015,
      "Ġsat": 5016,
      "åĵ¥": 5017,
      "ĠáĢ": 5018,
      "æĿŁ": 5019,
      "Ġrelations": 5020,
      "æ±ĩ": 5021,
      "Ġtotal": 5022,
      "åĿĢ": 5023,
      "Ġener": 5024,
      "åĿļæĮģ": 5025,
      "ÙĪÙĦ": 5026,
      "ÙĬÙĨ": 5027,
      "Ġquick": 5028,
      "åŃĶ": 5029,
      "ä»ª": 5030,
      "èģĶç³»": 5031,
      "Ġdest": 5032,
      "ened": 5033,
      "/s": 5034,
      "è¯´æĺİ": 5035,
      "Ð¼Ðµ": 5036,
      "æĦıè§ģ": 5037,
      "ball": 5038,
      "ä¼ļè®®": 5039,
      "ĠÐĵ": 5040,
      "ao": 5041,
      "à°¿à°": 5042,
      "Ġrequest": 5043,
      "Ð°Ð´": 5044,
      "Ġwebs": 5045,
      "ä¸ĭæĿ¥": 5046,
      "Ġrespect": 5047,
      "Ġhab": 5048,
      "Ġneeds": 5049,
      "Ġbad": 5050,
      "å¼ķèµ·": 5051,
      "ief": 5052,
      "ĠÑĪ": 5053,
      "ĠNot": 5054,
      "à²¾": 5055,
      "åĳ¼": 5056,
      "orts": 5057,
      "Qu": 5058,
      "éľ²": 5059,
      "err": 5060,
      "æī§è¡Į": 5061,
      "Ġlower": 5062,
      "Ð¸Ñģ": 5063,
      "ocal": 5064,
      "earch": 5065,
      "æ´¾": 5066,
      "Ġfront": 5067,
      "ĠNe": 5068,
      "ĠIN": 5069,
      "uly": 5070,
      "à¸¥": 5071,
      "(s": 5072,
      "ĠfÃ¼r": 5073,
      "ĠĠĠĠĊ": 5074,
      "Ġdescrib": 5075,
      "åĿı": 5076,
      "åħ³æ³¨": 5077,
      "çĶµåŃĲ": 5078,
      "file": 5079,
      "Ġeasy": 5080,
      "ension": 5081,
      "cz": 5082,
      "ora": 5083,
      "åĪº": 5084,
      "Ã¹": 5085,
      "æĹłæ³ķ": 5086,
      "Ġbenef": 5087,
      "ĠGe": 5088,
      "ani": 5089,
      "Ð°ÑĤÐ°": 5090,
      "Ġq": 5091,
      "Ġdiscuss": 5092,
      "ÙĪÙĨ": 5093,
      "index": 5094,
      "Or": 5095,
      "Ġtil": 5096,
      "å¨ģ": 5097,
      "Ġdig": 5098,
      ".P": 5099,
      "çĬ¶æĢģ": 5100,
      "Ó©": 5101,
      "Ġ;": 5102,
      "Ġquestion": 5103,
      "Ġlive": 5104,
      "æ¨¡å¼ı": 5105,
      "è·µ": 5106,
      "çĲĨè®º": 5107,
      "zt": 5108,
      "Ġfilm": 5109,
      "ÐºÐ¾Ð²": 5110,
      "ogn": 5111,
      "Ġmoment": 5112,
      "Ġstory": 5113,
      "ados": 5114,
      "åħ¨éĿ¢": 5115,
      "ä»į": 5116,
      "æ¸Ĳ": 5117,
      "æľĢå¥½": 5118,
      "Ġmax": 5119,
      "åĨ°": 5120,
      "Ġgirl": 5121,
      "ising": 5122,
      "There": 5123,
      "ĠÐ´Ð°": 5124,
      "äº¤æĺĵ": 5125,
      "äº¤éĢļ": 5126,
      "igen": 5127,
      "ĠThese": 5128,
      "ÑĢÐ°Ð²": 5129,
      "imal": 5130,
      "èıĮ": 5131,
      "Ġsound": 5132,
      "):Ċ": 5133,
      "Ġsens": 5134,
      "Ġtarget": 5135,
      "æĹ¢": 5136,
      "Ġspace": 5137,
      "Ġblock": 5138,
      "uj": 5139,
      "æ²ī": 5140,
      "âĢĻve": 5141,
      "Ġyet": 5142,
      "Ġenjoy": 5143,
      "Ġear": 5144,
      "Ġsays": 5145,
      "é¸¡": 5146,
      "ĠÎ´": 5147,
      "èĻļ": 5148,
      "ç¿»": 5149,
      "ira": 5150,
      "Ġplus": 5151,
      "ä¼łç»Ł": 5152,
      "Ġseen": 5153,
      "urg": 5154,
      "Ġsomeone": 5155,
      "iding": 5156,
      "çĥ§": 5157,
      "iam": 5158,
      "è®¸å¤ļ": 5159,
      "argin": 5160,
      "with": 5161,
      "left": 5162,
      "ribut": 5163,
      "Ġamount": 5164,
      "Ġsus": 5165,
      "×Ļ×Ŀ": 5166,
      "urity": 5167,
      "çĸĳ": 5168,
      "ivity": 5169,
      "ites": 5170,
      "èĶ": 5171,
      "_P": 5172,
      "å°ıæĹ¶": 5173,
      "All": 5174,
      "æİĪ": 5175,
      "ags": 5176,
      "å§Ĳ": 5177,
      "à¤²": 5178,
      "æĬ¥åĳĬ": 5179,
      "aur": 5180,
      "iff": 5181,
      "lev": 5182,
      "ä¹Ļ": 5183,
      "Ġfund": 5184,
      "å¾Ħ": 5185,
      "Ġassoci": 5186,
      "test": 5187,
      "å®¶åºŃ": 5188,
      "è¿Ļä¹Ī": 5189,
      "No": 5190,
      "ç´¯": 5191,
      "åĲī": 5192,
      "Ġfocus": 5193,
      "Ġinvol": 5194,
      "æĿ¨": 5195,
      "ula": 5196,
      "çĶļèĩ³": 5197,
      "ette": 5198,
      "ika": 5199,
      "Ġcountry": 5200,
      ".L": 5201,
      "å½¢å¼ı": 5202,
      "ona": 5203,
      "-h": 5204,
      "Is": 5205,
      "ÐµÐ²": 5206,
      "Ġcommon": 5207,
      "é£İéĻ©": 5208,
      "Ġansw": 5209,
      "æ¶¦": 5210,
      "Ġproducts": 5211,
      "ä¿Ŀè¯ģ": 5212,
      "Ġdire": 5213,
      "ç¼©": 5214,
      "Ġknown": 5215,
      "Ġeduc": 5216,
      "åģļå¥½": 5217,
      "æĽ´åĬł": 5218,
      "æĺ¾ç¤º": 5219,
      "Ġcamp": 5220,
      "Ġcode": 5221,
      "ache": 5222,
      "×ķ×ª": 5223,
      "åĽºå®ļ": 5224,
      "å¹¶ä¸Ķ": 5225,
      "Ã¡l": 5226,
      "Ġeither": 5227,
      "icon": 5228,
      "Ġwur": 5229,
      "Ġdisplay": 5230,
      "èīºæľ¯": 5231,
      "èĨľ": 5232,
      "clus": 5233,
      "Ġang": 5234,
      "ÏĦÎ¿": 5235,
      "éĶĢåĶ®": 5236,
      "åıĤèĢĥ": 5237,
      "Ð·Ð¸": 5238,
      "_st": 5239,
      "uel": 5240,
      "ç©ºéĹ´": 5241,
      "èĪŀ": 5242,
      "ÑģÑĤÑĮ": 5243,
      "Ġappear": 5244,
      "Ġsugg": 5245,
      "Ġteach": 5246,
      "æľīäºĽ": 5247,
      "Ġbeaut": 5248,
      "ottom": 5249,
      "Ġvideo": 5250,
      "ols": 5251,
      "ä¹ĭä¸Ģ": 5252,
      "ä¹ĭåīį": 5253,
      "è¿Ŀ": 5254,
      "æĦıæĢĿ": 5255,
      "åĨ³å®ļ": 5256,
      "ç»Ĩèĥŀ": 5257,
      "plic": 5258,
      "Ġens": 5259,
      "ibility": 5260,
      "Ġ},Ċ": 5261,
      "åıªè¦ģ": 5262,
      "é¦ĸåħĪ": 5263,
      "ç¥Ŀ": 5264,
      "ky": 5265,
      "ìĹĲ": 5266,
      "emb": 5267,
      "æ´ģ": 5268,
      "à¦¿à¦": 5269,
      "ĠCO": 5270,
      "è´´": 5271,
      "åľĪ": 5272,
      "Ã³w": 5273,
      "Ġjo": 5274,
      "ĠÐ¿Ð¾Ð´": 5275,
      "ĠÎºÎ±Î¹": 5276,
      "Ġprop": 5277,
      "ĠOne": 5278,
      "à²¾à²": 5279,
      "oz": 5280,
      "Ġqui": 5281,
      "èį£": 5282,
      "à¶±": 5283,
      "åİļ": 5284,
      "isc": 5285,
      "áĥĺáĥ¡": 5286,
      "Ġsuggest": 5287,
      "Ġing": 5288,
      "urope": 5289,
      "Ġseem": 5290,
      "ä¸Ĭæµ·": 5291,
      "åĪĨåĪ«": 5292,
      "Ġphys": 5293,
      "å°¼": 5294,
      "Ġpred": 5295,
      "Ġanything": 5296,
      "De": 5297,
      "å®Įåħ¨": 5298,
      "-st": 5299,
      "Ġpen": 5300,
      "Ġ&&": 5301,
      "Ġri": 5302,
      "åĤ¨": 5303,
      "Ġaddress": 5304,
      "Ġespec": 5305,
      "Ġenergy": 5306,
      "where": 5307,
      "ald": 5308,
      "Ġwidth": 5309,
      "Ġfig": 5310,
      "Ġrepresent": 5311,
      "åŁ¹åħ»": 5312,
      "Ð¸Ð¼": 5313,
      "Ġrequired": 5314,
      "ä»»åĬ¡": 5315,
      "Ð½ÑĭÐ¹": 5316,
      "å®Ŀå®Ŀ": 5317,
      "'d": 5318,
      "ĠÑĢÐ°Ð·": 5319,
      "Ġfuture": 5320,
      "ç»ıè¿ĩ": 5321,
      "illed": 5322,
      "à®©": 5323,
      "æľªæĿ¥": 5324,
      "kl": 5325,
      "å¥¥": 5326,
      "Ġcomput": 5327,
      "Ġblack": 5328,
      "ĠAmerican": 5329,
      "ĠJan": 5330,
      "åĪĨéĴŁ": 5331,
      "ito": 5332,
      "åĬ³åĬ¨": 5333,
      "ĠGo": 5334,
      "UN": 5335,
      "Ġcaus": 5336,
      "iles": 5337,
      "Ġcontact": 5338,
      "pen": 5339,
      "ä¿ĿéĻ©": 5340,
      "from": 5341,
      "**Ċ": 5342,
      "Ġemb": 5343,
      "ĠØ¨Ùĩ": 5344,
      "Ġneg": 5345,
      "Ġoffic": 5346,
      "åĨł": 5347,
      "Ġgeneral": 5348,
      "åıĹåĪ°": 5349,
      "èĤ¤": 5350,
      "é¢ľ": 5351,
      "ĠBar": 5352,
      "ÙĪØ¯": 5353,
      "ĠVer": 5354,
      "Ġsrc": 5355,
      "Ġpersonal": 5356,
      "ÄĹ": 5357,
      "Ġbase": 5358,
      "Ġwon": 5359,
      "ires": 5360,
      "abil": 5361,
      "æļĸ": 5362,
      "çĥĪ": 5363,
      "éĽ·": 5364,
      "éģĹ": 5365,
      "çĶŁåĳ½": 5366,
      "à¸§": 5367,
      "Äĵ": 5368,
      "Ġstay": 5369,
      "input": 5370,
      "Ðł": 5371,
      "Ð»Ñĥ": 5372,
      "iy": 5373,
      "Ġdoor": 5374,
      "ader": 5375,
      "Ġprice": 5376,
      "Ġrespons": 5377,
      "æĹ¶ä»£": 5378,
      "æĶ¿æ²»": 5379,
      "æĹħæ¸¸": 5380,
      "roid": 5381,
      "çŀ": 5382,
      "ĠEm": 5383,
      "å®£ä¼ł": 5384,
      "rs": 5385,
      "ĠÐ¾Ð´": 5386,
      "Ġinfl": 5387,
      "ÐµÐ½Ð¸Ðµ": 5388,
      "Ġà¤¹": 5389,
      "å®½": 5390,
      "ĠÑĤÐ°": 5391,
      "Ġvisit": 5392,
      "Ġpret": 5393,
      "IL": 5394,
      "æ±ł": 5395,
      "ç»ıéªĮ": 5396,
      "Ġstarted": 5397,
      "ÑĢÐ¾": 5398,
      "èĵĿ": 5399,
      "åĪ«äºº": 5400,
      "æ¡£": 5401,
      "Ġcity": 5402,
      "Ġtw": 5403,
      "çļĩ": 5404,
      "comp": 5405,
      "à¥ģ": 5406,
      "å«": 5407,
      "ç«Ł": 5408,
      "Ġcontain": 5409,
      "ological": 5410,
      "ops": 5411,
      "Ġmer": 5412,
      "é½Ĳ": 5413,
      "Ġbes": 5414,
      "Ġwhole": 5415,
      "ç¨³å®ļ": 5416,
      "_T": 5417,
      "cience": 5418,
      "Ġcrit": 5419,
      "rect": 5420,
      "ĠÃ¨": 5421,
      "çĶ¨äºİ": 5422,
      "Ġacross": 5423,
      "Ġinstall": 5424,
      "Ġwin": 5425,
      "ival": 5426,
      "à¸Ķ": 5427,
      "Ġtitle": 5428,
      "ils": 5429,
      "åıįåºĶ": 5430,
      "ç¼ĵ": 5431,
      "oved": 5432,
      "à¤¸": 5433,
      "nie": 5434,
      ".b": 5435,
      "ĠCal": 5436,
      "æ¹¿": 5437,
      "è¡ĮæĶ¿": 5438,
      "æľŁéĹ´": 5439,
      ".org": 5440,
      "åĨĮ": 5441,
      "éļĲ": 5442,
      "ÂŃ": 5443,
      "eld": 5444,
      "Ġber": 5445,
      "å²Ľ": 5446,
      "èµĦæĸĻ": 5447,
      "'Ċ": 5448,
      "ä½Ľ": 5449,
      "ç½ª": 5450,
      "æĦıè¯Ĩ": 5451,
      "éķľ": 5452,
      "ĠØŃ": 5453,
      "SS": 5454,
      "áĢ¸": 5455,
      "à®Ł": 5456,
      "ÑģÐµ": 5457,
      "Ġdocument": 5458,
      "åģı": 5459,
      "ischen": 5460,
      "éļıçĿĢ": 5461,
      "ĠBo": 5462,
      "ĉĉĉĉĉ": 5463,
      "ï½ŀ": 5464,
      "å·Ŀ": 5465,
      "æ±¡": 5466,
      "Ġep": 5467,
      "Ġversion": 5468,
      "ł×": 5469,
      "Ġaction": 5470,
      "ĠYork": 5471,
      "å´": 5472,
      "acc": 5473,
      "ban": 5474,
      "èµĦéĩĳ": 5475,
      "AG": 5476,
      "Ġimage": 5477,
      "ĠØ¬": 5478,
      "[i": 5479,
      "æ¯Ķå¦Ĥ": 5480,
      "Ġdeal": 5481,
      "ä¸Ģå¹´": 5482,
      "\")Ċ": 5483,
      "Ġwhether": 5484,
      "unk": 5485,
      "è¯¦": 5486,
      "unch": 5487,
      "rodu": 5488,
      "Ġten": 5489,
      "Ġmembers": 5490,
      "ĠÙĬ": 5491,
      "æ£Ģæµĭ": 5492,
      "Ġdru": 5493,
      "ĠÐ´Ð¾": 5494,
      "å¢ŀéķ¿": 5495,
      "ĠÑģÐ¿": 5496,
      "èª": 5497,
      "åĨ¬": 5498,
      "Ġeverything": 5499,
      "ged": 5500,
      "Item": 5501,
      "_C": 5502,
      "amm": 5503,
      "éĺ»": 5504,
      "Ġaz": 5505,
      "è®¿": 5506,
      "Ġcut": 5507,
      "Exception": 5508,
      "å¸¦æĿ¥": 5509,
      "ete": 5510,
      "ĠUnited": 5511,
      "å°ļ": 5512,
      "ÏģÎ¿": 5513,
      "ĠrÃ©": 5514,
      "epend": 5515,
      "æī©": 5516,
      "Ð³Ð¸": 5517,
      "Ġhours": 5518,
      "anguage": 5519,
      "ÐĲ": 5520,
      "Ġearly": 5521,
      "))Ċ": 5522,
      "å±Ĭ": 5523,
      "ĠÑĨ": 5524,
      "Ġperfect": 5525,
      "åį«çĶŁ": 5526,
      "Ġsignificant": 5527,
      "ruction": 5528,
      "Ġnetwork": 5529,
      "Ġlat": 5530,
      "è¾Ĩ": 5531,
      "Ġfont": 5532,
      "EM": 5533,
      "ä¹±": 5534,
      "á»ĳ": 5535,
      "è´¦": 5536,
      "ese": 5537,
      "Ph": 5538,
      "cret": 5539,
      "ä¼°": 5540,
      "Ð½ÑĭÐµ": 5541,
      "Ġalt": 5542,
      "uth": 5543,
      "åĬ±": 5544,
      "å±ĭ": 5545,
      "Ġseason": 5546,
      "Man": 5547,
      "è®¢": 5548,
      "éĵ¾": 5549,
      "iful": 5550,
      "Ġclaim": 5551,
      "Ġsym": 5552,
      "Ġcommunity": 5553,
      "ĠÐ¿Ð¾Ð»": 5554,
      "ĠPart": 5555,
      "xx": 5556,
      "Ġobs": 5557,
      "imate": 5558,
      "å®ŀéªĮ": 5559,
      "_b": 5560,
      "ç§ģ": 5561,
      "App": 5562,
      "à¥¤": 5563,
      "Ġauthor": 5564,
      "Ġmonths": 5565,
      "Ġindic": 5566,
      "ÑħÐ¾Ð´": 5567,
      "åĶĲ": 5568,
      "åĽłç´ł": 5569,
      "éĩİ": 5570,
      "ivers": 5571,
      "ĠÃ®": 5572,
      "é¢ĨåŁŁ": 5573,
      "Ø¶": 5574,
      "Ð¸Ð²": 5575,
      "ledge": 5576,
      "iety": 5577,
      "La": 5578,
      "ç¨ĭåºı": 5579,
      "Ġsil": 5580,
      "Ġbegin": 5581,
      "å¦ĩ": 5582,
      "ìĦ": 5583,
      "Ġnecess": 5584,
      "Ġeyes": 5585,
      "äººçĶŁ": 5586,
      "çİ°ä»£": 5587,
      "Ġgi": 5588,
      "onder": 5589,
      "å®Ĺ": 5590,
      "Ġ×ŀ×": 5591,
      "áº¥": 5592,
      "Ġpie": 5593,
      "Ġpatients": 5594,
      "nb": 5595,
      "ä¸įå¾Ĺ": 5596,
      "èĢ³": 5597,
      "ç¾¤ä¼Ĺ": 5598,
      "Ðļ": 5599,
      "iple": 5600,
      "\".": 5601,
      "çİ°åľº": 5602,
      "éº»": 5603,
      "With": 5604,
      "æĿĨ": 5605,
      "bb": 5606,
      "LO": 5607,
      "asing": 5608,
      "rat": 5609,
      "reet": 5610,
      "ĠØ®": 5611,
      "å¿ĥçĲĨ": 5612,
      "jo": 5613,
      "mas": 5614,
      "Ġresponse": 5615,
      "æ¯ıå¤©": 5616,
      "Ġlarg": 5617,
      "åıĤä¸İ": 5618,
      "æ´ĭ": 5619,
      "gress": 5620,
      "agn": 5621,
      "éĢĶ": 5622,
      "éĢŁåº¦": 5623,
      "æķħäºĭ": 5624,
      "æĹ§": 5625,
      "Ġcomes": 5626,
      "æİªæĸ½": 5627,
      "ĠAfter": 5628,
      "Ġaus": 5629,
      "Ġamong": 5630,
      "Ġeconom": 5631,
      "Ġexam": 5632,
      "èī¯å¥½": 5633,
      "Ġce": 5634,
      "áĢ¬": 5635,
      "Ġago": 5636,
      "Ġwords": 5637,
      "éĺ¶æ®µ": 5638,
      "Ġhom": 5639,
      "ĠVal": 5640,
      "Ġfurther": 5641,
      "Ľ×": 5642,
      "Õ¡": 5643,
      "Ġcard": 5644,
      "minist": 5645,
      "Ġdate": 5646,
      "éĻĨ": 5647,
      "Ġmach": 5648,
      "çĶµè¯Ŀ": 5649,
      "âĢĮ": 5650,
      "Ð´Ðµ": 5651,
      "uh": 5652,
      "çĲĨè§£": 5653,
      "medi": 5654,
      "ç¦ģ": 5655,
      "ENT": 5656,
      "å®ŀè·µ": 5657,
      "));Ċ": 5658,
      "ĠGl": 5659,
      "lich": 5660,
      "Ġsich": 5661,
      "çĬ¯": 5662,
      "ĠÏĦÎ¿Ïħ": 5663,
      "Ġà¤ª": 5664,
      "lege": 5665,
      "èĥ¶": 5666,
      "At": 5667,
      "ê³": 5668,
      "Ġvarious": 5669,
      "indows": 5670,
      "Ġrelationship": 5671,
      "-g": 5672,
      "Ġmi": 5673,
      "æĪĲæľ¬": 5674,
      "Ġfall": 5675,
      "trans": 5676,
      "Ġdam": 5677,
      "Ġva": 5678,
      "ä¸¥éĩį": 5679,
      "lin": 5680,
      ".st": 5681,
      "Ġsearch": 5682,
      "empl": 5683,
      "Ġclose": 5684,
      "Ġetc": 5685,
      "Ġbackground": 5686,
      "å·¨": 5687,
      "table": 5688,
      "Ġerror": 5689,
      "åħ±åĲĮ": 5690,
      ".T": 5691,
      "Ġrole": 5692,
      "å¼±": 5693,
      "empt": 5694,
      "ĠÏĦÎ¿": 5695,
      "When": 5696,
      "uan": 5697,
      "æľ«": 5698,
      "à·Ģ": 5699,
      "upp": 5700,
      "Ġfail": 5701,
      "èĤ¯": 5702,
      "ĠMon": 5703,
      "cho": 5704,
      "åªĴ": 5705,
      "Ġarg": 5706,
      "Ġage": 5707,
      "rack": 5708,
      "ĠÃ¤r": 5709,
      "ĠÐ£": 5710,
      "å²Ĺ": 5711,
      "istic": 5712,
      "So": 5713,
      "éĿ¢ç§¯": 5714,
      ".B": 5715,
      "Ð°Ð·": 5716,
      "ĠDie": 5717,
      "chan": 5718,
      "Ġenvironment": 5719,
      "æ¾": 5720,
      "oke": 5721,
      "æ¯ĶèµĽ": 5722,
      "Ġorg": 5723,
      "ÏĦÎ·": 5724,
      "åŃ¦éĻ¢": 5725,
      "áĢº": 5726,
      "come": 5727,
      ".ĊĊ": 5728,
      "çĽ®çļĦ": 5729,
      "å·¥ä¸ļ": 5730,
      "Ġill": 5731,
      "à¸´": 5732,
      "content": 5733,
      "å¼Ł": 5734,
      "ĠBy": 5735,
      "å¯Ĵ": 5736,
      "ights": 5737,
      "ÐµÐ·": 5738,
      "ä¸ĢåĪĩ": 5739,
      "Ġmiss": 5740,
      "Ġsubject": 5741,
      "Ġwait": 5742,
      "';Ċ": 5743,
      "Ġparticip": 5744,
      "æ¥ļ": 5745,
      "ĠSer": 5746,
      "ĠGet": 5747,
      "çī¹çĤ¹": 5748,
      "using": 5749,
      "£áĥ": 5750,
      "è½´": 5751,
      "Ã©t": 5752,
      "Ġ×ĳ×": 5753,
      "rite": 5754,
      "ä»Ĭå¹´": 5755,
      "èĤ¥": 5756,
      "å¤®": 5757,
      "æĥĬ": 5758,
      "Ġfast": 5759,
      "rown": 5760,
      "ĠMin": 5761,
      "Ġca": 5762,
      "void": 5763,
      "include": 5764,
      "âĢĻll": 5765,
      "Ġeine": 5766,
      "ä¸Ģå¤©": 5767,
      "Ġweb": 5768,
      "æĦıä¹ī": 5769,
      "ä¸įåı¯": 5770,
      "ĠÐĺ": 5771,
      "ario": 5772,
      "ä¿Ŀéļľ": 5773,
      "Ġseg": 5774,
      "State": 5775,
      "list": 5776,
      "PE": 5777,
      "Ġwatch": 5778,
      "aint": 5779,
      "Ġdownload": 5780,
      "oo": 5781,
      "è½¯ä»¶": 5782,
      "Ã¡t": 5783,
      "é¥°": 5784,
      "Ġnear": 5785,
      "çĽĽ": 5786,
      "];Ċ": 5787,
      "Ġmusic": 5788,
      "Ġpick": 5789,
      "ÑİÑĤ": 5790,
      "Ġclean": 5791,
      "PS": 5792,
      "æĳĦ": 5793,
      "elling": 5794,
      "èģĮä¸ļ": 5795,
      "ÏģÎ±": 5796,
      "uration": 5797,
      "](": 5798,
      "Ġhalf": 5799,
      "íķĺ": 5800,
      "è±Ĩ": 5801,
      "èļ": 5802,
      "åĽ½åĨħ": 5803,
      "è§ĦåĪĴ": 5804,
      ")čĊ": 5805,
      "ìĿĺ": 5806,
      "å¿ĺ": 5807,
      "ĠÃ¶": 5808,
      "amente": 5809,
      "çº¯": 5810,
      "Ġseries": 5811,
      "ima": 5812,
      "Ġidea": 5813,
      "ening": 5814,
      "mon": 5815,
      "Ġasked": 5816,
      "eta": 5817,
      "Ġnom": 5818,
      ".w": 5819,
      "_n": 5820,
      "arning": 5821,
      "Ġpotential": 5822,
      "Ġach": 5823,
      "si": 5824,
      "äº¤æµģ": 5825,
      "ername": 5826,
      "ties": 5827,
      "éļĶ": 5828,
      "-S": 5829,
      "Ġà¤®": 5830,
      "è°ĥæķ´": 5831,
      "è®¤è¯Ĩ": 5832,
      "æ·¡": 5833,
      "æī¬": 5834,
      "çľĭçľĭ": 5835,
      "éĺµ": 5836,
      "Ġbelieve": 5837,
      "ournal": 5838,
      "æĮģç»Ń": 5839,
      "Ġsimilar": 5840,
      "obile": 5841,
      "cient": 5842,
      "Ġho": 5843,
      "ë¡": 5844,
      "Ġgames": 5845,
      "NA": 5846,
      "oper": 5847,
      "Ġdeg": 5848,
      "ÃĹ": 5849,
      "æĪĲç»©": 5850,
      "æĭ¥æľī": 5851,
      "Ġwebsite": 5852,
      "èįĲ": 5853,
      "ĠCor": 5854,
      "astic": 5855,
      "æĺİæĺ¾": 5856,
      "åİħ": 5857,
      "Ġrate": 5858,
      "fort": 5859,
      "Ġeveryone": 5860,
      "inary": 5861,
      "Ġinf": 5862,
      "alu": 5863,
      "Ġmass": 5864,
      "æ¶ī": 5865,
      "Time": 5866,
      "à¸¢": 5867,
      "è¶ħè¿ĩ": 5868,
      "Ġpoints": 5869,
      "Ġbring": 5870,
      "æģ¶": 5871,
      "Ġwhite": 5872,
      "æľīçļĦ": 5873,
      "é©¶": 5874,
      "Ø§Ø¨": 5875,
      "Ġalmost": 5876,
      "omet": 5877,
      "Ġanalysis": 5878,
      "åİĭåĬĽ": 5879,
      "ä¿ĥè¿Ľ": 5880,
      "Ġopportun": 5881,
      "å½ĵçĦ¶": 5882,
      "ĠØ¢": 5883,
      "Ġclear": 5884,
      "ribute": 5885,
      "å¹¼åĦ¿": 5886,
      "æĿ¯": 5887,
      "Ġperformance": 5888,
      "(t": 5889,
      "imum": 5890,
      "icle": 5891,
      "ĠWill": 5892,
      "script": 5893,
      "Ã¼n": 5894,
      "Ġbelow": 5895,
      "ficult": 5896,
      "Ġkon": 5897,
      "ÑĥÑĤ": 5898,
      "Ġdevice": 5899,
      "ental": 5900,
      "Ġmatter": 5901,
      "ULL": 5902,
      "vi": 5903,
      "ĠvÃł": 5904,
      "ĠYour": 5905,
      "éģ¿åħį": 5906,
      "lig": 5907,
      "hib": 5908,
      "cha": 5909,
      "itted": 5910,
      "ĠÙ¾": 5911,
      "å¡«": 5912,
      "Ġsource": 5913,
      "ixed": 5914,
      "itten": 5915,
      "just": 5916,
      "odes": 5917,
      "ria": 5918,
      "Ġhistory": 5919,
      "}}": 5920,
      "api": 5921,
      "æĶ¶åħ¥": 5922,
      "issue": 5923,
      "ĠÃ©s": 5924,
      "Ġprovided": 5925,
      "abet": 5926,
      "Key": 5927,
      "éĩĮéĿ¢": 5928,
      "Ġsy": 5929,
      "Ġdella": 5930,
      "gt": 5931,
      "Ad": 5932,
      "ĠRev": 5933,
      "_M": 5934,
      "èĪ¹": 5935,
      "åĮºåŁŁ": 5936,
      "å°¿": 5937,
      "åĹ": 5938,
      "èĩªåĬ¨": 5939,
      "Ġdin": 5940,
      "-M": 5941,
      "è´¥": 5942,
      "è¾ĳ": 5943,
      "ators": 5944,
      "è´«": 5945,
      "ĠAug": 5946,
      "ĠÙĤ": 5947,
      "ç§Ł": 5948,
      "ÐµÑĢÐ°": 5949,
      "åĮ»çĶŁ": 5950,
      "Ġcbd": 5951,
      "Ġprevious": 5952,
      "Ġtreatment": 5953,
      "ĠPath": 5954,
      "åĩłä¸ª": 5955,
      "ÏĢÎ¿": 5956,
      "è¿ĩåİ»": 5957,
      "ĠStud": 5958,
      "oken": 5959,
      "å³°": 5960,
      "à®³": 5961,
      "Ð¾Ð¼Ñĥ": 5962,
      "âĪ": 5963,
      "Ð»Ð¾": 5964,
      "iction": 5965,
      "Ġpills": 5966,
      "è¯ļ": 5967,
      "Ġnothing": 5968,
      "æĲŃ": 5969,
      "Ġprobably": 5970,
      "çĶŁçī©": 5971,
      "ĠHar": 5972,
      "èĢĲ": 5973,
      "nes": 5974,
      "Ġou": 5975,
      "Ġaccording": 5976,
      "roller": 5977,
      "Ġtaking": 5978,
      "Ġ×©×": 5979,
      "Ġrecomm": 5980,
      "ises": 5981,
      "çŁ¿": 5982,
      "Ġobtain": 5983,
      "oi": 5984,
      "Error": 5985,
      "åĢº": 5986,
      "Å¯": 5987,
      "è®¯": 5988,
      "Ġta": 5989,
      "Ġfriends": 5990,
      "((": 5991,
      "àª¾àª": 5992,
      "å¹ħ": 5993,
      "Ġinput": 5994,
      "bol": 5995,
      "Ġminutes": 5996,
      "çĪĨ": 5997,
      "ounter": 5998,
      "box": 5999,
      "ube": 6000,
      "Ġwanted": 6001,
      "åħħåĪĨ": 6002,
      "ÐĿ": 6003,
      "Ġcenter": 6004,
      "ĠAN": 6005,
      "éĽĨåĽ¢": 6006,
      "éĽĦ": 6007,
      "æĬ½": 6008,
      "iem": 6009,
      "Ġsimple": 6010,
      "çº·": 6011,
      "],Ċ": 6012,
      "Ġincrease": 6013,
      "Ð¸ÑĤÑĮ": 6014,
      "æķı": 6015,
      "Ġcompet": 6016,
      "Ġpaper": 6017,
      "Ġhigher": 6018,
      "é©¾": 6019,
      "Ġka": 6020,
      "åĵªäºĽ": 6021,
      "æĹ¥æľ¬": 6022,
      "å°¤": 6023,
      "Ġmessage": 6024,
      "çªĹ": 6025,
      "zer": 6026,
      "å¯»": 6027,
      "Ġtemper": 6028,
      "è´¹çĶ¨": 6029,
      "ĠCity": 6030,
      "ocation": 6031,
      "Ġparam": 6032,
      "Ġsum": 6033,
      "è·³": 6034,
      "à¸ļ": 6035,
      "Ġchanges": 6036,
      "Ġvia": 6037,
      "ÙĩØ§": 6038,
      "Ġintern": 6039,
      "leep": 6040,
      "Ð°Ð»Ð°": 6041,
      "ÑĸÐ½": 6042,
      "ĠOf": 6043,
      "File": 6044,
      "/m": 6045,
      "ĠÙĥ": 6046,
      "åĩĿ": 6047,
      "Ġworks": 6048,
      "ĠPa": 6049,
      "Ġtrying": 6050,
      "à¥įà¤¯": 6051,
      "ä½ĵç³»": 6052,
      "åĩıå°ĳ": 6053,
      "ç¤¾åĮº": 6054,
      "ĠCount": 6055,
      "ä¸°å¯Į": 6056,
      "å¿«ä¹Ĳ": 6057,
      "ĠÑĺ": 6058,
      "Ġtou": 6059,
      "Ġshare": 6060,
      "pril": 6061,
      "éĹŃ": 6062,
      "cover": 6063,
      "ä¸ĭéĿ¢": 6064,
      "ÏĦÎµ": 6065,
      "æ¯ıä¸ª": 6066,
      "ayout": 6067,
      "Å³": 6068,
      "è¯¾ç¨ĭ": 6069,
      "ÈĽ": 6070,
      "ĠWorld": 6071,
      "à°¨": 6072,
      "Ġgovernment": 6073,
      "æķ´ä¸ª": 6074,
      "è®¤çľŁ": 6075,
      "Ġcam": 6076,
      "éĺħè¯»": 6077,
      "ä½ľåĵģ": 6078,
      "Ġok": 6079,
      "php": 6080,
      "Ġissue": 6081,
      "æµª": 6082,
      "ä¸īä¸ª": 6083,
      "éĨĴ": 6084,
      "Ġimprove": 6085,
      "vec": 6086,
      "User": 6087,
      "ĠState": 6088,
      "Ġnatural": 6089,
      "Ġquite": 6090,
      "æĶ¹åıĺ": 6091,
      "Ġbox": 6092,
      "à¤®": 6093,
      "Ġhor": 6094,
      "Ġaud": 6095,
      "Ġtaken": 6096,
      "Ġdos": 6097,
      "edd": 6098,
      "Ġnov": 6099,
      "éĤ£äºĽ": 6100,
      "Ġpan": 6101,
      "éĤ£ä¸ª": 6102,
      "èĲ½å®ŀ": 6103,
      "ĠHer": 6104,
      "å½ĵæĹ¶": 6105,
      "æĭŁ": 6106,
      "æ³¡": 6107,
      "äºĭä¸ļ": 6108,
      "åģ¿": 6109,
      "atory": 6110,
      "Not": 6111,
      "ÐµÐ½ÑĤ": 6112,
      "yr": 6113,
      "iting": 6114,
      "ÐµÑģ": 6115,
      "Ðŀ": 6116,
      "è¡¡": 6117,
      "æĻ®éĢļ": 6118,
      "Ġproperty": 6119,
      "åħ¨éĥ¨": 6120,
      "á»§": 6121,
      "ä¹³": 6122,
      "Ġimm": 6123,
      "Ġtold": 6124,
      "Ġvalues": 6125,
      "ç³»åĪĹ": 6126,
      "à¤¹": 6127,
      "é¼ĵ": 6128,
      "Ã¡c": 6129,
      "æ²Ł": 6130,
      "éĽħ": 6131,
      "Ġapplication": 6132,
      "aving": 6133,
      "ync": 6134,
      "ìł": 6135,
      "ç¹": 6136,
      "ĠlÃł": 6137,
      "iu": 6138,
      "ĠMark": 6139,
      "Ġpict": 6140,
      "/c": 6141,
      "ela": 6142,
      "Ġà®ª": 6143,
      "ĠGener": 6144,
      "ĠDep": 6145,
      "ä¸įåĪ°": 6146,
      "CC": 6147,
      "Ġload": 6148,
      "åıªèĥ½": 6149,
      "js": 6150,
      "æĮĤ": 6151,
      "!--": 6152,
      "////////": 6153,
      "ĠØ§Ø³Øª": 6154,
      "Ġheight": 6155,
      "={": 6156,
      "æĶ¹éĿ©": 6157,
      "ÈĻ": 6158,
      "isch": 6159,
      "ç»ıå¸¸": 6160,
      "My": 6161,
      "Â°": 6162,
      "idad": 6163,
      "link": 6164,
      "Ð¶Ðµ": 6165,
      "(f": 6166,
      ".R": 6167,
      "ç¼ĺ": 6168,
      "anced": 6169,
      "æµĵ": 6170,
      "Ġfive": 6171,
      "è§ĦèĮĥ": 6172,
      "åıĸå¾Ĺ": 6173,
      "ĠPe": 6174,
      "Ġentre": 6175,
      "è§£éĩĬ": 6176,
      "Ġseems": 6177,
      "ĠAg": 6178,
      "Ġhon": 6179,
      "çĩĥ": 6180,
      "Ġissues": 6181,
      "Ġdifficult": 6182,
      "Ġtax": 6183,
      "å¢Ļ": 6184,
      "å¥ĭ": 6185,
      "æĥ¯": 6186,
      "Ġcoll": 6187,
      "ç¬¦åĲĪ": 6188,
      "à¯įà®ª": 6189,
      "à³Ĩ": 6190,
      "å¹¸ç¦ı": 6191,
      "æİ¨è¿Ľ": 6192,
      "ran": 6193,
      "è¯Ńè¨Ģ": 6194,
      "ĠIl": 6195,
      "á»į": 6196,
      "ĠÐ´Ð»Ñı": 6197,
      "rest": 6198,
      "áĥĶáĥĳ": 6199,
      "utions": 6200,
      "adem": 6201,
      "æ¶¨": 6202,
      "Ġoriginal": 6203,
      "é£Łçī©": 6204,
      "ĠDr": 6205,
      "Ġpubl": 6206,
      "ê°": 6207,
      "æİ¨èįĲ": 6208,
      "æ§": 6209,
      "########": 6210,
      "æİ¥åıĹ": 6211,
      "Ġprofess": 6212,
      "Ġchall": 6213,
      "âĢĺ": 6214,
      "iÃ³": 6215,
      "ĠOb": 6216,
      "Ġmanagement": 6217,
      "lick": 6218,
      "Ġerr": 6219,
      "æľºä¼ļ": 6220,
      "çĹĩçĬ¶": 6221,
      "æķ¢": 6222,
      "ä¸įå¥½": 6223,
      "Ġamb": 6224,
      "Ġnormal": 6225,
      "Ġmedia": 6226,
      "verage": 6227,
      "Ġcompon": 6228,
      "iddle": 6229,
      "Ġsaw": 6230,
      "å¹²éĥ¨": 6231,
      "ĠSm": 6232,
      ".e": 6233,
      "New": 6234,
      "des": 6235,
      "ç¨ĭåº¦": 6236,
      "mat": 6237,
      "][": 6238,
      "Ġfeatures": 6239,
      "Ġhost": 6240,
      "ä¹ĺ": 6241,
      "??": 6242,
      "éĥ½ä¼ļ": 6243,
      "IV": 6244,
      "ĠAut": 6245,
      "ĠÎ¿": 6246,
      "ÑıÑĤ": 6247,
      "éĩĳèŀį": 6248,
      "roups": 6249,
      "×¨×": 6250,
      "Ġdal": 6251,
      "error": 6252,
      "ĠÐĽ": 6253,
      "ÑĭÐ½": 6254,
      "èĦī": 6255,
      "Ġcy": 6256,
      "Ġhttp": 6257,
      "æ¸©åº¦": 6258,
      "Be": 6259,
      "can": 6260,
      "Ġfavor": 6261,
      "Ġpi": 6262,
      "oul": 6263,
      "':": 6264,
      "Ġcause": 6265,
      "Ġlooked": 6266,
      "ĠAdd": 6267,
      "Ø«": 6268,
      "çĶµå½±": 6269,
      "Ġrisk": 6270,
      "åıĳå¸ĥ": 6271,
      "url": 6272,
      "resp": 6273,
      "åĶ±": 6274,
      "itting": 6275,
      "Ġnu": 6276,
      "æııè¿°": 6277,
      "Ġoptions": 6278,
      "å¸Ń": 6279,
      "åı¯æĺ¯": 6280,
      "Ġneeded": 6281,
      "çĸ¼": 6282,
      "');Ċ": 6283,
      "Int": 6284,
      "cial": 6285,
      "Ġgrand": 6286,
      ".add": 6287,
      "åĴ¨": 6288,
      "ĠEurope": 6289,
      "pa": 6290,
      "Ġentire": 6291,
      "ĠAct": 6292,
      "çĴ": 6293,
      "åĭĩ": 6294,
      "bum": 6295,
      "part": 6296,
      "çĸ¾çĹħ": 6297,
      "asi": 6298,
      "izing": 6299,
      "ady": 6300,
      "ÏīÎ½": 6301,
      "Ġsoon": 6302,
      "idge": 6303,
      "Ġutil": 6304,
      "ç¥ĸ": 6305,
      "verse": 6306,
      "eters": 6307,
      "ami": 6308,
      "à¸Ĺ": 6309,
      "è¿·": 6310,
      "Service": 6311,
      "Em": 6312,
      "Ġextra": 6313,
      "formation": 6314,
      "Ġwurde": 6315,
      "Set": 6316,
      "ĠÐ¾Ñģ": 6317,
      "Ġza": 6318,
      "OD": 6319,
      "urt": 6320,
      "Ġblog": 6321,
      "Ġstop": 6322,
      "ained": 6323,
      "Box": 6324,
      "Î¯Î±": 6325,
      "you": 6326,
      "å¡ŀ": 6327,
      "èĥĥ": 6328,
      "èĪĴ": 6329,
      "Ġshown": 6330,
      "æ°ĳæĹı": 6331,
      "åŃĻ": 6332,
      "å¿Ļ": 6333,
      "lock": 6334,
      "Des": 6335,
      "Ġaccept": 6336,
      "andom": 6337,
      "ÑĢÐ°Ð½": 6338,
      "çİ°è±¡": 6339,
      "Ġestab": 6340,
      "éĢĤåĲĪ": 6341,
      "Ġnie": 6342,
      "ĠAf": 6343,
      "åĪĢ": 6344,
      "æļĹ": 6345,
      "^{": 6346,
      "æĺİç¡®": 6347,
      "èĦĤ": 6348,
      "Ġrather": 6349,
      "orage": 6350,
      "çľŁæŃ£": 6351,
      "Ġborder": 6352,
      "ĠIS": 6353,
      "Ġconfig": 6354,
      "çĽĲ": 6355,
      "ĉĉĉĉĉĉĉĉ": 6356,
      "èµĦäº§": 6357,
      "åĴ¨è¯¢": 6358,
      "button": 6359,
      "ached": 6360,
      "ĠSoc": 6361,
      "Ġupon": 6362,
      "æ¯ķä¸ļ": 6363,
      "ä»İèĢĮ": 6364,
      "ĠĠĠĠĠĠĠĠĠĠĠĠĠĠĠĠĠĠĠĠĠĠĠĠĠĠĠĠĠĠĠ": 6365,
      "ori": 6366,
      "èĤ¿": 6367,
      "ĠAust": 6368,
      "Ġhowever": 6369,
      "à°°": 6370,
      "à®®": 6371,
      "åĪ¸": 6372,
      "çĪ¶æ¯į": 6373,
      "cing": 6374,
      "ĠÐºÐ¾Ð¼": 6375,
      "iday": 6376,
      "ĠStates": 6377,
      "Ġcross": 6378,
      "Ġhu": 6379,
      "æĮĳ": 6380,
      "Ġmatch": 6381,
      "Ġdiet": 6382,
      "El": 6383,
      "æģ©": 6384,
      "Ġdise": 6385,
      "rt": 6386,
      "board": 6387,
      "æĽ´å¥½": 6388,
      "iber": 6389,
      "èį¯çī©": 6390,
      "Ġrefer": 6391,
      "è§Ĩé¢ĳ": 6392,
      "à®ķ": 6393,
      "Ġpretty": 6394,
      "Ġsn": 6395,
      "åľ£": 6396,
      "å¹ķ": 6397,
      "ester": 6398,
      "æ¢ģ": 6399,
      "èĤł": 6400,
      "å®ĥä»¬": 6401,
      "Ð°Ñı": 6402,
      "åľ°åĿĢ": 6403,
      ".W": 6404,
      "Ġmillion": 6405,
      "çĭĹ": 6406,
      "pi": 6407,
      "Ã©m": 6408,
      "Ġhope": 6409,
      "icense": 6410,
      "eds": 6411,
      "erved": 6412,
      "Ġshows": 6413,
      "Î¼Î±": 6414,
      "Ġproblems": 6415,
      "Ġclos": 6416,
      "åĲĽ": 6417,
      "à°²": 6418,
      "åĮ»çĸĹ": 6419,
      "oto": 6420,
      "çĶµè§Ĩ": 6421,
      "æĩĤ": 6422,
      "Ã¨re": 6423,
      "Ġcannot": 6424,
      "Ġ///": 6425,
      "ìĿĦ": 6426,
      "zo": 6427,
      "zh": 6428,
      "ola": 6429,
      "çī¹å¾ģ": 6430,
      "fully": 6431,
      "æīĭæľ¯": 6432,
      "bor": 6433,
      "len": 6434,
      "ÙĦÙī": 6435,
      "ancial": 6436,
      "adding": 6437,
      "åĬŀæ³ķ": 6438,
      "Add": 6439,
      "ĠĠĠĠĠĠĠĠĠĠĠĠĠĠĠĠĠ": 6440,
      "ç§ĺ": 6441,
      "æĺł": 6442,
      "Ã¤t": 6443,
      "ensive": 6444,
      "Ò£": 6445,
      "å±ı": 6446,
      "æĻºèĥ½": 6447,
      "Ġtrack": 6448,
      "Ã¶n": 6449,
      "ĠHis": 6450,
      "selves": 6451,
      "èĥ¡": 6452,
      "ĠJust": 6453,
      "itional": 6454,
      "ĠDis": 6455,
      "rew": 6456,
      "è¿Ĳè¡Į": 6457,
      "nbsp": 6458,
      "ponent": 6459,
      "åĬĽéĩı": 6460,
      "éŁ³ä¹Ĳ": 6461,
      "à·ı": 6462,
      "éŀ": 6463,
      "Ġsepar": 6464,
      "Ġdeath": 6465,
      "æ¢°": 6466,
      "Ġfoot": 6467,
      "ĠÎ½": 6468,
      "arr": 6469,
      "æ²¿": 6470,
      "æĳ©": 6471,
      "Ġcred": 6472,
      "Ø°": 6473,
      "á»ĭ": 6474,
      "ĠMc": 6475,
      "Ġcompan": 6476,
      "atform": 6477,
      "Ġenh": 6478,
      "æī¾åĪ°": 6479,
      "label": 6480,
      "è¾ħ": 6481,
      "à§ĩà¦": 6482,
      "Ġground": 6483,
      "æº¶": 6484,
      "é»ĺ": 6485,
      "Ġbis": 6486,
      "å·§": 6487,
      "asc": 6488,
      "æķ°åŃĹ": 6489,
      "Of": 6490,
      "å®ĭ": 6491,
      "_name": 6492,
      "ĠÑĤÐ°Ðº": 6493,
      "Ġinn": 6494,
      "nav": 6495,
      "Ġsurface": 6496,
      "Ġ×Ĳ×": 6497,
      "ĠNational": 6498,
      "OL": 6499,
      "cm": 6500,
      "Ġregard": 6501,
      "aa": 6502,
      "Ġdefault": 6503,
      "é¾Ħ": 6504,
      "--------------------------------": 6505,
      "Ġquestions": 6506,
      "å°Ĭ": 6507,
      "EL": 6508,
      "è·Ŀç¦»": 6509,
      "ĠÐ¿ÑĢÐµÐ´": 6510,
      "åĪ·": 6511,
      "àµĨ": 6512,
      "year": 6513,
      "èĤĮ": 6514,
      "ride": 6515,
      "Ġadded": 6516,
      "æĥł": 6517,
      "å®īæİĴ": 6518,
      "ç¹ģ": 6519,
      "Ġimpact": 6520,
      "apter": 6521,
      "mark": 6522,
      "Ġpurch": 6523,
      "Ġsystems": 6524,
      "Î²": 6525,
      "aced": 6526,
      "rie": 6527,
      "è¾Ľ": 6528,
      "éĴĪå¯¹": 6529,
      "uments": 6530,
      "ithub": 6531,
      "ä½ľèĢħ": 6532,
      "Ġwriting": 6533,
      "ptember": 6534,
      "Ġthrow": 6535,
      "Ġespecially": 6536,
      "annel": 6537,
      "ä¼ĺç§Ģ": 6538,
      "Ġfire": 6539,
      "åħ¨çĲĥ": 6540,
      "olution": 6541,
      "è°ĵ": 6542,
      "ä¸»é¢ĺ": 6543,
      "Ġbeautiful": 6544,
      "Ġpack": 6545,
      "å¡Ķ": 6546,
      "mente": 6547,
      "Ġcells": 6548,
      "lim": 6549,
      "æ¼«": 6550,
      "Ġconditions": 6551,
      "åĢį": 6552,
      "æļ´": 6553,
      "df": 6554,
      "ë¡ľ": 6555,
      "ä¸įçŁ¥éģĵ": 6556,
      "Ġsoftware": 6557,
      "çī©è´¨": 6558,
      "è¯ģæĺİ": 6559,
      "Ġarticle": 6560,
      "anger": 6561,
      "that": 6562,
      "ging": 6563,
      "stance": 6564,
      "äººæīį": 6565,
      "Ð¾Ñĩ": 6566,
      "Ġautom": 6567,
      "ĠÙħÛĮ": 6568,
      "ç£¨": 6569,
      "Ġqual": 6570,
      "irit": 6571,
      "Ġcirc": 6572,
      "ÑĪÐµ": 6573,
      "ÑīÐµ": 6574,
      "Ġpopular": 6575,
      "Ġfamil": 6576,
      "æ»¡è¶³": 6577,
      "Ä±r": 6578,
      "(self": 6579,
      "ç±»åŀĭ": 6580,
      "endo": 6581,
      "MP": 6582,
      "ĠJe": 6583,
      "itÃ©": 6584,
      "ä¸Ńåįİ": 6585,
      "ÑĤÑĥ": 6586,
      "ä¸įéĶĻ": 6587,
      "èĭ±è¯Ń": 6588,
      "ä¼Ł": 6589,
      "ĠÑĩÑĤÐ¾": 6590,
      "ãĢĮ": 6591,
      "Ġcomplete": 6592,
      "è¶ĬæĿ¥": 6593,
      "ĠMore": 6594,
      "è¡ĮåĬ¨": 6595,
      "Rep": 6596,
      "ully": 6597,
      "ĠSan": 6598,
      "Ġnews": 6599,
      "éģį": 6600,
      "è£ħç½®": 6601,
      "Ġps": 6602,
      "ainer": 6603,
      "Õ¡Õ": 6604,
      "eli": 6605,
      "åºĦ": 6606,
      "å§ĵ": 6607,
      "-B": 6608,
      "ham": 6609,
      "ĠÐ¿ÑĢÐµ": 6610,
      "Ġeffects": 6611,
      "Test": 6612,
      "èĤĿ": 6613,
      "(m": 6614,
      "åİŁåĪĻ": 6615,
      "Ġmargin": 6616,
      "åı¬": 6617,
      "åĳĬè¯ī": 6618,
      "łáĥ": 6619,
      "æĸĩç«ł": 6620,
      "è¶ĬæĿ¥è¶Ĭ": 6621,
      "åĲĪçĲĨ": 6622,
      "ìŀ": 6623,
      "Ð°ÑĤÐ¸": 6624,
      "ĠAnt": 6625,
      "Ġsett": 6626,
      "à¶º": 6627,
      "ĠOur": 6628,
      "ãĢį": 6629,
      "ufact": 6630,
      "Ġflow": 6631,
      "Ġbal": 6632,
      "sl": 6633,
      "è§Ĥå¯Ł": 6634,
      "è¦": 6635,
      "ī´": 6636,
      "Ġisn": 6637,
      "igned": 6638,
      "Ð½Ð¾Ð²": 6639,
      "è®°å½ķ": 6640,
      "Ġ×ķ": 6641,
      "ç»ĦæĪĲ": 6642,
      "çĸ«æĥħ": 6643,
      "ä¸Ģå®ļè¦ģ": 6644,
      "âĸ": 6645,
      "Ġbuilding": 6646,
      "enu": 6647,
      "Ġindustry": 6648,
      "ÐµÑĤÑģÑı": 6649,
      "éŁ©": 6650,
      "#include": 6651,
      "ĠEst": 6652,
      "ĠØ§Ø²": 6653,
      "oma": 6654,
      "ĠTra": 6655,
      "ÑīÐ¸": 6656,
      "ĠÂ»": 6657,
      "Ġtech": 6658,
      "Ġ->": 6659,
      "Ġemail": 6660,
      "Ġoption": 6661,
      "Ġaffect": 6662,
      "Ġlikely": 6663,
      "Ð´Ñĥ": 6664,
      "æľĢç»Ī": 6665,
      "ĠInt": 6666,
      "Ġrad": 6667,
      "å¼ĥ": 6668,
      "å¦ĤæŃ¤": 6669,
      "-r": 6670,
      "Ġsugar": 6671,
      "Ġintegr": 6672,
      "Ġhat": 6673,
      "Ġprovides": 6674,
      "à»": 6675,
      "ĠÄį": 6676,
      "Øº": 6677,
      "sub": 6678,
      "å§Ķåĳĺ": 6679,
      "Ġmal": 6680,
      "perty": 6681,
      "à®²": 6682,
      "åŁºéĩĳ": 6683,
      "åįģåĪĨ": 6684,
      "ĠDon": 6685,
      "ĉpublic": 6686,
      "Ġsin": 6687,
      "ĠMus": 6688,
      "Ñŀ": 6689,
      "åĪ¶éĢł": 6690,
      "ĠPre": 6691,
      "Ġnam": 6692,
      "è²": 6693,
      "lied": 6694,
      "çĶŁæĢģ": 6695,
      "åĳĺå·¥": 6696,
      "à¸ķ": 6697,
      "Ġlevels": 6698,
      "Ġmember": 6699,
      "../../": 6700,
      "Ġexperi": 6701,
      "å½»": 6702,
      "ische": 6703,
      "time": 6704,
      "Ġprinc": 6705,
      "ç²Ĵ": 6706,
      "ÙĬØ±": 6707,
      "ategory": 6708,
      "ĠØ¥": 6709,
      "äº¡": 6710,
      "ÑĥÐ¿": 6711,
      "è´Ńä¹°": 6712,
      "èĥİ": 6713,
      "uer": 6714,
      "ì§": 6715,
      "äººç±»": 6716,
      "resh": 6717,
      "Ġbehind": 6718,
      "Info": 6719,
      "Ġanyone": 6720,
      "Î½Î±": 6721,
      "ummary": 6722,
      "pose": 6723,
      "Ġwa": 6724,
      "ĠAng": 6725,
      "rim": 6726,
      "æĮ¯": 6727,
      "Ġdouble": 6728,
      "Ent": 6729,
      "Ġphone": 6730,
      "æ®ĭ": 6731,
      "Ġ<<": 6732,
      "Ø£": 6733,
      "à¥įà¤°": 6734,
      "æıĴ": 6735,
      "ÃŃt": 6736,
      "ĠSome": 6737,
      "ĠSchool": 6738,
      "ns": 6739,
      "åı¦å¤ĸ": 6740,
      "æ¢ħ": 6741,
      "åĪ¶ä½ľ": 6742,
      "ye": 6743,
      "light": 6744,
      "Ġliving": 6745,
      "áĢ¯": 6746,
      "Ð·Ð°": 6747,
      "result": 6748,
      "-se": 6749,
      "Ġtraining": 6750,
      "Ġrelated": 6751,
      "arter": 6752,
      "èħ¹": 6753,
      "åĲ´": 6754,
      "Event": 6755,
      "éľĩ": 6756,
      "éī´": 6757,
      "more": 6758,
      "ĠList": 6759,
      "ë¥": 6760,
      "ressed": 6761,
      "ivo": 6762,
      "iones": 6763,
      "à«ĩ": 6764,
      "Sc": 6765,
      "ector": 6766,
      "Ġ*Ċ": 6767,
      "è¯Ħä»·": 6768,
      "æľīäºº": 6769,
      "çī¹èī²": 6770,
      "aging": 6771,
      "Ġmas": 6772,
      "rix": 6773,
      "æŃ£åľ¨": 6774,
      "ĠHigh": 6775,
      "image": 6776,
      "å®¶éķ¿": 6777,
      "_F": 6778,
      "å°¾": 6779,
      "bi": 6780,
      "Ġplease": 6781,
      "èĩªèº«": 6782,
      "Ĵáŀ": 6783,
      "çĽ¸å¯¹": 6784,
      "å£ģ": 6785,
      "sole": 6786,
      "Ġapproach": 6787,
      "Ġinside": 6788,
      "à¯įà®Ł": 6789,
      "ĠÃº": 6790,
      "ç«ŀäºī": 6791,
      "eller": 6792,
      "Ð»ÐµÐ½": 6793,
      "(p": 6794,
      "éĻįä½İ": 6795,
      "ker": 6796,
      "_D": 6797,
      "ÏĥÎ·": 6798,
      "ribution": 6799,
      "çĤ¹åĩ»": 6800,
      "Ã¨s": 6801,
      "ĠìĿ": 6802,
      "æĶ¯ä»ĺ": 6803,
      "agement": 6804,
      "istance": 6805,
      "åĨľæĿĳ": 6806,
      "Ġengine": 6807,
      "Ġelement": 6808,
      "æĸĩæĺİ": 6809,
      "Ġknowledge": 6810,
      "Ġlonger": 6811,
      "Ð°ÑĢÐ°": 6812,
      "ÐµÐ»Ð¸": 6813,
      "CE": 6814,
      "à¯ģà®®": 6815,
      "oms": 6816,
      "Ġcoming": 6817,
      "áºŃ": 6818,
      "çĪ·": 6819,
      "éĶħ": 6820,
      "ras": 6821,
      "Å«": 6822,
      "ĠsiÄĻ": 6823,
      "OP": 6824,
      "kn": 6825,
      "anning": 6826,
      "éķ¿æľŁ": 6827,
      "Ð¸ÑĤÐµ": 6828,
      "å¿Ĩ": 6829,
      "mission": 6830,
      "ĠĠĊ": 6831,
      "ä¼ĺåĬ¿": 6832,
      "åºĶå½ĵ": 6833,
      "ãĤ": 6834,
      "ĠPark": 6835,
      "Ġjava": 6836,
      "Ġà®ķ": 6837,
      "itter": 6838,
      "Ġsection": 6839,
      "æīĵå¼Ģ": 6840,
      "},Ċ": 6841,
      "à¸°": 6842,
      "ql": 6843,
      "gn": 6844,
      "Ã´ng": 6845,
      "Form": 6846,
      "Ġthird": 6847,
      "Ġoutside": 6848,
      "Ġple": 6849,
      "Ġpal": 6850,
      "ç¡®ä¿Ŀ": 6851,
      "Ġfem": 6852,
      "fil": 6853,
      "Ġcases": 6854,
      "åĪĨäº«": 6855,
      "down": 6856,
      "Ġforward": 6857,
      "Ġinvestig": 6858,
      "field": 6859,
      "æł¸å¿ĥ": 6860,
      "Ġterms": 6861,
      "ä¼Ļ": 6862,
      "è¯º": 6863,
      "ĠSouth": 6864,
      "Ġfelt": 6865,
      "aker": 6866,
      "aves": 6867,
      "çıł": 6868,
      "ĠNow": 6869,
      "Ġsen": 6870,
      "iva": 6871,
      "Ġtour": 6872,
      "à¥Ī": 6873,
      "å°ıåŃ¦": 6874,
      "æĢİæł·": 6875,
      "æ³°": 6876,
      "æ±¤": 6877,
      "Ġsort": 6878,
      "Ġfra": 6879,
      "ÑģÐºÐ¾Ð¹": 6880,
      "ungen": 6881,
      "æ¨ª": 6882,
      "nder": 6883,
      "ĠPat": 6884,
      "æĥ³è¦ģ": 6885,
      "åĭ¤": 6886,
      "create": 6887,
      "æľºåħ³": 6888,
      "åĨľä¸ļ": 6889,
      "Ġwall": 6890,
      "Ġmis": 6891,
      "æĪĲéķ¿": 6892,
      "æĪĲç«ĭ": 6893,
      "Ġtele": 6894,
      "é£Łåĵģ": 6895,
      "Ġstore": 6896,
      "Ġìŀ": 6897,
      "<div": 6898,
      "Ġdies": 6899,
      "IR": 6900,
      "áŁĴáŀ": 6901,
      "UL": 6902,
      "ä¹¦è®°": 6903,
      "emp": 6904,
      "è°ĥæŁ¥": 6905,
      "illa": 6906,
      "Ġconsum": 6907,
      "ĠOct": 6908,
      "..Ċ": 6909,
      "ĠÐ³Ð¾Ð´Ð°": 6910,
      "æ®Ĭ": 6911,
      "é¡¿": 6912,
      "ĠÐĹ": 6913,
      "una": 6914,
      "cy": 6915,
      "hi": 6916,
      "å¾Īå¥½": 6917,
      "Class": 6918,
      "áĢ±": 6919,
      "ĠÐ¼Ðµ": 6920,
      "çģ¾": 6921,
      "áĢŃ": 6922,
      "æĬĢèĥ½": 6923,
      "ĠPost": 6924,
      "çĽ¸ä¿¡": 6925,
      "uv": 6926,
      "ĠInter": 6927,
      "Ġitem": 6928,
      "ç»ķ": 6929,
      "à¸ª": 6930,
      "ĠTrans": 6931,
      "Over": 6932,
      "Ġpropos": 6933,
      "è§Ħæ¨¡": 6934,
      "Ð¾ÑĤÐ¾ÑĢ": 6935,
      "çĤ¼": 6936,
      "Ġsix": 6937,
      "Ġcontinue": 6938,
      "Ġunit": 6939,
      "ĠBer": 6940,
      "ÑĨÐ¸Ð¸": 6941,
      "och": 6942,
      "Ġdog": 6943,
      "Request": 6944,
      "Ġwrite": 6945,
      "Ġhttps": 6946,
      "å¾Īå¤§": 6947,
      "éĶĻè¯¯": 6948,
      "æĦŁæŁĵ": 6949,
      "åģļåĪ°": 6950,
      "uary": 6951,
      "cia": 6952,
      "à²°": 6953,
      "(d": 6954,
      "åıĳæĮ¥": 6955,
      "è®°èĢħ": 6956,
      "urance": 6957,
      "Ġincludes": 6958,
      "Ð¸Ð·": 6959,
      "åĨħéĥ¨": 6960,
      "è¡¨éĿ¢": 6961,
      "Ġtravel": 6962,
      "ternal": 6963,
      "Ġimplement": 6964,
      "Ġren": 6965,
      "Ġshall": 6966,
      "Ġsche": 6967,
      "ead": 6968,
      "ĠII": 6969,
      "ª×": 6970,
      "Ġsong": 6971,
      "Ġ__": 6972,
      "```": 6973,
      "Model": 6974,
      "[]": 6975,
      "Ġways": 6976,
      "Ġbehav": 6977,
      "aÅĤ": 6978,
      "ĊĊĊ": 6979,
      "áĢĢ": 6980,
      "Ġaccom": 6981,
      "èµµ": 6982,
      "OM": 6983,
      "èĴĻ": 6984,
      "ä½ľæĸĩ": 6985,
      "çĶµèĦĳ": 6986,
      "äºĮåįģ": 6987,
      "æĿ¥æºĲ": 6988,
      "bon": 6989,
      "Ġrunning": 6990,
      "ÑĢÑĭ": 6991,
      "ounds": 6992,
      "ĠÎ³": 6993,
      "ä¸ģ": 6994,
      "Ġkan": 6995,
      "util": 6996,
      "Ġcreated": 6997,
      "æĹ¶æľŁ": 6998,
      "ebru": 6999,
      "ĠAc": 7000,
      "Ġtro": 7001,
      "Ġreceived": 7002,
      "Ġoutput": 7003,
      "ĠPres": 7004,
      "ĠFin": 7005,
      "Ġexec": 7006,
      "abase": 7007,
      "ĠÐ²Ð¾": 7008,
      "æķ¬": 7009,
      "Ġcompl": 7010,
      "Ġareas": 7011,
      "ello": 7012,
      "sequ": 7013,
      "ç¾Ĭ": 7014,
      "Do": 7015,
      "Ð´Ñĭ": 7016,
      "æĭ¼": 7017,
      "Ġstructure": 7018,
      "Ġpercent": 7019,
      "çĽĳçĿ£": 7020,
      "cel": 7021,
      "Ã©g": 7022,
      "')Ċ": 7023,
      "ĠfÃ¶r": 7024,
      ".G": 7025,
      "èĢĮæĺ¯": 7026,
      "æ£®": 7027,
      "Ġsense": 7028,
      "ĠÃ®n": 7029,
      "ä¸»ä»»": 7030,
      "omb": 7031,
      "arl": 7032,
      "ç»ĵæĿŁ": 7033,
      "Ġhy": 7034,
      "Ġá": 7035,
      "-to": 7036,
      "ĠÅ": 7037,
      "username": 7038,
      "ä»¥æĿ¥": 7039,
      "å¡ĳ": 7040,
      "åĪĳ": 7041,
      "åĳĪ": 7042,
      "BC": 7043,
      "ä¹łæĥ¯": 7044,
      "Ġintrodu": 7045,
      "à¤¾à¤°": 7046,
      "Ġhands": 7047,
      "aily": 7048,
      "ĠÃ¡": 7049,
      "åĩ¡": 7050,
      "ä¸Ńå¤®": 7051,
      "å¤§éĩı": 7052,
      "Ġscreen": 7053,
      "è´¯": 7054,
      "Ġusually": 7055,
      "ä½įäºİ": 7056,
      "ĠÐºÐ¾Ð½": 7057,
      "æİ¨åĬ¨": 7058,
      "Ġcomplex": 7059,
      "Ġfrequ": 7060,
      "ĠDav": 7061,
      "è¡¨è¾¾": 7062,
      "Ġproduction": 7063,
      "Ġauch": 7064,
      "rd": 7065,
      "çļ®èĤ¤": 7066,
      "Ĥ¬": 7067,
      "mes": 7068,
      "ila": 7069,
      "ĠÑģÐ¾": 7070,
      "æķ´ä½ĵ": 7071,
      "å¢ŀå¼º": 7072,
      "æ·±åħ¥": 7073,
      "åħļåĳĺ": 7074,
      "é¢Ĺ": 7075,
      "Ġwoman": 7076,
      "æ³Ľ": 7077,
      "Ġtechnology": 7078,
      "Ġtypes": 7079,
      "cast": 7080,
      "());Ċ": 7081,
      "Ġgrad": 7082,
      "Ġsolution": 7083,
      "Ġnicht": 7084,
      "Ġstandard": 7085,
      "},": 7086,
      "à´¤": 7087,
      "Ġband": 7088,
      "Ġreading": 7089,
      "Ġplant": 7090,
      "Ġsimply": 7091,
      "æ³¥": 7092,
      "oe": 7093,
      "/d": 7094,
      "ĠÐ¿Ð¾Ñģ": 7095,
      "áŀ¶": 7096,
      "rav": 7097,
      "Ġlearning": 7098,
      "æĢ§èĥ½": 7099,
      "ÏģÎ¹": 7100,
      "Ġattack": 7101,
      "Ġexact": 7102,
      "Ġ||": 7103,
      "å¹¶ä¸į": 7104,
      "æī¶": 7105,
      "(c": 7106,
      "Ġgrowth": 7107,
      "à±ĭ": 7108,
      "================": 7109,
      "pm": 7110,
      "ĠÅ¾": 7111,
      "åĲįåŃĹ": 7112,
      "aks": 7113,
      "Ġremember": 7114,
      "IF": 7115,
      "ä½ľä¸ļ": 7116,
      "Ġarray": 7117,
      "Ġevents": 7118,
      "çıį": 7119,
      "Index": 7120,
      "itar": 7121,
      "æ©": 7122,
      "è´Ŀ": 7123,
      "imm": 7124,
      "å¦Ĥä¸ĭ": 7125,
      "ibrary": 7126,
      "æģ¢": 7127,
      "è´¸": 7128,
      "ĠÑĤÐµ": 7129,
      "itation": 7130,
      "è£Ĥ": 7131,
      "èĤ¯å®ļ": 7132,
      "åºŁ": 7133,
      "æĪª": 7134,
      "itude": 7135,
      "Ġleave": 7136,
      "Ġnice": 7137,
      "åĩī": 7138,
      "nen": 7139,
      "change": 7140,
      "Ġya": 7141,
      "Up": 7142,
      "ĠUs": 7143,
      "BA": 7144,
      "ota": 7145,
      "ä¸Ģä½į": 7146,
      "uid": 7147,
      "çĦ¦": 7148,
      "ä½ĵéªĮ": 7149,
      "èĭĹ": 7150,
      "ĠWest": 7151,
      "Ġoffers": 7152,
      "oring": 7153,
      "Ġwrong": 7154,
      "å¿«éĢŁ": 7155,
      "ership": 7156,
      "åĬŀåħ¬": 7157,
      "æĹĹ": 7158,
      "Ġarr": 7159,
      "Ed": 7160,
      "used": 7161,
      "ĠÕ": 7162,
      "Ġlocation": 7163,
      "èĩªçĶ±": 7164,
      "Ġfit": 7165,
      "iner": 7166,
      "Ġtakes": 7167,
      "Æ¡": 7168,
      "æĹĭ": 7169,
      "èİ«": 7170,
      "Ġheav": 7171,
      "config": 7172,
      "tes": 7173,
      "ĠMr": 7174,
      "åĽ°éļ¾": 7175,
      "TR": 7176,
      "ÑģÑĤÐ¾": 7177,
      "ĠÑģÐ²": 7178,
      "Ġselect": 7179,
      "Ġdeep": 7180,
      "ç»Łä¸Ģ": 7181,
      "ä¸¥æł¼": 7182,
      "ĠStr": 7183,
      "çĶľ": 7184,
      "Ġhol": 7185,
      "åĬŀçĲĨ": 7186,
      "å¦¹": 7187,
      "iat": 7188,
      "check": 7189,
      "Ġworth": 7190,
      "Ð¾Ð²Ð¸": 7191,
      "åį³åı¯": 7192,
      "define": 7193,
      "æĢ»ç»ĵ": 7194,
      "Òĵ": 7195,
      "ML": 7196,
      "export": 7197,
      "ĠAugust": 7198,
      "PC": 7199,
      "æ¯«": 7200,
      "æľīçĤ¹": 7201,
      "Ġinflu": 7202,
      "ospital": 7203,
      "å¤§å°ı": 7204,
      "à¹ģ": 7205,
      "._": 7206,
      "ĠØ¨Ø±": 7207,
      "ĠApril": 7208,
      "Ġtask": 7209,
      "airs": 7210,
      "èµı": 7211,
      "ĠNorth": 7212,
      "lier": 7213,
      "èħĶ": 7214,
      "Ġstra": 7215,
      "è´·æ¬¾": 7216,
      "Field": 7217,
      "æ³ķéĻ¢": 7218,
      "æİĮæı¡": 7219,
      "ĠRec": 7220,
      "ç½ĳç«Ļ": 7221,
      "ĠÐ¸Ð½": 7222,
      "å·¥åħ·": 7223,
      "åĬ¨çī©": 7224,
      "åĬłåħ¥": 7225,
      "âĨ": 7226,
      "éĶģ": 7227,
      "è¹": 7228,
      "èĩªæĪĳ": 7229,
      "Ġroad": 7230,
      "åĶ¯": 7231,
      "ishing": 7232,
      "Ġba": 7233,
      "çĽŁ": 7234,
      "iger": 7235,
      "éĢĴ": 7236,
      "Ġcontext": 7237,
      "æľĢé«ĺ": 7238,
      "èĤº": 7239,
      "èµŀ": 7240,
      "Ġtal": 7241,
      "Ġmedic": 7242,
      "Ġdraw": 7243,
      "osition": 7244,
      "ĠFe": 7245,
      "æ¬²": 7246,
      "Ġ/*": 7247,
      "Ġiz": 7248,
      "oria": 7249,
      "ĠSw": 7250,
      "ç½ļ": 7251,
      "Ġrecogn": 7252,
      "Æ°á»£": 7253,
      "Ġliter": 7254,
      "ÑĥÑİ": 7255,
      "Color": 7256,
      "[\"": 7257,
      "Config": 7258,
      "Ð°Ð½Ð¸Ñı": 7259,
      "sm": 7260,
      "Ĺ×": 7261,
      "Ġfat": 7262,
      "à¦¼": 7263,
      "åħ¬éĩĮ": 7264,
      "à²¦": 7265,
      "Ġmechan": 7266,
      "-C": 7267,
      "Ġdro": 7268,
      "é²ģ": 7269,
      "å®ĮåĸĦ": 7270,
      "ĠAcc": 7271,
      ".)": 7272,
      "è°·": 7273,
      "ÅĦ": 7274,
      "èĻ«": 7275,
      "éŃĶ": 7276,
      "ania": 7277,
      "ĠHealth": 7278,
      "Ġyourself": 7279,
      "å°º": 7280,
      "amily": 7281,
      "è¯ĳ": 7282,
      "ĠThen": 7283,
      "æŁ±": 7284,
      "iki": 7285,
      "åĮĸåŃ¦": 7286,
      ".;": 7287,
      "Ġconcern": 7288,
      "ĠØ§ÙĦØ£": 7289,
      "MS": 7290,
      ".js": 7291,
      "ĠâĢ¦": 7292,
      ".The": 7293,
      "æ¹¾": 7294,
      "Ġmention": 7295,
      "ynam": 7296,
      "ae": 7297,
      "see": 7298,
      "Ġnach": 7299,
      "That": 7300,
      "å¾ª": 7301,
      "One": 7302,
      "coming": 7303,
      "ç£ģ": 7304,
      "èĤ¡ç¥¨": 7305,
      "ador": 7306,
      "kin": 7307,
      "(n": 7308,
      "ä»Ļ": 7309,
      "áº§": 7310,
      "gi": 7311,
      "æķ°éĩı": 7312,
      "Ġweeks": 7313,
      "Ġheld": 7314,
      "Ġparty": 7315,
      "åĪĽéĢł": 7316,
      "åªĴä½ĵ": 7317,
      "¸°": 7318,
      "aste": 7319,
      "aren": 7320,
      "ä½ĵèĤ²": 7321,
      "rip": 7322,
      "./": 7323,
      "ĠJah": 7324,
      "ç´«": 7325,
      "æĢª": 7326,
      "ago": 7327,
      "áĢĲ": 7328,
      "Ġsaf": 7329,
      "Ġsv": 7330,
      "æ¶Ĥ": 7331,
      "æµĭè¯ķ": 7332,
      "Ġimmedi": 7333,
      "edia": 7334,
      "ĠÃ¥": 7335,
      "Ġvá»": 7336,
      "æ½®": 7337,
      "Context": 7338,
      "æĸ¹ä¾¿": 7339,
      "ÐĶ": 7340,
      "apan": 7341,
      "çĮª": 7342,
      "æ¢¦è§ģ": 7343,
      "anch": 7344,
      "/j": 7345,
      "Ġlength": 7346,
      "æī«": 7347,
      "ĠArt": 7348,
      "Ġdim": 7349,
      "èĿ": 7350,
      "åĳĢ": 7351,
      "akt": 7352,
      "lem": 7353,
      "Ġbud": 7354,
      "æĬµ": 7355,
      "ä¼¸": 7356,
      "Ġunique": 7357,
      "isi": 7358,
      "ĠÐºÐ°Ðº": 7359,
      "èµ¶": 7360,
      "æľºæ¢°": 7361,
      "Ġregion": 7362,
      "unic": 7363,
      "æģ¢å¤į": 7364,
      "Ġavec": 7365,
      "ĠÎ¼Îµ": 7366,
      "aling": 7367,
      "Ġindex": 7368,
      "æĬ±": 7369,
      "Ġprior": 7370,
      "çģŃ": 7371,
      "ÑģÐºÐ¾Ð³Ð¾": 7372,
      "Ðľ": 7373,
      "ĠOff": 7374,
      "Ġhappy": 7375,
      "éĢļå¸¸": 7376,
      "éĿ¢å¯¹": 7377,
      "ĠcÃ³": 7378,
      "title": 7379,
      "Ġanim": 7380,
      "ĠRed": 7381,
      "/p": 7382,
      "Ġsend": 7383,
      "<td": 7384,
      "è¿¹": 7385,
      "æ·»": 7386,
      "Ġvoor": 7387,
      "else": 7388,
      "ä¸ĢæĿ¡": 7389,
      "Ð½Ð¸Ðº": 7390,
      "dom": 7391,
      "ĠÐºÐ¾": 7392,
      "à¸Ħ": 7393,
      "Ø§Ùĩ": 7394,
      "ĠÐ´Ðµ": 7395,
      "é¼»": 7396,
      "pace": 7397,
      "aby": 7398,
      "Ã¢n": 7399,
      "æī£": 7400,
      "augh": 7401,
      "Ġassociated": 7402,
      "åĺ´": 7403,
      "Ġlooks": 7404,
      "Ġturned": 7405,
      "èĲ¥åħ»": 7406,
      "à®µ": 7407,
      "Ġequip": 7408,
      "èĢĹ": 7409,
      "Ġmicro": 7410,
      "Ġ**": 7411,
      "Ġanswer": 7412,
      "(),": 7413,
      "Ġcompanies": 7414,
      "å¿ħè¦ģ": 7415,
      "åķĨåĵģ": 7416,
      "Ġinstead": 7417,
      "Ġlanguage": 7418,
      "istics": 7419,
      "Ġframe": 7420,
      "ako": 7421,
      "Ġ:=": 7422,
      "Ġactivity": 7423,
      "ç§»åĬ¨": 7424,
      "Ġcouple": 7425,
      "Ġprefer": 7426,
      "het": 7427,
      "Ġdetails": 7428,
      "Ġord": 7429,
      "ught": 7430,
      "-P": 7431,
      "eto": 7432,
      "Size": 7433,
      "iden": 7434,
      "èĻİ": 7435,
      "ĠBro": 7436,
      "ĠÃ§": 7437,
      "ĠFrom": 7438,
      "Element": 7439,
      "åĸ·": 7440,
      "Ġpark": 7441,
      "åĲİæĿ¥": 7442,
      "ford": 7443,
      "orge": 7444,
      "äº¦": 7445,
      "æĢ»æĺ¯": 7446,
      "ÐºÑĤ": 7447,
      "ĠÐ¾Ð¿": 7448,
      "Ġmale": 7449,
      "EC": 7450,
      "Ġstatus": 7451,
      "ä¸»åĬ¨": 7452,
      "ĠWar": 7453,
      "band": 7454,
      "Ġquickly": 7455,
      "cember": 7456,
      "Ġhit": 7457,
      "Ġveh": 7458,
      "æ¤įçī©": 7459,
      "ĠpÅĻ": 7460,
      "ä¸¹": 7461,
      "Out": 7462,
      "Ġdrive": 7463,
      "nÃ©": 7464,
      "å°¤åħ¶": 7465,
      "Ġdating": 7466,
      "fa": 7467,
      "æĹģ": 7468,
      "çº¹": 7469,
      "Ġjed": 7470,
      "Ã®": 7471,
      "Ġjud": 7472,
      "Ġswe": 7473,
      "Log": 7474,
      "Ġexpected": 7475,
      "bit": 7476,
      "Ġflex": 7477,
      "ceed": 7478,
      "çĿĽ": 7479,
      "é«ĺåº¦": 7480,
      "ä¸įçĶ¨": 7481,
      "wise": 7482,
      "berg": 7483,
      "ovember": 7484,
      "ĠNULL": 7485,
      "Post": 7486,
      "PI": 7487,
      "à®¯": 7488,
      "Ġcorrect": 7489,
      "æľĢè¿ĳ": 7490,
      "åĦ¿ç«¥": 7491,
      "Ġoffice": 7492,
      "Ġmut": 7493,
      "çģ°": 7494,
      "ĠMarch": 7495,
      "ĠÙĪØ§ÙĦ": 7496,
      "Ġprevent": 7497,
      "aan": 7498,
      "Fr": 7499,
      "å¦»": 7500,
      "æĳĨ": 7501,
      "ç»ª": 7502,
      "Ġgroups": 7503,
      "è®¾æĸ½": 7504,
      "lying": 7505,
      "èģĺ": 7506,
      "ĠÐºÐ°": 7507,
      "æĽ¿": 7508,
      "pat": 7509,
      "reate": 7510,
      "ĠHol": 7511,
      "éĽĨä¸Ń": 7512,
      "æ´ŀ": 7513,
      "Ġalg": 7514,
      "åħ¬åħ±": 7515,
      "æ¡ĥ": 7516,
      "æ´Ľ": 7517,
      "çĮ«": 7518,
      "Ġcele": 7519,
      "éģĩåĪ°": 7520,
      "ĠÑĺÐµ": 7521,
      "å¯¹è±¡": 7522,
      "âĢĻd": 7523,
      "æĪĺçķ¥": 7524,
      "ffect": 7525,
      "æľºåĪ¶": 7526,
      "olean": 7527,
      "èŀº": 7528,
      "hol": 7529,
      "æĹłè®º": 7530,
      "ĠÐ¿ÐµÑĢÐµ": 7531,
      "Ġcalcul": 7532,
      "Ð½Ð°Ñı": 7533,
      "cons": 7534,
      "Ġprep": 7535,
      "åĩ½": 7536,
      "åķĨä¸ļ": 7537,
      "Node": 7538,
      "Ġball": 7539,
      "éĩĩåıĸ": 7540,
      "é©±": 7541,
      "_in": 7542,
      "Ġcontr": 7543,
      "cht": 7544,
      "-A": 7545,
      "Ġheard": 7546,
      "èį·": 7547,
      "efore": 7548,
      "Ġrecent": 7549,
      "Ġmodern": 7550,
      "ĠÅ¡": 7551,
      "Ġstudies": 7552,
      "Ð»ÐµÐ´": 7553,
      "âĢĿĊ": 7554,
      "Ġcand": 7555,
      "Ġmeasure": 7556,
      "Ġcondition": 7557,
      "ĠØ§ÙĦØª": 7558,
      "æľĹ": 7559,
      "Ġstaff": 7560,
      "Ġlate": 7561,
      "rec": 7562,
      "ogen": 7563,
      "Ġitems": 7564,
      "Ġabsol": 7565,
      "Ġmedical": 7566,
      "âĢ¢": 7567,
      "Ġnav": 7568,
      "ä¸įè¶³": 7569,
      "ÑģÑĤÐ²Ð°": 7570,
      "à´¨": 7571,
      "active": 7572,
      "èģĶåĲĪ": 7573,
      "ä¸ĵå®¶": 7574,
      "Ġdur": 7575,
      "Ġtim": 7576,
      "éĢļçŁ¥": 7577,
      "æĿ¥èĩª": 7578,
      "Ġmes": 7579,
      "åķ¦": 7580,
      "¤×": 7581,
      "¨×": 7582,
      "Ġclient": 7583,
      "Ġpull": 7584,
      "yth": 7585,
      "ĠÐ»Ð¸": 7586,
      "-based": 7587,
      "ĠÑģÑĥ": 7588,
      "acity": 7589,
      "Ġwonder": 7590,
      "æģĭ": 7591,
      "Ġsie": 7592,
      "-n": 7593,
      "ondon": 7594,
      "Ġni": 7595,
      "iny": 7596,
      "å¯¹æĸ¹": 7597,
      "åĬłå·¥": 7598,
      "à¶»": 7599,
      "Ġ×ķ×": 7600,
      "Ġfeature": 7601,
      "Ġmais": 7602,
      "Ġagre": 7603,
      "Ð²Ð°Ð½": 7604,
      "ä¿¡åı·": 7605,
      "âĶ": 7606,
      "äºĭæķħ": 7607,
      "XX": 7608,
      "wer": 7609,
      "Ã©d": 7610,
      "Ġsqu": 7611,
      "Ġmap": 7612,
      "è§Ī": 7613,
      "Ġfol": 7614,
      "Path": 7615,
      "ä¹Į": 7616,
      "Ġà®®": 7617,
      "tex": 7618,
      "position": 7619,
      "ĠáĥĽ": 7620,
      "à¶Ń": 7621,
      "æĻ¶": 7622,
      "çĶĺ": 7623,
      "è½¦è¾Ĩ": 7624,
      "inger": 7625,
      "à¦¨": 7626,
      "Ġfine": 7627,
      "ÉĻr": 7628,
      "rial": 7629,
      "ĠBrit": 7630,
      "Ġcry": 7631,
      "Ð»Ñĸ": 7632,
      "Ã¡r": 7633,
      "æ´¥": 7634,
      "ÐºÐµ": 7635,
      "ĠTHE": 7636,
      "TD": 7637,
      "åĪ¶å®ļ": 7638,
      "Ġkm": 7639,
      "èĦı": 7640,
      "Ġcook": 7641,
      "Def": 7642,
      "èħ¿": 7643,
      "à¸«": 7644,
      "Mod": 7645,
      "Ġtill": 7646,
      "dy": 7647,
      "ç©ºæ°Ķ": 7648,
      "ç§¦": 7649,
      "Ġprec": 7650,
      "Ġconsidered": 7651,
      "Ġmethods": 7652,
      "Ġdescribed": 7653,
      "Ġmyself": 7654,
      "è¢«åĳĬ": 7655,
      "íķľ": 7656,
      "åħ¬å¼Ģ": 7657,
      "Ġpow": 7658,
      "HT": 7659,
      "eme": 7660,
      "åĵ¦": 7661,
      "ĠTV": 7662,
      "She": 7663,
      "Ġcomputer": 7664,
      "èĸĦ": 7665,
      "iá»ĩ": 7666,
      "åľŁåľ°": 7667,
      "ĠWork": 7668,
      "ĠCons": 7669,
      "Ġinitial": 7670,
      "èĥ¸": 7671,
      "Ġcá»§": 7672,
      "Ġglobal": 7673,
      "Ä±nd": 7674,
      "Ġeducation": 7675,
      ".n": 7676,
      "ĉc": 7677,
      "Ġmultiple": 7678,
      "Ø§Ø³": 7679,
      "ĠJune": 7680,
      "æĤī": 7681,
      "æ°ı": 7682,
      "Ġmu": 7683,
      "çī¹æ®Ĭ": 7684,
      "à¹Ħ": 7685,
      "ä¼Ĭ": 7686,
      "Ġbill": 7687,
      "æ³ī": 7688,
      "éģĵè·¯": 7689,
      "attle": 7690,
      "æ½ľ": 7691,
      "ements": 7692,
      "Ġdiabet": 7693,
      "Button": 7694,
      "ĠBlack": 7695,
      "struct": 7696,
      "TE": 7697,
      "Ġtu": 7698,
      "vey": 7699,
      "Ġparts": 7700,
      "Ġwasn": 7701,
      "éĵº": 7702,
      "Ġchoose": 7703,
      "è£ģ": 7704,
      "enced": 7705,
      "MA": 7706,
      "Ġkit": 7707,
      "){Ċ": 7708,
      "Ġaverage": 7709,
      "Ġpractice": 7710,
      "Ġcá»§a": 7711,
      "Ġwel": 7712,
      "ellow": 7713,
      "Ġquant": 7714,
      "ju": 7715,
      "Ġìł": 7716,
      "ĠSeptember": 7717,
      "Ġnecessary": 7718,
      "Ġti": 7719,
      "xy": 7720,
      "ç¢³": 7721,
      "mo": 7722,
      "Ġready": 7723,
      "Ġprofessional": 7724,
      ".in": 7725,
      "web": 7726,
      "åħĪçĶŁ": 7727,
      "tre": 7728,
      "æł¹æľ¬": 7729,
      "è¯¸": 7730,
      "Ġhair": 7731,
      "è¶ĭ": 7732,
      "Ġusers": 7733,
      "Ġsun": 7734,
      "Ġknew": 7735,
      "isf": 7736,
      "æĹ¥å¸¸": 7737,
      "Ġconsist": 7738,
      "ÑĨÐ°": 7739,
      "Ġesc": 7740,
      "ä¼¦": 7741,
      "ĉp": 7742,
      "respond": 7743,
      "Ġconduct": 7744,
      "CD": 7745,
      "lam": 7746,
      "èħĲ": 7747,
      "vest": 7748,
      "itte": 7749,
      "Ġvalid": 7750,
      "Ġcontract": 7751,
      "å¾Ĳ": 7752,
      "ĠRet": 7753,
      "Ġdark": 7754,
      "ĠÐ¤": 7755,
      "æħ§": 7756,
      "è®Ńç»ĥ": 7757,
      "Ġhimself": 7758,
      "Ġmaintain": 7759,
      "èĪį": 7760,
      "Ġarch": 7761,
      "Ġcatch": 7762,
      "lu": 7763,
      "âĢį": 7764,
      "æŁĶ": 7765,
      "Ġdemon": 7766,
      "åĪ¤æĸŃ": 7767,
      "idden": 7768,
      "dev": 7769,
      "æķ°åŃ¦": 7770,
      "aining": 7771,
      "æ³¨åĨĮ": 7772,
      "Ġcool": 7773,
      "æĴĳ": 7774,
      "äºİæĺ¯": 7775,
      "è·Į": 7776,
      "ĠDet": 7777,
      "Ð¢": 7778,
      "Ġmother": 7779,
      "ĠÐºÐ¾ÑĤÐ¾ÑĢ": 7780,
      "ague": 7781,
      "á»ĥ": 7782,
      "Ġevalu": 7783,
      "ydro": 7784,
      "Ġnel": 7785,
      "Ġmorning": 7786,
      "Ġà®µ": 7787,
      "akan": 7788,
      "Date": 7789,
      "inen": 7790,
      "Ġcopy": 7791,
      "Ġthinking": 7792,
      "Ġrepl": 7793,
      "ĠKing": 7794,
      "å®ĩ": 7795,
      "Ġ);Ċ": 7796,
      "Ġki": 7797,
      "istry": 7798,
      "æ»´": 7799,
      "From": 7800,
      "inding": 7801,
      "comes": 7802,
      "Ø±Ø¯": 7803,
      "ä¾µ": 7804,
      "Ġdriv": 7805,
      "usiness": 7806,
      "ĠSee": 7807,
      "lor": 7808,
      "hal": 7809,
      "Result": 7810,
      "Ġlocated": 7811,
      "Ġbei": 7812,
      "çĥ¦": 7813,
      "zie": 7814,
      "Ġtom": 7815,
      "Ġlost": 7816,
      "Trans": 7817,
      "Ġsolid": 7818,
      "Ġnational": 7819,
      "Ġnature": 7820,
      "Message": 7821,
      "................": 7822,
      "Ġplayer": 7823,
      "azione": 7824,
      "à®¿à®²": 7825,
      "ÑģÐºÐ¸Ð¹": 7826,
      "Ġmanufact": 7827,
      "lient": 7828,
      "ĠPM": 7829,
      "aches": 7830,
      "section": 7831,
      "å¹³åĿĩ": 7832,
      "è¯¦ç»Ĩ": 7833,
      "Ġsave": 7834,
      "Ġmodels": 7835,
      "ĠBest": 7836,
      "Ġones": 7837,
      "Ġstd": 7838,
      "Ġplayers": 7839,
      "Ġskin": 7840,
      "Ġtown": 7841,
      "ĠNet": 7842,
      "ecause": 7843,
      "Ġgas": 7844,
      "ĠmÃ¡s": 7845,
      "rab": 7846,
      "Ġwat": 7847,
      "Ġeste": 7848,
      "Ġstock": 7849,
      "Ġregular": 7850,
      "ervices": 7851,
      "ç¢İ": 7852,
      "å¹³æĹ¶": 7853,
      "Ġpet": 7854,
      "ĠÐ¼Ð¾Ð¶": 7855,
      "çĵ¶": 7856,
      "çĳŀ": 7857,
      "çĭ¬ç«ĭ": 7858,
      "ä¾ĭå¦Ĥ": 7859,
      "ĠPress": 7860,
      "à°¦": 7861,
      "Inter": 7862,
      "ias": 7863,
      "ä¸ĭåĪĹ": 7864,
      "equ": 7865,
      "itz": 7866,
      "Map": 7867,
      "Ġslow": 7868,
      "Ġbooks": 7869,
      "ĠAre": 7870,
      "Table": 7871,
      "âĦ": 7872,
      "ography": 7873,
      "Ġorganiz": 7874,
      "ĠEnglish": 7875,
      "_N": 7876,
      "Ġdifference": 7877,
      "Ġspeed": 7878,
      "à¤ª": 7879,
      "ĠMich": 7880,
      "Ġsituation": 7881,
      "Ġtechni": 7882,
      "äº¿åħĥ": 7883,
      "ummies": 7884,
      "Ġability": 7885,
      "ä¸įå°ĳ": 7886,
      "ç»´æĬ¤": 7887,
      "Ġera": 7888,
      "Ġitself": 7889,
      "Ġviol": 7890,
      "Ġeffective": 7891,
      "å¯¸": 7892,
      "dis": 7893,
      "æľīæīĢ": 7894,
      "èĽĭçĻ½": 7895,
      "Ġpattern": 7896,
      "è§£æŀĲ": 7897,
      "çªģçĦ¶": 7898,
      "ono": 7899,
      "ĠDay": 7900,
      "Ġupdate": 7901,
      "Ġvir": 7902,
      "åıĮæĸ¹": 7903,
      "Ġincluded": 7904,
      "ĠFig": 7905,
      "oute": 7906,
      "æķĪçİĩ": 7907,
      "åĽ¢éĺŁ": 7908,
      "ĠUp": 7909,
      "ä¿Ĺ": 7910,
      "èº«ä»½": 7911,
      "ĠCounty": 7912,
      "uis": 7913,
      "çŃīçŃī": 7914,
      "inder": 7915,
      "query": 7916,
      "æĪ´": 7917,
      "ä»¥åīį": 7918,
      "åĽŀçŃĶ": 7919,
      "è¿ĲçĶ¨": 7920,
      "Ġamaz": 7921,
      "å£°éŁ³": 7922,
      "à·Ķ": 7923,
      "Ġdirectly": 7924,
      "Ġgro": 7925,
      "ĠOut": 7926,
      "æľ±": 7927,
      "Ã½ch": 7928,
      "soft": 7929,
      "éħįåĲĪ": 7930,
      "ĠÃ¼ber": 7931,
      "Ġadditional": 7932,
      "Ð½ÑĭÐ¼": 7933,
      "Ġcomfort": 7934,
      "\"]": 7935,
      "option": 7936,
      "ç¾İä¸½": 7937,
      "wood": 7938,
      "Ġlose": 7939,
      "imo": 7940,
      "osis": 7941,
      "Code": 7942,
      "aya": 7943,
      "ĠBen": 7944,
      "åĲįç§°": 7945,
      "Ġboard": 7946,
      "iler": 7947,
      "Ġsold": 7948,
      "è¿ħ": 7949,
      "abled": 7950,
      "ÑĥÑĩ": 7951,
      "Ġattention": 7952,
      "Î½Î¿": 7953,
      "}\\": 7954,
      "sa": 7955,
      "Ð²ÐµÑĢ": 7956,
      "æĺ¯ä¸įæĺ¯": 7957,
      "è¿Ķ": 7958,
      ".log": 7959,
      "duc": 7960,
      "iro": 7961,
      "Ð¾Ð²Ð°": 7962,
      "Ġfinancial": 7963,
      "åĪĨä¸º": 7964,
      "Ġuma": 7965,
      "Ġkids": 7966,
      "olo": 7967,
      "Ġsleep": 7968,
      "æīİ": 7969,
      "æ³½": 7970,
      "ĠGerm": 7971,
      "Ġgave": 7972,
      "olar": 7973,
      "Ġcomment": 7974,
      "Ġaltern": 7975,
      "æµ®": 7976,
      "áĢĦ": 7977,
      "true": 7978,
      "ipal": 7979,
      "à°ķ": 7980,
      "Ġfight": 7981,
      "ilities": 7982,
      "aged": 7983,
      "otal": 7984,
      "éº¦": 7985,
      "rid": 7986,
      "ova": 7987,
      "éĩįå¤§": 7988,
      "ĠHere": 7989,
      "éĤ®": 7990,
      "Ġstar": 7991,
      "ÑĥÐ±": 7992,
      "ìĭ": 7993,
      "åĪĨç±»": 7994,
      "erd": 7995,
      "ĠMal": 7996,
      "æĸ°éĹ»": 7997,
      "åľ¨äºİ": 7998,
      "cd": 7999,
      "çľĭçĿĢ": 8000,
      "æļĤ": 8001,
      "Ġroll": 8002,
      "ĠInternational": 8003,
      "ÑĭÑħ": 8004,
      "Ñļ": 8005,
      "ĠPort": 8006,
      "Ġpel": 8007,
      "Ġsecurity": 8008,
      "Ġchoice": 8009,
      "Ġsurpr": 8010,
      "çľ¼çĿĽ": 8011,
      "Param": 8012,
      "Ġvot": 8013,
      "aten": 8014,
      "Ġrele": 8015,
      "Ã¥r": 8016,
      "(this": 8017,
      "________": 8018,
      "unn": 8019,
      "Ġwritten": 8020,
      "ema": 8021,
      "race": 8022,
      "Ġappe": 8023,
      "áĥ£áĥ": 8024,
      "ä¼ļè®¡": 8025,
      "Ġuns": 8026,
      "anta": 8027,
      "Ġconcept": 8028,
      "Ġpun": 8029,
      "ç»ıåİĨ": 8030,
      "äºĭä»¶": 8031,
      "();ĊĊ": 8032,
      "Ġsav": 8033,
      "Ġadminist": 8034,
      "pty": 8035,
      "à¨¾": 8036,
      "object": 8037,
      "olf": 8038,
      "Æ°á»Ŀ": 8039,
      "ATE": 8040,
      "æĢĢåŃķ": 8041,
      "anz": 8042,
      "ande": 8043,
      "Ġcompletely": 8044,
      "Us": 8045,
      "æĻĵ": 8046,
      "actions": 8047,
      "Ġpositive": 8048,
      "Ġavoid": 8049,
      "Ġdecl": 8050,
      "ashing": 8051,
      "æ¬¢è¿İ": 8052,
      "Ġfeed": 8053,
      "Ġbank": 8054,
      "DA": 8055,
      "comment": 8056,
      "point": 8057,
      "Ġtur": 8058,
      ".app": 8059,
      "çħ¤": 8060,
      "ĠJuly": 8061,
      "illing": 8062,
      "Ġtowards": 8063,
      "Ġconcent": 8064,
      "å¤ªéĺ³": 8065,
      "å·¥èīº": 8066,
      "Ð°Ð½Ð°": 8067,
      "ĠÎŃ": 8068,
      "Array": 8069,
      "çĻĮ": 8070,
      "æĪĲåĳĺ": 8071,
      "hand": 8072,
      "ãĥ": 8073,
      "TH": 8074,
      "§×": 8075,
      "åīĳ": 8076,
      "ç»Łè®¡": 8077,
      "Ġreported": 8078,
      "Ġ+=": 8079,
      "æģĲ": 8080,
      "alle": 8081,
      "ĠĠĠĠĠĠĠĠĠĠĠĠ": 8082,
      "inate": 8083,
      "é¸Ł": 8084,
      "ĠÏĦÎ·ÏĤ": 8085,
      "éĥĳ": 8086,
      "ĠCenter": 8087,
      "Ġmount": 8088,
      "ĠAmerica": 8089,
      "èµĦæľ¬": 8090,
      "Ġserious": 8091,
      "ĠÎ½Î±": 8092,
      "ael": 8093,
      "ĠVol": 8094,
      "ĠÐ²ÑĸÐ´": 8095,
      "åĩŃ": 8096,
      "Ġplaying": 8097,
      "ĠCour": 8098,
      "ĠPal": 8099,
      "Ġà®ħ": 8100,
      "è¿Ļæ¬¡": 8101,
      "Fig": 8102,
      "Ġdesigned": 8103,
      "æĻļä¸Ĭ": 8104,
      "pan": 8105,
      "ijn": 8106,
      "ÑģÑĤÐ²ÐµÐ½": 8107,
      "Ġbrand": 8108,
      ",čĊ": 8109,
      "Ġupd": 8110,
      "è¿ĺè¦ģ": 8111,
      "ĠÚ©Ùĩ": 8112,
      "å°ĺ": 8113,
      "Ġju": 8114,
      "uto": 8115,
      "é½¿": 8116,
      "SP": 8117,
      "ander": 8118,
      "à·ĥ": 8119,
      "çĪ¸çĪ¸": 8120,
      "Ġdeb": 8121,
      "äºķ": 8122,
      "lication": 8123,
      "gest": 8124,
      "Ø§Ø²": 8125,
      "ç§°ä¸º": 8126,
      "ÐºÑĸ": 8127,
      "è¾£": 8128,
      "Ġconnect": 8129,
      "Ġeasily": 8130,
      "}čĊ": 8131,
      "æ¯įäº²": 8132,
      "raz": 8133,
      "èħ°": 8134,
      "ä¼į": 8135,
      "ÙħØ§": 8136,
      "hem": 8137,
      "-F": 8138,
      "erve": 8139,
      "Ġauto": 8140,
      "à±ĩ": 8141,
      "Ġcurrently": 8142,
      "Ð²Ðµ": 8143,
      "ĠClass": 8144,
      "Ġplatform": 8145,
      "Ġstudent": 8146,
      "Ġassert": 8147,
      "å¨ĺ": 8148,
      "ĠNovember": 8149,
      "åĢ¾": 8150,
      "à¶¸": 8151,
      "èĳ£": 8152,
      "Ġactivities": 8153,
      ".</": 8154,
      "å©Ĩ": 8155,
      "á»±": 8156,
      "Ġot": 8157,
      "à®ª": 8158,
      "Ġ\"\"": 8159,
      "Ġdecision": 8160,
      "_B": 8161,
      "è¿ª": 8162,
      "ancy": 8163,
      "à®¿à®¯": 8164,
      "Hand": 8165,
      "Ġik": 8166,
      "ä¸ĸçºª": 8167,
      "Ð±Ð¾ÑĤ": 8168,
      "å¥³äºº": 8169,
      "ìļ": 8170,
      "initely": 8171,
      "é¥®é£Ł": 8172,
      "Ġhear": 8173,
      "Ð»Ñİ": 8174,
      "æĲľ": 8175,
      "array": 8176,
      "Ľi": 8177,
      "Ġthemselves": 8178,
      "æ§½": 8179,
      "ÑģÐ°": 8180,
      "åĵªéĩĮ": 8181,
      "Ġcontinu": 8182,
      "à¯ĩ": 8183,
      "Ġprem": 8184,
      "ously": 8185,
      "åĨĴ": 8186,
      "ellent": 8187,
      "å¤§å¤ļ": 8188,
      "uns": 8189,
      "width": 8190,
      "Ġbecame": 8191,
      "ĠOF": 8192,
      "èĤ¾": 8193,
      "Ġtemperature": 8194,
      "ln": 8195,
      "Ġgar": 8196,
      "âĢĿ,": 8197,
      "è¿ģ": 8198,
      "äººçī©": 8199,
      "unction": 8200,
      "ĠAustral": 8201,
      "iti": 8202,
      "Ġrock": 8203,
      "ĠInc": 8204,
      "æĮº": 8205,
      "çĽ¸åĲĮ": 8206,
      "Ġrow": 8207,
      "Ġak": 8208,
      "áŀ¶áŀ": 8209,
      "Ġgold": 8210,
      "ä¸Ģæ®µ": 8211,
      "rought": 8212,
      "Ġcouldn": 8213,
      "Ġdrink": 8214,
      "Ġassess": 8215,
      "Reg": 8216,
      "ìľ": 8217,
      "çĽ¸åºĶ": 8218,
      "package": 8219,
      "Ġinj": 8220,
      "ĠMor": 8221,
      "Ġclick": 8222,
      "ä»ģ": 8223,
      "izes": 8224,
      "áĥķ": 8225,
      "ĠSub": 8226,
      "After": 8227,
      "Ġhop": 8228,
      "á»¥": 8229,
      "èĥĨ": 8230,
      "Ġult": 8231,
      "Ġdetail": 8232,
      "center": 8233,
      "ronic": 8234,
      "ĠSal": 8235,
      "ĠTest": 8236,
      "TO": 8237,
      "æĿĥåĪ©": 8238,
      "sec": 8239,
      "','": 8240,
      "éĩįæĸ°": 8241,
      "Ġwerden": 8242,
      "æĳĺ": 8243,
      "Ġfinally": 8244,
      "Ġmachine": 8245,
      "Ġmess": 8246,
      "ÛĮØ¯": 8247,
      "ĵ×": 8248,
      "Ġunivers": 8249,
      "ĠZe": 8250,
      "ÑĭÐµ": 8251,
      "å²©": 8252,
      "char": 8253,
      "Ġlov": 8254,
      "Ġdisease": 8255,
      "Ġskills": 8256,
      "ĠFree": 8257,
      "oon": 8258,
      "åįıè®®": 8259,
      "asy": 8260,
      "agen": 8261,
      "asons": 8262,
      "Ġincreased": 8263,
      "å®¿": 8264,
      "aries": 8265,
      "Ġgoes": 8266,
      "ÑĢÐ°Ð·": 8267,
      "çĦ¶èĢĮ": 8268,
      "Ġenter": 8269,
      "åĬ¨åĬĽ": 8270,
      "Ġsafe": 8271,
      "itory": 8272,
      "åŃ¦ä¼ļ": 8273,
      "å°Ŀ": 8274,
      "éª¤": 8275,
      "hn": 8276,
      "Ġsel": 8277,
      "engan": 8278,
      "post": 8279,
      "Ġreach": 8280,
      "ë¦": 8281,
      "-D": 8282,
      "ĠĠĠĠĠĠĠĠĠĠ": 8283,
      "event": 8284,
      "PP": 8285,
      "Ġrecommend": 8286,
      ".r": 8287,
      "Act": 8288,
      "Ġled": 8289,
      "æ¸ħæ¥ļ": 8290,
      "enge": 8291,
      "Ġmel": 8292,
      "Ġ{ĊĊ": 8293,
      "Ġactive": 8294,
      "ä¸Ģå®¶": 8295,
      "ĠLet": 8296,
      "ĠÎºÎ±": 8297,
      "æķĮ": 8298,
      "ä¸Ĭè¿°": 8299,
      "èħº": 8300,
      "tn": 8301,
      "ĠKe": 8302,
      "á»ĩ": 8303,
      "åĺī": 8304,
      "å½ĵåľ°": 8305,
      "à¶ļ": 8306,
      "Ser": 8307,
      "aux": 8308,
      "Ġproced": 8309,
      "è·¨": 8310,
      "é¢ľèī²": 8311,
      "è±ª": 8312,
      "lements": 8313,
      "ĠMod": 8314,
      "Ġbur": 8315,
      "èģĬ": 8316,
      "math": 8317,
      "block": 8318,
      "anda": 8319,
      "ÚĨ": 8320,
      "ä½ĵçİ°": 8321,
      "nya": 8322,
      "èµĶ": 8323,
      "éĹ²": 8324,
      "Ġstuff": 8325,
      "itable": 8326,
      "ĠFil": 8327,
      "Ð¼Ñĥ": 8328,
      "Ġgreen": 8329,
      "ĠÑģÐ²Ð¾": 8330,
      "sen": 8331,
      ".J": 8332,
      "åħ´è¶£": 8333,
      "Ġcustomers": 8334,
      "Ġenhance": 8335,
      "Ġze": 8336,
      "Ġemp": 8337,
      "éĩĳå±ŀ": 8338,
      "Ġunt": 8339,
      "ĠÐķ": 8340,
      "open": 8341,
      "Ġà®¤": 8342,
      "adas": 8343,
      "åģ¶": 8344,
      "æĶ¹åĸĦ": 8345,
      "å¼ĢæĶ¾": 8346,
      "rica": 8347,
      "æ°§åĮĸ": 8348,
      "ĠBook": 8349,
      "ares": 8350,
      "ustr": 8351,
      "Att": 8352,
      "version": 8353,
      "å²¸": 8354,
      "Ġdou": 8355,
      "ĠDi": 8356,
      "Ġround": 8357,
      "haps": 8358,
      "å¯¿": 8359,
      "å±ħæ°ĳ": 8360,
      "Ġforce": 8361,
      "yles": 8362,
      "bu": 8363,
      "EX": 8364,
      "ĠÑī": 8365,
      "æī¿æĭħ": 8366,
      "á»Ļt": 8367,
      "Ġsig": 8368,
      "æİ¥è§¦": 8369,
      "æģĴ": 8370,
      "ØªØ±": 8371,
      "åĲĮæł·": 8372,
      "Ġclin": 8373,
      "Ġcompared": 8374,
      "Ġparents": 8375,
      "ropri": 8376,
      "é¬": 8377,
      "Ġkl": 8378,
      "Ġphysical": 8379,
      "ÑĭÐ¹": 8380,
      "ä¼¯": 8381,
      "Ġdar": 8382,
      "ĠSl": 8383,
      "ä»¿": 8384,
      "Ġlives": 8385,
      "å¥³æĢ§": 8386,
      "Ġopportunity": 8387,
      "æĿ¥åĪ°": 8388,
      "ĠMat": 8389,
      "Ġ)Ċ": 8390,
      "Ġtried": 8391,
      "Ġattempt": 8392,
      "UE": 8393,
      "iring": 8394,
      "ÏĢÏĮ": 8395,
      "Ġsomet": 8396,
      "æ®ĸ": 8397,
      "Ġactual": 8398,
      "Ġgets": 8399,
      "ĠÃ©t": 8400,
      "ede": 8401,
      "Ä±l": 8402,
      "requ": 8403,
      "ĠJanuary": 8404,
      "å¹´è½»": 8405,
      "ĠGeneral": 8406,
      "stant": 8407,
      "itu": 8408,
      "ÐµÑĢÐ¸": 8409,
      "Am": 8410,
      "å¢¨": 8411,
      "å°ıç¼ĸ": 8412,
      "idget": 8413,
      "Ġchance": 8414,
      "äºĭå®ŀ": 8415,
      "Â»,": 8416,
      "ĠHouse": 8417,
      "Ġfair": 8418,
      "æ¡Į": 8419,
      "Ġensure": 8420,
      "-size": 8421,
      "Ġded": 8422,
      "åĽ¾çīĩ": 8423,
      "Equ": 8424,
      "ÏĦÎ¹Îº": 8425,
      "Ġtut": 8426,
      "loat": 8427,
      "è¡¥åħħ": 8428,
      "Ġperm": 8429,
      "ĠĠĠĠĠĠĠĠĠĠĠĠĠĠĠĠĠĠĠĠĠĠĠĠĠĠĠĠĠĠĠĠĠĠĠ": 8430,
      "çĬ¶åĨµ": 8431,
      "Ġko": 8432,
      "Ġlib": 8433,
      "Ġtransfer": 8434,
      "è¢ĭ": 8435,
      "æ¶Īæģ¯": 8436,
      "ĠMag": 8437,
      "å¿ĥéĩĮ": 8438,
      "Ġpolicy": 8439,
      "ees": 8440,
      "Ġserver": 8441,
      "ĠPaul": 8442,
      "Ġ});Ċ": 8443,
      "Ġmid": 8444,
      "Ġwide": 8445,
      "Ġarm": 8446,
      "Ġrecently": 8447,
      "ivil": 8448,
      "Ġrat": 8449,
      "å¿½": 8450,
      "usion": 8451,
      "å¼ķå¯¼": 8452,
      "ë¥¼": 8453,
      "ĠBel": 8454,
      "Ġrelig": 8455,
      "Ġdirection": 8456,
      "Ġvirt": 8457,
      "font": 8458,
      "ç½²": 8459,
      "ç¥ŀç»ı": 8460,
      "ĠLi": 8461,
      "æĿ°": 8462,
      "ä»ĵ": 8463,
      "Ġà¤ħ": 8464,
      "was": 8465,
      "æĭĨ": 8466,
      "à¯ģà®ķ": 8467,
      "Pr": 8468,
      "jen": 8469,
      "æ¼ı": 8470,
      "è¾ĵåħ¥": 8471,
      "àµįà´ķ": 8472,
      "\\n": 8473,
      "ums": 8474,
      "éĿĴå¹´": 8475,
      "Ġthroughout": 8476,
      "zn": 8477,
      "Sub": 8478,
      "Ġevidence": 8479,
      "Ġà¤¬": 8480,
      "ship": 8481,
      "ĠSupp": 8482,
      "Ġsites": 8483,
      "æŃ£å¼ı": 8484,
      "ä¸ĭè½½": 8485,
      "ĠDan": 8486,
      "ç»¿èī²": 8487,
      "enty": 8488,
      "ĠDen": 8489,
      "æĿ¥çľĭ": 8490,
      "Ġ(!": 8491,
      "Ġ/**Ċ": 8492,
      "è½¨": 8493,
      "ÏĦÎ¹": 8494,
      "(x": 8495,
      "Ġregul": 8496,
      "has": 8497,
      "Ġlimit": 8498,
      "Ġtit": 8499,
      "ä¸įäºĨ": 8500,
      "Ġsaying": 8501,
      "ĠÛĮ": 8502,
      "Manager": 8503,
      "fol": 8504,
      "Ġbul": 8505,
      "æĢİä¹ĪåĬŀ": 8506,
      "ialog": 8507,
      "BD": 8508,
      "Ġà¤¨": 8509,
      ".pro": 8510,
      "ä¾Ŀæį®": 8511,
      "ç¾İå¥½": 8512,
      "èģĶç½ĳ": 8513,
      "ç±į": 8514,
      "rote": 8515,
      "Ġhistor": 8516,
      "Î¾": 8517,
      "thern": 8518,
      "amin": 8519,
      "Ġprotect": 8520,
      "rive": 8521,
      "åıĬåħ¶": 8522,
      "Ġannoun": 8523,
      "è®¡ç®Ĺæľº": 8524,
      "Ġrelease": 8525,
      "ÑģÑĤÐ°Ð½": 8526,
      "ĠFirst": 8527,
      "çĵľ": 8528,
      "Ø±ÙĬ": 8529,
      "ç¾İåħĥ": 8530,
      "ìĬ": 8531,
      "Ġmaybe": 8532,
      "stall": 8533,
      "Ã©es": 8534,
      "ĠHist": 8535,
      "åĲĦé¡¹": 8536,
      "ä¿Ħ": 8537,
      "à«į": 8538,
      "ading": 8539,
      "-up": 8540,
      "éļĨ": 8541,
      "abs": 8542,
      "Î¿Ïį": 8543,
      "db": 8544,
      "æĭĶ": 8545,
      "éĶĭ": 8546,
      "Ġprot": 8547,
      "åıĺæĪĲ": 8548,
      "#define": 8549,
      "ifier": 8550,
      "-L": 8551,
      "ech": 8552,
      "esch": 8553,
      "ä¸´åºĬ": 8554,
      "çĺ¤": 8555,
      "Response": 8556,
      "éĹª": 8557,
      "à«įàª": 8558,
      "Image": 8559,
      "ĠØ§ÙĦØ¹": 8560,
      "RA": 8561,
      "Ġwindow": 8562,
      "è´¢åĬ¡": 8563,
      "di": 8564,
      "raf": 8565,
      "è®ºæĸĩ": 8566,
      "osa": 8567,
      "Ġsind": 8568,
      "OW": 8569,
      "Ġtransport": 8570,
      "CP": 8571,
      "çİ°å®ŀ": 8572,
      "ĠLondon": 8573,
      "æĬ¢": 8574,
      "æĮĩæłĩ": 8575,
      "ocol": 8576,
      "æĹ¦": 8577,
      "ependent": 8578,
      "ĠÐ±Ñĥ": 8579,
      "èķ": 8580,
      "ÃŃn": 8581,
      "Ġkt": 8582,
      "Ġreceive": 8583,
      "æĺĮ": 8584,
      "Ġvoice": 8585,
      "åĪ©çĽĬ": 8586,
      "sz": 8587,
      ".x": 8588,
      "ç«¹": 8589,
      "Ġdead": 8590,
      "Ġclub": 8591,
      "ords": 8592,
      "Ġcompar": 8593,
      "AME": 8594,
      "encies": 8595,
      ".H": 8596,
      "Ġinsp": 8597,
      "Ġcollection": 8598,
      "iled": 8599,
      "ÙĪÙħ": 8600,
      "èģĮå·¥": 8601,
      "å¤ļå¹´": 8602,
      "éĢĤçĶ¨": 8603,
      "ÛĮØ±": 8604,
      "à¸²à¸£": 8605,
      "ëı": 8606,
      "ĠÚ¯": 8607,
      "rm": 8608,
      "åĪĨåŃĲ": 8609,
      "Īëĭ¤": 8610,
      "=\"#": 8611,
      ".N": 8612,
      "Ġadult": 8613,
      "ÑĩÐµÐ½": 8614,
      "Ġessential": 8615,
      "bal": 8616,
      "éĻ·": 8617,
      "Ġinternational": 8618,
      "æĻ¨": 8619,
      "request": 8620,
      "è¦Ĩ": 8621,
      "Ġinteresting": 8622,
      "ÅĽci": 8623,
      "ÑĢÑı": 8624,
      "à¤µ": 8625,
      "Ùĭ": 8626,
      "ĠWhile": 8627,
      "ĠSet": 8628,
      "ÎµÎ¯": 8629,
      "Ġinvolved": 8630,
      "éģµ": 8631,
      "Ø§Ø¦": 8632,
      "Ġtransform": 8633,
      "Ġmaterials": 8634,
      "éĻĦè¿ĳ": 8635,
      "ä¸ĬéĿ¢": 8636,
[...]
