#version: 0.2
Ġ Ġ
Ġ t
i n
Ġ a
e r
o n
r e
a t
e n
Ġ s
o r
Ġ c
e s
a n
i t
Ġ p
i s
a l
h e
a r
Ġ w
Ġ d
Ġ f
l e
o u
Ġ o
Ġ b
e d
ĠĠ Ġ
ĠĠĠ Ġ
in g
Ġ m
i c
s t
a s
Ġt h
Ġth e
e l
r o
e t
en t
Ġt o
Ġo f
Ġ h
Ġ n
Ġ l
c t
o m
n d
i l
i d
a m
i m
Ċ Ċ
Ġ e
a d
Ġ g
o l
u r
u t
Ġ S
o t
â Ģ
i g
Ġ (
Ġ =
c h
Ġ T
Ġ I
s e
Ġd e
Ġ v
Ġ A
o w
Ġ y
c e
Ġa n
Ġan d
Ġ C
i f
u l
u s
a y
u n
e m
o d
Ġs t
l y
Ġb e
Ġo n
q u
i v
a g
i r
- -
a b
t h
; Ċ
at e
ĉ ĉ
Ġ M
a c
u m
it h
Ġ P
o s
is t
Ġ "
es t
Ġa l
Ġ {
er s
v e
ve r
p e
Ġ B
Ġa s
or t
Ġw h
es s
a p
an d
Ġ D
re s
Ġ r
Ġr e
ou r
/ /
en d
Ġ F
Ġ L
Ġs e
o p
Ġ *
Ġ R
Ġo r
am e
r a
r i
u e
il l
Ġh e
* *
o c
ou t
Ġ E
Ġ H
ro m
Ġ }
Ġe x
Ġ u
an t
Ġ W
n t
as s
a v
u b
or e
Ġ $
p t
Ġ N
ar t
h t
l d
Ġ G
k e
ag e
it y
e x
Ġa t
Ġ '
âĢ Ļ
p l
Ġw e
Ġ k
i z
Ġe n
Ġ <
t r
in e
Ġl e
in t
i e
ie s
o g
Ġc h
t e
te r
Ġu n
č Ċ
Ġ j
al l
Ġb y
iv e
ur e
( )
Ġn e
ur n
Ġ O
u p
u d
Ġ{ Ċ
) Ċ
a k
in d
Ġs h
er e
ul t
ac k
à ¤
os t
, Ċ
g e
Ġ -
Ġt r
ar d
or m
us t
el l
i p
il e
Ġu s
Ã ©
he r
i a
ia l
f f
c l
ro u
an s
d e
c k
i b
. .
as t
pe r
ac t
Ġ U
id e
ar e
an g
ic h
ge t
ĠĠĠ ĠĠ
om e
Ġ J
as e
e w
at a
Ġp l
Ġs u
ic e
Ġa b
Ġr es
Ġ i
Ġi n
Ġi s
Ġi t
Ġi f
im e
l o
Ġd o
at h
ir e
Ġe l
el f
Ġ \
= "
Ġal l
c c
or d
= =
Ġl a
) .
ac e
Ġp r
Ġpr o
Ġm e
on e
Ġ |
ate d
Ġi m
o k
Ġc l
on g
# #
it e
ig n
ac h
Ġne w
Ġ V
Ġi nt
> Ċ
ĠT h
ĠTh e
( "
ou s
;Ċ Ċ
ar y
n e
Ġh a
en s
Ġa d
er t
âĢ Ŀ
Ġs o
Ġ [
o b
ĠI n
) ,
- >
re d
Ġ K
Ġu p
od e
Ġa r
Ġar e
l l
g h
Ġ &
s o
Ġha s
p p
Ġ +
" ,
av e
Ġwh ich
á ĥ
d u
ak e
Ġg o
e p
ex t
I n
res s
on t
or y
ï ¼
pl e
Ġon e
p h
iz e
ro w
o v
Ġde s
ie w
x t
p r
r y
' ,
il d
f t
Ã ³
ent s
er v
all y
t o
( '
< /
Ġt e
os e
Ġn o
Ġno t
Ġ :
: :
re e
Ġm y
le s
Ġa m
st r
Ġpr e
' s
ĠS t
ve l
ow n
or s
Ġs a
ig h
igh t
e g
Ġs p
Ġ Y
ul l
Ġ} Ċ
pr o
el y
ing s
de r
w e
Ġr o
Ġ /
Ġ/ /
is h
Ġan y
_ _
à ¦
in k
et h
Ġwh o
Ġha d
or k
Ġse t
ve ry
r u
S t
Ġde f
) ;
); Ċ
Ġst r
Ġa g
e f
Ġ @
Ã Ń
Ġl i
ay s
Ġl o
ĠC h
ic k
ate r
ar k
Ġwh e
Ġwhe n
ap p
i o
io n
ct ion
er r
; čĊ
Ġe m
i x
ol d
Ġde l
Ġhe r
Ġth em
s s
Ġf e
l i
li c
e c
ec t
à ¥
u g
n g
E R
Ġ .
ĠI t
) )
y s
ys t
. s
Ġb o
ov e
Ġp e
Ġpe r
: Ċ
ri t
Ġs c
âĢ ľ
ang e
Ġint o
ate s
ic t
is s
a x
Ġus e
Ġof f
Ġ #
Ġad d
. Ċ
.Ċ Ċ
{ Ċ
Ã ¡
ia n
ad e
ĉĉ ĉ
ĉĉĉ ĉ
Ġo b
k s
à ¸
Ġ _
Ġe s
} Ċ
en g
à °
Ġwh at
Ġ z
is e
oc k
p s
le d
I N
en c
enc e
Ġ= >
g r
se t
Ġbe t
qu e
ar g
Ġas s
al s
Ġse r
Ġ= =
at ch
i k
pe c
pec t
a w
Ġa p
Ġap p
an c
anc e
b o
re f
cl ud
_ t
m a
Ġon ly
Ġc o
Ġco n
Ġco m
Ġco nt
Ġco l
Ġ}Ċ Ċ
er y
d d
O N
rou nd
Ġes t
Ġr ec
ie d
{ \
Ġr eg
Ġen t
Ġen d
. c
ic s
to n
se r
Ġ* /
er n
Ġg r
Ġsh e
Ġe v
T h
Th e
Ġb u
Ġbu t
Ġr el
Ġb l
rou gh
it s
ad d
Ġp h
th e
the r
Ġsu b
m s
ie r
s h
our ce
R e
Ġth en
ĠR e
a u
Ġo p
_ {
als e
on s
' ]
ĠU n
ue s
Ã ł
" >
de f
w o
. p
Ġr em
ĠH e
à ´
Ġi nd
à ²
ce s
ces s
Ġk n
Ġkn ow
[ '
Ġ< /
ĠW e
re n
Ġres ult
Ġ x
. "
er m
ure s
r r
S T
Ġwhe re
Ã ¨
R E
I d
o f
Ġ à
Ġà ¤
); ĊĊ
as h
if f
E x
A T
in s
}Ċ Ċ
age s
Ġf l
t y
ri b
Ġe t
an n
Ġd i
Ġdi s
Ġa c
Ġac c
Ġac t
w n
ice s
s p
ve n
ven t
un d
Ġ !
Ġsu p
Ġuse d
Ġat t
à ®
ut e
)Ċ Ċ
Ġse e
on d
le t
n c
Ã ¤
.. .
Ġs m
rou p
ase d
od y
lo w
ar i
ri c
it t
Ġk e
" :
ame s
ne r
u c
uc h
Ġlo c
am p
o y
Ġex t
a h
ro p
an k
Ġsu r
ie l
iel d
he d
if e
c o
co n
co m
co nt
us e
Ġpr ov
O R
al e
âĢ ¦
ro l
âĢ ĵ
Ġi d
il y
_ p
A R
L E
te n
t a
I D
ar s
ĠĠĠĠĠ Ġ
ĠĠĠĠĠĠ ĠĠ
ĠĠĠĠĠĠ Ġ
ĠĠĠĠĠĠ ĠĠĠ
e k
Ġdo n
a z
Ġ >
uc t
Ġno w
_ s
Ġle t
âĢĻ s
so n
Ġco r
ire ct
Ġbe c
m l
' )
" Ċ
Ġ Ċ
ke y
f o
b e
be r
ne w
ot h
( $
an y
ĠI f
ime s
Ġ ×
ine s
Ġus ing
ĠA l
ens e
ol l
Ġe d
t s
Ġi ts
at s
Ġ Ã
co nd
Ġwh ile
Ã ¼
ĠA n
à ª
Ġdi st
Ġ Q
E N
ode l
Ġdi d
Ġsp e
Ġspe c
" )
, "
_ c
Ġa v
ce d
Ġb r
lo g
Ġbe l
Ġso l
Ġ )
ar n
s c
Ġtr a
ant s
el s
Ġg u
Ġde c
) :
Ġhe l
Ġhel p
' t
m e
me r
ite d
+ +
f r
Ġpre s
A L
as k
c i
ĠA r
ize d
Ġde t
et s
Ġme d
ine d
a j
ch e
ĠS e
ra w
. m
C h
y m
Ġim p
âĢ Ķ
S E
e y
Ġth ey
ĠAn d
Ġr ef
I T
Ã §
Ġ*/ Ċ
ĠW h
", Ċ
ad a
Ġso m
Ġsom e
_ m
() Ċ
rol l
Re s
ot e
Ġte m
Ġch e
Ġher e
ma n
ĠA s
Ġle s
ul e
ide r
', Ċ
use r
y p
yp e
b r
. t
] .
ol e
Ġstr ing
ous e
T o
); čĊ
} \
oc i
t t
are d
ge r
ist s
Ġ %
A N
ut h
us h
ate g
á »
ive s
Ġex p
Ġexp er
Ġ ?
_ f
ĠE x
if y
Ġ- -
ĠD e
ĠS h
au s
aus e
Ġbec ause
amp le
. C
us s
Ġtr y
he n
Ġr ep
ĥ ½
ove r
Ġs k
.. /
Ġd r
Ġf r
ch n
Ġr a
Ġ X
is m
} }
Ġ ,
Ġp o
Ġpo s
Ġpo l
w w
o o
oo d
oo l
oo k
ra ct
b s
erv ice
or n
. S
ud e
am b
Ġun d
W e
] ,
y n
er g
ĠT r
Ã ¶
clud e
ch o
co l
Ġc r
Ġcr e
les s
Ġpo ss
. f
Ġ Z
ar r
Ġ `
ines s
ar m
Ġ Â
pr e
fo r
for m
for e
Ġme m
() .
> <
in a
ina l
i Ã³
w h
un t
I t
ve d
Ċ ĠĠĠĠĠĠĠ
Ġdi sc
un g
al k
. l
Ġme t
Ġke y
à §
el d
Ġar t
Ġg l
Ġr et
Ġs l
_ d
ic a
ica l
Ġpo st
C T
ve s
à¤ ¾
at t
Ġser v
c a
ro n
te m
Ġuse r
re g
Ġto o
Ġa w
Ġ& &
Ġsa y
ive r
iver s
} ,
os s
lo c
cho ol
Ġv a
Ġva l
Ġva r
"> Ċ
ase s
ite m
he s
au t
io r
t d
Ċ ĠĠĠĠĠĠĠĠ
Ġlo g
. A
. h
Ġ| |
are nt
Ġ! =
ire d
ou n
oun t
oun d
' :
b y
ical ly
ie n
ien t
end s
ot s
o h
op y
Ċ ĠĠĠ
t p
Ġto p
ad o
Ġun a
ade r
. ,
ur l
le r
D E
Ġar g
ĠTh ey
enc y
b l
bl e
In t
et a
av a
ake s
R O
] Ċ
Ġexp l
čĊ čĊ
er a
_ l
Ġde r
i j
B y
ot t
Ä ±
_ b
Ġdes ign
S S
Ġpr of
. T
ĠP l
Ġres t
ra y
= '
T r
f l
rr ay
re m
Ġva ri
. d
I C
age r
r c
. _
Õ ¡
E T
Ġpo p
ru ct
ren t
ra m
an e
ur s
Ã© s
ĠC l
oo t
ĠIn d
. b
gh t
Ġ* *
ien ce
Ġ/ //
m p
Ġco mp
ĠI s
arg e
arge t
Ġid e
loc k
et y
I m
. D
( f
Ġexp ect
e e
Ġme n
or g
_ C
Ġdi f
Ġdif f
Ġdiff ere
ĠRe s
Ġe r
U L
ht ml
rr or
ĠL e
Ġcont in
ĠT o
E S
Ġ Î
Ġfe w
** Ċ
E n
E D
à ±
Ġor g
H e
A M
Ġs w
à µ
in c
inc e
A s
ĠS o
act er
Ġv e
Ġve ry
Ġve r
Ġer r
Ġi ss
ive d
ĠO n
ca l
Ġno n
[ "
ik e
ï¼ Į
( \
a i
ai n
ai l
ai r
ai t
Ġgo ing
ra p
rap h
ap e
Ġt w
Ġtw o
( Ċ
ĠÃ ©
Ġles s
A l
Ġco me
S e
ra l
en e
ene r
tt p
Ġà ¦
/ *
): Ċ
n ce
[ i
It em
d a
da y
() ;
(); Ċ
l a
Ġad v
Ġs y
Ġbet ter
ĠA d
Ã ²
Ġorg an
Ġche ck
g g
rit e
ĉĉĉ ĉĉ
ph p
Ġrec e
A n
um p
Ġ{ čĊ
itt le
à ¯
( (
ĠIn t
Ġbe h
W h
Ġop t
ction s
it ch
× Ļ
Ġdi e
ĠAl l
Ġde v
. F
Ã º
Ġbu s
f e
fe r
U T
ĠE n
Ġto t
= {
Ġc a
Ġca n
Ġca ll
Ġca se
Ġca r
Ġca p
Ġca l
Ġca re
In d
Ġ< <
¦ ģ
o x
e b
Ġam b
ence s
ach e
I S
ĠF r
es e
Î ±
Ġbe g
me d
Ġpo t
2 0
ide s
pl y
Ġ_ _
ource s
er c
ĠP h
Ġpr om
ĠE l
I f
ard s
and s
n o
no t
no w
Ġcl e
h o
A C
ap t
our s
Ġen g
Ġbus iness
Â ł
ĠO r
a f
ap h
Ġde p
Ġle g
ive n
. j
id d
s w
Ġpr ot
anc es
ome n
ace s
if t
e v
ur o
Ġas k
ort h
U R
Ġbr e
Ġbre ak
uc k
r m
n a
ang u
res ult
:Ċ Ċ
ap s
} {
ĠP r
ĠPr o
U n
Ġen c
Ã ¥
Ġi nc
Ġsee m
Ġv o
Ġvo l
z e
à¥ ĩ
ite r
Ġch o
Õ¡ Õ
Ġla w
ĠU S
A S
" ]
× ķ
li ck
ir d
Ġsur e
O n
Ġlo s
Ġide nt
ĠEn g
. P
Ġsup er
un e
Se t
à¤ °
le g
Ġbr o
` `
Ġte r
Ġter m
>< /
ĠN o
_ P
_ S
g o
ĠÃ ł
_ n
ĠSh e
A t
") Ċ
ĠB e
( s
ĠS p
an a
of f
Ġbe n
ĠA t
io d
à ³
Î ¿
^ {
Ġm a
Ġma n
Ġma y
Ġman y
Ġma t
Ġma r
Ġmar k
ĠĠĠ ĠĊ
Ġex am
Ġexam ple
u f
uf f
u x
Ï Ħ
out h
her e
Ġde m
Ġ Õ
C l
ir c
op e
ai nt
u i
p i
ade s
ent ly
Ġel e
() ,
def ine
Ġva n
Ġele ct
( t
p x
ĠL a
ur y
ĠB l
id s
bo x
ï¼ Ł
O T
one y
Ã £
re t
ret urn
m y
A D
un c
H E
_{ \
UL L
ĠT e
Ġresult s
)) Ċ
Ġfr e
Ġfre e
_ T
Ġma x
er o
. âĢĿ
ĠS c
" "
Ġli m
Ġsu m
Ġdes c
} )
' Ċ
let e
Ġlo w
ill s
ape r
Ġap pe
Ġ$ \
q l
- s
Ġde n
ien ts
S h
á º
co me
IN G
áĥ Ĳ
Ġtr e
Ġ+ =
ĠI m
one s
Ġgo t
Ġex ist
âĢĻ t
] [
á Ģ
Ġf a
Ġfa m
Ġfa r
Ġ/ *
à¥ į
Ġprov ide
ide o
L O
ï¼ ģ
le x
.s t
u k
Ġdon e
ac y
ule s
Ġd a
Ġda y
Ġda t
Ġdat a
Ġday s
Ġne t
ute s
. W
Ġan t
Ġact iv
Ġwh y
op t
am s
## #
### #
Ġprov id
Ġtre at
ar c
arc h
de n
Ġ* Ċ
row s
Ind ex
res t
. L
ise d
Ġd u
0 0
Ġlo t
Î ¹
en n
s ource
ĠTh ese
Ġ- >
I M
br e
oh n
. g
ict ion
Ġfa c
Ġfac t
ai m
ore d
. n
B o
es c
wh ere
D e
ere d
ĉ f
Ġknow n
ĠWh at
Ġli k
Ġlik e
um e
che d
yn c
ic ro
I L
ĊĠĠĠĠĠĠĠĠ ĠĠĠ
), Ċ
Ġr ed
Ġred u
ĠB y
ĠM e
Ġdiff er
Ġdiffer ent
A B
e q
eq u
ph a
( m
ree n
Ġw r
Ġwr it
ir t
Ġsay s
tr y
Ġst d
Ġes s
ui t
he ck
An d
ale s
I G
ip s
A r
... .
Ġbec ome
], Ċ
Ġ( !
Ġpr ob
ï¼ ī
ur ch
_ M
ri pt
O r
ure d
ho r
_s t
" .
le y
P E
al t
alt h
in o
Ġse x
um n
../ ../
te s
tes t
p y
Ġco nc
- b
) čĊ
ĠG r
Ġpo r
. M
Ġan n
Ġex c
Ġco u
Ġcou nt
Ġcou r
< ?
F F
Ġpr op
Ġprop er
ir m
ag s
ĠĠĠĠĠĠ ĠĠĠĠ
ĠĠĠĠĠĠĠĠĠĠ Ġ
ĠĠĠĠĠĠĠĠĠĠ ĠĠĠ
ĠĠĠĠĠĠĠĠĠĠ ĠĠ
U S
pt y
ĠI N
Ġprot e
v a
va l
va r
Ġup on
Ġcount ry
A P
els e
Ġcomp ut
Wh at
ie t
en u
>Ċ Ċ
ri v
') Ċ
me t
res h
( p
Ġdu e
ge n
Ġe y
Ġ| Ċ
ww w
ri d
rid e
d s
- m
. G
t n
ol um
EN T
Ġar r
Q u
Ġn a
m b
Ġco mb
ke n
Ġtr i
Ġpres s
à «
Ġdes t
à¤¾ à¤
d o
man d
Al l
id a
il t
Bo x
ge s
al f
af f
Ġg e
Ġge t
Ġge n
U N
( c
ack age
ide d
c y
O M
Î ½
Ġel s
Ġels e
ĠM y
ĠAs s
Ġ( )
P l
og n
ole an
×Ļ ×
ĊĊ Ċ
ĊĊĊ Ċ
ode s
C H
ake n
Ġbeg in
Ġà °
U p
Î µ
Ã£ o
Ġres p
O f
ert y
A G
Ġ áĥ
l u
ile s
Ġli b
. w
ï¼ ļ
I I
Ġwhe ther
d b
ou d
yp es
L e
ag n
, âĢĿ
ĠQ u
ne y
ple s
igh ts
×ķ ×
Ä į
li ent
Å ¡
Ġdi v
(); ĊĊ
ce r
} .
era l
Ġse g
iÃ³ n
ue d
h a
ha t
ire s
cl us
ap i
Ġcle ar
ĉ c
v o
ĠMe d
Ġoff er
Ġsee n
Ġen s
} $
cl e
ĠB r
Ġma p
Ġ{Ċ Ċ
( n
O L
Ġab s
y l
yl e
ro s
ros s
ne t
ite s
age d
O b
áĥ ĺ
ma p
pe n
pen d
N o
No de
Ġdat e
im g
ĠA b
am a
ĠOn e
Ġdo m
_ F
P I
Ġso n
Ġte n
ĠD o
O D
") .
Ġfac e
rib ut
arg s
à ¹
ot o
ĠF l
el t
Ġvari ous
ic ult
áĥĲ áĥ
ar a
ara m
el p
ri a
() )
] )
A d
Ad d
Ġne g
ĠNo t
ĠD r
os p
Ġ" "
ivers ity
àµ į
Ġpre d
. /
re l
Ġà ª
li b
Ġo s
ore s
ĉĉĉĉĉ ĉ
No t
Ġint e
Ġinte r
, \
ut o
C E
ic i
to p
O S
ile d
io s
amb da
( d
ian s
à¤ ¿
c r
cr e
cr i
cri pt
tr a
se l
sel f
Ġgr a
Re f
Res ult
Ġmat ch
Ġs i
Ġsi m
Ġsi t
Ġsit e
# define
P h
E l
') .
il i
Ġtoo k
ĠG u
ra n
Ö Ģ
olum n
Ġsa l
ai s
Ġcou n
ĠA m
ma x
l t
Ġst e
Ġste p
Ġca s
for t
à¥į à¤
Ġwe b
Ġ: =
Ġ( $
s k
! !
led ge
elt a
Ġha b
om b
Ġi l
ĠRe g
- d
ĠB o
> čĊ
Ġwho le
à¯ į
be d
ĠDe s
Ġdi g
pe d
De f
Ġim m
à¦ ¾
Ġfr i
Ġfri end
Ġsy m
ata l
is k
g a
ga n
opt ion
ĠM r
Ġ( (
use d
Ġdid n
Ġcome s
Ġj e
I s
ĠE d
Ġag e
g l
el e
Ã ª
Ġma g
ht t
htt p
http s
Ġt y
Ġty pe
Ġty p
à¥ Ģ
angu age
', '
l s
ai ls
Ġda m
ank s
is c
Ġv i
Ġvi s
Â ·
AT E
and o
ando m
op s
Ġwr ite
ie f
Ġ q
Ġq u
Ġq ue
Ġsup p
Ġsupp ort
s g
ĠG e
ĠGe t
Ġco nd
Ġide a
\ \
d f
En t
ur a
ura l
} (
ge d
}, Ċ
ĠC o
ĠCo m
ĠCo n
ĠCo l
ĠCo nt
ic y
ari o
j s
Ġb i
Ġbi g
Ġbi t
Ġdi se
Ġsit u
st d
idd le
unc h
_ D
ia s
ang le
uff er
Ġproper ty
Ġopt ion
Ġoption s
ser v
Wh en
_ h
ache d
* /
Ġil l
T R
bo l
ĠAd d
ip p
ame d
ĠSe t
on y
um b
P O
? "
Ġà¤ ķ
ic o
ico n
Ġlik ely
ace d
Ġter ms
Ġ== =
me n
men t
men ts
c d
ow s
. e
Ġoff ic
Ġsa f
ave s
le m
M L
Tr ue
ple ment
z a
te d
ec ted
Ġlow er
m d
Ġsome one
S o
Ġsa t
Â »
on a
ue l
Ï ģ
Ġappe ar
E m
js on
j e
ise s
ene d
ĉ Ċ
ill e
Ġadd ed
_ N
Å Ĥ
Ġl l
as c
Ġdep end
re c
rec t
Ġde g
le v
unt u
om s
ĠA N
ord s
Ġprovide d
Ġcol umn
I V
Ġind e
Ġinde x
) \
Ġet c
ĠSt e
de v
l n
ĠÂ «
ĠA p
ĠAp p
- c
ope r
Ġha v
Ġhav e
Ġa u
Ġau t
} _
row n
Ġcle an
ome t
Ġprot ect
re w
Ġra d
Õ ¸
Ġimp act
S c
Ġlo ss
Ġstr e
ol s
U E
r int
Ġrece nt
oun ds
. )
r t
ve rt
Ġpo rt
ĠRe p
ĠĠĠĠĠĠĠĠĠĠ ĠĠĠĠ
ĠĠĠĠĠĠĠĠĠĠĠĠĠĠ ĠĠ
ĠĠĠĠĠĠĠĠĠĠĠĠĠĠ Ġ
ĠĠĠĠĠĠĠĠĠĠĠĠĠĠ ĠĠĠ
Ġ} ,
Ġ}, Ċ
Ï ĥ
art ment
le n
_ B
cre ate
Ġla y
Ġcomp et
i i
k a
anc ed
Ġro w
yl es
Ġsu s
Ġu r
ial og
Å ¾
Ġexp ected
_ A
Ġ) Ċ
ist r
Ġtoo l
Ġreg ard
L L
ope n
\ n
Ġbu y
g y
( {
li m
se e
ca use
"Ċ Ċ
(); čĊ
T E
. r
.r e
at form
Ġdec l
ado r
s m
Ġ ]
p o
po n
po s
po r
por t
po se
po st
po nd
ui d
) (
it z
ĠTh en
Ġse m
b a
ba r
ac i
I R
E d
Ġal t
Ġ ;
_ w
Ġex act
Ã ±
r s
ve rs
be rs
te rs
Ġpe rs
vers ion
Ġve rs
vers e
Ġà ²
Ġop p
Ġvi a
Ġtry ing
. B
Ġn p
On e
âĢ¦ âĢ¦
Ġfriend s
E L
un k
E M
loc al
Å Ł
_ r
_r e
Ä ĥ
op h
it a
ita l
ita t
Ġle n
ĠG o
ĠGo d
{ čĊ
pose d
Ġ"" "
Ġla s
Ġlas t
N S
ĠSc h
s l
por ts
> >
Ġ} čĊ
Ġind ust
ob j
obj ect
n y
m m
Ġco mm
Ġcomm on
co mm
Ġcomm un
Ġcommun ity
vo l
ul a
ula r
Ġh y
ou nc
I P
ille d
raw ing
Ġs n
ave n
Ġc e
ere nce
ep s
Ġde b
H T
Ġask ed
ro r
Ġbo x
il s
che s
Ġes c
B e
Ġseem s
p m
Ġag o
Ġ\ \
ica n
ĠN e
ĠNe w
Ġcomp an
Ġcompan y
Ġa f
Ġaf f
ra g
Ġsi l
h r
", "
ume r
m u
r l
cre t
Ġrep l
áĥ Ķ
U I
Ġknow ledge
ĠDe p
se c
- t
( [
Ġeng ine
Ġtreat ment
Ã ¸
\ "
à¤¿ à¤
ins t
Ġprot ected
ĉf or
Q L
Ġdel s
Ġan g
ĠE m
out e
r ary
ri p
co mp
Ġli t
Ġres e
Ġrese arch
ĠĠĠĠ <
ĉ s
lo b
ĠCo r
eta il
ize r
at o
ato r
ato rs
ato ry
} čĊ
do m
( &
m t
ok e
oke n
à ¨
j a
ac c
ur g
Ã °
Ġcr ed
Ġur l
Ġuser s
ĠI D
ï¼ Ī
ĠA g
Ġsi x
ust r
her s
Ġm o
Ġmo d
Ġmo n
Ġmo v
Ġmov e
Ġmo m
Ġmo t
Ġmo ney
Ġmo r
Ġmor e
Ġmom ent
ur r
urr e
urre nt
| |
Ġnew s
St r
Str ing
Ġbe d
ram e
: "
) $
li n
lin e
lin g
Ġon line
lin k
Ġe p
st e
ste m
ste r
ĠU p
ĠI S
àµį à´
Ã³ n
Ġ â
Ġâ Ģ
ĠâĢ ľ
ĠâĢ ĵ
ĠâĢ Ķ
ĠâĢ ĺ
à§ ĩ
Ġbeh ind
Ġpo d
Ġprovide s
ent e
ente r
U M
( b
Ġà ´
u a
ua l
ual ly
Ġsa w
20 1
- f
O P
Ġno m
Ġi r
ĠO F
ĠP e
ĠPe r
oo n
" /
Ġpre c
we b
y a
n s
io ns
Ġco ns
Ġcons t
Ġi ns
Ġins t
ai ns
Ġinst ance
Ġcons um
Ġins ide
, '
ĠS m
Ġbec ame
Ġsw itch
em b
or a
ora ge
Ġco ll
L a
Ġdo c
ervice s
get her
ist a
Õ ¥
C C
ner s
Ġey es
Ġdi m
ma t
mat h
math b
math cal
N A
z y
ro y
ĠNo w
air s
id o
ub e
Õ ¶
r g
ĠSe e
ad i
. '
en a
ena me
anc h
I F
Re g
( i
Ġau d
Ġc y
Ġen v
ĠO b
em s
in u
") ;
"); Ċ
ï¼ Ľ
ym bol
ma r
mar y
Ġob j
. R
ĠO R
Ġtra d
our n
P r
Pr o
ip e
g u
à¥ ĭ
ĠRe d
Ġsu n
Ġmo de
Ġmode l
Ġmode ls
, čĊ
}_ {
b f
ai ly
irt ual
Ġer a
ef ore
Ġpre t
Ġ[ '
. x
Ġcontin u
Ġcontinu e
= >
Ġbeg an
Ġu t
ĊĠĠĠĠĠĠĠĠ ĠĠĠĠĠĠĠĠ
M y
' '
Ġspe ed
ĠU s
Ġpr og
p any
( e
ing le
Ġaff ect
mar k
ree t
ai led
sel ves
Ġthem selves
C O
ĉ m
Ġactiv e
( x
( _
Ġdise ase
Ġgr e
Ġgre at
Ġca m
Ġcam e
Ġcam p
Ġfe m
Pr op
Ġal g
à¤ Ĥ
po ns
pons e
Ġcons ist
à± į
áĥĶ áĥ
ĠDo n
`` `
_ g
;čĊ čĊ
the n
med i
Ġactiv ity
ri x
Ġcho ose
Ġà ®
l ambda
ant e
Ġu m
aci Ã³
ĠLe t
in i
ini t
> (
Ġse c
ca n
irect ion
g n
Ġdo g
Ġarg s
ange r
Ġens ure
É Ļ
un a
Ġp a
Ġpa rt
Ġpa r
Ġpa ss
Ġpa t
Ġpat h
Ġpa y
Ġpa ra
Ġpa st
Ġpa ram
Ġpart s
âĢ ŀ
ce l
Ġtr o
ize s
ĠSe r
! "
E X
rough t
ĠM c
Ï Ģ
Ġdu r
Ġdur ing
Ġspe ak
ab s
ly ing
rite r
Ġhel d
Ġtra vel
tra ct
$ {
lo s
los e
ĠO f
an o
att le
ier s
we r
Ġwr ong
ĠS w
ug e
Ġla b
Ġlab el
leg e
- p
ve y
option s
à¦¾ à¦
Ï Ĥ
Ġca pt
à§ į
ĠD E
bo n
Õ «
ru ction
C L
ell a
ote s
1 0
TE R
U s
Ġal s
Ġals o
ne xt
Ġ[ ]
ĠDe f
ER R
ne s
nes s
ĠWh ile
× ¨
Ġdiffer ence
Ġa x
cal e
Ġno te
] ;
]; Ċ
Ġan sw
oute r
Ġtre e
Ġcompan ies
No w
à¤ ¨
de s
Ġau to
Ġauto m
P S
ange d
Ġla t
Ġlat e
Ġlate r
Ġrem ain
oc r
Re ad
_ H
Ġrel e
ence d
Ar g
ri m
Ġse u
na v
Ġuse s
Ġ Ä
Ġinde pend
Ġpa n
ĠOf f
Ġvi r
ĠHe r
erv e
erve d
Ġle d
ph i
s y
. N
ÃŃ a
T H
c m
ĠPr e
ĠPre s
F A
De s
O W
P T
Ġdr i
Ġpart y
U P
]Ċ Ċ
Ċ ĊĠĠĠ
Ġ< =
Ġdo or
Ġdesign ed
ĠHer e
Ġone s
Ġem b
Î ·
Ġme r
Ġ> =
ed s
Ġpa s
wh ile
RO M
Ġco ok
Ġvo n
ĠAr t
ich t
Ġlo st
am m
amm a
AR T
on ly
pect ed
ĠRe c
la y
o e
AM E
pro p
he l
< <
ec h
.e x
Ġ/* *
Ġ/** Ċ
P L
ĠAN D
ha m
â Ķ
all e
ĠI I
áĥĺ áĥ
in n
" ;
"; Ċ
Ġ ~
_ \
ĉ }
Ġgre en
v i
vi d
vi ron
viron ment
vi s
Ġtem p
Ġtemp er
Ġim medi
ve c
ĠRe m
âĢ ĺ
"> <
">< /
Ġpl e
att r
al d
Ġr ev
n i
) }
Ã¼ r
a e
OR T
Ġsc h
ĠS T
ĠCo ns
en v
ars e
a o
istr y
Ã ¦
ime r
D B
Ġdri ve
- l
Ġidea s
Ġwho se
ud o
Ġrece ive
Ġreceive d
M S
ĠDe c
Ġpe t
ra d
Ġve h
Ġsc i
Ġsci ent
aci Ã³n
Ġcomm it
Ġun e
Ġd b
ĠG l
ort s
ul y
id ge
idge t
ida d
ame t
Ġcomp on
Ġcompon ent
Ġsol d
ren ch
x i
à¤ ķ
Ġoffer s
({ Ċ
Ġac com
wh ich
ot a
ota l
Ġor d
++ )
bo r
Ï ħ
Ġstre am
S ource
ove d
ĊĠĠĠĠĠĠĠĠ ĠĠĠĠĠĠĠ
ur t
urt her
") )
ake r
b t
x y
ari ly
Ġbeh av
in y
ast e
aste r
Ã ¢
ĠF e
Ġoffic e
ai gn
S C
al a
h y
_ E
' ve
d r
ĠAn t
ourn al
mathb b
art h
' m
Ġ( "
Ġ[ Ċ
ous ly
g s
Ġsaf e
are s
Ä ĩ
ĉ b
ock et
Ġsi n
Ġsin g
Ġsing le
all s
ĠRe ad
C K
' .
Ġcho ice
') ;
'); Ċ
- \
ze n
Ä Ļ
ĠR E
.d e
En d
ĠCh e
Ġfa v
Ġfav or
te rm
h i
hi p
hi b
Ġdo s
sw er
D o
Ġpress ure
à¦ ¿
f s
Ġany one
Re c
ado s
Ġpe l
ample s
rib ute
Ġpe n
Ã ½
p g
.t o
ia m
I O
IO N
Ġha r
Ġhar d
_ e
em p
emp t
Ġatt empt
emp l
re q
y d
Ġdist ance
ute d
à³ į
ane l
AN T
Ġtool s
ell s
b u
bu t
but ton
bu g
f a
Ġco p
Ġcop y
anc y
empl ate
ri e
rie s
rie d
rie nd
Ġcount ries
Ġrev e
oc h
UR L
$ .
Ġca t
Ġcat ch
K E
Ġ( Ċ
lo y
Ġd Ã©
he m
à§į à¦
Ġgre ater
al y
ith ub
. $
Ġ{ \
Ġ* )
ask s
ir a
n u
nu m
acter s
Ġsci ence
c s
Ġgo al
ĠWe b
ER T
- g
Ent ity
ĠCo mp
iction ary
Ġche m
ill a
k t
{ {
ite ct
math bf
M A
ĠĠ Ċ
ĠĠĠĠĠĠ ĠĠĊ
Ġbro ad
Ġco ol
Ġma l
Ġcommun ic
ry pt
Ġrele ase
oe s
_t o
x x
ĠA c
ĠAc t
ĠCo mm
Ġi ng
( l
Ġson g
% %
_d e
ir l
_ v
Ġhelp s
lob al
Ġrecent ly
Ġge ts
ri ef
Ġ( *
ĠĠĠĠĠĠĠĠ <
Ġc u
Ġcu r
Ġcu t
Ġres ource
Ġresource s
ee d
Ġass um
che m
/ s
Ġca st
ha s
Ġq ui
Ġqui ck
Ġquick ly
ress ion
_ L
ĠSt r
ĠStr ing
ĉĉĉĉĉĉ ĉ
ĉĉĉĉĉĉĉ ĉ
ia r
_ V
eng e
Ã© e
. y
à¯į à®
ee s
I B
org e
ug g
ex p
ta b
()) Ċ
// /
/// /
//// ////
Ġbu r
Ġso u
Ġsou nd
Ġun t
Ġunt il
ose d
aut h
auth or
S P
Ġ" \
ma s
ense s
ĠS u
ĠSu b
ĠSu p
Ġdo u
clus ion
Ġdi r
Ġdir ect
Ġdir e
Ġdirect ly
HE R
IN T
Ġexact ly
ĠAn g
k y
Ã¡ s
ent y
_ ,
)) ;
)); Ċ
Ġgra nd
Ġstep s
_ O
-- -
--- -
ĠEn d
Ġcomp ar
Ġro t
ĠC O
ĠCO N
ĠÃ© s
Ä ħ
ere st
.s h
ale d
inc t
ol a
Ġweb s
Ġwebs ite
Ġsay ing
âĢ ¢
__ (
e h
ĉc ase
que s
ques t
co ns
cons t
Ġdem and
Ġpred ict
/* *
/** Ċ
AL L
Ġcom fort
cal l
Ġass ist
Ġlay er
Ġde d
at ab
ho w
Ġno r
Ġnor m
ĉ \
IS T
Ġgra d
× ľ
p c
F l
ms g
Ġcompon ents
Ġsur pr
Ġh i
Ġhi s
Ġhi m
Ġhi st
Ġhim self
Ġhi g
Ġhig h
Ġhig her
Ġhi t
_S T
.p h
.ph p
Ġun s
erg y
ili t
ilit y
ilit ies
T P
ri s
ris t
ĠSe c
ur b
- w
ĠĊ Ċ
ĠN S
UL T
Ġspe ct
co r
cor e
Ġ\ (
Ġfl o
Ġflo w
Ġflo at
r ict
an i
et t
ett e
ĠDe m
bt n
Ġopt im
da t
dat a
dat e
it o
ito r
Ġrep e
ba n
ue r
Ġsafe ty
se mb
ues t
im a
ima l
ole s
àª ¾
ell e
à±į à°
B l
ag o
ĠChe ck
s v
à° ¿
A Y
ian t
IN E
om a
oma n
LE CT
A b
empt y
ĉĉ Ċ
I Z
Le t
und red
g t
[ :
p a
pa r
pa n
pa rt
pa t
pat h
Î »
_ .
") ,
ĠS k
Ġexist ing
ech o
Ġbi r
du c
duc t
ack s
ria l
Ġten d
ru n
Ö Ĥ
etail s
m o
mo n
mo d
Ġco mo
ĠUs e
ĠUse r
ove red
nc es
B C
use s
z z
pre s
pres s
press ion
ĠC r
ĠIn c
Ĥ ¬
ban d
dat ed
ache s
\ )
ĠAp r
ade m
Ġserv e
Ġserve r
s u
su m
su b
IL E
Ġhigh ly
Ġind u
// Ċ
Ġsur v
erve r
Ġnot ice
riv ate
ar l
arl y
Ġar m
pa re
req u
requ est
Ġcount er
ink s
.p ush
num ber
Ġm i
Ġmi n
Ġmi ll
Ġmi nd
Ġmi l
Ġmi t
Ġmi s
Ġmis s
Ġmi d
Ġmi x
ĠA f
ĠAf ter
Ġey e
Ġpo w
Ġpow er
me s
]) Ċ
Ġsw e
() :
Ġcou rt
Ġna v
ĠK e
os a
IT Y
Pr e
R I
Ã «
~ ~
] {
ro t
rot e
M P
Ġadv ant
Ã© r
ch a
cha r
cha n
for d
un s
Ġcamp aign
ian ce
k i
Ġ' /
ad y
Ġsite s
G L
Ġmove ment
Ġo u
Ġou t
Ġou r
ĠS E
Ġen h
no n
A p
Ap p
Ġse a
Ġob s
Ġst ri
j o
jo y
Ã µ
Ġcor e
s i
N D
Ġlate st
i h
By Id
Î º
ga r
( r
Ġbu l
oo m
ĠBr o
ut s
( -
Ġj o
Ġjo b
AG E
Ġmag n
$ ,
Ġ" /
D F
.S ize
Ġ( \
gl e
ĠP C
ai d
s q
sq l
AN D
av y
- h
pt r
Ġfa t
F T
pat ch
F O
à° ¾
ĠA S
Ġpr i
Ġpri m
Ġpri or
Ġpri v
eg a
Ġas ync
T O
$ $
ĠGe n
Ġfar m
.j s
En g
ha b
Ġwr ote
_ R
_R E
. I
w a
wa y
way s
Ġal ways
A X
Ġdri ver
A A
Ġhar m
ĠNo v
Ġ čĊ
') ,
Ġfe ar
u y
Ġsur round
au r
ick s
em a
ema il
item s
math rm
Ġtra de
Ġvol t
Ġpre m
Ã§ Ã£o
Sh e
be n
va s
ĠSe n
( R
Th ey
Ġ}čĊ čĊ
und le
li g
lig ht
Ġop in
ĠAn y
Ed it
Ġpa l
Ġse n
Ġsen t
Ġsen s
Ġsen se
Ġsen d
O K
Ġbecome s
Ġparam s
ode r
irt h
t x
Ġau th
Ġauth or
ĠE X
/ c
Ã ¯
* ,
mod ule
ago n
ï¼ļ âĢľ
P C
× Ķ
the rs
Ġvo t
Ġpre f
As s
Ġra t
Ġrat her
Ġrat e
Of f
si m
Ġ( '
Ġ: :
Ġrat es
}čĊ čĊ
âĢĶ âĢĶ
* )
: (
Ġsym bol
R A
/ m
à³į à²
ĠT V
Ġ' '
Ġmov ing
Ġsa v
Ġsav e
ign ment
Ä Ľ
1 9
ial s
Ã ´
'] ,
] (
ca t
Ġdec re
Ġop port
r ue
C A
ree s
Î ¼
Ġsch e
ĠMe t
pr i
Ġmen u
Ġloc k
": "
a el
ra f
raf t
m ber
Ġn g
ĠSu n
c p
Ġ{ }
Ġrelease d
] :
iv a
iva l
rom e
ange s
ice d
_ G
ĠU K
Ġp y
Ġz u
ca r
Ġda s
Ġto r
ĠEn t
ell o
ello w
Ġro b
um s
# if
ĠT H
ĠTH E
al u
alu e
ĉ d
be rt
Ġpre p
ze r
U G
Ġident ify
C D
Ġmen t
Ġment ion
Ġed ge
bu ild
al i
Ġt u
D A
= $
_e x
Ġma s
Ġmas s
Ġà¤ ¸
D D
Ġsus t
Ġnon e
Ġcred it
ric s
Ġremain s
y e
ye ar
} {\
Ã¨ s
AC K
Ġexp ert
, -
à¦ °
Ġwho m
ĠBe n
N E
el a
r d
Ġca rd
ork s
do c
cle s
(' /
OR D
Ġet h
he t
he st
ile r
ĠE s
ĠEs t
Å ¼
Ġve rt
Ġdr y
()Ċ Ċ
che r
S D
iv o
Ġdr o
Ġdro p
Ġsa m
Ġsam e
Ġmor t
L A
U B
Ġcontinu ed
à´ ¿
ta g
ate ver
ĠRe l
Ġme s
Ġmes s
Ġmess age
la b
lab el
_ W
Ġo k
ify ing
OD E
a a
Ġw a
Ġwa s
Ġwa y
Ġwa r
Ġwa ys
Ġwar m
Ġr en
Õ¸ ÖĤ
aut o
Ġappear s
Ġset s
¥ ¿
Ġlaw s
CT ION
rop s
Ġflo or
ict ure
Ġexist s
Ġh o
Ġho w
Ġho t
Ġho r
Ġho m
Ġhom e
Ġho n
Ġho p
Ġhop e
Ġho l
Ġhol d
à¤ ¤
cel l
p u
pu t
Ġout put
out put
M E
ERR OR
á ŀ
ĠH T
ĠNe t
ew ork
te e
ĠCo ng
Ġco ld
Î ¯
ĠM o
ĠMo n
ĠMo d
ĠMo r
ĠMor e
Ġcare er
.C ont
') )
Ġ*/Ċ Ċ
ĠBe l
ib r
Ġcr u
ĠLa w
ct x
ron ic
ig e
ige n
' ;
'; Ċ
'; ĊĊ
bu m
ĠAss oci
Ġres ist
Ġ ÏĦ
li ch
inst ance
ĠAr e
Ġseem ed
lo r
Ġbur n
ĠP a
ĠPa r
ĠPa rt
ĠPa t
ĠPa l
ig o
ĠWh y
cs s
m i
mi n
mi t
Ġli mit
mi ng
Ġco ming
co ming
ek s
ef f
( a
{ -
1 2
Ġte ac
Ġmay be
Ġset t
Ġsett ing
Ġsett ings
P A
} /
come s
ĠKe y
Ġv s
âĶ Ģ
Ġant i
ines e
Ġfe r
Ġ> >
Ġ" ,
T S
Res ource
be rg
E E
Ġinte g
Ġinteg r
à² ¿
Ġmove d
A m
Ġj a
Ġja v
Ġjav a
Ġjav ax
Ġexam ples
ĠSo l
log in
Ġhe t
R L
Ġexpl ain
Ġsee k
ta u
"); čĊ
ĉ t
pe t
Ġmis t
ges t
Ġ-- >
Ġcont r
Ġro m
n b
nb sp
ave d
her n
o ice
× Ĳ
ĠJ e
ĠJe s
ĠJe w
Ġregard ing
Ġpres ence
io l
ita r
ca p
S p
M e
io ne
Ġhom es
sc ope
ĠÂ »
ER S
ĠBe r
ud a
end o
I A
Ġ$ (
i u
iu m
iu s
b untu
ĠT w
Re m
Ġbe s
Ġbes t
ra s
ip ment
ĠSu r
áĥ Ŀ
Ġco s
Ġcos t
Ġcos ts
ĠDe l
Ġindepend ent
_st r
ĠAc c
gr id
ve re
Ã Ł
Ġem p
bs ite
) {
){ Ċ
G B
At t
ol f
Ġdi et
ose n
k o
Wh ile
ĠE r
Â °
ug h
ugh t
b b
ing u
Th ese
Ġspe nt
ĠRe v
ĠD i
ĠDi s
col umn
ho l
hol d
ian a
ĉ p
ĠÄ ĳ
for ce
(" #
Ġexp and
_D E
in f
inf o
ours e
ock s
rie r
ĠDe v
tem p
au l
aul t
Ġdef ault
def ault
Def ault
Ġth r
à¸ ²
us r
es h
se m
pre t
Ġpo ll
itar y
à± ģ
"); ĊĊ
: čĊ
ang o
De c
as y
ni c
* }
part ial
re p
Ġ+ +
po l
d t
Ġmo l
Ġbo y
in clud
o oth
ĠU N
Ã© n
ĠU I
ĠP M
im s
ou l
oul d
ru m
Ġi st
( *
at i
ati c
atic ally
( !
ĠT O
ar p
Ġdi ed
d i
di v
di s
di r
< div
F e
fo l
wh at
ĠĠĠĠĠĠĠĠĠĠĠĠĠĠ ĠĠĠĠ
ĠĠĠĠĠĠĠĠĠĠĠĠĠĠĠĠĠĠ Ġ
ĠĠĠĠĠĠĠĠĠĠĠĠĠĠĠĠĠĠ ĠĠĠ
ĠĠĠĠĠĠĠĠĠĠĠĠĠĠĠĠĠĠ ĠĠ
Ġins p
T e
} ^{
ty p
typ e
ĠTr a
wa s
Ġment al
Ġadd ing
Ġmov ie
re y
om y
Ġf o
Ġfo r
Ġfo rm
Ġfo l
Ġfo re
Ġform s
Ġfore ign
Ġfo rt
th s
ĉ Ġ
à°¾ à°
riv er
rem e
ke r
ab y
comm on
em e
X X
CO N
Ġli f
Ġlif e
in ally
car d
Ġsal e
Ġsale s
Ċ ĊĠĠĠĠĠĠĠ
aper s
Ġpr os
est s
(' #
oo ks
ĠRe act
Ġprep ar
u z
el come
Ġac qu
. *
car e
B O
AT A
( C
ĠA v
ĠPr op
Ġfa b
IT H
Ġve l
ĠI P
Ġes p
ĠâĢ ¦
cri be
Ġca rt
ati s
._ _
k n
Ġstre ng
Ġstreng th
Ã© t
ï ¿
pi d
ĠO N
Ġ= Ġ
Ġpo b
Ex t
. v
Ġ< ?
ote d
erm an
ĠPres s
P R
= \
Ġhigh est
Ġ) ;
Ġ); Ċ
ĠDi e
reg ion
.R e
Ġ\ Ċ
ad s
Ġhy p
s a
(), Ċ
Ġ$ {
b i
bi t
bi n
bi g
ĠP y
ft y
E C
To p
Ġà ¸
(n ame
Ġter r
ĠI l
Ġo m
up s
ome s
Ġva c
Ġha t
Ġsy n
}ĊĊ Ċ
Ġc i
Ġci rc
Ġci t
Ġcit y
Ġci r
Ġcirc uit
< T
Ġra p
Ġrap id
Ġchem ical
ome ga
L o
Lo g
Lo ad
AS E
Ġinter act
UR E
over n
oma in
Ġcall s
jo in
Ġgoal s
ĠDes ign
Ġdep art
Å Ļ
Ġsub s
Ġsubs t
Ġcit iz
{ }
oun ter
Ġsent ence
àª¾ àª
Ġà¤ ¹
ria n
âĢ Į
ck s
Ä Ł
ert ies
Ġass ign
Ġvir t
ave l
Ġ$ _
ici p
Ġar en
Ġtree s
Ġmiss ing
use rs
Ġ' @
Ġfl u
Ã¡ n
osp ital
ĠS l
AT H
Arg s
Ġ. .
Ġ.. .
le q
ĠM a
ĠMa r
ĠMa n
ĠMa y
ĠMa c
ĠMa t
ĠMa g
ĠMa l
ĠMa rt
ĠMa ny
ĠMat h
ĠMa d
ĠMa p
serv ice
,Ċ Ċ
ĠRe f
xi m
Ġp u
Ġpu t
Ġpu r
Ġpu b
Ġpur ch
Ġpu n
ivers e
Ġtra v
C S
requ ire
ĠI d
ĠLe s
Ġno v
Ġ[ "
ari a
aria n
à¦¿ à¦
old s
ĠRe t
ĠRet urn
F r
Fr om
ran d
P P
ob s
ĠS y
return s
su p
re a
rea t
rea d
rea m
rea te
rea k
rea ct
rea ted
ĉb reak
Õ¡Õ ¶
Ġcirc um
EN D
ore m
Ġjo bs
de d
ĠR o
ĠRo b
Ġt a
Ġta ke
Ġta ken
Ġta x
Ġta l
Ġtal k
Ġta g
Ġta b
Ġmess ages
are a
"; ĊĊ
Ġpurch ase
sec t
sect ion
Ġ? >
ĠAt t
oo r
G r
Gr id
nc ia
Ġsa c
ĠLe g
ria ge
C P
Wh y
ado w
ik i
ĠNot e
ounc il
Ġau f
il a
ila r
ĠOn ce
Ġcr y
ĠCr e
met a
} ;
}; ĊĊ
}; Ċ
elle r
( M
S A
ito ry
ru p
rup t
la t
lat ion
' d
and a
Ġspe nd
sy ch
Ġpar amet
Ġstr u
Ġstru ct
Ġstru gg
Ġwe l
Ġwel l
/ >
ru g
ï¿ ½
Ġmi r
IZ E
We b
Ġj u
Ġju d
Ġdi es
U D
Ġtop ic
Ġrepl ace
ĠMo nt
Th en
Ġex it
/ d
ĠTo m
Ġoffer ed
Ġadvant age
sel ected
OR M
); čĊčĊ
Ġo l
Ġol d
Ġol der
Ġo g
Ġclear ly
br a
Ġ""" Ċ
? ?
are n
ni a
.p ng
) ]
ki n
kin g
Ġtal king
Ġmiss ion
ant a
ch i
chi e
_ x
Ġstr a
Ġstra ight
D C
à¤ ¸
Ġadv ice
ane s
ĠQu e
[ $
D S
V E
VE R
Ġhelp ed
Ġp s
ed ge
ito rs
( :
ĠRo bert
ĠFe b
] ]
Ġto u
Ġtou ch
Ġtou r
ves t
lin es
it ness
Å Ľ
Ġbr a
Ġbra in
* Ċ
ĠL O
Ġtri p
Ġgra n
ĠMa ry
che n
li a
ĠReturn s
Ġ' <
cap e
ĉ g
)); ĊĊ
au d
( j
la m
ĠJe r
ase t
pose s
Ġknow s
No te
t i
ti l
ti c
ti on
Ġac tion
ec tion
Ġdir ection
uc tion
ven tion
Ġaction s
Ġprot ection
. \
Ġdifference s
ĠTo r
Ġfr a
Ġgu n
Ġac h
Ġach ie
Ġachie ve
ig u
Ġnote s
j i
Ġidea l
Re l
= (
.T o
Ġident ity
se s
Ġca ses
It ems
k g
ĠComp any
Ġma c
Ġmac h
go ing
I X
ro ad
ĠJ o
Ġme l
kt op
ĠNo r
ield s
'), Ċ
co s
ĠB u
ĠBu t
Ġhab it
Ġr eq
Ġreq u
Ġreq uest
Ġrequ ired
Ġrequ ires
Ġo d
( h
OD O
ĠO h
ak s
Ġsound s
ĠMa x
cret e
)) .
ul s
Ġdou bt
Ġ} }
()) ;
()); Ċ
ige r
*/ Ċ
ĠAN Y
om m
. čĊ
} ^
ĠL o
ĠLo g
ĠLo u
od o
ĠA M
ĠT R
Ġassum e
Ġsche d
1 1
sec ond
y r
ed i
edi a
edi t
Ġset up
ideo s
Ġdu t
Do n
Ġwr iter
Ġ[ [
oo ls
( g
Ġfra g
des t
ra t
rat e
Ġpro of
di m
à¸ Ļ
ode d
ĠA R
ur i
Ġca nd
Ġcand id
Ġspe ech
Se r
Ġsee ing
ism s
. J
it u
itu d
itud e
) /
ĠN O
ĠNO T
g i
gi n
gin g
.s w
Ġpu l
Ġpul l
B A
(" /
ĠTo p
la r
angu lar
Ġprep ared
une s
Ġmat h
} (\
P U
Ġadv ance
wh ite
Ġswe et
Ġres ol
Ġk m
elp er
Ä ģ
lat e
'] )
Ġob t
Ġobt ain
Ġobtain ed
ep er
men u
Ġrow s
Rec t
ĠAp ple
à¥ ģ
Ġla unch
oci ety
Ġproper ly
Ġbl o
Ġblo od
Ġblo g
ref ore
KE Y
Ġsust ain
Ġfem ale
.p ut
Ġthem e
dev ice
rea l
Ġas t
à¯ ģ
à® ¿
Ġdi n
ba l
bal l
ron t
Ġ" <
ida y
Â Ń
ĠMe x
Ġsy s
resh old
Ġbusiness es
ĠDi v
A V
Ġvi t
Ġadvance d
li k
lik e
~ \
not e
ĠUS A
D O
ante d
Ġcard s
ĠSup er
Ġgo d
Ġra w
n p
ĠC H
Ġbo n
(' .
Ġsa n
Ġsan d
) -
ov a
cd ot
C o
Co n
Co m
Co nt
Co lor
Co l
Col umn
B S
ĠFr e
ĠFre e
=" #
Ġr Ã©
Î ¬
y y
)ĊĊ Ċ
Ġe c
que ue
). Ċ
).Ċ Ċ
Ġappear ed
}) Ċ
z i
Ġabs ol
Ġadv ert
Ġup d
Ġupd ate
Ġupd ated
Ġfa n
aker s
/* Ċ
chem a
I E
Ï Į
Ġserve d
Ġ ^
Ġy a
Ġinde ed
× ª
à« ĩ
and le
Ġ+ Ċ
Ġha sh
Ġkey s
Ġlog in
? :
++) Ċ
ĉ //
Æ °
Ġ); ĊĊ
Ġwe ap
Ġcoll e
Ġcolle ct
Ġcolle ction
Ġcolle ge
HER E
G o
ĠC D
Ġaffect ed
Ġpe d
ern ame
RE E
âĢĻ ve
o i
oi nt
oi d
oi n
Ġdi ss
Ġauth ors
ark s
(f alse
Ġdepend ing
itch en
Ġmal e
ĠTw o
ola r
Ġresist ance
ati n
atin g
ĠÂ £
Ġsav ed
ni ght
Ġà¤ ®
ĠS O
Ġm u
Ġmu s
Ġmus t
Ġmu t
Ġmu r
age n
FA ULT
Ġli e
Ġbu d
Ġbud get
ut f
sm all
Ġcit ies
Ġhelp ing
Ġlo se
eq ref
Ã¨ nc
Read er
Ġfan t
Re d
/ b
à¤ ²
ing ly
pe s
Ġty pes
D r
) *
Ġren t
_s e
_se t
à¤ ¹
ĠCong ress
$ \
EC T
An y
Ġpre v
adi o
Bo ok
ĠHe l
- r
Ġac id
ĠO S
AR R
tr e
roup s
G e
Ge t
Ġ{ '
ĠĠĠĠĠĠĠĠĠĠ ĠĠĊ
Eng ine
ake d
ene ric
de t
inu x
âĢĻ m
y c
yc l
Ġrec t
Ġmot ion
ir o
iro n
iron ment
ra v
ĠMe r
ĠSu m
Ġpur e
Ġbon d
Ġfam ous
ĠSm ith
va n
Ġim g
ugg est
alle l
B u
Bu t
But ton
is f
ĠHe n
anc el
C R
ĠE N
h s
Ġ/ >
Ġ/> Ċ
Ġgra du
Ġstre et
ĠE v
el i
K e
Ke y
Ġ*/ čĊ
sq rt
pro of
Ġsu d
Ġsud den
ĠDe t
ĠEng ine
art s
= True
ig r
Ã¶ r
: \
alle d
be l
ON E
ony m
Ġinc l
Ġvot e
Ġva ry
Le ft
Ġhav en
Em ail
Ġra n
Ġran k
ĠB i
ĠBi g
af e
d y
rea dy
Ġal ready
ĠAc tion
Ġresult ing
Ġhol ds
Ġci n
Ġm m
clus ive
1 5
ĠOn ly
Ġc m
à¥ ¤
Ġlot s
à´¿ à´
Ġ--> Ċ
Ġcomp os
ĠG L
ĠEx t
Ġprov e
k l
Ġdesc ri
it ute
\ x
De p
na l
Ġele ction
IC E
in fty
IN D
ll a
isc h
Ġaff ord
end e
ende r
ende d
áĥĿ áĥ
(i d
Ġ{ "
as i
De t
Ġwe r
Ġwer e
ÃŃ t
AC E
ĠOff ice
Ġ` `
im p
imp ort
ik a
ra c
rac tion
Ġli qu
ĠSc i
ĠSci ence
': Ċ
Ġtri al
ed y
Ġann ual
( w
OS T
Ġdi sk
ia t
iat ion
iat e
ĠAf r
(" %
ES T
Ġoffer ing
ec ess
Ġask ing
Q U
dis t
Ġhigh light
ran s
Ġpart ner
Ġpartner s
? .
Ġtu r
Ġtur n
se y
Ġà¤ ª
ĠAn n
bo t
Ġbi rd
Bo dy
· ¸
Ġdepend s
( S
bin g
ĠRes ult
ista n
istan ce
er ior
Ġca sh
ri g
rig ht
opy right
% ,
Ġo x
Ġ( _
aw n
.sw ing
ĠCons t
Ġcompar e
Ġcompare d
_S E
iver y
Ġest e
ste p
o z
R equ
Ġmas k
Ġpo ly
× ¢
Ġ!= =
Ġremain ing
RE F
à¸ £
rol e
_t r
)) ,
w s
ĠNe ws
'); ĊĊ
Ġcontinu es
ĠRe al
ric h
set s
» ¿
ĠĠĠĠĠĠĠĠĠĠĠĠĠĠĠĠĠĠ ĠĠĠĠ
ĠĠĠĠĠĠĠĠĠĠĠĠĠĠĠĠĠĠĠĠĠĠ Ġ
ĠĠĠĠĠĠĠĠĠĠĠĠĠĠĠĠĠĠĠĠĠĠ ĠĠĠ
ĠĠĠĠĠĠĠĠĠĠĠĠĠĠĠĠĠĠĠĠĠĠ ĠĠ
"; čĊ
. H
( v
ha n
han d
ĠIt s
SE T
ne l
H P
@ "
Ġmi ne
'Ċ Ċ
as p
ĠUs ing
ĠBr e
Ġsur g
ĠUp date
mat ch
Ġsu c
Ġsuc h
til de
au x
Ġadv ent
Ġtreat ed
fr a
fra c
.w rite
Ob j
Obj ect
kn ow
know n
Ġprom pt
ele r
de l
del ta
F C
f g
H z
F L
Ġappear ance
Ġrat io
Ġgr o
Ġgro w
Ġgrow th
Ġgro u
Ġgrou p
Ġgrou nd
Ġgrou ps
_b y
() čĊ
ĠPr of
prop s
plement s
"/ >
Ġarm s
ser t
AR E
Ġlay out
Ser ial
ĠA T
Ġ× Ĳ
ĠUS B
Ġbo t
Ġbot h
Ġbot t
Ġbott om
ĠOn line
M M
M D
sh e
Ġfr uit
Ġnote d
ĠIn s
ĠIns t
et e
ete r
ete rs
Ġparam eter
Ġparameter s
ace r
Ġr u
Ġru n
Ġru ns
il ies
oc s
à¤ ®
pro t
)- >
Ġexplain ed
ĠH ttp
Ġta k
ĠÃ º
ĠPe t
Se e
à®¿ à®
EX T
ĠMe m
ye s
Ġgen t
ud d
Ġve n
Ġven t
}} \
ua n
Ã§ a
à§ĩ à¦
Ġda n
Ġdan s
Ġcall ing
z o
} [
[ j
ĠII I
iven ess
let s
Å ĳ
bu f
_s h
ere nces
à²¿ à²
po p
ĠA L
is a
ĠD B
lay out
j u
Ġpay ment
any a
Ġap pl
Ġappl ic
Ġappl y
Ġappl ied
S L
($ _
elle d
Ġto n
Ġwa t
Ġwat er
Ġwat ch
Ġbo w
ĠWh o
co hol
Ġqui et
(" \
ine r
inst all
Ġva lu
Ġvalu e
Ġvalu es
or i
ori g
ori a
ori al
po ss
\ u
Ġsus p
Ġru b
Ġmot iv
ð Ł
Ġi p
ues day
ĠÂ ·
ĠP o
ĠPo l
ĠPo rt
Ġcu p
=\ "
Ġ) ,
Ġ), Ċ
ĠAss ert
Ġca rs
D R
id x
A g
ario s
T C
ĠWe d
Ġgen der
ym b
Ġr i
Ġri sk
Ġri s
Ġri se
Ġri d
pect ive
` Ċ
N e
Ne w
Ne xt
Ne t
ĠA D
Ġca b
Ġhot el
HT ML
Ġreg ul
Õ¥ Õ
et c
etc h
ĠI r
Ġcolumn s
Ġun f
/ j
Ġmi g
Ġmig ht
ando n
io t
gg est
urs day
IE S
ps i
ol y
ose s
wa r
war d
war e
war ds
Ġfor ward
ft ware
ave r
ĠSec ond
Ġfe t
ĠLo ok
oth ing
os h
: '
Ġsp r
Ġspr ing
ger s
ĠMr s
IG N
Ġpob l
exp orts
ĠBe t
oun ce
Ġmix ed
Ġdou b
cle ar
ĠBi t
wh en
Ġn i
Ġni l
Ġren d
ĠDe n
E s
Es t
. [
op p
adi us
Ġsal t
ata r
ext ern
ĠCl ub
S H
Ġvac c
O p
Op en
Op er
Op tion
Option s
1 6
Ġap t
ki t
ĠComm on
Ġfo u
Ġfou nd
Ġfou r
Ġsc an
n n
Ġco nn
Ġconn ect
Ġconn ection
Ġi nn
Ġconn ected
Ġinn ov
co nn
conn ect
mod al
aps e
Ġfan s
L S
ies t
Ġ' \
ĠLo s
mu t
Ġmol e
3 0
B r
(): Ċ
me m
am i
ami n
amin g
ami c
\ ,
Ġpri me
R C
d l
on i
oni c
Ġfo rg
_str ing
Ġ?> Ċ
AN G
N U
NU LL
Ġse d
Ġexpert s
O h
Ġf i
Ġfi nd
Ġfi n
Ġfi l
Ġfi le
Ġfi les
Ġfi ve
Ġfi x
Ġfi g
Ġfi t
Ġfi ll
Ġfi ght
Ġfi ne
Ġfin ally
Ġfi f
Ġfi b
.P oint
ĠRev iew
Ġdepart ment
asc ript
r ams
{ "
Ġf n
bu r
bur g
Ġele v
Ġsee d
ape d
Ġtur ns
Ġau s
IM E
_b ack
app y
Õ¸ÖĤ Õ
Ġrequ ests
ounce d
su do
Ġste el
Ġ= Ċ
Ġfl e
Ġfle x
Ġchoice s
Ġsubst ant
e z
ab a
tx t
ree k
âĶĢ âĶĢ
R T
Ġcm d
Ġau x
cons ole
ĠIn put
ĠPa n
Ġlog ger
Ġbig gest
S l
Ġ{ @
F S
Ġn u
Ġnu m
Ġnu t
Ġnu mer
Ar e
ĠZ e
Be fore
En c
ai ne
aine d
aine r
ĠI T
Ġspeak ing
Ġha l
Ġhal f
em y
Ġmo b
aw s
ica go
u h
ĠN E
o ose
; &
Ġp p
AS S
ler s
Ġaccom pl
na m
nam e
user name
nam es
Ġuser name
men te
b m
Ġimp l
Ġr eb
er ra
Ġad m
Ġport ion
ĠPo p
ĠAt l
ig a
iga tion
ST R
Co mp
Ġ; Ċ
ĠRo ad
Us e
Use r
define d
Ġvir us
ider s
ras e
des c
rate d
Wh ere
AP I
Ä ĳ
ÖĢ Õ
de c
Ġprep are
N O
ĠComm it
ĠBu ild
co in
yc le
ada s
ha l
ĠA P
ĠAP I
ĠLou is
Ent er
Ġenc our
( T
Ġtw ice
Ch e
Che ck
Ġpri n
Ġprin t
(_ _
Ġsi e
ĠD C
ci a
cia l
Ġcru cial
1 8
ĠTh om
ĠThom as
Ġupd ates
/ p
ribut ed
ora l
U C
Ġher o
Off set
hen s
Ġsurround ing
Ġend s
Ġap i
. z
UI D
N G
ami l
amil y
2 5
Ġ} )
Ġ}) Ċ
ien te
N T
ack et
cap t
capt ion
Ġbe at
res p
resp ond
mod e
mode l
mode ls
W S
ong o
O C
Ġfi ns
ere nt
Ï ī
Ġli c
Ġlic ense
ĠMe l
u v
k u
in line
Ġad j
Ġadj ust
Ġbi n
x a
= [
to t
tot al
IV E
so l
sol e
Ġwe alth
ren ce
non e
v m
Re p
Ġbe ar
L C
.W rite
ater s
ĠLa b
Ġseek ing
oc a
oca l
-t o
is i
ine t
ĠPart y
Ġexpl an
Ġsc r
Ġscr e
Ġscre en
_S IZE
ĠC A
Ġexpl o
het ic
ï¼ī Ċ
ĠSec ret
key s
Ġint r
end a
enda r
.s ub
Ġdom in
ka n
medi a
Ġfol d
Ġfold er
erc ial
Ġwatch ing
- M
Ġd f
PR O
ĠS H
IT E
Ġfort h
rag e
P e
Pe r
. ]
Ġ[] Ċ
Ġsp l
Ġspl it
Î¿ Ïħ
c f
rom ise
Ar t
Ġtri b
Ġsched ule
20 0
sy s
sys tem
Ġfr o
Ġfro m
Ġprovide r
Ġp i
Ġpi e
Ġpi n
Ġpi l
On ly
ab e
abe l
abe t
err y
QU E
Ap i
Ġdog s
Ġpe rm
Ġperm an
vi n
vin g
Ġdri ving
{Ċ Ċ
Ġtu m
w d
à¥ Ī
Ġhabit at
! Ċ
!Ċ Ċ
re v
requ ired
ke s
Ġta kes
"" "
Ġhy d
o very
Ġtopic s
ĠÃ ¼
ĠAc cess
à³ ģ
ul o
uc e
dat es
ĠBu r
.js on
] =
Ġvi v
Ġpri mer
Ġse l
Ġsel f
Ġsel ected
Ġsel l
ag a
ĠM A
Ġy e
Ġye t
Ġye s
"] .
Ġbe r
Ġmar riage
ak a
à² ¾
Ġ}) ;
Ġ}); Ċ
Ġ}); ĊĊ
az z
_c h
Ġgra nt
ian o
ars er
Ġsou l
ric k
Ġrese t
ya n
ĠRo m
_ y
ĠB Y
ĠTr y
Ġinteg er
ĠS D
Ġadv oc
Ġremain ed
)) )
Ġ× Ķ
pl us
Ġlay ers
Ġcommon ly
> &
Ġdisease s
Ġsk y
per s
pers on
Des c
ager s
no v
ĠP R
ĠPR O
ĠS i
ĠSi m
ĠSi l
ĠSi r
Ġext ent
F I
FI G
\ /
do t
anc er
Ġod d
bre ak
ĊĠĠĠĠĠĠĠĠĠĠĠĠĠĠĠĠ ĠĠĠ
air e
Ġgu y
Ġfl y
cri p
He ad
Head er
Ġtu t
Ġo t
M I
.Ċ ĊĊ
.ĊĊĊ Ċ
ons e
Ġguy s
u j
Ġbl e
Ġfac ts
ape s
, $
Ġ" .
nes day
bin d
Ġrep air
Ġgra de
ĠÃ ¨
hi s
ĠI O
sc h
Î ³
? Ċ
?Ċ Ċ
^ {\
se n
sen d
Ġ" $
Ġdr a
Ġdra w
Ġdra m
ĠA C
ĠB E
alle t
ais e
ĠMe n
Ġsupp orts
(( )
ĠS M
Ġsea t
Ġfl ight
Ġpur s
Ġseu s
s f
ĠC a
ĠCa n
ĠCa r
ĠCa l
ĠCa p
ĠCa m
ĠCa mp
ĠCa ll
ĠCa rd
ĠCa st
ĠCa re
ĠCa rol
ĠCa s
Ġsi g
Ġsig n
Ġsig nal
Ġsig ns
Ġseg ment
ĠComm and
Ge n
Ġtyp ical
Ġtypical ly
t k
i y
ĠÎ ±
ĠAb out
typ es
- n
ĠSu ch
hel p
ĠEn vironment
) [
No n
Non e
Ġbu g
Ġwar n
Ġbegin s
Ġform a
Ġforma t
Ġforma l
Ġap ps
eq n
app ro
be s
Ġcopy right
add r
addr ess
ĠO k
k m
Ġarm y
bs erv
Ġhard ware
Ġgen e
Ġgene r
Ġman d
ĠC L
( @
temp t
Ġfriend ly
Ġcat al
ove s
ĠPre m
Ġassist ance
ne d
Ġtur ned
Ġ}ĊĊ Ċ
gy pt
+ "
Ġbi ts
Ġinteract ion
Ġforma tion
it Ã©
Ġc v
ĠSp e
ĠSpe c
ĠSpec ial
Se c
use um
ro c
al o
ARR ANT
li ce
Ġcr a
Ġcra ft
II I
D P
âĢĿ ,
à¸ Ń
Ġobs t
iz z
Ġan s
Ġans wer
Ġanswer s
_n um
Ġemb ed
ĠW H
Ġins tr
G R
mi c
mem ber
so rt
ed e
ede ral
ede r
ede f
Ġcapt ure
pri ce
ide n
iden t
iden ce
iden ts
Ġspend ing
Co ns
On ce
Ġnotice d
tre e
{ (
f n
ĠIt em
ĠW ARRANT
Ġtal l
C M
Ġrel i
Ġreli g
ĠAr m
PU T
Ġtro u
AC T
× ĳ
Ġboy s
ĠOb ama
br o
Ġ{ {
av i
avi g
if i
ifi c
Ġscient ific
an z
S I
Ġwel come
Ġencour age
Ġcou t
àµ ģ
ione s
Ġso c
Ġsoc i
Ġsoci al
× ©
Ġshe et
.s e
.se t
clude d
Ġlab els
"), Ċ
kin s
result s
Ġdri vers
Ġcontr a
Ġcontra ct
Ġcontra st
Ġpe ro
RE S
Ġp m
][ '
Ġall e
Ġalle g
'], Ċ
Ġ' .
Ġ'. /
Ġsa d
ĠĠĠĠĠĠĠĠĠĠĠĠĠĠĠĠĠĠĠĠĠĠ ĠĠĠĠ
ĠĠĠĠĠĠĠĠĠĠĠĠĠĠĠĠĠĠĠĠĠĠĠĠĠĠ Ġ
ÃŃ s
re ng
yc h
ĠNo n
ĠNon e
ĠPat h
Ġmer e
ro g
te x
tex t
Ġresol ve
_ a
_a t
ĠE U
))Ċ Ċ
A v
ero s
()) .
rog en
ĠWh e
ĠWhe n
ĠWhe re
Ġenh ance
-m d
` ,
ĠâĢ ŀ
. X
Ġknow ing
Ġtu n
[ -
( A
Ġri g
Ġrig ht
Ġright s
out s
.G eneric
Ġda r
Ġdar k
â ĸ
Ġrepl aced
-s t
x f
bl em
lay er
ga l
As ync
LO G
ĠCommit tee
'] Ċ
os c
ol o
olo g
olo gy
olo r
× ŀ
sub mit
ĠâĢ ¢
Ġca nt
ĠJ u
ĠJu ne
ĠJu ly
ĠJu l
ĠJu d
ule r
all a
Ġt f
Ġris ks
im o
ĠMart in
He l
s n
Ġi sn
Ġwa sn
ĠBr a
× ł
Ġwarn ing
imp l
oke s
de red
un n
Ġdat as
Ġdatas et
ĠTr e
cho r
ĠM S
Ġbre ast
Ġoffic er
Ġofficer s
Ġju n
à²¾ à²
Ġlog ging
ĠTe r
Ġk a
ump s
pu b
ĠIl l
Ġgra t
Ġev id
Ġevid ence
}) .
Ġi o
my s
Ġprot est
ĠAd v
ute n
Ġsche me
Ġliqu id
AS T
tra in
Ġu l
Ġul t
Ġat h
IA L
(s t
(st r
(str ing
ente d
S m
ĠH y
Ġcomp at
Ġcommit ted
Lo gin
y t
} _{\
ĠMore over
% )
im m
St e
Ste p
ĠJew ish
enge r
ch t
Ġma k
Ġmak e
Ġmak es
hand le
imes t
tee n
Ġbird s
et o
ume s
Ġ" -
ĠS C
f i
fi g
fi le
fi eld
fi l
fi nd
fi n
fi t
fil ter
fi ll
fi x
fi les
à°¿ à°
Ġche ap
G E
GE T
per t
pert y
ul f
Ġ" %
.I s
ĠS a
ĠSa n
ĠSa l
ĠSa m
ĠSa nt
ĠSa nd
ĠSa r
ĠSa f
Ġdra g
Ġsub mit
.F ont
c b
ĠDi sc
Ġcirc le
Cons t
M B
ha d
Ġjo y
ĠAf ric
Ġwe t
Ġ' ,
uto r
Ġsome what
Ġgre w
A c
Ac t
Ac tion
Ac cess
Ac c
ĠO p
ĠOp en
ĠOp er
.T ab
Ġdeb ug
Î Ń
ce ive
ent h
Ġlimit s
his t
Ex p
ĠMex ico
ĠMay be
Ġmatch es
ĠO l
ĠOl d
Ġpr on
Ġatt r
Ġattr act
Ġfight ing
ast s
Ġmap s
à ·
wn er
fo o
foo t
? >
ay a
oll y
mi d
Ġsuper ior
Ġdef e
Ġlie s
isc he
Ġvert ical
cont act
ĠPe n
E P
po ol
la n
lan d
lan ds
lan g
now n
is p
isp lay
ise r
. ;
ĠSte p
ĠEnt er
Ġconsist s
va re
Â «
Ġsom et
Ġsol e
are t
ĠHT ML
N N
[ \
ĠI M
Ġren ew
Ġdesign s
oo king
field s
Ġfour th
ĠD O
C I
ap a
apa n
iga n
Ġto m
A F
ĠBo x
Ġred irect
')Ċ Ċ
ĠS P
ĠRo y
ce mber
Ġa z
los s
ĠÃ© t
' }
Ġ" #
Use rs
.r es
Ġac ts
li e
lie r
text bf
Ġlog ic
ich e
Ġpl t
ĠD u
era s
Ġgro wn
ĠSe g
": Ċ
ache r
d p
Ġany where
ren d
rend er
M O
Ġcheck ed
ĠOp tion
âĢĿ .
Ġill ustr
* (
ya l
mo nd
+ \
ĉ <
conn ection
init y
ati v
ativ e
ativ es
ativ ely
wh o
(" .
-s m
hi gh
ma l
d k
Ġpa re
Ġpare nt
AR Y
ribut es
ove mber
ON T
ĉ čĊ
Ġnorm ally
ĠHen ry
ja r
ef ul
ĠSo m
ĠSom e
Ġsyn t
Ġcl o
Ġclo se
Ġclo s
Ġclo ud
Ġclo ck
Ġclo ser
Ġclose ly
ĠL u
Ġcu l
Ġcul t
P M
gen t
à° Ĥ
Prop s
/ .
t ical
"/> Ċ
ĠĠĠĠĠĠĠĠĠĠĠĠĠĠĠĠĠĠĠĠĠĠĠĠĠĠ ĠĠ
ĠĠĠĠĠĠĠĠĠĠĠĠĠĠĠĠĠĠĠĠĠĠĠĠĠĠĠĠ Ġ
ran t
Ġ' #
1 4
ĠSo n
Me d
AR D
Ġfav our
Ġb a
Ġba s
Ġbas e
Ġbase d
Ġba r
Ġba d
Ġba l
Ġbal l
Ġba n
Ġban d
Ġban k
Ġba g
Ġba b
Ġbab y
Ġba t
Ġbat h
Ġbat ch
ĠSe x
Ġdra wn
Ġden t
ĠSi e
sub section
has h
Ġdeb t
clude s
Ġpu ed
ĠPh ys
rec i
Ġill ness
__ _
___ _
create d
_N AME
the y
Lo ok
Ġadv is
ĠRes t
Ġf ru
Ġmove s
omet imes
Ġque ue
Ġsong s
. V
xi ety
Â ®
Ġmus cle
ita n
Ġblo w
]; ĊĊ
Ġtor n
Ġdin ner
oci ty
ĠEm p
oma s
; i
Ġt i
Ġti m
Ġtim e
Ġtim es
Ġti t
Ġtit le
Ġti p
Ġtip s
Ġti l
Ġtil l
Ġprim arily
Ġsudden ly
Ġbre at
Ġbreat h
res ource
Ġbre ad
ĠN a
ĠNa v
Ġno u
"> čĊ
Ġum a
Ġhol e
ĠĠĠĠĠĠ <
Ġà ¨
Ġdut y
ĠCor e
the re
Ġent r
Ġentr e
Ġentr y
ase r
') ->
ĠH a
ĠHa r
ĠHa m
ĠHa w
ien to
ĠG ree
ĠI V
ĠTh ose
war gs
Ab out
am l
Ġpe rt
M T
ure r
ĠSer v
ĠServ ice
ĠServ ices
ra r
Ġpow ers
ou b
oub le
yn t
Ġmoment s
f d
ĠEn c
ism e
Ġbuy ing
ĠHe ad
va ri
> '
Ġto d
lia ment
rop h
Ġorgan ic
B I
Ġsignal s
it i
iti on
iti ons
d ition
Ġadd ition
Ġaddition al
iti s
Ġaccom mod
Co r
Cor e
Ġdrop ped
& &
ĠLu c
inu e
ho t
oke d
Ġsol o
Ġ) .
^ \
Ġbe ach
t w
-> _
Ġra c
Ġrac e
Ġen um
Ġbi s
kin d
ĠDef ault
rid ge
ttp s
RE D
ĉĉĉ Ċ
'] .
ust ral
M r
ol i
oli c
oli d
Ġtor ch
xi s
ra b
Ġfe e
Ġfee l
Ġfee d
Ġfee t
Ġfee ling
Ġfee ls
HE CK
V D
Ġ( -
rib le
à¹ Ī
ĠV a
ĠVa l
ĠVal ue
ĠVa n
Ġadd s
ne n
nc ies
Ġz e
oun try
) =
og a
pres ent
ĠĠ <
ĠBo b
B D
Ġrad i
Ġradi o
à´ ¾
ul ed
Ġjud ge
Ġrepl y
Ġbar e
_L O
ush ed
ask et
Dr aw
/ g
ience s
ĠOp t
re r
Ġres id
Ġinstance s
Ġest a
Ġesta b
M C
rop ri
Ġrid e
ife r
Ġregul arly
bu l
Ġte a
Ġtea m
Ġtea ch
Ġtea ms
Ġtea cher
Ġkn e
Ġkne w
Ġflu id
S O
SO N
Ġmovie s
ĠLe e
Ġdefe nd
ui s
ĠEx p
ĠExp l
imest amp
De v
Dev ice
ĠHa rd
ĠSant a
_ k
Ġsell ing
Ã¤ r
Ã ¹
Ġdra ft
Ġedge s
ona l
iti onal
=" /
Ġanswer ed
- S
Ġbon e
ĠB O
ĠH D
00 0
ĠĠĠĠĠĠĠĠ ĠĠĠĠ<
app a
ĠArm y
CR E
} -
clud ing
Ġon going
"] ,
Ġext end
Ġextend s
Ġextend ed
ĠAf f
- e
Ġachie ved
Ġassign ed
erv let
R S
Ġbus y
(n ull
) +
ĠE p
for ms
Ġin line
Ġ× ľ
de p
dep end
ĠDi st
o j
rec ord
à¸² à¸
cm d
Ġsm o
Ġsmo oth
;ĊĊ Ċ
z t
ani a
irt y
Ġran d
Ġrand om
Ġfa ult
su ch
Ġlif t
Ġma d
Ġmad e
Ġstrugg le
Ġlaunch ed
T D
ĠLa t
1 3
um a
uma n
ĠEs s
Ġface s
Ġtu b
ex as
Ġappe nd
ati o
atio n
atio ns
atio nal
loc ation
equ ation
Ġcommunic ation
igr ation
ĠAssoci ation
er ation
avig ation
ound ation
Ġstring s
t ics
ida de
.c l
.cl ass
.cl ose
ste in
as m
Ġpan d
ĉĉĉĉĉĉĉ ĉĉ
Ġid x
" +
ĠPa y
ĠC G
Ġtemp l
Ġtempl ate
ĠCO M
se g
Ġj s
Ġjs on
([ '
à ¶
d c
ere n
Ġhal l
Ġstre t
Ġfet ch
onym ous
mo s
mos t
foot er
ni e
ass e
irect ory
à« į
Ġcur ve
Ġwebs ites
\ t
ba s
bas e
ata base
bas ed
ual ity
) "
ba t
Ġ\ <
PI O
Ġabs or
20 2
S M
as a
ĠC S
Ġwhe el
B N
Ġrapid ly
Ġmere ly
apa che
", čĊ
Ġdoc t
Ġdoct or
ma c
urr ency
Ġdan ce
Ġte ch
Ġtech n
Ġe j
ip o
ĠJu n
ibr ary
ob e
obe r
cont r
Ġmag ic
Ġmet a
Ġmeta l
-r e
Ġ ÏĢ
ĠBo n
D M
^{ -
Ġleg s
Ġnews p
G u
Ġdate s
jo b
ĠÎ ¼
ĠTe m
arg o
* .
Ġdis pl
ifi cial
amp s
orth ern
Ġta p
Ġdi sh
pa d
Se g
ate n
% .
à¥įà¤ °
Sc ale
ader s
bi ts
ij n
Ġprop s
_r es
Ġsil ver
mat rix
Ī ĺ
Ġe g
Ġeg g
ĠAr g
agen t
} "
ĠPo t
rap per
à«į àª
Ġtou gh
. E
Do c
v c
Ġb g
si n
sin g
Ġentr ies
ĠÃ ī
ĠCre at
ĠCreat e
ĠCreat ed
à ©
ĠWhe ther
ĠM P
OR Y
-s e
Lo c
Loc ation
Loc al
ĠSp r
ĠEl l
Ķ ×
out hern
form ance
B L
ee n
Ġprovider s
Ã©e s
â Ħ
ent a
enta l
ĠO K
Ġpa g
Ġpag e
Ġpag es
Ġbu f
Ġbuf f
Ġbuff er
Ġ Ïĥ
Ġenc ou
ha r
bor n
ĠSy m
Ġble ss
ĠDe r
Ġcomb at
Ġradi us
f c
Ġanti b
Ġfound ation
amp ions
Ġcomp ens
Ġ- =
abet es
Ġhol iday
Ġce r
Ġcer t
Ġcer e
fo und
Ġperm it
Ġcab le
à°Ĥ à°
Ġdec k
Ġter min
ple x
Ġdri v
H S
' >
ade d
own er
Ġ] Ċ
br ief
")Ċ Ċ
que r
quer y
al g
} `
By te
Byte s
Bu ild
Ġoption al
Ġpi p
cat ch
ĠLat in
for ward
ĠDi m
(g et
ĠIn f
s d
Ġvo c
Ġend l
It er
pre c
()); ĊĊ
Ġgra b
nav bar
ĠÂ ©
)); čĊ
ru le
ult y
.se nd
fi nal
ame r
amer a
ĠJe ff
Ġdoor s
uit s
ron g
Ġcr o
Ġcro ss
Ġcro w
to String
um m
umm y
ens us
US T
( L
ens ure
r angle
Ġto w
Ġtow ards
Ġtow ard
Ġtow n
Ġclean ing
10 0
pri m
ĠL anguage
ĠTre e
Î ®
à¯ģ à®
Ġpr oc
Ġproc ess
Ġproc ed
Ġproced ure
Ġproc eed
Ġprocedure s
ant ly
Ġspect rum
Ġrec ip
Ġrecip e
end l
Ġev il
pri me
Ġdecl ar
pi r
Ġtag s
Ġexplan ation
# Ċ
Ġput s
sup er
Ġnew ly
Ġsec t
Ġsect ion
Ġsect or
Ġsect ions
Ã© m
istan t
ĠLo w
Ġmar g
Ġmarg in
bl es
To String
âĢ ł
je t
Ġegg s
oi r
Ġage s
Ġtre s
_E X
ish ment
Ġneg ot
Ġpay ing
Ġinteraction s
over s
ĠSa t
Ġpriv acy
di t
ut a
Ġno s
á» į
Ġli v
Ġliv e
Ġliv ing
Ġliv es
Ġliv ed
ue n
Ġsubstant ial
An g
ju d
riter ia
ist e
iste r
reg ister
iste rs
iste s
man n
ism o
endo r
L Y
h line
Ġserve s
ĠGr a
ĠGra nd
ild e
ilde r
Bu ilder
urre nc
Ġ. =
Ġgent le
ques tion
Ġless on
Ġlesson s
Ã ®
ĠLo ad
Ġenc ounter
Ġleg is
Ġ)Ċ Ċ
ĠSe a
ont o
ĠL i
ĠLi b
ĠLi ne
ĠLi n
ĠLin ux
ĠLi m
- (
asy nc
Ġ} ;
Ġ}; Ċ
Ġ}; ĊĊ
_f ield
Ġli n
Ġlin e
Ġlin k
Ġlin es
Ġlin ks
Ġ" '
Ġface d
Re t
Ret urn
Ġcompos ition
Ġbin d
Ġbind ing
ET H
cond s
R R
ï¼Į âĢľ
! =
ific ally
OW N
Ġoptim al
Ġrepl ied
ĠCa se
Ġpu p
ann a
ze d
Ġgrant ed
em ph
Ġpath s
Ġsl e
Ġco ord
. k
jo r
_r eg
Ġch a
Ġcha r
Ġchar acter
Ġcha rg
Ġcharacter s
Ġcharg e
Ġcha t
Ġcha rt
Ġcharge d
Ġcharge s
ĠCarol ina
Ġprove d
OR E
uck y
Ġmur der
cond ition
Ġdecre ase
ĠC R
Ġfer t
ĠBer n
Ġflo od
pa y
Ġsm ile
.E x
| \
ĠPl us
Ġcook ing
_ i
_i d
_i n
_i nt
ĠP S
Ġmovement s
Ġton e
ador s
âĢĻ d
× ĵ
( B
fer red
H O
F R
cl os
clos e
( `
bu s
.c h
Ġprec ed
Ġven d
; "
ill y
? )
rand om
le e
lee p
/ v
Ġ ðŁ
ĠC E
ilar ly
itat s
ri z
à« Ģ
ĠB a
ĠBa r
ĠBa y
ĠBa s
ĠBas e
ĠBa l
en y
az e
Ġpat ch
Ġta r
Ġdri ven
m osp
mi ne
la s
las s
las t
Op t
lete d
S u
Su b
Su p
Su m
Sup port
Result s
Ġmi ni
Ġmini m
Ġminim um
Ġmini ng
Ġexplain s
ĠGr e
ĠGre at
ĠGre en
ĠGre ek
uz z
ON G
ĠBa d
iste d
Ċ ĠĠĠĠ
Ġpref ix
Ġp Ã¥
ref ix
/ t
.sh ow
ior s
.I n
Ġd t
Ġmatch ing
Ġsome where
Ġdisc rim
ĠSpr ing
ĠG i
ĠId e
ĠEl s
ĠBu l
itud es
Ġinnov ative
ur d
ĉ v
str y
Ġindu stry
Ġfe at
Ġfeat ures
Ġfeat ure
Ġ× ©
T A
( P
à¤ ª
aw a
$ _
Ġ' %
Ġha n
Ġhan d
Ġhan ds
Ġhand le
Ġhandle r
Ġhand ling
à´¾ à´
Ġreli ef
unt e
Ġconc e
Ġconce pt
Ġconce nt
oke r
Ġban ks
ge q
b d
ell y
} '
ci ples
La y
Lay out
Lay er
x e
áº ¡
Ġou ter
arg v
Ġrat ing
Ġlo sing
Ġp d
" čĊ
S w
US E
USE R
Me t
Ġwriter s
_s ub
Ġseed s
Ġscr oll
Ġ\ ,
ye r
ove n
Ġn urs
3 2
Ġri sing
áĥĺáĥ ¡
Ġste ad
do n
t f
Ġprin tf
gr a
gra m
gra d
gra ph
gra de
Ġcomput e
Ġcompute r
i ated
tr l
ĠPr ov
Ġas c
id i
su r
ĠD ictionary
Ġnum py
str a
stra ct
stra p
Ġcor n
Ġcorn er
der s
áº ¿
> ,
g b
zi p
oni a
Ġrepe at
Ġrepeat ed
r b
Ġve rb
en o
_res ult
Us ing
Ġna n
- A
rou te
Ġpr a
Ġpra y
à³ Ĩ
à¦ ¨
fi c
mas k
van t
hi ps
ateg y
apse d
Ġsou ght
po sing
Ġext r
Ġextr a
Ġextr em
Ġextr eme
Ġextreme ly
Ġsk e
Ġcommit ment
Ġha m
Ġart s
Ġcr ew
Ġattempt s
ĠP L
_ (
Ġpa d
or b
Ġdi sp
Ġdisp lay
Ġdisplay ed
Ġdisp atch
atal og
Ġwat ers
Ġcontr ib
P H
Ġprop ag
Ġ"" ,
va lu
valu e
valu es
int e
inte r
ĠA I
Ġcommit tee
Ġta n
Ġtan k
ĠDi d
Ġcircum st
Ġcompute rs
ĠCl e
Ġregard less
ante s
N C
IN S
ack ing
ĠÎ º
chan nel
Ġ" +
str aint
Ġinteg rated
unc i
ĠN Y
erve s
Ġshe l
Ġshel l
Ġf t
IL L
olum e
ido s
Ġcomp act
!! !
Ġbro ke
Ġbroke n
à¤¾à¤ °
ri l
ĠAp ril
uk e
. }
Ġ". /
de m
ĠL I
Ġhan g
ĠRo d
mar gin
br id
ĠComp ut
ach ment
ĠCa t
ĠCat h
ĠCat al
ĠCath olic
ĠSe m
Ġsav ing
B E
r f
to r
Âł Âł
Ġout come
Ġoutcome s
er als
lo t
W E
â Ĥ
âĤ ¬
awa y
olic y
igh b
G A
ca m
cam e
(st d
Ġa y
oute s
Ġemp h
Ġemph as
ol ute
se x
ille r
de b
deb ug
Ġz a
(e x
Reg ister
. U
er ous
ill i
Ġfee s
1 7
Ġ\ "
ĠJo n
ĠJon es
ol t
ant o
ĠPe rs
ĠPers on
ĠQue en
àµģ à´
\ '
ac a
Ġm g
( D
ĠA z
be t
bet a
Are a
ĠĠĠĠĠĠĠĠĠĠĠĠĠĠĠĠĠĠĠĠĠĠĠĠĠĠĠĠ ĠĠ
ĠĠĠĠĠĠĠĠĠĠĠĠĠĠĠĠĠĠĠĠĠĠĠĠĠĠĠĠĠĠ ĠĠ
ĠĠĠĠĠĠĠĠĠĠĠĠĠĠĠĠĠĠĠĠĠĠĠĠĠĠĠĠĠĠ Ġ
")) Ċ
Ġdisp ut
Ġpil l
.j oin
Ġsa b
fol d
h l
Ed itor
UT F
Ġbe com
asi s
Ġm s
Ġms g
ĠRe n
Ġni t
anguage s
ĠRom e
à¸ ±
Ġradi ation
igen ous
Ä± n
ber ry
. -
ĠI re
Ġcommunic ate
ani m
la g
ĠK n
ho p
Ġlegis l
Ġman t
is l
Į Ģ
lim it
? âĢĿ
fol io
Ġcra sh
Ġ' -
serv e
serve r
Ġstre ets
5 0
act ual
ir med
Ġmer c
edi tor
ĠLab or
B B
£ áĥ
Ġha z
ico l
aj e
Ġcrow d
icon s
enu m
Ġsac r
ak i
Wh o
B U
BU G
DE BUG
ĠMo t
wa n
si s
ari s
_num ber
Ġan c
G l
f x
Ġche st
Ġo h
rat ing
Ġgene s
Ġpro hib
low er
est a
iki p
ikip edia
n h
Ġmar ks
Ġele g
Ġcu m
b c
und o
b n
ĠP A
L P
Ġpi t
Ġpit ch
_L E
}, \
impl e
GE R
Ġdes p
cer t
var phi
.L ist
ĠHel p
Ġfra m
Ġfram e
ĠTer m
Ġwa sh
over line
Ġar c
Ġarc h
Ġarch itect
Ġarchitect ure
G S
abet h
.t r
anger s
ĠS n
ĠCle an
Lo ader
pre d
_f or
Ġpi c
Ġpic k
Ġpic t
Ġrel y
ĠAg e
Ġdi l
ist rib
Ġ' "
Ġprove n
_ j
Ġth y
)] Ċ
Ġdoct ors
Ġappe al
}) ,
×ķ× ª
Ġpull ed
Ġcult iv
ram ework
ĠTr i
Ġdiv id
Ġsud o
ĠWh ich
Ġdo t
Ġf u
Ġfu n
Ġfu ll
Ġfu nd
Ġfu l
Ġfu t
Ġfu nc
Ġful ly
Ġfu el
Ġfund ing
conn ected
up t
ĠHa s
ĠHas h
Ġni c
Ġnic e
Ġpurchase d
Ġprin ted
Go od
Ġno d
Ġnod e
Ġnod es
ĠV i
ĠVi r
ĠVi s
ĠCo ll
ĠEs p
E r
Er r
Ġcheck ing
cl oud
izer s
Ġhat e
.w idget
. a
.a pp
.a p
.ap pend
.ap ache
.a s
Ġce l
Ġcel l
Ġcel ls
Ġcel e
al m
Ġsurv e
Ġsurve y
hi m
ra z
Ġcheck s
Ġco d
Ġcod e
Ġcod es
ĠC y
ĠSo v
Ġmy s
Ġmys elf
Ġmys t
Ġse s
Ġha y
in v
_f l
Ġtre m
ina r
inar y
ĠM O
Ġmi c
Ġmic ro
Ġtemp s
ĠLO G
ay lor
Ġben ch
Ġstr ip
ĠJew s
Ġinnov ation
x c
Ġ{} Ċ
Ġju g
Ġtri g
Ġtrig ger
tw o
cer s
Ã© d
Me m
UL E
ĠJe an
Ġun c
ir s
irs t
ci pl
ĠJ O
Ġso b
Ġtub e
â ķ
+ '
Ġadvent ure
Str uct
opp ing
OL D
Ġbat t
Ġbatt er
Ġbatt le
Ġbatt ery
ici t
Ġstr ike
andle r
cha t
log ger
Ï ĩ
ors es
Ġtreatment s
âĢ ĭ
ĠL E
ĠLE D
ock er
Ġà¤ ¬
Ġthe ra
Mem ber
Ġg i
Ġgi v
Ġgiv en
Ġgiv e
Ġgi rl
Ġgiv es
Ġgi r
Ġgiv ing
Ġgirl s
Ġgra v
(r e
(re s
(res ult
ĠKe n
ster s
isc hen
Ġ" _
Ġtri m
sp e
spe c
ay ment
/ \
c n
ma y
ĠMa h
Ġlegis lation
ulo us
.Tab Index
ĠLe m
AS K
ed a
int o
into n
ti m
tim e
tim es
Ġdate time
Ġprimer a
ĠArt s
ke t
Ġmar ket
Ġmarket ing
Ġmarket s
ĠDo u
ĠJo e
Ġpa p
Ġ ĉ
Str ip
b olds
Ġvol unt
the less
Sec ond
Ġcod ing
Ġ> Ċ
×Ļ× Ŀ
ĠCo ok
ans wer
Ġwr ites
ES S
Ġt x
- B
v y
Ġs z
AR N
Ġfu r
Ġfur n
Ġdi a
Ġdia m
Ġdia g
Ġdiag n
Ġdiag ram
Ġdia l
Ġdial og
ĠInd ust
Ġou ght
'] ;
']; Ċ
bolds ymbol
Ġmeta data
Le s
ipe s
à¸ µ
em o
emo n
pi n
pin g
Ġmap ping
is ode
IM IT
rib e
H i
Hi gh
Hi s
His t
ĠEd it
il ton
ud i
udi o
Ġat mosp
ĠCons ider
F E
Ġany way
gi t
Ġi g
Ġig n
Ġste m
Ġany s
Ġcoord in
Ass ert
ĠSE T
Ġassume d
module s
Ġesc ort
ama n
Ġabs ence
ares t
Ġmiss ed
fra k
ate ix
brid ge
ast a
]) )
lin ux
ĠAre a
ĠÃ ¡
V M
Ġca d
Ġcad a
ra q
C F
ide l
ap y
Ġk o
Ġko m
Ke ys
exp r
Ġarr iv
Ġarriv ed
Ġlow est
ĠPr om
ĠProm ise
; \
less ly
ĠMa s
ĠMas s
Ġka n
ĠMa rc
ĠMarc h
don e
_p r
_pr o
Ġtan t
ĠEm ail
Ġdirection s
h u
hu s
Ġent hus
Ġrob ust
(i n
(in t
Ġbo l
Ġbol d
} ]
s we
Ġhe m
arc el
t ure
Ġca v
d x
er k
Ġrest a
Ġresta ur
sch e
doc s
Ġexpert ise
bes t
Ġres c
ĠBal l
áĥĶáĥ ĳ
ĠDo m
ĠComm un
vi a
ĠRo s
ak t
ma z
Ġfew er
Ġe q
Ġeq u
Ġeq ual
Ġequ ip
Ġequip ment
Ġeq ually
dom ain
atis f
D T
inte rest
elle s
Ġson t
Ġ: Ċ
2 4
Ġnu e
Ã± o
} :
ĠLes s
inct ion
apt op
.S e
.Se t
ense d
È Ļ
ĠL y
È Ľ
Ġ|Ċ Ċ
Ġs v
uls e
osp h
Ġspeak er
ann y
Ġhor m
pri te
ĠO s
\ Ċ
Ġinstance of
Ġtim er
ien e
Ph i
ĠSu s
PE R
Ġsym pt
ors e
asi c
& \
ici o
icio us
icio n
ir k
Ġ] ,
Ġ], Ċ
) ?
Ġesta t
Ġestat e
Ġfore ver
l angle
Ö ģ
.a w
L ambda
orig in
origin al
ade l
: [
c z
bs p
Ġge l
ATE D
Ġtx t
ba d
BE R
Ġaffect s
ĠIS BN
\ [
Ġbox es
like ly
An t
icture s
oun ded
(t ype
Ġgene ric
at ge
od a
oda y
act s
zer o
Ġend ing
Ġpip e
enn y
Ġgra m
Ġtod o
B R
ĠCa rt
oc c
{ $
rag ment
Ġsche ma
har d
Ġreve al
Ġreveal ed
sin ce
l anguage
fl ag
/ Ċ
erg e
w p
-d e
Ġbi o
Ġu i
Ġui nt
la d
erv ing
oph y
', čĊ
Ġut ility
ĠI F
Ġins ight
Ġinsight s
] +
ate ur
AS H
ĠIm p
/ {
riv e
I l
D b
.to String
! )
Ġben e
Ġbene f
Ġbene fit
Ġci ut
la w
ah a
, ,
ĠM D
Ġlen s
Ġsh r
test ing
.T h
( k
(k ey
Ġcoun sel
Ġe ren
F i
Fi eld
Fi g
Fig ure
Fi nd
Fi l
Fil e
Fi n
Field s
Fil es
ĠHT TP
- F
- C
TH E
Ġsubst ance
Ġdefe ct
chan t
ĠTre at
Ġfrag ment
ĠImp ort
app ly
app e
appe d
appe r
Ġwatch ed
[ (
ĠMA X
ĠPa c
ĠPac k
ĠPac ific
UT H
y g
Ġo c
Ġoc c
v s
ĠCol umn
Ġi k
Ġtheme s
Be cause
og y
is o
iso n
Ġcompar ison
app oint
Ġdis appoint
Ġcry pt
Ġstru ck
Ġge ar
mu n
Ġun w
Ġve c
Ġli p
bo w
ĠI L
ĸ ´
Î± Î¹
ĠOption al
Ġvi g
ĠSecret ary
Ġtime out
igh ter
isc o
pre v
MA X
est e
este r
este d
Ġrequ ested
Ġflo ur
Ġpl a
Ġpla y
Ġpla ce
Ġpla n
Ġpla nt
Ġpla yer
Ġpla ces
Ġpla ns
Ġpla ced
Ġpla ys
Ġpla net
Ġpla te
Ġpla ne
Ġpla in
Ġplan ned
Ġcapture d
ĠGu ard
e ix
.a pi
_in put
Ġdemand s
SS ERT
w t
ele n
y o
yo u
com fort
Ġaff ili
#if def
de g
Ġsc al
Ġscal e
ĠK h
idi ty
Î ´
d m
dec l
Ġadvantage s
ruct ure
ĠRem ove
here nt
ike s
))) Ċ
in q
ras t
. :
ici de
irm s
ach t
prot o
/ w
Ref er
Refer ence
alk ing
Ġ@ "
Ġi h
ils t
e a
ea r
ea d
Ġar ea
Ġinst ead
Ġarea s
ea rs
.r ead
ĠInst ead
ea n
ea ch
lin ear
.- -
ĠBe d
ĠRo g
Ġsymbol s
Qu e
Que ue
ĠOh io
mo unt
Ġcu b
ĠRes ource
ten ance
ga ge
amet er
ĠSm all
ĠR h
ig s
Ġon t
Ġont o
da ys
sc ore
ad v
go r
Ġ# #
ip t
Ġscr ipt
Ġsem i
Ġsub t
ran k
m g
Ġtype of
light s
ĠR a
ĠRa d
ĠRa m
ĠRa y
¸ °
,- -
ĠSo c
ĠSoc i
ĠSoci al
ĠSoci ety
az a
it c
ĠAm b
Ġconnect ing
: %
AT CH
Ġà¤ ¨
math frak
ie m
ĠRo w
De l
Del ta
Del ete
Ġsi r
en z
áº £
ĠF A
Ġmi le
Ġmile s
ĠÄ į
Ġlik ed
let on
w rit
ag g
agg er
Ġsee s
ct r
Ġele ctr
Ġelectr ic
Ġelectr ical
Ġelectr o
Ġelectro n
Ġelectro nic
Ġ'' '
ater n
ien cy
Ġfo rum
Ġ_ ,
Ġmist ake
Ġwr ap
Ġdecl ine
se q
seq u
Ġsub sequ
Ġko n
Ġn Ã£o
Ġtil e
B T
Ġru m
à¤ Ĺ
Ġmuscle s
ir i
iri t
NO T
à° °
Ġtro p
ne g
arr y
H D
ĠR O
ha v
hav e
rop y
cc i
ĠM B
Res t
be c
Ġà¤ ľ
au g
aug h
Ġf s
à² °
Ġs b
ĠA h
à¸ ¥
Ġappl ies
Ġfruit s
P N
ri o
rio r
Ġinte rior
aste rs
Ġna s
HT TP
Met a
Ġcro p
ĠCr u
Ġcontinu ing
CO M
- a
ÃŃ n
Ġ( @
× ĺ
n ÃŃ
ĠGra n
ino s
na p
ĠW i
ĠWi l
ĠWil l
ĠWill iam
ĠWil d
ĠWi n
ĠWilliam s
ĠWin d
ĠWind ows
S R
ip l
ipl e
Ġfo c
Ġfoc us
Ġfoc used
ope s
Ġstreng then
% ;
ĠDi g
ĠU r
Ġsubmit ted
ĠPr ot
ĠIN T
te ry
Ġinte rf
Ġinterf ace
Ġbon us
H A
Ġpow der
ĠM u
ĠMu s
ĠMus lim
ĠMu r
ĠL A
Ġmar ker
Ġgen u
oto s
ĠĠĠ Ċ
à® ¾
new s
D L
oc o
oco l
oco late
ĠH o
ĠHo w
ĠHo l
ĠHo t
ĠHo r
ĠHo m
ĠHom e
ĠHo n
ĠHo ly
Ġfly ing
Ġarriv e
OM E
** :
Ġsentence s
_t h
Ġscre ens
ĠVa r
route r
ow a
Ġten t
?> Ċ
ĠCo ast
(( (
$ (
ĠCE O
={ {
}\ )
ĉ C
ala r
Ġevid ent
ast y
res a
Ġnos e
Ġlik es
Ġco c
Ġcoc k
enger s
Ġrep ut
Ġhard ly
." ,
Ġreput ation
Ġmind s
)) čĊ
a ix
F P
Ġschedule d
): čĊ
ĠNor m
ĠEN D
ont h
ĠSu d
bel l
bur y
ĠG R
=" +
ĠJo b
NS String
In s
Ins t
Inst ance
et ary
Ġà¤ķ à¥ĩ
ai ling
ĠSo u
Ġa k
igu e
ĠF a
ĠFa r
ĠFa ir
als o
Ġoc h
pare d
Ġrece pt
ask a
Ġfunc ion
Ġfeat ured
Ġ'' ,
Ġbott le
Ġimpact s
Ġpayment s
ld ots
pha n
Ġ[] ,
D ictionary
ore r
Ġburn ing
P o
Po st
Po s
Pos ition
Po rt
Po l
Po p
Po ol
ant i
anti c
anti ty
cor es
er ate
Ġpi g
= -
l g
tra ck
Ġkn ock
Ġmode s
ĠT y
[: ,
Ġso r
Ġsor t
Ġnor d
ti p
Ġ=> Ċ
Ġt s
Ã ¬
ĠBuild ing
oi s
da m
# import
Ġ" Ċ
Ġrev en
Ġje w
Ġann ounc
Ġlog o
.L inq
you r
art y
ena ble
Ġhel l
eme d
/ "
Comp at
call ed
Ġdi p
Ġdip l
Ġco v
Ġcov er
Ġcov ered
Ġcover age
Ġcov ers
\ (
G O
bat ch
un i
uni ty
uni c
uni t
unic ip
ĠComm unity
à¹ ī
- Ċ
=" "
unc t
unct ion
Ġident ical
cp p
ĠSup reme
ump y
ve rb
En um
Enum er
Ġcra ck
Ġbi l
Ġbil l
lo n
lon g
psi lon
vare psilon
Ġvers us
Ġsyn c
à¤ µ
ron s
gen ce
Ġtor t
Ġri b
Ãª n
o a
oa d
Ġhole s
- x
Ġcor d
Ġsig u
iz a
iza ble
iza r
Ġge r
el ve
elve s
){ čĊ
.V iew
ĠÎ µ
Ġha sn
Ġl y
à±ģ à°
Ġresta rt
E G
on o
ono m
Ġel l
pe g
Ġexpand ed
Ġs s
LO W
Pol icy
aug ht
ĠAs h
Ġhop es
ĠIm m
Ġ' _
ĠC P
ĠCP U
Ġmol t
Ġres on
ure au
s or
Ġsett le
ct ic
gr e
gre g
V A
VA L
Ġelect ed
RES S
ĠMat t
x b
O U
OU T
OU R
OU N
àª ¨
.To String
Ġla d
Ġlad y
Ġcommunic ations
ĠBa t
Ã Ĺ
× Ĺ
ugh ter
Ġcolle ctions
Ġtal ks
Ġequip ped
Ġhi p
\ {
Ġdra in
à¥įà¤ ¯
CO L
pl t
ĠAl i
T V
iss e
isse t
dd en
ly mp
ĠO lymp
Ġelse where
ĠLab el
ĠWARRANT IES
Ġtri als
ican s
Ġca ps
ĠRos e
]; čĊ
ĠE q
ĠEq u
X T
orn e
orne y
Ġpartners hip
ende rs
ĠCo p
ĠMac h
ĠMach ine
Ã¼ n
ĠIn v
ĠInv est
cont ain
contain er
op l
opl e
Ġpe ople
ĠPe ople
AV E
ĠIde nt
= %
++ +
C G
er d
Ġserve rs
Ġass ault
Ã¤ n
ar o
aro n
ĠBel l
Ġmode r
Ġmoder n
x d
Ġto k
Ġtok en
ĠEx ec
Ġleg it
P G
Õ¸ Õ
Ġmes h
Ġap pre
ple r
Ġhit s
Ġgra y
Ġte l
Ġtel l
Ġtel e
Ġtel ls
Ġtel ling
Ġju r
V C
č ĊĠĠĠĠĠĠĠ
Ġcamp us
ru s
ETH OD
Ï į
(str uct
Ġro d
ri n
rin g
ea ring
ĠB C
Ġvo r
") čĊ
Pre s
Pres s
ĠJer sey
dis c
Ġtou t
ange l
Ġ Å
_l o
_lo g
S k
Ġstret ch
> \
Ġfram es
Ġhabit s
ĠHen ce
Ġco w
/ f
O k
Ġdon t
Ġbar s
flag s
Ã¤ t
ĠH E
Ġassign ment
uen t
Ġhop ing
Ġexplo s
clusion s
Ġinteg ral
ĠAnt on
Ġdes k
Ġdesk top
Rel ated
``` Ċ
Ġton g
Ġinc h
Ġinch es
ĠAL L
reg ular
UE S
Loc k
ĠFa c
ĠFac e
( Q
od ge
à¥ĩ à¤Ĥ
*/Ċ Ċ
at z
ĠFre d
Ġtw e
ci t
cit e
cit y
li cit
Ġanc est
ĠD a
ĠDa ta
ĠDa te
ĠDa v
ĠDa y
ĠDa vid
ĠDa n
ĠDa r
ĠDa t
ĠDa m
ĠDar k
Ġw x
()) )
Ġintegr ity
Ġlogic al
_e n
_en d
Ġ$ .
ĠEdit or
ĠLa s
ĠLas t
ĠBo y
ï¿½ ï¿½
Ġbet a
rid ay
Y Y
Ġpe s
Ġalleg ed
ĠA k
â Ĩ
}) ;
}); Ċ
}); ĊĊ
Ġfib er
ĠM i
ĠMi n
ĠMi l
ĠMi ll
ĠMi d
ĠMi r
ĠMi t
ps on
\ <
()); čĊ
> {
AR G
Det ail
Detail s
Ġatt itude
$ -
Ġpen s
rel l
or o
oro us
oro ugh
amb Ã©
ĠEs c
Ġmys ql
rol ling
() {
(){ Ċ
Ġni e
Ġfit ness
Ġliv er
c u
cu r
cu l
cur ity
Ġoc cur
cu t
Ġoccur s
Ġoccur red
cu p
Ġoc cup
> =
S B
\ %
and y
ele ct
wer e
T F
ĠLe w
E O
Ġinte l
Ġintel lig
Ġintellig ence
ĠJ r
Med ia
Ġsafe ly
Ġpredict ed
ĉĉ čĊ
× §
Ġ[ -
Ġbi d
L D
Ġgu t
Ġger m
Ġthe ms
ĠU P
Ġdan g
Ġdang er
Ġdanger ous
.p y
Ġcab in
ple d
es a
ino is
Ġmir ror
app le
ĠEdit ion
Ġmi ld
Ġwe d
for each
== =
=== =
ĠMo s
ĠMos t
ni l
Ã¡ t
Ġdec ay
ł áĥ
mys ql
Pe ople
Ġbene ath
Ġclo sing
force ment
âĦ ¢
rou s
Tr a
Tra ce
àª °
Ġ/ /Ċ
m box
ĠMa rg
: -
Ġsome how
cert ain
.I d
_E N
Å ¯
Ġcut s
}$ ,
it ants
D i
Di s
Di r
Di d
Di m
ĉ r
Ġbre aks
Ġpil ot
ĠP O
ĠEmp ire
Ġ× ĳ
b g
cos t
] čĊ
Ġdiv e
ĠGe r
ĠGer m
ĠGerm an
ĠGerman y
Ġpi x
; ;
arch ive
à¤ ¦
Ġsin d
Ġpix el
Ġste am
ĠMi c
ĠMic h
ĠMic ro
ĠMich igan
text it
Ġà¤ ħ
Di st
Ã ī
Ġflo wer
Ġflower s
' +
Ġcatal og
Ġlet s
Ġdos e
m c
Ġno b
Ġnou s
. âĢĻ
Ã¶ n
ub l
ubl ic
ubl ish
Ġcam b
Ġfu ck
iam s
Po inter
Ġbone s
Di v
ĠSci ent
Ġest aven
Ġla un
Ã¡ l
Ġn h
dot s
Õ¡Õ ¯
Ġmer g
Ġmerg e
cho l
Ġ&& Ċ
Ġfi led
ĠSa v
ĠSav e
ve t
Ġna t
Ġnat ion
Ġnat ive
Ġnat ions
ĠLo gin
ĠBu y
.) ,
v g
po t
service s
ĠLi e
ins on
_T R
Ġensure s
Ġ\ (\
ĠI C
}} {
ira l
Ġcomput ing
ĠShe r
Ġvolunt e
ilt y
rie rs
ip h
iph er
ĉ w
Y S
ĠIs s
Ġflu x
idade s
Ġ×Ķ ×
Ġdifferent ly
.Re ad
.a wt
Ġencourage d
ĠH P
ĠKen n
ĠLo c
ĠLoc al
ĠLoc ation
ĠResource s
Ġm d
ema n
ĠPort ug
_r ead
Ġoutput s
]) ,
ow l
ak o
Ġopp os
Ġoppos ite
Ġoppos ition
uck et
ĠExp er
Ġchemical s
}$ .
Be an
Ġden ied
ia h
OR K
_n o
_no de
Ġà¤¹ à¥Ī
Ġpo se
pha s
Ġno tion
á» Ļ
** *
*** *
ĠWil son
T L
equ al
equal s
ĠSte ve
ĠCa rl
w r
wr ite
wr ap
et ies
ĠEd ward
ili b
ste n
] \
.) .
Ġto x
Ġtox ic
Ġton s
a quest
ĠNo b
Ġth er
Ġther e
Ġther efore
Ġther apy
Ġther m
Ġther ap
Ġther mal
ĠR T
acc o
acco unt
ric ult
Bl ack
à¸ ¡
Ġ-- -
- L
à¸ ģ
Ġwer en
ĠSa b
_C H
ĠBro ad
ĠBo l
Co nn
Conn ection
Conn ect
à¸ ´
ĠINT O
à² ¦
ci n
cin g
Ġfi ts
] }
Ġ× ŀ
ĠSen d
DE X
.c o
.co m
.co n
.co nt
.cont ent
.co unt
swe red
D I
DI R
ĠF L
Ġcor t
à¸ ĩ
Ġpers ist
ĠEd ge
ĊĠĠĠĠĠĠĠĠĠĠĠĠĠĠĠĠ ĠĠĠĠĠĠĠĠ
ict ed
Ġreceive r
ĠKen t
Ġtit les
ĠAs t
amin e
Ġâ Ĩ
ĠDo g
Ġna m
Ġnam e
Ġnam es
Ġnam ed
Ġci g
Re al
ut t
gor ith
Ġnewsp aper
âĢĿ ï¼Į
.h as
Ġbul k
ĠUn less
P y
Ġdent al
a Ã§Ã£o
UR I
ard o
Ġtodo s
Ġpermit ted
ĠCa b
ĠO P
Ġfoc uses
Ġfun ny
/ (
Hel p
Help er
ĠBo w
' \
" }
Ġvote s
_w ith
Ã© g
ĉ &
va ls
t c
Ġup coming
ache l
sk i
ski p
od d
Ġspeaker s
cript or
t l
tl e
ador es
AT US
uck s
Ġdri ves
ĠMen u
Ġsettle d
_c l
_cl ass
il o
ilo n
eps ilon
ilo s
Ġ__ _
He r
Her e
Rem ove
Ġi i
ĠU t
ĠUt il
iner y
Ġpun t
ĠCop y
ĠCopy right
ĠGre g
ah r
ĠCor n
ij k
ĠBu d
ĠBud d
ac s
Resource s
ome r
ph y
ĠH i
ĠHi s
ĠHi st
ĠHist ory
ĠHi m
Am ount
izz a
Ar r
Arr ay
ĠMa rs
Ġstra in
ŀ ×
Ġradi cal
ĠQ t
ĠSou nd
Ġsubst r
ĠPe d
Ġdesign er
Ġve z
_ U
es p
Ġest ud
Ġsettle ment
ĠC C
ĠHa y
Ġoc t
xi c
itat e
Ġindepend ence
# !
#! /
Ġav e
Ġave c
_V AL
Ġg a
Ġga me
Ġga mes
Ġga s
Ġga r
Ġga l
Ġga rd
Ġgal l
Ġga p
Ġga y
Ġga m
Ġche r
Ġpredict ion
DE R
str u
stru ct
stru ction
part s
import ant
Ġcha p
Ġchap ter
] *
Ġmy th
ipe r
Ġsing ular
Ġdiam eter
ĠĠĠ ĠčĊ
Ġtok ens
ĠTe x
ĠTex t
ĠTex as
Ġfem in
Î ¸
ex ist
( G
OR S
Ġlip s
cre d
que t
Ġequal ity
ly ph
. (
arian t
ĠTe n
ro d
rod u
rod uction
mar ks
M R
irc le
Ġbe i
Cl oud
ĠWi s
Ġsaving s
ĠUse d
eth e
ethe r
/c ss
]) ;
]); Ċ
urre d
ĠGe ts
Ġask s
ĠĠĠĠĠĠĠĠĠĠĠĠĠĠ ĠĠĊ
omen t
(re q
(req uest
} =
Ġpin k
Ġm p
medi ate
el o
the ir
Ġtan g
Ġlo n
Ġlon g
ĠJo s
ĠJos e
Ġest Ã¡
Ġk i
Ġki d
Ġkid s
Ġki l
Ġkil l
Ġkill ed
Ġki t
Ġkit chen
Ġki ck
Ġkill ing
Ġo w
Ġow n
Ġow ner
Ġow ners
Ġow ned
Ġentr ance
UN D
aga n
Ġmys ter
ĠSk y
cm p
_ z
Ġpd f
pro b
IS E
ĠDE FAULT
Ġher s
Ġhers elf
Ġbe am
Ġtempl e
[ k
cite p
Ġd y
Ġattempt ed
ja v
jav a
Ġpart e
ĉ {
O F
plement ation
)), Ċ
k appa
cha rg
charg e
fl y
Ġu k
- P
Ġly ing
```Ċ Ċ
A K
ĠTR UE
à« ĭ
Ġave r
Ġaver age
Ġà¤ µ
pe ople
Ġu b
'); čĊ
Ġcat s
ĠRec ord
Ġad s
Ġt v
Ġatt orney
eff ect
Ġfif th
ĠDi se
TO N
ĠS W
omet er
P D
Ġmo s
Ġmos t
Ġmost ly
Ġr h
ĠProt e
Ġ'', Ċ
Ġa o
Ġi z
ĠS S
ĠRead ing
Ġcontra d
Ġdr u
Ġdru g
Ġdru gs
Ġbag s
ĠRo n
aj a
aja x
ĠSe p
ĠSep t
Ġca nn
Ġcann ot
Ġgun s
ĠPen n
ĉĉĉĉĉĉĉĉĉ ĉ
ĠGi r
ĠGir l
pro d
prod uct
prod u
à® °
r v
Ġrese rv
ĠGr id
log o
Ġinteract ive
ĠDu b
ĠO il
ge ts
ova l
( y
/ h
lie s
_p l
Ġsupp l
Ġsuppl y
Ġsuppl ies
Ġsuppl ied
GE N
Ġlaw yer
à¤ ¯
Meta data
Le n
ĠI R
f b
arcel ona
ĠG T
: /
:/ /
Ġk h
cl ock
Ġma i
Ġmai n
Ġmai l
Ġmai s
Ġmain ly
Ġmai nt
Ġmaint ain
Ġmaintain ing
Ġmaintain ed
Ġpray er
co h
Ġcas ual
ret ch
Ġresolve d
ĠDe ath
Ġut f
@ end
In v
elf are
ĠComm ent
nc y
Ġdo l
Ġdol l
ida l
ouse s
requ ency
Â ²
ĠTH IS
Ã© c
exist s
Ġou rs
Ġours elves
bur gh
Ġbul l
In f
Inf o
ĠMc C
Ġcou rage
ope d
PR E
Ġage d
mo ck
pre ad
Ġsc ar
ID E
V O
T T
apt ure
ond a
onda y
-s h
Ġio n
Ġengine s
VAL ID
ent i
enti al
enti on
enti ty
enti c
enti als
entic ation
pu r
ira ble
Ġcourt s
Ġbear ing
Ġc Ã³
Ġseat s
Ġhe x
2 2
Ġfe d
type of
Ġban ds
ĠPo s
ĠPos t
ql i
ĠSm art
_S H
Ġdeb ut
\ !
Ġnav ig
Ġnavig ation
Ġnavig ate
Ġdue s
Ġele m
Ġelem ent
Ġelem ents
IR E
× ¤
- v
Ġà¤ ¦
k r
opt s
ĠPo r
ourn ey
NE T
.a t
á» ĳ
ĠDr ive
E F
itional ly
Ġra m
_U N
ĠFa rm
IC K
Ġmic e
H R
"] Ċ
ite n
S i
Si ze
Si m
ot imes
AC H
v t
à§ ģ
ĠSci ences
']) )
ĠHi t
... "
Ġ( [
ura ble
Ġpr od
Ġprod u
('. /
Ġmoment um
Ġal e
Ġale rt
ĠBro ok
ĠBa b
_M AX
ĠNor d
aste d
oc t
ĠG a
ĠGa l
ĠGa r
ĠGa ll
pi e
ult i
ifi ce
ĠDel ete
tra s
Ġje t
Ġtap e
'. $
Ġmor ph
Ġexp ed
Ã ¾
rea der
ex it
ul i
uli n
ulin g
Tra ck
4 0
Bu s
ida s
Ġo v
Ã³ w
Ġdi t
INS ERT
Ġoffic es
Õ¥ ÖĢ
Ġcrow n
vi ously
Ġcur r
Ġcurr ent
Ġcurr ently
Ġcurr ency
ĠMu se
fl o
flo w
flo at
ĠHist or
ĠEnvironment al
gre s
gres s
ple t
plet e
... Ċ
...Ċ Ċ
ĠGa rd
ĠGard en
Ġ| =
Ġrec ru
Ġcol lab
ĠDa vis
Ġdr e
Ġdre am
Ġdre ss
Ġdre ams
Ġdre w
ĠBas ic
ĠCo nd
ros e
Ġidentify ing
Ġmig r
ac o
aco n
Ġcomp ound
ĠGr o
ift ing
Ġprediction s
ĠA G
ĠÃ ®
" I
Ġsup erv
Ġju l
fl u
pect ion
resource s
Ġemphas is
Ĥ ĺ
ert s
Fl ag
Flag s
ĠSte el
Ġgre y
ali a
alia n
Ġmagn itude
ity Engine
Ï Ĩ
ĠS A
h n
č ĊĠĠĠ
_ X
ĠSil ver
iso ns
lin ed
_i s
Ġbow l
Ġenhance d
Ġste r
cf g
ella r
Ġform ing
.d b
Ġpu zz
ĠC V
Ġdut ies
Ġth irty
emo s
Ġfou ght
')) Ċ
ĠC T
ta r
tar get
ĠUS E
ĠPar liament
ĠF C
ile y
Ġrecip es
-c h
Ġbeg un
Ãº s
rup tion
ĠSi n
ĠSin ce
ĠSin g
ĠSin gle
ĠBas ed
Ġshe d
En vironment
ĠCa mb
ĠCamb ridge
-t h
Sp e
Spe c
Ġsin k
oco m
Ġsure ly
ĠE t
ĠEt h
Ġrepe t
ĠMot her
Ġmet h
Ġmeth od
ind s
à®¾ à®
cle an
Ġdy s
Ġca sa
ag u
agu e
agu es
Ġvary ing
à± ĭ
Ġsurround ed
Ġdrop s
Ġmistake s
oid s
Ġor e
ĠVa ri
Des criptor
ift s
Ġha st
Ġlock ed
Ġve g
Ġveg et
ĠCo me
.E vent
f p
Ġprotect ing
Ġd w
and e
ande r
ande d
ct l
Ġtim ing
ĠIn n
Ġdist urb
yl ed
, y
.C h
âĶ Ĥ
.s c
ĠHa l
ĠHal l
sche ma
Ġstrugg ling
ĠP u
ĠPu t
ĠPu b
ĠPub lic
ĠPu r
ci Ã³
Ġbroad er
unk s
.st yle
sin gle
ĠPa k
ĠPak istan
po w
pow er
ĉ e
ĉe cho
empl e
ĠG B
ĠCle ar
ĠBo r
Ġfill ing
Ġma j
Ġmaj or
Ġd s
ĠHa n
ĠHan d
Ġforg ot
pat hy
ĠD I
Ġassist ant
eng o
Ġga ming
ene s
enes s
Ö Ħ
Ġactive ly
//Ċ Ċ
Ä «
ĠTor onto
Ġprof ound
ĠResult s
ĠD R
ĠSur vey
Ġsect ors
Ġmar c
Ġmarc h
aj o
ajo r
illi on
ativ a
+++ ++
gra y
Ġwa l
Ġwal k
Ġwal l
Ġwal king
Ġwal ls
Ġwal let
'] [
'][ '
tag s
bol d
ĠSc he
vironment s
Ġk g
Ġgra in
P s
ensure math
ivers ary
gu n
cci Ã³
bur n
ell i
elli ng
elli g
Ġdol lar
Ġdollar s
à¥ Ĥ
Ġ}, ĊĊ
Ġdes de
Ġ" [
asm a
Ġpued e
Ġcook ie
Ġcookie s
option al
V I
VI D
ĠCO VID
VI CE
ĠX X
ĠSon g
cs v
Ġad e
Ġade qu
Ġadequ ate
Ġpix els
cp y
ĠJO IN
Ġc b
lete s
LO C
LOC K
Ġelection s
ĠAr c
ĠArc h
h d
ĠAs k
S W
Ġpres c
ug s
spe cial
Ġflo ws
ĠĠĠ Ġĉ
> "
""" Ċ
Ġn n
Ġcry st
ĠT a
ĠTa l
ĠTa x
ĠTa g
ĠTa b
ĠTab le
rus t
Ġpal e
Ġoccup ied
): ĊĊ
S G
>< ?
- D
Spe ed
PT ION
ĠProt ection
an ys
ori c
Ġgrad ient
Ġti e
Ġtie d
ĠG O
Ġpo u
Ġpou r
Ġinsp ir
ĉb ool
Ġvert ices
J S
JS ON
AM P
c v
oto r
Ġinstr u
Ġinstru ction
Ġinstru ctions
Ġinstru ment
Ġinstru ct
Ġinstru ments
ĠA B
Ġsole ly
ho u
hou se
? '
ost a
Ġmeta b
Re v
_C L
Ġrev ol
Ġdis rupt
Ġimm un
Ġimmun e
ere s
ĠP H
ĠPH P
hor s
ill o
Ġpres t
Ġstead y
-- Ċ
Ġacqu ire
Ġacquire d
Ġpub l
Ġst y
Ġsty le
Ġsty les
col l
ica s
+ =
ĠPh D
iza rd
Ġabsor b
set up
ĠE L
Ġpers u
ĠBra d
Ġdec imal
ack er
cho ice
aire d
Ġtravel ing
ribut ions
Ġnou n
_m od
ĠCo u
ĠCou nt
ĠCou r
ĠCou rt
ĠCour se
ri ent
ĠĠĠĠĠĠ Ċ
_ST R
A E
oth e
othe r
othe s
ĠEm er
ĠIll inois
ĠAl e
ĠAle x
ic ens
" '
urer s
_i dx
car t
ĉĉ Ġ
ue ue
LE S
de x
<< "
clos ed
Ġp c
Ġ$ $
ou p
Ġdig est
contain s
Ġc s
Ġà¦ ķ
Ġend e
Ġende d
Ġtip o
ĠBu s
ĠBus iness
ĠBus h
| Ċ
ĠAp pro
Ġadv ers
Ġcool ing
Ġthe ore
Ġport s
mi tt
mitt ed
Ġdecrease d
Ġgen re
Ġtong ue
ĠDe ad
aa n
Ġtur b
Ġ>> >
_m in
ja n
Ġlicense d
Ġáĥ Ľ
ĠNov a
Ġth ee
Co mm
Comm on
ni k
.cl ear
ess o
esso r
Ġdivid e
Ġdivide d
AN S
Ġv m
ĠCr o
Ġdish es
Ġge m
ĠHon g
Ġcere mon
ela y
) |
ĠEr ic
pa ra
para m
para ms
Ġwh ilst
sc r
scr ipt
scr een
java script
script ion
scr oll
ĠE D
ĠBit coin
B M
De m
, p
ine n
inen t
Ġden s
Ġdens ity
re ncy
Ġgot o
Ġaffect ing
ĠRos s
No des
Ġqui t
Ġquit e
-l g
Ġe u
Ġflo ating
ĠSov iet
Ġmit j
_C lick
Ġla g
Ġbill s
Ġcrop s
Ġsor ts
ĠTy p
ĠTyp e
Ġcr ef
Ġtow ns
th es
Ġattempt ing
ĠâĨ Ĵ
Ġtal e
Ġdeclar e
Ġdeclare d
Ġscal es
im b
ato es
ĠOn t
ĠCS S
urch ase
ĠÃ ¶
ĠNe g
Ġas h
Ġcl ust
ĠFe r
ĠBa n
ĠBan k
ĠBan d
ĠBan g
Ġmoder ate
Ġten ia
ĠMu st
Ġ' $
eme n
emen t
Ġimpl ement
emen ts
Ġimplement ation
Ġimpl ements
Ġimplement ed
e u
eu r
RE G
Ġencounter ed
á» ĭ
nic a
pro v
_mod e
_mode l
Head ers
Ġhighlight s
ÃŃs t
Ġprin ter
handle r
di g
Ġà¤ °
ĠDis ney
Ġnu r
inte ger
/ L
Ġhandle s
=" _
ind a
Ġspr ay
Ġembed ded
( X
Ġnob ody
Ġappl e
ĠAl t
Ġmu d
Ġexp ense
Ġexpense s
ĠSe l
ĠSel f
Ġba y
ico de
Be l
Ġ'< /
Ġmol d
Ġsuc c
Ġdra ma
Ġ× ķ
pl ug
plug in
ĠSa le
Ġdist ant
Ġtea r
Ġtear s
ĠCo s
ĠCos t
Ġnic k
Ġfavour ite
> )
end region
']) Ċ
ĠM E
la p
ĠPos ition
/ r
i ations
Ġfe l
Ġfel t
Ġfel l
Ġfell ow
.tr ans
ĠIr on
Ġcompens ation
Ġi v
Ġà¤ ²
UR N
Ġju ice
ï ½
Ġdas s
C r
Cr e
_ u
_u rl
_u n
asc ular
Ġ< -
ille s
w i
wi n
wi d
wid th
wid e
win g
Ġgro wing
Ġdra wing
wid get
win d
wind ow
wid et
L anguage
Id s
opl es
note s
iss a
aire s
E B
Ġcy ber
pri v
rows e
rowse r
column s
Ġgenu ine
anch e
k w
kw args
ah l
ole n
Ed ge
m n
Ġvot ing
aro und
ĠBr u
Ġfill s
ĠNav y
Ġreveal s
ce st
ĠGi l
Ġson s
arm s
nt ic
ico s
enable d
PA R
ma g
_VAL UE
Ġconcent r
ise n
time out
Ġminim ize
ĊĠĠĠĠĠĠĠĠĠĠĠĠĠĠĠĠ ĠĠĠĠĠĠĠ
Ġassum ing
we n
ĠCol umb
ĠColumb ia
alo g
ĠInf o
Ġtreat ing
">Ċ Ċ
× ¡
Ġrid ing
ara n
aran t
] /
Ġcompound s
Ġster e
ar v
ton s
- T
li ents
her o
irt s
meta data
Ġdiam ond
ĠNa p
Ġencou rag
r ays
Ġph r
Ġphr ase
Su r
à° ¨
Ġimplement ing
ĠDu r
ĠDur ing
A I
AI N
AI L
ri k
_tr ain
ĠDE S
Ġcond em
Ġpa rs
Ġpars e
Ġpars er
bl ed
()) ,
Z E
ĠS K
Ġ" @
we ak
Ġsl a
Ġadd r
Ġaddr ess
Di sc
Ġ}} Ċ
ĠLew is
over ride
Ġout line
Ġmyster y
Ċ ĉ
ĠA V
Ġja w
ail ure
Ġpel s
, .
Ġreceive s
ĠV e
ĠVe r
ĠVe n
ĠVe ry
empl o
limit ed
L ibrary
Ġlog s
Ġtow er
Ġpress ing
ax y
? ,
comm it
)" ,
áĥ ķ
ĠP i
Ġsou r
Ġsour ce
Ġsour ces
aug e
vention s
ĠRE S
ĠCh o
.r f
Ġgent ly
enn is
) ^
plug ins
Ġbro n
Ġbond s
Ġtw elve
sequ ently
Ġdisp ar
ĠThe orem
Ne ws
cd n
widet ilde
Ġ); čĊ
à¦ ķ
ĠMo h
mi r
she et
Ġd augh
ess a
essa ge
essa ges
.m essage
(m essage
ĉ S
N a
Na v
uce d
Ġmerc h
UT E
Ġmac ro
NE R
Ġti d
ĉ i
ĉi f
ĠOption s
ï¼īĊ Ċ
Ġap par
ĠV M
ut y
Ġcapt ain
re ly
l p
âķ Ĳ
Ġkne e
ly n
Ġdefe at
(c h
(ch ar
Ġ}) .
Do m
() [
Õ µ
az i
adi um
Ġgro ws
Ġs q
Ġsq u
Ġsqu are
Ġsq l
ĠSum mer
L M
ĠCo nn
ĠConn ect
ĠConn ection
tot ype
ĠJo h
ĠJoh n
Ġgall ery
Ġhandle d
fold er
Ġcompute d
. Y
Ġ( {
Ġi OS
Dom ain
(v ar
< =
ang a
_r ec
}" ,
áº ¥
Ġdy ing
lab els
ab l
abl e
abl y
abl es
abl ed
Ġprob ably
Ġvalu able
Ġcomfort able
Ġapplic able
Ġreli able
abl a
Ġsustain able
vari able
Ġafford able
n abla
En able
Enable d
asse t
asset s
roc k
ĠHaw ai
ĠMi nd
Ġten s
Ġtens or
Ġtens ion
hou r
Ġbab ies
.r eg
Ġign or
Ġignor e
Ġignor ed
Æ° á»
ĠM C
ĠDu e
Ġhar vest
[ n
Sub mit
Ġlog ged
)čĊ čĊ
Ġbel t
ni s
A h
Ġri p
ĠHa d
ĠSim on
Ġcompan ion
Ġpe rf
2 3
Ġsurg e
Ġsurge ry
own ed
foo d
W M
uff le
Ċ ĠĠĠĠĊ
n l
à¦¾à¦ °
ancel l
net ic
Ġcontra ry
.e n
.en d
Ġmagn et
Ġmagnet ic
Ġfat e
wr iter
alla s
air y
Ã± a
iol ogy
ong s
the w
pt h
` .
Ġsegment s
Ġcompar ing
ĠPa s
ĠPas s
Ġol dest
ĠJ S
ĠJS ON
ĠBur n
Ġpla cing
mer s
Iter ator
ov o
Ġdiv ine
ia c
ocket s
tra ce
ĠSale s
Ġn s
az y
( F
Ġforma ts
Ġinn oc
Ġnob le
Wh ich
ĠN C
ĠJu an
NG TH
pect s
xf f
Ġgrav e
- y
-y ear
(); čĊčĊ
( /
RO UP
our i
W H
â Ī
cher s
Ġtea chers
Ġci v
Ġciv il
Ġswitch ing
W R
ĠJ a
ĠJa n
ĠJa c
ĠJac k
ĠJack son
ĠJa ne
ĠJa m
ĠJam es
ĠJa p
ĠJap an
ĠJac ob
spe ed
ï¼ī ï¼Į
ym ph
Ġpa rad
Ġki n
Ġkin d
Ġkin g
Ġkin ds
Ġking dom
C B
ru ctions
ĠFa b
ĠCr a
Ġexpand ing
Ġprin c
Ġprinc ip
Ġprinc iple
ĠN i
ĠNi c
ĠNic k
Ġra b
th m
AD D
Ġva g
Att r
.j unit
Ġdesign ing
S ION
Pre f
appro x
ĠO T
Ġdig n
Ġr s
Ġsing ing
urs e
ĠT E
Ġpin t
pa l
Ġk u
na n
Ã© l
Ġda d
Ġharm on
Ġmale s
Ġpan t
Ġn y
ĠÕ °
Ġcome n
Ġmysql i
ĠGra nt
go t
ta t
ĠDI S
ĠSet s
St y
icion s
ob i
obi le
rypt ed
á» ĩ
á» ¥
Ġje d
ow nt
ĠVis ual
( N
tr i
tri b
tri es
tri m
ita ls
isa n
ĠDu n
ĠFe l
bot h
ĠSi x
are r
ore n
Ġper Ã²
!!! !
ng th
ree d
Ġ: )
.I nt
gorith m
Ġvo y
à¦ ¤
asse s
ĠWind ow
G C
Ġsynt ax
Ġnam ely
Ġlo v
Ġlov e
Ġlov ed
Ġlov ely
Ġlov es
Ġlov ing
ĠÃ §
Ġdens e
' "
, (
ĠR equ
Ġpi r
Ġmix ing
ry ing
ĠStr uct
Ġill ust
mo use
Ġconsum e
Ġconsume r
Ġconsume rs
Ġja m
ĠVi n
Ġres ort
Ġdistance s
Ġ& =
] -
]- >
Ġty ping
ĠEl e
ĠEle ct
ĠReg ion
vo ke
pi c
Ġvac ation
| ^
Reg ion
.p l
no m
nom bre
nom e
.de bug
ĠK r
lo v
ab c
Ġreserv e
Ġreserve d
Ġopt s
ge o
od b
Be n
Ġresid ence
Ġfa l
Ġfal l
Ġfal ling
Ġfal ls
lin gs
Ġfee lings
Ï İ
__ ,
Õ¡Õ µ
ui r
Ġ--- -
ur u
bo y
TE XT
ID TH
Ġobtain ing
Ġpla tes
Ġ! !
go n
ret t
Ġpurs ue
Ġzu r
sh a
sha pe
sha re
share d
Ġemb od
Ġble nd
Ġmotiv ation
Ġsheet s
O B
ca s
cas t
cas e
Ġoc cas
Ġoccas ion
Ġbroad cast
Ġfore cast
cas es
Ġstre ams
! [
ĠBre ak
(t r
(tr ue
ĉc out
Ġcryst al
ĠGa b
ers hip
Ġdu b
ĠO t
ĠOt her
Ġdone s
ĠPo d
dist ance
ĠTr o
Di e
ĠM s
Ġq ued
': '
Ġca so
ĠFer n
Ġ" )
Ġtemp t
o at
ita s
ill ance
Ġceremon y
rec tion
det ail
detail s
Ġscr atch
Ġfr ustr
avi d
Ġbel l
); ĊĊĊ
Ġsub sc
Ġequal s
H L
Ġfe ver
} else
Ġmatch ed
bon e
E v
Ev ent
Ev en
Ev ents
uc i
Ġesc ol
Ġrelease s
" ?
ina s
Sc h
ak h
< a
ĠMo de
ĠMode l
Ġso d
]) .
Ġsn e
Go d
Ġsubt le
ici Ã³
Ġri c
Ġric h
Ġric e
Ġconsist ing
ĠConst ant
ĠB L
Gu i
ec a
eca use
S Y
">< ?
iff s
< p
Ġrac ial
Å Ħ
Pref ix
ĠLoc k
ĠCons ult
ete s
ĠMat ch
Ġlad ies
p d
pd f
Ġc c
Ġterr it
Ġterrit ory
6 0
ĳ ×
ĉe rr
Î¹ Îº
Ġbo m
Ġbom b
> .
LE D
ĠU l
ĠUl t
ĠPi n
_U RL
ORD ER
sch ool
ANG E
comp at
ĠTa i
Ġpay s
ĠDo r
V e
Ve r
Ve rt
Vert ex
Ġd x
eta data
Ġsp o
Ġspo t
Ġspo ke
Ġspo ns
Ġspoke n
Ġspo ts
Ġspoke s
á Ł
Ġpow ered
Ġà¦ ¸
-to p
ING S
Ġsea m
to Be
sa l
sw itch
MI N
Ġ* čĊ
VE L
cri t
Ġbase s
ĠGi ve
ĠGive n
ĠAnt h
"], Ċ
Ġdark ness
Ġgi t
cons in
Õ¸ÖĤÕ ´
eme s
bec ause
api s
arc hy
Ġenum er
ĠST R
.co lor
_r ef
est y
Ġshel ter
Ġden ote
irc raft
F urther
ĉĠ Ġ
ĉĠĠ Ġ
Fi nal
Final ly
vert y
ida e
Ġcampaign s
Un known
Ġ' Ċ
AP P
Ġhol y
Ġportion s
Ġa j
clos ure
or r
orr y
lin ks
(" <
Ġcharg ing
ĠCho ose
Ġi b
Ġsacr ed
_tr ans
st ants
Ġrac es
ĠT X
ĠGa s
rib ed
\ }
Ġindependent ly
ĠHo p
ĠHop e
cha rt
Ġtend s
ĠChe m
og s
Ġm b
Ġli g
Ġlig ht
Ġlight s
Ġlight ing
ĠBel g
ĠÂ ¿
add le
ĠTa n
_H E
\ ]
ier t
W A
OUN T
Ġprob e
Sc ene
ed u
Ġc p
ĠWin ter
ĠS U
Ġcut e
.b e
.be gin
und a
unda y
(n um
_no t
angle s
ing e
inge r
inge rs
r x
== '
tab ular
][ "
ĠLi nd
Ê »
'; čĊ
ban k
ev in
Ġph osph
pt s
Ġconce pts
ĠMad e
T Y
TY PE
est amp
ĠO ak
Ċ ĉĉ
Ġpe c
pu te
coll ect
collect ion
ĠBat h
ĠC M
one d
Ġball s
Ġtrop ical
, :
- %
Ġunt o
pha bet
ĉĉĉ ĉĊ
ĠS N
ĠE M
âĪ Ĵ
Ġzu m
_for m
ĠV I
Ġmu l
Ġmul t
Ġmul ti
Ġmulti p
aught er
Ġd aughter
esc h
isi s
ĠDo c
ĠDoc tor
tes y
Ġsh a
Ġsha ll
Ġsha p
Ġshap e
Ġshap es
Ġshap ed
aa r
sequ ence
Ġal i
Ġali gn
Ġali ke
Ġalign ment
ĠH u
ĠHu m
ĠHum an
ĠSpe ed
Ġpart ly
ran ce
ze s
co mb
elli te
/** čĊ
Ġà¤ Ĩ
agn e
Ġp t
s r
sr c
_ ;
Ġos c
Ġosc ill
Ġrec ycl
Ġ"", Ċ
Âł anys
ERS ION
the m
them e
sw ers
go v
Ġcur e
i ances
Ġengine er
Ġengineer ing
Ġengineer s
: #
Ġdt ype
Ġto y
Ġtoy s
P i
Ġdist r
Ġdistr ib
Ġdistr ict
". $
step s
_f e
Ġcircle s
Ġport folio
Ġrat ed
k k
er ic
post s
exp l
× Ľ
ola s
Y P
YP E
ĠAnn a
ĠC u
ĠCu r
ĠCu p
ĠCu b
ĠCu t
Ġca rb
aud io
ctr l
S n
fa il
ĠMa j
ĠMaj or
ĠTri b
Inst all
ĠUn d
ĠUnd er
( u
(u rl
ĠPas t
Ch o
ĠE V
Ġbes ide
Ġbeside s
ĠRec ords
ctr ine
She et
Ġsha de
Ġto b
of t
anda l
Ġcurve s
à¸ Ķ
| Ġ
Ġwrap ped
Ġge s
Ġges t
Ve c
z eta
rate s
Ġdepend ency
erc ise
s z
"} ,
"}, Ċ
B i
Bi g
Bi t
Ġsou p
clus ter
ĠMag ic
st a
sta ck
sta r
star t
sta t
stat ic
stat e
stat us
stat s
sv g
_i ds
') čĊ
La b
Lab el
Ġpast e
l ÃŃ
Co ll
Ġas p
Ġasp ect
Ġhelp er
H C
_ I
_I N
_I D
Ġspeak s
Ġstre aming
ER Y
iso r
Ġcl s
Ġz o
vi r
Ġvote d
ĠHan s
she ll
ho m
hom e
equ iv
char acter
Ġprob able
els on
âĢ ³
v d
ff f
fff f
Tr y
[k ey
see n
xi t
Ġrepeated ly
ĠBl u
ĠBlu e
Ġsym met
alia s
Ġobs c
£ ¼
pro c
Î ²
ĠGall ery
Le g
ĠTal k
, b
( čĊ
(' \
pro m
âĢĻ ,
Ġ. /
ĠAt h
Ġpi er
ĠU V
Ġgod s
ĠMo ney
Ġsen ds
is ely
ĉ l
ĉl og
ier e
Ġmagic al
Ġscript s
Ġvo m
ĠAl ways
ĠP s
ĠC e
ente s
O s
ĠE C
Ġbed s
.trans form
ĠTh er
ĠTher e
ĠTher efore
mu s
Ġpa ras
Ġl ÃŃ
. O
.O n
à¤¾à¤ ¨
Dec l
Ġfriends hip
Ġid i
à´ ¤
ota tion
_ )
Ġ|| Ċ
ro b
Ġintellig ent
ute r
han g
ĠIS O
Ġfif ty
uit e
ĠNa t
ĠNat ive
ĠNat ions
ĠNat ion
ole r
ad r
ĉd ata
_R EG
Ġcitiz en
Ġcitizen s
help er
ĠMex ican
Ġfl ip
Ģ à¸
à¦ ²
Ġexplain ing
Ġpin s
mp loy
ĠFa m
ĠFam ily
Ġmem b
Ġmemb ers
Ġmemb er
Ġmemb ership
Ġmemb r
ĠUse rs
Rev iew
ude s
li s
lis h
lis t
lis hed
Ġestab lish
Ġestablish ed
Ġestablish ment
Eng lish
Ġaccom pan
Ġaccompan ied
Ġaccompan y
Ġali en
ana s
nu t
Ġdive r
Ġdiver s
Ġdiver se
ĠDrive r
zi e
ĠHa rt
Ġbus t
Ġ"< /
mat e
mate s
Ġco mun
og g
ogg le
ĠS L
Ġbare ly
ĠEnt ity
Ġc d
Ġbi te
Ġ[ âĢ¦
hab itants
ĠPo w
ĠPow er
ĠEm b
Ġ? ?
Ġmed i
Ġmedi a
Ġmedi cal
Ġmedi c
Ġmedi um
Ġmedi an
gre at
ob l
Ġcollect ing
Ġsea l
[ x
Ġmarg inal
cp u
Ġdesigner s
Sch e
Sche ma
--- --
to l
ĠÃ ¥
Ġcompet e
ĠHu r
ĠY e
ĠYe s
ĠYe ar
ĠYe t
hel d
Ġbull et
S N
áº Ń
Ġ"" Ċ
N R
od i
sen t
ĠMu ch
ĠWARRANT Y
Ġanti c
Ġantic ip
Ġharmon y
por tion
àµ Ĩ
La t
cl s
.f l
ĠMo l
/ '
ID S
Ġscr ap
Ġtie s
ĠPres ent
arm a
osp el
LO AD
: .
uro p
urop e
ĠĠĠĠĠĠĠĠĠĠĠĠĠĠĠĠ <
spec ific
co nc
Ġwrap per
ĠTo ast
Ġau g
Ġpo le
ant h
Ġtri ps
ĠRa p
Ps i
exp ect
expect ed
Ġun expected
mo nt
mont h
Ġdataset s
mas s
ĠDef ense
U X
k h
Ġsan g
Ġr c
x s
Õ ¿
Ġ{čĊ čĊ
ĠMont h
ĠOT HER
he ntic
ne a
Ġinspir e
Ġinspire d
elle n
ellen t
fol low
ĠFe d
Ġhyp othes
Ġcross ed
Ġpen et
ĠUn ityEngine
ĠBr y
_u p
l f
am o
amo s
amo unt
_de f
plet ed
Ġtrem end
ĠJos h
Ġtw ist
ester day
Ġy esterday
ung e
unge n
oon s
ul u
ulu m
ric ulum
ulu s
.F ile
Ġmar i
ock ey
Ġrub ber
q q
ador a
Ġachie ving
Action s
M s
Ms g
ĠHo ld
ĠMor t
sta n
stan d
stan ce
stan t
stand ard
Ġds t
Ġcy l
O G
xt ure
Te xture
i xture
. i
.i d
.i n
.i s
.i o
.i nt
fo ur
fort un
ĠBy te
Ġsi ÄĻ
# +
vari ant
CRE ATE
Ġà¦ ¬
Ġresist or
ARN ING
co d
cod e
Ġa h
Ġah ead
ĠNote s
Ġche er
/Ċ Ċ
âķĲ âķĲ
ĠLe v
ĠLev el
Ġ] ;
ĠG P
ĠGP IO
Ġprot agon
Ġrating s
ee r
_R O
ĠF R
ĠFR OM
ĠL l
ĠSE R
Ġcamp s
re z
.U I
uni on
ing ham
term in
Ġpet s
Ġpic king
Ġtob acco
ĠAnn e
Te mp
Temp late
ĠColl ect
ĠCollect ion
Ġregard s
)$ .
ik o
ome d
Ġtar d
) }\
ĠR F
Ġoccas ions
Sup er
ame n
amen t
amen te
amen ts
amen to
ourn ament
, B
Ġà¤ ¤
Ġbas s
d n
Ġha dn
Ġmo nt
Ġmont h
Ġmont hs
Ġmonth ly
pri l
ie u
Ġgi g
Ġpersist ent
mi nd
Al t
ĠBal t
Ġtel ev
Ġro u
Ġrou nd
Ġrou t
Ġrou te
Ġrou gh
Ġrout ine
Ġrou ter
Ġrou tes
Ġrough ly
Ġlast ing
T I
| -
ura s
the ad
Ġdecline d
Ġodd s
Ġran ks
Ġdon de
Ġwheel s
icens ed
Â º
Ġkn ife
Ġsur f
Ġsurf ace
Ġsurf aces
opt im
ma d
mad e
ney s
Ġwar s
ann e
anne l
anne ls
anne d
anne r
ĠIt er
t u
Ġsqu ad
ĠC F
di d
TER N
ams ung
stan ces
om p
.cont ext
Ġfu e
Ġdro ve
ĠMa nd
Ġcross ing
Ġrev el
- R
question s
ata ble
Ġse q
Ġseq u
Ġsequ ence
Ġsequ ences
t m
tm l
tm p
Ġconsist ency
.cont ains
l ibrary
Ġconsume d
Ġ'_ _
build ing
Ġri v
Ġriv al
ĠWis consin
ĠUn like
Ġn d
LO B
Ġà¦ ª
Ġhaz ard
acher s
Ġoccur ring
ĉ n
ĉn ew
Ġsel e
Ġsele ct
Ġsele ction
Ġselect ing
ĠMary land
li ct
"] )
ush er
Ġadvance s
Ġterrit or
Ġspeed s
.M essage
hel l
Ġpres um
ack ed
_O K
rop ol
fa r
far e
Ġwel fare
.S t
hu m
ĠOnt ario
Ġrec urs
Ġ' {
Ġhop ed
Ġsu a
ĠAp ply
depend ent
ĠCond ition
Ġcheap er
Ġround ed
Ġtr u
Ġtru e
Ġtru st
Ġtru th
Ġtru ly
Ġtru ck
Ġnur sing
Ġdis charge
la h
Ġpod cast
lic ense
Co nd
Cond ition
DE FAULT
ĠFr a
ĠFra n
ĠFran ce
ĠFran c
ĠFran k
edu c
Ġll oc
comp ut
Ġna p
Ġme g
bu ilder
}^ {\
ĠAb s
ĠAbs tract
vol ume
Ġcav e
b p
Ġfar e
art e
arte r
arte rs
sk y
à¤° à¥įà¤
Ġvoc al
ric a
ĠAf rica
ĠAfrica n
rica l
Ġenumer ate
ĠBo t
ĠBot h
ĠPe ar
Ġmar t
ĠE S
he x
inc h
AR K
ĠAdv ent
Ġda l
or f
ĉe x
Ġp g
Ġwarm ing
L I
Ġvi c
Ġvic t
Ġvic tim
Ġvictim s
Ġvic e
à® ¤
Ġauto r
a ight
F D
Ġdepend ence
esc ape
Ã³ s
Ġtra p
q a
Ġpur ple
dition ally
ĠU k
Ġfund ed
rie l
Ġur i
Ġarr ib
.r ender
Ãº n
_I M
ĠÃ Ĺ
Ġmission s
En v
Ġgra des
ĠE R
ĠER R
- H
expr ess
Fil l
Ġscre w
chem e
Ġsan s
2 8
Ġsoci et
Ġsociet y
ĠComm ents
ĉĠĠ ĠĠ
ĉĠĠĠĠ Ġ
De r
ced ure
Ġbase line
ight ly
Ġhor n
Ġsurv iv
Ġsurviv al
Ġsurviv e
Ġphrase s
ond e
onde r
Ġlo b
Exp r
Expr ess
ĠFl o
ĠFlo r
ĠFlor ida
ĠFlo w
ĠPo ly
ĠHu b
p k
ĠPack age
(t arget
Ċ Ġ
- z
ĠCa ss
enz a
ĠS Y
- .
R Y
Ġfear s
_LO G
Ġle v
top ic
Bo ol
Bool ean
li ca
lica tion
app lication
isc al
ina ls
Ap r
ence r
ra ined
ched ule
mus t
el n
Ġvent ure
eller s
2 1
Ġfarm ing
Ġsuppl iers
ĠT u
ĠTu r
Ġeleg ant
li t
Ã¡ r
Option al
}\ \
ĠDa s
Ġfol k
Ġfolk s
Ġ- *
Ġ-* -
SI ZE
á» §
ĠYe ars
}) ĊĊ
straint s
Ġfo o
Ġfoo d
Ġfoo t
Ġfoo ds
Ġfoot ball
Ġfoo l
Ä ĵ
Ġra y
Ġchem istry
ĠD M
ĠF O
ĠFO R
Ġben t
Ġesc al
ĠSw itch
Ġdesc end
ĠC i
ĠCi t
ĠCit y
duc tion
.x ml
Ġcru el
Ġburn ed
Ġstra w
Ġton ight
va rs
ĠNi k
Ġbase ball
Ġpr ol
Ġbo s
Ġbos s
Ġdistrict s
Ġcount less
Ġcount ing
IE W
Pres ent
. <
.< /
Ġco t
Ġcot ton
ri j
Ġmetab ol
Dec imal
ĠDa l
ĠBro n
Ġwarn ed
Ġshe ep
Ġdress ed
ĠNew ton
cd ots
me l
ivo t
V P
Ġcup s
Ġcon qu
Ġga z
ĠÅ ¾
(' <
ĠJa y
es ides
ana ger
vert ical
Ġap r
Â ½
à¸ ķ
obs erv
iter r
ĠK a
ĠKa r
ĠKa t
Ġstraight forward
ĠOffice r
n m
Ġwash ing
ero n
sha l
shal l
Ġco mic
ig hest
mar ket
× Ĵ
ĠA y
ue go
IS H
Ġestablish ing
S U
ress ive
Ġprog ressive
ĠNE W
ata n
× Ł
9 9
ĉg l
ĠBul l
ede n
zi l
Ġwal ks
v r
PD F
Cons ole
ote r
Ġment re
Ġcur l
Ġbe y
Ġbey ond
ĠCo mb
Enumer able
ĠGen e
ĠGene ral
ĠGene r
DE F
Ġdim in
duc tor
ĠCa pt
ĠCapt ain
S K
Ġag g
Ġagg reg
Ġagg ress
Ġagg ressive
ĠSur e
_a l
_al l
ĠW y
à¸ ¢
_; Ċ
Õ« Õ
Õ«Õ ¶
is y
à¤ ¬
Ġrandom ly
ĠKa l
Ġfe as
Us age
ĠAl g
ato n
Ġchar ity
war t
w y
phan t
ĠRa b
di a
- G
Ġwhe at
Ġmembr ane
*Ċ Ċ
the orem
Ġtempl ates
Ġpull ing
rypt o
aud i
Ġbot her
/b in
.s p
.sp ring
.sp lit
ear ly
.to p
Dist ance
ĠDom in
stat ion
Ġprol ong
mer ge
ĠAnth ony
sa fe
ĠB R
ĠPe l
Ġcorn ers
Ġor n
ĠOt hers
à¯ Ī
Ġhotel s
Ġapr o
rev iew
( I
}) \
Ġscal ing
on ical
Ġnos t
× Ŀ
Ġrac ing
ci e
cie nt
ĠN A
ĠNA S
ĠNAS A
ĠPe ace
ĠBa g
isi ble
ck now
ava l
ert o
f ess
p f
ĠÃ ¤
Ġvolunt eer
Ġvolunteer s
Ġll e
eg o
ĠDi ego
or ary
Ġmort gage
Ġupd ating
_T O
Ġtra s
ĠHo ward
G M
Res et
Ã¡ c
< li
Ġholiday s
Ġrecept ion
T w
Tw o
hor a
Lo op
ĠTe l
ĠTel e
ĠVe rs
ĠVers ion
ub a
ul p
ulp t
Ġsc ulpt
âĢĻ .
C V
ere r
Ġacid s
ĠSa y
Ser v
Serv ice
Serv let
Serv ices
ĠG h
ouse l
as ive
sc ience
Ġbug s
Ġi c
Ġic e
Ġic h
G P
! âĢĿ
ĠI E
p b
ĠRo t
Ġgrant s
Ġtri ple
V R
Id x
Ġestab l
ĠM L
Ġtras h
sy m
sym bol
dest roy
ĠMo m
": [
Ġpar liament
Ġest o
Ġesta r
ĠDes c
_SE T
gen cy
He y
Â ©
NU M
ĠÃ® n
ĠHer o
ĊĠĠĠĠ Ġ
Ġbi j
Ġimpl y
_A T
fl at
Return s
', $
ro v
Ġhan ded
Ġsmile d
Ġs Ã©
zen s
ema le
ĠMer c
ato s
Ġru g
Ġdipl om
Ġhabitat ges
2 7
-e x
Al i
Ali gn
Align ment
.A n
su n
OL OR
ĠGP S
cie s
Ġdepart ments
ĠÂ §
am pl
N I
pre f
pref ix
ĠDa ve
ĠA F
ĠLe n
Ġdur ch
Ġpi d
eto oth
Ġca nal
rior ity
_d b
e or
owner s
ript or
ĠBi o
Ġsha r
Ġshar e
Ġshar ed
Ġshar ing
Ġshar p
Ġshar es
ĠTa r
ĠTar get
ĠAr k
fo n
fon t
fon y
Spe cial
B P
IN K
Ġdru m
ĠMi x
Ġque en
Ġnur se
Ġass ass
ethe less
ĠTra d
ĠTrad e
à¯įà® ķ
Ġre un
p n
pn g
w l
tic a
ĠM I
ĠMI T
Ġprot o
ĠÃ Ń
ĠSol ar
ĠHand le
Ġillustr ate
Ġillustrate d
ync h
ynch ron
Ġgl ance
Des ign
ier re
áĥ ¡
Ġabs ent
ĠX V
ivo s
Ġnew er
rea ch
Ġfo reach
ĠIs a
ÃŃ c
Ġren ov
fill ed
achel or
([ Ċ
ĠReview s
Ġbo d
Ġbod y
Ġbod ies
ĠAB C
oca b
ĠDi et
itch es
ĠRegion al
El s
see d
Ġdas h
à¸ ļ
ĠPo pe
.en v
AGE S
ĠR A
ĠRA M
¤ Ĳ
hell o
Ġdir t
Ġdirt y
.I O
prot ocol
Ġasp ir
ĠLem ma
ĠN T
INT ER
fix ed
Ġdri ed
Ġnu ms
aint s
ĠMi ni
per m
text width
ĠBo s
ĠBos ton
Ġla p
Ġlap top
Õ¡ ÖĢ
2 6
Ġk w
ta n
Le ar
Lear n
Ġhighlight ed
Ġa i
Ġai r
Ġai m
Ġai d
Ġai x
Ġaim s
Ġair port
Ġdes s
**Ċ Ċ
Ĥ à°
arte n
us a
usa l
usal em
usa ge
Ġdefeat ed
/j s
/js on
tag e
bi d
RO W
Ġcook ed
Ġm t
Ġelectron ics
ĠOF F
ud ge
udge t
ĠKh an
Ġun o
Ġmi m
onom y
ĠLa y
ĠCa pe
Ġscheme s
Ġk l
ĠComm ons
ĠP E
orn o
Ġtend ency
Ġbear s
ĠBlu etooth
mo uth
== "
Ġag ing
wide hat
he red
at hered
----- -
au c
čĊčĊ čĊ
ĠBab y
ete d
se d
Ġclo sed
pres sed
_up date
Ġcle ver
Ġseek s
à¸ §
hy d
Ġ' :
Ġfort y
Ġà¤ Ĺ
ĠH R
cc a
m k
ĠCast le
) &
ĠEst ats
yer s
Ġpla yers
int s
dis k
Ġli d
web kit
Å į
Ġstep ped
math sf
te ra
à² ²
áĢ º
(" [
ĠExper ience
fr e
fre e
.T r
Ġsubst ances
Ġcons e
Ġconse qu
Ġconse rv
Ġconse nt
Ġconsequ ence
Ġconsequence s
Ġconserv ative
ĠFac t
FO NT
pk g
Note s
hal f
'> Ċ
amo us
(v al
(val ue
Ġcredit s
Ġwarn ings
yl on
ĠSy n
unch ed
Ġnie t
ĠBa rt
_pr ice
}_ \
ĠCo ld
Don ald
áĥ ł
Ġfert il
ĠHa rr
ĠHarr y
ĠHarr is
ĠA w
ĠAw ard
ĠAward s
to o
too l
too ls
.P arse
Ġcontin ent
Ġdefault s
r h
rh o
ĠG M
Ġban king
r ations
_A L
à² ¨
blem s
B Y
Ġhe s
Ġind igenous
.Re s
Ġappe t
hes is
yg en
bi a
bia n
Ġsuppl ier
Ġste ep
ij a
Ġvi e
Ġvie w
Ġvie ws
Ġvie wing
ĠÎ ´
Ġ _{
Ġsoc k
Ġsock et
Ġfemale s
Ġaug ment
Bo b
phas e
e enth
Ġpra ise
Ġfo t
ĠPr i
ĠPri nt
ĠPri me
ĠPri m
Ġstruggle s
_form at
Ġla n
Ġlan d
Ġlan gu
Ġlangu age
Ġlan ds
Ġlan g
Ġlangu ages
Ġ/* Ċ
Ġlawyer s
ĠK E
ĠKE Y
Ġcomm od
mm a
Ġdan cing
ĠGi b
Ġseal ed
Ġden y
br is
sa y
.ex t
ĉfor each
~ $
Ġcs v
- N
ĉv irtual
Ġappear ing
om o
.B ack
Ġnut s
ĠE T
ĠLook ing
, [
M c
Ġsun light
ende n
enden t
MO D
Ġcomput ation
comp ile
.se arch
iere n
Ġvers e
ici a
icia l
icia ns
icia n
Wh ether
Ġcard i
Ġco ne
ig m
igm a
IG H
IGH T
Look ing
^ +
ĠCl a
Q t
Ġre const
ĠO d
Ġexpect ing
gi e
Ġdiv or
Ġdem o
Ġdemo n
Ġdemo cr
Ġdemocr acy
IO S
Ġreg ret
ĠERR OR
Ġor b
Ġorb it
& #
Ġtile s
ĠTer r
unk nown
O O
Ġcompet ing
se a
sea son
ĠTra il
ĉĉĉĉĉĉĉĉĉĉ ĉ
Ġti n
Ġtin y
r gan
à¦ ¬
Ġcone g
LA G
.H ttp
ĠC I
P a
Pa th
Pa r
Pa ram
Pa rt
Pa t
Pa l
Pa y
Pa d
Pa n
Pan el
Pan e
Ġ× ¢
ĠS R
mo ns
Ġhan dy
ale r
aler t
Ġ"$ {
itu t
ĠMu n
Ġui t
ĠCreat ive
Ġm l
ĠPal e
ĠPale st
Ġcru c
_ q
Ġprev iew
Ġso y
Ã¨ c
th a
tha t
tha n
t z
STR ING
Ġpa c
Ġpac k
Ġpack age
Ġpackage s
Ġpac ket
Ġpac e
ver ify
erc e
Ġpla nes
Ġ) čĊ
ĠPa p
ĠPap er
ĠRo l
ĠRol l
ĠRol e
ĠPo k
bi e
.... .
cciÃ³ n
QU I
Ġexc it
Ġexcit ing
Ġflu sh
Ġvi n
Ġvin e
limit s
Ġtrigger ed
ven s
map s
Ġaccommod ate
dec ode
ror s
imo re
Ġy o
Ġyo u
Ġyo ur
Ġyo uth
Ġyo urs
Ġyours elf
ĠV o
ĠVo l
ĠVol ume
Ġbo r
Ġbor n
Ġfort une
ema t
Ġdre ad
we ar
oo ds
ru b
eta l
Ġpur su
Ġl s
Ġcons id
Ġconsid er
^ ^
Ġ\ {
den t
Ġte t
ĠT i
ĠTi me
ĠTi m
ĠTi mes
[ [
ĉg et
Ġsit s
" \
ĠPi c
ĠPic k
Cons ider
Ġtale s
Ġ?> "
ĠSim ilar
ĠSimilar ly
à± ĩ
ĠNic h
Ġjur is
{ {\
ato m
atom ic
)$ ,
On line
Ġka r
Ġsu g
Ġsug gest
Ġsug g
Ġsug ar
Ġsuggest ed
Ġsuggest s
Ġsuggest ing
ĠÂ °
ĠM T
re h
flo or
do g
esty le
Ġlif estyle
Ã¤n d
extern al
ĠPr ob
ĠProb lem
Ve ry
:" ,
âĨ Ĵ
Ġshall ow
Ġjudge s
Ġannual ly
Ġlimit ing
cor d
Ġac cord
Ġaccord ing
Ġaccord ance
Ġaccord ingly
ata s
atas et
Ġhero es
part y
sec ret
Ġinnoc ent
Ġsociet ies
ĠHE R
.D e
ĠKenn edy
ĠDo l
Pe rm
Ġd p
.st r
.str ing
IE D
Ġsa u
Ġsau ce
L R
R IGHT
Ġk Ã¶
rio rs
ne q
C N
! (
= Ġ
test s
Ġprove s
Ġi P
ĠiP ad
COL OR
UN T
Ġpe rd
Ġprin ts
Ġ"" )
Ġam p
Ġamp l
ĠDal las
ĠK l
ĠAD D
Ġinterf aces
ĠAct iv
ĠActiv e
ĠActiv ity
CT YPE
Ġsurviv ed
}} }
}} (
Ġcircuit s
Ġ) )
occ up
wrap per
ĠBa h
( .
+++ +
ab i
abi l
abi n
Ġcompos ite
Ġmel t
st o
sto n
sto ne
sto p
sto od
sto ck
ue ix
Ġmu y
Ġrep o
Ġrepo rt
Ġreport s
Ġreport ing
Ġbatt les
ifi able
ous ing
ĠHel l
zy m
e j
ĠB B
ĠBB C
Ġpre g
Ġpreg n
_i nd
_ind ex
ne x
Ġfo n
Ġfon t
Ġfon d
ĠR s
." Ċ
."Ċ Ċ
ĠPer iod
_N O
_NO T
\ _
() -
()- >
ĠStr a
ĠRo bin
Ġpars ed
ĠR u
ĠRu n
ĠRu b
ĠRu le
ĠTel l
s b
ĠMont e
à² µ
end ment
X Y
Ġac on
Ġclear ed
Ġexp end
cam p
.U se
.Use r
Ġ}) ĊĊ
Ġlle g
in x
Ġgap s
alt y
ĠLi c
ĠLic ense
ĠLic ensed
una l
Ġdif erent
_I NT
/ %
ĠBer g
ĠHu n
ĠHun g
% "
ĠK y
Ġbad ly
Ġtum or
:: $
ĠPortug al
ĠSam uel
/ n
wo man
ĠIn cre
ĠCo ol
Ġmeta ls
Ġenc ode
ĠÕ §
ju ana
Ġoccup ation
Ġ* ,
vi dia
lis ts
Ġpla c
No v
les h
Ġshap ing
Ġpt r
Ġsafe r
asi l
MA P
Ġsuper f
na t
Ġcast le
ĠRa j
Ġpr ou
Ġprou d
ĠW E
ĉ h
Column s
Ġrepl ic
Ġten ir
Sw itch
ĠTra ck
W D
-th e
Ġdisput e
Ġdef ence
ĠDa ys
Ġve rd
Ġassume s
ĠRec t
Ã±o s
ok u
born e
ui l
uil d
uild er
uil t
ĠPi l
ĠFed er
T M
ub s
au er
uel a
We st
ĠDise ase
loc ale
Ġrecip ient
Ġwhere ver
Ġse p
Ġsep ar
Ġext ern
Ġsurve ys
umb le
umble d
Â ¿
r w
dis able
disable d
inge n
Ġn m
Ad v
adow s
orn ia
PL E
wa l
wal l
wal k
ĠE P
sa t
anch or
Ġcomp ass
Ġcompass ion
Ġ* =
}\ ,
_ [
Ġdepart ure
iam i
cons ider
.r ight
(i s
DO M
We ek
Ġhi d
Ġhid den
Ġhid e
_E Q
ĠO x
ĠOx ford
at u
atu re
atu s
atu r
atu res
atur day
atu ra
atura l
atur ally
! \
odo x
A W
cy cl
cycl e
! '
Ġelement ary
ĠUt ah
ĠFred er
Ġpor que
à§ ĭ
ĠFa l
ĠFal se
ĠFal l
PO S
POS T
POS E
/ $
ile t
ĉ M
ah n
Ġflight s
ig t
man y
Ġ"_ _
={ '
amet ers
Ad dr
Addr ess
Ġku n
Ġram p
ĠPri or
Ġval ve
Ġri t
Ġsoc cer
â Ļ
il m
ĠLo t
ĠAR E
ĠDel hi
ĠTer ms
}} {\
à±įà° °
User name
send er
ĠCo le
FR OM
enc i
enci a
enci ng
enci l
Ġwa x
Ġsacr ific
Ġsacrific e
{ '
ice r
rin e
Ġdoct rine
Ġ{} ,
ĠUS D
Ġresist ant
ĉ x
Ġinst inct
ĠĠ $
/ A
Ġpin e
aus s
.e m
t b
tb ody
ĠCi n
Ġáĥ ĵ
Ġtun e
du ino
ĠI B
anc o
Ġsal v
UC T
Ġlin g
Ġinteg rate
ir y
ĠFer r
pu s
pus h
iga te
Ġextend ing
Ġ:Ċ Ċ
Ġsustain ed
.Re quest
ii i
Ġtot s
ĠHa b
([ ]
_t ag
" {
Ġmodes t
ĠDE BUG
st ic
fl ix
ĠAnn ual
^ *
à¹ Ģ
à¹Ģ à¸
ĠCo w
condition s
ĠCO NT
ĠSum mary
im i
imi t
imi n
lies t
To m
om i
omi c
omi n
omi ng
Ġbec oming
: `
6 4
Ġsix th
eli f
Ġlin ux
IE L
oli s
agn ost
AN N
-t ype
BO OL
Ġgre p
Ġrit ual
ĠY ellow
Ġelectro ns
ĠTo k
ĠTok en
ert a
erta in
ta x
Ġat e
ĠMuslim s
rop erty
ĠGirl s
Ã »
Ġir regular
Ġkan n
Ġbottle s
ĠV A
ĠVA L
Ġquiet ly
AR S
Ġpobl aciÃ³
Ġ_ .
our t
Ex it
lis ta
Ġpurchase s
ern ess
Ġell e
Ġdistr ess
])Ċ Ċ
.A l
orge ous
ĠUp on
----- --
------- -
Ġjur y
ĠEn joy
N P
umb n
? !
Ġ$ {\
Ġcompos t
fi ve
=[ '
ĠTa m
ĠâĢ Ŀ
/ M
} &
Ġgre et
Ċ ĠĠĠĠĠĠĠĠĊ
uci on
Ġà¤ ī
_ch ar
Ġdecrease s
Ġdivor ce
Ġstrike s
Æ ¡
l b
Ġran king
ĠPE R
ĠâĢ Ļ
ama r
Ġsk etch
Ġc f
Ġcf g
Ġha c
Ġhac k
Ġadvoc ate
ess e
esse d
Ġproc essed
Ġaddr essed
er i
Ġexp eri
Ġexperi ence
Ġexperi ment
Ġexperi ences
Ġexperi enced
eri a
eria l
Ġexperi ments
Ġexperi encing
erial ize
Ġtremend ous
ĠPop ular
Ġhid ing
ĠMon itor
ĉl et
Ġoptim ize
Ġpuzz le
ido r
ĠGP U
Ġpure ly
>ĊĊ Ċ
ĠPri n
ĠPrin ce
av g
Ġstreng ths
ĠThom pson
ĠWh it
ĠWhit e
ure n
ĠDes t
Ġrec k
ĠHer m
Hi t
com ple
Ġadvis e
Ġadvise d
ĠSym bol
ĠPre d
del ay
Ġfi xture
init e
inite ly
Ġdra ws
/j query
arian s
ume n
umen t
Ġdoc ument
umen ts
doc ument
Ġdoc uments
Doc ument
Ġdocument ation
Arg ument
arg ument
ĠDoc ument
Ġmon ument
Ġdocument ed
argument s
du e
âĢ ķ
Su n
ĠMa ri
ĠMari a
Ġd ownt
Ġv Ãł
ĠS I
Ġadventure s
Ġiss et
int h
Ġvari ance
des ign
D W
Ġaggreg ate
Ġcra w
ential ly
}} ,
Ġâ Ī
ĠTo y
ĠLa m
bserv able
bo se
Ġten ien
Ġter me
Ġarg v
.em ail
ÃŃ m
Comp any
à¸ Ĺ
.s ql
Ġf p
Ġtit led
Ġ* (
ĠM Y
ĠAnt i
Ġdemand ing
8 0
Ġtrig gers
ut ors
ort e
orte d
Ġsupp orted
orte r
second s
Ġcos m
ĠNa z
Ġmat e
Ġmate ix
cl i
cli ent
cli p
Ġlift ed
ĠCA N
ĠL P
Ġcos a
unt a
to k
tok en
ĠVe l
the se
ĠLaw rence
ĠKent ucky
Ġfo i
à¦ ®
Pr ot
Prot ocol
ier a
lication s
ug u
fail ed
ĠCor p
Ġgrain s
pred ict
ĠGra y
ot ton
Ġdrop ping
Ġflo wing
ĠSen t
Ġveget able
Ġvegetable s
dir name
Ġsing er
pat ient
All ow
uk i
Ġ" (
Ġoccur rence
ĠChe n
env ol
Ġexpect ation
Ġexpectation s
[ Ċ
Ġpil e
+ (
nam ed
à² ¤
Â ´
Me r
ĠÏĦ Î·
ourse s
ĠSaf e
ĠSafe ty
Fe b
bas ic
la v
ĠAll ow
rule s
Ġpun ct
Ġcha m
ST EM
eng u
ine a
z u
ĠRom a
ĠRoma n
(t ime
Ġlan e
Ġresid ual
ĠCa nt
Ġencode d
Ġalign ed
ung s
Ġor phan
_N UM
âĸ Ī
Ġ** *
(c l
amo n
d igo
lar g
larg e
Ġtro ba
Ġwar d
Ġpo c
Ġpoc ket
Ġsupp ress
ye ct
Ġkw args
ob a
oba l
Ġou ts
Ġouts ide
à° ķ
esa r
Ġthr o
Ġthro ugh
Ġthro w
Ġthrough out
Ġthro ws
Ġthro wn
Ġthro at
Ġthro wing
ĠAc ad
ĠAcad emy
ĠAcad em
à¤¨ à¥ĩ
dr a
dra w
Ġpeople s
Ġremain der
enn a
Ġref und
join t
add y
ĠR C
à² Ĥ
ĉ G
Ġlob by
Ġsty led
ĠDef ine
l m
Ġfi lm
Ġfilm s
Ġca lm
à¤ ľ
Ġinspir ing
2 9
h h
one r
ĠSup p
ĠSupp ort
Ġmen s
Se n
Sen d
Ġ# Ċ
ĉ T
Ġgentle man
- k
Ġra z
Ġdo p
Ġstr o
ĠLu x
ĠSpec t
.reg ister
Ġthe ater
U V
ass oci
ĠMe s
ĠMes s
l c
Ġca lc
Ġcalc ul
Ġcalc ium
uest a
ĠPri v
ĠPriv acy
Õ¥Õ ¬
D ele
Ġflo ors
ath y
rel ative
De n
ĠES P
Ġfrag ments
Ġaffect ion
â ĺ
ĠIs l
ĠIsl and
ĠIsl am
ĠIsl amic
ĠIsl ands
per ature
-t r
si t
po sit
posit ion
sit e
posit e
Ġpo sit
ĠWeb site
ĠVi sit
omo n
ĠMal l
ĠRog er
eral d
aus es
Ġchart s
istr o
, n
oa rd
ier o
Se m
ĠBo u
Ġnew est
;" >
Ġ"- -
ef t
ĠÃ©t Ã©
st s
Ġpo sts
Ġkne es
Ġdec e
Ġdece nt
lyph icon
Ġpobl aci
Ġlaw n
Ġ;Ċ Ċ
.string ify
Ġbas t
M Y
: {
it Ãł
ĠL G
cut s
Co me
ĠLy n
low ing
/> Ċ
Ġtour ism
Ġreb oot
. Entity
Ġcou p
Ġcoup le
Ġcoup led
Ġcoup les
Ġcoup ling
Ġfra n
Ġfran c
Ġfran ch
ĠSche ma
Lo w
Low er
oth y
/s rc
ke e
kee p
kee per
Ġanc h
Ġ]; Ċ
J o
Jo b
Jo in
uls ion
Ġamb ient
(d b
ĠPr a
ĠPra ct
ĠPract ice
Ġfranch ise
Ġvalu ed
Ġesta va
Ġnov a
ĠFa t
ĠFat her
arg a
Ġsense s
ĠMari e
ig i
igi nal
igi n
igi ous
ĠGra m
Ġje r
os o
OD ULE
Ġ'' )
in ant
std io
Ġsubstantial ly
ors hip
Ġproto type
ĠAC T
ĠBe s
ĠBes t
ĠBes ides
Ã¸ r
0 1
stat es
Po r
ĠNe v
ĠNev er
ĉ P
Ġscient ist
Ġscientist s
Ġalg o
Ġgas t
__ )
G T
.Re g
Ġins ulin
Ġorgan s
Ġreserve s
.I D
non atomic
à± Ģ
ĠLeg al
Bu y
ric ane
Ġfon ts
Ġassignment s
Ġlight er
.in put
ĠGi t
ĠD J
Me n
Men u
Menu Item
ĉ $
ore ach
ĠJes s
Ġfo rb
ĠHe aven
Ġ" :
ĠKa rl
ustr y
ge l
Ġelev ation
ro at
ĠCont in
col n
ĠLin coln
ĠHo u
ĠHou se
ĠHou ston
x FF
seg u
Ġbor e
M a
Ma n
Ma p
Ma x
Ma ny
Ma y
Ma t
Ma r
Mat rix
Mat ch
Ma th
Ma c
May be
Ma l
si g
sig ned
sig ma
sig n
RES ULT
cont in
Ġcur s
Ġcurs or
emat ic
R F
Ġcolle ges
Ġchap ters
x ford
ist le
Ġla v
nea th
dr o
dro p
à´ ¨
Ġshel f
St ill
Di g
per i
peri od
Ġsex y
à´ °
Ġtea ches
Ġja r
(L ist
^{ (
Ġar a
ick y
Ġr g
DI S
d ings
ett a
ĠTo o
ĠToo l
ĠToo ls
Ġbre w
ĠFl y
Ġdi c
Ġdic t
Ġdic h
Ġdic e
en vironment
ï¼Ł âĢĿ
bre s
Ġuse less
LA SS
iat ing
â ĳ
cha ft
j query
pa g
pag e
pag es
aci fic
ess ment
ĠCos ta
rac e
Ġfle d
ĠR S
Ġcha rm
ĠAtt orney
à¥ĭ à¤Ĥ
Ġhar ness
Ġaw k
aba d
Ġpal m
EN S
ENS E
IC ENSE
[ @
ing o
Ġmus e
Ġmuse um
('. ./
ĠNot ice
Ġencourage s
Õ ¨
(n p
Ġsa p
Ġbro w
Ġbrow ser
Ġbrow n
Ġbrow s
ĠĠĠĠĊ ĠĠĠĠĊ
anga n
Ġgar lic
Ġblo gs
PH P
Ġbe an
Ġbean s
ame l
Ġexplos ion
Ġr m
Ġhi j
Ġling u
ĠJe n
ĠJen n
< h
ĠK o
ĠKo ng
ĠKo n
Ġins ist
bre w
Ġpatch es
i our
us c
]); ĊĊ
-t oggle
Exp l
Ġ& \
Read ing
ĠW rit
áĥĲáĥ ľ
Ġcon ve
ĠBru ce
ba g
bag e
ĠOr i
ĠOri g
ĠOrig inal
C a
Ca n
Ca ll
Ca l
Ca rd
Ca r
Ca che
Ca p
Ca rt
Ca m
ĠPe re
Ġdisappoint ed
ko m
Ġaccommod ation
Apr il
Ġcareer s
ika n
ĠComm unic
f w
Ġà¤ Ń
oke ns
ze l
iction s
De b
Deb ug
(b ool
over flow
Enumer ator
express ion
/ S
FO R
FOR M
ĠArg ument
-x s
Pr of
ps y
ĠPa d
Ġ[], Ċ
Pa ul
. Q
Ġbar g
ĠFe ature
ĠFeature s
à§įà¦ °
ĠSte am
ĠMI N
ĠO m
ĠPen t
ĠTen n
db c
-Ċ Ċ
Ã Ģ
oric al
Ġhast a
er red
'' '
rel s
( o
(o s
(o ut
MA N
ili a
ilia r
ilia tion
-> {
Ġf d
Te m
on line
Ġconsum ing
(" @
Ġdial ect
Ġph p
Ġtra b
Ġpre y
ER E
ĠWH ERE
us k
IC S
uest ion
")) ;
")); Ċ
Bus iness
-- "
ĠTo t
ĠTot al
Ġpen t
ĠAdd ed
Ġast on
os i
osi s
/$ {
ag r
agr a
agra m
agra ph
/r e
ĠComp et
Ġg y
Ġgy m
Ġkind ness
.F ind
à¤ Ł
Ġmarker s
Ġfi ng
Ġfing er
Ġfing ers
Ġterr a
Ġdent ro
lov e
Ġred istrib
Ġsing les
, j
ab b
ig g
igg er
oc y
e i
ei n
Ġprot ein
Ġprotein s
Ġray s
, c
ĉ u
ĠDe an
âĶĢâĶĢ âĶĢâĶĢ
uts ch
age m
agem ent
Ġpun ch
rol og
hol e
di e
Ġ{}Ċ Ċ
Ġpacket s
$ Ġ
Ġmus h
ĠI g
ĠGo t
ches ter
des s
ĠÅ ¡
ĠOlymp ic
- Z
Ġnewspaper s
w he
c king
U K
ĠWe l
ĠWel l
ĠWel come
/ :
_def ault
à¯įà® ¤
Ä± r
BA SE
Ġtens e
ione d
Ġment ioned
_lo ck
ĠRE AD
>> >
q t
Ġx s
') [
ime n
imen t
imen ts
imen to
Ġus b
bin ary
Ġunt er
ĠDec l
ĠUn a
Ġ( %
Ap ple
( {\
ĠFlo at
cur s
Ġ[ _
ib l
ibl e
Ġposs ible
ibl y
Ġposs ibly
poss ible
ibl i
ibl es
Ġflex ible
Ġterr ible
Ġcompat ible
oss ible
mente d
Ġáĥ ¡
ĠF i
ĠFi le
ĠFi n
ĠFi g
ĠFi nd
ĠFi l
ĠFi eld
ĠFi nal
ĠFinal ly
ĠFi lm
ĠFil ter
ĠFi sh
ĠFi t
ĠFi ve
ĠFi les
ĠFi x
en i
ĠSE O
ek t
bal ance
ĠAl b
ĠAlb ert
Bo ot
- J
ibr ation
acc ur
Be t
(" -
Ġmat t
ric tion
/ C
Ġpros t
Ġcome dy
Ġexper im
Ġtrib e
Ġtribe s
ele m
elem ent
elem ents
Î¹ Î±
Pl us
ĠÕ ´
Ġvia ble
àª ¤
E q
Eq ual
Equal s
Eq u
Ġsurve illance
second ary
plet ion
Ġtreat s
.T ype
ĠVen t
Ġ}} </
Ġtom b
Cl e
Cle ar
S V
Pr ov
Ġsu l
ocr acy
ade n
do es
Ġarm or
ĠRo u
ĠRou nd
Ġ) :
adv ant
)} Ċ
pay ment
Ġfif teen
_s p
ÃŃa s
yl l
sect ions
.L E
ĠFr o
ĠFro m
ĠFro nt
Ī Ĵ
uten ant
Ġexc use
ĠMag n
pol icy
aka n
Ġs f
Ġdo i
Ġdoi ng
Ġpurs uit
gi a
odo s
M o
Mo del
Mo d
Mo de
Mo n
Mo ve
Mo ck
Mo use
Mo unt
ĠHawai i
Âł habitants
Õ¡ÖĢ Õ
Ġemb r
Ġembr ace
Ġtim ely
isc her
ĠCh i
ĠChi ef
ĠPe ak
Ġan omen
Ġsav es
Ġdaughter s
break ing
ĠdÃ© c
Ġadjust ment
Ġcost ly
Ġvi b
Ġvib r
Ġvib rant
Ġup grad
# else
Des t
ias m
Îµ Î¹
âĢľ I
E A
ĠCru z
ĠSa lt
Th eta
Ġwealth y
we d
Ġvie wed
ĠMet a
ĠMeta l
sy n
syn c
ber ries
ĠAS C
ER N
rap y
Ġwhole s
Ġswitch es
Don e
ĠE c
ĠGu n
Ãº b
ĠAl f
ĠAn aly
Õ ¾
Ġdam p
K S
AME S
Ġt Ã©
gu i
.co l
à§ĩà¦ °
Ġattitude s
Å «
àª ¿
nt ax
ection s
Ġconn ections
coll apse
Ġ# {
unt o
umer ate
en umerate
Mode ls
/ -
Ġadvers e
row th
Ġid s
ĠAle rt
ĠBon d
ĠSun d
.e d
Ġopp on
Ġoppon ent
Ġopponent s
Ġo z
fa c
fac e
fac es
fac t
inter face
Sm all
Me an
Mean while
Ġnumer o
Ġnumero us
Ã¢ n
ĠNe p
ĠB h
(@ "
pat hs
ag i
agi c
ĠMe g
ĠOt t
\" :
Ġreli es
Ġfo am
i xt
Ġrenew able
auto m
unte r
Ġren cont
vert is
ĠInt eg
) _
ĠG A
. K
.K ey
: @
:@ "
Ġdenote s
Ġdou gh
Ġca f
Ġstr ive
text area
Ġrig id
eme t
]: Ċ
da l
ava n
ĠGra d
B F
} -\
à¤¿à¤ ¯
ï½ ŀ
late d
Ġcomputation al
Ġà° ª
F W
iva ls
Ġdoc k
_a d
_ad d
_ad dr
si l
ard less
(" ,
_ K
Ġbo u
Ġbou nd
Ġbou ght
Ġbound ary
Ġbound ed
W W
teen th
.", Ċ
_ex t
Ġ+ Ġ
un o
Ġdate d
Ġban da
Ġpermit s
lich e
liche n
ĠLG BT
Act iv
Activ ity
Activ e
EN C
ENC E
oll o
ollo w
Br o
cl one
Ġout let
u etooth
Ġvot re
@ g
je n
Ġsurrounding s
acks on
Ġcho p
D U
< !
<! --
bra ce
Per iod
Bu f
ycl er
res ol
Up per
Ġ" {
tr ie
Ġre trie
EE E
ĠVe rm
/ ?
ĠLi on
_pr e
op a
Ġrece ipt
Ġaff irm
Color s
ĠN g
Ġabsorb ed
.b l
Ġcast ing
Sec ret
Be h
' čĊ
och e
verb ose
Ġbio m
ĠĠĠĠĠĠĠĠ $
Ġaff air
Ġaffair s
Ġmake up
Ġserv ant
ĠRem ote
Ġmeta ll
position s
ĠArg s
ĠHi g
ĠHig h
z n
ĠVe c
ĠVec tor
es i
esi s
esi ty
pec ific
×ķ× ¨
ima g
imag e
imag es
ĠM R
Mem bers
." )
lit tle
ĠAD C
ows ki
Im g
Ġ}, čĊ
Ġlate ly
ĠHa t
off s
offs et
ĠGu y
ET A
Ġsp y
ĠIg n
envol up
Ġll am
row ing
ve z
Ġps y
Ġpsy ch
Ġpsych ology
ĠBalt imore
UT O
ĠSt a
ĠSta tes
ĠSta te
ĠSta rt
ĠSta r
ĠSta nd
ĠSta t
ĠStat us
ĠStand ard
ĠSta n
ĠSta ff
ĠSta ck
ĠSta ge
ĠSta y
Ġbless ed
nes t
di n
din g
stan ding
Ġfin ding
Ġhol ding
Ġfinding s
rea ding
Ġsen ding
pad ding
oun ding
Ġfee ding
Ġout standing
.Th reading
ĠDon e
ĠBa pt
ĠÂ ±
Ġband width
can vas
"> &
ci d
ĠAv e
SE R
ext end
à¸ ª
-re s
icit y
Ġelectr icity
Ġast r
Ġgreen house
COM P
ĠQueen s
Read y
am d
>{ {
anc a
Ġmas t
Ġmast er
Ġdocument ary
Ġhal t
Ġclean ed
Ġmap ped
âĢ į
io ni
ioni c
Ġse arc
oto n
) '
Ġsom ew
Ġsa g
ul ary
PE C
PEC T
ĠJo y
ster dam
Ġcontrad ict
ĠPa ra
ĠPara m
IO NS
Â» .
Ġpe u
anne rs
v l
č ĊĠĠĠĠĠĠĠĠĠĠĠ
ĉ a
ĠCe r
ĠCer t
Ġ= Ġ$
Ġbron ze
posit ive
d h
co u
cou nt
Ġac count
Ġaccount s
Ac count
ĠAc count
count er
cou t
count ry
Ġaccount ing
cou ld
ke l
ĠAb d
m x
Ġlo u
Ġlou d
Ġll arg
bu ilt
Ġrepair s
Ġsi d
Ġsid e
Ġsid es
_s um
Ġfre ed
Ġfreed om
} >
}> Ċ
t v
neg ative
ĠLay out
ĠSon y
man s
Ġswitch ed
alo us
ie g
ass a
ĠSa d
ĠGra ce
ĠAp i
iri cal
ĠS F
log ging
v able
à° ²
rep o
repo rt
Ġl Ãł
asi a
ĠCub a
we alth
y z
ba ra
NE W
), čĊ
ongo ose
igi on
AT URE
Ã¥ r
Ġdar e
" =>
er able
ĠProt est
àª µ
Ġmak er
Ġmaker s
ĠRobin son
Ġpip es
Ġsurg ical
ĠTh or
_s ource
ilia ry
Ġins ult
ĉn ame
ĠEl i
IEL D
if s
ĠHead er
âĢ ²
ĠLouis iana
Ġsha ft
Ġch i
Ġchi ef
Ġchi p
Ġchip s
Ġchi m
ĉf mt
Ġfold ers
ĠVi c
ĠVic t
ĠVic tor
ĠVictor ia
ĠVic e
(s e
Br e
Ġtravel s
ĠSw ed
Ġsmooth ly
ĠRule s
ĠCla r
ĠClar k
Ġdri ft
Ġtru cks
Ġdign ity
Cho ose
So l
Ġbroke r
(st art
ute x
Ag ain
- $
ulti p
Ġâ ĸ
- ,
Ġswe at
old ing
Ġpou nd
Ġpound s
Ġintr o
ĠD S
Bo t
Bot h
E p
Ġgu ar
Ġguar d
Ġguar ant
Ġguarant ee
Ġguarant eed
Ġenhance ment
ris e
OP Y
Ġi ni
Ġini t
Ġini ti
Ġiniti al
Ġiniti ally
Ġiniti ative
Ġinitiative s
Ġpray ers
us b
ĠVi t
Ġstruggle d
Ã§ o
Ã§o s
edge s
Ġfran k
ĠTai wan
ĠTe d
co p
cop e
cop y
ach us
.Ch ar
.D is
Ġac tu
Ġactu ally
Ġactu al
gn ore
em pres
Ġtravel ling
Ġnav bar
ker s
hav ior
Ġoutline d
ĠC N
ĠCN N
_p h
ĠSa c
att ers
itate d
ĠEr r
ĠErr or
IT S
ex ion
, s
UI L
Ġsex e
ĠHER E
ĠBet h
Se p
Sep t
bas h
( q
oso ph
Ġpill s
_i p
Ġtw in
Ġflu ct
Ġfluct u
iente s
ĠG arc
term s
enn e
enne s
V a
Va l
Val ue
Va r
Val ues
Va ri
Vari able
- W
REF ER
ĠBow l
ĠIB M
Ġ(! $
Â £
Ġga d
ĠSS D
_pr int
Ġta m
Ġtam b
ier ra
ol ph
(G L
(s ub
ĠCO L
Ġsk i
Ġski n
Ġski p
/ x
Ġconsid ers
Ġcount ed
Ag e
Age nt
à² Ĺ
Ġfo g
ĠCa sh
ĠDen ver
Ġless er
âĢĶâĢĶ âĢĶâĢĶ
ĠDr y
ĠHe at
ie v
iev e
iev ed
iev al
à® Ł
vert ices
Ġorgan iz
Ġorganiz e
Ġorganize d
xy gen
nat ive
bi s
Si l
Ġmethod ology
-T ype
ĠKn ight
re ens
member s
eri e
erie s
pi p
pip e
Ġexc av
(' -
ste ad
Ġcs s
Ġhigh way
_d f
ĠL L
ĠLL C
_b uf
Ġ{ $
ĠGra ham
Ġdefect s
áĥ ļ
N Y
Check ed
So ft
Ġfarm er
Ġfarmer s
ĠPort land
Ġdesp r
Ġdespr Ã©s
abi s
_to p
Ġemp t
Ġempt y
ss h
kee ping
Ġ.. ..
ĠS ierra
tim er
ĠMA C
ob ert
pute r
ĠRE G
amp a
Ġ$( '
Ġ$(' #
Ġ$(' .
eta t
Ġ(( (
ĠLe x
Ġ' +
('- -
ĠHal f
Ġawk ward
: =
Co ng
bus iness
Ġappeal ing
air o
ĠAl d
BI T
Ġlov er
Ġwr est
etail ed
ĠShe l
Ġspo nt
.U n
ĠSus an
ĠDO M
ube r
ĠEv e
ĠEve nt
ĠEve n
ĠEve ry
ĠEve r
ĠEvent Args
ĠEvery one
ĠComp ar
Ġlock s
we g
\ ,\
am y
ĠF M
person es
ĠDi r
na s
Ġ" *
ĠImp ro
ĠÃ Ģ
Ġpri c
Ġpric e
Ġpric es
Ġpric ing
Ġsoul s
ar ation
Ġ.. .Ċ
Ġ...Ċ Ċ
stru ment
sl ice
run time
W he
ĠRa w
à¤ ļ
Ġsor e
ĠE u
inst ein
Ma d
Pi n
â Ĺ
can cel
ĠTi b
Ġtou rs
Ġbeat ing
exp and
Ġrect angle
Po d
Ġdesc ent
ĠG N
ĠGN U
Ġresearch er
Ġresearcher s
iciÃ³ n
Ab s
Abs tract
Ġgu any
Ġgar bage
ment ation
Ġforum s
>( )
>() .
ge x
Ġfarm s
ĠHash Map
ÏĦ Î±
ĠKo m
prec ated
ĠMur ray
Âł persones
/m ain
hen d
ĠSol id
re ra
Es c
rop erties
prod uction
Ġdrawing s
iday s
Ġ]Ċ Ċ
ĉ "
Gui d
ĠU m
x F
ph ia
.r ef
ĠAnd y
_ Y
Ġur b
Ġurb an
uter s
los ed
Ġge b
Ġbuy er
Ġbuyer s
ĠImp act
aha n
ĠVe rt
} +
sta irs
ĠTo b
_de v
_dev ice
inter val
_r ight
cit et
dat ing
An n
ĠMu t
Ġ áĢ
) }{
ĠVI I
io x
( E
àª ķ
ala m
.C heck
Ġsil k
ĠGre y
Ġoff line
}} Ċ
et ts
avig ator
Ġwh is
Ġde i
Ġdei x
atge s
Ġbrow se
_ -
_- >
para graph
Ġsqu ares
let t
lett er
lett e
Ġnews letter
ĠGe s
ett i
Ġcompanion s
Ġsci ences
ali s
ak y
ĠAr n
RO P
w x
mo r
mor e
Ġany more
Ġvirus es
ĠBru n
Am ong
Ġnic ely
Ġtou rist
Ġtri um
Ġtrium ph
MOD E
Ġrel uct
ĠCe l
ĠCel l
Ġran g
Ġrang e
Ġrang ing
Ġrang es
: ]
ĠKat e
ind e
inde x
inde r
ĉ D
abs tract
f m
fm t
_P R
_PR O
U A
_ "
], [
IRE CT
Ġbu b
ash i
ashi on
DT O
Ġspect ra
Ġspectra l
ĠPal ace
Ġge w
; /
;/ /
ĠInd igenous
force d
Ġste al
\" >
Ġdang ers
cess ion
ĠHi l
ĠHil l
ĠHil ls
Ġfam ÃŃ
Ġmen g
SS L
ÅĻ ÃŃ
di c
dic t
Ad ded
ĠTra in
ĠTrain ing
Ġnow here
ok o
ĠXX X
Ġbreat he
Ġemphas ize
Ġterra in
ista s
Sep ar
Ċ ĊĠĠĠĠĠĠĠĠĠĠĠ
Ġwash ed
Ma g
umbn ail
Ġro pe
_se arch
ĠTyp es
ĠCompar e
ĠPA R
ĠPAR T
ĠPART IC
Ġlo d
Ġd h
.P aram
ci ence
year s
fo x
ĠOff icial
Ġgl y
Ġarchitect ural
Ġratio s
i q
iq u
iq ue
iq ues
Ġà ¹
.ch ar
atu m
riter ion
Ġfle w
Ġdel ve
Ġfa me
iller y
Ġrise s
ĠMari o
iva n
by e
resh ape
( H
ur ches
Ġinter sect
Ġintersect ion
Ġmine s
orr o
orro w
Ġtom orrow
ĠUpdate d
ĠHa z
ĠBre w
3 5
_V ERSION
Ġsubs id
Ġswe ep
Ġbar n
Ġtab s
_T H
Pe l
Ġpr ox
Ġprox y
.S h
.Sh ow
Ġpic ks
ĠĠ čĊ
ĠĠĠĠĠĠ ĠĠčĊ
Ġ# [
ula s
ak u
ex c
Ġlin king
(' ,
Ġ- \
G G
ĠInn ov
e ous
F G
ĠCa d
Ġten nis
Ġsymbol ic
off ice
ĠÃ ģ
ĠMc G
bo Box
in ces
ey e
Ġ## #
- E
pi t
pit e
ĠDes pite
Ġmerch ant
ĠFish er
sur e
po sure
Ġclo sure
Ġig ual
ĠG C
ĠTreat ment
ĠCro w
ĠCrow n
.D E
.' ,
IF T
anes e
ĠJap anese
Ġtreat y
, âĢĻ
ĠSin gh
hou ses
ĠGa ry
-st yle
IC T
({ '
gra des
Ġmight y
Ġcurr ents
Ġco b
ize n
Ġne m
Ġid le
ĠCo nc
Ġcomb ust
elle ct
ĠĠĠĠĠĠĠĠ ĠĠĠĠĠĠ<
' _
Â» ,
Ġinteg ers
conc at
ĠK i
ĠKi m
ĠKi t
ĠKi r
ĠKit chen
Ġpocket s
ori e
orie s
ĠBu ilder
Ġvi d
Ġvid e
Ġvide o
Ġvide os
Ġvid a
Ġ/** čĊ
/' ,
ĠPo ol
ĠT B
Ġdress ing
alt res
Ġp ÅĻ
Ġr ei
Ġrei n
Ġrei gn
mploy ee
ter day
Ġow ns
_ J
ĠCreat es
ĠPl e
ĠPle ase
ĠP P
Ġ Ô
role s
l v
ĠSa lv
% Ċ
(b uf
_mod ule
ITE M
Ġw y
Ġss h
ĠB T
k b
LOB AL
Ġdri ll
aca o
illa s
ad j
in cre
Ġe k
.p r
.pr int
.pr o
.print ln
.pr e
.pro t
Ġservant s
Ġcable s
hat tan
fon ts
Ġinte st
empt ion
va rd
ĠHar vard
... )
auss ian
Ġfree ze
Ġin qu
Ġnor ms
ount ered
on z
Ġmaintain s
Ġprinc e
ĠTi p
ĠTip s
ĠNA T
ĠâĪ Ĵ
Ġfeat her
[n ame
opa rd
Ġend if
Off ice
Ġ'- -
Ġmast ers
xx x
xxx x
Build ing
áº §
train ing
t ility
" ../../
Ġpo n
Ġpon d
G F
Ġlate ral
ĠNa n
ĠNe ar
ĠColl ins
come d
Ġrod e
Ġhat h
Ġbus h
ko v
Rem ote
flu sh
ĠLa g
wen t
R o
Ro w
Ro ot
Ro ws
Ro b
Ro om
ĠD b
Ġprompt ed
Ġnod ded
ĠN G
ĠV R
ĠW a
ĠWa r
ĠWa ter
ĠWa ll
ĠWa y
ĠWa l
ĠWa sh
ĠWa s
ĠWa rs
ĠWa les
ĠWa t
ĠWat ch
ĠWal ker
ĠWa rd
oper ative
fi ts
Ġbene fits
Pr om
ĠFa ith
ds t
ol k
ij e
fa t
fat her
Ġpreced ing
ĠR y
ĠRy an
])) Ċ
Ġadvert is
Ġadvertis ing
Ġev t
Ġindu l
Ġtourist s
ri en
Ġembr a
Ġmoment o
Ġclean er
Ġdif er
Ġcann abis
Ġexp r
(out put
Ġprem i
Ġpremi um
amb a
_e q
P Y
Ġdisplay ing
ath e
athe r
athe rine
ĠCor t
Ġdot s
ge b
geb ra
Ca t
AN K
Ġelse if
ĠTo l
Ġesp any
Ġà¤ķ à¥Ģ
ĠArch itect
r acy
_ queue
late r
Inf later
Ġq uel
Ġpul s
Ġpuls e
" -
Ġillustr ation
min ute
r p
Ġca rp
Ġcarp et
Ġpant s
Ġnue vo
ation ally
Ġm k
>čĊ čĊ
Ġos t
S F
oo ter
_EN D
}} </
sec ure
ĠPo ll
Ġes e
fact or
factor y
alle r
aller y
, &
á ¹
] "
aw k
_fl ag
ĠParam eter
ĠParameter s
UN C
à® ©
Ġprop i
resp ect
Ġlift ing
Ġlight ly
emet ery
Ġpa ÃŃs
' -
Ġlib r
Ġvo w
# {
ĠPC I
ĠÕ ¸
ĠSta rs
Ġguar ds
ben ch
Ġsens ation
Ġx x
.res ponse
ĠCh a
ĠCha r
ĠCha ir
ĠChar acter
ĠCha t
ĠCha p
ĠChap ter
ĠCha rt
ut ow
uk a
rite s
@ @
Ġfram ew
ues e
ĠĠĠĠĠĠĠĠ ĠĠ<
iox id
Ġtank s
igu a
ĠAv oid
Ġtemp o
Ġtempo r
Ġtempor arily
cn t
Ġoffering s
Ġfle e
Ġflee t
pro f
prof it
depend ency
stat ement
HO ME
h p
ĠSam e
Pres sed
ĠEl d
ph e
phe re
phe n
phe r
ĠSS L
, i
Ġref r
") ]
")] Ċ
ĠFal ls
Ġstrip s
ĉĉĉ Ġ
} }$
utow ired
amin s
_O N
ĠGrad e
ĠFl e
aba ma
ĠAl abama
exp er
Ġgaz e
Ġtone s
Ġanswer ing
ĠJo rd
ĠJord an
=$ {
fl ash
ĠDan ce
Ġrac k
à¤ ¡
àª ®
Ġ( +
Ġdec is
Ġdecis ion
Ġdecis ions
ĉ R
. ~\
ĠSol d
Ġthere of
Ġcou ch
Ġuser Id
ĠAlf red
ĠJa h
Tr i
Ġfeas ible
--- Ċ
à§įà¦ ¯
Ġà¦ ı
ll ustr
Ġappet ite
ĠU E
Mr s
_lo ss
Ġmistake n
_c o
_co m
_co unt
_co n
_co lor
_co l
_col umn
_co nt
_cont ent
_cont ext
sig nal
." "
."" "
V T
la unch
Inst ead
ĠJob s
Ġexped ition
ĠS V
ien ne
Ġmerc y
ĠDe al
Ġbench mark
) >
ĠCamp bell
_R ES
}" Ċ
Ġcontr o
Ġcontro l
Ġcontro ls
Ġcontro vers
Ġcontro ll
Ġcontroll er
Ġcontroll ed
Ġcontroll ing
Ġcontrovers ial
ss l
umer ic
Ġui d
Ġcharm ing
ĠPo land
wi g
Ġbio d
cu rr
curr ent
curr ency
Ġq uer
Ġquer y
Ġquer ies
line width
Em p
Emp ty
.is Empty
he nt
ch r
chr on
eto n
Ġcry ing
Ġshr ink
avi er
mi s
mis s
miss ion
miss ions
Ġdis miss
Ġencode r
her ence
Ġarg c
H a
Ha sh
Ha ve
Ha s
Ha ving
Ha r
Har d
ĠRob er
para tor
Õ¸ÖĤÕ ©
Ġw p
Ġt k
Ġlay ing
Ġsociet al
Ġamp le
Ġmerg ed
H y
Ġbar k
spe ct
eg u
et r
etr y
etr o
ike r
Phi l
3 3
Ġbor ing
ĠCi r
ĠCir c
ĠCirc uit
Ġve t
Ġvet er
Ã ĥ
grad ient
ĠGerman s
ĠPe rm
pend ing
4 5
Ġrecycl ing
nes ota
ĠGen t
ĠHor n
Ġl b
ĠBern ard
Ġle ur
orn s
ĠLabor atory
se p
u u
uu m
Ġvac uum
uu id
Ġant e
Ġante rior
Ġante n
Ġanten na
ive l
ivel y
- K
'} ,
ĠMas on
ĠK B
Ġben d
ĠSo r
ĠSor t
ĠFix ed
ear th
Ġth eft
Ġer g
Ġkin gs
adi c
ĠP D
ĠPD F
imal s
' Ã©
LI ST
ĠAM D
Ġbas h
Ġformal ly
item ize
lan do
ĠNa m
ĠNam e
um i
umi n
umin g
(N ULL
Ġ[ (
edi c
ĠP K
\ r
Ã©r i
Ġdiss ol
ĠNa r
Ġxx x
Ġt d
à§ °
amil iar
iddle ware
ari ous
Ġapp rec
Ġren owned
Ġped est
ĠBrook lyn
. |
l r
Event Args
Å¼ e
ĠSpr ings
ĠĠĠĠĠĠĠĠĠĠĠĠĠĠĠĠĠĠ ĠĠĊ
/L ICENSE
ĠIns ide
ĠC B
ĠCB D
dal e
je r
Ġox id
Use d
comput e
ren a
Ġ× Ľ
art a
ĠLab our
Comp ar
ss on
Ġaut umn
Ġdismiss ed
_i f
Ġk r
g p
Ġnov e
Ġnove l
Ġnove ls
umb s
P K
Ġwar e
th rop
Ġrid ic
Ġrely ing
apt ion
uck er
Ġsul f
anim ation
ĠMo no
Ġthro ne
ve h
Ġsep t
pol y
ĠTi t
ĠTit le
ops is
obi l
ĠHigh way
rg b
Ġmil lor
Ġadditional ly
Ġber e
.Re m
Ġgenu s
riz ona
ann i
(". /
Ġ''' Ċ
ent o
imi ento
lu x
.a d
.ad d
Ġappl es
Ġgl e
LE T
LET E
ĠAm y
ĠĠĠĠĠ Ċ
Ġang l
Ġangl e
Ġangl es
Ġrefr iger
ass o
Sc an
Ar m
ĠT S
ĠUn known
Ġfoc al
ate way
Ġty ped
Ġtyped ef
pi o
Es p
ĠPo m
Ġout break
fi ca
ft s
Ġfal s
Ġfals e
_DE BUG
tb l
ĠMa rx
Ġru l
Ġrul es
Ġrul e
Ġrul ing
Ġrul ed
ĠKat h
ÏĦ Î¿
ĠPos ts
Ġpon t
ĠOri gin
Ġrap e
ancer s
ÈĻ i
Ġredu nd
Ġher b
Ġherb s
app s
og o
enc h
aci o
acio n
acio ns
acio nal
acio nes
acio us
Ġk v
ĠFa n
ĠFan t
se arc
Ġre searc
aza r
ĠAb u
[ _
. q
ĠB G
anz a
wer s
uc c
ucc ess
Ġlong itud
× ¦
Ġunt uk
Ġviv ien
z h
Ġbr u
Ġbru t
ĠÃº lt
wh y
Ġcand y
à§ Ģ
à¹ Į
ĠÎ ²
Set up
.X tra
Ġproc es
[ p
Br it
ĠGh ost
ci r
cir c
circ le
_P L
Bre ak
g z
A z
ĠEP A
ĠMc K
Ġwelcome d
Ġdin s
T B
ubl e
<p re
ĠLos s
Ġà¤ķ à¥ĭ
à¥ģ à¤
Ġdiver ses
D K
orne ys
CON T
.Th e
Ġcamp o
avan t
Ġ Ï
(: ,
(j ava
Ġà° ķ
Ap ply
ĠEr a
Ca mp
Ġres ize
sn ap
ĠQue st
ĠQuest ion
ĠQuest ions
Ġ'' Ċ
ena s
ĠSaf ari
ĠPi r
ĠEn um
ĠSte wart
gu e
ĠFran ces
ato ri
Ġrem em
ĠTri p
ff e
ffe ct
ffe r
Bu ffer
itu s
Ġru in
Ġsod ium
oll apse
Ġrenew ed
Ġexplanation s
. u
.u i
.u n
.u rl
ech a
Ġlover s
Ġ$ |
Ġexplo it
mi l
Ġfa mil
Ġfamil y
mil l
/t est
Ang le
="# "
Ġtra n
Ġtran s
Ġtran sl
Ġtransl ation
Ġtransl ate
Ġtran sf
Ġtransf orm
Ġtransf er
Ġtransfer red
Ġtran sc
Ġtranslate d
Ġtran sit
Ġtransit ion
Ġtransit ions
Ġtrans ist
ĠW W
f u
fu l
fu nc
fu n
fun ction
Ġuse ful
Ġpower ful
Ġhelp ful
fu ll
full y
Ġcare ful
Ġcareful ly
ful ness
Ġharm ful
fun ctions
ate ful
Ġhand ful
Ġaw ful
Ġac k
Ġack now
Ġacknow led
Ġacknowled ge
Ġacknowledge d
_B IT
Ġ} \
ti t
tit le
Ġcons tit
Ġins tit
Ġconstit u
Ġconstitu tion
Ġconstitu te
Ġconstitution al
ĠHen d
ĠHu s
(" {
Ġlaunch ing
ra h
rah am
olid ay
Ġwarm th
Ġhac e
Ġhace r
ert e
); //
ĠCorp s
ĠDo or
ka r
Ġobt en
Ġrac ism
Ġrest ing
ci l
ĠString Builder
no r
nor mal
Ġmi nor
nor m
Ġminor ity
Ġab normal
ĠGr iff
Ġdro ught
fa n
Ġpla int
Ġga n
Ġgan g
ffect ive
Ġgrat itude
ĠDi n
chie f
__ .
/p l
je s
ĉĊ ĉĊ
\ F
Ġbrain s
oe n
Ġfar t
Ġfart her
ĠF E
vo r
Ġintr ic
Ġintric ate
mar t
ano ther
------- --
--------- -
--------- --
----------- -
----------- --
Ġembed ding
, C
ĉĉ <
.C urrent
ĠKi d
ĠKid s
ĠVa ll
ĠX P
Ġtant o
Ġred e
ad u
ĠP T
' /
Ġ' )
Ġarriv ing
Pres ident
ul k
" #
R a
Ra w
Ra d
ĠVe g
alt ies
gra v
(is set
ede s
TR UE
ast ically
Ġn Ãº
Ġm x
ard i
Ali ce
ĠComm ercial
ĠMun icip
Ġto mat
obi c
Ġdeb ris
h w
Ġrh s
da g
ĠMad ison
Ġke r
less ness
Ġdiagram s
ĠDev Express
ĠCra ft
Ġstr len
Ġtim ber
G REE
wind ows
ĠÃ ¢
her ic
Ġal b
Ġalb um
icol umn
Ġguarant ees
D a
Da ta
Da te
Da y
Da t
Da o
Da n
( %
ĠX box
Ġment ions
x r
Ġest r
ĠOp tim
anna h
Dr ag
fra id
Ġcub ic
lor d
ounce s
ĠPC B
ardo n
ĠRoma ns
ĠLos t
ref resh
Ġlin ed
Ġfix ing
Cle an
Ġmid night
ool Strip
yo n
yon d
Ġoptimize d
ĠÎ ³
Ġag r
Ġagr e
Ġagr ee
Ġagr eed
Ġagree ment
Ġagreement s
Ã©ri e
ronic s
_w ork
Ġcontin g
Ġbeach es
), (
db o
Ġvig il
bs ites
variable s
Ġco mma
Ġcomma nd
ĠLeg isl
anche s
ri r
ĠCha rl
ĠCharl es
ĠCharl ie
pe res
Ġlat itude
à¤¿à¤ ķ
Ġmut ation
Ġjun k
Ġ[ {
ĠKa z
)- -
ipl es
Ġprinc iples
em i
emi c
emi a
emi t
Ġfu g
Ġarriv es
ĠG E
ĠGE T
Ġl u
Ġlu x
Ġlux ury
Ġlu i
Ġlu n
Ġlun g
Ġlun ch
Ġlu c
Ġluc k
Ġluc ky
Ġgest ure
Ġsh y
dec or
fu nd
Ġante s
.I S
Ġcham p
Ġchamp ion
Ġchampion s
Ġchampions hip
m bre
ars h
IB LE
ĠN J
-f l
Õ¡Õ ´
_S Y
ri ev
riev ed
Ġauth ent
Ġauthent ic
Ġauthentic ation
Ġpens ion
Ġrat s
up p
upp ort
Ġassist ed
Ġ×ĳ ×
m r
3 6
Ġimp air
Ġfluctu ations
layer s
pe z
DE D
H I
} %
Ġsu e
'}, Ċ
Ref resh
Ġbin s
ĠFi f
Ã¼ h
ĠHe m
ĠProt ocol
ĠBra in
={ "
ĠN urs
icht e
Ġillustrate s
ICE S
ĠIN S
Ġrect angular
aa t
Ġco ng
ĠBur g
ok a
uri a
G N
Ġvia gra
Ġ|| Ġ
ĠLa unch
Ġmai g
à¤¾à¤ ²
ï »
ï» ¿
effect ive
ĠW A
Ġall a
zi g
à°¾à° °
UA L
ĠRead er
Be d
Ca re
ĠH z
ĠAr r
ĠArr ay
IL D
ani e
' (
Ãł n
: +
Ġmed iana
ĉ j
MO N
icture Box
ĠSc an
Ġbank rupt
Seg ment
(H ttp
Ġcav ity
igi t
.An chor
Ġshade s
ĠHit ler
isl ation
Ġstret ched
Ġattr s
are l
Ġgr u
Ġgru p
ĠEx c
ĠExc el
Ġà¤¸ à¥ĩ
ĠRa t
ĠRat e
fa s
fas t
Ġbreak fast
ĠImp er
ĠImper ial
Ġbeat en
fra g
ĠUSE R
( V
(V iew
sem bl
sembl y
sembl e
Ġà° ¸
Ġpet it
Ġpetit ion
Ġprost it
Õ¸ÖĤÕ© Õµ
Ġbe ast
Ġcrowd ed
ren e
ĠÅ Ł
ope ns
get Id
a Ã±
IS O
_tr ee
Ġexplo de
® à¯į
ĠWin e
Pa ra
Para ms
ĠI X
ĠAd obe
ĠWe ather
Ġmutation s
(v iew
ĠFi ne
Ġlung s
ĠMo v
ĠMov e
ĠMov ie
ĠMove ment
Ġtop s
Ġmar vel
ĠStan ley
icion al
ĠNO TE
Â §
Ġà¤ķ à¤°
Ġrecept or
.a n
.an not
ire n
Ġant h
SE D
T X
ĠFlo or
pect or
ik h
ĠArg ent
ĠArgent ina
Ġprotest s
Ġpot s
ka l
Ġnav al
ef ault
- j
Comp ut
Ġconce d
ĠEls e
Ġce s
uss y
dr ive
drive r
ua r
uar y
uar io
br uary
uar t
ounter s
Ġsuc k
EM ENT
Ġli on
zil la
r Ã©
Ġany time
Dest roy
ash a
tha l
rie ve
ĠB S
an vas
ĠDesign er
ĠMal e
ĠLi s
ĠLis t
ĠLis a
>( "
Ġĉ ĉ
Ġsusp icious
Ġbre ach
Ã¤ h
Ġvoy age
Ġrep r
/ _
rou d
, d
Ġup ward
Ġproceed s
ĠCa rm
Ġpla t
Ġplat form
Ġplat forms
uci Ã³
Ġfear ed
ĠBen g
.r ec
oun cing
à´ ķ
war n
warn ing
à« ģ
Argument s
urre ction
áĥ ĵ
ĠUn t
ĠUnt il
m f
Ġdis connect
Ġmetabol ism
.res ult
C U
ĠPed ro
std lib
Compar e
IC olor
(' %
ĠID E
Ġmar ble
ge red
Ġ'/ '
Ġcontrovers y
oy s
ene rs
ĠT s
ki p
upp orted
igh th
ĠRep air
ĠCo al
(type of
ĠEm ma
Ġguarant e
Ġse w
Ġlen t
Ġsea s
Ġseas on
Ġseas ons
à® ³
[ s
ĠN V
ĠÃ¤ r
Ġen f
Ġcha os
tp l
in burgh
ĠJos Ã©
ĠLu ck
ga s
Ġman kind
ump tion
it ical
int a
inta ge
_B ASE
.', Ċ
Ġw re
cri bed
ial e
Ġne l
O H
Ġpeu t
}} _
Ġsin s
WH ERE
Al g
ĠIss ue
Ġshel ls
Ġt b
.m y
REE N
ĉt ype
ĠWi re
ig ible
Ġdel l
Ġdell a
th y
Ġfo s
Ġfos t
Ġfos s
Ġfos ter
Ġfoss il
Ġfoster ing
ĠCla y
au f
Ġuns afe
Ġ× Ļ
deg ree
g overn
n Ã©
OF F
/ l
medi um
ĠHelp er
pir es
ER O
ometer s
lin t
star s
Ġseas onal
_M ASK
Ã į
ung le
Ġk t
> $
eth yl
_C HECK
_L IST
_f etch
ĠTo n
ĠTon y
ire base
Ġ' *
mu nd
fre d
Ġje alous
Ġpath way
ĠÕ ¯
ĠSP I
emp er
sta d
ĉĉĉĉĉĉĉĉĉĉĉ ĉ
Ġsupport ive
get Value
no on
Ġconqu er
be e
bee n
_a s
à´ Ĥ
Ġwh olly
ï¼ģ âĢĿ
_O UT
Ġdose s
ĠLu d
Ġtravel ed
/ F
Ġ" ;
Ġ"; Ċ
Ġconn e
Ġtune d
ĠA u
ĠAu g
ĠAu st
ĠAust ral
ĠAu t
ĠAustral ia
ĠAustral ian
ĠAu to
ĠAu th
ĠAu d
ĠAust in
ĠAu s
ĠAust ria
="" >
ĠAc h
Ġàª ķ
sw ap
ĠHun t
ĠHunt er
E t
abl o
Ġet a
.co py
e ah
(t o
J O
m orrow
_u s
_us er
ĠArc tic
on el
ĠPre f
Ġagr ees
unta ment
;"> Ċ
* >
math scr
à¨ ¾
ublish ed
_ :
ĠEu g
gl as
())) Ċ
ĠTH EN
Ġcore s
ica ls
Ġtra g
Ġtrag ed
Ġtraged y
( Object
aga r
ĠAng e
ĠAnge les
ĠAnge l
m v
.i m
à² ķ
Ġlib er
Ġliber ty
Ġliber t
sl ide
K N
ram es
J e
for c
Ġplant ing
TE GER
ĠBoy s
Ãªn cia
Ġprompt ly
F M
vel y
ĠDe b
ĠDeb ug
hed ral
Del ay
ĠQ U
Ġtube s
à¦ ¸
Ad vertis
Ġstr ide
Ġh r
ĠAr duino
Ġinteract ing
box es
est r
_st ep
he a
hea d
hea der
hea ders
hea ding
hea st
hea t
sa id
itect ure
ed ly
)* *
Ġclear ing
aff e
ĠJer ry
ĠTO P
Ġlegisl ative
Ġstrain s
ÏĢ Î¿
Ġtrade s
Ġrec ur
Re act
Ġca res
yt h
yth on
ĠCA P
ho n
')) ;
')); Ċ
Ġbrow sing
Ġc n
Ġcn t
Ġproceed ed
ĠWat son
valu ation
A f
Af ter
ria ges
ĠFe st
ĠFest ival
Ġdis advant
.V isible
zero s
.ed u
ĠW R
id y
.St art
Ġret r
Ġretr o
Ġretr ieve
Ġz w
Ġrein force
Ġ", "
Ġswe pt
ass y
Ġshe er
Ġai n
ĠTo w
ĠTow n
ĠTow er
v ity
ESS AGE
ati e
Ġcomp t
rec ogn
ĠI Enumerable
Ġmask s
ĠReal ly
M i
Mi n
.set On
Am er
Ġkind ly
Ġ× ¤
mu ch
Ġthr ive
ĠWire less
Ġdiff ers
iti ous
Ġtra y
ox y
Pr oxy
Ġreson ance
} |
Ġexist e
Ġexiste d
To r
Ġpathway s
ĠCONT R
ĠSa ns
Ġbu tt
Ġbutt on
Ġbutt er
Ġbutt ons
Ġadvis or
Ġne c
Ġnec ess
Ġnec k
Ġnec es
Ġnecess ity
We d
Ġtid e
_q u
_qu ery
em ade
à¥įà¤ ¤
Ġgu m
ĠMac k
Ġreveal ing
Ġcapt ion
Ġdesp air
err upt
resp ons
respons e
Bel ow
Ġbase ment
EL L
h ops
uild ing
Ġintr ig
ĠGa y
Se q
Ġas ÃŃ
FE R
Ġpoly gon
ĠArchitect ure
ĉ </
Further more
* -
Ġ(! (
US B
Ġhe ct
RA Y
hi n
hin g
Ġsomet hing
omet hing
ĠNot hing
Ġbreat hing
hin d
not hing
no s
nos t
Ġle x
decl are
ĠVII I
Pre d
ĠShel l
.Res ponse
mi a
C u
Cu r
Ġspo use
[ c
Ġ-> Ċ
Ġf f
DU CT
Ġexp ans
Ġexpans ion
Ġbo il
Ġhes itate
>, Ċ
.a l
.al l
Ġfro st
ĠKa n
ĠSh o
ĠSho w
ĠSho rt
ĠSho p
ĠKa y
(java x
_l e
_le n
_le vel
_le ft
Ġcommun e
ign e
igne d
uns igned
Ġuns igned
- )
Ġtran qu
N F
^ (
Ġbless ing
copy right
reng th
! .
Ġseat ed
}, čĊ
Ġrepr o
Ġrepro du
Te n
Ġlaws uit
¯ à¦
àµįà´ ¤
Ġenc uent
Ġcp u
ATA B
ĠDel ta
ĠMA N
ĠP I
Un d
Und er
ĠK u
ĠMed al
Ġsh o
Ġsho w
Ġsho rt
Ġsho ws
Ġsho wn
Ġsho wed
Ġsho p
Ġsho t
Ġsho wing
Ġsho ot
Ġsho ck
Ġsho es
Ġsho wer
Ġsho ts
Ġshort er
Ġsho re
Ġsho ps
Ġshort ly
Ġsho ut
Ġsho ok
Ġsho e
Ġshock ed
tri but
tribut e
tribute s
ĠAt tribute
" _
Ġex agger
proc essor
_t ask
Ġnav e
Ro bert
ba y
ĠRu d
L T
Ġ\ [
ĠMa nn
Ro t
9 0
_field s
ĠY a
ĠYa n
ĠYan g
Ġfre q
Ġfreq u
Ġfrequ ency
Ġfreq uent
Ġfrequent ly
[ m
arc a
Ġhe d
Å £
ĠMO D
Ġjud g
âĢ¦ .
Mar ker
Ġ( âĢľ
_as s
source s
ķ Į
uda d
%) ,
ĉ F
ĠPri ze
>' ,
Ĥ ´
ĠE g
ĠD A
ĠDA M
ĉĉĉ čĊ
Ġell a
Ġci c
\( {
(s ource
Ġto e
le z
__ Ċ
ene z
Ġcomen t
(' _
buf f
buff er
! ,
Ġcount ies
OUN D
IA N
ude d
Ġen ab
fa ke
Ġà¤ ¯
Ġadvocate s
PAR AM
.pl ot
utor ial
ĠH REF
Ġsig h
Ġsigh t
ĠFi ll
si x
())Ċ Ċ
}' ,
Ġembr y
Def n
Ġcop e
Co mb
âĢ Ĳ
Ġcon sec
ĠStat ement
') :
'): Ċ
ĠU nc
mo t
mot her
ĠD H
++) čĊ
ĠDub lin
Ġsi s
Ġsis t
ĠCirc le
Ġcou gh
Ġdra gon
ĠDi sk
Ġdi sg
Ġ" &
Ġanth rop
.S ub
itt y
Ġtra vers
vert s
ĠO H
ĠLam b
à¦¾à¦ ¨
Ġh u
Ġhu m
Ġhu s
Ġhus band
Ġhu r
Ġhu n
Ġhur t
Ġhun t
Ġhun g
Ġhu b
Ġhunt ing
Ġhung ry
Ġhung er
Ġhu g
Ġhug e
Ġvar char
mar e
du x
ro e
Ġb s
_ad min
see k
Ġ\ $
Ġgrand father
ĠTok yo
Ġsound ed
Ġpert urb
Ġob l
Ġobl ig
It s
){ ĊĊ
Ġnu n
Ġaut ism
_ *
Pe t
ĠKo l
ĠWi Fi
Ġbra ce
ond o
ondo n
ĠB M
.ed it
ĠSupp ose
Ġshort cut
mo ney
Ġignor ance
Ġbore d
Ġn b
# [
=' $
ĠVA R
Ġpac ks
Ġpin g
ET TER
áĥ Ľ
ĠIP v
Ġsuper b
Ġseg u
ank a
Ġ Ö
ito s
ĠB A
ĠBA S
ĠBAS IS
inu s
De ar
ĠBou r
No r
Nor mal
Nor m
Nor th
ĠYe ah
ou x
ba rs
Ġfuel s
Ġ( #
ĠChe r
A U
reg a
bind ing
ILE D
att o
)' ,
$ /
NOT E
Ġorganiz ing
Ġ?>Ċ Ċ
Ġ< >
pen t
( U
io na
iona l
ĠNat ional
Ġnat ional
Ġoccas ional
Ġoccasional ly
LA B
UT C
Ġjul iol
_STR ING
Ġol e
ades h
L i
Li b
Li fe
Li mit
Li n
Lin e
Lin k
.Write Line
Lin es
Ġclean s
ric e
rice s
RI TE
({ "
ĠKl e
inte gr
ĠÕ ¥
ÉĻ r
erver s
ĠLa n
ĠLan d
ĠLan g
ĠLan e
ĠLan c
rac k
, x
ace ut
aceut ical
off ee
ali n
alin g
ibl ing
aria l
A H
acket s
QU AL
Ġpast a
Mon itor
Ġtop ology
Ġunf air
LO AT
IND OW
']) ;
']); Ċ
n x
Ġd d
str i
stri ng
stri ct
stri p
string s
:' ,
i ative
ĠSc ene
du p
LE ASE
7 0
Ġtou s
Ġnurse s
Par allel
Ġreb uild
Ä±n d
nic k
Ġpac king
Ġcontinu ity
Ġpo m
reg ex
Ġak t
Ġpr z
ex e
exe c
=" -
à¤ ¶
ĠScient ific
ĠHo b
ropol itan
Ġimm ig
IP S
(d e
Ġradi al
_ Z
esta t
ro x
ĠÃ ª
ĠÃª tre
Ma rt
n r
Ġhighlight ing
Ġcat ast
Is s
Ġscal ed
N L
Ġ×© ×ľ
ody nam
ĠSou l
asp er
ĠACT ION
s qu
Ġac cel
Ġaccel er
Ġacceler ation
Al pha
Ġelev en
ij i
ĠItem s
Ġgrand mother
Ġ""" ĊĊ
Ġstead ily
`, Ċ
Ġscan ner
Ġdiss ip
Ġfont Size
Ġcond u
Ġfre s
Ġfres h
Ġtag ged
ret s
ĠVi l
ĠVil l
Ġr t
ĠUI NT
Res p
ciÃ³ n
_S C
Ġport a
Ġporta ble
Ġporta l
àª Ĥ
Ġsusp icion
Ġ{} ;
Ġ{}; Ċ
Ġjun y
Ġbou t
Ġkon t
ress ing
Ġus o
Ġpr Ã©
ĠprÃ© s
ime t
imet er
av ax
Ġbe e
Ġbee n
Ġbee r
Ġbee f
Ġbee s
ĠUt ility
Ġwh it
Ġwhit e
Ġwhit es
ĠLe o
ĠLeo n
Ġne u
Ġneu t
Ġneu r
Ġneur o
Ġneur al
Ġneut r
Ġneutr al
Ġverb s
ĠInst ance
_lo ad
Ġtwist ed
ĠDi es
(b ase
oss a
="#" >
ĠNan cy
ĠNi g
ĠNig ht
ĠNig eria
ĠNig er
ĉR T
acc i
Ġdeb e
sp l
spl it
ĠF P
uni form
mi x
Ġbit coin
ura r
( z
Ġmatt ress
cond uct
_s l
ĠEX P
ĠEXP ECT
.fl oor
à´ ¯
ag ost
ĠTam b
Ġtran script
li o
Ġcamp ing
_pre d
ĠTu n
(U ser
fff fff
Ġco ls
Ġcols pan
sol id
Ġintr a
@ interface
F n
)} ,
st roy
ĉĉĠ Ġ
ĉĉĠĠ Ġ
oir e
Ġlower ed
lÃŃ cul
G H
version s
card s
.B ase
ull y
ĠDI Y
jo s
Ġi T
]); čĊ
Ġgrav it
Ġgravit y
Ġpret end
W T
âĢ ī
ĠJa r
bre r
à¸ ¸
ĠSet up
ĠKa m
RO L
Ġpron e
par allel
Ġáĥ Ĵ
Ġcon clud
ĠTe s
ĠTes t
ĠTest ament
ĠTes ts
ĠF u
ĠFu nd
ĠFu n
gl y
cre ment
Ġmar e
Ġdock er
Ġb b
ley s
cu rl
.b uild
Ġpa rl
Ġc z
oke mon
ÅĤ a
Pro of
Ġcand le
Ġreb el
Prom ise
ĠInfo rm
Ġro l
Ġrol e
Ġrol l
Ġrol es
Ġrol ling
Ġrol ls
AN Y
ib t
áĥĶáĥ ļ
Ġlaw y
()ĊĊ Ċ
à¸ Ħ
ĠSi d
ĠSid e
atern ion
Ġw s
.L e
ĠLu cy
.pl ay
.play er
Ġalt re
Ġaltre s
typ ed
typed ef
ĠI o
ĠIo wa
text rm
OP T
prov e
er b
Ġmetab olic
"I t
Soft ware
ĠStandard s
Ġpad s
ĠOb s
ĠObs erv
ĠObserv able
Ġpued es
Ġhands ome
u ard
Ġsyn d
Ġsynd rome
ĠTH REE
Ġih r
Ġbre e
Ġbree d
Ġbree ding
Ġca pit
ano l
ĠNor way
Sim ilar
Ġunf old
Ġgram s
ym met
ott a
atch ing
omi cs
Ġs chem
si a
ĠM M
ĠAu f
× ĸ
Ġ() Ċ
ĠLa d
ĠLad y
ĠFlo rence
.* ;Ċ
++ ;
++; Ċ
Ind eed
Ġcoll ar
Ġgi f
Ġgif t
Ġgif ts
attr s
ĠMars h
Exp er
Ġmi nt
ĠDe g
Ġ/* !
Ġcod igo
ĠSteve n
text tt
urb ed
ĠHy d
semb led
Ġcons c
_ Ċ
? (
8 8
url s
:: _
.ap ply
]] ,
": {Ċ
ĠSn ap
ĉ B
if a
ifa ct
Ġtor que
Ass et
ĠLess er
ATE R
Sen t
cont rib
col a
)= =
Ġbi p
Ġrepeat ing
Ġlicense s
rin k
r n
te rn
Ġinte rn
ve rn
Ġpo rn
es tern
tern s
ĠTu rn
the rn
Ġporn o
aste rn
Ġex terns
pat tern
Pat tern
ĠBa rn
ea rn
Ġca rn
ĠCa rn
Se x
Ġform ul
Ġformul a
Ġformul ation
Br anch
zo om
Ġfoo tage
or king
ĠLa r
ĠLar ge
ĠLar ry
ama s
ĠChi p
Ġmon arch
Ġke t
Ġ( .
à¸ °
ĠGro w
Ġ% .
ĠDom ain
Ġsched uling
Ġknock ed
Ġfi r
Ġfir st
Ġfir e
Ġfir m
Ġfir ed
Ġfir ms
Ġfir es
Ġfir ing
Ġfirm ly
Ġfirm ware
Ġva s
Ġvas t
ĠL C
ĠLC D
)ĊĊĊ Ċ
sen s
ia o
Ġspring s
urb an
Ġqui z
Ġclean up
Ġtrap ped
ĠNam es
Be r
ĠIn g
Ġadjustment s
und ial
ĠSI ZE
ï¼ ĳ
Ġpro peres
Ġst o
Ġsto p
Ġsto ry
Ġsto re
Ġsto ries
Ġsto ck
Ġsto ne
Ġsto red
Ġsto od
Ġsto rm
Ġsto res
Ġsto ps
Ġsto nes
Ġsto cks
Ġsto m
Ġsto ring
Ġsou s
rad e
boy s
Ġ; ;
Ġastr on
)] ;Ċ
ĠMas k
"] [
"][ "
Si r
Ġunc on
ĠPara d
Ġsem antic
ĠAdv is
ĠOp p
ĠF I
ĠFI T
ĠFI G
Ġquick er
Ġalleged ly
Ġbe w
Å Ī
Ġdis app
Ġà¤ Ķ
Ġfat s
Ġu d
(B y
.In stance
MI T
Ġgl o
Ġglo bal
Ġglo b
Ġglo be
Ġglo ry
Ġglob ally
Ġglo w
Ġglo ss
Ġy y
is Empty
Ġparse Int
cas tle
od s
Ġmeth ods
ĠDa d
MA C
ĉm y
col s
ĠF ashion
Ġcompete nt
Ġfe brer
atori es
Ġshel ves
w b
x C
Ġpropag ation
Ġth eta
Ġtempl es
ĠKe l
reate st
Ġcub e
.g nu
Ġgravit ational
Ġman s
Mo r
Mor e
More over
REFER RED
Pe rs
Pers on
/ P
, m
ĠPu erto
G D
Mo nt
Mont h
à® ķ
Ġvan illa
ĠSi c
itz a
itza r
à§ Ł
Ġspokes man
Ġra g
Ġrag e
Ġ( <
ist ered
ertain ment
ĠBi ology
Pr ob
Ġpobl e
Ö ī
R P
Ġsum s
_cl ose
Ġdis comfort
Ġfiber s
Ġp H
Ġdys function
(s ql
Ġride s
Ġveget ation
Ġja n
enci al
illo n
ug a
uga r
à® ²
Ã¤ l
Î½ Î±
esso n
×Ļ× ª
=> {Ċ
.") Ċ
_O P
Ġ/ .
' a
Ġcomb o
Ġost e
ĠKu r
l Ä±
Ġinnovation s
P F
Ġaffili ate
ĠNic e
IT LE
ida ble
Ġlu g
ĠNaz i
} =\
Sk ip
ĠĠĠĠĠĠ ĠĊ
ĠFi tz
Ġep s
oma l
Not ice
rob ot
cho ose
Ġ}); čĊ
tu ple
ĠAz ure
v p
Ġsty lish
ĠPo or
uni ts
LI B
CL A
CLA SS
ĠSand ers
Ġpose s
ce p
cep t
cep tion
ex cept
except ion
ception s
Ġsus cept
Ac cept
cep tor
ĠAc cept
Ġsuscept ible
Ġdad es
Ġunw anted
}} _{
_h ost
Ġper ipher
Ġhat red
ĠRat ing
Î¯ Î±
.st op
hour s
F B
Ġattorney s
Ġkill er
.Se rial
ĠRo c
ĠRoc k
vi t
Ġes o
à² ³
*> (
/ a
Ġjun ction
Ġd c
") [
Ġdiv ing
lines s
pow ered
Ġpursue d
< I
Lin ux
ĠLay er
Ġt m
Ġtm p
Ġcha se
urop a
Ġà® ª
ĉs ize
Lo s
ĠPh ase
.Tr ans
ĠF o
ĠFo r
ĠFo rm
ĠFo re
ĠFo rt
ĠFor ce
ĠFo rd
ĠFo x
ĠFo rest
ĠFo l
ĠFol low
ĠFollow ing
ĠFore ign
ĠFo rum
ĠFo u
ĠFou nd
ĠFound ation
ĠFou r
compat ible
Ġâ ī
ety pe
Ġagr eg
Ġpole s
)) :
)): Ċ
otta ge
à¸ «
duc e
US A
Ġni v
ĠJohn ny
or ate
_I S
usa ble
Ġmal l
GREE K
ĠNa g
Ġsal mon
ĠMet ro
ip y
to Equal
_f irst
Ġacon segu
Ġhav er
; j
Ġroutine s
% s
nav igation
¶ Ģ
ĠTher apy
âĸĪ âĸĪ
ĠDr a
ĠDra w
ĠDra gon
ĠGene rate
)" Ċ
Il l
Ill ustr
seg ment
AR I
Ġclo set
an aly
Coll ect
Collect ion
Collect ions
fon o
Ġpou red
default s
.col umn
Ã¨ t
Ġca red
plement ed
gon e
Ġs r
Ġsr c
emp re
Ġesta s
Ġ/ =
Ġcompar t
ĠTerr a
Ġillness es
F ut
ĉ H
AR M
Ġda g
Ġpes t
Ġpest ic
IDE NT
sec ut
compile r
Ã¤n g
ref s
ĠStruct ure
ĠSU M
get String
tee s
_B O
idel ity
_R EF
Ö ·
Ġcoup on
ys ql
Ġsuc cession
Ġtrans ient
Ġord in
Ġordin ary
ĠGe o
ĠGeo rg
ĠGeorg e
ĠGeorg ia
aquest a
Ġpressure s
.P REFERRED
.a m
ACH E
He n
Ġ"/ "
Vert ical
ĠEd inburgh
ri u
riu m
Ġre use
Ġliv ely
Ġà¦ ®
ĠRobert s
da r
dar k
Ġnation wide
Ġdo w
Ġdow n
/* !
Pre m
ec ycle
ĉl ist
×ķ× Ł
TA G
su mer
in h
Ġchop ped
Ġappar atus
Ġtrab aj
Ġsa r
Ġsol l
lett ers
osi on
r Ã¡
Ġsuper s
Ġdon a
Ġdona tion
Ġdonation s
ij d
// !
Me l
Õ¸ÖĤÕ ¶
= _
ĠCreat ing
Ġtra m
match es
ÏĦ Î·
_G et
mes h
ow e
owe r
owe d
Ġemp ower
owe rs
3 1
Ġlens es
Ġass im
Ġstem s
elli do
Ġà¤Ķ à¤°
¡ °
rat io
ratio n
Ġinteg ration
Ġmig ration
Ġmigration s
ĠGene ration
Ġ. Ċ
Ġ.Ċ Ċ
izen s
á» ±
ĠR d
_s c
_sc ore
aci a
acia l
acia s
ĠHu g
ĠLin ks
rim oni
Ġà° µ
Õ ´
ram a
Ġfe n
Ġfen ce
ĠSD L
est ab
Ġ% (
za r
Ġabs t
Ġinteg rating
ĠIdent ity
riend ly
}ĊĊĊ Ċ
Ġpartnership s
RE T
_a n
_an d
T y
Ty pe
Ty pes
Ty p
ĠProp Types
Ġred is
Ġredis tribute
ge u
Ġcapit a
Ġcapita l
ĠRE T
Ġnom e
Ġnome n
Ġn t
tr o
Ïģ Î¿
Ġe f
Ġef f
Ġef fort
Ġeffort s
Ġef fic
Ġeffic acy
iga tor
ry s
cor n
, t
Ġow ing
mic ro
Ġtra um
Ġtraum a
Ġblow n
f y
Te r
Ter m
Ġku r
ĠLED s
Ġpi v
h m
hm a
Ġast hma
Ġ, Ċ
ĠA j
met res
ati cs
Ġgra ns
(std err
0 5
asse r
asser t
assert Equal
assert Equals
As k
lish ing
Ġpi Ã¹
lem en
reat ment
Ġdiet s
erc a
ok s
Bit map
ura n
uran ce
Ġins urance
uran t
Ġresta urant
Ġrestaurant s
ĠIns urance
Ġformul as
Ġvie wer
Ġviewer s
odi go
.Param eters
ric ks
ĠVa c
ĠÏĦ Î¿
ĠÏĦÎ¿ Ïħ
Î± Î½
pan ic
Ġarrib ar
ĉĉĉĉĉ Ċ
Ġbe z
Ġcrash es
Ġproceed ing
Ġproceeding s
Ġlongitud e
ye t
tip o
tc p
ty m
á» ķ
sh aped
Ġfran ces
ĠCa rs
Ġ× ł
ĠPR E
!) .
Ġrepl ica
Âł km
se ver
Ġtem a
ra its
OC K
v v
ag h
IF Y
; }
;} Ċ
b x
urd y
ĠON E
sta l
Ġro s
Ġros e
ĠNev ada
riv ial
:: ~
=$ (
Ġr v
row ave
Ġcosm ic
M orts
Ġscre am
nu mer
ĠRa f
.Rem ove
phy s
emi n
alm ost
ĠÃ© l
Im p
Imp l
Imp ort
Ġte cn
flat er
ĠMO S
Co ord
.sw ift
% (
Ġmar s
Ġli me
Ha b
Ġnon linear
But tons
Ġrem ed
Ġremed y
áĥĲáĥ Ľ
Da ys
ti le
W O
_RE AD
ĠDa k
ĠDak ota
Ġexam s
' S
} )$
Ġson o
ib e
ibe r
scr ibe
ĠĠĠĠĠĠĠĠĠĠĠĠĠĠĠĠ ĠĠĠĠ<
/ D
Ġw o
Ġwo r
Ġwor ld
Ġwo rd
Ġwo n
Ġwor king
Ġwor ks
Ġwor ds
Ġwo m
Ġwom en
Ġwom an
Ġwor ry
Ġworld wide
Ġwo nd
Ġwond er
Ġwonder ful
Ġwor ker
Ġworker s
Ġwor ried
Ġwo rn
Ġwond ered
Ġworks hop
Ġwo re
Ġworkshop s
Ġwor den
Ġte x
Ġtex t
Ġtext ure
Ġtex ts
Ġtex to
Ġav g
K B
ny a
Fi x
Fix ed
uzz le
cri b
Ge orge
Ġdoubt s
hel m
Cu t
rad a
Ġ' [
Ġà¦ Ĩ
ri que
uit y
Ġeq uity
Ġm Ã¡
ĠmÃ¡ s
à¤¾à¤ ¤
CA T
ĠTem p
ĠTemp le
ĠTemp late
ci o
cio n
cio us
(){ čĊ
Fl o
Flo at
Flo w
Ġorb ital
str cmp
")) .
imo n
_v ec
Ma ry
OL UM
empres es
ĠCre am
Ġaus s
Ġauss i
-b y
Ġche ek
Ġruin s
IF I
Ġencounter s
bra l
Ġcapture s
á» ĥ
Ġ}} "
Ġ[] ;
Ġ[]; Ċ
Ġstra p
ores t
Ġill um
ep ar
tor ch
ĠU C
.s um
bu y
(l abel
OUR CE
ARR AY
-a l
-al ign
ĠDel l
s cri
Ã¡ g
Ġv ÃŃ
Ġsle e
Ġslee p
Ġslee ping
à±įà° ¯
ĠBas s
Ġfool ish
() `
pro j
proj ect
\< ^
(m y
Ġrend a
yect o
. o
.o ut
.o rg
.o n
.o pen
.o s
.o f
.o p
.out put
ling ton
map ping
se par
VA R
ĠBat t
ĠBatt le
.int er
ĠCamp aign
Ġaren a
Ġaver aged
_ %
ultip le
xe s
Ġinde xes
ede d
Ġsp a
Ġspa n
Ġspa wn
T x
(re f
Ġà¤ª à¥įà¤°
.Dis pose
/ ,
unte d
ĠSc hw
ĠOb viously
PE G
ĠLa p
Ġprimer s
áº¡ i
([ "
_b l
-b e
Ġtumor s
Ġàª ª
Ġesto y
Fr ench
ĠLo op
Ġsh if
asse n
Ġappearance s
Ġsix ty
Ġ+ :+
Ġhor a
ĠOper a
ĠOpera tion
ĠOperation s
Ġconqu est
Ġscar y
an Ã§
anÃ§ a
Õ¡Õ¯ Õ¡Õ¶
Ïģ Î±
ĠPay ment
. Z
Ġmai d
ĠST E
ah u
ropri ate
Doc uments
(i t
(it em
asp berry
uciÃ³ n
Ġw i
Ġwi ll
Ġwi n
Ġwi nd
Ġwind ow
Ġwi de
Ġwi sh
Ġwi ld
Ġwi fe
Ġwi d
Ġwid th
Ġwi re
Ġwind ows
Ġwi ne
Ġwid ely
Ġwire less
Ġwid get
Ġwi s
Ġwis dom
Ġwi se
Ġwi der
Ġwi e
Ġwi ng
Ġwi ns
Ġwi rd
Ġwing s
Ġwis hes
Ġwi res
Ġwi ring
Ġwi r
Ġwi t
Ġwit h
Ġwit hin
Ġwit ness
Ġwitness ed
Ġwitness es
Ġwi ves
Ġwi fi
estr e
>" ,
iti c
Ġcomic s
los ure
Ġm c
Ġoppos ing
La w
phe rd
ĠChem ical
bra s
ada l
pe l
Ġha ss
à¯įà® ª
ĠFi ght
Ġprolong ed
Ġec o
Ġeco nom
Ġeco n
Ġecon omic
Ġecon omy
Ġeco system
Ġecon omics
Ġ({ Ċ
uru s
tab s
filter s
can not
_{ (
Ġout ward
ĠFi nn
Ġsig ma
E Q
iat ric
ĠCa nd
Ġà´ ª
charg ed
]) :
co ord
Bo n
Ġconstitute s
foot note
phys ical
Ġ× ĵ
_lo c
Ġspl ash
imit s
Ġ\ ;
ast ics
Ġmis m
Ġmism o
<< <
extend s
ump ing
]] ;Ċ
ĊĠĠĠĠĠĠĠĠĠĠĠĠĠĠĠĠĠĠĠĠĠĠĠĠ ĠĠĠ
Te x
Tex t
.set Text
Text Field
Text Box
set Text
ĠVis ion
Ġba k
Ġfeas t
)( (
)(( (
ĠKa p
adi r
mys qli
ĠHol iday
Ä± ÅŁ
Ġpi s
Ġpis t
Ġrise n
ĠPre c
Ġpe p
Ġpep per
Ġu g
Ġ+ #+
dition al
H H
pare n
paren t
paren cy
paren ts
ĠForce s
hi t
CA P
man ual
ĠFu t
ĠFut ure
ĠStan ford
lot te
ifi ca
ifica r
ifica nt
Z Z
Ġfut bol
Ġcou s
Ġcous in
_cont rol
ĉ },
Ġte d
Ä Ĺ
à´ Ł
/h tml
Ġsympt om
Ġsymptom s
.ex it
Ġdash ed
ini s
mi th
inf orm
ĠBi r
ĠBir d
ĠBir th
Ġa ster
áĥ ľ
Ġpic s
Ġimmun ity
ĠEn h
ĠPan t
Ġfoundation s
.res et
Ġest Ãł
FI N
art z
rown ed
comm erce
odi um
ĠDur ant
ĠKen ya
Gu ard
ST M
' h
Ġscr ut
Ġsoci o
og r
3 7
ĉ y
ĠCI A
ĠSU B
ue t
Ġster n
fl amm
ymb ols
ĠT M
Ġpe rc
Ġperc ent
Ġpercent age
Ġpric ed
Ġcra fts
lla Ã§os
antic s
Ġ( `
.S ave
Ġfl ies
Ha m
Ġwar fare
Ġadd ict
Ġaddict ion
ut i
uti on
uti l
uti ons
rib ution
it ution
uti ls
Ġresol ution
Ġrevol ution
uti ve
vol ution
ĠExec utive
it utions
ĠSol ution
ĠSolution s
Ġrevolution ary
us hes
HE AD
AT T
.An y
l ix
Ġknowledge able
si d
sid e
side bar
lim e
Ġschema tic
over ty
ĠFl ight
ete ct
/s t
ĠScan ner
ulo s
Ġresolution s
ĠNo m
Ġpit y
po d
Ġdis closure
part ition
Ġ' &
, )
_w ord
log s
Ġkl e
Ġforg ive
Ġru s
Ġrus h
Ġrus t
Ġrus hed
Ġdisconnect ed
.ex p
0 4
band s
ĠSen s
lah oma
Ġreceptor s
x E
ed d
rant s
Ġche f
fortun ate
Ġun fortunate
Ġunfortunate ly
á» ģ
á ģ
ates t
Ġgre atest
Ġs Ã¥
Ġdona r
Ġjo g
Ġwi nes
Ġer e
Ġere ct
_result s
Ġprint ln
<h tml
ĠCar ib
ĠValue s
ult a
ulta n
hal l
s os
.R E
ĠNet flix
.st d
kl e
Ġhor r
Ġhorr or
Ġhorr ible
ĠÃ ĸ
$ ^
F X
ste d
Po sted
Ġtru sted
Ġoutlet s
d agger
V s
\ |
ĠBa rb
Le ave
ĠVo ice
fe n
ENT S
/ k
ik u
All oc
ott e
otte d
otte n
Ġforg otten
ĠCharl otte
Ł ¥
ll i
ĠWi lli
lli b
Book s
Ġsem ester
ic l
icl e
icl es
Ġveh icle
Ġvehicle s
ĠArt icle
Art icle
ĠArticle s
is odes
Am b
Ġrest r
Ġrestr ict
Ġrestrict ed
Ġrestrict ion
Ġrestriction s
ant ine
ĠCOM P
Ã² n
Ġscreens hot
.I N
Ġrg b
Ġrgb a
_lo cal
Ġut ilities
comp et
Ġsec ular
to m
bot tom
Bot tom
ĠAu tom
- o
-o ld
-o f
-o n
-o ff
áº ¯
-f or
-for m
ĠHe y
Ġco arse
or p
orp h
orp or
om orph
omorph ism
ĠBe h
_U S
Ġb c
ple ase
Ġh arv
Ġto g
Ġtog ether
Ġtog et
Ġtog gle
.' "
Ġelem ento
Ġblo ss
Ġfu ng
User Id
ĠProt ect
py test
erv iew
_ Q
ĉt ext
3 4
bel ow
Ġsole s
Å ĵ
_lo gin
Ġcin c
Ġflood ing
Ġwond ers
Ġri u
Õ¡Õ ¿
Ġpic kle
aya n
n 't
_se nd
Ġgl i
Ġconcept ual
Ġblow ing
sc ient
ca d
Ġja k
ĠMar vel
ĠKr e
gra t
ĠO C
Serial ize
Serialize r
=" '
Ġses s
Ġsess ion
Ġsess ions
Ġadjust able
ĠEXP RESS
_e p
Ġhabitat s
_w idget
pons ive
(* *
i Ãł
Ġc t
Ġct x
I r
ĠLoad ing
M W
EA R
Ġsubst rate
cu le
cule s
Ġmole cule
Ġmolecule s
ĠDES C
Ġreserv oir
Ġcot tage
ĠMA R
opl us
Ġend ure
uff ix
at r
atr i
atri x
atr e
ĠThe atre
atr o
ĠBroad way
ĠEx it
COM M
Ġseat ing
F N
ĠProb ably
Ġri m
Ġsum m
Ġsumm er
Ġsumm it
Ġsumm on
Ġban g
agnost ic
ĠCr y
u o
uo us
_B Y
ug ment
ĠMo ng
*/ čĊ
Ġh p
ĠRes p
ĠResp onse
ĠResp ons
' ^
]. [
ut z
af ka
L U
ori an
' $
ĠZe it
ere nc
th reshold
ieu r
ock ing
. `
Fi t
ĠRes et
Ġdisk s
Ġadvoc acy
Ġillustration s
hi d
hid den
hid e
PER T
i op
we i
* {
te l
ĠHo tel
tel e
Sch ool
Ne g
Ġtherap ies
ĠTit an
ous t
oust ic
!" ,
Ġà² ®
()) čĊ
r Ãł
gan g
Ġe i
Ġei n
Ġei ne
Ġei ner
Ġei nen
may be
oli a
=' ,
ĠDen mark
Ġhe el
Ġheel s
Ġsle pt
Ġkill s
Ġsim p
Ġsimp le
Ġsimp ly
Ġsimp l
Ġsimp ler
Ġvert e
Ġverte x
Separ ator
ik k
numer ic
helper s
S aturday
roph ic
ĠDar win
K n
Kn ow
o est
Ġseg le
est o
Ïī Î½
ĠMi nor
Ġsignal ing
lig a
esse l
]] Ċ
wh el
ĠRu by
ĠBud dh
ja s
Ġwr ist
rep ly
pic k
pick er
Ġshar ply
ĠA A
ĠHom es
anc ement
Ġfri ction
Illustr ation
Ã´ t
ĠHe t
sl ot
ĠExec ut
Ġrec ib
Ġmonument al
Ġevident ly
ull a
En lla
un wrap
N V
, _
imo s
Ġwind ing
Ġstd out
us i
usi on
usi ve
usion s
usi c
Ġsur render
ĠDra g
C s
b ast
ade qu
ala n
alan ce
alan d
ĠZe aland
_a tt
_att r
ĠCD C
En llaÃ§os
SE E
ÃŁ e
ÃŁe n
Ġcomparison s
_sp ec
ani el
Ġres ign
Ġan a
Ġana l
Ġana ly
Ġana log
Ġanaly ze
Ġanalyze d
Ġà¦ ¹
da n
ret ty
Ġtun ing
Struct ure
Ġstra t
Ġimpl ant
Ġunc over
ĠKe r
Ġnur t
amma d
âĢĻ Ã©
ĉĉĉ <
_CL ASS
ĠMi k
ĠMik e
) !
ude r
×ķ× ľ
ĠAr ound
Ġdent ist
_T ype
Ġexpl ic
Ġexplic it
Ġexplicit ly
oo p
Ġgentle men
oles c
ĉ /**
Ġsitu at
uto s
ĉ L
ĉL ist
Ġà¤ ĩ
_W IDTH
- "
Ġ"< <
EN V
ra zy
ĠMini ng
.g o
.go v
comm unic
0 8
hy th
g ather
Ġvolunt ary
th r
thr ead
thr ow
thr ows
thr ee
re o
wh ether
* \
Ġdefe r
ĠĠĠĠ $
(se t
Å¡ ÃŃ
âĤ Ĥ
rob e
ĠGe m
ind u
Ġve s
Ġves s
Ġves sel
Ġvessel s
Ġves t
Ġfrustr ation
ĠNor t
ĠNort h
ĠNort hern
ĠSte r
Ġls t
lib s
Ġow e
ĠOf fer
CP U
get Instance
_de c
_DE FAULT
Ġdec ir
/ )
Ġalt itude
Exp ect
Expect ed
termin al
cha rs
Ġ". $
= /
}; ĊĊĊ
ĠSalv ador
anim ate
Ġty r
cl ub
lab or
ann o
anno t
anno n
annot ation
Ġn r
ĠAl s
ĠAls o
er ated
ĠSE C
Ġser um
ĠMi s
ĠMis s
ĠMiss ion
ĠMiss ouri
user Id
Ã³ d
ĠOr d
ĠOrd er
ĠSI M
ĉa uto
G I
GI S
GI N
ym e
áº ¹
ard e
arde n
arde d
Ġbak e
vel t
Ġtru nc
co v
cov er
cov ery
cov ered
Ġpropag anda
Ġbar r
Ġbarr i
Ġbarri er
Ġbarri ers
ven ile
ĠFe m
ĉĉĉĉ <
athe rs
Ġpsych iat
log ic
Pay ment
Ġyo g
Ġyog a
Ġinter cept
bro ken
ĠHig her
ĠNo u
ĠU T
ĠUT C
ĠGrow th
ĠCel e
Ġjo u
Ġjou r
mo z
ĠFun ctions
hor t
Ġtim ed
ĠPa v
ĠGene ric
Ġtension s
ĠSym fony
ĠMode ls
olt ip
ĠB P
Ġdispute s
Ġto String
equ ip
ĠQue ue
te k
ĠAn c
ĠAnc ient
ĠFif th
ĠIns tit
ĠFor ward
gi f
Ġ: -
iev es
num py
_O F
_OF F
Ġes a
ĠHell o
atern al
Ġan x
Default s
channel s
=' "
y i
Sun day
sa m
sam ple
sam e
Compar ison
aver s
Õ¶ Õ¥ÖĢ
Ġgru b
Ġtransf ers
Ġrebel l
Ã½ ch
Ġbree ze
ĠCho ice
Ġnumer ic
Ġnumeric al
.ex ception
p oca
peri ence
ĠAtt ack
ge on
Ġp x
aur ant
e o
Ġrh y
Ġrhy th
Ġrhyth m
mi ts
MOD ULE
Ġhazard s
D X
angle d
inv oke
Ġdefend ing
Ġpad d
Ġpadd ing
bs t
unt s
à¤ £
Ġ") Ċ
ĠEx am
ĠExam ple
ĠExam ples
Ġfight er
Ġfighter s
Ġ{} ".
Ġad ul
Ġadul t
Ġadul ts
ĠSa x
un less
( W
hea p
- V
ne z
Ġact ress
_rec ord
Ġhate d
Ġfi s
Ġfis h
Ġfis hing
Ġfis her
ide bar
zz le
secut ion
Ġni n
Ġnin e
Ġnin g
inq u
"]) Ċ
ĠL TS
rup ted
Ġer u
Ġmo g
ĠCou n
ĠCoun try
ĠCoun ter
mu l
mul t
mul ti
mult icolumn
ĠWH O
ighter s
Ġeth er
_reg ister
, v
tt y
Ġur g
Ġurg e
Ġurge d
Ġurge nt
ĠA x
Un a
Una ble
u w
.to ken
Ġenc rypt
Ġencrypt ion
Ġencrypt ed
ĠRos a
ÃŃc ul
Ġ> Ġ
hea ded
Ġlb s
lier s
ĠL M
_r el
fa ir
ain less
Ġtrav Ã©s
ĠrÃ© s
Ġdar i
und ry
erm al
ĠJam ie
.t v
sl ow
Ġdrag ged
ur ally
atr a
Ġpred omin
bl a
bla ck
Ġfu er
ĠBelg ium
Ġas semb
Ġob res
ĠFle x
Ġcommunic ating
Ġdisappoint ment
ĠMan hattan
Ġcool er
be g
beg in
veh icle
Ġgenre s
ĠPrem i
ĠPremi er
mon itor
Ġ{}, Ċ
Co ok
ĠMen s
ĠCarl o
ĠCarlo s
Fr ont
ĠGen der
ĠPan d
Sup press
iet y
Ġanx iety
) =\
Õ ½
\ {\
Ġgr i
Ġgri d
Ġgri p
Ġgri ef
MS G
_ o
_o f
_o n
_o ut
_out put
_on ce
_o r
_o p
_o pen
_o ne
_o ff
_off set
), \
mis t
re rs
Ġignor ant
Can vas
Ġtransform s
ĠPl ot
Ġwell ness
Ġsq rt
_M ETHOD
_ '
Ġpla g
inv est
Ġmolt s
Ġpose d
Ġmor ir
fi lm
i w
Ġbee t
zie r
ish a
0 9
LA N
e al
ĠComput e
ĠCompute r
VID IA
ĠColumb us
Ġkt Ã³
USE D
sm ith
Ġmental ly
Ã¼ l
(in fo
_int er
\" ,
Ġca non
Ġcanon ical
={ (
={( )
ĠMap s
Ã Ĥ
Ġcer v
ide a
Ġcondem n
ist o
isto r
istor y
Ġtrans istor
Ġspa m
ĠN H
CP P
Ġillum in
.B undle
Ġju m
Ġjum p
Ġjum ped
Ġjum ping
.t h
.th is
ue z
Ġii i
jo n
Lin ks
ĠEvent ually
++ ]
_U P
Les s
igu ous
asty pe
Ġcardi ac
to c
toc ol
Le ad
alle s
Pe er
Ġvic inity
Ġpars ing
F ET
Ġcong reg
w edge
Ġdefend ant
ans k
af t
aft er
anger ed
Ġ"") ;Ċ
ME M
Ġcontroll ers
ak k
read cr
av o
avo r
avo rs
avo rite
mo v
mov e
chem y
Ġpop ul
Ġpopul ations
qu itect
ides pread
`Ċ Ċ
ĠR X
Ġsup ort
%; Ċ
Ġdro ne
I p
Ġdefe ns
Ġdefens e
Ġdefens ive
Ġset Up
ĠĠĠĠĉ ĉ
Ã¡ m
Ġoptimize r
re u
och ond
sw ith
[ t
á» Ł
FL AG
web site
ate l
atel y
fortun ately
ĠUn fortunately
Un fortunately
medi ately
re b
s ized
apa t
ĠNa ch
Ġsoci ally
i á»
Ġus a
Ġusa ge
Ġusa r
** ,
Ġva rs
loc ks
Ġsubs cri
Ġcontradict ion
Ġimpact ed
> /
Ġsho uted
oga n
Ġru d
Ġrud e
ĠCa sa
_TR UE
Ġcaso s
Ġka m
ins i
insi c
(' :
ne e
nee d
ĠU R
ĠUR L
ĠUR I
Ġwi des
Ġwides pread
" (
ÅĤ o
.s vg
Ġus u
Ġusu ally
Ġusu al
Ġusu ario
ĠPro of
ib u
ibu s
> `
ĠJe t
sim ilar
Ġgri m
chedule r
_ex p
ani c
Ġcit e
Ġcite d
: s
:s elf
Ġtherap ist
ago g
ĠNet her
ĠNether lands
TR Y
yl um
=" $
="$ {
ĠK itt
, a
ĠFin land
ĉi d
uck ed
device s
}, {
Ġad olesc
ĠQue bec
ĠPu l
Ġà² ¸
ĠCo b
Õ ¯
ĠGeneral ly
Ġ"\ "
ole c
])) ;Ċ
ĠIns p
Ġvote r
Ġvoter s
ja x
Ġsod a
Ġfold ed
scr iber
Ġcompt e
á» Ľ
Ġobten er
.s rc
ĠAnt ar
pin e
Ġvi l
Ġvil l
Ġv u
Ġvu l
Ġno g
ĠMont real
ĠPu sh
ĠNob el
Ġs ÃŃ
v n
Ġ( &
ĠMA T
logo ut
Ġho b
Ġhob by
Ġti r
Ġtir e
Ġtire d
Ġtire s
Ã¼ t
3 8
Ġsuppress ed
)} }
5 5
ĠField s
Ġlb l
att i
atti ce
_b ar
bor g
ĠSS H
ĠLat e
ĠLate r
es k
ations hip
Mi x
iel e
Ġsold er
}" .
ĠÂ ł
Ġ( ;
Ġca reg
_n e
_ne w
_ne xt
do s
Ġflu or
Ġfluor es
Ġcharge r
imi r
Ġna d
Ġnad a
ore t
Ġmu c
Ġmuc h
ĠSuper ior
a q
aq u
aqu e
Ġ} .
Ġvi sa
Ġcomp ort
ĠP V
ĠF T
ĠI h
= s
=s elf
ult ane
ĠN u
ĠNu m
ĠNum ber
ĠNu t
ĠNu ll
Ġfellow s
Ġwh isk
Å ±
_flag s
- i
-i n
-i con
-i d
-in put
-i nd
Ġdebe r
hav ing
ega n
Ġpr oj
ĠBud get
ĠPi t
ĠPit t
Ġ[]Ċ Ċ
big g
()), Ċ
ATT R
bre ad
.s ource
othe rs
Ġpill ow
Ġla m
Ġlam p
Ġlam b
Ġlamb da
Ġlamp s
Fe cha
act ed
Ġattr acted
ibling s
Ġski rt
_b it
che t
.u k
wa t
wat er
wat ch
[i d
[id x
Su re
.e ach
Ġgu i
Ġgui de
Ġgui d
Ġgui des
Ġgui ded
Ġgui lt
Ġguilt y
Ġdigest ive
Ġca sc
TR GL
here s
âĢĿ )
Ġveg ada
ito l
Ġun common
ĠMi ne
ĠES T
Ġnon profit
Que st
Quest ion
Ġcat h
ĠRu s
ĠRus s
Ġc á»§
Ġcá»§ a
Ob s
áĢ ¬
Ġut most
ĠÎ ¿
Ġpot ato
Ġpotato es
Ġdell e
Ġnou r
ĠBuddh ist
Ġdan n
Ġun ve
ĠDur ation
Ġtrag ic
"../../ ../../
Ġexploit ation
att a
atta ch
atta ck
c reat
ĠDam age
Ġtrib al
ĠZ h
Ġlet t
Ġlett er
Ġlett ers
Ġlett ing
mov ie
P V
Ġwi l
Ġwil ling
sc al
ct ed
]" ,
cal c
calc ul
Ġspons or
Ġsponsor ed
# a
Ġembod iment
ed o
edo m
0 7
OT T
ouse d
ĠPat ient
Ġdef ic
Ġalt a
Ġalta r
< option
Ġfore head
ĠCollect ions
B s
Ġdam n
ah o
T oggle
Ġhur ry
ĠPatient s
"] ;
"]; Ċ
Ġdisturb ed
imen s
Sl ot
et ically
IC H
Ġburn t
LE FT
eh icle
ific i
ĠMu l
ĠMul t
ĠMul ti
_M ESSAGE
Ġscal a
Ġscala r
Ġju e
Ġàª ¸
Ġpel o
)| |
Ġsurviv ing
ĠCR E
[ /
iche r
ĠTr u
ĠTru e
ĠTru mp
ĠTru st
ĠTru th
ĠSoc orro
id enc
Ġesta n
contin u
continu e
ĉ continue
Ġtort ure
_p ush
ik t
ĠCra ig
.Char Field
Top ic
ĠPu n
[s elf
Ġà¤ ¥
Ġsn d
ĠS B
Ġagr ic
Ġagric ult
Ġagricult ural
Ġagricult ure
no d
nod e
nod es
ĠY u
Ġprem ature
Ġsi empre
ĠkÃ¶ n
Ġflo r
Îµ Ïģ
LI N
LIN E
Di sk
DA O
geo m
geom etry
Ä °
ga p
Ġrib bon
Ġcircum stance
Ġcircumstance s
ĠUr i
Ġcomb in
Ġcombin ed
Ġcombin e
Ġcombin ations
Ġcombin ing
Ġcombin es
Lab els
ĠT C
ĠTC P
sm art
smart y
retch ed
Inv oke
contr i
Ġlose s
Ġimm igr
Ġimmigr ation
imit er
ose x
ear chers
Ġmall oc
") :
Ġsegu ir
nel s
à¤¿à¤ ¤
ĠUn cle
qu o
quo te
quo t
< quote
Ġter c
.""" Ċ
idi r
Act ual
Ġpuls es
uj e
ĠBa k
Ġps e
Ġpse ud
Ġpse udo
Ġkit s
/ B
Ġoxid e
")); ĊĊ
ĠBuddh a
Ġmiss ile
cu lt
ana n
got o
("- -
Loc ale
Ġt Ã«
scription s
nel l
Ġcur v
pret ty
_b atch
Ļ Ĥ
.has h
++; čĊ
ĠBro w
ĠBrow n
à¹ Ħ
RO OT
_S et
ĠKo s
rib ly
Prot o
Draw ing
Ġnative s
Red irect
Ġp b
came ra
ert ation
Ġrefr es
Ġrefres h
Ġrefres hing
Ġfertil ity
oca ust
Ġnavig ating
ĠForm s
ĠLan ds
ĠHug h
Ġp k
Ġrac ist
nea r
ĠLi near
cu la
cula r
Ġmole cular
cula te
ole cular
hea ds
< label
ĠSyn tax
pe ut
Reg ular
.DE FAULT
bu d
ense n
ĠAdd ing
ĠCat ch
Y e
Ye s
Ye ar
Ye t
ĉ /*
Ġmort al
Ġmortal ity
sam ples
19 9
aba n
Ġmore over
ĠTa k
ĠTak e
ĠTak ing
_IN IT
ĠCo v
Ã¼n d
ĠStr e
ĠStre et
ĠStre am
W r
Wr ite
Wr iter
Wr apper
Wr ap
Ġpa m
Ġfer m
IST S
Ġ|| Ġ||Ġ
Ġcor al
Similar ly
Ġvolt s
ĠMot ion
BA R
Ġvoc Ãª
Ġactiv ist
Ġactivist s
ĠHan n
âĢľ We
gp u
-on ly
_se q
/s h
Ġac e
_F OR
_FOR M
= Ċ
_F R
ĠCo mo
... ]
Ġtie r
Ġsad ly
w m
Ġpen is
Ġpued o
arl o
Ġ"") Ċ
ĠSe d
Ġboil er
Ġhell o
ad h
Ċ ĠĠĊ
Ġor ch
Ġassist s
à¸ ¹
Ġder e
es see
Ġsan t
Ġsched ules
Ġcounsel ing
ĠRed irect
Ġfee ds
0 6
< m
_y ear
ican a
ĊĊĊĊ Ċ
ĊĊĊĊĊ Ċ
à° ®
ĠO w
ĠOw n
ĠHo ll
ĠHoll y
ĠHoll and
Ġkn ight
}} (\
oll ary
Ġbad ge
g c
index Of
x l
SE C
: i
:i nt
ĠAuth ors
glas s
Ġtod d
ĠSt o
ĠSto ck
ĠSto ne
ĠSto p
_A C
ĠÕ ¶
Ċ ĉĊ
(M e
gr icult
Ġveg an
SC R
Ġm r
.R ow
.Row s
ari n
arin g
Ġprep aring
Ġref in
ĠGo v
Ġignor ing
Ġà¤ ļ
atin um
ova n
}/ {
Ġpoly m
Ġpolym er
Ġà¦ ¨
Ġsin e
ke d
Ġwor ked
Ġlin ked
Ġmar ked
Ġwal ked
Ġpic ked
Ġtal ked
Ġpac ked
ĠLin ked
Ġran ked
lin ked
hetic s
gl ob
glob al
ĠOri ental
.im g
d z
arr a
arra y
arra nt
eqn array
ene n
ete rm
_N E
Ġcheek s
ĠPot ter
REF IX
ĠT x
enci as
ĠBO OL
Ġfluid s
Ġ// !
To ast
50 0
Ġll i
Ġlli b
''' Ċ
Ġbus es
) ^{
UT TON
à´ ®
do i
ĠJa hr
sto nes
>" );Ċ
Ġau r
ust a
usta in
ustain able
Ġinc ub
ĠCG Float
ĠNO W
ĠWH EN
Ġfuncion a
.n ative
Ġrepo s
Ġrepos itory
ĠTe a
ĠTea m
%Ċ Ċ
Ex c
ĉex it
ĠSu e
Ġblo b
Ġfis hes
ĠIN D
ib a
ĠProp het
Ġfrustr ated
ĠHe avy
ĠW r
ĠWr ite
ĠWr ight
Ġend angered
Pl ot
Ġpa rc
ĠÃ ľ
_str uct
Ġsettle rs
Ġfurn ish
Ġfurnish ed
% d
loc ked
Ġtexture s
Or Default
Ġ'. $
vention al
Ġkn ot
-n ative
Ĳ ĺ
áĥĲáĥ ĵ
Ġretrieve d
ĠSi t
ĠSit e
ĠAp pe
Ġmarc a
ĠPart s
Ġmem o
Ġmemo ry
Ġmemo ries
Ġmemo r
Ġmemor able
áĥ ¢
ĠFl ore
exist ing
Ġve d
idel ines
Ġsl o
Ġslo w
Ġslow ly
Ġslo t
Ġslo ts
Ġslo wer
Ġslo pe
Ġion s
iz o
izo n
izon t
pe are
_P O
_PO RT
ĠDu c
et z
ĠKe ys
ĠCy ber
rid es
ĠComm erce
ĠShe et
(- -
anta ge
ĠVi k
Ġste w
(g ame
.Back Color
ĠDi p
ĠBa ron
Ġpiv ot
Ġfem me
.c s
.cs s
.cs v
As t
'} Ċ
Ġmate r
Ã¤h r
ft p
o qu
3 9
ĠConstant s
ĠL D
ĠRen t
d iction
´ Ģ
ORM AL
ĉ k
_st ore
ĠSea n
ĠSte in
à¸ ·
Ve geu
nt e
Ġ__ (
Ġ__( '
_sp ace
Ġeg y
ign ty
ens a
ensa je
Ġelemento s
ĠGreat er
ĠSta d
ĠStad ium
Ġlen d
Ġpoll s
Ġemb ar
Ġembar k
ref ox
.a c
Ġsurge on
I K
Ins ide
Ġfight s
.s uccess
! </
Ġbell y
-- >
--> Ċ
er ator
ĠAP P
Ġcor p
Ġcorp or
Ġcorp s
_i t
_it em
_it er
_it ems
_iter ator
ĠCe c
Ġske leton
'] ->
flo wer
rec ated
ĠAn a
ĠAna l
ĠJenn ifer
ĠNap ole
Ġve rm
ob r
obr e
obr a
ĠHou sing
li ver
ĠN y
role um
_th e
Ġge omet
on ents
Ġdemo l
ĠIssue s
.Reg ular
ĠFl u
esi um
Ġ= "
EN U
ĠSpec ific
ĠSpecific ally
ct ype
Ġath let
AB C
sol ete
lem anya
Ïĥ Î·
ĠCondition s
Ġca rg
Ġcarg o
']; čĊ
-b tn
ĠMi g
ĠMig uel
ĠAm sterdam
Ġel d
Ġeld er
Ġelder ly
ov i
ovi e
ovi es
(b ody
common s
Ġcant idad
Ġtrade d
_al loc
ĠOff set
over lay
ym pt
ĠMont ana
ĠAg r
ĠAgr icult
W C
ĠU b
ĠUb untu
ĠEn s
ĠEns ure
al c
Ġfo x
Ġlo l
Ġtog g
vert ing
ĠSupp ly
Ġcryst als
F IELD
Ġwo rm
Ġadolesc ent
Ġadolescent s
ress e
resse d
resse s
Rot ation
Ġmurder ed
Ġros es
follow ing
Ġbr anc
Ġdep r
Ġlu ego
ĠAss ess
ĠAssess ment
rop ic
ropic al
ĠTib et
Ġi Ã§
ach i
achi ng
achi ne
))) ;
))); Ċ
Es s
ownt own
\ M
\M odel
\Model s
Ġup s
Ġups et
Ġwi red
_no des
Ġorgan is
Ġorganis ation
Ġorganisation s
Ġorganis m
Ġorganism s
Ġretr y
Pe n
ynchron ous
() }
Ġwis hing
Ġdry ing
ild a
ĠAge s
ĠLeg end
ĠDa sh
Ġt c
istrib ution
Did Load
àµ ĭ
Ġlit h
Af f
ĠTi mer
fl ies
LI C
mer ican
Mi l
Mil l
Ġcha rs
Ġchars et
Ġinc ur
T K
Ġground ed
urn s
Ġconeg ut
ib o
ï ¸
)] ,
ĠBit map
ycl ing
Ġcompos e
Ġcompose d
ĠCG Rect
×ķ× ł
les t
Ġsimp lest
ĠAssoci ate
ĠAssociate d
Ġkick ed
Ġmp h
0 2
Ġsys t
Ġsyst em
Ġsyst ems
Ġsyst ematic
Ġsyst emic
ĠEmp ty
ant ry
ys et
Ġstep ping
Bi ts
mitt er
ĠDE L
ĠCur t
Ġhere by
Ġath lete
Ġathlete s
part icle
Ġhazard ous
Ġreli ed
\! \!
Ã¡n d
Ġ] .
gi s
j k
eli jk
ĠKi l
ĠKil l
Ye ah
ĠCA R
Ġseg Ã¼
icio s
Ġas ympt
ĠLi v
ĠLiv e
ĠLiv ing
ĠLiv er
ĠLiver pool
attach ment
àµ ĩ
Ġcr i
Ġcri t
Ġcri tic
Ġcri s
Ġcri ed
Ġcri m
Ġcrim e
Ġcrim inal
Ġcrim es
Ġcritic ism
Ġcritic s
Ġcritic ally
Ġcris t
en burg
& gt
Ġaid s
ĠTurn er
ĠJ ocs
aze d
att s
Ġsegment ation
Ġstrengthen ing
_Ċ Ċ
ĠX I
ĠAI DS
(" _
O V
à± Ĩ
thes is
""" ĊĊ
,\ ,
Ġalb ums
ĠInvest ig
umin um
LA Y
á» £
Æ° á»£
Ġ"" ;
Ġ""; Ċ
ract ed
iv ament
Int eg
Ġcow s
.p df
Ġà¤ª à¤°
eda y
Ġdona ted
be ry
als a
.In put
ual ment
ĠSh a
ĠSha h
ĠSha pe
ĠSha n
ri ans
ĉi n
ĉin t
ĉin line
Ġà ¶
ĠWe s
ĠWes t
ĠBi n
ĠBin ary
ĠCa rr
ĠGM T
Ġcong rat
Ġdrill ing
Instance Of
ĠInnov ation
run ner
Ġspr ite
[ a
Ġri f
Ġrif le
nd a
Ġtranscript ion
peri ment
×Ļ× ¨
U r
Ur l
Ur i
Ġtemplate Url
Ur ls
ĠĠ |
) {\
ĠĠĠĠĊ Ċ
Cho ice
Mo ney
ĠHe b
ĠHeb rew
rom pt
"): Ċ
se ud
cod es
Ġgui ding
oid al
ativ o
R M
co t
IS S
avi a
Obs erv
edo r
Ġà® ķ
ega s
ent r
entr y
entr ies
entr e
entr ic
ĠĊĊ Ċ
_V ER
ĠC U
ĠCU R
_module s
Ac tor
Ġà¤¹ à¥ĭ
Exc el
_st yle
for est
Ġà´ ķ
sha rp
Ġpi on
Ġpion e
Ġlast s
hem ical
Ġlu m
Ġ×ŀ ×
h z
Ġ[]; ĊĊ
fn ame
ĠCop a
Ġcardi nal
Ġpen d
Ġpend ing
Ġmu n
Ġmun t
eli a
Ġball ot
ĠKo r
ĠKor e
ĠKor ea
ĠKor ean
Ġcrim inals
(d f
E Y
_K EY
Ġbor ne
ĠCB S
() ]
ir q
ÃŃa n
pc i
ĠCo ach
sta ff
Ġta u
Ġtau ght
Ġpilot s
_en c
_enc ode
inte rn
intern al
Ġscan f
Ġpost ure
Ġet t
Ġsub tract
ko n
ĠIsa ac
on ial
Ġchart er
ob y
ĠFou rier
/ <
obl e
.Int er
ina t
inat ion
inat e
inat ing
inat ions
inat ed
Ġcoord inate
Ġcoordinate s
inat or
dest ination
Ġcoord ination
ĠMa re
B J
BJ ECT
Ġdoc s
ĠF S
ĠOrigin ally
/ T
ĠD T
ĠHo ok
_{ {\
ĠRep ly
)* (
.bl ock
ĠCard s
Ġn j
SU B
] <
ĠDet erm
ĠWed ding
Ra y
Ġemphasize d
RA W
ĠLA N
Ġbeat s
E V
.O K
" ../
si c
ĠMu sic
Ġ/* <<<
"ĊĊ Ċ
.i t
.it em
.it ems
Ġauto n
ĠMa k
ĠMak e
ĠMak ing
ID s
Ġcart oon
ast ructure
ĠPremi um
Ġrefin e
Ġrefine d
/ G
à® ¯
Ãł t
inc ial
Ġpresum ably
Ä±nd a
ĠR M
vi c
vic e
_n ull
Ġmeta ph
Ġmetaph or
Ġnon s
Ġtranslation s
Ġsub mar
)", Ċ
ĠFem ale
Ġhe sit
bid den
, k
Ġqui ero
']. "
ĠCha m
ĠCham ber
-b l
-bl ock
las h
oi l
_sh ow
Ġmelt ing
ĠUk r
_a c
_ac cess
_ac count
Ġam d
ĠBor n
odi a
Ġther ein
Ġca nc
Ġcanc er
Ġcanc el
Ġcanc ell
Ġcanc ers
Ġcanc elled
Ġmi ns
ĠT D
ĠClar e
ples s
Ġuns et
Ġment or
.f r
.fr om
.fr ame
(T AG
C riterion
r ass
Ġembar rass
ļ Į
ric te
4 4
lee t
Ġbat s
ĠAss et
Bu ff
Ġan om
Ġ]; ĊĊ
/h ttp
hol m
Ġalle v
ep h
"> {
">{ {
à¤ §
Õ¡Õ ¾
à§įà¦ ¤
_dec ode
s uff
ateur s
ĠS r
ĠSr i
Ġcraft ed
ĉlog ger
Ġdrain age
ĠC atherine
.T oolStrip
_f n
ĠZe n
Ġdark er
à² ¡
Ġd B
ĠAS T
(". ./
ĠWi k
ĠCry stal
ĠCommon wealth
igration s
Ġmars h
IE R
und e
unde r
under line
unde n
unde rs
unde f
undef ined
Ġseg on
Ġsegon s
.d o
' {
NI NG
Ġm Ãł
Ġo Ã¹
Rep ly
en h
Ġcolle ague
Ġcolleague s
ĉ J
ib i
ibi l
-e n
-en d
_re al
ĠTH AT
der r
à° ¸
Ġide ology
_IN VALID
ĠJSON Object
Ge tty
ĠHy p
ĠHyp er
Ġfa z
G LOBAL
ĠChem istry
inc ome
Ġtow ers
obi a
Ġrecip ients
Ġmil ls
à¦ Ł
ĠW S
fort h
ĉĉĉ ĉĠ
(' [
pm atrix
pu ts
Ġseg ona
ĠEngine er
ĠEngineer ing
Ex ist
Exist s
ĠSI G
Ġin act
ĠMo z
/ e
/e n
/en v
ous and
ĉt est
: *
:* *
con g
Ġware house
ev ol
Ġfi d
ce ans
ak istan
AY ER
ct ive
ĠRe uters
ign Key
itza t
Î ¶
vis ual
Ġhur ried
_) ;Ċ
Ġdel i
Ġdeli ver
Ġdeli very
Ġdeliver ed
Ġdeli ght
Ġdeli ber
Ġdeliver ing
Ġdeli vers
Ġdelight ed
Ġdelight ful
Ġenhance s
}' .
ther net
ĠnÃº mer
ĠnÃºmer o
+ $
Ġl p
use t
Ġtransform ing
ost o
osto n
act ly
ĠAD HD
Ġviv o
Ġs Ã£o
ctic a
ilo t
.S T
_{ -
Po sts
ĠTes la
Ġcapital ism
Ġsim ultane
Ã¤ Ã¤
// čĊ
à® µ
Ġi e
ĠDep ression
ĠA K
osp it
Ġen jo
cur y
ĠMur phy
* :
¹ ģ
ug hed
TO P
ĠrÃ© g
CL U
CLU D
CLUD ING
ĠIN CLUDING
']; ĊĊ
ĠRoger s
Tr ump
ĠAlb er
_o pt
_opt ions
_opt ion
Ġcra te
( J
ĠMac Book
j d
ĠOlympic s
Ġ/ /$
ĠRa h
+ -
Ġscan s
TERN AL
ne h
Ġh d
Ġna r
Ġnar r
Ġnarr ow
Ġnarr ative
Ġnarrative s
() +
ĠH O
ĠMong o
, %
ĠCo t
Ġcit ing
ĠO M
Ġcl i
Ġcli ent
Ġcli ck
Ġcli n
Ġcli ents
Ġcli m
Ġcli p
Ġcli mb
Ġcli nic
Ġclinic al
Ġclimb ing
Ġcli ps
Ġst a
Ġsta rt
Ġsta te
Ġsta t
Ġsta y
Ġsta tes
Ġstate ment
Ġsta r
Ġsta ck
Ġstar ts
Ġsta rs
Ġsta ted
Ġstatement s
Ġsta ke
Ġsta ts
Ġstart up
Ġsta ys
Ġsta in
Ġstain less
Ġsta ir
Ġstair s
Ġsta ring
ĠMP I
Ġtro b
ĠCha in
Ġprince s
Ġprinces s
ATAB ASE
Ġaccount ed
_de s
_des c
ĠKi n
ĠKin g
ĠKing dom
ĠKin d
ĠKin gs
_o ver
ĠAlb erta
co ok
cook ie
ĠMaj esty
uri s
Ġcer amic
onde rs
ĠFour th
ros t
_L INE
Ġinc ap
Ġeg o
=' /
ĠVo r
Ġcultiv ate
if def
Ġlin en
ĠPe p
Ġtot a
Ġtota l
Ġtotal ly
ove ment
Ġge o
gui d
guid e
tok ens
ĠPal m
ĠLi mit
ĠLimit ed
Ġden oted
cre ation
"> '
W I
WI SE
WI N
Ġaim ing
go m
Ġ? Ċ
Ġ?Ċ Ċ
pt e
ĠAcad emic
ĠAu nt
uc l
ucl e
ucl ear
ĉ @
à¸ Ľ
n v
Ġi nv
Ġco nv
Ġconv er
Ġconver t
Ġconver s
Ġconv en
Ġconven t
Ġconvers ion
Ġconven ient
Ġconv ey
co nv
Ġconver ted
Ġconven ience
conv ert
Ġconvent ion
Ġconvention al
Ġconver ter
Ġconver gence
Ġconv ex
Ġinv ari
Ġinvari ant
Ġconver ts
Ġconvention s
ĠCo nv
ĠConv ert
last name
inde d
']Ċ Ċ
ĠHarris on
.cl one
ĠT F
roph y
iz ational
ond s
Sec onds
ĠArt ist
Ġrul er
fin ity
hu b
git hub
" github
ĠVir t
ĠVirt ual
oj i
Ġhandler s
V S
Ġin box
Ġhere in
à° ¤
ĠYa m
ante e
for um
, r
ĠNich olas
Ġhelp less
mitt ing
ef e
x A
Ġup t
ĠBi l
ĠBil l
ĠBil ly
Ġstr t
Ġimpair ed
F etch
ĠBu g
struction s
Ġpla ta
UB L
ĠSc ar
+ :
pi x
) _{
ĠAC C
ĠPo rn
prec ed
ada pt
Ġasc ertain
Ġt p
Ġt t
FI X
Ġra v
< n
.f etch
, A
Ġro z
.t w
7 5
.sh ould
ha i
ĉĉĉĉĉĉĉĉĉĉĉĉ ĉ
à³įà² °
uta s
Ġsun g
Ġresp uesta
[i n
Ġmateix a
.e l
ĠFu nc
ĠFunc tion
Ġbra n
Ġbran d
Ġbran ch
Ġbran ds
Ġsid o
Ġneutr on
m A
Ap pro
ĠRE D
orth y
s da
ĠNu clear
imit ive
ĠVen us
Ġcli cks
Ġfine s
Ġfines t
Ġas i
Ġasi de
Ġlower ing
ĠM t
ĠHar per
Ġcrowd s
ibe rn
Ġiniti ate
Ġinitiate d
ĠðŁ ĺ
ublish er
umn es
\/ \/
: \/\/
Ġwel ls
wi fi
ĉ Assert
Ġà® ®
Ġobsc ure
Ġja p
assert True
ons o
oli n
olin e
_de bug
ĠBull et
Rec ipe
mk dir
esi gn
. %
Ġe z
Ġmic h
ea st
Ġel apsed
ĠVictor ian
Ġsw it
Ġsell s
_u ri
ĠAny one
anto n
Ġdepart ed
pro g
prog ram
prog ress
Ġfort un
Ġg c
Cook ie
Fi xture
ĠSa h
_cont ainer
// #
_LE N
CU R
ull s
ĠNO N
izon a
text sc
ĠFit xa
ĠN VIDIA
_p ut
ETH ER
}} )
AS C
* t
Ġáĥ ł
ĠRef orm
_co unter
ĠHar bor
Ġ! (
q s
ĠS z
ĠInvest ment
\ Entity
record s
ar u
A w
Ġprop he
ī s
ĠVi ol
you ng
Ġcompar ative
Ġperm e
Ġperme t
Ind ia
Ġdies e
Ġdiese l
Î ¾
Ġko r
Es te
am ely
ett es
) }(
Ġbul b
uro s
Ġsettle ments
Ġdebug ging
ĠI '
Ġmirror s
ĠEP S
Ġverse s
Fl ash
pol l
g m
gm ent
Ġjud gment
gm ents
iero n
.st ore
Õ¥ÖĢ Õ
}, ĊĊ
it ably
empre sa
ĠJa k
ĠJak e
e ers
ĠPalest ine
ĠRES T
Ġreli e
cod ec
ĠNAT O
i ota
]= =
ĠTra ce
ANN EL
ern o
ĠT ournament
Ġswe ar
ĠNum bers
Ġna j
ĠIN C
opp ed
Ġmarg ins
.ext end
slide r
ĠAu r
doi ng
, *
it amin
Ġanalog ous
Ġbo g
.tr im
ĠUt ils
Ġash amed
Lay ers
Ġmis under
ĠLan ka
á» ©
Ġre bre
Ġminds et
Ġnew born
.g if
Ġ--> ĊĊ
ĠPr os
_AC T
ĠSha w
Ġwor ries
He x
rec k
Ġshort age
=$ _
Ġauton omy
oler ance
Ġcompose r
Ġ[âĢ¦ ]
Ä Ĳ
ĠFreder ick
Ġhar ass
adapt er
.w ait
Ġdivid ing
ti k
]) čĊ
ĠSl ow
tic ally
Ġmun d
Ġmund o
ĠSM S
Ġplay off
ĠGR E
ĠRes ort
UI nt
Ġspa c
Ġspac e
Ġspac es
Ġspac ing
ĠPO S
ĠPOS T
ĠÃ ¾
mis sing
Sen der
ĠWik i
- '
ĠPur e
oso s
` )
à¤ ¼
Ġalert s
Ġwatch es
dem o
ĠCo d
ĠCod e
Ġfn ame
Ġà¦ ¦
Ġsynt h
Ġsynth es
Ġsynthes is
")); čĊ
Ġcontinu um
ĠGot h
Data Source
ĉT he
Ġfl ick
Ĩ Ĵ
Ġpan c
os itory
g ans
Ġpig s
Ġvo s
; )
ĠCon clusion
[ r
train ed
ĠSH A
ĠSHA LL
atura ted
Ġj Label
ĠExp ert
"} Ċ
Ġlands c
Ġlandsc ape
Ġlandsc apes
Ġdest ro
Co nv
Conv ert
Convert er
.ch annel
Ġs d
Ġaccount able
but tons
route s
Ġbu n
Ġbun d
Ġbund le
Ġbun ch
ni h
/ #
Ġcheck out
Cr ed
PER TY
_SH ORT
ï¸ ı
rt l
Ġ× Ĵ
ĠSpec ies
ĠWa ve
Ġ{ :
Ġbake d
ĠP F
Ġwhere by
Ġli mb
Ġlimb s
ĠGil l
/ i
à¹ ģ
Ġwilling ness
Ġdeli c
ĠRa v
ip age
.sc ene
.F irst
UR RE
URRE NT
Refer ences
flat e
use ment
ĠLi t
Ġei nes
bur st
Ġsty l
ĠEg g
chi p
[ y
ĠT A
.cont rol
.control ler
ast r
astr o
alu s
ĠToy ota
ĠC olum
AND LE
Ġwit ch
Ġpersist ence
Ġg t
Ã¶ s
ick ness
ĠLI KE
IVE R
sub subsection
Ġmembr e
Ġmembre s
acer b
su s
ĠWhe el
mo l
--------- -Ċ
TR A
ind i
indi ng
indi c
OW ER
RP C
'> <
ĠSud an
Pre v
.H as
.Has h
ocom plete
à´ ¸
Ġg nome
.P anel
Ġsomet ime
Ġsometime s
Ġst itch
Ġfuck ing
ĠCor d
Ġpoll ut
Ġpollut ion
_T YP
_TYP E
Ġext ens
Ġextens ion
Ġextens ive
Ġextens ions
Ġextens ively
ĠFant asy
W P
ict or
ĠPear l
rade s
à¤¾à¤ ®
] $
Ġestab le
ĠCov id
Ġfrag ile
ier arch
Ġh ierarch
àµįà´ °
Ġconce al
Ġconceal ed
« ĺ
ĠPre p
ĠTerr y
Ġdis ap
\ .
Â ±
Ġ' (
_en v
prob ably
ĠBe y
ĠBey ond
ĠGes ch
à¹ ĩ
ĠCreat ion
Amer ica
America n
ĠHol ocaust
Ġà¤ ¶
semb les
Ġka y
Ġland mark
ia z
ï¼Į âĢĿ
Ġmal icious
itÃ© s
Ver ify
=s tr
ĠLe d
Ġgene ra
Ġgenera l
Ġgeneral ly
Ġgenera te
Ġgenera ted
Ġgenera tion
Ġgeneration s
Ġgenera tor
Ġgenera tes
Ġgeneral ized
Ġgenera ls
.t s
atie nt
Ġgeo m
mar ker
los t
K A
SD L
Æ°á»£ c
ĉl ong
ĠHar vey
OT E
ea m
Str eam
_str eam
.str eam
GB T
Ġcommod ity
Ġunf amiliar
comp ass
.P r
.Pr int
.Pr o
.Print ln
Ġco e
ï¼ Ĵ
IS C
ĠRose n
Ġop s
tic k
ll e
lle s
Ġpare lles
af a
ĠBi b
ĠBib le
Ġdra wer
Ġgui ld
Ġlu b
Ġdona te
ĠGa m
ĠGam e
ĠGam es
ĠGame Object
A j
Qu ote
áº¥ t
Ġterrit ori
Ġterritori es
Ġterritori al
ĠBal ance
Ġcou nc
Ġcounc il
Ġges ch
Ġ'' ;
Ġ''; Ċ
van ia
yl vania
s ylvania
ĠPenn sylvania
ĠOr lando
ĠU g
PAR T
Õ¡Õ ½
Ġritual s
à¤¤ à¤¾
spe cies
Ġbroad ly
.m e
.me nu
ĠRS S
.N o
.No w
.No t
Bi n
Bin d
Bin ding
Bin ary
Ġtar t
Ġmens aje
Ġspe cs
ĠHi er
{} Ċ
Ġarm ies
GR AM
io v
ĠCS V
Ġsan k
ĠZh ang
ĠBe g
ĠBeg in
.T ime
eye r
ĠTh r
ĠThr ee
ĠThr ead
ĠExp ect
ĠĠĊ Ċ
iste n
isten t
isten ce
Ġpk g
.cl oud
à¦ ª
Ġbom bs
.g l
ĊĠĠĠĠ ĊĠĠĠ
Ġmuse ums
_co py
ĠB U
ĠBU T
/i n
/in dex
ĠCONTR ACT
Ġmajor ia
Ġec h
Ġech o
ĠPal l
ult s
(re t
_tr ue
iz i
(). __
ĠBapt ist
Ġla c
Ġlac k
Ġlac king
Ġlac t
Ġlac e
Ġlac ks
ĠTreat y
ÃŃt ica
rat her
urs ive
lict ed
it r
ĠLi p
rep r
ath s
Ġcrit ique
Ġesta d
Ġestad o
Ġcraft ing
ĠGl ad
Str ings
ĠDisc uss
ĠDiscuss ion
ck ed
Ġsta b
Ġstab le
Ġstab ility
Ġstab il
$ query
à° µ
aria t
Less on
ind uced
Ġwel coming
Ġsh uffle
: n
:n il
.A t
%) .
ĉi s
Ġaconsegu ir
ri ure
Ġbo b
Ġmerc ury
Ġball oon
Ph ase
Ä± l
Ġblo ody
ĠE b
_us e
.M AX
ĠPe ru
es o
earn ing
elia n
de ven
Ġparent al
Ġreven ge
iza do
izard s
Ġpod e
Ġpode r
Ġpode n
+ Ċ
ĠSound s
omm od
Ġsen sing
<h ead
Fr e
Fre e
len e
Ġextra ord
ĠDep art
ĠDepart ment
ĠM orm
.cont rib
à´ µ
ĠAdvent ure
Step s
comp l
compl ete
compl ex
Ġoccup y
Ġtrob ar
Ġcoord inator
set t
sett ings
sett ing
itza ciÃ³
ĠBa rr
ĠBarr y
ĠInt o
) s
Ġbe m
US H
')) .
}; čĊ
Ġcultiv ation
lee n
( K
Ġall y
apes t
ĠP interest
() "
_EX T
Fil ename
(r s
ilit ary
ĉt emp
> Ġ<
Ġ: +:
Ġ/> <
Ġ/>< /
Ġpel a
Ġ*/čĊ čĊ
Ġex ha
Ġmart ial
P obl
imens ion
Ġurl lib
//////// ////
//////////// ////
//////////////// ////////////////
Ġhal o
anto m
Ġtoe s
OL E
_st d
*** **
***** *
ĠMill s
ĠCan yon
ĉc atch
man t
.m d
Ġwo nt
.Al l
Ġnotice able
_RO OT
pix el
Ġagg ression
Ġinter rog
)/ (
OT H
ĠMA P
ĠFr i
ĠFri day
ĠFri end
ĠFri ed
ĠFri ends
ord e
orde r
orde rs
Ġdis order
Ġdisorder s
orde red
orde n
.B order
Ġgenuine ly
To o
Too l
Too ls
Tool Strip
----------- ---
_AL L
Ġburn s
ĠEle ction
.de s
ĠSome one
M F
Ġv y
Ġboil ing
d B
Ġmetall ic
sp irit
Ġtrade m
Ġtradem ark
Ġappeal s
ĠSha r
ĠShar e
ĠShar ed
à¯įà® Ł
Ġende av
iri e
__ ':Ċ
fi ght
WE B
Ġfre el
Ġfreel y
Ġsin t
àª¾àª °
fol k
Ġdisrupt ion
ĠDra wing
ish i
ishi ng
Ġamb igu
har m
flu id
appro pri
In c
.Res ume
Ġsentence d
ĠJam a
cu da
à¦ ¦
ili o
Ġr x
Ġm Ã©
ĠmÃ© s
ĠmÃ© t
Ġche ss
Ġdisturb ing
Ġtru mp
opa city
EG IN
ĠSu z
čĊ č
iento s
_g r
_gr oup
_gr aph
_gr id
al ready
Ġrus s
Ġn Ã©
Lo aded
per p
Ã ģ
greg ate
Ġgrou ped
.R un
Ġclear ance
Ġ") ;
Ġ"); Ċ
ĠGe tty
ĠĠĠĠĠĠ ĠĠĠĊ
Ġdig ging
. {
/// Ċ
Ġmyster ies
Ġmit ochond
ĠJu r
Ġs Ã³
ĠsÃ³ n
ĠGO OD
4 8
ĠHO W
Ġviv int
aint y
abet ic
our e
oure d
US D
Ġ× §
_SE R
Hi de
miss ible
lat itude
Ġdu g
amon g
Ġvolt a
Ġvolta ge
Ġb t
Ġbt n
_LO C
Ġla r
Ġlar ge
Ġlar g
Ġlar ger
Ġlar gest
Ġlarg ely
HO ST
Ġka t
ĠCele br
ĠText ure
Ġfrustr ating
_us ers
Ġmerchant s
job s
Ġ*( (
ĠW u
edi at
ĠThe ater
Ġbod ily
Ġ) }Ċ
yg on
high light
Ġ}ĊĊĊ Ċ
ĠHop kins
Ġdown ward
ĠBuddh ism
_M AP
Ġsculpt ure
Ġtur tle
Le mma
ĠGO P
"); čĊčĊ
iene n
ter ol
rit o
Ġacceler ate
'>< /
Ġamb it
Ġambit ion
Ġgrab bed
Ġharmon ic
Pre c
.a r
Ġman eu
Ġà² ķ
MA R
MAR Y
ĠT I
ĠTI ME
ĠTI M
ĠGre n
ĠSTE M
ĠFA Q
Ġà¤ķ à¤¾
Ġgt k
Ã¨ r
Ã¨r e
i Ã¨re
Ã¨r es
ĠHD MI
ĠSum mit
iona t
ĠMAR K
Ġann o
Ġanno y
Ġanno t
Ġannot ation
sup p
supp ort
supp orted
De ep
In g
KN OWN
sa n
Ġgrave l
INS T
< '
Ġpr Ã³
A IM
Ġembrace d
Ġ($ _
is dom
Ġideal s
Ġqui l
-f amily
Ġtie n
Ġtien e
Ġexplos ive
Ġimmigr ant
Ġimmigrant s
eli n
elin e
elin es
elin g
Ġpip eline
Ġtim eline
?? ?
??? ?
_Q U
Ġchief ly
Ġr b
weg ian
cr o
cro ss
Ġden ial
gt k
acco unts
Ġmed al
uk u
.Run time
_co r
_cor e
Ġpe g
vin ce
ian e
_tag s
Ġ- Ċ
(s c
Ġones elf
Ġconst expr
il k
c x
eman d
sp Net
ĠDeterm ine
pur e
isp here
_T AG
Ġdot ted
% D
Ġsuppress ion
| $
hors e
Ġdy n
Ġdyn am
Ġdyn amic
na h
ĠVil la
={ `
.A s
.As s
.Ass ert
ĠTa p
R N
RN A
ĠSteven s
ĠVerm ont
ĠBal d
oh l
ine l
inel y
ĠDiv ine
Ġblo om
Ġr d
àª ²
ĠServ e
ĠServe r
ĠSel ected
ud son
Ġremed ies
Ġinde f
x B
Ġair line
Ġà¦ ħ
ĠRead y
Ġsom eday
item pty
::_ _
N g
Ġtb l
ĠAlb um
ĠHal e
Vari ant
Ġpropi et
Sm ith
off icial
LO T
ĉĊ Ċ
Ġopp ression
Ġrep ar
ourn als
dec imal
wi fe
Ġlie u
gg ed
Sm art
gom ery
* "
Ġroutine ly
Ġembar go
Ġell er
á» ¯
tel l
tell ing
ĠBu ilt
Ġpad a
à¤¿à¤ ²
ĠEdward s
ĠDo w
ĠDow n
à³ ĩ
Ġcri es
eg r
z w
ille t
asc ii
ou ston
ĠSa u
ĠMo b
Ġtensor flow
Ġpull s
Ġenc ore
#+ #+
Ġey eb
Ġden om
Ġdenom in
ĠLit h
Ġri sky
Ġsag e
da s
das h
ĠWr iter
Ġforma r
Ġll avors
Ġinter connected
Ã³ r
Ġgro om
ĠUT F
ĠForm ula
ĠCO R
[ v
iere s
ande l
Ġele phant
Ġtra t
Arr ays
Si n
Sin ce
Sin g
Sing le
ĠAth ens
Ġintro s
Ali as
ĠHist oric
ĠHistoric al
) <
)< /
Red uc
Ġca lib
Ġcalib ration
.L ine
Î¼ Î±
Ġsystem d
Ġgod dess
ancell or
Ġrebel s
Ġbit map
'" ,
ĠIll ustr
ats on
Ġcurve d
aho o
Ġmo do
ĠD h
Cal led
install ed
Mo t
Ġres in
Ġbur g
.em it
elli j
Ġspo k
Ar c
Arc h
ĠHon or
Ġ)) ;Ċ
result ado
Al most
D u
Du e
Inv est
ĠMa ya
Ġà¦ ¤
Ġdia s
Ġfoi s
ĠP G
(L ong
im ity
ĠThr ow
Ġadvance ment
Ġadvancement s
ad ament
ĠG y
ĠSec ure
EV ER
Ġspa t
Ġspat ial
áĢ ¯
ĉ V
Ġnoun s
IS A
Ġmass a
Ġmassa ge
ĊĠĠĠĠĠĠĠĠ Ġ
_D B
MA IL
Ġcondemn ed
Ġles t
Ġaddition s
Ġbuff ers
-o ne
ĠRec ogn
Ġ--> čĊ
_I P
ĠXV I
ir atory
ĠM K
×Ļ× ł
agu s
thread s
ĠSee k
Ġemphasize s
ĠUkr ain
ĠUkrain e
Ġres um
Ġresum e
Ġresum ed
ose r
Ġka l
ie k
$ s
$s ql
D els
ix a
thr en
aw i
Ġdy e
Da s
-r adius
itut ed
Ġlegisl ature
/ O
Ġprot ections
Ġ( =
lem n
$ )
]), Ċ
ok i
oki e
oki a
Ġclo ses
Ġcloses t
Ġhel m
Ġhelm et
Ġvin t
Ġvint age
iph eral
Ġper ipheral
ĠWin g
ĠBen t
ĠPart ner
ĠPartner s
Ġcomm em
Ġworry ing
ĠW o
ĠWo men
ĠWo man
ĠWo l
ĠWol f
Ġà° ¨
ET CH
áĢº áĢ
Ġcr Ã©
; -
Ġelectro m
ĠPul l
off er
Ġe b
áĥĲáĥ ķ
Ġoppos e
Ġoppose d
on n
onn a
onn e
ĉerr or
CH O
ane d
âĢĻ a
> :
>: :
una r
V G
x D
Ġsafe gu
Ġpest s
ĠON LY
à® ª
ruct ura
ensa tion
arc ely
ĠXI I
ENT IAL
Source s
| '
_c b
à¸²à¸ £
fi ction
Ġnick name
ana l
Lin ked
Ġtool bar
âĺ ħ
itch ed
.m p
ĠPy Object
CE S
CES S
UC CESS
Ġcyl ind
Ġcylind er
ima n
Fut bol
mind ed
Ġlic ence
ĠMis t
IND EX
Ġrepl ies
ile n
ilen ame
EN G
Ġtien es
]] )
Ġupward s
tool tip
ĉĉĉĠ Ġ
ĉĉĉĠĠ Ġ
Conn ected
Ġmal ware
man uel
Ġge f
à¨¾ à¨
ris k
ĠEll e
ĠElle n
Ġvin yl
isp ens
ĠĠĠĠĠĠĠĠĠĠĠĠĠĠĠĠĠĠĠĠĠĠ ĠĠĊ
ĠOtt awa
ny ch
choice s
ĠNa s
ĠNas h
ĠDa w
Ġ* _
aj i
IM P
Ġannot ations
ĠMerc ury
rik a
ad t
ĉ Q
cat alog
Ġimpair ment
ĠUnt er
Ġle uk
) }{\
ĠCo in
sort ed
mn t
ĠBou nd
ĠHou r
ĠHour s
ĊĠĠĠĠĠĠĠĠ ĠĠĠĠ
Ġmulti f
emp o
empo r
empor ary
ĠCont emporary
ĠMarc o
>( Ċ
yr oid
ĠBo g
auto r
ĠBel t
UBL IC
Ġtax i
chem ical
Ġveg ades
Ġanch e
Ġtil t
[r ow
Ġguany ar
ĠUI L
ĠUIL abel
Ġze n
ĠWel sh
Co mo
Ġcoord s
Ġcon eix
ich i
ift y
pci on
Ġware n
ĠTy ler
sd k
ze k
Ġà¦ķ à¦°
gr o
gro und
gro up
gro ups
group Id
gro w
Ġsub group
Ġplay ground
Ġcri ter
Ġcriter ia
aine s
Ġlane s
Ġ== Ġ
Ġdece ased
.sc al
IB UT
Ġjum ps
ĠBS D
Ġpop up
ag ged
ĠQueens land
qu ar
ĠSit es
L F
à° ¦
Ġce t
Ġcet te
_cl asses
yi eld
(w ord
[s tr
[str ing
ali on
(w ith
ĠINT ER
who le
Ġmem set
ĠSpe ech
ĠUkrain ian
IST ER
ER C
A qu
br aska
, f
sche me
urt le
ĠWel ls
$ ~
(o p
ec d
ĠVo id
ĠV K
Ġjava script
cro ll
Ġà´ ¸
)' ,Ċ
.r ed
Re n
Ren der
Render er
!( "
_A D
_AD D
_ADD R
ĉĉĠĠ ĠĠ
(` ${
inh o
Ġencourage ment
serve rs
Ġcryst all
ĠNE T
ĠM N
_cont ents
ĠFind ing
ĠMR I
ĠH tml
Ġcrack s
Un like
ĠCreat or
Ġinstruct ed
er land
ĠP f
_ass ert
Ġor bits
ĠLeg acy
Ġalt o
mus ic
ĠRec ipe
ĠGe ar
Ġath e
ĠL S
(" :
(o ther
Ġi a
Ġph y
Ġphy s
Ġphy sic
Ġphysic al
Ġphysic s
Ġphysic ally
Ġphysic ian
Ġphysic ians
Ġka p
Ġw reck
Ġpraise d
Po ly
ĠR B
A O
ĉ U
ume d
ĠLind a
sche d
ĠRus h
Ġ?> čĊ
ĠDen t
ĠDent al
ĠĠĠĠĠĠĠĠĠĠ ĠĠčĊ
ĠT P
Ġcommitment s
ski n
ĠInc ome
Ġdo d
Ġesc ap
Ġescap e
Ġescap ed
ÃŃ f
omer s
ĠIE EE
Ã³ g
Mi d
Ġ( ~
Ġresid e
Ġreside nt
Ġresident ial
erto n
TR L
-fl ex
ij o
ugg ed
Ġsequ encing
bol t
.") ;
."); Ċ
Ġye arly
Ġta t
ac r
acr e
ĠE z
Ġmyth s
² à±ĭ
)\ \
_at tribute
. âĢľ
.S c
Cred it
>>> >
d w
ĠLi u
_s m
be y
.) Ċ
.)Ċ Ċ
min ipage
Compat Activity
Ġfemin ist
Ġacqu is
Ġacquis ition
={{ Ċ
numer o
ĠDi abetes
.F ield
ibern ate
={ Ċ
à°Ĥ à°¦
Ġnon etheless
Ã¼h r
Ġdepart ament
izar re
ĠBlu es
Sup p
ura cy
ala h
urg ical
ĠBO OST
Ġcou rs
Ġcours e
Ġcours es
ĠExper iment
Draw able
yl v
Ġbol t
_INT ER
oun der
ĠBut ler
-d r
} +\
ĠCl o
ĠClo ud
ĠClo se
ĠClo ck
the ast
Ġbulb s
Ġjudge d
[ l
Ġalt ra
ĠĠĠĠĠĠĠĠĠĠ Ċ
wan t
nd ia
Hen ce
Ġi so
Ġiso l
Ġiso lation
Ġiso t
ĉgl obal
Ġà® µ
_sp lit
Ġadequate ly
UST OM
uff s
Ġbeam s
Ġcredit ed
oso me
pattern s
rel u
ĠWH ETHER
ĠMen d
> Ġ
m q
Ġof t
ĠDog s
Ġmenu s
Ġg Ã¶
Ġdisc o
Ġdisco ver
Ġdiscover ed
Ġdisco unt
Ġdisco very
Ġdisco unts
Ġdiscover ies
Ġdiscover ing
Ġdisco rd
Index Path
}); čĊ
Ġpla que
comm un
commun ity
ÅĽ Äĩ
Ġcomfort ably
Ġantib ody
ĠXI V
ud y
ĠÎ »
ĠUna ble
ĉ// /
ĠMa i
ĠMai n
ĠMai l
ĠMai ne
ĠMai s
r Ã³
Ġproof s
ni m
ĠV S
Ġdefer red
_sh ort
ĠI Q
V o
Vo l
Vol ume
ĠHandle r
: $
ret val
unicip is
Ġvers a
Ġversa tile
Ġresist ors
)\ ,
Ġàª ®
{ %
ls t
ĠP B
Ġill e
Ġille gal
Ġille g
osph ere
ĠR V
ï¼ Ĳ
Ġexc er
fre q
ĠRed dit
Pr oc
Proc essor
: UI
Ġà° ®
OD Y
ĠUpdate s
osh i
mat ter
Ġdisco ur
_m e
_me nu
_me m
_me an
ĠRa n
ĠRan dom
ĠRan d
ĠRan k
unic ode
Ġbio s
Ġciv ic
Ġph i
Ġphi l
Ġphil os
Ġphilos oph
Ġphilosoph y
Ġphilosoph ical
Ġphilosoph er
Ġ{} '.
ĠRef er
ĠRefer ence
ird s
yd ro
Ġfertil izer
Ġhe eft
ĠDist ance
Ġ/// Ċ
Ġwh ale
Futbol istes
ĠGard ens
ĠIM P
fore ign
Ġdiver t
Å ³
ĠI v
ĠIv an
Lo u
.G ET
s ime
sime q
Dr ive
Drive r
osa ur
ĠSta lin
zym e
AL E
Ã©t Ã©
ĠCham p
est i
esti c
esti on
esti val
esti ons
as o
aso n
aso ns
Re ason
ĠRe ason
` :
ĠAtl as
6 6
cc c
ccc c
'][ $
ob o
ele d
Ġlab eled
.P age
Ġib n
ĠHo od
ĠLE FT
ĠGreek s
_rec t
Ġfunc iÃ³n
Ġun predict
fe d
ĠMO N
(); ĊĊĊ
Ġincl ou
ĠZ o
ĠProtest ant
doc tor
Ġmism a
ĠYa le
Ġart e
Ġarte r
Ġarter y
áĥĶáĥ ľ
Hash Map
áĥ ®
.P ath
for ma
forma tion
forma t
ĠMovie s
Ġdefend ed
< w
Ġwi pe
Ġdu p
Ġdup lic
ĠLGBT Q
())) ;
())); Ċ
Pop up
Ġuncover ed
zo n
zon e
umb ling
Ġbound ing
.scal e
Ĩ Į
Ġadj ect
Ġadject ive
ĠComm ander
.M in
Ġtang ible
Ġsuper hero
Ġcommittee s
Ġsq uir
sit es
ĠNa d
Ġplay list
=""> Ċ
ĠRect angle
ĠTan g
Ġpo k
ĳ Ĳ
ĠO g
Ġmis c
Ġmisc on
.ch ild
.child ren
ĠBan ks
fail ure
ÅĤ y
np m
ĠMarc us
ĠBor g
ĠID s
ĠPap ers
ĠBE GIN
an qu
uta t
Ġci utat
utat ion
a C
Ġfeather s
aise r
_H OST
Sup pose
ĠÄ °
ĠJosh ua
ĠGene rated
Ġfot o
Ġrece ss
DA Y
ĠHa rm
ike n
Ġpy l
Ġclinic s
ibl ical
(t ask
De ad
g v
ĠFer m
cu e
Ġcompare s
sched ule
_EN T
ĠGh ana
ĠGreg ory
ĠAs ync
ele s
eles s
Ġhom eless
Ġhop eless
ĠSu l
ĠRE M
el m
Ġsh ad
itz ada
ĠPress ure
ĠKi ck
Ġil e
Ġtermin ology
esto ck
<a ny
ood le
pur pose
ĠH S
co ol
li p
Ġnom in
Ġnomin al
Ġnomin ation
Set s
.W here
Ġdiese r
VE RT
Ġfro n
Ġfron t
'] =
ĠD P
ĠX L
Ġspend s
Ġal k
row able
ĠLaw s
ĠG D
ĠGD P
Ġd z
osa ic
-fl uid
Ġshock ing
ĠBre xit
Ġiso late
Ġisolate d
TE M
ĠS G
ĠTal l
ĠBer e
AC C
MB OL
Ġhav ien
ĠArn old
ĠHa ck
( |
cot t
Ġáĥĵ áĥĲ
bl er
cro p
us p
usp end
Ġcounter s
ĠNep al
uel ve
EL D
emplate s
bin s
merge d
her ical
Ġum b
in ates
uka n
Ġranking s
Ġd l
×ķ× ĵ
SU M
Ġdefend er
. ~
ka t
ĠMes h
ev e
eve r
Ġhow ever
eve nt
Ġwhat ever
eve n
eve ry
ever al
ĠWhat ever
Ġreli eve
:{ Ċ
or ters
ĠRou t
ĠRout e
ĠRout er
Ġbankrupt cy
Ġcatal yst
ĠDE F
ĠBl o
ĠBlo g
ĠBlo od
ĠBlo om
Tr uth
.w ith
iso l
Ġca ss
Ġ× Ĺ
PO INT
va t
' A
ko r
respons ive
t res
Ġill usion
Ġ[ \
ĠÄĳ Æ°á»£c
ĠGe l
Ha d
Ġimp r
Ġimpr o
Ġimpr ove
Ġimpr oved
Ġimpr ovement
Ġimpr oves
Ġimpr ison
Ġimpr oper
/b ash
Sp r
Spr ite
Spr ing
ĠU L
ĠPur pose
_ex it
à¤ Ń
ĠTan k
_sp eed
ord re
Ġ/> ĊĊ
Fi ve
.A d
.Ad d
.str ip
SC RI
áĥĲáĥ ¡
oy a
oya l
ļ áĥĺ
Ġindu stri
_i o
ĠDra ft
.pr ice
Ġmonument s
à¤¹ à¥Ģ
AY S
iot ics
osex ual
ĠAr a
ĠAra b
ĠAra bia
ĠMunicip al
pu ty
ĠSc al
ĠScal e
Ġanticip ate
Ġanticipate d
Ġcro n
Ġwhale s
Ġaccelerate d
_F IELD
ĉ '
ĠStre ss
ĠÃº n
Ġapr Ã¨s
Ġchi n
0 3
roph e
We ather
-a n
-an d
dig it
a igua
Ġl Ã¤
Ġgas oline
rec ipe
Ġcomposition s
ĠLess on
ĠMess ages
In cre
eg ative
Po t
# w
Ľ Ħ
Ġspeech es
Ġfri ed
mu r
Ġzo o
Ġzoo m
.sc ss
Ġi ne
Ġine v
Ġine qu
Ġine x
wo men
animate d
ĠAction s
.To Int
Ġnon atomic
à¸µ à¹Ī
àª¾àª Ĥ
comput er
Ġvine gar
Ġaffiliate d
ĠO z
ĠN R
Ġpres chool
ĠKa b
Ġdecent ral
Ġalg unes
Ġana t
ĠSp encer
Ġi x
Ġdrone s
ĠWo r
ĠWor ld
ĠWor k
ĠWor d
ĠWor ks
ĠWor king
ĠWord Press
ĠWor ds
ĠWor kers
ĠWor th
ĠWorks hop
Ġprotest ers
Ġso w
Ġperc e
Ġperce ive
Ġperceive d
ĠOTHER WISE
il itat
ĠFI X
Ġnation ally
.n o
.no w
.no t
.no de
_lo op
ĠAR M
Ġscar ce
Ġscarce ly
Ġcons tr
Ġconstr uct
Ġconstr uction
Ġconstruct ed
Ġconstr u
Ġconstruct ing
Li m
ĠV k
ĠBe e
ĠPI N
a unch
d aughter
pa s
pas s
Ġby pass
pas sed
pas t
past e
ĠGa z
ĠGaz a
_C on
ĉ q
Ġuna ware
Ġhe n
Ġhen ce
ĠĠ ĉ
ĠĠĠĠĠĠ ĠĠĉ
.J Label
Ġcombust ion
ĠAst r
Ġ}; čĊ
ĠJess ica
ĠCu l
ĠCul t
ĠCult ure
ĠCult ural
Ġtrap s
ĠMig ht
Ġoutline s
Ġchoose s
Ġfo ra
.D raw
.Draw ing
TextBox Column
ope nh
(num ber
_HE IGHT
ĠExec ute
Ġhunt er
Ġdu o
Ġt á»
Ġmig rate
ett er
ĠCha rg
bat h
Ġresid ue
Ġalg ae
ud s
Ġclo uds
Ġb p
ĠKa s
can t
Ġtranslate s
ind o
indo w
indo ws
Ġsur plus
Ġrival s
oute d
Ġlime stone
@" ,
Ġmur m
id ency
lo yd
Ġrandom ized
cell s
.J SON
.X ml
Ġz n
ĠFact s
ulum i
> w
Ġsto r
Ġstor ms
Ġna g
N B
ĠCA M
.' )
.') ;Ċ
ĠCha n
ĠChan nel
Ġcompens ate
.A spNet
ĠMa ns
(c ur
> *
/h ome
ĠAp ps
reg ation
Ġvas cular
pute d
ĠKo h
ĠM W
.res ize
Ġdeliber ate
Ġdeliberate ly
Ġresp ir
Ġrespir atory
_ch ild
Ġtea s
Ä±n Ä±
Ġcorp us
ri vers
Ġlen g
Ġleng th
Ġleng ths
Ġleng thy
avi s
Ġout l
Ġay ud
mer e
Ġmot if
Ġcoordinate d
Ġreinforce d
ĠLo v
ĠLov e
acion als
_t ab
_tab le
Ġrec ursive
ĠDaw n
uma r
}^ \
/* čĊ
: --
Ġel bow
Ġpuzzle s
ulu i
ĠNor wegian
ĠÄ Ĳ
ĠJos ep
ĠJosep h
iche n
Ġdomin ance
rub y
sens or
ĠA Z
.Check ed
à³įà² ²
Ġclear er
ne um
Ġadvise r
e ature
ĠAR T
ul d
Ġsho uld
ĠSho uld
Ġshould n
Ġshould er
ĠWo uld
wo uld
Ġshoulder s
ĠBe c
ĠBec ause
ĠBec k
Ġflo ck
Ġwor dt
_s ample
ĠZo o
Ġpa v
_se c
_sec tion
iba n
Ġtoxic ity
Ġma h
ĠBer t
_I R
ĠAb original
Attr ib
Attrib ute
Attrib utes
.set Attribute
Ġasc end
(ch ild
Ġpiv otal
loc ations
accur acy
Ġgl m
Ġups ide
inc i
inci p
inci pal
Ġintest inal
Ġman g
Ġcontinent al
.o k
rov e
rove rs
lin ing
Quest ions
ĠCo x
ĠA J
oub t
oubt edly
Ġund oubtedly
oubt ed
un que
ĠGener ator
tic le
Ġhe y
Ġdigest ion
us cript
Ġrecess ion
d frac
)] .
Ġdat o
Ġdato s
Ġbes te
prob e
ĠHung ary
Õ ¤
?> "
ni t
ĠW P
co ck
igo s
à³įà² ¤
ĠBasic ally
Ġ× ĸ
ĠBen n
àµįà´ ķ
ap ol
Ġshort est
bor o
boro ugh
Ġdis gu
xy z
ĠPit ts
ĠPitts burgh
Ġengineer ed
emen te
ĠCatal og
Ġcultivate d
Ro ck
ĠTre k
go al
Comm unity
rell a
Ġ% %
Ġcli ente
Ġ} //
rp c
Ġme j
Ġmej or
Ġserve i
ĠIS IS
is d
iv i
ivi l
ivi d
ivi a
ivia l
Ġbiom ass
.u p
.up date
Ġrang ed
_f ont
Ġshar k
Ġnom Ã©s
Ġund o
Comput er
Ġcolumn a
Ġun h
Ġunh appy
Ã² g
Ġdebt s
ĠMa z
Ġend urance
Ġtun n
_LE VEL
ĠT N
Ġrebell ion
ToolStrip MenuItem
answer s
'] :
OT O
ln g
ĠHugh es
rgb a
ITE R
urtle s
mes s
mess age
mess ages
Ġlli bre
pres sure
Rect angle
raction s
ĠNH S
Ġrede s
Ġeth n
Ġethn ic
he y
ĠLa v
ĠmÃ© d
File Path
BE GIN
Ġride r
Ġrider s
Ġarchitect s
Ġuns er
zz a
Variable s
_ac c
Ġtri o
ĠSa w
tu be
Al ways
Ġherb al
Ġwith stand
ĠCoun sel
ĠSa k
âĹ ı
($ "
?>Ċ Ċ
red entials
ric ular
Ġs ca
Ġas ylum
ĠCare er
Ġhe b
un idenc
-t arget
ĠINS ERT
Ġstre ak
Comm it
BL E
Ġcrash ed
: _
ĠiP od
Ġdisc lose
Ġdisclose d
à¸ Ĭ
ĠÎ¼ Îµ
Ġlend ing
ada n
ĠOak land
Ġstrip ped
To Props
7 7
ĠA the
IS BN
mid t
/ R
ĠA W
ĠAW S
Ġtransist ors
gress ion
inte l
ĉr e
ĉre s
ĉres ult
ĉre t
que e
quee ze
sen al
... ,
gi o
Ġnotion s
bie s
Ġobten ir
yc les
fl ight
[: -
Pi ck
Ġ.. /
Ġtow el
Ġvib ration
à² ¸
ĉ N
Ġpoc o
Ġs eny
ĠPi ne
ĠImport ant
Ġtid ak
Ġm Ã¶
ĠAng lo
_D ata
ĠRot h
ĠChamp ion
ĠChampion s
Ġdis reg
ĠBo d
ĠBod y
ĠRe agan
ĠVo n
Ġc x
vi de
vide r
vide o
Ġdeclar ing
Ġhat s
.h ost
pr a
Ġu v
ĠCong o
cap es
s uffix
Ġart illery
Ã¤ ch
coin s
ise cond
isecond s
see ing
Ġarc s
^ -
Ãł r
Ãłr ia
Ġgreen s
Ġhab e
Ġhabe n
ĠSand y
asa n
asan t
ple asant
Ġun pleasant
ĠBeh ind
ĠBet a
Ġpur ge
Ġdist ricte
ĠNY C
ĠVa s
Ad ding
ĠKas h
Ġfore n
... </
rict s
Ġ*) Ċ
ĠHe x
Ġan k
Ġank le
ree ze
ĠAn s
ĠAns wer
ĠTa gs
iler s
EM A
EMA IL
Ġmotion s
ĠÃ© p
Ġhip p
] |
Ġsteal ing
ĠSi g
ĠSig n
ĠSig nal
Ġrecur ring
ĠD L
este em
Ġadvertis e
oul try
Ġbree ds
Ġ: ,
ĠBG COLOR
Ġfertil e
Ġà´ µ
ri ents
Ġdiss eny
ĠSee d
×¢ ×¨
son g
GA N
ton e
ah i
Ġget attr
= .
ĠCot ton
= p
(to p
ĠSe bast
uspend Layout
lev ance
Ġpredict ive
aste s
udo s
Ġpredict ing
Ġpredomin ant
Ġpredominant ly
à¤¿à¤ ¨
Ġpur ity
Ġcher ry
D N
DN A
à®¿à® ²
ĠPi ll
Ġf c
.Tab le
Ġdiamond s
ĠWa lt
ĠWalt er
Ġrefriger ator
.cont ainer
Ġas ym
Ġwholes ale
ĉu rl
Ġalk al
ĠTam il
fe w
Ġout dated
OLUM N
(f d
bi l
bil l
Ġout bre
imens ional
ĠTrad ing
std out
like s
Ġ× ¨
Ġge h
mon ary
ALL Y
dat as
datas et
Ġsci py
Ġlav a
Ġj Ã¡
Ok ay
round ed
ĠĠĠĠĠĠĠĠĊ ĠĠĠĠĠĠĠĠĊ
Ġ{ĊĊ Ċ
_r eq
_req uest
Ġday light
ĠAppro ach
ĠTh y
ĠXII I
.h ide
Ġrus hing
ĠEd u
ĠEdu c
ĠDo t
Se l
Sel ected
Sel f
Sel e
Sele ct
Sele ction
els ius
Ġm uest
Ġvan ity
ĠFran Ã§a
Ġlu a
Ġco h
Ġcoh ort
.q u
.qu ery
ĠTr inity
Ġtur key
ĠFit ness
ĠDub ai
Ġsubst it
Ġsubstit ute
ĠIdent ify
oc ur
lat or
Ġfixture s
ĠTu t
.Resume Layout
Ġun p
R B
oc l
Al umnes
.S uspendLayout
Ġàª Ľ
olic s
ĠWe t
adj ust
Ġfire base
ff t
Ġno tre
};čĊ čĊ
Ġace t
_PR E
Ġtru ths
agnost ics
Ĥ ¹
Ġspo on
Ġadvertise ment
SE rror
Ġhu e
Ġpu is
à¸ Ī
Ġimplementation s
ĠT L
S cal
ĠTom my
ĠAP Is
) })
Ġtravel led
Ġallev iate
mount ed
oll a
olla r
ĠRO M
ĠFact or
ĠFactor y
ĠCha se
Ġcur ios
Ġcurios ity
ĠFe w
ĠMov ing
Ġrepet ition
Ġspr ink
_ ARRAY
ĠArgument s
_OFF SET
.w ork
oul der
Ġterme d
ĠAss ume
Ġmeth ane
itz aci
~ /
ĠSens or
à² ¯
icide s
Ġmap a
Ġparad e
([ [
Ġes lint
Ġproud ly
ĠVi sta
Ġhat ch
ĠBu en
Q R
Ġmissile s
mer c
merc e
ĠTop ic
ĠVeg et
rot s
Gen der
ĠCoal ition
U i
Ui nt
= f
=f alse
Ġm v
: ,
_co nn
_conn ect
_conn ection
aff ected
à° ¡
?" ,
ĠÃ ³
Ġstd err
Ġgru po
Ġcontr e
Ġale m
Ġga mb
Ġgamb ling
-M M
.ad min
Ġmail ing
ĠLog ic
-icon s
Th ursday
=[ "
ĠPrince ton
_F A
_FA IL
_FAIL URE
use rid
Ġanalog y
get Text
Ġsad ness
stad t
ĠJa g
ĠSy s
ĠSys tem
nd s
Ġfu nds
Ġcomma nds
Ġfi nds
Ġbou nds
Ġgrou nds
rie nds
Ġwi nds
Ġrou nds
_N ULL
log ged
M iddle
Middle ware
it ual
ĠNo ah
ĠGil bert
(de v
(dev ice
Prev iew
Ġpent ru
Ġvoc ab
×Ļ× ľ
rin a
? id
Ġsigh ts
=" ,
ĠWho le
mp l
Ġco mpl
Ġcompl e
Ġcompl et
Ġcompl ex
Ġcompl ete
Ġcomplete ly
Ġcompl eted
Ġcomplet ion
Ġcomplex ity
Ġcompl ement
Ġcompl y
Ġcompl ain
Ġcomplain t
Ġcomplain ts
Ġcompl etes
Ġcomplain ed
Ġslee ve
Ġvers ch
à±įà° ¨
Ġng a
Ġbreast s
),Ċ Ċ
Ġzw e
Ġamp h
Ġseam less
ĠDec imal
map sto
_f d
eras e
Ġspr int
Ġsprint f
- I
.R ight
ĠRoma nia
Ġgesture s
new line
ĠDal e
- O
áĥĿáĥ Ľ
THE R
pt o
pto ms
pto n
Ġcry pto
pto m
4 9
.To p
Ġcomen Ã§
ĠTh ou
ĠThou gh
ĠThou ght
X i
Ã¼ k
Ġsq ue
ł ģ
osi t
osit ion
osit y
osit e
ĠProp osition
The orem
+ #
Ġcurs e
ĠFran co
Ġpen c
Ġpenc il
AM A
Ġdisp ro
ĠR i
ĠRi ch
ĠRi o
ĠRi c
ĠRic hard
ĠRi ck
ĠRi sk
ĠRi b
ĠRich mond
ĠRi ce
ĠRi co
ĠRi p
Person es
à´ ³
ĠForm er
Ġprz e
Ġemp ir
Ġempir e
Ġempir ical
que z
ĠH A
ĠHA L
LO PT
Els e
how ever
Ġweb page
_t x
pective s
Ġker as
Ġlock ing
Ġ/// <
Ġsele ctions
_res ource
ĠIsa bel
)) {
)){ Ċ
ven th
ĠSat an
ĠPu mp
Ġbow el
ri ze
Ġhelper s
Ġhunter s
", &
ĠGro ve
Ġbudget s
Ġoscill ator
.čĊ čĊ
ĠH I
ĠHI V
Ġhas attr
Cl a
fe e
fee d
fee ding
.Res ult
ĠMonitor ing
Ġcris p
Ġparent ing
z Äħ
frag ment
por ters
Ġsy mb
Ġmyth ology
ĠL T
ĠCam pus
-ex p
ĠY Y
Sn ap
Ġcaf fe
Ġcaffe ine
ed at
Ġoptim um
ob b
obb y
ĠHer n
âĢľI t
ĠMont gomery
pop up
Ġda v
Ġscr ub
à¤¾à¤ Ĥ
y u
Ġfou l
â ľ
Ġlot tery
qu ate
tik z
++++ ++++
ĠFe ar
ĠSex ual
(f p
ĠRon ald
Byte Array
cula tor
E W
VI EW
Layout Panel
"- -
.sub str
.substr ing
ĠDou g
ĠDoug las
Ġga u
Ġgau ge
Ġ[{ Ċ
(l ambda
Ġdel e
Ġdele g
Ġdele t
Ġdelet e
Ġdelet ed
Ġdeleg ate
Ġdelet ing
Ġdelegate s
Ġdelet ion
Ġed u
Ġedu c
irm ingham
ĠB irmingham
ĠBl e
gn u
']. '
Ġthere after
`. Ċ
ĠNon etheless
CS S
car bon
Ġy r
enda s
Ġâ Ķ
iti ze
ĉbool ean
Ġsin c
Ġsinc e
W rit
mo ng
Ġpri ma
Ġprima ry
Ġrev er
Ġrever se
Ġrever s
Ġrever sed
Ġacknowled ging
[t his
Ġspe ar
ard ens
Ġpast or
à«įàª ¯
Ġgif ted
Ġsock s
Ġcur t
V i
Vi s
Vis ual
Vi sit
Visit or
ĠĠĠĠĠĠ čĊ
Ġana r
Ġnu mb
Ġnumb er
Ġnumb ers
Ġnumber Of
icy cle
PT Y
Ġfis t
ĠTA G
ĠLl e
E U
Ġvig or
}` );Ċ
Ġascend ing
Ġdb o
ĠEngineer s
ns ic
via r
à°¾à° ²
ci s
ĠFran cis
ĠFrancis co
ĠTa s
ĠTas k
di o
who se
Ġchin a
ete n
Ġpremi se
Ġpremise s
inis h
Ġdesign ation
; <
;< /
n ÄĽ
Ġg n
Ã¶ g
Ġtre ad
ĠUb er
Ġdep uis
J u
Ju st
Ju ne
Ju l
Ju ly
Ju n
Ġpredict able
St d
lo p
lop e
ĠCR C
Ġsweep ing
apa r
UT ION
Ġx y
ĠEld er
Ġhope ful
Ġhopeful ly
han ds
co w
ĠDo ctrine
S y
Sy stem
Sy nc
Sy m
Sym bol
Sym fony
Sy n
Syn tax
Ġsched uler
ati u
ĉN ame
Ġhed ge
urr y
Ġ*Ċ Ċ
ĠN M
Ġfi la
.Ex t
ĠInn er
_co mp
hold s
ĠGoth ic
Ġestat unidenc
igh bor
Ġ<? =
Ġceremon ies
_de l
_del ete
UBL E
(s ys
Ġain si
Ġplain ly
Can ada
Part ition
ĠAnswer s
Ġbearing s
Ġser a
up grade
Ġreli ance
ĠVen ice
Ġca ns
Ġpen n
Ġmem cpy
Ġmov iment
Ġexcit e
Ġexcite d
Ġexcite ment
Ġsex o
ousand s
Ġstride s
nam a
Ġshe r
($ (
ĠST D
pat hetic
dec k
Ġgem s
Ġs Äĥ
Ġsl aughter
Ġattr ib
li j
Ġsubstit ution
Ġu z
ĠCa v
Ġdare d
ĠOb er
hy p
hyp er
à¸ ŀ
Ġne o
Ġneo n
car ousel
ĠLiv es
ti d
Ġwr a
ĠPos s
ĠPoss ible
cr y
cry pt
.ex e
.exe c
ĠRus t
ĠSecond ary
Ġcommun al
ĠMart ha
Ġfold ing
Ġhip s
.Le ft
Ġkid n
Ġkidn ey
Ġmg a
-g o
ĉd o
ĉdo uble
Ġsour ced
ĠCry pt
CA R
A Z
Ġelectro ly
uta n
Ġà° ħ
Ġrul ers
))) )
)))) ,
an h
= &
Prof essor
ĠOrd ers
Ġnav y
ĠPi e
ĠPie r
ĠPier re
ĠIND EX
}čĊčĊ čĊ
valu ate
ĠSar a
ĠSara h
ename s
***** */
ĉc ount
tribut ion
dis tribution
Su s
Ġasi gn
adel ph
adelph ia
M unicipis
Ġcompet ence
Ġcapt iv
Ġcaptiv ating
Ġ[' ./
Ġdep recated
_C O
_CO N
_CO M
_CO DE
_CO NT
_CO MM
_CO MP
à® ±
eni c
Ġski es
aut y
_sample s
Ġ\ '
Ġrepar t
ĠSim pson
Ġdispro portion
ĠPet e
ĠPete r
ĠPete rs
Ġpe ix
ÄĻ d
unct ure
Ġ×Ĳ ×ª
Ġmelt ed
M ETHOD
iv ated
Bl ank
Ġbullet s
road cast
G s
lu g
ĠArr ays
(u n
(un signed
amb urg
.g r
.gr oup
.gr id
.gr aph
.group Box
.graph ics
ĠAc ts
_P H
-- )
for ge
forge t
ss ia
{} ,
vi k
ab o
abo r
Ġcoll abor
abo ut
Ġcollabor ation
Ġcollabor ative
abo l
abo ve
abol ic
Ġcollabor ate
best os
Ġbite s
ĠJu da
(e l
G ROUP
Å¼ y
ĠSw e
ĠSwe den
ĠSwe et
Ġcheer ful
Ġnue st
_PO S
ante r
Ġwho ever
/r outer
To k
Tok en
aco m
Ġsol s
bon s
am t
ĠSo f
ĠSof t
ĠSoft ware
IN CLUDING
<m eta
_i m
_im age
_im g
_im ages
Rep o
Repo rt
.In dex
ĠN P
ĠCab le
cycl op
inc iple
Ġreluct ant
ĠStep s
interface s
ĠRay mond
eterm in
ush i
ushi ng
Ġ< Ġ
(D ata
à´ ²
ife cycle
Ġshade r
ĠMak es
ĠComput ing
Ġassist ing
.e s
ic z
fr uit
layout s
Å ¥
ar Ã¡
(a l
Ġins ign
inde rs
(B uild
Ġb h
ĠBrook s
ĠDeg ree
vide rs
×ķ× Ĳ
pu Ã©s
ĠIo T
ski ll
ĠSA T
): -
elect ric
_b r
Ġmac OS
ĠConv ers
Ġnave g
comp act
Ġn l
Ġlab s
Ġac ne
ĉĠĠĠĠĠ Ġ
ĉĠĠĠĠĠĠ Ġ
á»Ļ t
-c ircle
Ġ\ ]
Ġka s
rag on
ĠCru s
ĠCrus her
ĠCrus h
ĠKr a
(D ate
Ġwo ven
ĠNe b
Ġworks he
Te l
Tel e
Tel l
Ġvi z
ĠL loyd
Ġerect ed
Ġfoo ter
Ġservei s
Ġauthentic ity
.pr op
.prop s
Ïģ Î¹
stan bul
Ġrein for
ida n
AM L
Ġci udad
Ġmang a
", $
Ä± m
Ġdynam ically
ĠĠĠĠĠĠĠĠĠĠĠĠĠĠĠĠ ĠĠĠĠĠĠĠĠ<
vi l
ieu x
[in t
_on ly
Ġu c
Tra in
Train ing
ĠNS A
inst ead
_attribute s
Va n
Ġcountry side
Ġvolt ages
ĠG W
uc ht
ific is
_S P
Cont in
Contin ue
_gr ad
T uesday
Ġi nh
Ġinh ib
Ġinh er
Ġinher ent
Ġinh ab
Ġinherent ly
@end section
ĠAss ign
Ġce d
Ġbonus es
Ġp thread
rec e
ĠE E
×Ļ× Ķ
Ġvo u
Ġvou s
Ġcapita list
uls ive
Ġvin d
rich t
Ġsum a
ĠWhat s
Ġplag ue
Ġsqu ee
Ġ= ~
ĠLatin o
Ġbattle field
Ġdeck s
Ġpod r
ĠWe ar
Ġflood s
× ļ
dt ype
Ge o
Ġnar c
Ġque er
to w
tow n
Ġadvoc ating
Ġelectro de
h bar
Ġn x
### ##
ĠWa ste
ĠThrow able
ament als
uis ine
iqu ity
ch y
gn ome
_trans form
opp er
Ġcli ff
Ġdoct r
imp se
ut c
utc h
ĠIR S
iq uid
* x
po ch
Ġlongitud inal
Fl at
ĠFI N
Ġinterf er
Ġinterfer ence
Ġinterfer e
}" )
}") Ċ
col m
emper ature
Ġun itats
RES H
Ġw ip
Ġ; čĊ
Ġimp e
Ġimpe r
Ġimpe d
Ġimpe rial
Ġimped ance
Ġimper ative
Ġàª Ĩ
Ġnumb ered
U F
UF F
UFF ER
_ind ices
Ġ" ]
LE X
_C om
Ġreb ut
ĉt mp
ĠCu m
Ġcandle s
ĠGene va
B G
}^{ (
.p ictureBox
Ġcounter part
Ġcounterpart s
normal ize
ea t
Ġretr eat
Cr eat
Creat e
Creat ed
rep eat
Ġon Create
Creat ing
ĠRep eat
Ġgro s
Ġgros s
Ġfile path
Ġq uo
Ġquo te
Ġquo tes
Ġquo t
Ġquo ted
ve au
oci de
Ġspokes person
an while
Ġvie l
[ b
à¤¨ à¤¾
ĠD D
oot ing
Let ter
DE V
etti ng
rena l
6 5
iff e
iffe rent
iffe r
d ifferent
iffe rence
Ġsea food
ĠW M
Or d
Ord er
v ance
ĠPat ch
Ġrele v
Ġrelev ant
Ġrelev ance
ss a
Ġ@ @
AD A
iser s
Cl ock
Ġà® ¤
ĠAb ove
= #
not ice
ĠK C
Re q
Req uest
\ Request
Servlet Request
Ġlith ium
R s
Part icip
ĠMos c
ĠMosc ow
_EQ UAL
iron ments
à²¾à² °
Ġàª ¤
(bool ean
EV ENT
Ġmind ful
Ġmindful ness
R D
WO RD
ASS WORD
Ġfore ground
Ġmention ing
ĠCla im
ĠLi k
ĠLik e
oca r
El e
Ele ct
vr e
Ġbe gg
Ġmo ng
(re g
Ġno except
end i
endi ng
endi f
# endif
ĠLas er
ĠVe rn
á» Ŀ
Æ° á»Ŀ
']: Ċ
ĠPr adesh
Ġretro s
.me an
ht m
Ġnotice s
ike l
Ġĉ Ċ
mi ni
mini str
mini st
Ġaix ÃŃ
Ãł y
fin ish
finish ed
un finished
Ġtwin s
/l og
/log in
NE CT
NECT ION
ĠBab ylon
à¥ĩ à¤
Ġphilosopher s
vo te
vote s
Up votes
un y
uny a
ĠCatal unya
Un t
Unt il
ĠLo r
ĠLor d
ĠLor e
Ġadvisor y
Creat ion
pie s
ĠPackage s
ĠMc Donald
Ġcaps ule
Ġhar bor
C Y
Ġideal ly
Ġpued en
Ċ //
ĠBenn ett
Ġass ay
ub y
(){ ĊĊ
ĠO B
Eng land
Go t
Ġresign ed
F s
dep recated
() ==
logic al
.*;Ċ Ċ
Ġbom bing
Ġd m
ĠMor mon
Ġfung i
ĠCle arly
àµįà´ Ł
ham mad
ne igh
VE D
Ġharm less
ĠNS Log
Ġ? ,
opt er
ĠFried rich
Po lice
UIL D
pose r
har t
match ed
à¥įà¤ Ł
' T
ATE G
pro position
Ġcompart ment
p v
ĠLi nes
Ġrenew al
IC A
ICA L
AP H
Ġom n
mans hip
Ġg p
ĠF B
ĠFB I
M u
Mu s
Mus ic
Mu ch
Mus t
Mu t
Ġbi c
Ġbic y
Ġbicy cle
ĠCons ell
.co r
.cor e
ĠMu h
Ġex h
Ġexh ib
ĠEx cept
ĠExcept ion
Ġje g
auth ors
Esp anya
ĠJ i
ĠJi m
ĠJim my
aze r
Ġded uct
d ictionary
Ġanno un
Dan iel
.rec t
ĠAr i
ĠAri st
ĠCatholic s
S a
Sa l
Sa m
Sam ple
Sa n
Sam e
Sa t
Sa y
ar b
ĠCompar ison
ĠSub mit
Ġlegit im
Ġlegitim ate
Ġstret ches
Ġgra te
Ġgrate ful
ĠPr oc
cr a
cra ft
Ġair craft
ine craft
Ġspace craft
ĠMine craft
Ġeru pt
ĠG S
cle r
Ġmedian te
Âł metres
eng a
enga n
Brit ish
< S
ho s
hos t
local host
host name
Ġpobl acions
cre ase
ĠWa ys
ĠGra b
Ġobst ant
Ġpert any
arn a
Ġblend ing
Ĳ ľ
So n
/ o
/o r
Ġequip s
Ġspa ns
need ed
rim p
ĠSD K
]], Ċ
Sol ution
od ot
Ġng On
Ġb d
Ã¦ r
IN PUT
ĠNH L
ĠTra v
ĠTrav el
agra ms
Ġku t
Ġun n
Ġsequ el
Ġ\ |
iant e
ĠO W
pend ix
_s uccess
ĠNat al
ĠÂ µ
Ġni b
ĠIS S
el esc
Ġtrou b
Ġtroub le
Ġtroub les
Ġtroub led
ĠBrad ley
Ġground water
Ġgly ph
Ġslo pes
pan ies
ĠPalest in
ĠTerr or
_G R
] >
ĠBry an
Ġsug ars
Ġgo r
Fl ex
an u
anu t
inish ed
Ġadvertise ments
Ġprox im
Ġproxim ity
Mo v
uest o
ĠOk ay
esp er
ĠAnge la
ĠHope fully
bec ca
ĠKu n
Log ged
ĠFern ando
CA D
CAD E
Pa ths
ĠHash Set
Ġak a
Ġfa Ã§
number s
aki n
akin g
Ġbre aking
ĠArch ae
Ġou tr
Ġoutr age
ĠHa v
ĠHav e
ĠHav ing
ĠHav en
Ġumb rella
ilo c
ĠDis order
road s
Ġnan o
ĠsegÃ¼ ent
ĠAB S
ĠDo ing
ĠDip l
ad m
adm in
Ġpoll ing
Ġáĥ ¨
us o
ĠRam s
ĠReal ity
imm une
= c
any es
ĠAustria n
Ġher d
VE RY
>() Ċ
ĠMy th
ĠPa rs
ĠPars e
ĠPars er
ĠImm un
enge s
Ġlub ric
àµįà´ ¨
ĠR N
ĠRN A
ĠVi v
Ġclimb ed
Ġexc h
Ġexch ange
Ġexch anges
Ġexch anged
.do wn
go d
Ġbutter fly
ĠPa m
ĠNa k
Ġlab eling
ĠWa ters
Ġ[ :
rea ms
! ]
Ġnin th
ĠÅ Ľ
Ġsew ing
ish ops
apt ic
ĠHD D
bp s
âĢĻ h
= `
/ N
ĠHi p
ĠPl a
ĠPla y
ĠPla n
ĠPla yer
ĠPla nt
ĠPla yers
ĠPla ns
Ġsequ ential
Ġ$ (\
Ġpoll en
Los s
N H
ck o
output s
Arr ow
cro w
v int
Mix in
/" ,
č ĊĠĠĠĠĠĠĠĠĠĠĠĠĠĠĠ
Ġh ospit
ĠCra w
n f
Ġco nf
Ġi nf
Ġinf orm
Ġinf o
Ġinf l
Ġinfl u
co nf
conf ig
Ġinflu ence
ĠCo nf
ĠConf ig
Co nf
Conf ig
Ġconf usion
Ġinf ant
Ġinfluence d
Ġconf orm
Ġinfluence s
Ġinfl ation
Ġinf in
Ġinf r
conf irm
Ġinflu ential
Ġinfant s
Conf irm
.co nf
.conf ig
Ġinflu enza
_co nf
_conf ig
ĠConf eder
Ġinfr ared
Ġinflu encing
Ġinfr a
ĠConfeder ate
Ġinf amous
Ġworm s
Ġ/> čĊ
omb ok
aru s
ĠTri al
ĠNob ody
ĠSh i
ĠShi p
ĠShi ft
ĠShi eld
Ġll og
gr im
q i
ĠGo ds
ĠRo h
ya r
yar d
iz oph
ell t
ÃŃst ica
=" @
ĠJac ques
T s
ern er
ĠBeng al
Ġmain land
Ġint u
ĠY O
ĠYO U
ĠYO UR
Ġsu t
Ġbend ing
que l
ĠBat ch
ĠFe n
Ġeb ook
ĠRa re
Ġmembrane s
ĠSp i
ĠSpi rit
ĠSpi der
ĠSpi el
Ġfo pen
à¨ °
( <
Ġsup ern
ĠGar cia
ĉ W
ĠVo y
Ġanat omy
Ġlogo ut
Ġped ra
Ġke l
Ġàª ľ
xff ff
Ġrep t
ĠJi n
Ġba h
Ġgreet ed
Ġhab ÃŃa
Ġharvest ing
gre y
Up on
f h
ĠResp ond
ulla h
Ġv r
Ġihr e
pu n
Õ¥Õ ¶
Ġcos ta
Ġcosta t
ibli ot
ĠTopic s
++ ,
Ġout going
iva ble
eno s
Cur ve
Ġaix Ã²
ĠTan z
Ġvi sc
:\ \
(I D
ĠRan ch
Ġgre c
ĠLie utenant
amp ton
Ġoccupation al
wr ong
à®¿à® ¯
oven ant
na r
Ġprinter s
Ġlu r
Draw er
ffe n
_word s
ĠCat hedral
+ ,
Ġl r
Ġoutr ight
cis ion
Ġcat ches
str len
ĠSong s
ĠReg ne
_w ait
(B undle
gm ail
Ġy n
gen e
gene r
gener ic
gener ated
gener al
gener ate
gener ator
gene s
gener ation
hold ing
eg g
Ġbi b
Ġbib li
_N ame
igr aph
Rec ords
ĠLO RD
Ġmicro b
ĠBob by
ĠAssociate s
Ġlaunch es
ju g
Ġwh istle
GH z
ĠHandle s
Ġmen d
Ġza p
ĠÃ§ a
z d
ĉs t
ĉst d
ĉst r
ĉstr uct
ĉst ring
ĠAdv ance
ĠAdvance d
ĠOr e
ĠOre gon
Ġwrap ping
ĠTai l
inh a
"=> "
C i
ĠJoe l
Ġpra g
ĠLast ly
Un less
Comp et
Ġmari time
Ġsur pass
ĉ o
ĉo ut
ĠÏĦÎ· ÏĤ
yd ney
ring e
ier ung
Ġelev ator
')ĊĊ Ċ
ĠBas in
ĠM Ã©
({ },
.b y
ĠRu m
ĠCA D
()čĊ čĊ
ĉS et
Ġtod a
Ġtoda y
Ġtoda s
ĠTro y
ĉm ap
+ )
ĠCompet ition
Ġsho ots
NA L
ĠB D
Ele m
Elem ent
Elem ents
get Element
getElement ById
ĠClar a
Ġinfant ry
Ġs ampl
Ġprompt s
Ġbroad band
ĠUI Color
LIC ENSE
ĉc in
Ġble w
ĠPh o
ĠPho t
ĠPho to
ĠPho ne
std err
Ġcris es
go s
Ġdeny ing
iph one
Ġir r
Ġirr it
Ġirr e
Ġirr ig
Ġirrig ation
Ġirre s
Ġstack ed
is iÃ³
Ġglyph icon
ĠTerr itory
ath a
atha n
ĠJon athan
Ġfoi l
fig ures
Ġrid ge
ĠProt ein
Ġsett ling
" `
"` Ċ
Ġà® ħ
ura t
urat ion
ĠConfig uration
config uration
urat ions
Ġant s
ĠQu r
lb l
Ġprotagon ist
ĠÃī s
Ġgall eries
emon y
urr ing
Ġstart Activity
ĠN L
Ġcrew s
ĠPractice s
ĠIter ator
Ġpan e
Ġpane l
Ġpane ls
LAN G
util ity
Ġgo l
Ġgol d
Ġgol den
Ġgol f
ROL L
Ġpup il
Ġpupil s
une d
Ġbond ing
Ġ'- '
ĠHyd ro
ĠClar ke
ĉĉĊ ĉĉĊ
Ġnurse ry
z k
ĠDun can
Ġey el
_en able
_enable d
ava r
Ġs Ã¨
Ġcomp uls
Ġlad o
ĠHen ri
Ġche w
Dis able
Disable d
lÃŃcul a
ĠNov el
ĠChe f
ia e
ĠDam e
ale n
alen dar
@ app
coord s
Ġ<> Ċ
ĠChan g
ĠChang e
ĠChang es
¦ Ĥ
Ġdescend ed
be k
yl inder
lob als
ĠHan ds
gra ded
Ġjet s
(" $
ĠH H
mil e
ĠA U
Ġsmile s
ria d
Ġmy riad
ĉout put
oi t
.Tr im
Ġmarginal ized
R G
RG B
ĠIn crease
.on Create
.Int ent
ĠMet ropolitan
_T X
rest ore
Ġb Ã©
(t ag
ĠG H
ĠGH z
PEC IAL
ĠMi nt
Ġsystematic ally
ri ber
ĠEss ential
Ġdread ful
Âł aC
win e
ĠExec ution
Ġaud i
Ġaudi o
Ġaudi ence
Ġaudi ences
Ġaudi t
ĠUn e
_LE FT
Ġ### #
Ġanomen at
_res et
Rep orts
-se arch
ĠChe l
ĠChel sea
ti s
Ġgra tis
Ġth umbnail
Ġimprison ment
urr ence
Ġ( ?
Ġconstr uir
dra wn
ON S
ĠE k
bi o
) -\
ing ut
ĠTu l
Ġpros e
Ġprose c
Ġprosec ution
Ġcrack ed
-i nt
ĠCuba n
_P ro
Ġpetit s
ee m
Ġm olec
". Ċ
".Ċ Ċ
Ġune s
Ġtravers e
Ġlac ked
sta b
stab le
Ġsponsor s
our cing
Ġm Ã¥
ĠKle in
ra k
_st op
ĠBA SE
ĠCM S
_IM AGE
urs t
Ġsie ge
Ġext inct
Ġextinct ion
Ġnons ense
ne j
' <
'< /
mal e
Ġcred ible
âķĲâķĲ âķĲâķĲ
CRE T
Def ine
ĠTab les
Ġinstruct ional
Ġdescend ing
Ġhalf way
/* .
zen t
_NUM BER
ĠPa g
ĠPag e
ĠPag es
ĉf t
ĠSeg ons
ĠBirth day
H o
Ho w
How ever
Ho t
Ho l
Ho r
Ho m
Hom e
Ho ok
Ho n
ĠSur v
ĠE tym
ĠMis sing
Ġoh ne
ĠFu l
ĠFul l
ĉst art
Ġmotiv e
Ġcerv ical
ode n
ĠWA R
EM P
EMP L
Ãłn h
Ġh v
à¤ ĸ
atiu s
ĠWy oming
(F ile
Ġna u
ese s
ĠCa nn
ĠCann ot
rea ds
Ġende avor
hi r
hir e
pi s
Ġalien s
Ġgri ll
Ġhem p
ĠT T
cipl inary
_ex ec
_ass oc
z b
{ (\
Ġcere bral
yan g
.M ouse
ĠMac ed
ĠZ eal
ĉĉĉĉĉĉ Ċ
à²¿à² ¦
ĠSho t
Ġresol ving
Ma s
Mas k
Mas ter
Mas s
Ġdyn asty
bra in
tt i
Ġ)) Ċ
udd en
ott i
IN A
à¥įà¤ µ
â ģ
iger s
occup ied
ĠW IDTH
Ġve rw
ĉ A
Ġpt s
Ġshort s
ĠTw in
Ġrelieve d
Ġsol itary
Ġdisturb ance
adv ert
# line
CL E
Ġjo c
Ġpollut ants
cri pts
ite t
bec k
}) )
( O
rt ype
.AspNet Core
ĠDest roy
ĠStar ted
gar y
ol n
ĠFi b
ĠRap id
ĠMir ror
ĠAh med
ultip art
))) ĊĊ
ĠAu b
>" Ċ
ĠNS W
ĠUS S
Ro m
Ġ-*- Ċ
(f or
(for m
ĠPart it
wa p
ĠRet ail
Ġcy t
ĠLo an
Ġextr as
OUT PUT
ĠAn onymous
Ġtrop es
ĠFam e
ani s
anis h
ĠR ena
oh yd
.Back ground
Ġunpredict able
Ch inese
za n
áĢ Ń
ĠSac h
cas ter
read only
Ã¶ l
ATE S
'} }
usc h
Ġll uit
à® ®
Ġàª ħ
fields et
Ġnor t
Ġnort h
Ġnort hern
Ġnort heast
Int o
ĠHar old
ĠOw en
Ġrecur rent
ĠNik e
Ġcontract ed
i age
hot s
AW S
Ġembr o
ĠConf irm
ĉ z
err at
Ġscroll ing
ĠRec omm
_mem ory
Ġfru st
ĠEs te
q r
qr t
.s qrt
Ġfram ed
ale m
Ord ers
ar Layout
ĠDo d
ott o
otto m
-b ottom
lu ent
NA S
Ġleur s
C y
ĠShi n
hem a
hema t
ĠMat hemat
ĠMathemat ics
ĠÕ ¿
ĠAction Result
ĠPE T
Ant i
Ġpion eer
ĠZoo m
ĠNi l
Ġpadd le
àµ ¼
Ġprov a
India n
ĠI A
RA M
ĠBM I
ĠPC R
ĠUn i
ĠUni on
ĠUni t
ĠUni ts
ĠUni ty
ĠUni que
Ãª s
imeter s
Ġmarriage s
Ġg h
Ġgh ost
Ġcur b
Ġethnic ity
ĠWal king
bs olute
Ġmism atch
alt a
ĠCo ming
lam ent
Ġpal l
ĠNA V
ĠB J
Ca pt
Capt ion
Capt ure
.Re f
amp ling
Ġblend ed
sn d
prev ent
iner s
ĠLore n
Ġdecis ive
ĠShar ing
ĠChart er
ĠJoh ns
ĠJohns on
EO F
Ġdru ms
Check Box
Ġharvest ed
ĠBee r
Ġpend ant
riv ing
ĠRoc ky
ĠEv il
idi s
Ã¯ t
Ġvolt ant
BO X
ĠPen ns
To t
Tot al
ĠSe q
ĠSeq u
ĠSequ ence
ĠKen d
_I F
-st ar
-star t
Ġsafegu ard
T i
Ti me
Time out
Date Time
ĠDate Time
Ti m
Ti mer
Ti p
Ti mes
Ġset Timeout
Ti ck
Õ¡ Öģ
sembl ing
Ġbal d
ut ory
Ġmotive s
.it er
ĠRi s
Ġ** /Ċ
_no rm
_norm al
nu ms
Ã¤l l
him self
tri p
ola n
$s cope
ĠAct ual
ĠActual ly
Ġrele nt
rx js
Ġslo wing
ADD R
c ref
Ma tt
Ġprom o
Ġpromo te
Ġpromo t
Ġpromo tion
Ġpromo ted
Ġpromo tes
Ġpromotion al
Ġpromotion s
n als
Ġgreet ing
Da ily
Ġmini ature
r ÃŃ
Ġpe rÃŃ
ĠGo l
ĠGol d
ĠGol den
ĠGol f
-s p
ĠAc tor
Ve rb
Ġfault s
Ġnet s
], čĊ
ĠFran z
Ġscream ing
odo r
Ġfresh water
ĠFle et
ĠPla za
Ġà´ ¨
Ġmeth yl
ĠDM A
Y N
Ġliquid s
Ö ¸
ĠPra y
esse s
Ġproc esses
Ġaddr esses
Ġkick s
() >
ifact s
ĠD y
Ġdon c
r out
Ġpackage d
ĠSu ff
Ġdefens es
irc ular
à¤¿à¤¯ à¤¾
Pat ient
uler s
ĠObserv atory
Ġdivide r
Ġob solete
Ġspot light
akes pe
akespe are
ĠSh akespeare
Ġde j
Ġ/** <
ĠFactor s
': čĊ
ĠMi tt
Ġmigration Builder
F K
Any one
Ġmel l
_NO DE
ĠàªĽ à«ĩ
igit s
chr om
chrom e
ĠVi a
Ġhome page
Õ¸ÖĤÕ©Õµ Õ¸ÖĤÕ¶
_c ur
iri s
Ġwidget s
Ġbei m
ÄŁ Ä±
ĠGo r
ĠBron ze
. âĢĶ
itan t
ĠPO L
Ġlaunch er
ĠN W
Ġimplant s
. =
ien s
Ġayud a
Ġs g
ab aj
ĠBase ball
Ġso vint
ĠAs c
peut ic
(c o
(co unt
(co lor
(co m
(co de
(co n
(co l
(col umn
ĠServ let
Ġà² ¨
Ġp v
ĠPeters burg
Ġrepair ed
Ġdow ns
Ġhor s
Ġhors e
Ġhors es
ĠOw ner
Ġgram m
Ġgramm ar
ĠSpr ite
Ġrepl aces
it ous
ĠBot t
ĠBott om
ĠBird s
ĠSur g
Ġcert ific
á¹ £
Ġqued a
Ġqueda r
áº ·
Ġparam ount
ne k
Ġà² ª
% -
Ġvertical ly
De ath
ĠSy l
ama z
amaz on
Ġblow s
Ġsuperf icial
_LO NG
ĠMo nd
ĠMond ay
Ġjak o
rict ed
"] =
ian g
Ġm Ã¼
ĠChan d
requ ests
à¦ Ĺ
Ġwhen ce
ĠV T
ĠSpi n
ĠMap ping
-l o
Ġarter ies
.Print f
ons tr
ĠI z
eni a
à´ ±
(s um
Ġvalve s
ĠN F
ĠNF L
à¤¾à¤ ¯
ĠĠĠĠĠĠĠĠĠĠĠĠ $
an onymous
ge m
ub b
ubb le
ĠCha pel
Si x
ation Token
RO UND
ĠTu b
Ġdiss e
Ġbes ch
ĠOl e
Ġmuc ho
ac l
acl e
acl es
Ġobst acle
Ġobstacle s
and i
andi d
OTH ER
Ġsc o
Ġes k
_g shared
ric ula
Ġelephant s
({ čĊ
Ġreg ain
ian i
Ġmile stone
Ġurg ing
ĠSens e
Ġwrest ling
Jo n
Ġbegin ner
Ġbeginner s
Ġparliament ary
Ġmo no
Ġmono t
Dep end
Depend ency
ĠPartners hip
Ġpul p
anti s
ĠPow ers
à¤¿à¤ ¸
xture s
ĠRE L
Ġambigu ous
ĠBre t
ĠRi se
ĠJuda ism
30 0
Ãł c
Ġretro fit
à³įà² ¯
ĠGr u
_mem ber
Ġesto s
Î¿ Ïį
H N
ĠPI D
Ãª t
Ãªt re
Ãªt e
ĠBu n
ĠBun d
ĠBund le
Ġguard ian
n ies
Ġnue va
D s
Be yond
Ġva ls
ĠAssign ment
Ġyog urt
NO DE
ĠRi ca
{ -\
Ġscrew s
Ġmine r
Ġminer s
Ġruin ed
Ġcm s
JSON Object
ĠWe r
ĠWer e
ĠWa ld
aser s
ella tion
Ġcanc ellation
ĠPo le
ĠiÃ§ in
ĠFlow er
ĠE y
ĠEy e
li v
liv e
Ġ( /
L V
Ġfriendship s
Ġunfold ing
ire less
Ġ| \
ĠTim othy
Ġko l
à´ ª
Ġd v
ĠTree Node
Ïĥ ÏĦ
requ ires
Ġheb ben
ĠDisease s
(al l
Ġat Ã©
ĠLi l
ĠLil y
: }
ed Reader
á» ĵ
Ġho g
Ġhog y
(id x
àµ ½
Ġpersu ade
ĠKur t
ĠAx is
ĠMat e
Fin ish
Finish ed
ĠURL s
, h
Ġcolle g
ri f
Aqu est
-l e
-le ft
-le vel
ĠTea ms
Ġspl its
Ġpreced ed
/** */
< Object
Ġmi ng
Ca s
Cas e
Cas t
Lower Case
.to LowerCase
Ġ', '
reg istr
registr y
registr ation
bl r
Ġpa k
ĠProp er
ĠProper ty
ĠHeader s
/n ull
ĉĉĠĠĠĠ Ġ
Ġdirect ing
at itude
no DB
DE C
Ġil s
gr ub
ĠI b
àª¨ à«ĩ
ess ential
In line
ĠUse s
-f riendly
aine rs
Ġsacrifice s
ĠChang ing
_cl ean
ĠMOD E
ĠUni code
Ġshe ar
minute s
h ig
à° Ł
') (
.tr ain
ĠJa w
ĠMen t
ĠMent al
Ġface t
Ġstere o
Ġseal s
Ġclo cks
Ë Ī
Ġ". "
ampa ign
ande z
ĠN D
Ġja g
_s ingle
Ġsleeve s
Ġmast ery
ĠKan t
ĠME M
score s
Ġstrengthen ed
Ċ ĠĠĠĠĠĠĠĠĠĠĠĠĊ
Ġurl s
Ġredund ant
ous in
>() ;
>(); Ċ
>(); ĊĊ
>(); čĊ
ĠBen ch
Ġ(_ _
Ġintu ition
fa m
fam ily
ĠEy es
Ġrec l
Ġrep ay
Ġe h
à´¿à´ ²
Ġform idable
Ġcontra ction
Rel ative
Ġwo rs
Ġwors e
Ġwors t
Ġwors hip
B H
ĠCond uct
"čĊ čĊ
irl ing
Ġes deven
Ġdon n
Ġdonn e
',Ċ Ċ
\ $
Â° C
ĠStr ip
ĠUSD A
ich a
icha el
Ġmode lo
aci n
acin g
Ġrepl acing
Ġembr acing
ne ut
'])) Ċ
Ġtherapist s
Ġdraft ed
Ġal c
(' ');Ċ
ichte n
CLU DE
',' $
ĠPla in
isi a
, T
ĠExc ellent
(val ues
Ġx i
.Tr y
ĠLe ban
w c
Ġsho wc
Ġshowc ase
.Reg ister
áĢ ±
Ġgo at
áĥ Ĺ
ML E
/f orm
inci nn
ĠNot re
" <
"< /
onia n
Ġsow ie
(a t
= ?
s uggest
uber n
Ġdon 't
9 5
ĠWi d
ĠWid get
ĠWid e
ĠWid th
ĠHu d
ĠHud son
ĠJess e
ĠDef ence
.F ill
cm s
ĠPan ama
ĠEp ic
ere k
_L oad
Ġaffiliate s
ĠMuse u
ĠMuseu m
Ġdet ox
Ġnick el
(se arch
re x
Ġ( :
ĠRi g
ĠRig ht
ĠRight s
Ġjudge ment
pop ular
iet ies
Ġdefault Value
eni x
ĠPho enix
d v
.b r
ja m
jam in
ĠBen jamin
pre p
prep are
th ick
ĠTub e
Ġyou tube
adio Button
Ġnoble s
function al
ar ently
ĠWor ker
bro ok
ĠAsh ley
Ġsupp er
ĠAc id
DEC L
Ġ""; čĊ
calcul ate
ĠCT ype
Ġ| Ġ
Ġfis c
Ġfisc al
ĠPow ell
Ġnano p
ĠHard ware
Ġglo wing
ENS ION
N s
Ġglance d
ĠUr l
Ġsupp orter
Ġsupporter s
Ġcirc ul
Ġcircul ar
Ġcircul ation
Ġcircul ating
Ġtim eless
e as
Ġà´ ®
re i
rei ch
Ġai l
fe l
fel d
fel t
UI T
ĉre q
ĠHer z
ĠBM W
ĠCo lin
nd re
ĠViol ence
à© Ģ
Guid e
Ġzwe i
H F
\ -
_o k
Ġvr a
ĠÎ ½
ara k
Ġexploit ed
eye s
Action Result
.n n
he e
hee t
hee l
hee ts
Ġworks heet
Ġworksheet s
Ġos s
Ã ĵ
Ġdu c
Ġduc t
Ġduc k
Ġ); čĊčĊ
}) }
EE K
-f oot
-foot er
_z ero
ĠEx hib
eu rs
ĠNi t
osc ope
ĠShar p
Ġdisc ard
Ġdiscard ed
ĠHe p
Ġma m
Ġmam m
uro n
s ica
à¦¿à¦ ķ
Ġà¤¨ à¥ĩ
.Se nd
id ation
ĠAc e
4 7
Ġexpand s
ĠdÃ© s
Ġaw e
ĉĉĉĉ ĉĉ<
à¤¿à¤ ı
Ġthe at
]] .
Ġcanc eled
âĦ ĥ
oun s
ĠG I
_O R
Bro wn
ĠCre w
Ġend ors
Ġendors e
Ġà² ħ
Ġexperiment ing
ĠR D
Ev er
Ever y
Every one
âĢķ âĢķ
\ User
Ġ× ª
Read Only
Je ff
ĉin put
": {"
k v
Ġco li
up o
upo n
Le af
Ġpun k
EX P
gar d
ĠPot ential
_ne t
Ġsho res
Ġsc am
ĠAS S
ĠASS ERT
IGN AL
ĉm ax
ĠBer ry
aus ed
Ġmo i
Ġmoi ns
Ġground breaking
( Y
ĠCA S
ĠJeff rey
Mar ket
(h ost
áĥĲáĥ ł
áĥĲáĥł áĥ
Ġagg rav
..... .
% B
Ġneur on
Ġneuron s
ĠBat man
Ġ-Ċ Ċ
eg ration
wid gets
Ġpr ow
Ġrip e
Ġaur a
sens e
ĠEx cell
Ġfurn ace
Ġtransc end
Ġmill enn
Ġà¤¹à¥Ī à¤Ĥ
]= "
Ġprof und
ĠCla ud
sal e
Ġdischarge d
df s
.st ack
Ġpou ring
Ġpunt o
Ġcharacter ize
Ġcharacterize d
zi n
zin g
Ġanaly zing
cri pcion
og u
ogu e
Ġdial ogue
Ġcatal ogue
.add Action
Ġ~ =
ta l
amen tal
iden tal
tal k
.to tal
Ġbru tal
men tal
Ġexperi mental
Ġinstru mental
Â ¼
Ġ*/ }Ċ
ĠĠĠĠĠĠĠĠĠĠ ĠĊ
Ġscar e
Ġscare d
Ġlin ea
Ġlinea r
Ġl d
lar Ä±
esse r
ier i
`) ;Ċ
irth day
Sche me
optim izer
Ġvil le
Ġc emetery
ĠCorn ell
_I O
New ton
< const
ĠKnight s
Ġturb ine
Ġoff s
Ġoffs et
Ġoffs ets
Ġnomen at
Ġrest s
Ġune ven
ĠLeg ion
incinn ati
ĠC incinnati
Log ic
zi a
ĠTri ple
Ġcasc ade
-c o
-co lor
-co m
-co n
-co l
-co nt
-cont rol
-cont ent
-cont ainer
net s
Ġpla nets
alse vol
O l
Ol d
IP T
Ġeld ers
Ġreput able
Ġà® ĩ
Bu r
El l
RI PT
ach a
f ashion
}/ ${
ĠEq ual
Ġdom e
Ġcongreg ation
Ġà¦ ľ
++ .
Ġhyp o
Ġhypo th
iva s
ĠV P
ĠVP N
Ã¨ n
Ã¨n cies
Ã¨n cia
er Ã¨ncies
Ref erÃ¨ncies
Ã¨n e
Ġcru s
Ġcrus h
Ġcrus her
Ġcrus hing
Ġcrus t
Ġcrus hed
ĠEsp anya
ĠCal vin
Ġtra bal
Data Type
ĠUg anda
ĠTe t
.Res ource
čĊ čĊĠĠĠ
ĠME T
_by te
_byte s
Ġsp h
Ġsph ere
ĠPred ict
_un lock
ĠLib ya
names e
ĠEc o
ĠEco n
ĠEcon om
ĠEcon omic
ĠEcon omics
ĠEcon omy
FLAG S
ĠLyn ch
Ġl t
Ġgrou ping
Ġsp i
Ġspi rit
Ġspi n
Ġspirit ual
Ġspi r
Ġspir its
Ġspi ne
Ġspi nal
Ġspi ns
Ġspi der
Ġspi ral
Ġspi ces
Ġspi ke
Ġspi ce
est iu
istr e
& =
ĠJ ere
.P I
(t f
ĠJu ng
duce r
ducer s
à¸ Ĥ
âĢĶ the
Ġaccommodation s
ĠBas t
area s
Ġmerg er
))ĊĊ Ċ
onym s
Ġinte rim
flu x
ĠCha d
Ġbud dy
_ADDR ESS
-type s
_j ob
ike d
ĠVert ical
eful ly
.char At
}( {\
Ġtrabaj o
it ics
eix en
Ġmund ial
_the me
AI T
Ġà® ļ
ĠA E
ĠQ R
ĠNil e
ĠÎ Ń
enti n
entin a
Ġdef orm
Ġliqu or
ĠXI X
dp kg
Îµ Î¯
Ġbor d
Ġj untament
Editor s
.Pro duct
Ġrepeat s
à§ĩà¦ ¨
ĠDet ail
ĠDetail s
Del eted
) `
Ġinn ate
U t
Ut il
Ut ils
Ut ility
Ut ilities
GLOBAL S
"< <
Ġqu alsevol
ovi c
elp ers
aret te
GP IO
ĠBon us
ĠMag e
}") ;Ċ
prev iew
ve e
.In fo
Ma rg
Marg in
it utes
cht e
-f old
ĊĊ Ġ
Op s
Ġdesc on
cre ator
ĠAbu se
chn ology
gl Ã©s
to ok
ĠCA L
od ic
aly tics
away s
Ã¤ d
Ġoxid ation
ĠMos s
yard s
(tr ain
('/ ',
isse n
iche ver
Ġ"# {
à¸Ń à¸ĩ
CT OR
avo id
Ġtrans verse
Ġbb ox
ĠUI T
.* Ċ
ĠRe becca
Ġwipe d
ĠPrior ity
_P I
_PI N
orp tion
Access or
ĠCy cl
ĠCycl e
ĠCook ie
ĠNar r
ĠProv id
ĠProvid e
ĠProvide r
Ġ/ \
co ma
=" {
="{ {
ĠHero es
Ġf b
Ġsc aff
Ġt l
ĠArt ificial
Ġendors ed
chars et
'' ,
big r
ĠSon s
Ġprep ares
Ġbip olar
Ġspr aw
Ġcontinent s
ien tras
.al ert
Ġret val
ĉtemp late
Ġexperi mentation
Tri m
ĉĉĉĉĉĉĉĉĉĉĉĉĉ ĉ
Ġsix teen
big l
Ġ& (
Ġflor a
Ġflora l
ĠBy z
a ÅĤ
ĠChe cks
ĠCorn er
Part s
register ed
ĠReg iment
(res ults
Ġtent h
Ġcann on
IFI C
Ġdi u
Mart in
cler osis
Ġfresh ly
le f
lef t
_r em
_rem ove
? âĢĻ
war f
Ġbro th
Ġbroth er
Ġbroth ers
Ġmix er
ON D
ĠDi ss
à¯ ĩ
ĠWo w
-ind ex
Ġg j
asse d
ĠSil icon
Ġsess o
Ġreceiver s
ĠRu ral
Ġf g
Õ¸Õ ¾
Ġ{}; ĊĊ
ĠOri ent
Ġlaptop s
ĠBas h
']) ,
aur a
ĠNe u
ĠNeu ro
Ġgri t
ĠBio logical
WI TH
Ġprz y
}} "
balance d
tree s
estab lish
.c n
FA IL
Av atar
Ġcel eb
Ġceleb r
Ġceleb rate
Ġceleb rated
Ġceleb ration
Ġceleb rating
Ġcelebr ity
Ġcelebration s
à¤¾à¤ ¸
_G ROUP
Tool bar
p w
ĠMes a
Ġcut off
ĠMeta data
Ġstyle Urls
engu in
ropol is
ĠDes cribe
Ġkick ing
j j
ĠF F
S OURCE
Col our
Ġimpl e
Ġpost gres
mar ked
Ġfirst name
ano s
Â ³
ubern etes
na k
ew ise
Ġlik ewise
ĠLik ewise
rient ation
una te
unate ly
ĠFort unately
pons es
_bit s
ĠSor ry
Ġtu l
ieur s
sel l
ĠRus sell
sell ing
Ġaston ishing
Ġbon a
_B UTTON
Ġcu c
Ġtou te
Ġesc riure
Ġblo c
Ġbloc k
Ġbloc ks
Ġbloc ked
Ġbloc king
Ġhero ic
ine z
4 6
ĠÄ Į
Ä± k
rec v
Ġforecast s
Ġmemo ir
N M
ĠHan g
}\ ,\
con sum
-f ull
bal ls
Ġtre k
ĠSt ick
(res p
(resp onse
(M ap
Ġreg i
Ġregi on
Ġregi ons
Ġregi st
Ġregist er
Ġregist ered
Ġregi onal
Ġregi me
Ġregist ry
Ġregist ers
Ġregist r
Ġregist ro
Ġregi mes
Ġmus s
LE N
Ġmap per
Ve l
Vel ocity
Ġstain ed
r ases
à¹ Ĥ
Ġscan ned
Ma h
â ī
cons istent
ĠESP N
ĠLI B
Ġaver ages
rown ing
/d e
ĠT W
ĠBU S
ĠAF P
à´ £
áº¿ t
TI M
TIM E
ĠE dd
ĠTest Bed
Ġspike s
Ġera d
.ch ange
vec t
vect or
ĉĠĠĠĠĠĠ ĠĠ
Ġcraw l
Ġauthentic ate
/c h
verb s
ĠAttribute s
ĠSee ing
Ġanti m
Ġpe ri
ĠComb at
offset of
Ġactiv ism
×ķ× ĳ
áº£ n
ĠArtist s
Ġ" >
annotation s
Ġsand y
Al ready
ĠTor ah
ĠH arv
hat t
Ġna z
Äĥ m
Ġ& $
Ġannoun cing
ĠRad i
ĠRadi o
(for mat
str e
stre am
io stream
Ġmain stream
stre et
Ġdown stream
Ġup stream
ĠâĨ ĳ
Ġĉĉ ĉ
; '
ĠSil va
ĠBon e
Ġchecks um
ĠPap a
Ġgr ups
Ġtin t
Ass ign
complete d
ĠDoc uments
cat s
ĠÕ «
Ġcr unch
Ġfila ment
qu i
qui re
qui red
qui s
qui r
qui ry
qui t
quis ition
qui er
qui n
qui ck
qui a
qui et
qui v
quin a
qui ries
qui site
qui res
Ġmos quit
quit e
ĠRE AL
text ure
ĠKo ch
Ġconserv e
Ġmes mo
ĠRi v
ĠRiv er
ĠRiv ers
ly s
Ġana lys
Ġanalys is
Ġanalys t
Ġanalyst s
Ġanalys e
Ġanalyse s
filter ed
L y
Ġpond er
xi a
ĠM X
Ġcrypto c
Ġcryptoc urrency
.to ol
Ġcomplain ing
Ġlum p
Ġà¸ ª
Ġbu dd
stack overflow
amb ling
ross o
Ġ+ čĊ
ĠMit ch
ĠMitch ell
Ġlif es
Ġtras ll
Al ong
Ġcardi o
ran ch
Ġjudgment s
ĠLa c
iert e
Ġv Ã¦
ĠSho re
Ġbre d
Ġine t
pos ium
oint ment
Ġex ile
! ?
Ġflower ing
Ġmono p
\ E
ĠOs t
az o
azo n
.am azon
Ġas ynchronous
ry lic
à¯ Ĩ
Ġ{ %
Ġ× ¡
Ġline up
Ġprompt ing
Ġintu it
Car bon
Ġdiff ic
Ġdiffic ult
Ġdifficult y
Ġdifficult ies
ans e
Ġgradient s
âĢĻa i
udd y
(b oard
ĠMol d
(cl s
-de s
: )
à³įà² ¨
Ġdefender s
rolog y
los ing
Ġquo ta
ĠNi n
ĠNin e
ja t
Ġcl utch
Ġju b
ĠMil ton
Ġ---- -
Ġn c
ĠMom ent
ĠÎ Ķ
Ġin ward
ĠCor on
Ġairport s
da d
ER A
ERA L
Ġpa u
Ġat r
igi d
Ġsulf ur
sto wn
ĠUI nt
ĠMarsh al
ĠMarshal l
CG Rect
our g
en berg
Ġhu mid
Ġhumid ity
.De bug
\ ;
Ġunt reated
Ġaggreg ation
Ġtin g
_p t
_pt r
ĠAdd s
.Sc hema
ĉĉĉ ĉčĊ
Lo go
~ ,
ĠSO L
Ġm n
}{ (
ĠParad ise
system s
Ġeco systems
iy a
Ġgrand parents
Ġe a
Ġea ch
Ġea s
Ġea r
Ġear ly
Ġea sy
Ġeas ily
Ġear th
Ġea t
Ġear lier
Ġear n
Ġeas ier
Ġeat ing
Ġea st
Ġea se
Ġear ned
Ġear l
Ġear s
Ġeast ern
Ġear liest
Ġearth qu
Ġeas iest
Ġeat en
Ġear nest
Ġearthqu ake
Ġearthquake s
Ġrese nt
ĠKind le
Ġrever t
à«įàª °
Ġflood ed
el ter
ĠCongress ional
'; ĊĊĊ
erm o
Ġn vidia
Ġpepper s
err al
t frac
Õ¸ ÖĢ
osa urs
eda r
." .
à¤² à¥ĩ
ĠArea s
(co nn
ig ues
Ġcrus hers
gre e
gree n
# undef
Ġen l
Ġenl arg
Ġenl ight
Ġmeg a
Ġrod s
hi ft
Ti po
ĠEU R
den s
dens ity
á»į n
up a
.G ame
(num s
pha l
phal t
Ġbenef ici
ĠNear ly
ĠChi n
ĠChin a
ĠChin ese
lan e
cer pt
Ġex cerpt
[ T
Arg b
.B ody
En joy
AL T
ALT ER
à«ĩ àª
_inter face
ho e
ĠJen kins
g all
ĠVol ta
Ġside bar
-res ponsive
ĠNe o
ĠMS G
Ġlip id
Ġnov o
ongo db
ĠMal colm
àµįà´ ¯
ĠHer r
ks i
Ġformation s
Ġpas se
Ġpasse d
Ġpasse s
Ġconquer ed
ĠAccount ing
IF E
Ar ound
ual s
chi n
chin g
Ġtea ching
Ġtou ching
Ġcat ching
Ġteaching s
Ġstret ching
']) .
\": \"
isk e
Ġcod ed
Ġshr imp
inst on
ĠWa rm
Ġoz one
_ep och
ĉ .
er p
ĠPr og
ĠProg ram
ĠProg ress
ĠProgram s
Ġfire wall
Mad e
ĠBell e
ĠR P
ĠGes t
ĠGy m
_i nv
Ġland lord
ang s
Mo ving
J s
Js on
Å º
(str eam
G i
Gi ve
Give n
grow n
.res t
ĠRu t
ĠRut h
cer y
Ġgro cery
à¨ ¿
Ġcons on
aje s
Ġtool tip
.de v
.dev ice
du ate
s bin
Ġcer r
-i ns
ĠK S
Ġ": "
Ġoutbreak s
Ġoccurrence s
atern ity
Ġit 's
.o r
.or der
.z ip
ĠAw ay
_inter val
EEE E
wr ight
Ġfour teen
Ġseas oned
AR C
ARC H
Ġmess y
ĠCOM M
à² ®
Ġpredict s
Ġà¤ ĸ
ĠRe y
ĠRey n
ĠReyn olds
Ġcheap est
ĠE F
ĠEF I
Ġpitch er
sol ution
istrib utions
_PO ST
grow th
Edit Text
ĠRO S
mun ition
Ġam munition
ĠBo h
Ġsta l
Ġstal l
ĠGeo ff
.column s
Ġstake s
Ġfacet s
×Ļ× §
eb ru
yn a
yna m
yna mic
ynamic s
od ynamic
ĠPok emon
ĠImm igration
.M od
ĠMak er
ocom merce
gorithm s
ĠRet rie
ĠMi le
ĠMile s
\ [\
st h
l ore
Ġblessing s
ĉ X
Ġeat s
Ġpc i
Ġjud ging
ĠAny way
Ġgrant ing
Da m
Dam age
bi b
Ġsqu ared
ĠBarn es
ĠExperiment al
= n
=n ew
=n p
=n ull
Ġbi z
schema s
ĉo n
Ġdrag ging
Ġsta cks
ĠGib son
Ġ'{ }
ĠDra ke
ĉd b
Ġcy n
Ġbreast feeding
Ġgrave s
ĠE ag
_reg ion
Ġjug a
.Set Active
esse n
Ġche at
Ġcheat ing
Ġpray ing
')) ,
Ġwrap s
ĠNort heast
Ġopt ed
Ġste er
Ġsteer ing
i Ã§Ã£o
What ever
contr e
L em
ŀ ĭ
Tool tip
SE S
Ġmotiv ate
Ġmotivate d
ĠS Ã£o
Ġfu s
Ġfus ion
Ġfus e
bro s
ĠMs g
Ġdis mant
Sk in
RO S
Ġassistant s
Ġbust ling
ĠNew castle
.bl ack
mic a
àµįà´ ±
Ġlifes pan
Vi r
+ i
rap e
ace ous
ĠDe ar
ĠÃ ²
.pre pare
qu Ã¨
ied ad
Ġgra ding
Ġanar ch
Ġse k
Ġsek s
Ġilleg ally
Ġenc h
ĠF D
ĠFD A
_M O
wal d
.g z
Ġca ra
inc oln
Ġfor Key
ĠBurn s
Ġact ives
ĠH C
UM P
ĠSw an
ÃŃ o
ĠBre ast
(! $
_cont act
=== Ċ
Co d
Cod e
Cod es
ĠÕ ¤
ĠSho ws
âĤ¬ âĦ¢
ĠPe g
He ap
ĠBur ke
ï¼ļ Ċ
ï¼ļĊ Ċ
wo n
Ġindex Path
ĠC emetery
ĠAna t
ars ed
(* )
Ġ""; ĊĊ
Ġ/*! <
x id
Ġagree ing
ube s
Data Set
fl ip
ĠSal mon
_no w
Ġquota tion
ĠImpro ve
ons ieur
à® £
aise s
ĠAl ready
Ġgra s
Ġgras s
Ġgras p
Ġhora s
Seg ons
Ġgum s
etz t
Ġcha sing
oped ia
len ame
Ġfi lename
fi lename
Ġcu e
Ġcue s
La unch
Ġsound ing
Ġimp at
Ġimpat ient
/e dit
ĠAT P
ĉw rite
the ory
ĠPD O
Ġwa g
Ġwag e
Ġwag es
àµģà´ Ĥ
Ġwe n
Ġwen t
Ġwen n
th reat
qu a
qua l
qua ls
qua d
qua re
qual ity
q quad
s quare
.E qual
.Equal s
inar s
ĠmÃ©t odo
CT L
Ġdisc s
gg reg
Ġhur ts
ĠVac c
Ġ{} ",
Ġupt ake
Ġexplode d
×ŀ ×
ĠWi r
QUI RE
Â ¶
isi n
isin g
(A ction
ĠPur ple
ĠSo il
.Re d
Ġca lor
Ġcalor ie
Ġcalorie s
gar t
et i
eti c
eti me
eti mes
ĠSom etimes
Ġlif etime
dat etime
Ġsynth etic
etic s
th etic
_b e
ĠFro st
Ġpersist ed
ĠCarr oll
Ġ", Ċ
ĠCharg e
wall et
Ġ[ $
Ġrug ged
pri mir
Upper Case
Ġjuga r
_T ext
u rolog
ĠSche me
Equal To
Un ityEngine
para tion
map per
Ġreinforce ment
Ġspec im
ĠRh ode
ĠProvide s
ĠRichard s
ĠRichards on
_m s
_ms g
ĠCAL L
optim al
ME T
hentic ation
Ġsto ol
ĠCars on
Ġp f
Ġtrigger ing
-al l
< C
Ġces s
Ġfon ction
Ġdisappoint ing
Ġslo wed
ĠGas t
Ġmorph ology
ĠPT SD
orr h
ÉĻ n
ĊĠĠĠĠĠĠĠĠ ĊĠĠĠĠĠĠĠ
irection al
ĠQU E
rif t
CON D
if u
ifu l
aut iful
ĠAng ular
Ġtc p
Ġ# +#
Ġp w
CA N
ĠMar riage
-d d
ĠDec k
Si g
Sig n
Sig ma
Sig nal
sex ual
ĠHu ff
irm a
nte n
Ġgre ed
Ġtri c
Ġtric k
Ġtric ks
Ġtric ky
per a
Ġpig ment
ĠLinked In
ĠGP L
Ġave n
ĠÕ £
.M vc
Ġtu s
.u s
.us er
.us e
.user name
.us ers
(Q String
met re
Ġàª µ
tick et
Lat in
_R X
Ġcool ed
Ġradical s
ĠD F
Ġowe d
.') Ċ
ĠFC C
omet own
(K ey
Õ¡Õ ®
Ġforth coming
Ġ$( "
Ġ$(" #
Ġ$(" .
ĠE A
ĠLab s
ĠĠĠ čĊ
ova ble
.g e
.ge t
.get Element
.getElement ById
.get String
.get Instance
.get Text
.get Id
.get Value
.get Item
.get Int
.getElement s
Ã³ l
AD O
ĠPs y
ĠPsy ch
ĠPsych ology
ĠPsych iat
Ġretr ieval
CA L
CAL L
_pr ob
ĉk ey
(de f
(def ault
ĠHung arian
Ve rs
Vers ion
, S
report s
Ġeconomic al
Ġeconomical ly
Ġguar dar
_ms gs
Ãª m
Ãªm e
×ķ× ¢
Ġ): Ċ
àª ¸
Ġshark s
Ġcome t
ĉ Object
cret ion
pr us
Ġfac tion
.sp lice
Ġneur olog
Ġneurolog ical
ĠH W
ĉ E
ĠMa nt
_D R
ĠSp a
ĠSpa ce
ĠSpa in
ĠSpa n
ĠSpace watch
mag ic
ID D
D H
Ġchef s
lo o
loo k
loo d
loo r
loo p
loo king
loo m
Ġout look
(cl ass
.w arn
reg n
ige s
iges t
ĠNeg ro
izoph ren
ĠHunt ing
Ġget Id
'a i
yl van
>" ;
>"; Ċ
_a p
_ap p
_ap i
ĠLo gan
ĠStan ding
ĠIde a
ĠIdea s
azz o
ĠM F
Ġprof es
Ġprofes s
Ġprofess ional
Ġprofess ion
Ġprofess or
Ġprofessional s
Ġprofess ors
Ġprofessional ly
Ġforeign ers
Ġvast ly
"/> </
etect ion
.do m
.dom ain
Ġwater proof
Ġterr ific
Ġper v
ĠB aix
ĉi t
ĉit em
== Ċ
ĠMa yo
ĠMayo r
_b uild
ĠCav e
an omen
PL Y
Ġsol a
Ġsola r
osome s
Ġseamless ly
ric ia
CON F
CONF IG
}} }\
.co s
ĠPi g
hand ed
Ġel li
ĠH B
g d
Ġch r
Ġchr onic
Ġchr om
Ġchr on
Ġchr ist
Ġchr ome
Ġchrom osome
ĠEr ik
Ġvigor ous
rit z
Rep ublic
hor n
ĠFlower s
Ġpreced ent
__ ":Ċ
etro it
_IN PUT
Ġdis like
ĠIs n
.sc ore
Ġimprison ed
uman n
Ġiniti ation
asm ine
ori o
orio us
ouri ng
/l ocal
ĠSul tan
Ġol i
Ġoli ve
Ġoli g
Ġpist ol
ĠArm s
op o
opo l
DE L
ĠOtt o
ĠOtto man
Ġwise ly
Iss ue
ism a
_M OD
_MOD E
_MOD ULE
âĨ ĵ
rend erer
Ġ* >
fa x
.Read Line
insi de
.r u
.ru n
Ã² m
ogn ition
Ġà´ ħ
B a
Ba r
Ba ck
Back ground
Ba s
Bas e
Bas ic
Bas ed
Ba d
Ba y
Ba g
Ba l
Nav Bar
Back Color
Bal ance
Back end
Bal l
Back up
Ġacknowledge s
ĠBra dy
cli ents
ĠH M
ĠD W
ĠDW ORD
Ġau ment
ĠCarol ine
Ġmask ed
Ġbund les
ĠMerc edes
ot i
oti on
oti c
oti onal
i otic
otic s
oti ons
Ġcha otic
Ġlong time
.url s
Ġprohib it
Ġprohibit ed
MAR K
ite l
Ġwel d
Ġweld ing
Ġpenn y
Ġcave s
Serialize Field
Ġcaptiv e
Ġdecline s
Ã² r
Ã²r ia
Ġgre n
ĠPeters on
ĠLate st
Ġsal ope
< V
Ġanalyse d
Ġbarg ain
alo n
alon e
alon g
oen ix
> %
lim ents
co q
oun tries
Ġmai ns
Ġbelt s
ĠPub lish
ĠPublish ed
ĠPublish ing
ĠPublish er
ĠBelg ian
ope ned
ĠCompare d
")) {Ċ
Ġunexpected ly
Ġspo r
Ġspor ts
Ġspor t
Ġ*/ĊĊ Ċ
sy l
ĠIN PUT
ĠPe rc
ĠSe w
Ġman a
Ġmana ger
Ġmana ge
Ġmana ged
Ġmana ging
Ġmana gers
Ġmana ges
igg ers
ĠCav al
ens ch
Ġts p
pp e
ppe d
ppe r
Ma pper
pper s
Ġski pped
ĠÖ ĩ
ĠRef uge
XX X
XXX X
, N
_CH AR
.st ep
arg c
à¦ ¹
/ H
war z
ĠSa g
= i
(tr ee
mot ion
*) Ċ
Ġpav e
Spec ific
gi d
ull e
ulle n
ulle t
ĠHas s
Ġbud s
.W h
ey ed
ĠUnder stand
ĠUnderstand ing
Hen ry
ĠCoun tries
Ġpla ins
PH A
pol e
illi n
illin g
Ġunw illing
Ġcruel ty
cel ona
pip eline
ko k
Ġscar c
Condition s
à«ĭ àª
.No de
Ġsensation s
Ġsw o
Ġswo rd
ĠPre t
ĠPret ty
Ġreside s
ĠDisorder s
ĠTrib une
ĠIncrease d
ĠBen d
_group s
Ġsel bst
Neg ative
_o ld
set Value
Ġentr en
ĠLi f
ĠLif e
Ġappl iance
Ġappliance s
ng then
Ġlam in
Ã ľ
Ġ` Ċ
Asset s
ko l
Ġhon e
Ġhone st
Ġhone y
Ġhonest ly
(' ',
/ W
ĠCel ls
ĠN Z
../../ ../
Ġpol yg
seud o
ck e
cke t
cke r
Pi cker
Ġbra cket
Ġcri cket
Ġbracket s
cke n
Tra cker
Ġcure d
ĠLot s
ua ge
ĠCor inth
Ġ×¢ ×ľ
Ġtempt ed
Ġfault y
ĠRom ney
Ġple a
.app lication
Ġsph eres
Ġsculpture s
Ġski ns
Ġcommunic ated
Ġfung us
ĠHug o
ĠW C
Ġsla sh
ĠFal con
Ġcra n
ĠExpert s
7 8
nd e
nde r
nde f
#if ndef
Ġfou nder
Ġcomma nder
Ġgra nde
ĠGra nde
fi nder
ĠFi nder
if ndef
Ġgrande s
il ion
Ã¤ s
CL K
Ġ'. '
ĠSyn c
Ċĉĉ ĉ
isan s
ĠAng le
[t ype
ĠAnge ls
Ġfro g
Â ª
ban g
ĠSher man
ĠGI S
ten ant
Ġio d
Ġlibr e
Ġi Cloud
ĠNazi s
psy ch
Ġconvenient ly
.ar g
.arg v
.arg s
di strict
t ures
]ĊĊ Ċ
ĠM ETHOD
ift h
Ġlay s
ĠRi d
ĠRid ge
." [
bia s
.w s
ĠPri de
, g
ĠI G
f Ã¼
Ġmerg ing
à© ĩ
Ġ% }
Ġo y
ĠAccount s
ĠHig gs
/d iv
ina lg
ĠGuy s
Ġdeleg ation
(N ame
Hist or
Histor y
(a uto
ĠKenn eth
Ġmos s
Ġhabitat ge
are house
Õ¸Õ ²
Ġestablish es
\ Core
_R IGHT
ĠGu t
.B old
Mi t
La s
Las t
Last ly
ĠDa ns
inc l
incl ude
# include
incl udes
Ġv c
Ġgo n
Ġgon e
Ġgon na
-v iew
Ġne gl
in ctions
Ġpo z
ĠContin ental
Ġwr ink
etermin ed
Sl ide
Slide r
>"; čĊ
este rs
à¤ Ī
rat s
Ġcan opy
Å¾ e
ĠHo d
Ġ*) (
ĠCod es
ĠAL IGN
ges ch
Ġfun ci
ev a
eva l
Ġmedi eval
ĠLyn n
_RES ULT
Ġser Ã¡
Ġn Ã¤
Ġwag on
CH A
CHA R
ĠVAR CHAR
ar f
_F L
_FL AG
LE R
CAL E
ta s
tas k
tas ks
Ġhall s
Ġbell s
ĠStr ike
ĠX i
ĠXi a
che z
ou ds
yl ene
Ġna k
Ġnak ed
Ġfre n
Ġed ats
em u
ĠC K
Ġadvertise d
Ġtune s
ĠÕ º
Ġvin c
ĠTri angle
ĠSecond ly
% '
@ extends
Ġestab liments
Ġsta re
Ġstare d
opo r
Ġ! $
Ã« r
Ġdisturbance s
Ġresidue s
Ġestud is
ĠCal gary
Hol d
Hold er
ĠprÃ© c
ori s
ÅŁ t
Ġvac ant
vi rt
virt ual
Tr ust
Ġche es
Ġchees e
}} _{\
ith e
ithe r
Ġh ither
Doc tor
ĠDocument ation
[ u
ĠâĢ ĭ
Ġgeb ru
ho f
i ator
Ġstal k
oa n
Ġsty ling
Ġshelter s
Ġpe re
Ġcer c
Ġcerc a
ein g
ĠBo eing
Ġsho wers
Ġfrank ly
Na N
apper s
Ġcit rus
ĠFin ish
inde n
inden t
no indent
(re c
Ġ{} )
ı à¤ķ
¨ áĥĺ
Ma rc
Marc h
att y
(o ld
Ġcommun ist
Ġbran ding
ara t
sw ing
esti m
ĠNam ed
ĠDom estic
ĠEd en
Ġe e
Ġee n
Ġee r
.Se curity
ĠBig Decimal
(s p
à¯įà® ±
OLD ER
ĠJa nu
/t r
Ġaka n
Ġdepr ived
×ĳ ×¨
prom pt
Ġchap el
Ġconeg uda
": čĊ
ER V
ĠSky pe
ili pp
Ġbread th
-a d
-ad d
ĠBra h
ĠBib li
oz illa
Ġl g
/v iew
/view s
oly gon
AM S
ĠHeat h
ĠCM D
ĠWo n
ĠWon der
Ġba ÅŁ
ĠM b
bur se
ĠGi g
ini n
inin g
ra ining
Ġdecl ining
Ġ[ %
Ġass ol
Ġbear d
Ġacid ic
kins on
ĠCa rp
ois e
Ġtime zone
ugg ing
ĠASC II
ĠJama ica
upa l
ĠConsider ing
`. `
ĠAb ility
Ġc obert
Ġpsy cho
Ġpsycho logical
Ġ</ >Ċ
á» Ń
/st d
Cla use
ĠThr eat
Ġpave d
ĠSher iff
Ba n
Ban k
Ban d
Ġescap ing
dat er
Ġdry er
Sl ice
ac ades
uff y
Ġhack ing
Ġknot s
Ġow l
Ġcy st
Ġdata Type
istr ator
ĠC W
('../ ../
_A R
_AR G
Ġfill a
Ġstar ring
Ġrap p
Ġrapp ort
arga r
oa uth
Ġps i
Ġrecycl e
Ġrecycle d
O A
Ġenl arge
Ġenlarge d
Je r
abb it
àª ª
uan t
[ d
phi s
ĠMem phis
ĠAb b
ĠUI Button
Ġfossil s
Ġenv i
ĠAC E
ĠJen ny
ĠEb ola
++; ĊĊ
Ġadd Criterion
anu s
ĠCharacter s
Ġja c
Ġjac k
Ġjac ket
Ġscre ened
Fin ding
Ġmerch and
Ġwar t
ch s
ĠConstant in
ĠR aspberry
Ġrenov ation
_h ome
ĠMi a
ĠMia mi
Ġdivide s
Ġsta p
Ġstap le
Ġt anc
Ġcheck box
chte n
ĉu n
ĉun signed
.no des
Ġ') Ċ
ĠMusic al
Ġcle r
Ġcler k
Ġcler gy
uc ions
ĠRefer ences
Ġcha n
Ġchan ge
Ġchan g
Ġchan ges
Ġchan ged
Ġchan nel
Ġchan ging
Ġchan nels
Ġchan t
áĥĺáĥ Ĺ
iv ism
Ġadvers ity
/t h
_I d
Sing leton
Ġre consider
à± Ī
Õ¥Õ ¿
ĠGreen s
G a
Ga p
Ga l
Ga te
Ga r
ĠCookie s
Em b
Emb ed
Ġdeclare s
Ġtex tile
Ġinact ives
Ġpurs uant
_b in
Ġfr y
olesc ent
und i
Ġcomm ut
arian ce
Ġcov ariance
ĠFlo od
po or
Õ¸ÖĢ Õ
ING LE
Tok ens
ĠBret t
Ġempower ing
ĠSn ake
uck ing
ĉ assertEquals
d ney
Ġw c
IT CH
Ġgar ment
Ġgarment s
is ot
ara h
ĠAnn ie
Ġabsol ut
Ġabsolut e
Ġabsolute ly
ĠMach ines
a ic
ag y
_user name
Ġmonop ol
.x path
ĠTree s
af i
ER ENCE
Ġweb cam
ĠHawaii an
Ġ=> Ġ
Ġsc orn
rega r
ros c
ĠShi r
Br idge
ric anes
[p os
Ġmotivation s
Ġva i
Ġvai n
_W R
_WR ITE
Ġdu n
ĠRat es
ĠConf lict
Ġcul min
bro wn
bl y
ĠR R
_set up
Ġde u
Ġdeu x
cur ve
ĠDis able
s j
Ir on
Ġlate x
Ġpu ff
ĠL t
ĠLt d
áºŃ p
ĠLouis e
or igen
' e
'e n
ate m
atem ent
ĠEu r
ĠEur ope
ĠEur o
ĠEur opa
ĠEur op
ĠMonth ly
, l
Ġ×Ķ ×Ĳ
Ġmir a
UL D
erm at
Â ¡
ĠCat s
Ġterr ifying
ĠR ew
ĠGE N
in ters
port folio
Ġplate au
ovic h
ĠIN NER
lich t
ĠCo c
ĠCoc k
ĠLegisl ature
¯ ¸
ĠSu it
ĠSuit e
ĠWA Y
_f ound
awa n
Ãºs ica
Ġan o
Ġano s
ĉL og
ï¼ ĵ
Ġambit ions
Ġi tu
Ã ĸ
âĢľ ,
Ġelectrode s
Ġesp a
ĠAfrican s
Define d
(Q t
em Ã¡s
VR TX
ĠNob le
less sim
ĠBre n
IFI ER
)] )
à¤¤ à¥ĩ
Ġsec und
ĠCab in
ĠCabin et
Ġbun k
Ar ial
Ġdatas heet
ĠRid e
Ġm á»Ļt
J P
ar ance
-r un
cid o
ĠCA T
ma k
mak e
mak ing
make r
maker s
Ġambigu ity
erc ury
create Element
ĠLu m
ocar d
Off icial
empt yset
à´¿à´ ¯
IN SEE
ĠTor t
ĠFly ing
c g
Ġred emption
index Path
Ġres h
ĠME R
UI NT
Ġsink ing
Ġà° ī
à¤¾à¤ ¹
M X
Ġdisg ust
Ġiss o
Ã¡c h
Ġpile s
long itude
ĠKy le
Ġ"Ċ Ċ
Ġalle s
osp ace
.h ome
.de ep
uro us
ĠPorn o
ĠMo ns
ĠMons ter
.d ll
ĠGriff in
Mu r
Ġreli ably
Ġensure d
SB N
Ġmut able
_A dd
áŀ ¶
ĠApply ing
à· Ĭ
Ġstra y
ackage s
Ġlinea ge
Ġspi cy
Ã©m ent
Ti ps
Ġlay outs
uer to
ĠAC L
ĠRes cue
.D rop
ific aci
lÃŃcul es
Pe d
Le e
Ã¡ k
(B ase
ĠDefault s
< i
<i nt
<i mg
ĠMon roe
cyclop edia
sw orth
ĠRout es
Ġturtle s
Ġgri ev
ĠN I
Ã©l Ã©
ĠDuc k
Ġforward s
Ġv l
/p ython
Ġgeo logical
Ġhero in
Bi o
.h t
.ht tp
ĠWil helm
Ġfear ful
iden te
?) .
men s
Ġprobe s
Ġwild ly
rique s
ĠIdea l
ce n
cen t
Ġac cent
cent ury
cen ce
cen tage
Ġfluores cent
__) ;Ċ
bel ie
.build er
Look up
Ġdiagram a
Ġo o
Ġoo k
ĠAdventure s
cycle s
ipp i
ippi ng
Ġnew com
_EN V
Ġbat hs
Ġrestrict ive
Ġv á»
glÃ©s ia
Ġperi l
Ġdiss ent
Ġang e
Ġange r
Ġange l
Ġangel s
_D O
Ġurg ency
ĠVA T
sell er
por te
porte r
Ġcrack ing
ĠCase s
Me x
ze t
sha ke
je m
, z
ĠÕ ¢
De g
ĠH V
Ġbur y
ĠKat ie
oba r
per ial
ĠAbb ey
Ġcomparative ly
ĉb ase
à¹ ĥ
= b
Ġthr u
Ġthru st
Ġhy gi
;ĊĊĊ Ċ
Ġens l
ili s
áĢ Ħ
Ġl n
Ġmar Ã§
ais y
ĠFort une
ude n
uden t
uden ts
Ġbatch es
Ġâ Ĺ
abi t
Ġinh abit
Ġinhabit ants
Ġinhabit ed
ĠWin n
+- +-
nut s
K h
Ġca lf
OTT OM
ruct ures
Ġempower ment
| =
Ġmultip l
Ġmultipl e
Ġmultipl y
Ġmultipl ier
Ġmultipl ied
ĠExpl ain
Ġbroadcast ing
ĠVo te
.st orage
')); ĊĊ
integr ation
_de t
_det ails
_det ail
Õ ¬
Ġmo y
Ġ:= Ċ
ĠTal iban
dig est
Ġ___ _
Ġcell padding
Expl ore
osa l
extend ed
ĠWel t
ĠDoc k
ĠDock er
Ġtodd ler
ĠCa y
ĠAra bs
amb o
Ġdefendant s
Ġà² ¹
Ġnost alg
'" ;Ċ
Ġ:: :
ĠPad ding
ĠPray er
Ġcre u
get Attribute
ĠFu r
ĠFur ther
ĠFurther more
ĠFur n
ĠF X
Ġqui r
à¯ģà® ķ
license s
ih ad
po on
[...]
