{
  "version": "1.0",
  "truncation": null,
  "padding": null,
  "added_tokens": [
    {
      "id": 0,
      "content": "<|begin_of_text|>",
      "single_word": false,
      "lstrip": false,
      "rstrip": false,
      "normalized": false,
      "special": true
    },
    {
      "id": 1,
      "content": "<|end_of_text|>",
      "single_word": false,
      "lstrip": false,
      "rstrip": false,
      "normalized": false,
      "special": true
    },
    {
      "id": 2,
      "content": "<|chunk_sep|>",
      "single_word": false,
      "lstrip": false,
      "rstrip": false,
      "normalized": false,
      "special": true
    },
    {
      "id": 3,
      "content": "<|pad|>",
      "single_word": false,
      "lstrip": false,
      "rstrip": false,
      "normalized": false,
      "special": true
    },
    {
      "id": 4,
      "content": "<|unk|>",
      "single_word": false,
      "lstrip": false,
      "rstrip": false,
      "normalized": false,
      "special": true
    },
    {
      "id": 5,
      "content": "<|bos|>",
      "single_word": false,
      "lstrip": false,
      "rstrip": false,
      "normalized": false,
      "special": true
    },
    {
      "id": 6,
      "content": "<|eos|>",
      "single_word": false,
      "lstrip": false,
      "rstrip": false,
      "normalized": false,
      "special": true
    },
    {
      "id": 7,
      "content": "<|reserved_7|>",
      "single_word": false,
      "lstrip": false,
      "rstrip": false,
      "normalized": false,
      "special": true
    },
    {
      "id": 8,
      "content": "<|reserved_8|>",
      "single_word": false,
      "lstrip": false,
      "rstrip": false,
      "normalized": false,
      "special": true
    },
    {
      "id": 9,
      "content": "<|reserved_9|>",
      "single_word": false,
      "lstrip": false,
      "rstrip": false,
      "normalized": false,
      "special": true
    },
    {
      "id": 10,
      "content": "<|system|>",
      "single_word": false,
      "lstrip": false,
      "rstrip": false,
      "normalized": false,
      "special": true
    },
    {
      "id": 11,
      "content": "<|user|>",
      "single_word": false,
      "lstrip": false,
      "rstrip": false,
      "normalized": false,
      "special": true
    },
    {
      "id": 12,
      "content": "<|assistant|>",
      "single_word": false,
      "lstrip": false,
      "rstrip": false,
      "normalized": false,
      "special": true
    },
    {
      "id": 13,
      "content": "<|tool|>",
      "single_word": false,
      "lstrip": false,
      "rstrip": false,
      "normalized": false,
      "special": true
    },
    {
      "id": 14,
      "content": "<|reserved_14|>",
      "single_word": false,
      "lstrip": false,
      "rstrip": false,
      "normalized": false,
      "special": true
    },
    {
      "id": 15,
      "content": "<|reserved_15|>",
      "single_word": false,
      "lstrip": false,
      "rstrip": false,
      "normalized": false,
      "special": true
    },
    {
      "id": 16,
      "content": "<|reserved_16|>",
      "single_word": false,
      "lstrip": false,
      "rstrip": false,
      "normalized": false,
      "special": true
    },
    {
      "id": 17,
      "content": "<|reserved_17|>",
      "single_word": false,
      "lstrip": false,
      "rstrip": false,
      "normalized": false,
      "special": true
    },
    {
      "id": 18,
      "content": "<|reserved_18|>",
      "single_word": false,
      "lstrip": false,
      "rstrip": false,
      "normalized": false,
      "special": true
    },
    {
      "id": 19,
      "content": "<|reserved_19|>",
      "single_word": false,
      "lstrip": false,
      "rstrip": false,
      "normalized": false,
      "special": true
    },
    {
      "id": 20,
      "content": "<|code_begin|>",
      "single_word": false,
      "lstrip": false,
      "rstrip": false,
      "normalized": false,
      "special": true
    },
    {
      "id": 21,
      "content": "<|code_end|>",
      "single_word": false,
      "lstrip": false,
      "rstrip": false,
      "normalized": false,
      "special": true
    },
    {
      "id": 22,
      "content": "<|reserved_22|>",
      "single_word": false,
      "lstrip": false,
      "rstrip": false,
      "normalized": false,
      "special": true
    },
    {
      "id": 23,
      "content": "<|reserved_23|>",
      "single_word": false,
      "lstrip": false,
      "rstrip": false,
      "normalized": false,
      "special": true
    },
    {
      "id": 24,
      "content": "<|reserved_24|>",
      "single_word": false,
      "lstrip": false,
      "rstrip": false,
      "normalized": false,
      "special": true
    },
    {
      "id": 25,
      "content": "<|reserved_25|>",
      "single_word": false,
      "lstrip": false,
      "rstrip": false,
      "normalized": false,
      "special": true
    },
    {
      "id": 26,
      "content": "<|reserved_26|>",
      "single_word": false,
      "lstrip": false,
      "rstrip": false,
      "normalized": false,
      "special": true
    },
    {
      "id": 27,
      "content": "<|reserved_27|>",
      "single_word": false,
      "lstrip": false,
      "rstrip": false,
      "normalized": false,
      "special": true
    },
    {
      "id": 28,
      "content": "<|reserved_28|>",
      "single_word": false,
      "lstrip": false,
      "rstrip": false,
      "normalized": false,
      "special": true
    },
    {
      "id": 29,
      "content": "<|reserved_29|>",
      "single_word": false,
      "lstrip": false,
      "rstrip": false,
      "normalized": false,
      "special": true
    },
    {
      "id": 30,
      "content": "<|lang:python|>",
      "single_word": false,
      "lstrip": false,
      "rstrip": false,
      "normalized": false,
      "special": true
    },
    {
      "id": 31,
      "content": "<|lang:javascript|>",
      "single_word": false,
      "lstrip": false,
      "rstrip": false,
      "normalized": false,
      "special": true
    },
    {
      "id": 32,
      "content": "<|lang:typescript|>",
      "single_word": false,
      "lstrip": false,
      "rstrip": false,
      "normalized": false,
      "special": true
    },
    {
      "id": 33,
      "content": "<|lang:java|>",
      "single_word": false,
      "lstrip": false,
      "rstrip": false,
      "normalized": false,
      "special": true
    },
    {
      "id": 34,
      "content": "<|lang:c|>",
      "single_word": false,
      "lstrip": false,
      "rstrip": false,
      "normalized": false,
      "special": true
    },
    {
      "id": 35,
      "content": "<|lang:cpp|>",
      "single_word": false,
      "lstrip": false,
      "rstrip": false,
      "normalized": false,
      "special": true
    },
    {
      "id": 36,
      "content": "<|lang:csharp|>",
      "single_word": false,
      "lstrip": false,
      "rstrip": false,
      "normalized": false,
      "special": true
    },
    {
      "id": 37,
      "content": "<|lang:go|>",
      "single_word": false,
      "lstrip": false,
      "rstrip": false,
      "normalized": false,
      "special": true
    },
    {
      "id": 38,
      "content": "<|lang:rust|>",
      "single_word": false,
      "lstrip": false,
      "rstrip": false,
      "normalized": false,
      "special": true
    },
    {
      "id": 39,
      "content": "<|lang:ruby|>",
      "single_word": false,
      "lstrip": false,
      "rstrip": false,
      "normalized": false,
      "special": true
    },
    {
      "id": 40,
      "content": "<|lang:php|>",
      "single_word": false,
      "lstrip": false,
      "rstrip": false,
      "normalized": false,
      "special": true
    },
    {
      "id": 41,
      "content": "<|lang:swift|>",
      "single_word": false,
      "lstrip": false,
      "rstrip": false,
      "normalized": false,
      "special": true
    },
    {
      "id": 42,
      "content": "<|lang:kotlin|>",
      "single_word": false,
      "lstrip": false,
      "rstrip": false,
      "normalized": false,
      "special": true
    },
    {
      "id": 43,
      "content": "<|lang:scala|>",
      "single_word": false,
      "lstrip": false,
      "rstrip": false,
      "normalized": false,
      "special": true
    },
    {
      "id": 44,
      "content": "<|lang:r|>",
      "single_word": false,
      "lstrip": false,
      "rstrip": false,
      "normalized": false,
      "special": true
    },
    {
      "id": 45,
      "content": "<|lang:sql|>",
      "single_word": false,
      "lstrip": false,
      "rstrip": false,
      "normalized": false,
      "special": true
    },
    {
      "id": 46,
      "content": "<|lang:html|>",
      "single_word": false,
      "lstrip": false,
      "rstrip": false,
      "normalized": false,
      "special": true
    },
    {
      "id": 47,
      "content": "<|lang:css|>",
      "single_word": false,
      "lstrip": false,
      "rstrip": false,
      "normalized": false,
      "special": true
    },
    {
      "id": 48,
      "content": "<|lang:bash|>",
      "single_word": false,
      "lstrip": false,
      "rstrip": false,
      "normalized": false,
      "special": true
    },
    {
      "id": 49,
      "content": "<|lang:shell|>",
      "single_word": false,
      "lstrip": false,
      "rstrip": false,
      "normalized": false,
      "special": true
    },
    {
      "id": 50,
      "content": "<|json_begin|>",
      "single_word": false,
      "lstrip": false,
      "rstrip": false,
      "normalized": false,
      "special": true
    },
    {
      "id": 51,
      "content": "<|json_end|>",
      "single_word": false,
      "lstrip": false,
      "rstrip": false,
      "normalized": false,
      "special": true
    },
    {
      "id": 52,
      "content": "<|tool_call|>",
      "single_word": false,
      "lstrip": false,
      "rstrip": false,
      "normalized": false,
      "special": true
    },
    {
      "id": 53,
      "content": "<|tool_result|>",
      "single_word": false,
      "lstrip": false,
      "rstrip": false,
      "normalized": false,
      "special": true
    },
    {
      "id": 54,
      "content": "<|reserved_54|>",
      "single_word": false,
      "lstrip": false,
      "rstrip": false,
      "normalized": false,
      "special": true
    },
    {
      "id": 55,
      "content": "<|reserved_55|>",
      "single_word": false,
      "lstrip": false,
      "rstrip": false,
      "normalized": false,
      "special": true
    },
    {
      "id": 56,
      "content": "<|reserved_56|>",
      "single_word": false,
      "lstrip": false,
      "rstrip": false,
      "normalized": false,
      "special": true
    },
    {
      "id": 57,
      "content": "<|reserved_57|>",
      "single_word": false,
      "lstrip": false,
      "rstrip": false,
      "normalized": false,
      "special": true
    },
    {
      "id": 58,
      "content": "<|reserved_58|>",
      "single_word": false,
      "lstrip": false,
      "rstrip": false,
      "normalized": false,
      "special": true
    },
    {
      "id": 59,
      "content": "<|reserved_59|>",
      "single_word": false,
      "lstrip": false,
      "rstrip": false,
      "normalized": false,
      "special": true
    },
    {
      "id": 60,
      "content": "<|source:wikipedia|>",
      "single_word": false,
      "lstrip": false,
      "rstrip": false,
      "normalized": false,
      "special": true
    },
    {
      "id": 61,
      "content": "<|source:github|>",
      "single_word": false,
      "lstrip": false,
      "rstrip": false,
      "normalized": false,
      "special": true
    },
    {
      "id": 62,
      "content": "<|source:web|>",
      "single_word": false,
      "lstrip": false,
      "rstrip": false,
      "normalized": false,
      "special": true
    },
    {
      "id": 63,
      "content": "<|source:books|>",
      "single_word": false,
      "lstrip": false,
      "rstrip": false,
      "normalized": false,
      "special": true
    },
    {
      "id": 64,
      "content": "<|source:arxiv|>",
      "single_word": false,
      "lstrip": false,
      "rstrip": false,
      "normalized": false,
      "special": true
    },
    {
      "id": 65,
      "content": "<|source:stackexchange|>",
      "single_word": false,
      "lstrip": false,
      "rstrip": false,
      "normalized": false,
      "special": true
    },
    {
      "id": 66,
      "content": "<|reserved_66|>",
      "single_word": false,
      "lstrip": false,
      "rstrip": false,
      "normalized": false,
      "special": true
    },
    {
      "id": 67,
      "content": "<|reserved_67|>",
      "single_word": false,
      "lstrip": false,
      "rstrip": false,
      "normalized": false,
      "special": true
    },
    {
      "id": 68,
      "content": "<|reserved_68|>",
      "single_word": false,
      "lstrip": false,
      "rstrip": false,
      "normalized": false,
      "special": true
    },
    {
      "id": 69,
      "content": "<|reserved_69|>",
      "single_word": false,
      "lstrip": false,
      "rstrip": false,
      "normalized": false,
      "special": true
    },
    {
      "id": 70,
      "content": "<|think_begin|>",
      "single_word": false,
      "lstrip": false,
      "rstrip": false,
      "normalized": false,
      "special": true
    },
    {
      "id": 71,
      "content": "<|think_end|>",
      "single_word": false,
      "lstrip": false,
      "rstrip": false,
      "normalized": false,
      "special": true
    },
    {
      "id": 72,
      "content": "<|reason_begin|>",
      "single_word": false,
      "lstrip": false,
      "rstrip": false,
      "normalized": false,
      "special": true
    },
    {
      "id": 73,
      "content": "<|reason_end|>",
      "single_word": false,
      "lstrip": false,
      "rstrip": false,
      "normalized": false,
      "special": true
    },
    {
      "id": 74,
      "content": "<|reserved_74|>",
      "single_word": false,
      "lstrip": false,
      "rstrip": false,
      "normalized": false,
      "special": true
    },
    {
      "id": 75,
      "content": "<|reserved_75|>",
      "single_word": false,
      "lstrip": false,
      "rstrip": false,
      "normalized": false,
      "special": true
    },
    {
      "id": 76,
      "content": "<|reserved_76|>",
      "single_word": false,
      "lstrip": false,
      "rstrip": false,
      "normalized": false,
      "special": true
    },
    {
      "id": 77,
      "content": "<|reserved_77|>",
      "single_word": false,
      "lstrip": false,
      "rstrip": false,
      "normalized": false,
      "special": true
    },
    {
      "id": 78,
      "content": "<|reserved_78|>",
      "single_word": false,
      "lstrip": false,
      "rstrip": false,
      "normalized": false,
      "special": true
    },
    {
      "id": 79,
      "content": "<|reserved_79|>",
      "single_word": false,
      "lstrip": false,
      "rstrip": false,
      "normalized": false,
      "special": true
    },
    {
      "id": 80,
      "content": "<|markdown|>",
      "single_word": false,
      "lstrip": false,
      "rstrip": false,
      "normalized": false,
      "special": true
    },
    {
      "id": 81,
      "content": "<|latex|>",
      "single_word": false,
      "lstrip": false,
      "rstrip": false,
      "normalized": false,
      "special": true
    },
    {
      "id": 82,
      "content": "<|table|>",
      "single_word": false,
      "lstrip": false,
      "rstrip": false,
      "normalized": false,
      "special": true
    },
    {
      "id": 83,
      "content": "<|list|>",
      "single_word": false,
      "lstrip": false,
      "rstrip": false,
      "normalized": false,
      "special": true
    },
    {
      "id": 84,
      "content": "<|reserved_84|>",
      "single_word": false,
      "lstrip": false,
      "rstrip": false,
      "normalized": false,
      "special": true
    },
    {
      "id": 85,
      "content": "<|reserved_85|>",
      "single_word": false,
      "lstrip": false,
      "rstrip": false,
      "normalized": false,
      "special": true
    },
    {
      "id": 86,
      "content": "<|reserved_86|>",
      "single_word": false,
      "lstrip": false,
      "rstrip": false,
      "normalized": false,
      "special": true
    },
    {
      "id": 87,
      "content": "<|reserved_87|>",
      "single_word": false,
      "lstrip": false,
      "rstrip": false,
      "normalized": false,
      "special": true
    },
    {
      "id": 88,
      "content": "<|reserved_88|>",
      "single_word": false,
      "lstrip": false,
      "rstrip": false,
      "normalized": false,
      "special": true
    },
    {
      "id": 89,
      "content": "<|reserved_89|>",
      "single_word": false,
      "lstrip": false,
      "rstrip": false,
      "normalized": false,
      "special": true
    },
    {
      "id": 90,
      "content": "<|reserved_90|>",
      "single_word": false,
      "lstrip": false,
      "rstrip": false,
      "normalized": false,
      "special": true
    },
    {
      "id": 91,
      "content": "<|reserved_91|>",
      "single_word": false,
      "lstrip": false,
      "rstrip": false,
      "normalized": false,
      "special": true
    },
    {
      "id": 92,
      "content": "<|reserved_92|>",
      "single_word": false,
      "lstrip": false,
      "rstrip": false,
      "normalized": false,
      "special": true
    },
    {
      "id": 93,
      "content": "<|reserved_93|>",
      "single_word": false,
      "lstrip": false,
      "rstrip": false,
      "normalized": false,
      "special": true
    },
    {
      "id": 94,
      "content": "<|reserved_94|>",
      "single_word": false,
      "lstrip": false,
      "rstrip": false,
      "normalized": false,
      "special": true
    },
    {
      "id": 95,
      "content": "<|reserved_95|>",
      "single_word": false,
      "lstrip": false,
      "rstrip": false,
      "normalized": false,
      "special": true
    },
    {
      "id": 96,
      "content": "<|reserved_96|>",
      "single_word": false,
      "lstrip": false,
      "rstrip": false,
      "normalized": false,
      "special": true
    },
    {
      "id": 97,
      "content": "<|reserved_97|>",
      "single_word": false,
      "lstrip": false,
      "rstrip": false,
      "normalized": false,
      "special": true
    },
    {
      "id": 98,
      "content": "<|reserved_98|>",
      "single_word": false,
      "lstrip": false,
      "rstrip": false,
      "normalized": false,
      "special": true
    },
    {
      "id": 99,
      "content": "<|reserved_99|>",
      "single_word": false,
      "lstrip": false,
      "rstrip": false,
      "normalized": false,
      "special": true
    },
    {
      "id": 100,
      "content": "<|reserved_100|>",
      "single_word": false,
      "lstrip": false,
      "rstrip": false,
      "normalized": false,
      "special": true
    },
    {
      "id": 101,
      "content": "<|reserved_101|>",
      "single_word": false,
      "lstrip": false,
      "rstrip": false,
      "normalized": false,
      "special": true
    },
    {
      "id": 102,
      "content": "<|reserved_102|>",
      "single_word": false,
      "lstrip": false,
      "rstrip": false,
      "normalized": false,
      "special": true
    },
    {
      "id": 103,
      "content": "<|reserved_103|>",
      "single_word": false,
      "lstrip": false,
      "rstrip": false,
      "normalized": false,
      "special": true
    },
    {
      "id": 104,
      "content": "<|reserved_104|>",
      "single_word": false,
      "lstrip": false,
      "rstrip": false,
      "normalized": false,
      "special": true
    },
    {
      "id": 105,
      "content": "<|reserved_105|>",
      "single_word": false,
      "lstrip": false,
      "rstrip": false,
      "normalized": false,
      "special": true
    },
    {
      "id": 106,
      "content": "<|reserved_106|>",
      "single_word": false,
      "lstrip": false,
      "rstrip": false,
      "normalized": false,
      "special": true
    },
    {
      "id": 107,
      "content": "<|reserved_107|>",
      "single_word": false,
      "lstrip": false,
      "rstrip": false,
      "normalized": false,
      "special": true
    },
    {
      "id": 108,
      "content": "<|reserved_108|>",
      "single_word": false,
      "lstrip": false,
      "rstrip": false,
      "normalized": false,
      "special": true
    },
    {
      "id": 109,
      "content": "<|reserved_109|>",
      "single_word": false,
      "lstrip": false,
      "rstrip": false,
      "normalized": false,
      "special": true
    },
    {
      "id": 110,
      "content": "<|reserved_110|>",
      "single_word": false,
      "lstrip": false,
      "rstrip": false,
      "normalized": false,
      "special": true
    },
    {
      "id": 111,
      "content": "<|reserved_111|>",
      "single_word": false,
      "lstrip": false,
      "rstrip": false,
      "normalized": false,
      "special": true
    },
    {
      "id": 112,
      "content": "<|reserved_112|>",
      "single_word": false,
      "lstrip": false,
      "rstrip": false,
      "normalized": false,
      "special": true
    },
    {
      "id": 113,
      "content": "<|reserved_113|>",
      "single_word": false,
      "lstrip": false,
      "rstrip": false,
      "normalized": false,
      "special": true
    },
    {
      "id": 114,
      "content": "<|reserved_114|>",
      "single_word": false,
      "lstrip": false,
      "rstrip": false,
      "normalized": false,
      "special": true
    },
    {
      "id": 115,
      "content": "<|reserved_115|>",
      "single_word": false,
      "lstrip": false,
      "rstrip": false,
      "normalized": false,
      "special": true
    },
    {
      "id": 116,
      "content": "<|reserved_116|>",
      "single_word": false,
      "lstrip": false,
      "rstrip": false,
      "normalized": false,
      "special": true
    },
    {
      "id": 117,
      "content": "<|reserved_117|>",
      "single_word": false,
      "lstrip": false,
      "rstrip": false,
      "normalized": false,
      "special": true
    },
    {
      "id": 118,
      "content": "<|reserved_118|>",
      "single_word": false,
      "lstrip": false,
      "rstrip": false,
      "normalized": false,
      "special": true
    },
    {
      "id": 119,
      "content": "<|reserved_119|>",
      "single_word": false,
      "lstrip": false,
      "rstrip": false,
      "normalized": false,
      "special": true
    },
    {
      "id": 120,
      "content": "<|reserved_120|>",
      "single_word": false,
      "lstrip": false,
      "rstrip": false,
      "normalized": false,
      "special": true
    },
    {
      "id": 121,
      "content": "<|reserved_121|>",
      "single_word": false,
      "lstrip": false,
      "rstrip": false,
      "normalized": false,
      "special": true
    },
    {
      "id": 122,
      "content": "<|reserved_122|>",
      "single_word": false,
      "lstrip": false,
      "rstrip": false,
      "normalized": false,
      "special": true
    },
    {
      "id": 123,
      "content": "<|reserved_123|>",
      "single_word": false,
      "lstrip": false,
      "rstrip": false,
      "normalized": false,
      "special": true
    },
    {
      "id": 124,
      "content": "<|reserved_124|>",
      "single_word": false,
      "lstrip": false,
      "rstrip": false,
      "normalized": false,
      "special": true
    },
    {
      "id": 125,
      "content": "<|reserved_125|>",
      "single_word": false,
      "lstrip": false,
      "rstrip": false,
      "normalized": false,
      "special": true
    },
    {
      "id": 126,
      "content": "<|reserved_126|>",
      "single_word": false,
      "lstrip": false,
      "rstrip": false,
      "normalized": false,
      "special": true
    },
    {
      "id": 127,
      "content": "<|reserved_127|>",
      "single_word": false,
      "lstrip": false,
      "rstrip": false,
      "normalized": false,
      "special": true
    },
    {
      "id": 128,
      "content": "<|reserved_128|>",
      "single_word": false,
      "lstrip": false,
      "rstrip": false,
      "normalized": false,
      "special": true
    },
    {
      "id": 129,
      "content": "<|reserved_129|>",
      "single_word": false,
      "lstrip": false,
      "rstrip": false,
      "normalized": false,
      "special": true
    },
    {
      "id": 130,
      "content": "<|reserved_130|>",
      "single_word": false,
      "lstrip": false,
      "rstrip": false,
      "normalized": false,
      "special": true
    },
    {
      "id": 131,
      "content": "<|reserved_131|>",
      "single_word": false,
      "lstrip": false,
      "rstrip": false,
      "normalized": false,
      "special": true
    },
    {
      "id": 132,
      "content": "<|reserved_132|>",
      "single_word": false,
      "lstrip": false,
      "rstrip": false,
      "normalized": false,
      "special": true
    },
    {
      "id": 133,
      "content": "<|reserved_133|>",
      "single_word": false,
      "lstrip": false,
      "rstrip": false,
      "normalized": false,
      "special": true
    },
    {
      "id": 134,
      "content": "<|reserved_134|>",
      "single_word": false,
      "lstrip": false,
      "rstrip": false,
      "normalized": false,
      "special": true
    },
    {
      "id": 135,
      "content": "<|reserved_135|>",
      "single_word": false,
      "lstrip": false,
      "rstrip": false,
      "normalized": false,
      "special": true
    },
    {
      "id": 136,
      "content": "<|reserved_136|>",
      "single_word": false,
      "lstrip": false,
      "rstrip": false,
      "normalized": false,
      "special": true
    },
    {
      "id": 137,
      "content": "<|reserved_137|>",
      "single_word": false,
      "lstrip": false,
      "rstrip": false,
      "normalized": false,
      "special": true
    },
    {
      "id": 138,
      "content": "<|reserved_138|>",
      "single_word": false,
      "lstrip": false,
      "rstrip": false,
      "normalized": false,
      "special": true
    },
    {
      "id": 139,
      "content": "<|reserved_139|>",
      "single_word": false,
      "lstrip": false,
      "rstrip": false,
      "normalized": false,
      "special": true
    },
    {
      "id": 140,
      "content": "<|reserved_140|>",
      "single_word": false,
      "lstrip": false,
      "rstrip": false,
      "normalized": false,
      "special": true
    },
    {
      "id": 141,
      "content": "<|reserved_141|>",
      "single_word": false,
      "lstrip": false,
      "rstrip": false,
      "normalized": false,
      "special": true
    },
    {
      "id": 142,
      "content": "<|reserved_142|>",
      "single_word": false,
      "lstrip": false,
      "rstrip": false,
      "normalized": false,
      "special": true
    },
    {
      "id": 143,
      "content": "<|reserved_143|>",
      "single_word": false,
      "lstrip": false,
      "rstrip": false,
      "normalized": false,
      "special": true
    },
    {
      "id": 144,
      "content": "<|reserved_144|>",
      "single_word": false,
      "lstrip": false,
      "rstrip": false,
      "normalized": false,
      "special": true
    },
    {
      "id": 145,
      "content": "<|reserved_145|>",
      "single_word": false,
      "lstrip": false,
      "rstrip": false,
      "normalized": false,
      "special": true
    },
    {
      "id": 146,
      "content": "<|reserved_146|>",
      "single_word": false,
      "lstrip": false,
      "rstrip": false,
      "normalized": false,
      "special": true
    },
    {
      "id": 147,
      "content": "<|reserved_147|>",
      "single_word": false,
      "lstrip": false,
      "rstrip": false,
      "normalized": false,
      "special": true
    },
    {
      "id": 148,
      "content": "<|reserved_148|>",
      "single_word": false,
      "lstrip": false,
      "rstrip": false,
      "normalized": false,
      "special": true
    },
    {
      "id": 149,
      "content": "<|reserved_149|>",
      "single_word": false,
      "lstrip": false,
      "rstrip": false,
      "normalized": false,
      "special": true
    },
    {
      "id": 150,
      "content": "<|reserved_150|>",
      "single_word": false,
      "lstrip": false,
      "rstrip": false,
      "normalized": false,
      "special": true
    },
    {
      "id": 151,
      "content": "<|reserved_151|>",
      "single_word": false,
      "lstrip": false,
      "rstrip": false,
      "normalized": false,
      "special": true
    },
    {
      "id": 152,
      "content": "<|reserved_152|>",
      "single_word": false,
      "lstrip": false,
      "rstrip": false,
      "normalized": false,
      "special": true
    },
    {
      "id": 153,
      "content": "<|reserved_153|>",
      "single_word": false,
      "lstrip": false,
      "rstrip": false,
      "normalized": false,
      "special": true
    },
    {
      "id": 154,
      "content": "<|reserved_154|>",
      "single_word": false,
      "lstrip": false,
      "rstrip": false,
      "normalized": false,
      "special": true
    },
    {
      "id": 155,
      "content": "<|reserved_155|>",
      "single_word": false,
      "lstrip": false,
      "rstrip": false,
      "normalized": false,
      "special": true
    },
    {
      "id": 156,
      "content": "<|reserved_156|>",
      "single_word": false,
      "lstrip": false,
      "rstrip": false,
      "normalized": false,
      "special": true
    },
    {
      "id": 157,
      "content": "<|reserved_157|>",
      "single_word": false,
      "lstrip": false,
      "rstrip": false,
      "normalized": false,
      "special": true
    },
    {
      "id": 158,
      "content": "<|reserved_158|>",
      "single_word": false,
      "lstrip": false,
      "rstrip": false,
      "normalized": false,
      "special": true
    },
    {
      "id": 159,
      "content": "<|reserved_159|>",
      "single_word": false,
      "lstrip": false,
      "rstrip": false,
      "normalized": false,
      "special": true
    },
    {
      "id": 160,
      "content": "<|reserved_160|>",
      "single_word": false,
      "lstrip": false,
      "rstrip": false,
      "normalized": false,
      "special": true
    },
    {
      "id": 161,
      "content": "<|reserved_161|>",
      "single_word": false,
      "lstrip": false,
      "rstrip": false,
      "normalized": false,
      "special": true
    },
    {
      "id": 162,
      "content": "<|reserved_162|>",
      "single_word": false,
      "lstrip": false,
      "rstrip": false,
      "normalized": false,
      "special": true
    },
    {
      "id": 163,
      "content": "<|reserved_163|>",
      "single_word": false,
      "lstrip": false,
      "rstrip": false,
      "normalized": false,
      "special": true
    },
    {
      "id": 164,
      "content": "<|reserved_164|>",
      "single_word": false,
      "lstrip": false,
      "rstrip": false,
      "normalized": false,
      "special": true
    },
    {
      "id": 165,
      "content": "<|reserved_165|>",
      "single_word": false,
      "lstrip": false,
      "rstrip": false,
      "normalized": false,
      "special": true
    },
    {
      "id": 166,
      "content": "<|reserved_166|>",
      "single_word": false,
      "lstrip": false,
      "rstrip": false,
      "normalized": false,
      "special": true
    },
    {
      "id": 167,
      "content": "<|reserved_167|>",
      "single_word": false,
      "lstrip": false,
      "rstrip": false,
      "normalized": false,
      "special": true
    },
    {
      "id": 168,
      "content": "<|reserved_168|>",
      "single_word": false,
      "lstrip": false,
      "rstrip": false,
      "normalized": false,
      "special": true
    },
    {
      "id": 169,
      "content": "<|reserved_169|>",
      "single_word": false,
      "lstrip": false,
      "rstrip": false,
      "normalized": false,
      "special": true
    },
    {
      "id": 170,
      "content": "<|reserved_170|>",
      "single_word": false,
      "lstrip": false,
      "rstrip": false,
      "normalized": false,
      "special": true
    },
    {
      "id": 171,
      "content": "<|reserved_171|>",
      "single_word": false,
      "lstrip": false,
      "rstrip": false,
      "normalized": false,
      "special": true
    },
    {
      "id": 172,
      "content": "<|reserved_172|>",
      "single_word": false,
      "lstrip": false,
      "rstrip": false,
      "normalized": false,
      "special": true
    },
    {
      "id": 173,
      "content": "<|reserved_173|>",
      "single_word": false,
      "lstrip": false,
      "rstrip": false,
      "normalized": false,
      "special": true
    },
    {
      "id": 174,
      "content": "<|reserved_174|>",
      "single_word": false,
      "lstrip": false,
      "rstrip": false,
      "normalized": false,
      "special": true
    },
    {
      "id": 175,
      "content": "<|reserved_175|>",
      "single_word": false,
      "lstrip": false,
      "rstrip": false,
      "normalized": false,
      "special": true
    },
    {
      "id": 176,
      "content": "<|reserved_176|>",
      "single_word": false,
      "lstrip": false,
      "rstrip": false,
      "normalized": false,
      "special": true
    },
    {
      "id": 177,
      "content": "<|reserved_177|>",
      "single_word": false,
      "lstrip": false,
      "rstrip": false,
      "normalized": false,
      "special": true
    },
    {
      "id": 178,
      "content": "<|reserved_178|>",
      "single_word": false,
      "lstrip": false,
      "rstrip": false,
      "normalized": false,
      "special": true
    },
    {
      "id": 179,
      "content": "<|reserved_179|>",
      "single_word": false,
      "lstrip": false,
      "rstrip": false,
      "normalized": false,
      "special": true
    },
    {
      "id": 180,
      "content": "<|reserved_180|>",
      "single_word": false,
      "lstrip": false,
      "rstrip": false,
      "normalized": false,
      "special": true
    },
    {
      "id": 181,
      "content": "<|reserved_181|>",
      "single_word": false,
      "lstrip": false,
      "rstrip": false,
      "normalized": false,
      "special": true
    },
    {
      "id": 182,
      "content": "<|reserved_182|>",
      "single_word": false,
      "lstrip": false,
      "rstrip": false,
      "normalized": false,
      "special": true
    },
    {
      "id": 183,
      "content": "<|reserved_183|>",
      "single_word": false,
      "lstrip": false,
      "rstrip": false,
      "normalized": false,
      "special": true
    },
    {
      "id": 184,
      "content": "<|reserved_184|>",
      "single_word": false,
      "lstrip": false,
      "rstrip": false,
      "normalized": false,
      "special": true
    },
    {
      "id": 185,
      "content": "<|reserved_185|>",
      "single_word": false,
      "lstrip": false,
      "rstrip": false,
      "normalized": false,
      "special": true
    },
    {
      "id": 186,
      "content": "<|reserved_186|>",
      "single_word": false,
      "lstrip": false,
      "rstrip": false,
      "normalized": false,
      "special": true
    },
    {
      "id": 187,
      "content": "<|reserved_187|>",
      "single_word": false,
      "lstrip": false,
      "rstrip": false,
      "normalized": false,
      "special": true
    },
    {
      "id": 188,
      "content": "<|reserved_188|>",
      "single_word": false,
      "lstrip": false,
      "rstrip": false,
      "normalized": false,
      "special": true
    },
    {
      "id": 189,
      "content": "<|reserved_189|>",
      "single_word": false,
      "lstrip": false,
      "rstrip": false,
      "normalized": false,
      "special": true
    },
    {
      "id": 190,
      "content": "<|reserved_190|>",
      "single_word": false,
      "lstrip": false,
      "rstrip": false,
      "normalized": false,
      "special": true
    },
    {
      "id": 191,
      "content": "<|reserved_191|>",
      "single_word": false,
      "lstrip": false,
      "rstrip": false,
      "normalized": false,
      "special": true
    },
    {
      "id": 192,
      "content": "<|reserved_192|>",
      "single_word": false,
      "lstrip": false,
      "rstrip": false,
      "normalized": false,
      "special": true
    },
    {
      "id": 193,
      "content": "<|reserved_193|>",
      "single_word": false,
      "lstrip": false,
      "rstrip": false,
      "normalized": false,
      "special": true
    },
    {
      "id": 194,
      "content": "<|reserved_194|>",
      "single_word": false,
      "lstrip": false,
      "rstrip": false,
      "normalized": false,
      "special": true
    },
    {
      "id": 195,
      "content": "<|reserved_195|>",
      "single_word": false,
      "lstrip": false,
      "rstrip": false,
      "normalized": false,
      "special": true
    },
    {
      "id": 196,
      "content": "<|reserved_196|>",
      "single_word": false,
      "lstrip": false,
      "rstrip": false,
      "normalized": false,
      "special": true
    },
    {
      "id": 197,
      "content": "<|reserved_197|>",
      "single_word": false,
      "lstrip": false,
      "rstrip": false,
      "normalized": false,
      "special": true
    },
    {
      "id": 198,
      "content": "<|reserved_198|>",
      "single_word": false,
      "lstrip": false,
      "rstrip": false,
      "normalized": false,
      "special": true
    },
    {
      "id": 199,
      "content": "<|reserved_199|>",
      "single_word": false,
      "lstrip": false,
      "rstrip": false,
      "normalized": false,
      "special": true
    },
    {
      "id": 200,
      "content": "<|reserved_200|>",
      "single_word": false,
      "lstrip": false,
      "rstrip": false,
      "normalized": false,
      "special": true
    },
    {
      "id": 201,
      "content": "<|reserved_201|>",
      "single_word": false,
      "lstrip": false,
      "rstrip": false,
      "normalized": false,
      "special": true
    },
    {
      "id": 202,
      "content": "<|reserved_202|>",
      "single_word": false,
      "lstrip": false,
      "rstrip": false,
      "normalized": false,
      "special": true
    },
    {
      "id": 203,
      "content": "<|reserved_203|>",
      "single_word": false,
      "lstrip": false,
      "rstrip": false,
      "normalized": false,
      "special": true
    },
    {
      "id": 204,
      "content": "<|reserved_204|>",
      "single_word": false,
      "lstrip": false,
      "rstrip": false,
      "normalized": false,
      "special": true
    },
    {
      "id": 205,
      "content": "<|reserved_205|>",
      "single_word": false,
      "lstrip": false,
      "rstrip": false,
      "normalized": false,
      "special": true
    },
    {
      "id": 206,
      "content": "<|reserved_206|>",
      "single_word": false,
      "lstrip": false,
      "rstrip": false,
      "normalized": false,
      "special": true
    },
    {
      "id": 207,
      "content": "<|reserved_207|>",
      "single_word": false,
      "lstrip": false,
      "rstrip": false,
      "normalized": false,
      "special": true
    },
    {
      "id": 208,
      "content": "<|reserved_208|>",
      "single_word": false,
      "lstrip": false,
      "rstrip": false,
      "normalized": false,
      "special": true
    },
    {
      "id": 209,
      "content": "<|reserved_209|>",
      "single_word": false,
      "lstrip": false,
      "rstrip": false,
      "normalized": false,
      "special": true
    },
    {
      "id": 210,
      "content": "<|reserved_210|>",
      "single_word": false,
      "lstrip": false,
      "rstrip": false,
      "normalized": false,
      "special": true
    },
    {
      "id": 211,
      "content": "<|reserved_211|>",
      "single_word": false,
      "lstrip": false,
      "rstrip": false,
      "normalized": false,
      "special": true
    },
    {
      "id": 212,
      "content": "<|reserved_212|>",
      "single_word": false,
      "lstrip": false,
      "rstrip": false,
      "normalized": false,
      "special": true
    },
    {
      "id": 213,
      "content": "<|reserved_213|>",
      "single_word": false,
      "lstrip": false,
      "rstrip": false,
      "normalized": false,
      "special": true
    },
    {
      "id": 214,
      "content": "<|reserved_214|>",
      "single_word": false,
      "lstrip": false,
      "rstrip": false,
      "normalized": false,
      "special": true
    },
    {
      "id": 215,
      "content": "<|reserved_215|>",
      "single_word": false,
      "lstrip": false,
      "rstrip": false,
      "normalized": false,
      "special": true
    },
    {
      "id": 216,
      "content": "<|reserved_216|>",
      "single_word": false,
      "lstrip": false,
      "rstrip": false,
      "normalized": false,
      "special": true
    },
    {
      "id": 217,
      "content": "<|reserved_217|>",
      "single_word": false,
      "lstrip": false,
      "rstrip": false,
      "normalized": false,
      "special": true
    },
    {
      "id": 218,
      "content": "<|reserved_218|>",
      "single_word": false,
      "lstrip": false,
      "rstrip": false,
      "normalized": false,
      "special": true
    },
    {
      "id": 219,
      "content": "<|reserved_219|>",
      "single_word": false,
      "lstrip": false,
      "rstrip": false,
      "normalized": false,
      "special": true
    },
    {
      "id": 220,
      "content": "<|reserved_220|>",
      "single_word": false,
      "lstrip": false,
      "rstrip": false,
      "normalized": false,
      "special": true
    },
    {
      "id": 221,
      "content": "<|reserved_221|>",
      "single_word": false,
      "lstrip": false,
      "rstrip": false,
      "normalized": false,
      "special": true
    },
    {
      "id": 222,
      "content": "<|reserved_222|>",
      "single_word": false,
      "lstrip": false,
      "rstrip": false,
      "normalized": false,
      "special": true
    },
    {
      "id": 223,
      "content": "<|reserved_223|>",
      "single_word": false,
      "lstrip": false,
      "rstrip": false,
      "normalized": false,
      "special": true
    },
    {
      "id": 224,
      "content": "<|reserved_224|>",
      "single_word": false,
      "lstrip": false,
      "rstrip": false,
      "normalized": false,
      "special": true
    },
    {
      "id": 225,
      "content": "<|reserved_225|>",
      "single_word": false,
      "lstrip": false,
      "rstrip": false,
      "normalized": false,
      "special": true
    },
    {
      "id": 226,
      "content": "<|reserved_226|>",
      "single_word": false,
      "lstrip": false,
      "rstrip": false,
      "normalized": false,
      "special": true
    },
    {
      "id": 227,
      "content": "<|reserved_227|>",
      "single_word": false,
      "lstrip": false,
      "rstrip": false,
      "normalized": false,
      "special": true
    },
    {
      "id": 228,
      "content": "<|reserved_228|>",
      "single_word": false,
      "lstrip": false,
      "rstrip": false,
      "normalized": false,
      "special": true
    },
    {
      "id": 229,
      "content": "<|reserved_229|>",
      "single_word": false,
      "lstrip": false,
      "rstrip": false,
      "normalized": false,
      "special": true
    },
    {
      "id": 230,
      "content": "<|reserved_230|>",
      "single_word": false,
      "lstrip": false,
      "rstrip": false,
      "normalized": false,
      "special": true
    },
    {
      "id": 231,
      "content": "<|reserved_231|>",
      "single_word": false,
      "lstrip": false,
      "rstrip": false,
      "normalized": false,
      "special": true
    },
    {
      "id": 232,
      "content": "<|reserved_232|>",
      "single_word": false,
      "lstrip": false,
      "rstrip": false,
      "normalized": false,
      "special": true
    },
    {
      "id": 233,
      "content": "<|reserved_233|>",
      "single_word": false,
      "lstrip": false,
      "rstrip": false,
      "normalized": false,
      "special": true
    },
    {
      "id": 234,
      "content": "<|reserved_234|>",
      "single_word": false,
      "lstrip": false,
      "rstrip": false,
      "normalized": false,
      "special": true
    },
    {
      "id": 235,
      "content": "<|reserved_235|>",
      "single_word": false,
      "lstrip": false,
      "rstrip": false,
      "normalized": false,
      "special": true
    },
    {
      "id": 236,
      "content": "<|reserved_236|>",
      "single_word": false,
      "lstrip": false,
      "rstrip": false,
      "normalized": false,
      "special": true
    },
    {
      "id": 237,
      "content": "<|reserved_237|>",
      "single_word": false,
      "lstrip": false,
      "rstrip": false,
      "normalized": false,
      "special": true
    },
    {
      "id": 238,
      "content": "<|reserved_238|>",
      "single_word": false,
      "lstrip": false,
      "rstrip": false,
      "normalized": false,
      "special": true
    },
    {
      "id": 239,
      "content": "<|reserved_239|>",
      "single_word": false,
      "lstrip": false,
      "rstrip": false,
      "normalized": false,
      "special": true
    },
    {
      "id": 240,
      "content": "<|reserved_240|>",
      "single_word": false,
      "lstrip": false,
      "rstrip": false,
      "normalized": false,
      "special": true
    },
    {
      "id": 241,
      "content": "<|reserved_241|>",
      "single_word": false,
      "lstrip": false,
      "rstrip": false,
      "normalized": false,
      "special": true
    },
    {
      "id": 242,
      "content": "<|reserved_242|>",
      "single_word": false,
      "lstrip": false,
      "rstrip": false,
      "normalized": false,
      "special": true
    },
    {
      "id": 243,
      "content": "<|reserved_243|>",
      "single_word": false,
      "lstrip": false,
      "rstrip": false,
      "normalized": false,
      "special": true
    },
    {
      "id": 244,
      "content": "<|reserved_244|>",
      "single_word": false,
      "lstrip": false,
      "rstrip": false,
      "normalized": false,
      "special": true
    },
    {
      "id": 245,
      "content": "<|reserved_245|>",
      "single_word": false,
      "lstrip": false,
      "rstrip": false,
      "normalized": false,
      "special": true
    },
    {
      "id": 246,
      "content": "<|reserved_246|>",
      "single_word": false,
      "lstrip": false,
      "rstrip": false,
      "normalized": false,
      "special": true
    },
    {
      "id": 247,
      "content": "<|reserved_247|>",
      "single_word": false,
      "lstrip": false,
      "rstrip": false,
      "normalized": false,
      "special": true
    },
    {
      "id": 248,
      "content": "<|reserved_248|>",
      "single_word": false,
      "lstrip": false,
      "rstrip": false,
      "normalized": false,
      "special": true
    },
    {
      "id": 249,
      "content": "<|reserved_249|>",
      "single_word": false,
      "lstrip": false,
      "rstrip": false,
      "normalized": false,
      "special": true
    },
    {
      "id": 250,
      "content": "<|reserved_250|>",
      "single_word": false,
      "lstrip": false,
      "rstrip": false,
      "normalized": false,
      "special": true
    },
    {
      "id": 251,
      "content": "<|reserved_251|>",
      "single_word": false,
      "lstrip": false,
      "rstrip": false,
      "normalized": false,
      "special": true
    },
    {
      "id": 252,
      "content": "<|reserved_252|>",
      "single_word": false,
      "lstrip": false,
      "rstrip": false,
      "normalized": false,
      "special": true
    },
    {
      "id": 253,
      "content": "<|reserved_253|>",
      "single_word": false,
      "lstrip": false,
      "rstrip": false,
      "normalized": false,
      "special": true
    },
    {
      "id": 254,
      "content": "<|reserved_254|>",
      "single_word": false,
      "lstrip": false,
      "rstrip": false,
      "normalized": false,
      "special": true
    },
    {
      "id": 255,
      "content": "<|reserved_255|>",
      "single_word": false,
      "lstrip": false,
      "rstrip": false,
      "normalized": false,
      "special": true
    },
    {
      "id": 256,
      "content": "<|reserved_256|>",
      "single_word": false,
      "lstrip": false,
      "rstrip": false,
      "normalized": false,
      "special": true
    },
    {
      "id": 257,
      "content": "<|reserved_257|>",
      "single_word": false,
      "lstrip": false,
      "rstrip": false,
      "normalized": false,
      "special": true
    },
    {
      "id": 258,
      "content": "<|reserved_258|>",
      "single_word": false,
      "lstrip": false,
      "rstrip": false,
      "normalized": false,
      "special": true
    },
    {
      "id": 259,
      "content": "<|reserved_259|>",
      "single_word": false,
      "lstrip": false,
      "rstrip": false,
      "normalized": false,
      "special": true
    },
    {
      "id": 260,
      "content": "<|reserved_260|>",
      "single_word": false,
      "lstrip": false,
      "rstrip": false,
      "normalized": false,
      "special": true
    },
    {
      "id": 261,
      "content": "<|reserved_261|>",
      "single_word": false,
      "lstrip": false,
      "rstrip": false,
      "normalized": false,
      "special": true
    },
    {
      "id": 262,
      "content": "<|reserved_262|>",
      "single_word": false,
      "lstrip": false,
      "rstrip": false,
      "normalized": false,
      "special": true
    },
    {
      "id": 263,
      "content": "<|reserved_263|>",
      "single_word": false,
      "lstrip": false,
      "rstrip": false,
      "normalized": false,
      "special": true
    },
    {
      "id": 264,
      "content": "<|reserved_264|>",
      "single_word": false,
      "lstrip": false,
      "rstrip": false,
      "normalized": false,
      "special": true
    },
    {
      "id": 265,
      "content": "<|reserved_265|>",
      "single_word": false,
      "lstrip": false,
      "rstrip": false,
      "normalized": false,
      "special": true
    },
    {
      "id": 266,
      "content": "<|reserved_266|>",
      "single_word": false,
      "lstrip": false,
      "rstrip": false,
      "normalized": false,
      "special": true
    },
    {
      "id": 267,
      "content": "<|reserved_267|>",
      "single_word": false,
      "lstrip": false,
      "rstrip": false,
      "normalized": false,
      "special": true
    },
    {
      "id": 268,
      "content": "<|reserved_268|>",
      "single_word": false,
      "lstrip": false,
      "rstrip": false,
      "normalized": false,
      "special": true
    },
    {
      "id": 269,
      "content": "<|reserved_269|>",
      "single_word": false,
      "lstrip": false,
      "rstrip": false,
      "normalized": false,
      "special": true
    },
    {
      "id": 270,
      "content": "<|reserved_270|>",
      "single_word": false,
      "lstrip": false,
      "rstrip": false,
      "normalized": false,
      "special": true
    },
    {
      "id": 271,
      "content": "<|reserved_271|>",
      "single_word": false,
      "lstrip": false,
      "rstrip": false,
      "normalized": false,
      "special": true
    },
    {
      "id": 272,
      "content": "<|reserved_272|>",
      "single_word": false,
      "lstrip": false,
      "rstrip": false,
      "normalized": false,
      "special": true
    },
    {
      "id": 273,
      "content": "<|reserved_273|>",
      "single_word": false,
      "lstrip": false,
      "rstrip": false,
      "normalized": false,
      "special": true
    },
    {
      "id": 274,
      "content": "<|reserved_274|>",
      "single_word": false,
      "lstrip": false,
      "rstrip": false,
      "normalized": false,
      "special": true
    },
    {
      "id": 275,
      "content": "<|reserved_275|>",
      "single_word": false,
      "lstrip": false,
      "rstrip": false,
      "normalized": false,
      "special": true
    },
    {
      "id": 276,
      "content": "<|reserved_276|>",
      "single_word": false,
      "lstrip": false,
      "rstrip": false,
      "normalized": false,
      "special": true
    },
    {
      "id": 277,
      "content": "<|reserved_277|>",
      "single_word": false,
      "lstrip": false,
      "rstrip": false,
      "normalized": false,
      "special": true
    },
    {
      "id": 278,
      "content": "<|reserved_278|>",
      "single_word": false,
      "lstrip": false,
      "rstrip": false,
      "normalized": false,
      "special": true
    },
    {
      "id": 279,
      "content": "<|reserved_279|>",
      "single_word": false,
      "lstrip": false,
      "rstrip": false,
      "normalized": false,
      "special": true
    },
    {
      "id": 280,
      "content": "<|reserved_280|>",
      "single_word": false,
      "lstrip": false,
      "rstrip": false,
      "normalized": false,
      "special": true
    },
    {
      "id": 281,
      "content": "<|reserved_281|>",
      "single_word": false,
      "lstrip": false,
      "rstrip": false,
      "normalized": false,
      "special": true
    },
    {
      "id": 282,
      "content": "<|reserved_282|>",
      "single_word": false,
      "lstrip": false,
      "rstrip": false,
      "normalized": false,
      "special": true
    },
    {
      "id": 283,
      "content": "<|reserved_283|>",
      "single_word": false,
      "lstrip": false,
      "rstrip": false,
      "normalized": false,
      "special": true
    },
    {
      "id": 284,
      "content": "<|reserved_284|>",
      "single_word": false,
      "lstrip": false,
      "rstrip": false,
      "normalized": false,
      "special": true
    },
    {
      "id": 285,
      "content": "<|reserved_285|>",
      "single_word": false,
      "lstrip": false,
      "rstrip": false,
      "normalized": false,
      "special": true
    },
    {
      "id": 286,
      "content": "<|reserved_286|>",
      "single_word": false,
      "lstrip": false,
      "rstrip": false,
      "normalized": false,
      "special": true
    },
    {
      "id": 287,
      "content": "<|reserved_287|>",
      "single_word": false,
      "lstrip": false,
      "rstrip": false,
      "normalized": false,
      "special": true
    },
    {
      "id": 288,
      "content": "<|reserved_288|>",
      "single_word": false,
      "lstrip": false,
      "rstrip": false,
      "normalized": false,
      "special": true
    },
    {
      "id": 289,
      "content": "<|reserved_289|>",
      "single_word": false,
      "lstrip": false,
      "rstrip": false,
      "normalized": false,
      "special": true
    },
    {
      "id": 290,
      "content": "<|reserved_290|>",
      "single_word": false,
      "lstrip": false,
      "rstrip": false,
      "normalized": false,
      "special": true
    },
    {
      "id": 291,
      "content": "<|reserved_291|>",
      "single_word": false,
      "lstrip": false,
      "rstrip": false,
      "normalized": false,
      "special": true
    },
    {
      "id": 292,
      "content": "<|reserved_292|>",
      "single_word": false,
      "lstrip": false,
      "rstrip": false,
      "normalized": false,
      "special": true
    },
    {
      "id": 293,
      "content": "<|reserved_293|>",
      "single_word": false,
      "lstrip": false,
      "rstrip": false,
      "normalized": false,
      "special": true
    },
    {
      "id": 294,
      "content": "<|reserved_294|>",
      "single_word": false,
      "lstrip": false,
      "rstrip": false,
      "normalized": false,
      "special": true
    },
    {
      "id": 295,
      "content": "<|reserved_295|>",
      "single_word": false,
      "lstrip": false,
      "rstrip": false,
      "normalized": false,
      "special": true
    },
    {
      "id": 296,
      "content": "<|reserved_296|>",
      "single_word": false,
      "lstrip": false,
      "rstrip": false,
      "normalized": false,
      "special": true
    },
    {
      "id": 297,
      "content": "<|reserved_297|>",
      "single_word": false,
      "lstrip": false,
      "rstrip": false,
      "normalized": false,
      "special": true
    },
    {
      "id": 298,
      "content": "<|reserved_298|>",
      "single_word": false,
      "lstrip": false,
      "rstrip": false,
      "normalized": false,
      "special": true
    },
    {
      "id": 299,
      "content": "<|reserved_299|>",
      "single_word": false,
      "lstrip": false,
      "rstrip": false,
      "normalized": false,
      "special": true
    },
    {
      "id": 300,
      "content": "<|reserved_300|>",
      "single_word": false,
      "lstrip": false,
      "rstrip": false,
      "normalized": false,
      "special": true
    },
    {
      "id": 301,
      "content": "<|reserved_301|>",
      "single_word": false,
      "lstrip": false,
      "rstrip": false,
      "normalized": false,
      "special": true
    },
    {
      "id": 302,
      "content": "<|reserved_302|>",
      "single_word": false,
      "lstrip": false,
      "rstrip": false,
      "normalized": false,
      "special": true
    },
    {
      "id": 303,
      "content": "<|reserved_303|>",
      "single_word": false,
      "lstrip": false,
      "rstrip": false,
      "normalized": false,
      "special": true
    },
    {
      "id": 304,
      "content": "<|reserved_304|>",
      "single_word": false,
      "lstrip": false,
      "rstrip": false,
      "normalized": false,
      "special": true
    },
    {
      "id": 305,
      "content": "<|reserved_305|>",
      "single_word": false,
      "lstrip": false,
      "rstrip": false,
      "normalized": false,
      "special": true
    },
    {
      "id": 306,
      "content": "<|reserved_306|>",
      "single_word": false,
      "lstrip": false,
      "rstrip": false,
      "normalized": false,
      "special": true
    },
    {
      "id": 307,
      "content": "<|reserved_307|>",
      "single_word": false,
      "lstrip": false,
      "rstrip": false,
      "normalized": false,
      "special": true
    },
    {
      "id": 308,
      "content": "<|reserved_308|>",
      "single_word": false,
      "lstrip": false,
      "rstrip": false,
      "normalized": false,
      "special": true
    },
    {
      "id": 309,
      "content": "<|reserved_309|>",
      "single_word": false,
      "lstrip": false,
      "rstrip": false,
      "normalized": false,
      "special": true
    },
    {
      "id": 310,
      "content": "<|reserved_310|>",
      "single_word": false,
      "lstrip": false,
      "rstrip": false,
      "normalized": false,
      "special": true
    },
    {
      "id": 311,
      "content": "<|reserved_311|>",
      "single_word": false,
      "lstrip": false,
      "rstrip": false,
      "normalized": false,
      "special": true
    },
    {
      "id": 312,
      "content": "<|reserved_312|>",
      "single_word": false,
      "lstrip": false,
      "rstrip": false,
      "normalized": false,
      "special": true
    },
    {
      "id": 313,
      "content": "<|reserved_313|>",
      "single_word": false,
      "lstrip": false,
      "rstrip": false,
      "normalized": false,
      "special": true
    },
    {
      "id": 314,
      "content": "<|reserved_314|>",
      "single_word": false,
      "lstrip": false,
      "rstrip": false,
      "normalized": false,
      "special": true
    },
    {
      "id": 315,
      "content": "<|reserved_315|>",
      "single_word": false,
      "lstrip": false,
      "rstrip": false,
      "normalized": false,
      "special": true
    },
    {
      "id": 316,
      "content": "<|reserved_316|>",
      "single_word": false,
      "lstrip": false,
      "rstrip": false,
      "normalized": false,
      "special": true
    },
    {
      "id": 317,
      "content": "<|reserved_317|>",
      "single_word": false,
      "lstrip": false,
      "rstrip": false,
      "normalized": false,
      "special": true
    },
    {
      "id": 318,
      "content": "<|reserved_318|>",
      "single_word": false,
      "lstrip": false,
      "rstrip": false,
      "normalized": false,
      "special": true
    },
    {
      "id": 319,
      "content": "<|reserved_319|>",
      "single_word": false,
      "lstrip": false,
      "rstrip": false,
      "normalized": false,
      "special": true
    },
    {
      "id": 320,
      "content": "<|reserved_320|>",
      "single_word": false,
      "lstrip": false,
      "rstrip": false,
      "normalized": false,
      "special": true
    },
    {
      "id": 321,
      "content": "<|reserved_321|>",
      "single_word": false,
      "lstrip": false,
      "rstrip": false,
      "normalized": false,
      "special": true
    },
    {
      "id": 322,
      "content": "<|reserved_322|>",
      "single_word": false,
      "lstrip": false,
      "rstrip": false,
      "normalized": false,
      "special": true
    },
    {
      "id": 323,
      "content": "<|reserved_323|>",
      "single_word": false,
      "lstrip": false,
      "rstrip": false,
      "normalized": false,
      "special": true
    },
    {
      "id": 324,
      "content": "<|reserved_324|>",
      "single_word": false,
      "lstrip": false,
      "rstrip": false,
      "normalized": false,
      "special": true
    },
    {
      "id": 325,
      "content": "<|reserved_325|>",
      "single_word": false,
      "lstrip": false,
      "rstrip": false,
      "normalized": false,
      "special": true
    },
    {
      "id": 326,
      "content": "<|reserved_326|>",
      "single_word": false,
      "lstrip": false,
      "rstrip": false,
      "normalized": false,
      "special": true
    },
    {
      "id": 327,
      "content": "<|reserved_327|>",
      "single_word": false,
      "lstrip": false,
      "rstrip": false,
      "normalized": false,
      "special": true
    },
    {
      "id": 328,
      "content": "<|reserved_328|>",
      "single_word": false,
      "lstrip": false,
      "rstrip": false,
      "normalized": false,
      "special": true
    },
    {
      "id": 329,
      "content": "<|reserved_329|>",
      "single_word": false,
      "lstrip": false,
      "rstrip": false,
      "normalized": false,
      "special": true
    },
    {
      "id": 330,
      "content": "<|reserved_330|>",
      "single_word": false,
      "lstrip": false,
      "rstrip": false,
      "normalized": false,
      "special": true
    },
    {
      "id": 331,
      "content": "<|reserved_331|>",
      "single_word": false,
      "lstrip": false,
      "rstrip": false,
      "normalized": false,
      "special": true
    },
    {
      "id": 332,
      "content": "<|reserved_332|>",
      "single_word": false,
      "lstrip": false,
      "rstrip": false,
      "normalized": false,
      "special": true
    },
    {
      "id": 333,
      "content": "<|reserved_333|>",
      "single_word": false,
      "lstrip": false,
      "rstrip": false,
      "normalized": false,
      "special": true
    },
    {
      "id": 334,
      "content": "<|reserved_334|>",
      "single_word": false,
      "lstrip": false,
      "rstrip": false,
      "normalized": false,
      "special": true
    },
    {
      "id": 335,
      "content": "<|reserved_335|>",
      "single_word": false,
      "lstrip": false,
      "rstrip": false,
      "normalized": false,
      "special": true
    },
    {
      "id": 336,
      "content": "<|reserved_336|>",
      "single_word": false,
      "lstrip": false,
      "rstrip": false,
      "normalized": false,
      "special": true
    },
    {
      "id": 337,
      "content": "<|reserved_337|>",
      "single_word": false,
      "lstrip": false,
      "rstrip": false,
      "normalized": false,
      "special": true
    },
    {
      "id": 338,
      "content": "<|reserved_338|>",
      "single_word": false,
      "lstrip": false,
      "rstrip": false,
      "normalized": false,
      "special": true
    },
    {
      "id": 339,
      "content": "<|reserved_339|>",
      "single_word": false,
      "lstrip": false,
      "rstrip": false,
      "normalized": false,
      "special": true
    },
    {
      "id": 340,
      "content": "<|reserved_340|>",
      "single_word": false,
      "lstrip": false,
      "rstrip": false,
      "normalized": false,
      "special": true
    },
    {
      "id": 341,
      "content": "<|reserved_341|>",
      "single_word": false,
      "lstrip": false,
      "rstrip": false,
      "normalized": false,
      "special": true
    },
    {
      "id": 342,
      "content": "<|reserved_342|>",
      "single_word": false,
      "lstrip": false,
      "rstrip": false,
      "normalized": false,
      "special": true
    },
    {
      "id": 343,
      "content": "<|reserved_343|>",
      "single_word": false,
      "lstrip": false,
      "rstrip": false,
      "normalized": false,
      "special": true
    },
    {
      "id": 344,
      "content": "<|reserved_344|>",
      "single_word": false,
      "lstrip": false,
      "rstrip": false,
      "normalized": false,
      "special": true
    },
    {
      "id": 345,
      "content": "<|reserved_345|>",
      "single_word": false,
      "lstrip": false,
      "rstrip": false,
      "normalized": false,
      "special": true
    },
    {
      "id": 346,
      "content": "<|reserved_346|>",
      "single_word": false,
      "lstrip": false,
      "rstrip": false,
      "normalized": false,
      "special": true
    },
    {
      "id": 347,
      "content": "<|reserved_347|>",
      "single_word": false,
      "lstrip": false,
      "rstrip": false,
      "normalized": false,
      "special": true
    },
    {
      "id": 348,
      "content": "<|reserved_348|>",
      "single_word": false,
      "lstrip": false,
      "rstrip": false,
      "normalized": false,
      "special": true
    },
    {
      "id": 349,
      "content": "<|reserved_349|>",
      "single_word": false,
      "lstrip": false,
      "rstrip": false,
      "normalized": false,
      "special": true
    },
    {
      "id": 350,
      "content": "<|reserved_350|>",
      "single_word": false,
      "lstrip": false,
      "rstrip": false,
      "normalized": false,
      "special": true
    },
    {
      "id": 351,
      "content": "<|reserved_351|>",
      "single_word": false,
      "lstrip": false,
      "rstrip": false,
      "normalized": false,
      "special": true
    },
    {
      "id": 352,
      "content": "<|reserved_352|>",
      "single_word": false,
      "lstrip": false,
      "rstrip": false,
      "normalized": false,
      "special": true
    },
    {
      "id": 353,
      "content": "<|reserved_353|>",
      "single_word": false,
      "lstrip": false,
      "rstrip": false,
      "normalized": false,
      "special": true
    },
    {
      "id": 354,
      "content": "<|reserved_354|>",
      "single_word": false,
      "lstrip": false,
      "rstrip": false,
      "normalized": false,
      "special": true
    },
    {
      "id": 355,
      "content": "<|reserved_355|>",
      "single_word": false,
      "lstrip": false,
      "rstrip": false,
      "normalized": false,
      "special": true
    },
    {
      "id": 356,
      "content": "<|reserved_356|>",
      "single_word": false,
      "lstrip": false,
      "rstrip": false,
      "normalized": false,
      "special": true
    },
    {
      "id": 357,
      "content": "<|reserved_357|>",
      "single_word": false,
      "lstrip": false,
      "rstrip": false,
      "normalized": false,
      "special": true
    },
    {
      "id": 358,
      "content": "<|reserved_358|>",
      "single_word": false,
      "lstrip": false,
      "rstrip": false,
      "normalized": false,
      "special": true
    },
    {
      "id": 359,
      "content": "<|reserved_359|>",
      "single_word": false,
      "lstrip": false,
      "rstrip": false,
      "normalized": false,
      "special": true
    },
    {
      "id": 360,
      "content": "<|reserved_360|>",
      "single_word": false,
      "lstrip": false,
      "rstrip": false,
      "normalized": false,
      "special": true
    },
    {
      "id": 361,
      "content": "<|reserved_361|>",
      "single_word": false,
      "lstrip": false,
      "rstrip": false,
      "normalized": false,
      "special": true
    },
    {
      "id": 362,
      "content": "<|reserved_362|>",
      "single_word": false,
      "lstrip": false,
      "rstrip": false,
      "normalized": false,
      "special": true
    },
    {
      "id": 363,
      "content": "<|reserved_363|>",
      "single_word": false,
      "lstrip": false,
      "rstrip": false,
      "normalized": false,
      "special": true
    },
    {
      "id": 364,
      "content": "<|reserved_364|>",
      "single_word": false,
      "lstrip": false,
      "rstrip": false,
      "normalized": false,
      "special": true
    },
    {
      "id": 365,
      "content": "<|reserved_365|>",
      "single_word": false,
      "lstrip": false,
      "rstrip": false,
      "normalized": false,
      "special": true
    },
    {
      "id": 366,
      "content": "<|reserved_366|>",
      "single_word": false,
      "lstrip": false,
      "rstrip": false,
      "normalized": false,
      "special": true
    },
    {
      "id": 367,
      "content": "<|reserved_367|>",
      "single_word": false,
      "lstrip": false,
      "rstrip": false,
      "normalized": false,
      "special": true
    },
    {
      "id": 368,
      "content": "<|reserved_368|>",
      "single_word": false,
      "lstrip": false,
      "rstrip": false,
      "normalized": false,
      "special": true
    },
    {
      "id": 369,
      "content": "<|reserved_369|>",
      "single_word": false,
      "lstrip": false,
      "rstrip": false,
      "normalized": false,
      "special": true
    },
    {
      "id": 370,
      "content": "<|reserved_370|>",
      "single_word": false,
      "lstrip": false,
      "rstrip": false,
      "normalized": false,
      "special": true
    },
    {
      "id": 371,
      "content": "<|reserved_371|>",
      "single_word": false,
      "lstrip": false,
      "rstrip": false,
      "normalized": false,
      "special": true
    },
    {
      "id": 372,
      "content": "<|reserved_372|>",
      "single_word": false,
      "lstrip": false,
      "rstrip": false,
      "normalized": false,
      "special": true
    },
    {
      "id": 373,
      "content": "<|reserved_373|>",
      "single_word": false,
      "lstrip": false,
      "rstrip": false,
      "normalized": false,
      "special": true
    },
    {
      "id": 374,
      "content": "<|reserved_374|>",
      "single_word": false,
      "lstrip": false,
      "rstrip": false,
      "normalized": false,
      "special": true
    },
    {
      "id": 375,
      "content": "<|reserved_375|>",
      "single_word": false,
      "lstrip": false,
      "rstrip": false,
      "normalized": false,
      "special": true
    },
    {
      "id": 376,
      "content": "<|reserved_376|>",
      "single_word": false,
      "lstrip": false,
      "rstrip": false,
      "normalized": false,
      "special": true
    },
    {
      "id": 377,
      "content": "<|reserved_377|>",
      "single_word": false,
      "lstrip": false,
      "rstrip": false,
      "normalized": false,
      "special": true
    },
    {
      "id": 378,
      "content": "<|reserved_378|>",
      "single_word": false,
      "lstrip": false,
      "rstrip": false,
      "normalized": false,
      "special": true
    },
    {
      "id": 379,
      "content": "<|reserved_379|>",
      "single_word": false,
      "lstrip": false,
      "rstrip": false,
      "normalized": false,
      "special": true
    },
    {
      "id": 380,
      "content": "<|reserved_380|>",
      "single_word": false,
      "lstrip": false,
      "rstrip": false,
      "normalized": false,
      "special": true
    },
    {
      "id": 381,
      "content": "<|reserved_381|>",
      "single_word": false,
      "lstrip": false,
      "rstrip": false,
      "normalized": false,
      "special": true
    },
    {
      "id": 382,
      "content": "<|reserved_382|>",
      "single_word": false,
      "lstrip": false,
      "rstrip": false,
      "normalized": false,
      "special": true
    },
    {
      "id": 383,
      "content": "<|reserved_383|>",
      "single_word": false,
      "lstrip": false,
      "rstrip": false,
      "normalized": false,
      "special": true
    },
    {
      "id": 384,
      "content": "<|reserved_384|>",
      "single_word": false,
      "lstrip": false,
      "rstrip": false,
      "normalized": false,
      "special": true
    },
    {
      "id": 385,
      "content": "<|reserved_385|>",
      "single_word": false,
      "lstrip": false,
      "rstrip": false,
      "normalized": false,
      "special": true
    },
    {
      "id": 386,
      "content": "<|reserved_386|>",
      "single_word": false,
      "lstrip": false,
      "rstrip": false,
      "normalized": false,
      "special": true
    },
    {
      "id": 387,
      "content": "<|reserved_387|>",
      "single_word": false,
      "lstrip": false,
      "rstrip": false,
      "normalized": false,
      "special": true
    },
    {
      "id": 388,
      "content": "<|reserved_388|>",
      "single_word": false,
      "lstrip": false,
      "rstrip": false,
      "normalized": false,
      "special": true
    },
    {
      "id": 389,
      "content": "<|reserved_389|>",
      "single_word": false,
      "lstrip": false,
      "rstrip": false,
      "normalized": false,
      "special": true
    },
    {
      "id": 390,
      "content": "<|reserved_390|>",
      "single_word": false,
      "lstrip": false,
      "rstrip": false,
      "normalized": false,
      "special": true
    },
    {
      "id": 391,
      "content": "<|reserved_391|>",
      "single_word": false,
      "lstrip": false,
      "rstrip": false,
      "normalized": false,
      "special": true
    },
    {
      "id": 392,
      "content": "<|reserved_392|>",
      "single_word": false,
      "lstrip": false,
      "rstrip": false,
      "normalized": false,
      "special": true
    },
    {
      "id": 393,
      "content": "<|reserved_393|>",
      "single_word": false,
      "lstrip": false,
      "rstrip": false,
      "normalized": false,
      "special": true
    },
    {
      "id": 394,
      "content": "<|reserved_394|>",
      "single_word": false,
      "lstrip": false,
      "rstrip": false,
      "normalized": false,
      "special": true
    },
    {
      "id": 395,
      "content": "<|reserved_395|>",
      "single_word": false,
      "lstrip": false,
      "rstrip": false,
      "normalized": false,
      "special": true
    },
    {
      "id": 396,
      "content": "<|reserved_396|>",
      "single_word": false,
      "lstrip": false,
      "rstrip": false,
      "normalized": false,
      "special": true
    },
    {
      "id": 397,
      "content": "<|reserved_397|>",
      "single_word": false,
      "lstrip": false,
      "rstrip": false,
      "normalized": false,
      "special": true
    },
    {
      "id": 398,
      "content": "<|reserved_398|>",
      "single_word": false,
      "lstrip": false,
      "rstrip": false,
      "normalized": false,
      "special": true
    },
    {
      "id": 399,
      "content": "<|reserved_399|>",
      "single_word": false,
      "lstrip": false,
      "rstrip": false,
      "normalized": false,
      "special": true
    },
    {
      "id": 400,
      "content": "<|reserved_400|>",
      "single_word": false,
      "lstrip": false,
      "rstrip": false,
      "normalized": false,
      "special": true
    },
    {
      "id": 401,
      "content": "<|reserved_401|>",
      "single_word": false,
      "lstrip": false,
      "rstrip": false,
      "normalized": false,
      "special": true
    },
    {
      "id": 402,
      "content": "<|reserved_402|>",
      "single_word": false,
      "lstrip": false,
      "rstrip": false,
      "normalized": false,
      "special": true
    },
    {
      "id": 403,
      "content": "<|reserved_403|>",
      "single_word": false,
      "lstrip": false,
      "rstrip": false,
      "normalized": false,
      "special": true
    },
    {
      "id": 404,
      "content": "<|reserved_404|>",
      "single_word": false,
      "lstrip": false,
      "rstrip": false,
      "normalized": false,
      "special": true
    },
    {
      "id": 405,
      "content": "<|reserved_405|>",
      "single_word": false,
      "lstrip": false,
      "rstrip": false,
      "normalized": false,
      "special": true
    },
    {
      "id": 406,
      "content": "<|reserved_406|>",
      "single_word": false,
      "lstrip": false,
      "rstrip": false,
      "normalized": false,
      "special": true
    },
    {
      "id": 407,
      "content": "<|reserved_407|>",
      "single_word": false,
      "lstrip": false,
      "rstrip": false,
      "normalized": false,
      "special": true
    },
    {
      "id": 408,
      "content": "<|reserved_408|>",
      "single_word": false,
      "lstrip": false,
      "rstrip": false,
      "normalized": false,
      "special": true
    },
    {
      "id": 409,
      "content": "<|reserved_409|>",
      "single_word": false,
      "lstrip": false,
      "rstrip": false,
      "normalized": false,
      "special": true
    },
    {
      "id": 410,
      "content": "<|reserved_410|>",
      "single_word": false,
      "lstrip": false,
      "rstrip": false,
      "normalized": false,
      "special": true
    },
    {
      "id": 411,
      "content": "<|reserved_411|>",
      "single_word": false,
      "lstrip": false,
      "rstrip": false,
      "normalized": false,
      "special": true
    },
    {
      "id": 412,
      "content": "<|reserved_412|>",
      "single_word": false,
      "lstrip": false,
      "rstrip": false,
      "normalized": false,
      "special": true
    },
    {
      "id": 413,
      "content": "<|reserved_413|>",
      "single_word": false,
      "lstrip": false,
      "rstrip": false,
      "normalized": false,
      "special": true
    },
    {
      "id": 414,
      "content": "<|reserved_414|>",
      "single_word": false,
      "lstrip": false,
      "rstrip": false,
      "normalized": false,
      "special": true
    },
    {
      "id": 415,
      "content": "<|reserved_415|>",
      "single_word": false,
      "lstrip": false,
      "rstrip": false,
      "normalized": false,
      "special": true
    },
    {
      "id": 416,
      "content": "<|reserved_416|>",
      "single_word": false,
      "lstrip": false,
      "rstrip": false,
      "normalized": false,
      "special": true
    },
    {
      "id": 417,
      "content": "<|reserved_417|>",
      "single_word": false,
      "lstrip": false,
      "rstrip": false,
      "normalized": false,
      "special": true
    },
    {
      "id": 418,
      "content": "<|reserved_418|>",
      "single_word": false,
      "lstrip": false,
      "rstrip": false,
      "normalized": false,
      "special": true
    },
    {
      "id": 419,
      "content": "<|reserved_419|>",
      "single_word": false,
      "lstrip": false,
      "rstrip": false,
      "normalized": false,
      "special": true
    },
    {
      "id": 420,
      "content": "<|reserved_420|>",
      "single_word": false,
      "lstrip": false,
      "rstrip": false,
      "normalized": false,
      "special": true
    },
    {
      "id": 421,
      "content": "<|reserved_421|>",
      "single_word": false,
      "lstrip": false,
      "rstrip": false,
      "normalized": false,
      "special": true
    },
    {
      "id": 422,
      "content": "<|reserved_422|>",
      "single_word": false,
      "lstrip": false,
      "rstrip": false,
      "normalized": false,
      "special": true
    },
    {
      "id": 423,
      "content": "<|reserved_423|>",
      "single_word": false,
      "lstrip": false,
      "rstrip": false,
      "normalized": false,
      "special": true
    },
    {
      "id": 424,
      "content": "<|reserved_424|>",
      "single_word": false,
      "lstrip": false,
      "rstrip": false,
      "normalized": false,
      "special": true
    },
    {
      "id": 425,
      "content": "<|reserved_425|>",
      "single_word": false,
      "lstrip": false,
      "rstrip": false,
      "normalized": false,
      "special": true
    },
    {
      "id": 426,
      "content": "<|reserved_426|>",
      "single_word": false,
      "lstrip": false,
      "rstrip": false,
      "normalized": false,
      "special": true
    },
    {
      "id": 427,
      "content": "<|reserved_427|>",
      "single_word": false,
      "lstrip": false,
      "rstrip": false,
      "normalized": false,
      "special": true
    },
    {
      "id": 428,
      "content": "<|reserved_428|>",
      "single_word": false,
      "lstrip": false,
      "rstrip": false,
      "normalized": false,
      "special": true
    },
    {
      "id": 429,
      "content": "<|reserved_429|>",
      "single_word": false,
      "lstrip": false,
      "rstrip": false,
      "normalized": false,
      "special": true
    },
    {
      "id": 430,
      "content": "<|reserved_430|>",
      "single_word": false,
      "lstrip": false,
      "rstrip": false,
      "normalized": false,
      "special": true
    },
    {
      "id": 431,
      "content": "<|reserved_431|>",
      "single_word": false,
      "lstrip": false,
      "rstrip": false,
      "normalized": false,
      "special": true
    },
    {
      "id": 432,
      "content": "<|reserved_432|>",
      "single_word": false,
      "lstrip": false,
      "rstrip": false,
      "normalized": false,
      "special": true
    },
    {
      "id": 433,
      "content": "<|reserved_433|>",
      "single_word": false,
      "lstrip": false,
      "rstrip": false,
      "normalized": false,
      "special": true
    },
    {
      "id": 434,
      "content": "<|reserved_434|>",
      "single_word": false,
      "lstrip": false,
      "rstrip": false,
      "normalized": false,
      "special": true
    },
    {
      "id": 435,
      "content": "<|reserved_435|>",
      "single_word": false,
      "lstrip": false,
      "rstrip": false,
      "normalized": false,
      "special": true
    },
    {
      "id": 436,
      "content": "<|reserved_436|>",
      "single_word": false,
      "lstrip": false,
      "rstrip": false,
      "normalized": false,
      "special": true
    },
    {
      "id": 437,
      "content": "<|reserved_437|>",
      "single_word": false,
      "lstrip": false,
      "rstrip": false,
      "normalized": false,
      "special": true
    },
    {
      "id": 438,
      "content": "<|reserved_438|>",
      "single_word": false,
      "lstrip": false,
      "rstrip": false,
      "normalized": false,
      "special": true
    },
    {
      "id": 439,
      "content": "<|reserved_439|>",
      "single_word": false,
      "lstrip": false,
      "rstrip": false,
      "normalized": false,
      "special": true
    },
    {
      "id": 440,
      "content": "<|reserved_440|>",
      "single_word": false,
      "lstrip": false,
      "rstrip": false,
      "normalized": false,
      "special": true
    },
    {
      "id": 441,
      "content": "<|reserved_441|>",
      "single_word": false,
      "lstrip": false,
      "rstrip": false,
      "normalized": false,
      "special": true
    },
    {
      "id": 442,
      "content": "<|reserved_442|>",
      "single_word": false,
      "lstrip": false,
      "rstrip": false,
      "normalized": false,
      "special": true
    },
    {
      "id": 443,
      "content": "<|reserved_443|>",
      "single_word": false,
      "lstrip": false,
      "rstrip": false,
      "normalized": false,
      "special": true
    },
    {
      "id": 444,
      "content": "<|reserved_444|>",
      "single_word": false,
      "lstrip": false,
      "rstrip": false,
      "normalized": false,
      "special": true
    },
    {
      "id": 445,
      "content": "<|reserved_445|>",
      "single_word": false,
      "lstrip": false,
      "rstrip": false,
      "normalized": false,
      "special": true
    },
    {
      "id": 446,
      "content": "<|reserved_446|>",
      "single_word": false,
      "lstrip": false,
      "rstrip": false,
      "normalized": false,
      "special": true
    },
    {
      "id": 447,
      "content": "<|reserved_447|>",
      "single_word": false,
      "lstrip": false,
      "rstrip": false,
      "normalized": false,
      "special": true
    },
    {
      "id": 448,
      "content": "<|reserved_448|>",
      "single_word": false,
      "lstrip": false,
      "rstrip": false,
      "normalized": false,
      "special": true
    },
    {
      "id": 449,
      "content": "<|reserved_449|>",
      "single_word": false,
      "lstrip": false,
      "rstrip": false,
      "normalized": false,
      "special": true
    },
    {
      "id": 450,
      "content": "<|reserved_450|>",
      "single_word": false,
      "lstrip": false,
      "rstrip": false,
      "normalized": false,
      "special": true
    },
    {
      "id": 451,
      "content": "<|reserved_451|>",
      "single_word": false,
      "lstrip": false,
      "rstrip": false,
      "normalized": false,
      "special": true
    },
    {
      "id": 452,
      "content": "<|reserved_452|>",
      "single_word": false,
      "lstrip": false,
      "rstrip": false,
      "normalized": false,
      "special": true
    },
    {
      "id": 453,
      "content": "<|reserved_453|>",
      "single_word": false,
      "lstrip": false,
      "rstrip": false,
      "normalized": false,
      "special": true
    },
    {
      "id": 454,
      "content": "<|reserved_454|>",
      "single_word": false,
      "lstrip": false,
      "rstrip": false,
      "normalized": false,
      "special": true
    },
    {
      "id": 455,
      "content": "<|reserved_455|>",
      "single_word": false,
      "lstrip": false,
      "rstrip": false,
      "normalized": false,
      "special": true
    },
    {
      "id": 456,
      "content": "<|reserved_456|>",
      "single_word": false,
      "lstrip": false,
      "rstrip": false,
      "normalized": false,
      "special": true
    },
    {
      "id": 457,
      "content": "<|reserved_457|>",
      "single_word": false,
      "lstrip": false,
      "rstrip": false,
      "normalized": false,
      "special": true
    },
    {
      "id": 458,
      "content": "<|reserved_458|>",
      "single_word": false,
      "lstrip": false,
      "rstrip": false,
      "normalized": false,
      "special": true
    },
    {
      "id": 459,
      "content": "<|reserved_459|>",
      "single_word": false,
      "lstrip": false,
      "rstrip": false,
      "normalized": false,
      "special": true
    },
    {
      "id": 460,
      "content": "<|reserved_460|>",
      "single_word": false,
      "lstrip": false,
      "rstrip": false,
      "normalized": false,
      "special": true
    },
    {
      "id": 461,
      "content": "<|reserved_461|>",
      "single_word": false,
      "lstrip": false,
      "rstrip": false,
      "normalized": false,
      "special": true
    },
    {
      "id": 462,
      "content": "<|reserved_462|>",
      "single_word": false,
      "lstrip": false,
      "rstrip": false,
      "normalized": false,
      "special": true
    },
    {
      "id": 463,
      "content": "<|reserved_463|>",
      "single_word": false,
      "lstrip": false,
      "rstrip": false,
      "normalized": false,
      "special": true
    },
    {
      "id": 464,
      "content": "<|reserved_464|>",
      "single_word": false,
      "lstrip": false,
      "rstrip": false,
      "normalized": false,
      "special": true
    },
    {
      "id": 465,
      "content": "<|reserved_465|>",
      "single_word": false,
      "lstrip": false,
      "rstrip": false,
      "normalized": false,
      "special": true
    },
    {
      "id": 466,
      "content": "<|reserved_466|>",
      "single_word": false,
      "lstrip": false,
      "rstrip": false,
      "normalized": false,
      "special": true
    },
    {
      "id": 467,
      "content": "<|reserved_467|>",
      "single_word": false,
      "lstrip": false,
      "rstrip": false,
      "normalized": false,
      "special": true
    },
    {
      "id": 468,
      "content": "<|reserved_468|>",
      "single_word": false,
      "lstrip": false,
      "rstrip": false,
      "normalized": false,
      "special": true
    },
    {
      "id": 469,
      "content": "<|reserved_469|>",
      "single_word": false,
      "lstrip": false,
      "rstrip": false,
      "normalized": false,
      "special": true
    },
    {
      "id": 470,
      "content": "<|reserved_470|>",
      "single_word": false,
      "lstrip": false,
      "rstrip": false,
      "normalized": false,
      "special": true
    },
    {
      "id": 471,
      "content": "<|reserved_471|>",
      "single_word": false,
      "lstrip": false,
      "rstrip": false,
      "normalized": false,
      "special": true
    },
    {
      "id": 472,
      "content": "<|reserved_472|>",
      "single_word": false,
      "lstrip": false,
      "rstrip": false,
      "normalized": false,
      "special": true
    },
    {
      "id": 473,
      "content": "<|reserved_473|>",
      "single_word": false,
      "lstrip": false,
      "rstrip": false,
      "normalized": false,
      "special": true
    },
    {
      "id": 474,
      "content": "<|reserved_474|>",
      "single_word": false,
      "lstrip": false,
      "rstrip": false,
      "normalized": false,
      "special": true
    },
    {
      "id": 475,
      "content": "<|reserved_475|>",
      "single_word": false,
      "lstrip": false,
      "rstrip": false,
      "normalized": false,
      "special": true
    },
    {
      "id": 476,
      "content": "<|reserved_476|>",
      "single_word": false,
      "lstrip": false,
      "rstrip": false,
      "normalized": false,
      "special": true
    },
    {
      "id": 477,
      "content": "<|reserved_477|>",
      "single_word": false,
      "lstrip": false,
      "rstrip": false,
      "normalized": false,
      "special": true
    },
    {
      "id": 478,
      "content": "<|reserved_478|>",
      "single_word": false,
      "lstrip": false,
      "rstrip": false,
      "normalized": false,
      "special": true
    },
    {
      "id": 479,
      "content": "<|reserved_479|>",
      "single_word": false,
      "lstrip": false,
      "rstrip": false,
      "normalized": false,
      "special": true
    },
    {
      "id": 480,
      "content": "<|reserved_480|>",
      "single_word": false,
      "lstrip": false,
      "rstrip": false,
      "normalized": false,
      "special": true
    },
    {
      "id": 481,
      "content": "<|reserved_481|>",
      "single_word": false,
      "lstrip": false,
      "rstrip": false,
      "normalized": false,
      "special": true
    },
    {
      "id": 482,
      "content": "<|reserved_482|>",
      "single_word": false,
      "lstrip": false,
      "rstrip": false,
      "normalized": false,
      "special": true
    },
    {
      "id": 483,
      "content": "<|reserved_483|>",
      "single_word": false,
      "lstrip": false,
      "rstrip": false,
      "normalized": false,
      "special": true
    },
    {
      "id": 484,
      "content": "<|reserved_484|>",
      "single_word": false,
      "lstrip": false,
      "rstrip": false,
      "normalized": false,
      "special": true
    },
    {
      "id": 485,
      "content": "<|reserved_485|>",
      "single_word": false,
      "lstrip": false,
      "rstrip": false,
      "normalized": false,
      "special": true
    },
    {
      "id": 486,
      "content": "<|reserved_486|>",
      "single_word": false,
      "lstrip": false,
      "rstrip": false,
      "normalized": false,
      "special": true
    },
    {
      "id": 487,
      "content": "<|reserved_487|>",
      "single_word": false,
      "lstrip": false,
      "rstrip": false,
      "normalized": false,
      "special": true
    },
    {
      "id": 488,
      "content": "<|reserved_488|>",
      "single_word": false,
      "lstrip": false,
      "rstrip": false,
      "normalized": false,
      "special": true
    },
    {
      "id": 489,
      "content": "<|reserved_489|>",
      "single_word": false,
      "lstrip": false,
      "rstrip": false,
      "normalized": false,
      "special": true
    },
    {
      "id": 490,
      "content": "<|reserved_490|>",
      "single_word": false,
      "lstrip": false,
      "rstrip": false,
      "normalized": false,
      "special": true
    },
    {
      "id": 491,
      "content": "<|reserved_491|>",
      "single_word": false,
      "lstrip": false,
      "rstrip": false,
      "normalized": false,
      "special": true
    },
    {
      "id": 492,
      "content": "<|reserved_492|>",
      "single_word": false,
      "lstrip": false,
      "rstrip": false,
      "normalized": false,
      "special": true
    },
    {
      "id": 493,
      "content": "<|reserved_493|>",
      "single_word": false,
      "lstrip": false,
      "rstrip": false,
      "normalized": false,
      "special": true
    },
    {
      "id": 494,
      "content": "<|reserved_494|>",
      "single_word": false,
      "lstrip": false,
      "rstrip": false,
      "normalized": false,
      "special": true
    },
    {
      "id": 495,
      "content": "<|reserved_495|>",
      "single_word": false,
      "lstrip": false,
      "rstrip": false,
      "normalized": false,
      "special": true
    },
    {
      "id": 496,
      "content": "<|reserved_496|>",
      "single_word": false,
      "lstrip": false,
      "rstrip": false,
      "normalized": false,
      "special": true
    },
    {
      "id": 497,
      "content": "<|reserved_497|>",
      "single_word": false,
      "lstrip": false,
      "rstrip": false,
      "normalized": false,
      "special": true
    },
    {
      "id": 498,
      "content": "<|reserved_498|>",
      "single_word": false,
      "lstrip": false,
      "rstrip": false,
      "normalized": false,
      "special": true
    },
    {
      "id": 499,
      "content": "<|reserved_499|>",
      "single_word": false,
      "lstrip": false,
      "rstrip": false,
      "normalized": false,
      "special": true
    },
    {
      "id": 500,
      "content": "<|reserved_500|>",
      "single_word": false,
      "lstrip": false,
      "rstrip": false,
      "normalized": false,
      "special": true
    },
    {
      "id": 501,
      "content": "<|reserved_501|>",
      "single_word": false,
      "lstrip": false,
      "rstrip": false,
      "normalized": false,
      "special": true
    },
    {
      "id": 502,
      "content": "<|reserved_502|>",
      "single_word": false,
      "lstrip": false,
      "rstrip": false,
      "normalized": false,
      "special": true
    },
    {
      "id": 503,
      "content": "<|reserved_503|>",
      "single_word": false,
      "lstrip": false,
      "rstrip": false,
      "normalized": false,
      "special": true
    },
    {
      "id": 504,
      "content": "<|reserved_504|>",
      "single_word": false,
      "lstrip": false,
      "rstrip": false,
      "normalized": false,
      "special": true
    },
    {
      "id": 505,
      "content": "<|reserved_505|>",
      "single_word": false,
      "lstrip": false,
      "rstrip": false,
      "normalized": false,
      "special": true
    },
    {
      "id": 506,
      "content": "<|reserved_506|>",
      "single_word": false,
      "lstrip": false,
      "rstrip": false,
      "normalized": false,
      "special": true
    },
    {
      "id": 507,
      "content": "<|reserved_507|>",
      "single_word": false,
      "lstrip": false,
      "rstrip": false,
      "normalized": false,
      "special": true
    },
    {
      "id": 508,
      "content": "<|reserved_508|>",
      "single_word": false,
      "lstrip": false,
      "rstrip": false,
      "normalized": false,
      "special": true
    },
    {
      "id": 509,
      "content": "<|reserved_509|>",
      "single_word": false,
      "lstrip": false,
      "rstrip": false,
      "normalized": false,
      "special": true
    },
    {
      "id": 510,
      "content": "<|reserved_510|>",
      "single_word": false,
      "lstrip": false,
      "rstrip": false,
      "normalized": false,
      "special": true
    },
    {
      "id": 511,
      "content": "<|reserved_511|>",
      "single_word": false,
      "lstrip": false,
      "rstrip": false,
      "normalized": false,
      "special": true
    }
  ],
  "normalizer": null,
  "pre_tokenizer": {
    "type": "ByteLevel",
    "add_prefix_space": false,
    "trim_offsets": true,
    "use_regex": true
  },
  "post_processor": null,
  "decoder": {
    "type": "ByteLevel",
    "add_prefix_space": true,
    "trim_offsets": true,
    "use_regex": true
  },
  "model": {
    "type": "BPE",
    "dropout": null,
    "unk_token": "<|unk|>",
    "continuing_subword_prefix": "",
    "end_of_word_suffix": "",
    "fuse_unk": false,
    "byte_fallback": true,
    "vocab": {
      "<|begin_of_text|>": 0,
      "<|end_of_text|>": 1,
      "<|chunk_sep|>": 2,
      "<|pad|>": 3,
      "<|unk|>": 4,
      "<|bos|>": 5,
      "<|eos|>": 6,
      "<|reserved_7|>": 7,
      "<|reserved_8|>": 8,
      "<|reserved_9|>": 9,
      "<|system|>": 10,
      "<|user|>": 11,
      "<|assistant|>": 12,
      "<|tool|>": 13,
      "<|reserved_14|>": 14,
      "<|reserved_15|>": 15,
      "<|reserved_16|>": 16,
      "<|reserved_17|>": 17,
      "<|reserved_18|>": 18,
      "<|reserved_19|>": 19,
      "<|code_begin|>": 20,
      "<|code_end|>": 21,
      "<|reserved_22|>": 22,
      "<|reserved_23|>": 23,
      "<|reserved_24|>": 24,
      "<|reserved_25|>": 25,
      "<|reserved_26|>": 26,
      "<|reserved_27|>": 27,
      "<|reserved_28|>": 28,
      "<|reserved_29|>": 29,
      "<|lang:python|>": 30,
      "<|lang:javascript|>": 31,
      "<|lang:typescript|>": 32,
      "<|lang:java|>": 33,
      "<|lang:c|>": 34,
      "<|lang:cpp|>": 35,
      "<|lang:csharp|>": 36,
      "<|lang:go|>": 37,
      "<|lang:rust|>": 38,
      "<|lang:ruby|>": 39,
      "<|lang:php|>": 40,
      "<|lang:swift|>": 41,
      "<|lang:kotlin|>": 42,
      "<|lang:scala|>": 43,
      "<|lang:r|>": 44,
      "<|lang:sql|>": 45,
      "<|lang:html|>": 46,
      "<|lang:css|>": 47,
      "<|lang:bash|>": 48,
      "<|lang:shell|>": 49,
      "<|json_begin|>": 50,
      "<|json_end|>": 51,
      "<|tool_call|>": 52,
      "<|tool_result|>": 53,
      "<|reserved_54|>": 54,
      "<|reserved_55|>": 55,
      "<|reserved_56|>": 56,
      "<|reserved_57|>": 57,
      "<|reserved_58|>": 58,
      "<|reserved_59|>": 59,
      "<|source:wikipedia|>": 60,
      "<|source:github|>": 61,
      "<|source:web|>": 62,
      "<|source:books|>": 63,
      "<|source:arxiv|>": 64,
      "<|source:stackexchange|>": 65,
      "<|reserved_66|>": 66,
      "<|reserved_67|>": 67,
      "<|reserved_68|>": 68,
      "<|reserved_69|>": 69,
      "<|think_begin|>": 70,
      "<|think_end|>": 71,
      "<|reason_begin|>": 72,
      "<|reason_end|>": 73,
      "<|reserved_74|>": 74,
      "<|reserved_75|>": 75,
      "<|reserved_76|>": 76,
      "<|reserved_77|>": 77,
      "<|reserved_78|>": 78,
      "<|reserved_79|>": 79,
      "<|markdown|>": 80,
      "<|latex|>": 81,
      "<|table|>": 82,
      "<|list|>": 83,
      "<|reserved_84|>": 84,
      "<|reserved_85|>": 85,
      "<|reserved_86|>": 86,
      "<|reserved_87|>": 87,
      "<|reserved_88|>": 88,
      "<|reserved_89|>": 89,
      "<|reserved_90|>": 90,
      "<|reserved_91|>": 91,
      "<|reserved_92|>": 92,
      "<|reserved_93|>": 93,
      "<|reserved_94|>": 94,
      "<|reserved_95|>": 95,
      "<|reserved_96|>": 96,
      "<|reserved_97|>": 97,
      "<|reserved_98|>": 98,
      "<|reserved_99|>": 99,
      "<|reserved_100|>": 100,
      "<|reserved_101|>": 101,
      "<|reserved_102|>": 102,
      "<|reserved_103|>": 103,
      "<|reserved_104|>": 104,
      "<|reserved_105|>": 105,
      "<|reserved_106|>": 106,
      "<|reserved_107|>": 107,
      "<|reserved_108|>": 108,
      "<|reserved_109|>": 109,
      "<|reserved_110|>": 110,
      "<|reserved_111|>": 111,
      "<|reserved_112|>": 112,
      "<|reserved_113|>": 113,
      "<|reserved_114|>": 114,
      "<|reserved_115|>": 115,
      "<|reserved_116|>": 116,
      "<|reserved_117|>": 117,
      "<|reserved_118|>": 118,
      "<|reserved_119|>": 119,
      "<|reserved_120|>": 120,
      "<|reserved_121|>": 121,
      "<|reserved_122|>": 122,
      "<|reserved_123|>": 123,
      "<|reserved_124|>": 124,
      "<|reserved_125|>": 125,
      "<|reserved_126|>": 126,
      "<|reserved_127|>": 127,
      "<|reserved_128|>": 128,
      "<|reserved_129|>": 129,
      "<|reserved_130|>": 130,
      "<|reserved_131|>": 131,
      "<|reserved_132|>": 132,
      "<|reserved_133|>": 133,
      "<|reserved_134|>": 134,
      "<|reserved_135|>": 135,
      "<|reserved_136|>": 136,
      "<|reserved_137|>": 137,
      "<|reserved_138|>": 138,
      "<|reserved_139|>": 139,
      "<|reserved_140|>": 140,
      "<|reserved_141|>": 141,
      "<|reserved_142|>": 142,
      "<|reserved_143|>": 143,
      "<|reserved_144|>": 144,
      "<|reserved_145|>": 145,
      "<|reserved_146|>": 146,
      "<|reserved_147|>": 147,
      "<|reserved_148|>": 148,
      "<|reserved_149|>": 149,
      "<|reserved_150|>": 150,
      "<|reserved_151|>": 151,
      "<|reserved_152|>": 152,
      "<|reserved_153|>": 153,
      "<|reserved_154|>": 154,
      "<|reserved_155|>": 155,
      "<|reserved_156|>": 156,
      "<|reserved_157|>": 157,
      "<|reserved_158|>": 158,
      "<|reserved_159|>": 159,
      "<|reserved_160|>": 160,
      "<|reserved_161|>": 161,
      "<|reserved_162|>": 162,
      "<|reserved_163|>": 163,
      "<|reserved_164|>": 164,
      "<|reserved_165|>": 165,
      "<|reserved_166|>": 166,
      "<|reserved_167|>": 167,
      "<|reserved_168|>": 168,
      "<|reserved_169|>": 169,
      "<|reserved_170|>": 170,
      "<|reserved_171|>": 171,
      "<|reserved_172|>": 172,
      "<|reserved_173|>": 173,
      "<|reserved_174|>": 174,
      "<|reserved_175|>": 175,
      "<|reserved_176|>": 176,
      "<|reserved_177|>": 177,
      "<|reserved_178|>": 178,
      "<|reserved_179|>": 179,
      "<|reserved_180|>": 180,
      "<|reserved_181|>": 181,
      "<|reserved_182|>": 182,
      "<|reserved_183|>": 183,
      "<|reserved_184|>": 184,
      "<|reserved_185|>": 185,
      "<|reserved_186|>": 186,
      "<|reserved_187|>": 187,
      "<|reserved_188|>": 188,
      "<|reserved_189|>": 189,
      "<|reserved_190|>": 190,
      "<|reserved_191|>": 191,
      "<|reserved_192|>": 192,
      "<|reserved_193|>": 193,
      "<|reserved_194|>": 194,
      "<|reserved_195|>": 195,
      "<|reserved_196|>": 196,
      "<|reserved_197|>": 197,
      "<|reserved_198|>": 198,
      "<|reserved_199|>": 199,
      "<|reserved_200|>": 200,
      "<|reserved_201|>": 201,
      "<|reserved_202|>": 202,
      "<|reserved_203|>": 203,
      "<|reserved_204|>": 204,
      "<|reserved_205|>": 205,
      "<|reserved_206|>": 206,
      "<|reserved_207|>": 207,
      "<|reserved_208|>": 208,
      "<|reserved_209|>": 209,
      "<|reserved_210|>": 210,
      "<|reserved_211|>": 211,
      "<|reserved_212|>": 212,
      "<|reserved_213|>": 213,
      "<|reserved_214|>": 214,
      "<|reserved_215|>": 215,
      "<|reserved_216|>": 216,
      "<|reserved_217|>": 217,
      "<|reserved_218|>": 218,
      "<|reserved_219|>": 219,
      "<|reserved_220|>": 220,
      "<|reserved_221|>": 221,
      "<|reserved_222|>": 222,
      "<|reserved_223|>": 223,
      "<|reserved_224|>": 224,
      "<|reserved_225|>": 225,
      "<|reserved_226|>": 226,
      "<|reserved_227|>": 227,
      "<|reserved_228|>": 228,
      "<|reserved_229|>": 229,
      "<|reserved_230|>": 230,
      "<|reserved_231|>": 231,
      "<|reserved_232|>": 232,
      "<|reserved_233|>": 233,
      "<|reserved_234|>": 234,
      "<|reserved_235|>": 235,
      "<|reserved_236|>": 236,
      "<|reserved_237|>": 237,
      "<|reserved_238|>": 238,
      "<|reserved_239|>": 239,
      "<|reserved_240|>": 240,
      "<|reserved_241|>": 241,
      "<|reserved_242|>": 242,
      "<|reserved_243|>": 243,
      "<|reserved_244|>": 244,
      "<|reserved_245|>": 245,
      "<|reserved_246|>": 246,
      "<|reserved_247|>": 247,
      "<|reserved_248|>": 248,
      "<|reserved_249|>": 249,
      "<|reserved_250|>": 250,
      "<|reserved_251|>": 251,
      "<|reserved_252|>": 252,
      "<|reserved_253|>": 253,
      "<|reserved_254|>": 254,
      "<|reserved_255|>": 255,
      "<|reserved_256|>": 256,
      "<|reserved_257|>": 257,
      "<|reserved_258|>": 258,
      "<|reserved_259|>": 259,
      "<|reserved_260|>": 260,
      "<|reserved_261|>": 261,
      "<|reserved_262|>": 262,
      "<|reserved_263|>": 263,
      "<|reserved_264|>": 264,
      "<|reserved_265|>": 265,
      "<|reserved_266|>": 266,
      "<|reserved_267|>": 267,
      "<|reserved_268|>": 268,
      "<|reserved_269|>": 269,
      "<|reserved_270|>": 270,
      "<|reserved_271|>": 271,
      "<|reserved_272|>": 272,
      "<|reserved_273|>": 273,
      "<|reserved_274|>": 274,
      "<|reserved_275|>": 275,
      "<|reserved_276|>": 276,
      "<|reserved_277|>": 277,
      "<|reserved_278|>": 278,
      "<|reserved_279|>": 279,
      "<|reserved_280|>": 280,
      "<|reserved_281|>": 281,
      "<|reserved_282|>": 282,
      "<|reserved_283|>": 283,
      "<|reserved_284|>": 284,
      "<|reserved_285|>": 285,
      "<|reserved_286|>": 286,
      "<|reserved_287|>": 287,
      "<|reserved_288|>": 288,
      "<|reserved_289|>": 289,
      "<|reserved_290|>": 290,
      "<|reserved_291|>": 291,
      "<|reserved_292|>": 292,
      "<|reserved_293|>": 293,
      "<|reserved_294|>": 294,
      "<|reserved_295|>": 295,
      "<|reserved_296|>": 296,
      "<|reserved_297|>": 297,
      "<|reserved_298|>": 298,
      "<|reserved_299|>": 299,
      "<|reserved_300|>": 300,
      "<|reserved_301|>": 301,
      "<|reserved_302|>": 302,
      "<|reserved_303|>": 303,
      "<|reserved_304|>": 304,
      "<|reserved_305|>": 305,
      "<|reserved_306|>": 306,
      "<|reserved_307|>": 307,
      "<|reserved_308|>": 308,
      "<|reserved_309|>": 309,
      "<|reserved_310|>": 310,
      "<|reserved_311|>": 311,
      "<|reserved_312|>": 312,
      "<|reserved_313|>": 313,
      "<|reserved_314|>": 314,
      "<|reserved_315|>": 315,
      "<|reserved_316|>": 316,
      "<|reserved_317|>": 317,
      "<|reserved_318|>": 318,
      "<|reserved_319|>": 319,
      "<|reserved_320|>": 320,
      "<|reserved_321|>": 321,
      "<|reserved_322|>": 322,
      "<|reserved_323|>": 323,
      "<|reserved_324|>": 324,
      "<|reserved_325|>": 325,
      "<|reserved_326|>": 326,
      "<|reserved_327|>": 327,
      "<|reserved_328|>": 328,
      "<|reserved_329|>": 329,
      "<|reserved_330|>": 330,
      "<|reserved_331|>": 331,
      "<|reserved_332|>": 332,
      "<|reserved_333|>": 333,
      "<|reserved_334|>": 334,
      "<|reserved_335|>": 335,
      "<|reserved_336|>": 336,
      "<|reserved_337|>": 337,
      "<|reserved_338|>": 338,
      "<|reserved_339|>": 339,
      "<|reserved_340|>": 340,
      "<|reserved_341|>": 341,
      "<|reserved_342|>": 342,
      "<|reserved_343|>": 343,
      "<|reserved_344|>": 344,
      "<|reserved_345|>": 345,
      "<|reserved_346|>": 346,
      "<|reserved_347|>": 347,
      "<|reserved_348|>": 348,
      "<|reserved_349|>": 349,
      "<|reserved_350|>": 350,
      "<|reserved_351|>": 351,
      "<|reserved_352|>": 352,
      "<|reserved_353|>": 353,
      "<|reserved_354|>": 354,
      "<|reserved_355|>": 355,
      "<|reserved_356|>": 356,
      "<|reserved_357|>": 357,
      "<|reserved_358|>": 358,
      "<|reserved_359|>": 359,
      "<|reserved_360|>": 360,
      "<|reserved_361|>": 361,
      "<|reserved_362|>": 362,
      "<|reserved_363|>": 363,
      "<|reserved_364|>": 364,
      "<|reserved_365|>": 365,
      "<|reserved_366|>": 366,
      "<|reserved_367|>": 367,
      "<|reserved_368|>": 368,
      "<|reserved_369|>": 369,
      "<|reserved_370|>": 370,
      "<|reserved_371|>": 371,
      "<|reserved_372|>": 372,
      "<|reserved_373|>": 373,
      "<|reserved_374|>": 374,
      "<|reserved_375|>": 375,
      "<|reserved_376|>": 376,
      "<|reserved_377|>": 377,
      "<|reserved_378|>": 378,
      "<|reserved_379|>": 379,
      "<|reserved_380|>": 380,
      "<|reserved_381|>": 381,
      "<|reserved_382|>": 382,
      "<|reserved_383|>": 383,
      "<|reserved_384|>": 384,
      "<|reserved_385|>": 385,
      "<|reserved_386|>": 386,
      "<|reserved_387|>": 387,
      "<|reserved_388|>": 388,
      "<|reserved_389|>": 389,
      "<|reserved_390|>": 390,
      "<|reserved_391|>": 391,
      "<|reserved_392|>": 392,
      "<|reserved_393|>": 393,
      "<|reserved_394|>": 394,
      "<|reserved_395|>": 395,
      "<|reserved_396|>": 396,
      "<|reserved_397|>": 397,
      "<|reserved_398|>": 398,
      "<|reserved_399|>": 399,
      "<|reserved_400|>": 400,
      "<|reserved_401|>": 401,
      "<|reserved_402|>": 402,
      "<|reserved_403|>": 403,
      "<|reserved_404|>": 404,
      "<|reserved_405|>": 405,
      "<|reserved_406|>": 406,
      "<|reserved_407|>": 407,
      "<|reserved_408|>": 408,
      "<|reserved_409|>": 409,
      "<|reserved_410|>": 410,
      "<|reserved_411|>": 411,
      "<|reserved_412|>": 412,
      "<|reserved_413|>": 413,
      "<|reserved_414|>": 414,
      "<|reserved_415|>": 415,
      "<|reserved_416|>": 416,
      "<|reserved_417|>": 417,
      "<|reserved_418|>": 418,
      "<|reserved_419|>": 419,
      "<|reserved_420|>": 420,
      "<|reserved_421|>": 421,
      "<|reserved_422|>": 422,
      "<|reserved_423|>": 423,
      "<|reserved_424|>": 424,
      "<|reserved_425|>": 425,
      "<|reserved_426|>": 426,
      "<|reserved_427|>": 427,
      "<|reserved_428|>": 428,
      "<|reserved_429|>": 429,
      "<|reserved_430|>": 430,
      "<|reserved_431|>": 431,
      "<|reserved_432|>": 432,
      "<|reserved_433|>": 433,
      "<|reserved_434|>": 434,
      "<|reserved_435|>": 435,
      "<|reserved_436|>": 436,
      "<|reserved_437|>": 437,
      "<|reserved_438|>": 438,
      "<|reserved_439|>": 439,
      "<|reserved_440|>": 440,
      "<|reserved_441|>": 441,
      "<|reserved_442|>": 442,
      "<|reserved_443|>": 443,
      "<|reserved_444|>": 444,
      "<|reserved_445|>": 445,
      "<|reserved_446|>": 446,
      "<|reserved_447|>": 447,
      "<|reserved_448|>": 448,
      "<|reserved_449|>": 449,
      "<|reserved_450|>": 450,
      "<|reserved_451|>": 451,
      "<|reserved_452|>": 452,
      "<|reserved_453|>": 453,
      "<|reserved_454|>": 454,
      "<|reserved_455|>": 455,
      "<|reserved_456|>": 456,
      "<|reserved_457|>": 457,
      "<|reserved_458|>": 458,
      "<|reserved_459|>": 459,
      "<|reserved_460|>": 460,
      "<|reserved_461|>": 461,
      "<|reserved_462|>": 462,
      "<|reserved_463|>": 463,
      "<|reserved_464|>": 464,
      "<|reserved_465|>": 465,
      "<|reserved_466|>": 466,
      "<|reserved_467|>": 467,
      "<|reserved_468|>": 468,
      "<|reserved_469|>": 469,
      "<|reserved_470|>": 470,
      "<|reserved_471|>": 471,
      "<|reserved_472|>": 472,
      "<|reserved_473|>": 473,
      "<|reserved_474|>": 474,
      "<|reserved_475|>": 475,
      "<|reserved_476|>": 476,
      "<|reserved_477|>": 477,
      "<|reserved_478|>": 478,
      "<|reserved_479|>": 479,
      "<|reserved_480|>": 480,
      "<|reserved_481|>": 481,
      "<|reserved_482|>": 482,
      "<|reserved_483|>": 483,
      "<|reserved_484|>": 484,
      "<|reserved_485|>": 485,
      "<|reserved_486|>": 486,
      "<|reserved_487|>": 487,
      "<|reserved_488|>": 488,
      "<|reserved_489|>": 489,
      "<|reserved_490|>": 490,
      "<|reserved_491|>": 491,
      "<|reserved_492|>": 492,
      "<|reserved_493|>": 493,
      "<|reserved_494|>": 494,
      "<|reserved_495|>": 495,
      "<|reserved_496|>": 496,
      "<|reserved_497|>": 497,
      "<|reserved_498|>": 498,
      "<|reserved_499|>": 499,
      "<|reserved_500|>": 500,
      "<|reserved_501|>": 501,
      "<|reserved_502|>": 502,
      "<|reserved_503|>": 503,
      "<|reserved_504|>": 504,
      "<|reserved_505|>": 505,
      "<|reserved_506|>": 506,
      "<|reserved_507|>": 507,
      "<|reserved_508|>": 508,
      "<|reserved_509|>": 509,
      "<|reserved_510|>": 510,
      "<|reserved_511|>": 511,
      "!": 512,
      "\"": 513,
      "#": 514,
      "$": 515,
      "%": 516,
      "&": 517,
      "'": 518,
      "(": 519,
      ")": 520,
      "*": 521,
      "+": 522,
      ",": 523,
      "-": 524,
      ".": 525,
      "/": 526,
      "0": 527,
      "1": 528,
      "2": 529,
      "3": 530,
      "4": 531,
      "5": 532,
      "6": 533,
      "7": 534,
      "8": 535,
      "9": 536,
      ":": 537,
      ";": 538,
      "<": 539,
      "=": 540,
      ">": 541,
      "?": 542,
      "@": 543,
      "A": 544,
      "B": 545,
      "C": 546,
      "D": 547,
      "E": 548,
      "F": 549,
      "G": 550,
      "H": 551,
      "I": 552,
      "J": 553,
      "K": 554,
      "L": 555,
      "M": 556,
      "N": 557,
      "O": 558,
      "P": 559,
      "Q": 560,
      "R": 561,
      "S": 562,
      "T": 563,
      "U": 564,
      "V": 565,
      "W": 566,
      "X": 567,
      "Y": 568,
      "Z": 569,
      "[": 570,
      "\\": 571,
      "]": 572,
      "^": 573,
      "_": 574,
      "`": 575,
      "a": 576,
      "b": 577,
      "c": 578,
      "d": 579,
      "e": 580,
      "f": 581,
      "g": 582,
      "h": 583,
      "i": 584,
      "j": 585,
      "k": 586,
      "l": 587,
      "m": 588,
      "n": 589,
      "o": 590,
      "p": 591,
      "q": 592,
      "r": 593,
      "s": 594,
      "t": 595,
      "u": 596,
      "v": 597,
      "w": 598,
      "x": 599,
      "y": 600,
      "z": 601,
      "{": 602,
      "|": 603,
      "}": 604,
      "~": 605,
      "¡": 606,
      "¢": 607,
      "£": 608,
      "¤": 609,
      "¥": 610,
      "¦": 611,
      "§": 612,
      "¨": 613,
      "©": 614,
      "ª": 615,
      "«": 616,
      "¬": 617,
      "®": 618,
      "¯": 619,
      "°": 620,
      "±": 621,
      "²": 622,
      "³": 623,
      "´": 624,
      "µ": 625,
      "¶": 626,
      "·": 627,
      "¸": 628,
      "¹": 629,
      "º": 630,
      "»": 631,
      "¼": 632,
      "½": 633,
      "¾": 634,
      "¿": 635,
      "À": 636,
      "Á": 637,
      "Â": 638,
      "Ã": 639,
      "Ä": 640,
      "Å": 641,
      "Æ": 642,
      "Ç": 643,
      "È": 644,
      "É": 645,
      "Ê": 646,
      "Ë": 647,
      "Ì": 648,
      "Í": 649,
      "Î": 650,
      "Ï": 651,
      "Ô": 652,
      "Õ": 653,
      "Ö": 654,
      "×": 655,
      "Ü": 656,
      "Ý": 657,
      "Þ": 658,
      "ß": 659,
      "à": 660,
      "á": 661,
      "â": 662,
      "î": 663,
      "ï": 664,
      "ð": 665,
      "ñ": 666,
      "ò": 667,
      "ó": 668,
      "ô": 669,
      "õ": 670,
      "ö": 671,
      "÷": 672,
      "ø": 673,
      "ù": 674,
      "ú": 675,
      "û": 676,
      "ü": 677,
      "ý": 678,
      "þ": 679,
      "ÿ": 680,
      "Ā": 681,
      "ā": 682,
      "Ă": 683,
      "ă": 684,
      "Ą": 685,
      "ą": 686,
      "Ć": 687,
      "ć": 688,
      "Ĉ": 689,
      "ĉ": 690,
      "Ċ": 691,
      "ċ": 692,
      "Č": 693,
      "č": 694,
      "Ď": 695,
      "ď": 696,
      "Đ": 697,
      "đ": 698,
      "Ē": 699,
      "ē": 700,
      "Ĕ": 701,
      "ĕ": 702,
      "Ė": 703,
      "ė": 704,
      "Ę": 705,
      "ę": 706,
      "Ě": 707,
      "ě": 708,
      "Ĝ": 709,
      "ĝ": 710,
      "Ğ": 711,
      "ğ": 712,
      "Ġ": 713,
      "ġ": 714,
      "Ģ": 715,
      "ģ": 716,
      "Ĥ": 717,
      "ĥ": 718,
      "Ħ": 719,
      "ħ": 720,
      "Ĩ": 721,
      "ĩ": 722,
      "Ī": 723,
      "ī": 724,
      "Ĭ": 725,
      "ĭ": 726,
      "Į": 727,
      "į": 728,
      "İ": 729,
      "ı": 730,
      "Ĳ": 731,
      "ĳ": 732,
      "Ĵ": 733,
      "ĵ": 734,
      "Ķ": 735,
      "ķ": 736,
      "ĸ": 737,
      "Ĺ": 738,
      "ĺ": 739,
      "Ļ": 740,
      "ļ": 741,
      "Ľ": 742,
      "ľ": 743,
      "Ŀ": 744,
      "ŀ": 745,
      "Ł": 746,
      "ł": 747,
      "Ń": 748,
      "ĠĠ": 749,
      "Ġt": 750,
      "in": 751,
      "Ġa": 752,
      "er": 753,
      "on": 754,
      "re": 755,
      "at": 756,
      "en": 757,
      "Ġs": 758,
      "or": 759,
      "Ġc": 760,
      "es": 761,
      "an": 762,
      "it": 763,
      "Ġp": 764,
      "is": 765,
      "al": 766,
      "he": 767,
      "ar": 768,
      "Ġw": 769,
      "Ġd": 770,
      "Ġf": 771,
      "le": 772,
      "ou": 773,
      "Ġo": 774,
      "Ġb": 775,
      "ed": 776,
      "ĠĠĠ": 777,
      "ĠĠĠĠ": 778,
      "ing": 779,
      "Ġm": 780,
      "ic": 781,
      "st": 782,
      "as": 783,
      "Ġth": 784,
      "Ġthe": 785,
      "el": 786,
      "ro": 787,
      "et": 788,
      "ent": 789,
      "Ġto": 790,
      "Ġof": 791,
      "Ġh": 792,
      "Ġn": 793,
      "Ġl": 794,
      "ct": 795,
      "om": 796,
      "nd": 797,
      "il": 798,
      "id": 799,
      "am": 800,
      "im": 801,
      "ĊĊ": 802,
      "Ġe": 803,
      "ad": 804,
      "Ġg": 805,
      "ol": 806,
      "ur": 807,
      "ut": 808,
      "ĠS": 809,
      "ot": 810,
      "âĢ": 811,
      "ig": 812,
      "Ġ(": 813,
      "Ġ=": 814,
      "ch": 815,
      "ĠT": 816,
      "ĠI": 817,
      "se": 818,
      "Ġde": 819,
      "Ġv": 820,
      "ĠA": 821,
      "ow": 822,
      "Ġy": 823,
      "ce": 824,
      "Ġan": 825,
      "Ġand": 826,
      "ĠC": 827,
      "if": 828,
      "ul": 829,
      "us": 830,
      "ay": 831,
      "un": 832,
      "em": 833,
      "od": 834,
      "Ġst": 835,
      "ly": 836,
      "Ġbe": 837,
      "Ġon": 838,
      "qu": 839,
      "iv": 840,
      "ag": 841,
      "ir": 842,
      "--": 843,
      "ab": 844,
      "th": 845,
      ";Ċ": 846,
      "ate": 847,
      "ĉĉ": 848,
      "ĠM": 849,
      "ac": 850,
      "um": 851,
      "ith": 852,
      "ĠP": 853,
      "os": 854,
      "ist": 855,
      "Ġ\"": 856,
      "est": 857,
      "Ġal": 858,
      "Ġ{": 859,
      "ers": 860,
      "ve": 861,
      "ver": 862,
      "pe": 863,
      "ĠB": 864,
      "Ġas": 865,
      "ort": 866,
      "Ġwh": 867,
      "ess": 868,
      "ap": 869,
      "and": 870,
      "ĠD": 871,
      "res": 872,
      "Ġr": 873,
      "Ġre": 874,
      "our": 875,
      "//": 876,
      "end": 877,
      "ĠF": 878,
      "ĠL": 879,
      "Ġse": 880,
      "op": 881,
      "Ġ*": 882,
      "ĠR": 883,
      "Ġor": 884,
      "ame": 885,
      "ra": 886,
      "ri": 887,
      "ue": 888,
      "ill": 889,
      "Ġhe": 890,
      "**": 891,
      "oc": 892,
      "out": 893,
      "ĠE": 894,
      "ĠH": 895,
      "rom": 896,
      "Ġ}": 897,
      "Ġex": 898,
      "Ġu": 899,
      "ant": 900,
      "ĠW": 901,
      "nt": 902,
      "ass": 903,
      "av": 904,
      "ub": 905,
      "ore": 906,
      "Ġ$": 907,
      "pt": 908,
      "ĠN": 909,
      "art": 910,
      "ht": 911,
      "ld": 912,
      "ĠG": 913,
      "ke": 914,
      "age": 915,
      "ity": 916,
      "ex": 917,
      "Ġat": 918,
      "Ġ'": 919,
      "âĢĻ": 920,
      "pl": 921,
      "Ġwe": 922,
      "Ġk": 923,
      "iz": 924,
      "Ġen": 925,
      "Ġ<": 926,
      "tr": 927,
      "ine": 928,
      "Ġle": 929,
      "int": 930,
      "ie": 931,
      "ies": 932,
      "og": 933,
      "Ġch": 934,
      "te": 935,
      "ter": 936,
      "Ġun": 937,
      "čĊ": 938,
      "Ġj": 939,
      "all": 940,
      "Ġby": 941,
      "ive": 942,
      "ure": 943,
      "()": 944,
      "Ġne": 945,
      "urn": 946,
      "ĠO": 947,
      "up": 948,
      "ud": 949,
      "Ġ{Ċ": 950,
      ")Ċ": 951,
      "ak": 952,
      "ind": 953,
      "Ġsh": 954,
      "ere": 955,
      "ult": 956,
      "ack": 957,
      "à¤": 958,
      "ost": 959,
      ",Ċ": 960,
      "ge": 961,
      "Ġ-": 962,
      "Ġtr": 963,
      "ard": 964,
      "orm": 965,
      "ust": 966,
      "ell": 967,
      "ip": 968,
      "ile": 969,
      "Ġus": 970,
      "Ã©": 971,
      "her": 972,
      "ia": 973,
      "ial": 974,
      "ff": 975,
      "cl": 976,
      "rou": 977,
      "ans": 978,
      "de": 979,
      "ck": 980,
      "ib": 981,
      "..": 982,
      "ast": 983,
      "per": 984,
      "act": 985,
      "ĠU": 986,
      "ide": 987,
      "are": 988,
      "ang": 989,
      "ich": 990,
      "get": 991,
      "ĠĠĠĠĠ": 992,
      "ome": 993,
      "ĠJ": 994,
      "ase": 995,
      "ew": 996,
      "ata": 997,
      "Ġpl": 998,
      "Ġsu": 999,
      "ice": 1000,
      "Ġab": 1001,
      "Ġres": 1002,
      "Ġi": 1003,
      "Ġin": 1004,
      "Ġis": 1005,
      "Ġit": 1006,
      "Ġif": 1007,
      "ime": 1008,
      "lo": 1009,
      "Ġdo": 1010,
      "ath": 1011,
      "ire": 1012,
      "Ġel": 1013,
      "elf": 1014,
      "Ġ\\": 1015,
      "=\"": 1016,
      "Ġall": 1017,
      "cc": 1018,
      "ord": 1019,
      "==": 1020,
      "Ġla": 1021,
      ").": 1022,
      "ace": 1023,
      "Ġpr": 1024,
      "Ġpro": 1025,
      "Ġme": 1026,
      "one": 1027,
      "Ġ|": 1028,
      "ated": 1029,
      "Ġim": 1030,
      "ok": 1031,
      "Ġcl": 1032,
      "ong": 1033,
      "##": 1034,
      "ite": 1035,
      "ign": 1036,
      "ach": 1037,
      "Ġnew": 1038,
      "ĠV": 1039,
      "Ġint": 1040,
      ">Ċ": 1041,
      "ĠTh": 1042,
      "ĠThe": 1043,
      "(\"": 1044,
      "ous": 1045,
      ";ĊĊ": 1046,
      "ary": 1047,
      "ne": 1048,
      "Ġha": 1049,
      "ens": 1050,
      "Ġad": 1051,
      "ert": 1052,
      "âĢĿ": 1053,
      "Ġso": 1054,
      "Ġ[": 1055,
      "ob": 1056,
      "ĠIn": 1057,
      "),": 1058,
      "->": 1059,
      "red": 1060,
      "ĠK": 1061,
      "Ġup": 1062,
      "ode": 1063,
      "Ġar": 1064,
      "Ġare": 1065,
      "ll": 1066,
      "gh": 1067,
      "Ġ&": 1068,
      "so": 1069,
      "Ġhas": 1070,
      "pp": 1071,
      "Ġ+": 1072,
      "\",": 1073,
      "ave": 1074,
      "Ġwhich": 1075,
      "áĥ": 1076,
      "du": 1077,
      "ake": 1078,
      "Ġgo": 1079,
      "ep": 1080,
      "ext": 1081,
      "In": 1082,
      "ress": 1083,
      "ont": 1084,
      "ory": 1085,
      "ï¼": 1086,
      "ple": 1087,
      "Ġone": 1088,
      "ph": 1089,
      "ize": 1090,
      "row": 1091,
      "ov": 1092,
      "Ġdes": 1093,
      "iew": 1094,
      "xt": 1095,
      "pr": 1096,
      "ry": 1097,
      "',": 1098,
      "ild": 1099,
      "ft": 1100,
      "Ã³": 1101,
      "ents": 1102,
      "erv": 1103,
      "ally": 1104,
      "to": 1105,
      "('": 1106,
      "</": 1107,
      "Ġte": 1108,
      "ose": 1109,
      "Ġno": 1110,
      "Ġnot": 1111,
      "Ġ:": 1112,
      "::": 1113,
      "ree": 1114,
      "Ġmy": 1115,
      "les": 1116,
      "Ġam": 1117,
      "str": 1118,
      "Ġpre": 1119,
      "'s": 1120,
      "ĠSt": 1121,
      "vel": 1122,
      "own": 1123,
      "ors": 1124,
      "Ġsa": 1125,
      "igh": 1126,
      "ight": 1127,
      "eg": 1128,
      "Ġsp": 1129,
      "ĠY": 1130,
      "ull": 1131,
      "Ġ}Ċ": 1132,
      "pro": 1133,
      "ely": 1134,
      "ings": 1135,
      "der": 1136,
      "we": 1137,
      "Ġro": 1138,
      "Ġ/": 1139,
      "Ġ//": 1140,
      "ish": 1141,
      "Ġany": 1142,
      "__": 1143,
      "à¦": 1144,
      "ink": 1145,
      "eth": 1146,
      "Ġwho": 1147,
      "Ġhad": 1148,
      "ork": 1149,
      "Ġset": 1150,
      "very": 1151,
      "ru": 1152,
      "St": 1153,
      "Ġdef": 1154,
      ");": 1155,
      ");Ċ": 1156,
      "Ġstr": 1157,
      "Ġag": 1158,
      "ef": 1159,
      "Ġ@": 1160,
      "ÃŃ": 1161,
      "Ġli": 1162,
      "ays": 1163,
      "Ġlo": 1164,
      "ĠCh": 1165,
      "ick": 1166,
      "ater": 1167,
      "ark": 1168,
      "Ġwhe": 1169,
      "Ġwhen": 1170,
      "app": 1171,
      "io": 1172,
      "ion": 1173,
      "ction": 1174,
      "err": 1175,
      ";čĊ": 1176,
      "Ġem": 1177,
      "ix": 1178,
      "old": 1179,
      "Ġdel": 1180,
      "Ġher": 1181,
      "Ġthem": 1182,
      "ss": 1183,
      "Ġfe": 1184,
      "li": 1185,
      "lic": 1186,
      "ec": 1187,
      "ect": 1188,
      "à¥": 1189,
      "ug": 1190,
      "ng": 1191,
      "ER": 1192,
      "Ġ.": 1193,
      "ĠIt": 1194,
      "))": 1195,
      "ys": 1196,
      "yst": 1197,
      ".s": 1198,
      "Ġbo": 1199,
      "ove": 1200,
      "Ġpe": 1201,
      "Ġper": 1202,
      ":Ċ": 1203,
      "rit": 1204,
      "Ġsc": 1205,
      "âĢľ": 1206,
      "ange": 1207,
      "Ġinto": 1208,
      "ates": 1209,
      "ict": 1210,
      "iss": 1211,
      "ax": 1212,
      "Ġuse": 1213,
      "Ġoff": 1214,
      "Ġ#": 1215,
      "Ġadd": 1216,
      ".Ċ": 1217,
      ".ĊĊ": 1218,
      "{Ċ": 1219,
      "Ã¡": 1220,
      "ian": 1221,
      "ade": 1222,
      "ĉĉĉ": 1223,
      "ĉĉĉĉ": 1224,
      "Ġob": 1225,
      "ks": 1226,
      "à¸": 1227,
      "Ġ_": 1228,
      "Ġes": 1229,
      "}Ċ": 1230,
      "eng": 1231,
      "à°": 1232,
      "Ġwhat": 1233,
      "Ġz": 1234,
      "ise": 1235,
      "ock": 1236,
      "ps": 1237,
      "led": 1238,
      "IN": 1239,
      "enc": 1240,
      "ence": 1241,
      "Ġ=>": 1242,
      "gr": 1243,
      "set": 1244,
      "Ġbet": 1245,
      "que": 1246,
      "arg": 1247,
      "Ġass": 1248,
      "als": 1249,
      "Ġser": 1250,
      "Ġ==": 1251,
      "atch": 1252,
      "ik": 1253,
      "pec": 1254,
      "pect": 1255,
      "aw": 1256,
      "Ġap": 1257,
      "Ġapp": 1258,
      "anc": 1259,
      "ance": 1260,
      "bo": 1261,
      "ref": 1262,
      "clud": 1263,
      "_t": 1264,
      "ma": 1265,
      "Ġonly": 1266,
      "Ġco": 1267,
      "Ġcon": 1268,
      "Ġcom": 1269,
      "Ġcont": 1270,
      "Ġcol": 1271,
      "Ġ}ĊĊ": 1272,
      "ery": 1273,
      "dd": 1274,
      "ON": 1275,
      "round": 1276,
      "Ġest": 1277,
      "Ġrec": 1278,
      "ied": 1279,
      "{\\": 1280,
      "Ġreg": 1281,
      "Ġent": 1282,
      "Ġend": 1283,
      ".c": 1284,
      "ics": 1285,
      "ton": 1286,
      "ser": 1287,
      "Ġ*/": 1288,
      "ern": 1289,
      "Ġgr": 1290,
      "Ġshe": 1291,
      "Ġev": 1292,
      "Th": 1293,
      "The": 1294,
      "Ġbu": 1295,
      "Ġbut": 1296,
      "Ġrel": 1297,
      "Ġbl": 1298,
      "rough": 1299,
      "its": 1300,
      "add": 1301,
      "Ġph": 1302,
      "the": 1303,
      "ther": 1304,
      "Ġsub": 1305,
      "ms": 1306,
      "ier": 1307,
      "sh": 1308,
      "ource": 1309,
      "Re": 1310,
      "Ġthen": 1311,
      "ĠRe": 1312,
      "au": 1313,
      "Ġop": 1314,
      "_{": 1315,
      "alse": 1316,
      "ons": 1317,
      "']": 1318,
      "ĠUn": 1319,
      "ues": 1320,
      "Ãł": 1321,
      "\">": 1322,
      "def": 1323,
      "wo": 1324,
      ".p": 1325,
      "Ġrem": 1326,
      "ĠHe": 1327,
      "à´": 1328,
      "Ġind": 1329,
      "à²": 1330,
      "ces": 1331,
      "cess": 1332,
      "Ġkn": 1333,
      "Ġknow": 1334,
      "['": 1335,
      "Ġ</": 1336,
      "ĠWe": 1337,
      "ren": 1338,
      "Ġresult": 1339,
      "Ġx": 1340,
      ".\"": 1341,
      "erm": 1342,
      "ures": 1343,
      "rr": 1344,
      "ST": 1345,
      "Ġwhere": 1346,
      "Ã¨": 1347,
      "RE": 1348,
      "Id": 1349,
      "of": 1350,
      "Ġà": 1351,
      "Ġà¤": 1352,
      ");ĊĊ": 1353,
      "ash": 1354,
      "iff": 1355,
      "Ex": 1356,
      "AT": 1357,
      "ins": 1358,
      "}ĊĊ": 1359,
      "ages": 1360,
      "Ġfl": 1361,
      "ty": 1362,
      "rib": 1363,
      "Ġet": 1364,
      "ann": 1365,
      "Ġdi": 1366,
      "Ġdis": 1367,
      "Ġac": 1368,
      "Ġacc": 1369,
      "Ġact": 1370,
      "wn": 1371,
      "ices": 1372,
      "sp": 1373,
      "ven": 1374,
      "vent": 1375,
      "und": 1376,
      "Ġ!": 1377,
      "Ġsup": 1378,
      "Ġused": 1379,
      "Ġatt": 1380,
      "à®": 1381,
      "ute": 1382,
      ")ĊĊ": 1383,
      "Ġsee": 1384,
      "ond": 1385,
      "let": 1386,
      "nc": 1387,
      "Ã¤": 1388,
      "...": 1389,
      "Ġsm": 1390,
      "roup": 1391,
      "ased": 1392,
      "ody": 1393,
      "low": 1394,
      "ari": 1395,
      "ric": 1396,
      "itt": 1397,
      "Ġke": 1398,
      "\":": 1399,
      "ames": 1400,
      "ner": 1401,
      "uc": 1402,
      "uch": 1403,
      "Ġloc": 1404,
      "amp": 1405,
      "oy": 1406,
      "Ġext": 1407,
      "ah": 1408,
      "rop": 1409,
      "ank": 1410,
      "Ġsur": 1411,
      "iel": 1412,
      "ield": 1413,
      "hed": 1414,
      "ife": 1415,
      "co": 1416,
      "con": 1417,
      "com": 1418,
      "cont": 1419,
      "use": 1420,
      "Ġprov": 1421,
      "OR": 1422,
      "ale": 1423,
      "âĢ¦": 1424,
      "rol": 1425,
      "âĢĵ": 1426,
      "Ġid": 1427,
      "ily": 1428,
      "_p": 1429,
      "AR": 1430,
      "LE": 1431,
      "ten": 1432,
      "ta": 1433,
      "ID": 1434,
      "ars": 1435,
      "ĠĠĠĠĠĠ": 1436,
      "ĠĠĠĠĠĠĠĠ": 1437,
      "ĠĠĠĠĠĠĠ": 1438,
      "ĠĠĠĠĠĠĠĠĠ": 1439,
      "ek": 1440,
      "Ġdon": 1441,
      "az": 1442,
      "Ġ>": 1443,
      "uct": 1444,
      "Ġnow": 1445,
      "_s": 1446,
      "Ġlet": 1447,
      "âĢĻs": 1448,
      "son": 1449,
      "Ġcor": 1450,
      "irect": 1451,
      "Ġbec": 1452,
      "ml": 1453,
      "')": 1454,
      "\"Ċ": 1455,
      "ĠĊ": 1456,
      "key": 1457,
      "fo": 1458,
      "be": 1459,
      "ber": 1460,
      "new": 1461,
      "oth": 1462,
      "($": 1463,
      "any": 1464,
      "ĠIf": 1465,
      "imes": 1466,
      "Ġ×": 1467,
      "ines": 1468,
      "Ġusing": 1469,
      "ĠAl": 1470,
      "ense": 1471,
      "oll": 1472,
      "Ġed": 1473,
      "ts": 1474,
      "Ġits": 1475,
      "ats": 1476,
      "ĠÃ": 1477,
      "cond": 1478,
      "Ġwhile": 1479,
      "Ã¼": 1480,
      "ĠAn": 1481,
      "àª": 1482,
      "Ġdist": 1483,
      "ĠQ": 1484,
      "EN": 1485,
      "odel": 1486,
      "Ġdid": 1487,
      "Ġspe": 1488,
      "Ġspec": 1489,
      "\")": 1490,
      ",\"": 1491,
      "_c": 1492,
      "Ġav": 1493,
      "ced": 1494,
      "Ġbr": 1495,
      "log": 1496,
      "Ġbel": 1497,
      "Ġsol": 1498,
      "Ġ)": 1499,
      "arn": 1500,
      "sc": 1501,
      "Ġtra": 1502,
      "ants": 1503,
      "els": 1504,
      "Ġgu": 1505,
      "Ġdec": 1506,
      "):": 1507,
      "Ġhel": 1508,
      "Ġhelp": 1509,
      "'t": 1510,
      "me": 1511,
      "mer": 1512,
      "ited": 1513,
      "++": 1514,
      "fr": 1515,
      "Ġpres": 1516,
      "AL": 1517,
      "ask": 1518,
      "ci": 1519,
      "ĠAr": 1520,
      "ized": 1521,
      "Ġdet": 1522,
      "ets": 1523,
      "Ġmed": 1524,
      "ined": 1525,
      "aj": 1526,
      "che": 1527,
      "ĠSe": 1528,
      "raw": 1529,
      ".m": 1530,
      "Ch": 1531,
      "ym": 1532,
      "Ġimp": 1533,
      "âĢĶ": 1534,
      "SE": 1535,
      "ey": 1536,
      "Ġthey": 1537,
      "ĠAnd": 1538,
      "Ġref": 1539,
      "IT": 1540,
      "Ã§": 1541,
      "Ġ*/Ċ": 1542,
      "ĠWh": 1543,
      "\",Ċ": 1544,
      "ada": 1545,
      "Ġsom": 1546,
      "Ġsome": 1547,
      "_m": 1548,
      "()Ċ": 1549,
      "roll": 1550,
      "Res": 1551,
      "ote": 1552,
      "Ġtem": 1553,
      "Ġche": 1554,
      "Ġhere": 1555,
      "man": 1556,
      "ĠAs": 1557,
      "Ġles": 1558,
      "ule": 1559,
      "ider": 1560,
      "',Ċ": 1561,
      "user": 1562,
      "yp": 1563,
      "ype": 1564,
      "br": 1565,
      ".t": 1566,
      "].": 1567,
      "ole": 1568,
      "Ġstring": 1569,
      "ouse": 1570,
      "To": 1571,
      ");čĊ": 1572,
      "}\\": 1573,
      "oci": 1574,
      "tt": 1575,
      "ared": 1576,
      "ger": 1577,
      "ists": 1578,
      "Ġ%": 1579,
      "AN": 1580,
      "uth": 1581,
      "ush": 1582,
      "ateg": 1583,
      "á»": 1584,
      "ives": 1585,
      "Ġexp": 1586,
      "Ġexper": 1587,
      "Ġ?": 1588,
      "_f": 1589,
      "ĠEx": 1590,
      "ify": 1591,
      "Ġ--": 1592,
      "ĠDe": 1593,
      "ĠSh": 1594,
      "aus": 1595,
      "ause": 1596,
      "Ġbecause": 1597,
      "ample": 1598,
      ".C": 1599,
      "uss": 1600,
      "Ġtry": 1601,
      "hen": 1602,
      "Ġrep": 1603,
      "ĥ½": 1604,
      "over": 1605,
      "Ġsk": 1606,
      "../": 1607,
      "Ġdr": 1608,
      "Ġfr": 1609,
      "chn": 1610,
      "Ġra": 1611,
      "ĠX": 1612,
      "ism": 1613,
      "}}": 1614,
      "Ġ,": 1615,
      "Ġpo": 1616,
      "Ġpos": 1617,
      "Ġpol": 1618,
      "ww": 1619,
      "oo": 1620,
      "ood": 1621,
      "ool": 1622,
      "ook": 1623,
      "ract": 1624,
      "bs": 1625,
      "ervice": 1626,
      "orn": 1627,
      ".S": 1628,
      "ude": 1629,
      "amb": 1630,
      "Ġund": 1631,
      "We": 1632,
      "],": 1633,
      "yn": 1634,
      "erg": 1635,
      "ĠTr": 1636,
      "Ã¶": 1637,
      "clude": 1638,
      "cho": 1639,
      "col": 1640,
      "Ġcr": 1641,
      "Ġcre": 1642,
      "less": 1643,
      "Ġposs": 1644,
      ".f": 1645,
      "ĠZ": 1646,
      "arr": 1647,
      "Ġ`": 1648,
      "iness": 1649,
      "arm": 1650,
      "ĠÂ": 1651,
      "pre": 1652,
      "for": 1653,
      "form": 1654,
      "fore": 1655,
      "Ġmem": 1656,
      "().": 1657,
      "><": 1658,
      "ina": 1659,
      "inal": 1660,
      "iÃ³": 1661,
      "wh": 1662,
      "unt": 1663,
      "It": 1664,
      "ved": 1665,
      "ĊĠĠĠĠĠĠĠ": 1666,
      "Ġdisc": 1667,
      "ung": 1668,
      "alk": 1669,
      ".l": 1670,
      "Ġmet": 1671,
      "Ġkey": 1672,
      "à§": 1673,
      "eld": 1674,
      "Ġart": 1675,
      "Ġgl": 1676,
      "Ġret": 1677,
      "Ġsl": 1678,
      "_d": 1679,
      "ica": 1680,
      "ical": 1681,
      "Ġpost": 1682,
      "CT": 1683,
      "ves": 1684,
      "à¤¾": 1685,
      "att": 1686,
      "Ġserv": 1687,
      "ca": 1688,
      "ron": 1689,
      "tem": 1690,
      "Ġuser": 1691,
      "reg": 1692,
      "Ġtoo": 1693,
      "Ġaw": 1694,
      "Ġ&&": 1695,
      "Ġsay": 1696,
      "iver": 1697,
      "ivers": 1698,
      "},": 1699,
      "oss": 1700,
      "loc": 1701,
      "chool": 1702,
      "Ġva": 1703,
      "Ġval": 1704,
      "Ġvar": 1705,
      "\">Ċ": 1706,
      "ases": 1707,
      "item": 1708,
      "hes": 1709,
      "aut": 1710,
      "ior": 1711,
      "td": 1712,
      "ĊĠĠĠĠĠĠĠĠ": 1713,
      "Ġlog": 1714,
      ".A": 1715,
      ".h": 1716,
      "Ġ||": 1717,
      "arent": 1718,
      "Ġ!=": 1719,
      "ired": 1720,
      "oun": 1721,
      "ount": 1722,
      "ound": 1723,
      "':": 1724,
      "by": 1725,
      "ically": 1726,
      "ien": 1727,
      "ient": 1728,
      "ends": 1729,
      "ots": 1730,
      "oh": 1731,
      "opy": 1732,
      "ĊĠĠĠ": 1733,
      "tp": 1734,
      "Ġtop": 1735,
      "ado": 1736,
      "Ġuna": 1737,
      "ader": 1738,
      ".,": 1739,
      "url": 1740,
      "ler": 1741,
      "DE": 1742,
      "Ġarg": 1743,
      "ĠThey": 1744,
      "ency": 1745,
      "bl": 1746,
      "ble": 1747,
      "Int": 1748,
      "eta": 1749,
      "ava": 1750,
      "akes": 1751,
      "RO": 1752,
      "]Ċ": 1753,
      "Ġexpl": 1754,
      "čĊčĊ": 1755,
      "era": 1756,
      "_l": 1757,
      "Ġder": 1758,
      "ij": 1759,
      "By": 1760,
      "ott": 1761,
      "Ä±": 1762,
      "_b": 1763,
      "Ġdesign": 1764,
      "SS": 1765,
      "Ġprof": 1766,
      ".T": 1767,
      "ĠPl": 1768,
      "Ġrest": 1769,
      "ray": 1770,
      "='": 1771,
      "Tr": 1772,
      "fl": 1773,
      "rray": 1774,
      "rem": 1775,
      "Ġvari": 1776,
      ".d": 1777,
      "IC": 1778,
      "ager": 1779,
      "rc": 1780,
      "._": 1781,
      "Õ¡": 1782,
      "ET": 1783,
      "Ġpop": 1784,
      "ruct": 1785,
      "rent": 1786,
      "ram": 1787,
      "ane": 1788,
      "urs": 1789,
      "Ã©s": 1790,
      "ĠCl": 1791,
      "oot": 1792,
      "ĠInd": 1793,
      ".b": 1794,
      "ght": 1795,
      "Ġ**": 1796,
      "ience": 1797,
      "Ġ///": 1798,
      "mp": 1799,
      "Ġcomp": 1800,
      "ĠIs": 1801,
      "arge": 1802,
      "arget": 1803,
      "Ġide": 1804,
      "lock": 1805,
      "ety": 1806,
      "Im": 1807,
      ".D": 1808,
      "(f": 1809,
      "Ġexpect": 1810,
      "ee": 1811,
      "Ġmen": 1812,
      "org": 1813,
      "_C": 1814,
      "Ġdif": 1815,
      "Ġdiff": 1816,
      "Ġdiffere": 1817,
      "ĠRes": 1818,
      "Ġer": 1819,
      "UL": 1820,
      "html": 1821,
      "rror": 1822,
      "ĠLe": 1823,
      "Ġcontin": 1824,
      "ĠTo": 1825,
      "ES": 1826,
      "ĠÎ": 1827,
      "Ġfew": 1828,
      "**Ċ": 1829,
      "En": 1830,
      "ED": 1831,
      "à±": 1832,
      "Ġorg": 1833,
      "He": 1834,
      "AM": 1835,
      "Ġsw": 1836,
      "àµ": 1837,
      "inc": 1838,
      "ince": 1839,
      "As": 1840,
      "ĠSo": 1841,
      "acter": 1842,
      "Ġve": 1843,
      "Ġvery": 1844,
      "Ġver": 1845,
      "Ġerr": 1846,
      "Ġiss": 1847,
      "ived": 1848,
      "ĠOn": 1849,
      "cal": 1850,
      "Ġnon": 1851,
      "[\"": 1852,
      "ike": 1853,
      "ï¼Į": 1854,
      "(\\": 1855,
      "ai": 1856,
      "ain": 1857,
      "ail": 1858,
      "air": 1859,
      "ait": 1860,
      "Ġgoing": 1861,
      "rap": 1862,
      "raph": 1863,
      "ape": 1864,
      "Ġtw": 1865,
      "Ġtwo": 1866,
      "(Ċ": 1867,
      "ĠÃ©": 1868,
      "Ġless": 1869,
      "Al": 1870,
      "Ġcome": 1871,
      "Se": 1872,
      "ral": 1873,
      "ene": 1874,
      "ener": 1875,
      "ttp": 1876,
      "Ġà¦": 1877,
      "/*": 1878,
      "):Ċ": 1879,
      "nce": 1880,
      "[i": 1881,
      "Item": 1882,
      "da": 1883,
      "day": 1884,
      "();": 1885,
      "();Ċ": 1886,
      "la": 1887,
      "Ġadv": 1888,
      "Ġsy": 1889,
      "Ġbetter": 1890,
      "ĠAd": 1891,
      "Ã²": 1892,
      "Ġorgan": 1893,
      "Ġcheck": 1894,
      "gg": 1895,
      "rite": 1896,
      "ĉĉĉĉĉ": 1897,
      "php": 1898,
      "Ġrece": 1899,
      "An": 1900,
      "ump": 1901,
      "Ġ{čĊ": 1902,
      "ittle": 1903,
      "à¯": 1904,
      "((": 1905,
      "ĠInt": 1906,
      "Ġbeh": 1907,
      "Wh": 1908,
      "Ġopt": 1909,
      "ctions": 1910,
      "itch": 1911,
      "×Ļ": 1912,
      "Ġdie": 1913,
      "ĠAll": 1914,
      "Ġdev": 1915,
      ".F": 1916,
      "Ãº": 1917,
      "Ġbus": 1918,
      "fe": 1919,
      "fer": 1920,
      "UT": 1921,
      "ĠEn": 1922,
      "Ġtot": 1923,
      "={": 1924,
      "Ġca": 1925,
      "Ġcan": 1926,
      "Ġcall": 1927,
      "Ġcase": 1928,
      "Ġcar": 1929,
      "Ġcap": 1930,
      "Ġcal": 1931,
      "Ġcare": 1932,
      "Ind": 1933,
      "Ġ<<": 1934,
      "¦ģ": 1935,
      "ox": 1936,
      "eb": 1937,
      "Ġamb": 1938,
      "ences": 1939,
      "ache": 1940,
      "IS": 1941,
      "ĠFr": 1942,
      "ese": 1943,
      "Î±": 1944,
      "Ġbeg": 1945,
      "med": 1946,
      "Ġpot": 1947,
      "20": 1948,
      "ides": 1949,
      "ply": 1950,
      "Ġ__": 1951,
      "ources": 1952,
      "erc": 1953,
      "ĠPh": 1954,
      "Ġprom": 1955,
      "ĠEl": 1956,
      "If": 1957,
      "ards": 1958,
      "ands": 1959,
      "no": 1960,
      "not": 1961,
      "now": 1962,
      "Ġcle": 1963,
      "ho": 1964,
      "AC": 1965,
      "apt": 1966,
      "ours": 1967,
      "Ġeng": 1968,
      "Ġbusiness": 1969,
      "Âł": 1970,
      "ĠOr": 1971,
      "af": 1972,
      "aph": 1973,
      "Ġdep": 1974,
      "Ġleg": 1975,
      "iven": 1976,
      ".j": 1977,
      "idd": 1978,
      "sw": 1979,
      "Ġprot": 1980,
      "ances": 1981,
      "omen": 1982,
      "aces": 1983,
      "ift": 1984,
      "ev": 1985,
      "uro": 1986,
      "Ġask": 1987,
      "orth": 1988,
      "UR": 1989,
      "Ġbre": 1990,
      "Ġbreak": 1991,
      "uck": 1992,
      "rm": 1993,
      "na": 1994,
      "angu": 1995,
      "result": 1996,
      ":ĊĊ": 1997,
      "aps": 1998,
      "}{": 1999,
      "ĠPr": 2000,
      "ĠPro": 2001,
      "Un": 2002,
      "Ġenc": 2003,
      "Ã¥": 2004,
      "Ġinc": 2005,
      "Ġseem": 2006,
      "Ġvo": 2007,
      "Ġvol": 2008,
      "ze": 2009,
      "à¥ĩ": 2010,
      "iter": 2011,
      "Ġcho": 2012,
      "Õ¡Õ": 2013,
      "Ġlaw": 2014,
      "ĠUS": 2015,
      "AS": 2016,
      "\"]": 2017,
      "×ķ": 2018,
      "lick": 2019,
      "ird": 2020,
      "Ġsure": 2021,
      "On": 2022,
      "Ġlos": 2023,
      "Ġident": 2024,
      "ĠEng": 2025,
      ".P": 2026,
      "Ġsuper": 2027,
      "une": 2028,
      "Set": 2029,
      "à¤°": 2030,
      "leg": 2031,
      "Ġbro": 2032,
      "``": 2033,
      "Ġter": 2034,
      "Ġterm": 2035,
      "></": 2036,
      "ĠNo": 2037,
      "_P": 2038,
      "_S": 2039,
      "go": 2040,
      "ĠÃł": 2041,
      "_n": 2042,
      "ĠShe": 2043,
      "At": 2044,
      "\")Ċ": 2045,
      "ĠBe": 2046,
      "(s": 2047,
      "ĠSp": 2048,
      "ana": 2049,
      "off": 2050,
      "Ġben": 2051,
      "ĠAt": 2052,
      "iod": 2053,
      "à³": 2054,
      "Î¿": 2055,
      "^{": 2056,
      "Ġma": 2057,
      "Ġman": 2058,
      "Ġmay": 2059,
      "Ġmany": 2060,
      "Ġmat": 2061,
      "Ġmar": 2062,
      "Ġmark": 2063,
      "ĠĠĠĠĊ": 2064,
      "Ġexam": 2065,
      "Ġexample": 2066,
      "uf": 2067,
      "uff": 2068,
      "ux": 2069,
      "ÏĦ": 2070,
      "outh": 2071,
      "here": 2072,
      "Ġdem": 2073,
      "ĠÕ": 2074,
      "Cl": 2075,
      "irc": 2076,
      "ope": 2077,
      "aint": 2078,
      "ui": 2079,
      "pi": 2080,
      "ades": 2081,
      "ently": 2082,
      "Ġele": 2083,
      "(),": 2084,
      "define": 2085,
      "Ġvan": 2086,
      "Ġelect": 2087,
      "(t": 2088,
      "px": 2089,
      "ĠLa": 2090,
      "ury": 2091,
      "ĠBl": 2092,
      "ids": 2093,
      "box": 2094,
      "ï¼Ł": 2095,
      "OT": 2096,
      "oney": 2097,
      "Ã£": 2098,
      "ret": 2099,
      "return": 2100,
      "my": 2101,
      "AD": 2102,
      "unc": 2103,
      "HE": 2104,
      "_{\\": 2105,
      "ULL": 2106,
      "ĠTe": 2107,
      "Ġresults": 2108,
      "))Ċ": 2109,
      "Ġfre": 2110,
      "Ġfree": 2111,
      "_T": 2112,
      "Ġmax": 2113,
      "ero": 2114,
      ".âĢĿ": 2115,
      "ĠSc": 2116,
      "\"\"": 2117,
      "Ġlim": 2118,
      "Ġsum": 2119,
      "Ġdesc": 2120,
      "})": 2121,
      "'Ċ": 2122,
      "lete": 2123,
      "Ġlow": 2124,
      "ills": 2125,
      "aper": 2126,
      "Ġappe": 2127,
      "Ġ$\\": 2128,
      "ql": 2129,
      "-s": 2130,
      "Ġden": 2131,
      "ients": 2132,
      "Sh": 2133,
      "áº": 2134,
      "come": 2135,
      "ING": 2136,
      "áĥĲ": 2137,
      "Ġtre": 2138,
      "Ġ+=": 2139,
      "ĠIm": 2140,
      "ones": 2141,
      "Ġgot": 2142,
      "Ġexist": 2143,
      "âĢĻt": 2144,
      "][": 2145,
      "áĢ": 2146,
      "Ġfa": 2147,
      "Ġfam": 2148,
      "Ġfar": 2149,
      "Ġ/*": 2150,
      "à¥į": 2151,
      "Ġprovide": 2152,
      "ideo": 2153,
      "LO": 2154,
      "ï¼ģ": 2155,
      "lex": 2156,
      ".st": 2157,
      "uk": 2158,
      "Ġdone": 2159,
      "acy": 2160,
      "ules": 2161,
      "Ġda": 2162,
      "Ġday": 2163,
      "Ġdat": 2164,
      "Ġdata": 2165,
      "Ġdays": 2166,
      "Ġnet": 2167,
      "utes": 2168,
      ".W": 2169,
      "Ġant": 2170,
      "Ġactiv": 2171,
      "Ġwhy": 2172,
      "opt": 2173,
      "ams": 2174,
      "###": 2175,
      "####": 2176,
      "Ġprovid": 2177,
      "Ġtreat": 2178,
      "arc": 2179,
      "arch": 2180,
      "den": 2181,
      "Ġ*Ċ": 2182,
      "rows": 2183,
      "Index": 2184,
      "rest": 2185,
      ".L": 2186,
      "ised": 2187,
      "Ġdu": 2188,
      "00": 2189,
      "Ġlot": 2190,
      "Î¹": 2191,
      "enn": 2192,
      "source": 2193,
      "ĠThese": 2194,
      "Ġ->": 2195,
      "IM": 2196,
      "bre": 2197,
      "ohn": 2198,
      ".g": 2199,
      "iction": 2200,
      "Ġfac": 2201,
      "Ġfact": 2202,
      "aim": 2203,
      "ored": 2204,
      ".n": 2205,
      "Bo": 2206,
      "esc": 2207,
      "where": 2208,
      "De": 2209,
      "ered": 2210,
      "ĉf": 2211,
      "Ġknown": 2212,
      "ĠWhat": 2213,
      "Ġlik": 2214,
      "Ġlike": 2215,
      "ume": 2216,
      "ched": 2217,
      "ync": 2218,
      "icro": 2219,
      "IL": 2220,
      "ĊĠĠĠĠĠĠĠĠĠĠĠ": 2221,
      "),Ċ": 2222,
      "Ġred": 2223,
      "Ġredu": 2224,
      "ĠBy": 2225,
      "ĠMe": 2226,
      "Ġdiffer": 2227,
      "Ġdifferent": 2228,
      "AB": 2229,
      "eq": 2230,
      "equ": 2231,
      "pha": 2232,
      "(m": 2233,
      "reen": 2234,
      "Ġwr": 2235,
      "Ġwrit": 2236,
      "irt": 2237,
      "Ġsays": 2238,
      "try": 2239,
      "Ġstd": 2240,
      "Ġess": 2241,
      "uit": 2242,
      "heck": 2243,
      "And": 2244,
      "ales": 2245,
      "IG": 2246,
      "ips": 2247,
      "Ar": 2248,
      "....": 2249,
      "Ġbecome": 2250,
      "],Ċ": 2251,
      "Ġ(!": 2252,
      "Ġprob": 2253,
      "ï¼ī": 2254,
      "urch": 2255,
      "_M": 2256,
      "ript": 2257,
      "Or": 2258,
      "ured": 2259,
      "hor": 2260,
      "_st": 2261,
      "\".": 2262,
      "ley": 2263,
      "PE": 2264,
      "alt": 2265,
      "alth": 2266,
      "ino": 2267,
      "Ġsex": 2268,
      "umn": 2269,
      "../../": 2270,
      "tes": 2271,
      "test": 2272,
      "py": 2273,
      "Ġconc": 2274,
      "-b": 2275,
      ")čĊ": 2276,
      "ĠGr": 2277,
      "Ġpor": 2278,
      ".M": 2279,
      "Ġann": 2280,
      "Ġexc": 2281,
      "Ġcou": 2282,
      "Ġcount": 2283,
      "Ġcour": 2284,
      "<?": 2285,
      "FF": 2286,
      "Ġprop": 2287,
      "Ġproper": 2288,
      "irm": 2289,
      "ags": 2290,
      "ĠĠĠĠĠĠĠĠĠĠ": 2291,
      "ĠĠĠĠĠĠĠĠĠĠĠ": 2292,
      "ĠĠĠĠĠĠĠĠĠĠĠĠĠ": 2293,
      "ĠĠĠĠĠĠĠĠĠĠĠĠ": 2294,
      "US": 2295,
      "pty": 2296,
      "ĠIN": 2297,
      "Ġprote": 2298,
      "va": 2299,
      "val": 2300,
      "var": 2301,
      "Ġupon": 2302,
      "Ġcountry": 2303,
      "AP": 2304,
      "else": 2305,
      "Ġcomput": 2306,
      "What": 2307,
      "iet": 2308,
      "enu": 2309,
      ">ĊĊ": 2310,
      "riv": 2311,
      "')Ċ": 2312,
      "met": 2313,
      "resh": 2314,
      "(p": 2315,
      "Ġdue": 2316,
      "gen": 2317,
      "Ġey": 2318,
      "Ġ|Ċ": 2319,
      "www": 2320,
      "rid": 2321,
      "ride": 2322,
      "ds": 2323,
      "-m": 2324,
      ".G": 2325,
      "tn": 2326,
      "olum": 2327,
      "ENT": 2328,
      "Ġarr": 2329,
      "Qu": 2330,
      "Ġna": 2331,
      "mb": 2332,
      "Ġcomb": 2333,
      "ken": 2334,
      "Ġtri": 2335,
      "Ġpress": 2336,
      "à«": 2337,
      "Ġdest": 2338,
      "à¤¾à¤": 2339,
      "do": 2340,
      "mand": 2341,
      "All": 2342,
      "ida": 2343,
      "ilt": 2344,
      "Box": 2345,
      "ges": 2346,
      "alf": 2347,
      "aff": 2348,
      "Ġge": 2349,
      "Ġget": 2350,
      "Ġgen": 2351,
      "UN": 2352,
      "(c": 2353,
      "ackage": 2354,
      "ided": 2355,
      "cy": 2356,
      "OM": 2357,
      "Î½": 2358,
      "Ġels": 2359,
      "Ġelse": 2360,
      "ĠMy": 2361,
      "ĠAss": 2362,
      "Ġ()": 2363,
      "Pl": 2364,
      "ogn": 2365,
      "olean": 2366,
      "×Ļ×": 2367,
      "ĊĊĊ": 2368,
      "ĊĊĊĊ": 2369,
      "odes": 2370,
      "CH": 2371,
      "aken": 2372,
      "Ġbegin": 2373,
      "Ġà°": 2374,
      "Up": 2375,
      "Îµ": 2376,
      "Ã£o": 2377,
      "Ġresp": 2378,
      "Of": 2379,
      "erty": 2380,
      "AG": 2381,
      "Ġáĥ": 2382,
      "lu": 2383,
      "iles": 2384,
      "Ġlib": 2385,
      ".w": 2386,
      "ï¼ļ": 2387,
      "II": 2388,
      "Ġwhether": 2389,
      "db": 2390,
      "oud": 2391,
      "ypes": 2392,
      "Le": 2393,
      "agn": 2394,
      ",âĢĿ": 2395,
      "ĠQu": 2396,
      "ney": 2397,
      "ples": 2398,
      "ights": 2399,
      "×ķ×": 2400,
      "Äį": 2401,
      "lient": 2402,
      "Å¡": 2403,
      "Ġdiv": 2404,
      "();ĊĊ": 2405,
      "cer": 2406,
      "}.": 2407,
      "eral": 2408,
      "Ġseg": 2409,
      "iÃ³n": 2410,
      "ued": 2411,
      "ha": 2412,
      "hat": 2413,
      "ires": 2414,
      "clus": 2415,
      "api": 2416,
      "Ġclear": 2417,
      "ĉc": 2418,
      "vo": 2419,
      "ĠMed": 2420,
      "Ġoffer": 2421,
      "Ġseen": 2422,
      "Ġens": 2423,
      "}$": 2424,
      "cle": 2425,
      "ĠBr": 2426,
      "Ġmap": 2427,
      "Ġ{ĊĊ": 2428,
      "(n": 2429,
      "OL": 2430,
      "Ġabs": 2431,
      "yl": 2432,
      "yle": 2433,
      "ros": 2434,
      "ross": 2435,
      "net": 2436,
      "ites": 2437,
      "aged": 2438,
      "Ob": 2439,
      "áĥĺ": 2440,
      "map": 2441,
      "pen": 2442,
      "pend": 2443,
      "No": 2444,
      "Node": 2445,
      "Ġdate": 2446,
      "img": 2447,
      "ĠAb": 2448,
      "ama": 2449,
      "ĠOne": 2450,
      "Ġdom": 2451,
      "_F": 2452,
      "PI": 2453,
      "Ġson": 2454,
      "Ġten": 2455,
      "ĠDo": 2456,
      "OD": 2457,
      "\").": 2458,
      "Ġface": 2459,
      "ribut": 2460,
      "args": 2461,
      "à¹": 2462,
      "oto": 2463,
      "ĠFl": 2464,
      "elt": 2465,
      "Ġvarious": 2466,
      "icult": 2467,
      "áĥĲáĥ": 2468,
      "ara": 2469,
      "aram": 2470,
      "elp": 2471,
      "ria": 2472,
      "())": 2473,
      "])": 2474,
      "Ad": 2475,
      "Add": 2476,
      "Ġneg": 2477,
      "ĠNot": 2478,
      "ĠDr": 2479,
      "osp": 2480,
      "Ġ\"\"": 2481,
      "iversity": 2482,
      "àµį": 2483,
      "Ġpred": 2484,
      "./": 2485,
      "rel": 2486,
      "Ġàª": 2487,
      "lib": 2488,
      "Ġos": 2489,
      "ores": 2490,
      "ĉĉĉĉĉĉ": 2491,
      "Not": 2492,
      "Ġinte": 2493,
      "Ġinter": 2494,
      ",\\": 2495,
      "uto": 2496,
      "CE": 2497,
      "ici": 2498,
      "top": 2499,
      "OS": 2500,
      "iled": 2501,
      "ios": 2502,
      "ambda": 2503,
      "(d": 2504,
      "ians": 2505,
      "à¤¿": 2506,
      "cr": 2507,
      "cre": 2508,
      "cri": 2509,
      "cript": 2510,
      "tra": 2511,
      "sel": 2512,
      "self": 2513,
      "Ġgra": 2514,
      "Ref": 2515,
      "Result": 2516,
      "Ġmatch": 2517,
      "Ġsi": 2518,
      "Ġsim": 2519,
      "Ġsit": 2520,
      "Ġsite": 2521,
      "#define": 2522,
      "Ph": 2523,
      "El": 2524,
      "').": 2525,
      "ili": 2526,
      "Ġtook": 2527,
      "ĠGu": 2528,
      "ran": 2529,
      "ÖĢ": 2530,
      "olumn": 2531,
      "Ġsal": 2532,
      "ais": 2533,
      "Ġcoun": 2534,
      "ĠAm": 2535,
      "max": 2536,
      "lt": 2537,
      "Ġste": 2538,
      "Ġstep": 2539,
      "Ġcas": 2540,
      "fort": 2541,
      "à¥įà¤": 2542,
      "Ġweb": 2543,
      "Ġ:=": 2544,
      "Ġ($": 2545,
      "sk": 2546,
      "!!": 2547,
      "ledge": 2548,
      "elta": 2549,
      "Ġhab": 2550,
      "omb": 2551,
      "Ġil": 2552,
      "ĠReg": 2553,
      "-d": 2554,
      "ĠBo": 2555,
      ">čĊ": 2556,
      "Ġwhole": 2557,
      "à¯į": 2558,
      "bed": 2559,
      "ĠDes": 2560,
      "Ġdig": 2561,
      "ped": 2562,
      "Def": 2563,
      "Ġimm": 2564,
      "à¦¾": 2565,
      "Ġfri": 2566,
      "Ġfriend": 2567,
      "Ġsym": 2568,
      "atal": 2569,
      "isk": 2570,
      "ga": 2571,
      "gan": 2572,
      "option": 2573,
      "ĠMr": 2574,
      "Ġ((": 2575,
      "used": 2576,
      "Ġdidn": 2577,
      "Ġcomes": 2578,
      "Ġje": 2579,
      "Is": 2580,
      "ĠEd": 2581,
      "Ġage": 2582,
      "gl": 2583,
      "ele": 2584,
      "Ãª": 2585,
      "Ġmag": 2586,
      "htt": 2587,
      "http": 2588,
      "https": 2589,
      "Ġty": 2590,
      "Ġtype": 2591,
      "Ġtyp": 2592,
      "à¥Ģ": 2593,
      "anguage": 2594,
      "','": 2595,
      "ls": 2596,
      "ails": 2597,
      "Ġdam": 2598,
      "anks": 2599,
      "isc": 2600,
      "Ġvi": 2601,
      "Ġvis": 2602,
      "Â·": 2603,
      "ATE": 2604,
      "ando": 2605,
      "andom": 2606,
      "ops": 2607,
      "Ġwrite": 2608,
      "ief": 2609,
      "Ġq": 2610,
      "Ġqu": 2611,
      "Ġque": 2612,
      "Ġsupp": 2613,
      "Ġsupport": 2614,
      "sg": 2615,
      "ĠGe": 2616,
      "ĠGet": 2617,
      "Ġcond": 2618,
      "Ġidea": 2619,
      "\\\\": 2620,
      "df": 2621,
      "Ent": 2622,
      "ura": 2623,
      "ural": 2624,
      "}(": 2625,
      "ged": 2626,
      "},Ċ": 2627,
      "ĠCo": 2628,
      "ĠCom": 2629,
      "ĠCon": 2630,
      "ĠCol": 2631,
      "ĠCont": 2632,
      "icy": 2633,
      "ario": 2634,
      "js": 2635,
      "Ġbi": 2636,
      "Ġbig": 2637,
      "Ġbit": 2638,
      "Ġdise": 2639,
      "Ġsitu": 2640,
      "std": 2641,
      "iddle": 2642,
      "unch": 2643,
      "_D": 2644,
      "ias": 2645,
      "angle": 2646,
      "uffer": 2647,
      "Ġproperty": 2648,
      "Ġoption": 2649,
      "Ġoptions": 2650,
      "serv": 2651,
      "When": 2652,
      "_h": 2653,
      "ached": 2654,
      "*/": 2655,
      "Ġill": 2656,
      "TR": 2657,
      "bol": 2658,
      "ĠAdd": 2659,
      "ipp": 2660,
      "amed": 2661,
      "ĠSet": 2662,
      "ony": 2663,
      "umb": 2664,
      "PO": 2665,
      "?\"": 2666,
      "Ġà¤ķ": 2667,
      "ico": 2668,
      "icon": 2669,
      "Ġlikely": 2670,
      "aced": 2671,
      "Ġterms": 2672,
      "Ġ===": 2673,
      "men": 2674,
      "ment": 2675,
      "ments": 2676,
      "cd": 2677,
      "ows": 2678,
      ".e": 2679,
      "Ġoffic": 2680,
      "Ġsaf": 2681,
      "aves": 2682,
      "lem": 2683,
      "ML": 2684,
      "True": 2685,
      "plement": 2686,
      "za": 2687,
      "ted": 2688,
      "ected": 2689,
      "Ġlower": 2690,
      "md": 2691,
      "Ġsomeone": 2692,
      "So": 2693,
      "Ġsat": 2694,
      "Â»": 2695,
      "ona": 2696,
      "uel": 2697,
      "Ïģ": 2698,
      "Ġappear": 2699,
      "Em": 2700,
      "json": 2701,
      "je": 2702,
      "ises": 2703,
      "ened": 2704,
      "ĉĊ": 2705,
      "ille": 2706,
      "Ġadded": 2707,
      "_N": 2708,
      "ÅĤ": 2709,
      "Ġll": 2710,
      "asc": 2711,
      "Ġdepend": 2712,
      "rec": 2713,
      "rect": 2714,
      "Ġdeg": 2715,
      "lev": 2716,
      "untu": 2717,
      "oms": 2718,
      "ĠAN": 2719,
      "ords": 2720,
      "Ġprovided": 2721,
      "Ġcolumn": 2722,
      "IV": 2723,
      "Ġinde": 2724,
      "Ġindex": 2725,
      ")\\": 2726,
      "Ġetc": 2727,
      "ĠSte": 2728,
      "dev": 2729,
      "ln": 2730,
      "ĠÂ«": 2731,
      "ĠAp": 2732,
      "ĠApp": 2733,
      "-c": 2734,
      "oper": 2735,
      "Ġhav": 2736,
      "Ġhave": 2737,
      "Ġau": 2738,
      "Ġaut": 2739,
      "}_": 2740,
      "rown": 2741,
      "Ġclean": 2742,
      "omet": 2743,
      "Ġprotect": 2744,
      "rew": 2745,
      "Ġrad": 2746,
      "Õ¸": 2747,
      "Ġimpact": 2748,
      "Sc": 2749,
      "Ġloss": 2750,
      "Ġstre": 2751,
      "ols": 2752,
      "UE": 2753,
      "rint": 2754,
      "Ġrecent": 2755,
      "ounds": 2756,
      ".)": 2757,
      "rt": 2758,
      "vert": 2759,
      "Ġport": 2760,
      "ĠRep": 2761,
      "ĠĠĠĠĠĠĠĠĠĠĠĠĠĠ": 2762,
      "ĠĠĠĠĠĠĠĠĠĠĠĠĠĠĠĠ": 2763,
      "ĠĠĠĠĠĠĠĠĠĠĠĠĠĠĠ": 2764,
      "ĠĠĠĠĠĠĠĠĠĠĠĠĠĠĠĠĠ": 2765,
      "Ġ},": 2766,
      "Ġ},Ċ": 2767,
      "Ïĥ": 2768,
      "artment": 2769,
      "len": 2770,
      "_B": 2771,
      "create": 2772,
      "Ġlay": 2773,
      "Ġcompet": 2774,
      "ii": 2775,
      "ka": 2776,
      "anced": 2777,
      "Ġrow": 2778,
      "yles": 2779,
      "Ġsus": 2780,
      "Ġur": 2781,
      "ialog": 2782,
      "Å¾": 2783,
      "Ġexpected": 2784,
      "_A": 2785,
      "Ġ)Ċ": 2786,
      "istr": 2787,
      "Ġtool": 2788,
      "Ġregard": 2789,
      "LL": 2790,
      "open": 2791,
      "\\n": 2792,
      "Ġbuy": 2793,
      "gy": 2794,
      "({": 2795,
      "lim": 2796,
      "see": 2797,
      "cause": 2798,
      "\"ĊĊ": 2799,
      "();čĊ": 2800,
      "TE": 2801,
      ".r": 2802,
      ".re": 2803,
      "atform": 2804,
      "Ġdecl": 2805,
      "ador": 2806,
      "sm": 2807,
      "Ġ]": 2808,
      "po": 2809,
      "pon": 2810,
      "pos": 2811,
      "por": 2812,
      "port": 2813,
      "pose": 2814,
      "post": 2815,
      "pond": 2816,
      "uid": 2817,
      ")(": 2818,
      "itz": 2819,
      "ĠThen": 2820,
      "Ġsem": 2821,
      "ba": 2822,
      "bar": 2823,
      "aci": 2824,
      "IR": 2825,
      "Ed": 2826,
      "Ġalt": 2827,
      "Ġ;": 2828,
      "_w": 2829,
      "Ġexact": 2830,
      "Ã±": 2831,
      "rs": 2832,
      "vers": 2833,
      "bers": 2834,
      "ters": 2835,
      "Ġpers": 2836,
      "version": 2837,
      "Ġvers": 2838,
      "verse": 2839,
      "Ġà²": 2840,
      "Ġopp": 2841,
      "Ġvia": 2842,
      "Ġtrying": 2843,
      ".B": 2844,
      "Ġnp": 2845,
      "One": 2846,
      "âĢ¦âĢ¦": 2847,
      "Ġfriends": 2848,
      "EL": 2849,
      "unk": 2850,
      "EM": 2851,
      "local": 2852,
      "ÅŁ": 2853,
      "_r": 2854,
      "_re": 2855,
      "Äĥ": 2856,
      "oph": 2857,
      "ita": 2858,
      "ital": 2859,
      "itat": 2860,
      "Ġlen": 2861,
      "ĠGo": 2862,
      "ĠGod": 2863,
      "{čĊ": 2864,
      "posed": 2865,
      "Ġ\"\"\"": 2866,
      "Ġlas": 2867,
      "Ġlast": 2868,
      "NS": 2869,
      "ĠSch": 2870,
      "sl": 2871,
      "ports": 2872,
      ">>": 2873,
      "Ġ}čĊ": 2874,
      "Ġindust": 2875,
      "obj": 2876,
      "object": 2877,
      "ny": 2878,
      "mm": 2879,
      "Ġcomm": 2880,
      "Ġcommon": 2881,
      "comm": 2882,
      "Ġcommun": 2883,
      "Ġcommunity": 2884,
      "vol": 2885,
      "ula": 2886,
      "ular": 2887,
      "Ġhy": 2888,
      "ounc": 2889,
      "IP": 2890,
      "illed": 2891,
      "rawing": 2892,
      "Ġsn": 2893,
      "aven": 2894,
      "Ġce": 2895,
      "erence": 2896,
      "eps": 2897,
      "Ġdeb": 2898,
      "HT": 2899,
      "Ġasked": 2900,
      "ror": 2901,
      "Ġbox": 2902,
      "ils": 2903,
      "ches": 2904,
      "Ġesc": 2905,
      "Be": 2906,
      "Ġseems": 2907,
      "pm": 2908,
      "Ġago": 2909,
      "Ġ\\\\": 2910,
      "ican": 2911,
      "ĠNe": 2912,
      "ĠNew": 2913,
      "Ġcompan": 2914,
      "Ġcompany": 2915,
      "Ġaf": 2916,
      "Ġaff": 2917,
      "rag": 2918,
      "Ġsil": 2919,
      "hr": 2920,
      "\",\"": 2921,
      "umer": 2922,
      "mu": 2923,
      "rl": 2924,
      "cret": 2925,
      "Ġrepl": 2926,
      "áĥĶ": 2927,
      "UI": 2928,
      "Ġknowledge": 2929,
      "ĠDep": 2930,
      "sec": 2931,
      "-t": 2932,
      "([": 2933,
      "Ġengine": 2934,
      "Ġtreatment": 2935,
      "Ã¸": 2936,
      "\\\"": 2937,
      "à¤¿à¤": 2938,
      "inst": 2939,
      "Ġprotected": 2940,
      "ĉfor": 2941,
      "QL": 2942,
      "Ġdels": 2943,
      "Ġang": 2944,
      "ĠEm": 2945,
      "oute": 2946,
      "rary": 2947,
      "rip": 2948,
      "comp": 2949,
      "Ġlit": 2950,
      "Ġrese": 2951,
      "Ġresearch": 2952,
      "ĠĠĠĠ<": 2953,
      "ĉs": 2954,
      "lob": 2955,
      "ĠCor": 2956,
      "etail": 2957,
      "izer": 2958,
      "ato": 2959,
      "ator": 2960,
      "ators": 2961,
      "atory": 2962,
      "}čĊ": 2963,
      "dom": 2964,
      "(&": 2965,
      "mt": 2966,
      "oke": 2967,
      "oken": 2968,
      "à¨": 2969,
      "ja": 2970,
      "acc": 2971,
      "urg": 2972,
      "Ã°": 2973,
      "Ġcred": 2974,
      "Ġurl": 2975,
      "Ġusers": 2976,
      "ĠID": 2977,
      "ï¼Ī": 2978,
      "ĠAg": 2979,
      "Ġsix": 2980,
      "ustr": 2981,
      "hers": 2982,
      "Ġmo": 2983,
      "Ġmod": 2984,
      "Ġmon": 2985,
      "Ġmov": 2986,
      "Ġmove": 2987,
      "Ġmom": 2988,
      "Ġmot": 2989,
      "Ġmoney": 2990,
      "Ġmor": 2991,
      "Ġmore": 2992,
      "Ġmoment": 2993,
      "urr": 2994,
      "urre": 2995,
      "urrent": 2996,
      "||": 2997,
      "Ġnews": 2998,
      "Str": 2999,
      "String": 3000,
      "Ġbed": 3001,
      "rame": 3002,
      ":\"": 3003,
      ")$": 3004,
      "lin": 3005,
      "line": 3006,
      "ling": 3007,
      "Ġonline": 3008,
      "link": 3009,
      "Ġep": 3010,
      "ste": 3011,
      "stem": 3012,
      "ster": 3013,
      "ĠUp": 3014,
      "ĠIS": 3015,
      "àµįà´": 3016,
      "Ã³n": 3017,
      "Ġâ": 3018,
      "ĠâĢ": 3019,
      "ĠâĢľ": 3020,
      "ĠâĢĵ": 3021,
      "ĠâĢĶ": 3022,
      "ĠâĢĺ": 3023,
      "à§ĩ": 3024,
      "Ġbehind": 3025,
      "Ġpod": 3026,
      "Ġprovides": 3027,
      "ente": 3028,
      "enter": 3029,
      "UM": 3030,
      "(b": 3031,
      "Ġà´": 3032,
      "ua": 3033,
      "ual": 3034,
      "ually": 3035,
      "Ġsaw": 3036,
      "201": 3037,
      "-f": 3038,
      "OP": 3039,
      "Ġnom": 3040,
      "Ġir": 3041,
      "ĠOF": 3042,
      "ĠPe": 3043,
      "ĠPer": 3044,
      "oon": 3045,
      "\"/": 3046,
      "Ġprec": 3047,
      "web": 3048,
      "ya": 3049,
      "ns": 3050,
      "ions": 3051,
      "Ġcons": 3052,
      "Ġconst": 3053,
      "Ġins": 3054,
      "Ġinst": 3055,
      "ains": 3056,
      "Ġinstance": 3057,
      "Ġconsum": 3058,
      "Ġinside": 3059,
      ",'": 3060,
      "ĠSm": 3061,
      "Ġbecame": 3062,
      "Ġswitch": 3063,
      "emb": 3064,
      "ora": 3065,
      "orage": 3066,
      "Ġcoll": 3067,
      "La": 3068,
      "Ġdoc": 3069,
      "ervices": 3070,
      "gether": 3071,
      "ista": 3072,
      "Õ¥": 3073,
      "CC": 3074,
      "ners": 3075,
      "Ġeyes": 3076,
      "Ġdim": 3077,
      "mat": 3078,
      "math": 3079,
      "mathb": 3080,
      "mathcal": 3081,
      "NA": 3082,
      "zy": 3083,
      "roy": 3084,
      "ĠNow": 3085,
      "airs": 3086,
      "ido": 3087,
      "ube": 3088,
      "Õ¶": 3089,
      "rg": 3090,
      "ĠSee": 3091,
      "adi": 3092,
      ".'": 3093,
      "ena": 3094,
      "ename": 3095,
      "anch": 3096,
      "IF": 3097,
      "Reg": 3098,
      "(i": 3099,
      "Ġaud": 3100,
      "Ġcy": 3101,
      "Ġenv": 3102,
      "ĠOb": 3103,
      "ems": 3104,
      "inu": 3105,
      "\");": 3106,
      "\");Ċ": 3107,
      "ï¼Ľ": 3108,
      "ymbol": 3109,
      "mar": 3110,
      "mary": 3111,
      "Ġobj": 3112,
      ".R": 3113,
      "ĠOR": 3114,
      "Ġtrad": 3115,
      "ourn": 3116,
      "Pr": 3117,
      "Pro": 3118,
      "ipe": 3119,
      "gu": 3120,
      "à¥ĭ": 3121,
      "ĠRed": 3122,
      "Ġsun": 3123,
      "Ġmode": 3124,
      "Ġmodel": 3125,
      "Ġmodels": 3126,
      ",čĊ": 3127,
      "}_{": 3128,
      "bf": 3129,
      "aily": 3130,
      "irtual": 3131,
      "Ġera": 3132,
      "efore": 3133,
      "Ġpret": 3134,
      "Ġ['": 3135,
      ".x": 3136,
      "Ġcontinu": 3137,
      "Ġcontinue": 3138,
      "=>": 3139,
      "Ġbegan": 3140,
      "Ġut": 3141,
      "ĊĠĠĠĠĠĠĠĠĠĠĠĠĠĠĠĠ": 3142,
      "My": 3143,
      "''": 3144,
      "Ġspeed": 3145,
      "ĠUs": 3146,
      "Ġprog": 3147,
      "pany": 3148,
      "(e": 3149,
      "ingle": 3150,
      "Ġaffect": 3151,
      "mark": 3152,
      "reet": 3153,
      "ailed": 3154,
      "selves": 3155,
      "Ġthemselves": 3156,
      "CO": 3157,
      "ĉm": 3158,
      "Ġactive": 3159,
      "(x": 3160,
      "(_": 3161,
      "Ġdisease": 3162,
      "Ġgre": 3163,
      "Ġgreat": 3164,
      "Ġcam": 3165,
      "Ġcame": 3166,
      "Ġcamp": 3167,
      "Ġfem": 3168,
      "Prop": 3169,
      "Ġalg": 3170,
      "à¤Ĥ": 3171,
      "pons": 3172,
      "ponse": 3173,
      "Ġconsist": 3174,
      "à±į": 3175,
      "áĥĶáĥ": 3176,
      "ĠDon": 3177,
      "```": 3178,
      "_g": 3179,
      ";čĊčĊ": 3180,
      "then": 3181,
      "medi": 3182,
      "Ġactivity": 3183,
      "rix": 3184,
      "Ġchoose": 3185,
      "Ġà®": 3186,
      "lambda": 3187,
      "ante": 3188,
      "Ġum": 3189,
      "aciÃ³": 3190,
      "ĠLet": 3191,
      "ini": 3192,
      "init": 3193,
      ">(": 3194,
      "Ġsec": 3195,
      "can": 3196,
      "irection": 3197,
      "gn": 3198,
      "Ġdog": 3199,
      "Ġargs": 3200,
      "anger": 3201,
      "Ġensure": 3202,
      "ÉĻ": 3203,
      "una": 3204,
      "Ġpa": 3205,
      "Ġpart": 3206,
      "Ġpar": 3207,
      "Ġpass": 3208,
      "Ġpat": 3209,
      "Ġpath": 3210,
      "Ġpay": 3211,
      "Ġpara": 3212,
      "Ġpast": 3213,
      "Ġparam": 3214,
      "Ġparts": 3215,
      "âĢŀ": 3216,
      "cel": 3217,
      "Ġtro": 3218,
      "izes": 3219,
      "ĠSer": 3220,
      "!\"": 3221,
      "EX": 3222,
      "rought": 3223,
      "ĠMc": 3224,
      "ÏĢ": 3225,
      "Ġdur": 3226,
      "Ġduring": 3227,
      "Ġspeak": 3228,
      "abs": 3229,
      "lying": 3230,
      "riter": 3231,
      "Ġheld": 3232,
      "Ġtravel": 3233,
      "tract": 3234,
      "${": 3235,
      "los": 3236,
      "lose": 3237,
      "ĠOf": 3238,
      "ano": 3239,
      "attle": 3240,
      "iers": 3241,
      "wer": 3242,
      "Ġwrong": 3243,
      "ĠSw": 3244,
      "uge": 3245,
      "Ġlab": 3246,
      "Ġlabel": 3247,
      "lege": 3248,
      "-p": 3249,
      "vey": 3250,
      "options": 3251,
      "à¦¾à¦": 3252,
      "ÏĤ": 3253,
      "Ġcapt": 3254,
      "à§į": 3255,
      "ĠDE": 3256,
      "bon": 3257,
      "Õ«": 3258,
      "ruction": 3259,
      "CL": 3260,
      "ella": 3261,
      "otes": 3262,
      "10": 3263,
      "TER": 3264,
      "Us": 3265,
      "Ġals": 3266,
      "Ġalso": 3267,
      "next": 3268,
      "Ġ[]": 3269,
      "ĠDef": 3270,
      "ERR": 3271,
      "nes": 3272,
      "ness": 3273,
      "ĠWhile": 3274,
      "×¨": 3275,
      "Ġdifference": 3276,
      "Ġax": 3277,
      "cale": 3278,
      "Ġnote": 3279,
      "];": 3280,
      "];Ċ": 3281,
      "Ġansw": 3282,
      "outer": 3283,
      "Ġtree": 3284,
      "Ġcompanies": 3285,
      "Now": 3286,
      "à¤¨": 3287,
      "des": 3288,
      "Ġauto": 3289,
      "Ġautom": 3290,
      "PS": 3291,
      "anged": 3292,
      "Ġlat": 3293,
      "Ġlate": 3294,
      "Ġlater": 3295,
      "Ġremain": 3296,
      "ocr": 3297,
      "Read": 3298,
      "_H": 3299,
      "Ġrele": 3300,
      "enced": 3301,
      "Arg": 3302,
      "rim": 3303,
      "Ġseu": 3304,
      "nav": 3305,
      "Ġuses": 3306,
      "ĠÄ": 3307,
      "Ġindepend": 3308,
      "Ġpan": 3309,
      "ĠOff": 3310,
      "Ġvir": 3311,
      "ĠHer": 3312,
      "erve": 3313,
      "erved": 3314,
      "Ġled": 3315,
      "phi": 3316,
      "sy": 3317,
      ".N": 3318,
      "ÃŃa": 3319,
      "TH": 3320,
      "cm": 3321,
      "ĠPre": 3322,
      "ĠPres": 3323,
      "FA": 3324,
      "Des": 3325,
      "OW": 3326,
      "PT": 3327,
      "Ġdri": 3328,
      "Ġparty": 3329,
      "UP": 3330,
      "]ĊĊ": 3331,
      "ĊĊĠĠĠ": 3332,
      "Ġ<=": 3333,
      "Ġdoor": 3334,
      "Ġdesigned": 3335,
      "ĠHere": 3336,
      "Ġones": 3337,
      "Ġemb": 3338,
      "Î·": 3339,
      "Ġmer": 3340,
      "Ġ>=": 3341,
      "eds": 3342,
      "Ġpas": 3343,
      "while": 3344,
      "ROM": 3345,
      "Ġcook": 3346,
      "Ġvon": 3347,
      "ĠArt": 3348,
      "icht": 3349,
      "Ġlost": 3350,
      "amm": 3351,
      "amma": 3352,
      "ART": 3353,
      "only": 3354,
      "pected": 3355,
      "ĠRec": 3356,
      "lay": 3357,
      "oe": 3358,
      "AME": 3359,
      "prop": 3360,
      "hel": 3361,
      "<<": 3362,
      "ech": 3363,
      ".ex": 3364,
      "Ġ/**": 3365,
      "Ġ/**Ċ": 3366,
      "PL": 3367,
      "ĠAND": 3368,
      "ham": 3369,
      "âĶ": 3370,
      "alle": 3371,
      "ĠII": 3372,
      "áĥĺáĥ": 3373,
      "inn": 3374,
      "\";": 3375,
      "\";Ċ": 3376,
      "Ġ~": 3377,
      "_\\": 3378,
      "ĉ}": 3379,
      "Ġgreen": 3380,
      "vi": 3381,
      "vid": 3382,
      "viron": 3383,
      "vironment": 3384,
      "vis": 3385,
      "Ġtemp": 3386,
      "Ġtemper": 3387,
      "Ġimmedi": 3388,
      "vec": 3389,
      "ĠRem": 3390,
      "âĢĺ": 3391,
      "\"><": 3392,
      "\"></": 3393,
      "Ġple": 3394,
      "attr": 3395,
      "ald": 3396,
      "Ġrev": 3397,
      "ni": 3398,
      ")}": 3399,
      "Ã¼r": 3400,
      "ae": 3401,
      "ORT": 3402,
      "Ġsch": 3403,
      "ĠST": 3404,
      "ĠCons": 3405,
      "env": 3406,
      "arse": 3407,
      "ao": 3408,
      "istry": 3409,
      "Ã¦": 3410,
      "imer": 3411,
      "DB": 3412,
      "Ġdrive": 3413,
      "-l": 3414,
      "Ġideas": 3415,
      "Ġwhose": 3416,
      "udo": 3417,
      "Ġreceive": 3418,
      "Ġreceived": 3419,
      "MS": 3420,
      "ĠDec": 3421,
      "Ġpet": 3422,
      "rad": 3423,
      "Ġveh": 3424,
      "Ġsci": 3425,
      "Ġscient": 3426,
      "aciÃ³n": 3427,
      "Ġcommit": 3428,
      "Ġune": 3429,
      "Ġdb": 3430,
      "ĠGl": 3431,
      "orts": 3432,
      "uly": 3433,
      "idge": 3434,
      "idget": 3435,
      "idad": 3436,
      "amet": 3437,
      "Ġcompon": 3438,
      "Ġcomponent": 3439,
      "Ġsold": 3440,
      "rench": 3441,
      "xi": 3442,
      "à¤ķ": 3443,
      "Ġoffers": 3444,
      "({Ċ": 3445,
      "Ġaccom": 3446,
      "which": 3447,
      "ota": 3448,
      "otal": 3449,
      "Ġord": 3450,
      "++)": 3451,
      "bor": 3452,
      "Ïħ": 3453,
      "Ġstream": 3454,
      "Source": 3455,
      "oved": 3456,
      "ĊĠĠĠĠĠĠĠĠĠĠĠĠĠĠĠ": 3457,
      "urt": 3458,
      "urther": 3459,
      "\"))": 3460,
      "aker": 3461,
      "bt": 3462,
      "xy": 3463,
      "arily": 3464,
      "Ġbehav": 3465,
      "iny": 3466,
      "aste": 3467,
      "aster": 3468,
      "Ã¢": 3469,
      "ĠFe": 3470,
      "Ġoffice": 3471,
      "aign": 3472,
      "SC": 3473,
      "ala": 3474,
      "hy": 3475,
      "_E": 3476,
      "'ve": 3477,
      "dr": 3478,
      "ĠAnt": 3479,
      "ournal": 3480,
      "mathbb": 3481,
      "arth": 3482,
      "'m": 3483,
      "Ġ(\"": 3484,
      "Ġ[Ċ": 3485,
      "ously": 3486,
      "gs": 3487,
      "Ġsafe": 3488,
      "ares": 3489,
      "Äĩ": 3490,
      "ĉb": 3491,
      "ocket": 3492,
      "Ġsin": 3493,
      "Ġsing": 3494,
      "Ġsingle": 3495,
      "alls": 3496,
      "ĠRead": 3497,
      "CK": 3498,
      "'.": 3499,
      "Ġchoice": 3500,
      "');": 3501,
      "');Ċ": 3502,
      "-\\": 3503,
      "zen": 3504,
      "ÄĻ": 3505,
      "ĠRE": 3506,
      ".de": 3507,
      "End": 3508,
      "ĠChe": 3509,
      "Ġfav": 3510,
      "Ġfavor": 3511,
      "term": 3512,
      "hi": 3513,
      "hip": 3514,
      "hib": 3515,
      "Ġdos": 3516,
      "swer": 3517,
      "Do": 3518,
      "Ġpressure": 3519,
      "à¦¿": 3520,
      "fs": 3521,
      "Ġanyone": 3522,
      "Rec": 3523,
      "ados": 3524,
      "Ġpel": 3525,
      "amples": 3526,
      "ribute": 3527,
      "Ġpen": 3528,
      "Ã½": 3529,
      "pg": 3530,
      ".to": 3531,
      "iam": 3532,
      "IO": 3533,
      "ION": 3534,
      "Ġhar": 3535,
      "Ġhard": 3536,
      "_e": 3537,
      "emp": 3538,
      "empt": 3539,
      "Ġattempt": 3540,
      "empl": 3541,
      "req": 3542,
      "yd": 3543,
      "Ġdistance": 3544,
      "uted": 3545,
      "à³į": 3546,
      "anel": 3547,
      "ANT": 3548,
      "Ġtools": 3549,
      "ells": 3550,
      "bu": 3551,
      "but": 3552,
      "button": 3553,
      "bug": 3554,
      "fa": 3555,
      "Ġcop": 3556,
      "Ġcopy": 3557,
      "ancy": 3558,
      "emplate": 3559,
      "rie": 3560,
      "ries": 3561,
      "ried": 3562,
      "riend": 3563,
      "Ġcountries": 3564,
      "Ġreve": 3565,
      "och": 3566,
      "URL": 3567,
      "$.": 3568,
      "Ġcat": 3569,
      "Ġcatch": 3570,
      "KE": 3571,
      "Ġ(Ċ": 3572,
      "loy": 3573,
      "ĠdÃ©": 3574,
      "hem": 3575,
      "à§įà¦": 3576,
      "Ġgreater": 3577,
      "aly": 3578,
      "ithub": 3579,
      ".$": 3580,
      "Ġ{\\": 3581,
      "Ġ*)": 3582,
      "asks": 3583,
      "ira": 3584,
      "nu": 3585,
      "num": 3586,
      "acters": 3587,
      "Ġscience": 3588,
      "cs": 3589,
      "Ġgoal": 3590,
      "ĠWeb": 3591,
      "ERT": 3592,
      "-g": 3593,
      "Entity": 3594,
      "ĠComp": 3595,
      "ictionary": 3596,
      "Ġchem": 3597,
      "illa": 3598,
      "kt": 3599,
      "{{": 3600,
      "itect": 3601,
      "mathbf": 3602,
      "MA": 3603,
      "ĠĠĊ": 3604,
      "ĠĠĠĠĠĠĠĠĊ": 3605,
      "Ġbroad": 3606,
      "Ġcool": 3607,
      "Ġmal": 3608,
      "Ġcommunic": 3609,
      "rypt": 3610,
      "Ġrelease": 3611,
      "oes": 3612,
      "_to": 3613,
      "xx": 3614,
      "ĠAc": 3615,
      "ĠAct": 3616,
      "ĠComm": 3617,
      "Ġing": 3618,
      "(l": 3619,
      "Ġsong": 3620,
      "%%": 3621,
      "_de": 3622,
      "irl": 3623,
      "_v": 3624,
      "Ġhelps": 3625,
      "lobal": 3626,
      "Ġrecently": 3627,
      "Ġgets": 3628,
      "rief": 3629,
      "Ġ(*": 3630,
      "ĠĠĠĠĠĠĠĠ<": 3631,
      "Ġcu": 3632,
      "Ġcur": 3633,
      "Ġcut": 3634,
      "Ġresource": 3635,
      "Ġresources": 3636,
      "eed": 3637,
      "Ġassum": 3638,
      "chem": 3639,
      "/s": 3640,
      "Ġcast": 3641,
      "has": 3642,
      "Ġqui": 3643,
      "Ġquick": 3644,
      "Ġquickly": 3645,
      "ression": 3646,
      "_L": 3647,
      "ĠStr": 3648,
      "ĠString": 3649,
      "ĉĉĉĉĉĉĉ": 3650,
      "ĉĉĉĉĉĉĉĉ": 3651,
      "iar": 3652,
      "_V": 3653,
      "enge": 3654,
      "Ã©e": 3655,
      ".y": 3656,
      "à¯įà®": 3657,
      "ees": 3658,
      "IB": 3659,
      "orge": 3660,
      "ugg": 3661,
      "exp": 3662,
      "tab": 3663,
      "())Ċ": 3664,
      "///": 3665,
      "////": 3666,
      "////////": 3667,
      "Ġbur": 3668,
      "Ġsou": 3669,
      "Ġsound": 3670,
      "Ġunt": 3671,
      "Ġuntil": 3672,
      "osed": 3673,
      "auth": 3674,
      "author": 3675,
      "SP": 3676,
      "Ġ\"\\": 3677,
      "mas": 3678,
      "enses": 3679,
      "ĠSu": 3680,
      "ĠSub": 3681,
      "ĠSup": 3682,
      "Ġdou": 3683,
      "clusion": 3684,
      "Ġdir": 3685,
      "Ġdirect": 3686,
      "Ġdire": 3687,
      "Ġdirectly": 3688,
      "HER": 3689,
      "INT": 3690,
      "Ġexactly": 3691,
      "ĠAng": 3692,
      "ky": 3693,
      "Ã¡s": 3694,
      "enty": 3695,
      "_,": 3696,
      "));": 3697,
      "));Ċ": 3698,
      "Ġgrand": 3699,
      "Ġsteps": 3700,
      "_O": 3701,
      "---": 3702,
      "----": 3703,
      "ĠEnd": 3704,
      "Ġcompar": 3705,
      "Ġrot": 3706,
      "ĠCO": 3707,
      "ĠCON": 3708,
      "ĠÃ©s": 3709,
      "Äħ": 3710,
      "erest": 3711,
      ".sh": 3712,
      "aled": 3713,
      "inct": 3714,
      "ola": 3715,
      "Ġwebs": 3716,
      "Ġwebsite": 3717,
      "Ġsaying": 3718,
      "âĢ¢": 3719,
      "__(": 3720,
      "eh": 3721,
      "ĉcase": 3722,
      "ques": 3723,
      "quest": 3724,
      "cons": 3725,
      "const": 3726,
      "Ġdemand": 3727,
      "Ġpredict": 3728,
      "/**": 3729,
      "/**Ċ": 3730,
      "ALL": 3731,
      "Ġcomfort": 3732,
      "call": 3733,
      "Ġassist": 3734,
      "Ġlayer": 3735,
      "Ġded": 3736,
      "atab": 3737,
      "how": 3738,
      "Ġnor": 3739,
      "Ġnorm": 3740,
      "ĉ\\": 3741,
      "IST": 3742,
      "Ġgrad": 3743,
      "×ľ": 3744,
      "pc": 3745,
      "Fl": 3746,
      "msg": 3747,
      "Ġcomponents": 3748,
      "Ġsurpr": 3749,
      "Ġhi": 3750,
      "Ġhis": 3751,
      "Ġhim": 3752,
      "Ġhist": 3753,
      "Ġhimself": 3754,
      "Ġhig": 3755,
      "Ġhigh": 3756,
      "Ġhigher": 3757,
      "Ġhit": 3758,
      "_ST": 3759,
      ".ph": 3760,
      ".php": 3761,
      "Ġuns": 3762,
      "ergy": 3763,
      "ilit": 3764,
      "ility": 3765,
      "ilities": 3766,
      "TP": 3767,
      "ris": 3768,
      "rist": 3769,
      "ĠSec": 3770,
      "urb": 3771,
      "-w": 3772,
      "ĠĊĊ": 3773,
      "ĠNS": 3774,
      "ULT": 3775,
      "Ġspect": 3776,
      "cor": 3777,
      "core": 3778,
      "Ġ\\(": 3779,
      "Ġflo": 3780,
      "Ġflow": 3781,
      "Ġfloat": 3782,
      "rict": 3783,
      "ani": 3784,
      "ett": 3785,
      "ette": 3786,
      "ĠDem": 3787,
      "btn": 3788,
      "Ġoptim": 3789,
      "dat": 3790,
      "data": 3791,
      "date": 3792,
      "ito": 3793,
      "itor": 3794,
      "Ġrepe": 3795,
      "ban": 3796,
      "uer": 3797,
      "Ġsafety": 3798,
      "semb": 3799,
      "uest": 3800,
      "ima": 3801,
      "imal": 3802,
      "oles": 3803,
      "àª¾": 3804,
      "elle": 3805,
      "à±įà°": 3806,
      "Bl": 3807,
      "ago": 3808,
      "ĠCheck": 3809,
      "sv": 3810,
      "à°¿": 3811,
      "AY": 3812,
      "iant": 3813,
      "INE": 3814,
      "oma": 3815,
      "oman": 3816,
      "LECT": 3817,
      "Ab": 3818,
      "empty": 3819,
      "ĉĉĊ": 3820,
      "IZ": 3821,
      "Let": 3822,
      "undred": 3823,
      "gt": 3824,
      "[:": 3825,
      "pa": 3826,
      "par": 3827,
      "pan": 3828,
      "part": 3829,
      "pat": 3830,
      "path": 3831,
      "Î»": 3832,
      "_.": 3833,
      "\"),": 3834,
      "ĠSk": 3835,
      "Ġexisting": 3836,
      "echo": 3837,
      "Ġbir": 3838,
      "duc": 3839,
      "duct": 3840,
      "acks": 3841,
      "rial": 3842,
      "Ġtend": 3843,
      "run": 3844,
      "ÖĤ": 3845,
      "etails": 3846,
      "mo": 3847,
      "mon": 3848,
      "mod": 3849,
      "Ġcomo": 3850,
      "ĠUse": 3851,
      "ĠUser": 3852,
      "overed": 3853,
      "nces": 3854,
      "BC": 3855,
      "uses": 3856,
      "zz": 3857,
      "pres": 3858,
      "press": 3859,
      "pression": 3860,
      "ĠCr": 3861,
      "ĠInc": 3862,
      "Ĥ¬": 3863,
      "band": 3864,
      "dated": 3865,
      "aches": 3866,
      "\\)": 3867,
      "ĠApr": 3868,
      "adem": 3869,
      "Ġserve": 3870,
      "Ġserver": 3871,
      "su": 3872,
      "sum": 3873,
      "sub": 3874,
      "ILE": 3875,
      "Ġhighly": 3876,
      "Ġindu": 3877,
      "//Ċ": 3878,
      "Ġsurv": 3879,
      "erver": 3880,
      "Ġnotice": 3881,
      "rivate": 3882,
      "arl": 3883,
      "arly": 3884,
      "Ġarm": 3885,
      "pare": 3886,
      "requ": 3887,
      "request": 3888,
      "Ġcounter": 3889,
      "inks": 3890,
      ".push": 3891,
      "number": 3892,
      "Ġmi": 3893,
      "Ġmin": 3894,
      "Ġmill": 3895,
      "Ġmind": 3896,
      "Ġmil": 3897,
      "Ġmit": 3898,
      "Ġmis": 3899,
      "Ġmiss": 3900,
      "Ġmid": 3901,
      "Ġmix": 3902,
      "ĠAf": 3903,
      "ĠAfter": 3904,
      "Ġeye": 3905,
      "Ġpow": 3906,
      "Ġpower": 3907,
      "mes": 3908,
      "])Ċ": 3909,
      "Ġswe": 3910,
      "():": 3911,
      "Ġcourt": 3912,
      "Ġnav": 3913,
      "ĠKe": 3914,
      "osa": 3915,
      "ITY": 3916,
      "Pre": 3917,
      "RI": 3918,
      "Ã«": 3919,
      "~~": 3920,
      "]{": 3921,
      "rot": 3922,
      "rote": 3923,
      "MP": 3924,
      "Ġadvant": 3925,
      "Ã©r": 3926,
      "cha": 3927,
      "char": 3928,
      "chan": 3929,
      "ford": 3930,
      "uns": 3931,
      "Ġcampaign": 3932,
      "iance": 3933,
      "ki": 3934,
      "Ġ'/": 3935,
      "ady": 3936,
      "Ġsites": 3937,
      "GL": 3938,
      "Ġmovement": 3939,
      "Ġou": 3940,
      "Ġout": 3941,
      "Ġour": 3942,
      "ĠSE": 3943,
      "Ġenh": 3944,
      "non": 3945,
      "Ap": 3946,
      "App": 3947,
      "Ġsea": 3948,
      "Ġobs": 3949,
      "Ġstri": 3950,
      "jo": 3951,
      "joy": 3952,
      "Ãµ": 3953,
      "Ġcore": 3954,
      "si": 3955,
      "ND": 3956,
      "Ġlatest": 3957,
      "ih": 3958,
      "ById": 3959,
      "Îº": 3960,
      "gar": 3961,
      "(r": 3962,
      "Ġbul": 3963,
      "oom": 3964,
      "ĠBro": 3965,
      "uts": 3966,
      "(-": 3967,
      "Ġjo": 3968,
      "Ġjob": 3969,
      "AGE": 3970,
      "Ġmagn": 3971,
      "$,": 3972,
      "Ġ\"/": 3973,
      "DF": 3974,
      ".Size": 3975,
      "Ġ(\\": 3976,
      "gle": 3977,
      "ĠPC": 3978,
      "aid": 3979,
      "sq": 3980,
      "sql": 3981,
      "AND": 3982,
      "avy": 3983,
      "-h": 3984,
      "ptr": 3985,
      "Ġfat": 3986,
      "FT": 3987,
      "patch": 3988,
      "FO": 3989,
      "à°¾": 3990,
      "ĠAS": 3991,
      "Ġpri": 3992,
      "Ġprim": 3993,
      "Ġprior": 3994,
      "Ġpriv": 3995,
      "ega": 3996,
      "Ġasync": 3997,
      "TO": 3998,
      "$$": 3999,
      "ĠGen": 4000,
      "Ġfarm": 4001,
      ".js": 4002,
      "Eng": 4003,
      "hab": 4004,
      "Ġwrote": 4005,
      "_R": 4006,
      "_RE": 4007,
      ".I": 4008,
      "wa": 4009,
      "way": 4010,
      "ways": 4011,
      "Ġalways": 4012,
      "AX": 4013,
      "Ġdriver": 4014,
      "AA": 4015,
      "Ġharm": 4016,
      "ĠNov": 4017,
      "ĠčĊ": 4018,
      "'),": 4019,
      "Ġfear": 4020,
      "uy": 4021,
      "Ġsurround": 4022,
      "aur": 4023,
      "icks": 4024,
      "ema": 4025,
      "email": 4026,
      "items": 4027,
      "mathrm": 4028,
      "Ġtrade": 4029,
      "Ġvolt": 4030,
      "Ġprem": 4031,
      "Ã§Ã£o": 4032,
      "She": 4033,
      "ben": 4034,
      "vas": 4035,
      "ĠSen": 4036,
      "(R": 4037,
      "They": 4038,
      "Ġ}čĊčĊ": 4039,
      "undle": 4040,
      "lig": 4041,
      "light": 4042,
      "Ġopin": 4043,
      "ĠAny": 4044,
      "Edit": 4045,
      "Ġpal": 4046,
      "Ġsen": 4047,
      "Ġsent": 4048,
      "Ġsens": 4049,
      "Ġsense": 4050,
      "Ġsend": 4051,
      "OK": 4052,
      "Ġbecomes": 4053,
      "Ġparams": 4054,
      "oder": 4055,
      "irth": 4056,
      "tx": 4057,
      "Ġauth": 4058,
      "Ġauthor": 4059,
      "ĠEX": 4060,
      "/c": 4061,
      "Ã¯": 4062,
      "*,": 4063,
      "module": 4064,
      "agon": 4065,
      "ï¼ļâĢľ": 4066,
      "PC": 4067,
      "×Ķ": 4068,
      "thers": 4069,
      "Ġvot": 4070,
      "Ġpref": 4071,
      "Ass": 4072,
      "Ġrat": 4073,
      "Ġrather": 4074,
      "Ġrate": 4075,
      "Off": 4076,
      "sim": 4077,
      "Ġ('": 4078,
      "Ġ::": 4079,
      "Ġrates": 4080,
      "}čĊčĊ": 4081,
      "âĢĶâĢĶ": 4082,
      "*)": 4083,
      ":(": 4084,
      "Ġsymbol": 4085,
      "RA": 4086,
      "/m": 4087,
      "à³įà²": 4088,
      "ĠTV": 4089,
      "Ġ''": 4090,
      "Ġmoving": 4091,
      "Ġsav": 4092,
      "Ġsave": 4093,
      "ignment": 4094,
      "ÄĽ": 4095,
      "19": 4096,
      "ials": 4097,
      "Ã´": 4098,
      "'],": 4099,
      "](": 4100,
      "cat": 4101,
      "Ġdecre": 4102,
      "Ġopport": 4103,
      "rue": 4104,
      "CA": 4105,
      "rees": 4106,
      "Î¼": 4107,
      "Ġsche": 4108,
      "ĠMet": 4109,
      "pri": 4110,
      "Ġmenu": 4111,
      "Ġlock": 4112,
      "\":\"": 4113,
      "ael": 4114,
      "raf": 4115,
      "raft": 4116,
      "mber": 4117,
      "Ġng": 4118,
      "ĠSun": 4119,
      "cp": 4120,
      "Ġ{}": 4121,
      "Ġreleased": 4122,
      "]:": 4123,
      "iva": 4124,
      "ival": 4125,
      "rome": 4126,
      "anges": 4127,
      "iced": 4128,
      "_G": 4129,
      "ĠUK": 4130,
      "Ġpy": 4131,
      "Ġzu": 4132,
      "car": 4133,
      "Ġdas": 4134,
      "Ġtor": 4135,
      "ĠEnt": 4136,
      "ello": 4137,
      "ellow": 4138,
      "Ġrob": 4139,
      "ums": 4140,
      "#if": 4141,
      "ĠTH": 4142,
      "ĠTHE": 4143,
      "alu": 4144,
      "alue": 4145,
      "ĉd": 4146,
      "bert": 4147,
      "Ġprep": 4148,
      "zer": 4149,
      "UG": 4150,
      "Ġidentify": 4151,
      "CD": 4152,
      "Ġment": 4153,
      "Ġmention": 4154,
      "Ġedge": 4155,
      "build": 4156,
      "ali": 4157,
      "Ġtu": 4158,
      "DA": 4159,
      "=$": 4160,
      "_ex": 4161,
      "Ġmas": 4162,
      "Ġmass": 4163,
      "Ġà¤¸": 4164,
      "DD": 4165,
      "Ġsust": 4166,
      "Ġnone": 4167,
      "Ġcredit": 4168,
      "rics": 4169,
      "Ġremains": 4170,
      "ye": 4171,
      "year": 4172,
      "}{\\": 4173,
      "Ã¨s": 4174,
      "ACK": 4175,
      "Ġexpert": 4176,
      ",-": 4177,
      "à¦°": 4178,
      "Ġwhom": 4179,
      "ĠBen": 4180,
      "NE": 4181,
      "ela": 4182,
      "rd": 4183,
      "Ġcard": 4184,
      "orks": 4185,
      "doc": 4186,
      "cles": 4187,
      "('/": 4188,
      "ORD": 4189,
      "Ġeth": 4190,
      "het": 4191,
      "hest": 4192,
      "iler": 4193,
      "ĠEs": 4194,
      "ĠEst": 4195,
      "Å¼": 4196,
      "Ġvert": 4197,
      "Ġdry": 4198,
      "()ĊĊ": 4199,
      "cher": 4200,
      "SD": 4201,
      "ivo": 4202,
      "Ġdro": 4203,
      "Ġdrop": 4204,
      "Ġsam": 4205,
      "Ġsame": 4206,
      "Ġmort": 4207,
      "LA": 4208,
      "UB": 4209,
      "Ġcontinued": 4210,
      "à´¿": 4211,
      "tag": 4212,
      "atever": 4213,
      "ĠRel": 4214,
      "Ġmes": 4215,
      "Ġmess": 4216,
      "Ġmessage": 4217,
      "lab": 4218,
      "label": 4219,
      "_W": 4220,
      "Ġok": 4221,
      "ifying": 4222,
      "ODE": 4223,
      "aa": 4224,
      "Ġwa": 4225,
      "Ġwas": 4226,
      "Ġway": 4227,
      "Ġwar": 4228,
      "Ġways": 4229,
      "Ġwarm": 4230,
      "Ġren": 4231,
      "Õ¸ÖĤ": 4232,
      "auto": 4233,
      "Ġappears": 4234,
      "Ġsets": 4235,
      "¥¿": 4236,
      "Ġlaws": 4237,
      "CTION": 4238,
      "rops": 4239,
      "Ġfloor": 4240,
      "icture": 4241,
      "Ġexists": 4242,
      "Ġho": 4243,
      "Ġhow": 4244,
      "Ġhot": 4245,
      "Ġhor": 4246,
      "Ġhom": 4247,
      "Ġhome": 4248,
      "Ġhon": 4249,
      "Ġhop": 4250,
      "Ġhope": 4251,
      "Ġhol": 4252,
      "Ġhold": 4253,
      "à¤¤": 4254,
      "cell": 4255,
      "pu": 4256,
      "put": 4257,
      "Ġoutput": 4258,
      "output": 4259,
      "ME": 4260,
      "ERROR": 4261,
      "áŀ": 4262,
      "ĠHT": 4263,
      "ĠNet": 4264,
      "ework": 4265,
      "tee": 4266,
      "ĠCong": 4267,
      "Ġcold": 4268,
      "Î¯": 4269,
      "ĠMo": 4270,
      "ĠMon": 4271,
      "ĠMod": 4272,
      "ĠMor": 4273,
      "ĠMore": 4274,
      "Ġcareer": 4275,
      ".Cont": 4276,
      "'))": 4277,
      "Ġ*/ĊĊ": 4278,
      "ĠBel": 4279,
      "ibr": 4280,
      "Ġcru": 4281,
      "ĠLaw": 4282,
      "ctx": 4283,
      "ronic": 4284,
      "ige": 4285,
      "igen": 4286,
      "';": 4287,
      "';Ċ": 4288,
      "';ĊĊ": 4289,
      "bum": 4290,
      "ĠAssoci": 4291,
      "Ġresist": 4292,
      "ĠÏĦ": 4293,
      "lich": 4294,
      "instance": 4295,
      "ĠAre": 4296,
      "Ġseemed": 4297,
      "lor": 4298,
      "Ġburn": 4299,
      "ĠPa": 4300,
      "ĠPar": 4301,
      "ĠPart": 4302,
      "ĠPat": 4303,
      "ĠPal": 4304,
      "igo": 4305,
      "ĠWhy": 4306,
      "css": 4307,
      "mi": 4308,
      "min": 4309,
      "mit": 4310,
      "Ġlimit": 4311,
      "ming": 4312,
      "Ġcoming": 4313,
      "coming": 4314,
      "eks": 4315,
      "eff": 4316,
      "(a": 4317,
      "{-": 4318,
      "12": 4319,
      "Ġteac": 4320,
      "Ġmaybe": 4321,
      "Ġsett": 4322,
      "Ġsetting": 4323,
      "Ġsettings": 4324,
      "PA": 4325,
      "}/": 4326,
      "comes": 4327,
      "ĠKey": 4328,
      "Ġvs": 4329,
      "âĶĢ": 4330,
      "Ġanti": 4331,
      "inese": 4332,
      "Ġfer": 4333,
      "Ġ>>": 4334,
      "Ġ\",": 4335,
      "TS": 4336,
      "Resource": 4337,
      "berg": 4338,
      "EE": 4339,
      "Ġinteg": 4340,
      "Ġintegr": 4341,
      "à²¿": 4342,
      "Ġmoved": 4343,
      "Am": 4344,
      "Ġja": 4345,
      "Ġjav": 4346,
      "Ġjava": 4347,
      "Ġjavax": 4348,
      "Ġexamples": 4349,
      "ĠSol": 4350,
      "login": 4351,
      "Ġhet": 4352,
      "RL": 4353,
      "Ġexplain": 4354,
      "Ġseek": 4355,
      "tau": 4356,
      "\");čĊ": 4357,
      "ĉt": 4358,
      "pet": 4359,
      "Ġmist": 4360,
      "gest": 4361,
      "Ġ-->": 4362,
      "Ġcontr": 4363,
      "Ġrom": 4364,
      "nb": 4365,
      "nbsp": 4366,
      "aved": 4367,
      "hern": 4368,
      "oice": 4369,
      "×Ĳ": 4370,
      "ĠJe": 4371,
      "ĠJes": 4372,
      "ĠJew": 4373,
      "Ġregarding": 4374,
      "Ġpresence": 4375,
      "iol": 4376,
      "itar": 4377,
      "cap": 4378,
      "Sp": 4379,
      "Me": 4380,
      "ione": 4381,
      "Ġhomes": 4382,
      "scope": 4383,
      "ĠÂ»": 4384,
      "ERS": 4385,
      "ĠBer": 4386,
      "uda": 4387,
      "endo": 4388,
      "IA": 4389,
      "Ġ$(": 4390,
      "iu": 4391,
      "ium": 4392,
      "ius": 4393,
      "buntu": 4394,
      "ĠTw": 4395,
      "Rem": 4396,
      "Ġbes": 4397,
      "Ġbest": 4398,
      "ras": 4399,
      "ipment": 4400,
      "ĠSur": 4401,
      "áĥĿ": 4402,
      "Ġcos": 4403,
      "Ġcost": 4404,
      "Ġcosts": 4405,
      "ĠDel": 4406,
      "Ġindependent": 4407,
      "_str": 4408,
      "ĠAcc": 4409,
      "grid": 4410,
      "vere": 4411,
      "ÃŁ": 4412,
      "Ġemp": 4413,
      "bsite": 4414,
      "){": 4415,
      "){Ċ": 4416,
      "GB": 4417,
      "Att": 4418,
      "olf": 4419,
      "Ġdiet": 4420,
      "osen": 4421,
      "ko": 4422,
      "While": 4423,
      "ĠEr": 4424,
      "Â°": 4425,
      "ugh": 4426,
      "ught": 4427,
      "bb": 4428,
      "ingu": 4429,
      "These": 4430,
      "Ġspent": 4431,
      "ĠRev": 4432,
      "ĠDi": 4433,
      "ĠDis": 4434,
      "column": 4435,
      "hol": 4436,
      "hold": 4437,
      "iana": 4438,
      "ĉp": 4439,
      "ĠÄĳ": 4440,
      "force": 4441,
      "(\"#": 4442,
      "Ġexpand": 4443,
      "_DE": 4444,
      "inf": 4445,
      "info": 4446,
      "ourse": 4447,
      "ocks": 4448,
      "rier": 4449,
      "ĠDev": 4450,
      "temp": 4451,
      "aul": 4452,
      "ault": 4453,
      "Ġdefault": 4454,
      "default": 4455,
      "Default": 4456,
      "Ġthr": 4457,
      "à¸²": 4458,
      "usr": 4459,
      "esh": 4460,
      "sem": 4461,
      "pret": 4462,
      "Ġpoll": 4463,
      "itary": 4464,
      "à±ģ": 4465,
      "\");ĊĊ": 4466,
      ":čĊ": 4467,
      "ango": 4468,
      "Dec": 4469,
      "asy": 4470,
      "nic": 4471,
      "*}": 4472,
      "partial": 4473,
      "rep": 4474,
      "Ġ++": 4475,
      "pol": 4476,
      "dt": 4477,
      "Ġmol": 4478,
      "Ġboy": 4479,
      "includ": 4480,
      "ooth": 4481,
      "ĠUN": 4482,
      "Ã©n": 4483,
      "ĠUI": 4484,
      "ĠPM": 4485,
      "ims": 4486,
      "oul": 4487,
      "ould": 4488,
      "rum": 4489,
      "Ġist": 4490,
      "(*": 4491,
      "ati": 4492,
      "atic": 4493,
      "atically": 4494,
      "(!": 4495,
      "ĠTO": 4496,
      "arp": 4497,
      "Ġdied": 4498,
      "di": 4499,
      "div": 4500,
      "dis": 4501,
      "dir": 4502,
      "<div": 4503,
      "Fe": 4504,
      "fol": 4505,
      "what": 4506,
      "ĠĠĠĠĠĠĠĠĠĠĠĠĠĠĠĠĠĠ": 4507,
      "ĠĠĠĠĠĠĠĠĠĠĠĠĠĠĠĠĠĠĠ": 4508,
      "ĠĠĠĠĠĠĠĠĠĠĠĠĠĠĠĠĠĠĠĠĠ": 4509,
      "ĠĠĠĠĠĠĠĠĠĠĠĠĠĠĠĠĠĠĠĠ": 4510,
      "Ġinsp": 4511,
      "Te": 4512,
      "}^{": 4513,
      "typ": 4514,
      "type": 4515,
      "ĠTra": 4516,
      "was": 4517,
      "Ġmental": 4518,
      "Ġadding": 4519,
      "Ġmovie": 4520,
      "rey": 4521,
      "omy": 4522,
      "Ġfo": 4523,
      "Ġfor": 4524,
      "Ġform": 4525,
      "Ġfol": 4526,
      "Ġfore": 4527,
      "Ġforms": 4528,
      "Ġforeign": 4529,
      "Ġfort": 4530,
      "ths": 4531,
      "ĉĠ": 4532,
      "à°¾à°": 4533,
      "river": 4534,
      "reme": 4535,
      "ker": 4536,
      "aby": 4537,
      "common": 4538,
      "eme": 4539,
      "XX": 4540,
      "CON": 4541,
      "Ġlif": 4542,
      "Ġlife": 4543,
      "inally": 4544,
      "card": 4545,
      "Ġsale": 4546,
      "Ġsales": 4547,
      "ĊĊĠĠĠĠĠĠĠ": 4548,
      "apers": 4549,
      "Ġpros": 4550,
      "ests": 4551,
      "('#": 4552,
      "ooks": 4553,
      "ĠReact": 4554,
      "Ġprepar": 4555,
      "uz": 4556,
      "elcome": 4557,
      "Ġacqu": 4558,
      ".*": 4559,
      "care": 4560,
      "BO": 4561,
      "ATA": 4562,
      "(C": 4563,
      "ĠAv": 4564,
      "ĠProp": 4565,
      "Ġfab": 4566,
      "ITH": 4567,
      "Ġvel": 4568,
      "ĠIP": 4569,
      "Ġesp": 4570,
      "ĠâĢ¦": 4571,
      "cribe": 4572,
      "Ġcart": 4573,
      "atis": 4574,
      ".__": 4575,
      "kn": 4576,
      "Ġstreng": 4577,
      "Ġstrength": 4578,
      "Ã©t": 4579,
      "ï¿": 4580,
      "pid": 4581,
      "ĠON": 4582,
      "Ġ=Ġ": 4583,
      "Ġpob": 4584,
      "Ext": 4585,
      ".v": 4586,
      "Ġ<?": 4587,
      "oted": 4588,
      "erman": 4589,
      "ĠPress": 4590,
      "PR": 4591,
      "=\\": 4592,
      "Ġhighest": 4593,
      "Ġ);": 4594,
      "Ġ);Ċ": 4595,
      "ĠDie": 4596,
      "region": 4597,
      ".Re": 4598,
      "Ġ\\Ċ": 4599,
      "ads": 4600,
      "Ġhyp": 4601,
      "sa": 4602,
      "(),Ċ": 4603,
      "Ġ${": 4604,
      "bi": 4605,
      "bit": 4606,
      "bin": 4607,
      "big": 4608,
      "ĠPy": 4609,
      "fty": 4610,
      "EC": 4611,
      "Top": 4612,
      "Ġà¸": 4613,
      "(name": 4614,
      "Ġterr": 4615,
      "ĠIl": 4616,
      "Ġom": 4617,
      "ups": 4618,
      "omes": 4619,
      "Ġvac": 4620,
      "Ġhat": 4621,
      "Ġsyn": 4622,
      "}ĊĊĊ": 4623,
      "Ġci": 4624,
      "Ġcirc": 4625,
      "Ġcit": 4626,
      "Ġcity": 4627,
      "Ġcir": 4628,
      "Ġcircuit": 4629,
      "<T": 4630,
      "Ġrap": 4631,
      "Ġrapid": 4632,
      "Ġchemical": 4633,
      "omega": 4634,
      "Lo": 4635,
      "Log": 4636,
      "Load": 4637,
      "ASE": 4638,
      "Ġinteract": 4639,
      "URE": 4640,
      "overn": 4641,
      "omain": 4642,
      "Ġcalls": 4643,
      "join": 4644,
      "Ġgoals": 4645,
      "ĠDesign": 4646,
      "Ġdepart": 4647,
      "ÅĻ": 4648,
      "Ġsubs": 4649,
      "Ġsubst": 4650,
      "Ġcitiz": 4651,
      "{}": 4652,
      "ounter": 4653,
      "Ġsentence": 4654,
      "àª¾àª": 4655,
      "Ġà¤¹": 4656,
      "rian": 4657,
      "âĢĮ": 4658,
      "cks": 4659,
      "ÄŁ": 4660,
      "erties": 4661,
      "Ġassign": 4662,
      "Ġvirt": 4663,
      "avel": 4664,
      "Ġ$_": 4665,
      "icip": 4666,
      "Ġaren": 4667,
      "Ġtrees": 4668,
      "Ġmissing": 4669,
      "users": 4670,
      "Ġ'@": 4671,
      "Ġflu": 4672,
      "Ã¡n": 4673,
      "ospital": 4674,
      "ĠSl": 4675,
      "ATH": 4676,
      "Args": 4677,
      "Ġ..": 4678,
      "Ġ...": 4679,
      "leq": 4680,
      "ĠMa": 4681,
      "ĠMar": 4682,
      "ĠMan": 4683,
      "ĠMay": 4684,
      "ĠMac": 4685,
      "ĠMat": 4686,
      "ĠMag": 4687,
      "ĠMal": 4688,
      "ĠMart": 4689,
      "ĠMany": 4690,
      "ĠMath": 4691,
      "ĠMad": 4692,
      "ĠMap": 4693,
      "service": 4694,
      ",ĊĊ": 4695,
      "ĠRef": 4696,
      "xim": 4697,
      "Ġpu": 4698,
      "Ġput": 4699,
      "Ġpur": 4700,
      "Ġpub": 4701,
      "Ġpurch": 4702,
      "Ġpun": 4703,
      "iverse": 4704,
      "Ġtrav": 4705,
      "CS": 4706,
      "require": 4707,
      "ĠId": 4708,
      "ĠLes": 4709,
      "Ġnov": 4710,
      "Ġ[\"": 4711,
      "aria": 4712,
      "arian": 4713,
      "à¦¿à¦": 4714,
      "olds": 4715,
      "ĠRet": 4716,
      "ĠReturn": 4717,
      "Fr": 4718,
      "From": 4719,
      "rand": 4720,
      "PP": 4721,
      "obs": 4722,
      "ĠSy": 4723,
      "returns": 4724,
      "sup": 4725,
      "rea": 4726,
      "reat": 4727,
      "read": 4728,
      "ream": 4729,
      "reate": 4730,
      "reak": 4731,
      "react": 4732,
      "reated": 4733,
      "ĉbreak": 4734,
      "Õ¡Õ¶": 4735,
      "Ġcircum": 4736,
      "END": 4737,
      "orem": 4738,
      "Ġjobs": 4739,
      "ded": 4740,
      "ĠRo": 4741,
      "ĠRob": 4742,
      "Ġta": 4743,
      "Ġtake": 4744,
      "Ġtaken": 4745,
      "Ġtax": 4746,
      "Ġtal": 4747,
      "Ġtalk": 4748,
      "Ġtag": 4749,
      "Ġtab": 4750,
      "Ġmessages": 4751,
      "area": 4752,
      "\";ĊĊ": 4753,
      "Ġpurchase": 4754,
      "sect": 4755,
      "section": 4756,
      "Ġ?>": 4757,
      "ĠAtt": 4758,
      "oor": 4759,
      "Gr": 4760,
      "Grid": 4761,
      "ncia": 4762,
      "Ġsac": 4763,
      "ĠLeg": 4764,
      "riage": 4765,
      "CP": 4766,
      "Why": 4767,
      "adow": 4768,
      "iki": 4769,
      "ĠNote": 4770,
      "ouncil": 4771,
      "Ġauf": 4772,
      "ila": 4773,
      "ilar": 4774,
      "ĠOnce": 4775,
      "Ġcry": 4776,
      "ĠCre": 4777,
      "meta": 4778,
      "};": 4779,
      "};ĊĊ": 4780,
      "};Ċ": 4781,
      "eller": 4782,
      "(M": 4783,
      "SA": 4784,
      "itory": 4785,
      "rup": 4786,
      "rupt": 4787,
      "lat": 4788,
      "lation": 4789,
      "'d": 4790,
      "anda": 4791,
      "Ġspend": 4792,
      "sych": 4793,
      "Ġparamet": 4794,
      "Ġstru": 4795,
      "Ġstruct": 4796,
      "Ġstrugg": 4797,
      "Ġwel": 4798,
      "Ġwell": 4799,
      "/>": 4800,
      "rug": 4801,
      "ï¿½": 4802,
      "Ġmir": 4803,
      "IZE": 4804,
      "Web": 4805,
      "Ġju": 4806,
      "Ġjud": 4807,
      "Ġdies": 4808,
      "UD": 4809,
      "Ġtopic": 4810,
      "Ġreplace": 4811,
      "ĠMont": 4812,
      "Then": 4813,
      "Ġexit": 4814,
      "/d": 4815,
      "ĠTom": 4816,
      "Ġoffered": 4817,
      "Ġadvantage": 4818,
      "selected": 4819,
      "ORM": 4820,
      ");čĊčĊ": 4821,
      "Ġol": 4822,
      "Ġold": 4823,
      "Ġolder": 4824,
      "Ġog": 4825,
      "Ġclearly": 4826,
      "bra": 4827,
      "Ġ\"\"\"Ċ": 4828,
      "??": 4829,
      "aren": 4830,
      "nia": 4831,
      ".png": 4832,
      ")]": 4833,
      "kin": 4834,
      "king": 4835,
      "Ġtalking": 4836,
      "Ġmission": 4837,
      "anta": 4838,
      "chi": 4839,
      "chie": 4840,
      "_x": 4841,
      "Ġstra": 4842,
      "Ġstraight": 4843,
      "DC": 4844,
      "à¤¸": 4845,
      "Ġadvice": 4846,
      "anes": 4847,
      "ĠQue": 4848,
      "[$": 4849,
      "DS": 4850,
      "VE": 4851,
      "VER": 4852,
      "Ġhelped": 4853,
      "Ġps": 4854,
      "edge": 4855,
      "itors": 4856,
      "(:": 4857,
      "ĠRobert": 4858,
      "ĠFeb": 4859,
      "]]": 4860,
      "Ġtou": 4861,
      "Ġtouch": 4862,
      "Ġtour": 4863,
      "vest": 4864,
      "lines": 4865,
      "itness": 4866,
      "ÅĽ": 4867,
      "Ġbra": 4868,
      "Ġbrain": 4869,
      "*Ċ": 4870,
      "ĠLO": 4871,
      "Ġtrip": 4872,
      "Ġgran": 4873,
      "ĠMary": 4874,
      "chen": 4875,
      "lia": 4876,
      "ĠReturns": 4877,
      "Ġ'<": 4878,
      "cape": 4879,
      "ĉg": 4880,
      "));ĊĊ": 4881,
      "aud": 4882,
      "(j": 4883,
      "lam": 4884,
      "ĠJer": 4885,
      "aset": 4886,
      "poses": 4887,
      "Ġknows": 4888,
      "Note": 4889,
      "ti": 4890,
      "til": 4891,
      "tic": 4892,
      "tion": 4893,
      "Ġaction": 4894,
      "ection": 4895,
      "Ġdirection": 4896,
      "uction": 4897,
      "vention": 4898,
      "Ġactions": 4899,
      "Ġprotection": 4900,
      ".\\": 4901,
      "Ġdifferences": 4902,
      "ĠTor": 4903,
      "Ġfra": 4904,
      "Ġgun": 4905,
      "Ġach": 4906,
      "Ġachie": 4907,
      "Ġachieve": 4908,
      "igu": 4909,
      "Ġnotes": 4910,
      "ji": 4911,
      "Ġideal": 4912,
      "Rel": 4913,
      "=(": 4914,
      ".To": 4915,
      "Ġidentity": 4916,
      "ses": 4917,
      "Ġcases": 4918,
      "Items": 4919,
      "kg": 4920,
      "ĠCompany": 4921,
      "Ġmac": 4922,
      "Ġmach": 4923,
      "going": 4924,
      "IX": 4925,
      "road": 4926,
      "ĠJo": 4927,
      "Ġmel": 4928,
      "ktop": 4929,
      "ĠNor": 4930,
      "ields": 4931,
      "'),Ċ": 4932,
      "cos": 4933,
      "ĠBu": 4934,
      "ĠBut": 4935,
      "Ġhabit": 4936,
      "Ġreq": 4937,
      "Ġrequ": 4938,
      "Ġrequest": 4939,
      "Ġrequired": 4940,
      "Ġrequires": 4941,
      "Ġod": 4942,
      "(h": 4943,
      "ODO": 4944,
      "ĠOh": 4945,
      "aks": 4946,
      "Ġsounds": 4947,
      "ĠMax": 4948,
      "crete": 4949,
      ")).": 4950,
      "uls": 4951,
      "Ġdoubt": 4952,
      "Ġ}}": 4953,
      "());": 4954,
      "());Ċ": 4955,
      "iger": 4956,
      "*/Ċ": 4957,
      "ĠANY": 4958,
      "omm": 4959,
      ".čĊ": 4960,
      "}^": 4961,
      "ĠLo": 4962,
      "ĠLog": 4963,
      "ĠLou": 4964,
      "odo": 4965,
      "ĠAM": 4966,
      "ĠTR": 4967,
      "Ġassume": 4968,
      "Ġsched": 4969,
      "11": 4970,
      "second": 4971,
      "yr": 4972,
      "edi": 4973,
      "edia": 4974,
      "edit": 4975,
[...]
