{
  "<|begin_of_text|>": 0,
  "<|end_of_text|>": 1,
  "<|chunk_sep|>": 2,
  "<|pad|>": 3,
  "<|unk|>": 4,
  "<|bos|>": 5,
  "<|eos|>": 6,
  "<|reserved_7|>": 7,
  "<|reserved_8|>": 8,
  "<|reserved_9|>": 9,
  "<|system|>": 10,
  "<|user|>": 11,
  "<|assistant|>": 12,
  "<|tool|>": 13,
  "<|reserved_14|>": 14,
  "<|reserved_15|>": 15,
  "<|reserved_16|>": 16,
  "<|reserved_17|>": 17,
  "<|reserved_18|>": 18,
  "<|reserved_19|>": 19,
  "<|code_begin|>": 20,
  "<|code_end|>": 21,
  "<|reserved_22|>": 22,
  "<|reserved_23|>": 23,
  "<|reserved_24|>": 24,
  "<|reserved_25|>": 25,
  "<|reserved_26|>": 26,
  "<|reserved_27|>": 27,
  "<|reserved_28|>": 28,
  "<|reserved_29|>": 29,
  "<|lang:python|>": 30,
  "<|lang:javascript|>": 31,
  "<|lang:typescript|>": 32,
  "<|lang:java|>": 33,
  "<|lang:c|>": 34,
  "<|lang:cpp|>": 35,
  "<|lang:csharp|>": 36,
  "<|lang:go|>": 37,
  "<|lang:rust|>": 38,
  "<|lang:ruby|>": 39,
  "<|lang:php|>": 40,
  "<|lang:swift|>": 41,
  "<|lang:kotlin|>": 42,
  "<|lang:scala|>": 43,
  "<|lang:r|>": 44,
  "<|lang:sql|>": 45,
  "<|lang:html|>": 46,
  "<|lang:css|>": 47,
  "<|lang:bash|>": 48,
  "<|lang:shell|>": 49,
  "<|json_begin|>": 50,
  "<|json_end|>": 51,
  "<|tool_call|>": 52,
  "<|tool_result|>": 53,
  "<|reserved_54|>": 54,
  "<|reserved_55|>": 55,
  "<|reserved_56|>": 56,
  "<|reserved_57|>": 57,
  "<|reserved_58|>": 58,
  "<|reserved_59|>": 59,
  "<|source:wikipedia|>": 60,
  "<|source:github|>": 61,
  "<|source:web|>": 62,
  "<|source:books|>": 63,
  "<|source:arxiv|>": 64,
  "<|source:stackexchange|>": 65,
  "<|reserved_66|>": 66,
  "<|reserved_67|>": 67,
  "<|reserved_68|>": 68,
  "<|reserved_69|>": 69,
  "<|think_begin|>": 70,
  "<|think_end|>": 71,
  "<|reason_begin|>": 72,
  "<|reason_end|>": 73,
  "<|reserved_74|>": 74,
  "<|reserved_75|>": 75,
  "<|reserved_76|>": 76,
  "<|reserved_77|>": 77,
  "<|reserved_78|>": 78,
  "<|reserved_79|>": 79,
  "<|markdown|>": 80,
  "<|latex|>": 81,
  "<|table|>": 82,
  "<|list|>": 83,
  "<|reserved_84|>": 84,
  "<|reserved_85|>": 85,
  "<|reserved_86|>": 86,
  "<|reserved_87|>": 87,
  "<|reserved_88|>": 88,
  "<|reserved_89|>": 89,
  "<|reserved_90|>": 90,
  "<|reserved_91|>": 91,
  "<|reserved_92|>": 92,
  "<|reserved_93|>": 93,
  "<|reserved_94|>": 94,
  "<|reserved_95|>": 95,
  "<|reserved_96|>": 96,
  "<|reserved_97|>": 97,
  "<|reserved_98|>": 98,
  "<|reserved_99|>": 99,
  "<|reserved_100|>": 100,
  "<|reserved_101|>": 101,
  "<|reserved_102|>": 102,
  "<|reserved_103|>": 103,
  "<|reserved_104|>": 104,
  "<|reserved_105|>": 105,
  "<|reserved_106|>": 106,
  "<|reserved_107|>": 107,
  "<|reserved_108|>": 108,
  "<|reserved_109|>": 109,
  "<|reserved_110|>": 110,
  "<|reserved_111|>": 111,
  "<|reserved_112|>": 112,
  "<|reserved_113|>": 113,
  "<|reserved_114|>": 114,
  "<|reserved_115|>": 115,
  "<|reserved_116|>": 116,
  "<|reserved_117|>": 117,
  "<|reserved_118|>": 118,
  "<|reserved_119|>": 119,
  "<|reserved_120|>": 120,
  "<|reserved_121|>": 121,
  "<|reserved_122|>": 122,
  "<|reserved_123|>": 123,
  "<|reserved_124|>": 124,
  "<|reserved_125|>": 125,
  "<|reserved_126|>": 126,
  "<|reserved_127|>": 127,
  "<|reserved_128|>": 128,
  "<|reserved_129|>": 129,
  "<|reserved_130|>": 130,
  "<|reserved_131|>": 131,
  "<|reserved_132|>": 132,
  "<|reserved_133|>": 133,
  "<|reserved_134|>": 134,
  "<|reserved_135|>": 135,
  "<|reserved_136|>": 136,
  "<|reserved_137|>": 137,
  "<|reserved_138|>": 138,
  "<|reserved_139|>": 139,
  "<|reserved_140|>": 140,
  "<|reserved_141|>": 141,
  "<|reserved_142|>": 142,
  "<|reserved_143|>": 143,
  "<|reserved_144|>": 144,
  "<|reserved_145|>": 145,
  "<|reserved_146|>": 146,
  "<|reserved_147|>": 147,
  "<|reserved_148|>": 148,
  "<|reserved_149|>": 149,
  "<|reserved_150|>": 150,
  "<|reserved_151|>": 151,
  "<|reserved_152|>": 152,
  "<|reserved_153|>": 153,
  "<|reserved_154|>": 154,
  "<|reserved_155|>": 155,
  "<|reserved_156|>": 156,
  "<|reserved_157|>": 157,
  "<|reserved_158|>": 158,
  "<|reserved_159|>": 159,
  "<|reserved_160|>": 160,
  "<|reserved_161|>": 161,
  "<|reserved_162|>": 162,
  "<|reserved_163|>": 163,
  "<|reserved_164|>": 164,
  "<|reserved_165|>": 165,
  "<|reserved_166|>": 166,
  "<|reserved_167|>": 167,
  "<|reserved_168|>": 168,
  "<|reserved_169|>": 169,
  "<|reserved_170|>": 170,
  "<|reserved_171|>": 171,
  "<|reserved_172|>": 172,
  "<|reserved_173|>": 173,
  "<|reserved_174|>": 174,
  "<|reserved_175|>": 175,
  "<|reserved_176|>": 176,
  "<|reserved_177|>": 177,
  "<|reserved_178|>": 178,
  "<|reserved_179|>": 179,
  "<|reserved_180|>": 180,
  "<|reserved_181|>": 181,
  "<|reserved_182|>": 182,
  "<|reserved_183|>": 183,
  "<|reserved_184|>": 184,
  "<|reserved_185|>": 185,
  "<|reserved_186|>": 186,
  "<|reserved_187|>": 187,
  "<|reserved_188|>": 188,
  "<|reserved_189|>": 189,
  "<|reserved_190|>": 190,
  "<|reserved_191|>": 191,
  "<|reserved_192|>": 192,
  "<|reserved_193|>": 193,
  "<|reserved_194|>": 194,
  "<|reserved_195|>": 195,
  "<|reserved_196|>": 196,
  "<|reserved_197|>": 197,
  "<|reserved_198|>": 198,
  "<|reserved_199|>": 199,
  "<|reserved_200|>": 200,
  "<|reserved_201|>": 201,
  "<|reserved_202|>": 202,
  "<|reserved_203|>": 203,
  "<|reserved_204|>": 204,
  "<|reserved_205|>": 205,
  "<|reserved_206|>": 206,
  "<|reserved_207|>": 207,
  "<|reserved_208|>": 208,
  "<|reserved_209|>": 209,
  "<|reserved_210|>": 210,
  "<|reserved_211|>": 211,
  "<|reserved_212|>": 212,
  "<|reserved_213|>": 213,
  "<|reserved_214|>": 214,
  "<|reserved_215|>": 215,
  "<|reserved_216|>": 216,
  "<|reserved_217|>": 217,
  "<|reserved_218|>": 218,
  "<|reserved_219|>": 219,
  "<|reserved_220|>": 220,
  "<|reserved_221|>": 221,
  "<|reserved_222|>": 222,
  "<|reserved_223|>": 223,
  "<|reserved_224|>": 224,
  "<|reserved_225|>": 225,
  "<|reserved_226|>": 226,
  "<|reserved_227|>": 227,
  "<|reserved_228|>": 228,
  "<|reserved_229|>": 229,
  "<|reserved_230|>": 230,
  "<|reserved_231|>": 231,
  "<|reserved_232|>": 232,
  "<|reserved_233|>": 233,
  "<|reserved_234|>": 234,
  "<|reserved_235|>": 235,
  "<|reserved_236|>": 236,
  "<|reserved_237|>": 237,
  "<|reserved_238|>": 238,
  "<|reserved_239|>": 239,
  "<|reserved_240|>": 240,
  "<|reserved_241|>": 241,
  "<|reserved_242|>": 242,
  "<|reserved_243|>": 243,
  "<|reserved_244|>": 244,
  "<|reserved_245|>": 245,
  "<|reserved_246|>": 246,
  "<|reserved_247|>": 247,
  "<|reserved_248|>": 248,
  "<|reserved_249|>": 249,
  "<|reserved_250|>": 250,
  "<|reserved_251|>": 251,
  "<|reserved_252|>": 252,
  "<|reserved_253|>": 253,
  "<|reserved_254|>": 254,
  "<|reserved_255|>": 255,
  "<|reserved_256|>": 256,
  "<|reserved_257|>": 257,
  "<|reserved_258|>": 258,
  "<|reserved_259|>": 259,
  "<|reserved_260|>": 260,
  "<|reserved_261|>": 261,
  "<|reserved_262|>": 262,
  "<|reserved_263|>": 263,
  "<|reserved_264|>": 264,
  "<|reserved_265|>": 265,
  "<|reserved_266|>": 266,
  "<|reserved_267|>": 267,
  "<|reserved_268|>": 268,
  "<|reserved_269|>": 269,
  "<|reserved_270|>": 270,
  "<|reserved_271|>": 271,
  "<|reserved_272|>": 272,
  "<|reserved_273|>": 273,
  "<|reserved_274|>": 274,
  "<|reserved_275|>": 275,
  "<|reserved_276|>": 276,
  "<|reserved_277|>": 277,
  "<|reserved_278|>": 278,
  "<|reserved_279|>": 279,
  "<|reserved_280|>": 280,
  "<|reserved_281|>": 281,
  "<|reserved_282|>": 282,
  "<|reserved_283|>": 283,
  "<|reserved_284|>": 284,
  "<|reserved_285|>": 285,
  "<|reserved_286|>": 286,
  "<|reserved_287|>": 287,
  "<|reserved_288|>": 288,
  "<|reserved_289|>": 289,
  "<|reserved_290|>": 290,
  "<|reserved_291|>": 291,
  "<|reserved_292|>": 292,
  "<|reserved_293|>": 293,
  "<|reserved_294|>": 294,
  "<|reserved_295|>": 295,
  "<|reserved_296|>": 296,
  "<|reserved_297|>": 297,
  "<|reserved_298|>": 298,
  "<|reserved_299|>": 299,
  "<|reserved_300|>": 300,
  "<|reserved_301|>": 301,
  "<|reserved_302|>": 302,
  "<|reserved_303|>": 303,
  "<|reserved_304|>": 304,
  "<|reserved_305|>": 305,
  "<|reserved_306|>": 306,
  "<|reserved_307|>": 307,
  "<|reserved_308|>": 308,
  "<|reserved_309|>": 309,
  "<|reserved_310|>": 310,
  "<|reserved_311|>": 311,
  "<|reserved_312|>": 312,
  "<|reserved_313|>": 313,
  "<|reserved_314|>": 314,
  "<|reserved_315|>": 315,
  "<|reserved_316|>": 316,
  "<|reserved_317|>": 317,
  "<|reserved_318|>": 318,
  "<|reserved_319|>": 319,
  "<|reserved_320|>": 320,
  "<|reserved_321|>": 321,
  "<|reserved_322|>": 322,
  "<|reserved_323|>": 323,
  "<|reserved_324|>": 324,
  "<|reserved_325|>": 325,
  "<|reserved_326|>": 326,
  "<|reserved_327|>": 327,
  "<|reserved_328|>": 328,
  "<|reserved_329|>": 329,
  "<|reserved_330|>": 330,
  "<|reserved_331|>": 331,
  "<|reserved_332|>": 332,
  "<|reserved_333|>": 333,
  "<|reserved_334|>": 334,
  "<|reserved_335|>": 335,
  "<|reserved_336|>": 336,
  "<|reserved_337|>": 337,
  "<|reserved_338|>": 338,
  "<|reserved_339|>": 339,
  "<|reserved_340|>": 340,
  "<|reserved_341|>": 341,
  "<|reserved_342|>": 342,
  "<|reserved_343|>": 343,
  "<|reserved_344|>": 344,
  "<|reserved_345|>": 345,
  "<|reserved_346|>": 346,
  "<|reserved_347|>": 347,
  "<|reserved_348|>": 348,
  "<|reserved_349|>": 349,
  "<|reserved_350|>": 350,
  "<|reserved_351|>": 351,
  "<|reserved_352|>": 352,
  "<|reserved_353|>": 353,
  "<|reserved_354|>": 354,
  "<|reserved_355|>": 355,
  "<|reserved_356|>": 356,
  "<|reserved_357|>": 357,
  "<|reserved_358|>": 358,
  "<|reserved_359|>": 359,
  "<|reserved_360|>": 360,
  "<|reserved_361|>": 361,
  "<|reserved_362|>": 362,
  "<|reserved_363|>": 363,
  "<|reserved_364|>": 364,
  "<|reserved_365|>": 365,
  "<|reserved_366|>": 366,
  "<|reserved_367|>": 367,
  "<|reserved_368|>": 368,
  "<|reserved_369|>": 369,
  "<|reserved_370|>": 370,
  "<|reserved_371|>": 371,
  "<|reserved_372|>": 372,
  "<|reserved_373|>": 373,
  "<|reserved_374|>": 374,
  "<|reserved_375|>": 375,
  "<|reserved_376|>": 376,
  "<|reserved_377|>": 377,
  "<|reserved_378|>": 378,
  "<|reserved_379|>": 379,
  "<|reserved_380|>": 380,
  "<|reserved_381|>": 381,
  "<|reserved_382|>": 382,
  "<|reserved_383|>": 383,
  "<|reserved_384|>": 384,
  "<|reserved_385|>": 385,
  "<|reserved_386|>": 386,
  "<|reserved_387|>": 387,
  "<|reserved_388|>": 388,
  "<|reserved_389|>": 389,
  "<|reserved_390|>": 390,
  "<|reserved_391|>": 391,
  "<|reserved_392|>": 392,
  "<|reserved_393|>": 393,
  "<|reserved_394|>": 394,
  "<|reserved_395|>": 395,
  "<|reserved_396|>": 396,
  "<|reserved_397|>": 397,
  "<|reserved_398|>": 398,
  "<|reserved_399|>": 399,
  "<|reserved_400|>": 400,
  "<|reserved_401|>": 401,
  "<|reserved_402|>": 402,
  "<|reserved_403|>": 403,
  "<|reserved_404|>": 404,
  "<|reserved_405|>": 405,
  "<|reserved_406|>": 406,
  "<|reserved_407|>": 407,
  "<|reserved_408|>": 408,
  "<|reserved_409|>": 409,
  "<|reserved_410|>": 410,
  "<|reserved_411|>": 411,
  "<|reserved_412|>": 412,
  "<|reserved_413|>": 413,
  "<|reserved_414|>": 414,
  "<|reserved_415|>": 415,
  "<|reserved_416|>": 416,
  "<|reserved_417|>": 417,
  "<|reserved_418|>": 418,
  "<|reserved_419|>": 419,
  "<|reserved_420|>": 420,
  "<|reserved_421|>": 421,
  "<|reserved_422|>": 422,
  "<|reserved_423|>": 423,
  "<|reserved_424|>": 424,
  "<|reserved_425|>": 425,
  "<|reserved_426|>": 426,
  "<|reserved_427|>": 427,
  "<|reserved_428|>": 428,
  "<|reserved_429|>": 429,
  "<|reserved_430|>": 430,
  "<|reserved_431|>": 431,
  "<|reserved_432|>": 432,
  "<|reserved_433|>": 433,
  "<|reserved_434|>": 434,
  "<|reserved_435|>": 435,
  "<|reserved_436|>": 436,
  "<|reserved_437|>": 437,
  "<|reserved_438|>": 438,
  "<|reserved_439|>": 439,
  "<|reserved_440|>": 440,
  "<|reserved_441|>": 441,
  "<|reserved_442|>": 442,
  "<|reserved_443|>": 443,
  "<|reserved_444|>": 444,
  "<|reserved_445|>": 445,
  "<|reserved_446|>": 446,
  "<|reserved_447|>": 447,
  "<|reserved_448|>": 448,
  "<|reserved_449|>": 449,
  "<|reserved_450|>": 450,
  "<|reserved_451|>": 451,
  "<|reserved_452|>": 452,
  "<|reserved_453|>": 453,
  "<|reserved_454|>": 454,
  "<|reserved_455|>": 455,
  "<|reserved_456|>": 456,
  "<|reserved_457|>": 457,
  "<|reserved_458|>": 458,
  "<|reserved_459|>": 459,
  "<|reserved_460|>": 460,
  "<|reserved_461|>": 461,
  "<|reserved_462|>": 462,
  "<|reserved_463|>": 463,
  "<|reserved_464|>": 464,
  "<|reserved_465|>": 465,
  "<|reserved_466|>": 466,
  "<|reserved_467|>": 467,
  "<|reserved_468|>": 468,
  "<|reserved_469|>": 469,
  "<|reserved_470|>": 470,
  "<|reserved_471|>": 471,
  "<|reserved_472|>": 472,
  "<|reserved_473|>": 473,
  "<|reserved_474|>": 474,
  "<|reserved_475|>": 475,
  "<|reserved_476|>": 476,
  "<|reserved_477|>": 477,
  "<|reserved_478|>": 478,
  "<|reserved_479|>": 479,
  "<|reserved_480|>": 480,
  "<|reserved_481|>": 481,
  "<|reserved_482|>": 482,
  "<|reserved_483|>": 483,
  "<|reserved_484|>": 484,
  "<|reserved_485|>": 485,
  "<|reserved_486|>": 486,
  "<|reserved_487|>": 487,
  "<|reserved_488|>": 488,
  "<|reserved_489|>": 489,
  "<|reserved_490|>": 490,
  "<|reserved_491|>": 491,
  "<|reserved_492|>": 492,
  "<|reserved_493|>": 493,
  "<|reserved_494|>": 494,
  "<|reserved_495|>": 495,
  "<|reserved_496|>": 496,
  "<|reserved_497|>": 497,
  "<|reserved_498|>": 498,
  "<|reserved_499|>": 499,
  "<|reserved_500|>": 500,
  "<|reserved_501|>": 501,
  "<|reserved_502|>": 502,
  "<|reserved_503|>": 503,
  "<|reserved_504|>": 504,
  "<|reserved_505|>": 505,
  "<|reserved_506|>": 506,
  "<|reserved_507|>": 507,
  "<|reserved_508|>": 508,
  "<|reserved_509|>": 509,
  "<|reserved_510|>": 510,
  "<|reserved_511|>": 511,
  "!": 512,
  "\"": 513,
  "#": 514,
  "$": 515,
  "%": 516,
  "&": 517,
  "'": 518,
  "(": 519,
  ")": 520,
  "*": 521,
  "+": 522,
  ",": 523,
  "-": 524,
  ".": 525,
  "/": 526,
  "0": 527,
  "1": 528,
  "2": 529,
  "3": 530,
  "4": 531,
  "5": 532,
  "6": 533,
  "7": 534,
  "8": 535,
  "9": 536,
  ":": 537,
  ";": 538,
  "<": 539,
  "=": 540,
  ">": 541,
  "?": 542,
  "@": 543,
  "A": 544,
  "B": 545,
  "C": 546,
  "D": 547,
  "E": 548,
  "F": 549,
  "G": 550,
  "H": 551,
  "I": 552,
  "J": 553,
  "K": 554,
  "L": 555,
  "M": 556,
  "N": 557,
  "O": 558,
  "P": 559,
  "Q": 560,
  "R": 561,
  "S": 562,
  "T": 563,
  "U": 564,
  "V": 565,
  "W": 566,
  "X": 567,
  "Y": 568,
  "Z": 569,
  "[": 570,
  "\\": 571,
  "]": 572,
  "^": 573,
  "_": 574,
  "`": 575,
  "a": 576,
  "b": 577,
  "c": 578,
  "d": 579,
  "e": 580,
  "f": 581,
  "g": 582,
  "h": 583,
  "i": 584,
  "j": 585,
  "k": 586,
  "l": 587,
  "m": 588,
  "n": 589,
  "o": 590,
  "p": 591,
  "q": 592,
  "r": 593,
  "s": 594,
  "t": 595,
  "u": 596,
  "v": 597,
  "w": 598,
  "x": 599,
  "y": 600,
  "z": 601,
  "{": 602,
  "|": 603,
  "}": 604,
  "~": 605,
  "¡": 606,
  "¢": 607,
  "£": 608,
  "¤": 609,
  "¥": 610,
  "¦": 611,
  "§": 612,
  "¨": 613,
  "©": 614,
  "ª": 615,
  "«": 616,
  "¬": 617,
  "®": 618,
  "¯": 619,
  "°": 620,
  "±": 621,
  "²": 622,
  "³": 623,
  "´": 624,
  "µ": 625,
  "¶": 626,
  "·": 627,
  "¸": 628,
  "¹": 629,
  "º": 630,
  "»": 631,
  "¼": 632,
  "½": 633,
  "¾": 634,
  "¿": 635,
  "À": 636,
  "Á": 637,
  "Â": 638,
  "Ã": 639,
  "Ä": 640,
  "Å": 641,
  "Æ": 642,
  "Ç": 643,
  "È": 644,
  "É": 645,
  "Ê": 646,
  "Ë": 647,
  "Ì": 648,
  "Í": 649,
  "Î": 650,
  "Ï": 651,
  "Ô": 652,
  "Õ": 653,
  "Ö": 654,
  "×": 655,
  "Ü": 656,
  "Ý": 657,
  "Þ": 658,
  "ß": 659,
  "à": 660,
  "á": 661,
  "â": 662,
  "î": 663,
  "ï": 664,
  "ð": 665,
  "ñ": 666,
  "ò": 667,
  "ó": 668,
  "ô": 669,
  "õ": 670,
  "ö": 671,
  "÷": 672,
  "ø": 673,
  "ù": 674,
  "ú": 675,
  "û": 676,
  "ü": 677,
  "ý": 678,
  "þ": 679,
  "ÿ": 680,
  "Ā": 681,
  "ā": 682,
  "Ă": 683,
  "ă": 684,
  "Ą": 685,
  "ą": 686,
  "Ć": 687,
  "ć": 688,
  "Ĉ": 689,
  "ĉ": 690,
  "Ċ": 691,
  "ċ": 692,
  "Č": 693,
  "č": 694,
  "Ď": 695,
  "ď": 696,
  "Đ": 697,
  "đ": 698,
  "Ē": 699,
  "ē": 700,
  "Ĕ": 701,
  "ĕ": 702,
  "Ė": 703,
  "ė": 704,
  "Ę": 705,
  "ę": 706,
  "Ě": 707,
  "ě": 708,
  "Ĝ": 709,
  "ĝ": 710,
  "Ğ": 711,
  "ğ": 712,
  "Ġ": 713,
  "ġ": 714,
  "Ģ": 715,
  "ģ": 716,
  "Ĥ": 717,
  "ĥ": 718,
  "Ħ": 719,
  "ħ": 720,
  "Ĩ": 721,
  "ĩ": 722,
  "Ī": 723,
  "ī": 724,
  "Ĭ": 725,
  "ĭ": 726,
  "Į": 727,
  "į": 728,
  "İ": 729,
  "ı": 730,
  "Ĳ": 731,
  "ĳ": 732,
  "Ĵ": 733,
  "ĵ": 734,
  "Ķ": 735,
  "ķ": 736,
  "ĸ": 737,
  "Ĺ": 738,
  "ĺ": 739,
  "Ļ": 740,
  "ļ": 741,
  "Ľ": 742,
  "ľ": 743,
  "Ŀ": 744,
  "ŀ": 745,
  "Ł": 746,
  "ł": 747,
  "Ń": 748,
  "ĠĠ": 749,
  "Ġt": 750,
  "in": 751,
  "Ġa": 752,
  "er": 753,
  "on": 754,
  "re": 755,
  "at": 756,
  "en": 757,
  "Ġs": 758,
  "or": 759,
  "Ġc": 760,
  "es": 761,
  "an": 762,
  "it": 763,
  "Ġp": 764,
  "is": 765,
  "al": 766,
  "he": 767,
  "ar": 768,
  "Ġw": 769,
  "Ġd": 770,
  "Ġf": 771,
  "le": 772,
  "ou": 773,
  "Ġo": 774,
  "Ġb": 775,
  "ed": 776,
  "ĠĠĠ": 777,
  "ĠĠĠĠ": 778,
  "ing": 779,
  "Ġm": 780,
  "ic": 781,
  "st": 782,
  "as": 783,
  "Ġth": 784,
  "Ġthe": 785,
  "el": 786,
  "ro": 787,
  "et": 788,
  "ent": 789,
  "Ġto": 790,
  "Ġof": 791,
  "Ġh": 792,
  "Ġn": 793,
  "Ġl": 794,
  "ct": 795,
  "om": 796,
  "nd": 797,
  "il": 798,
  "id": 799,
  "am": 800,
  "im": 801,
  "ĊĊ": 802,
  "Ġe": 803,
  "ad": 804,
  "Ġg": 805,
  "ol": 806,
  "ur": 807,
  "ut": 808,
  "ĠS": 809,
  "ot": 810,
  "âĢ": 811,
  "ig": 812,
  "Ġ(": 813,
  "Ġ=": 814,
  "ch": 815,
  "ĠT": 816,
  "ĠI": 817,
  "se": 818,
  "Ġde": 819,
  "Ġv": 820,
  "ĠA": 821,
  "ow": 822,
  "Ġy": 823,
  "ce": 824,
  "Ġan": 825,
  "Ġand": 826,
  "ĠC": 827,
  "if": 828,
  "ul": 829,
  "us": 830,
  "ay": 831,
  "un": 832,
  "em": 833,
  "od": 834,
  "Ġst": 835,
  "ly": 836,
  "Ġbe": 837,
  "Ġon": 838,
  "qu": 839,
  "iv": 840,
  "ag": 841,
  "ir": 842,
  "--": 843,
  "ab": 844,
  "th": 845,
  ";Ċ": 846,
  "ate": 847,
  "ĉĉ": 848,
  "ĠM": 849,
  "ac": 850,
  "um": 851,
  "ith": 852,
  "ĠP": 853,
  "os": 854,
  "ist": 855,
  "Ġ\"": 856,
  "est": 857,
  "Ġal": 858,
  "Ġ{": 859,
  "ers": 860,
  "ve": 861,
  "ver": 862,
  "pe": 863,
  "ĠB": 864,
  "Ġas": 865,
  "ort": 866,
  "Ġwh": 867,
  "ess": 868,
  "ap": 869,
  "and": 870,
  "ĠD": 871,
  "res": 872,
  "Ġr": 873,
  "Ġre": 874,
  "our": 875,
  "//": 876,
  "end": 877,
  "ĠF": 878,
  "ĠL": 879,
  "Ġse": 880,
  "op": 881,
  "Ġ*": 882,
  "ĠR": 883,
  "Ġor": 884,
  "ame": 885,
  "ra": 886,
  "ri": 887,
  "ue": 888,
  "ill": 889,
  "Ġhe": 890,
  "**": 891,
  "oc": 892,
  "out": 893,
  "ĠE": 894,
  "ĠH": 895,
  "rom": 896,
  "Ġ}": 897,
  "Ġex": 898,
  "Ġu": 899,
  "ant": 900,
  "ĠW": 901,
  "nt": 902,
  "ass": 903,
  "av": 904,
  "ub": 905,
  "ore": 906,
  "Ġ$": 907,
  "pt": 908,
  "ĠN": 909,
  "art": 910,
  "ht": 911,
  "ld": 912,
  "ĠG": 913,
  "ke": 914,
  "age": 915,
  "ity": 916,
  "ex": 917,
  "Ġat": 918,
  "Ġ'": 919,
  "âĢĻ": 920,
  "pl": 921,
  "Ġwe": 922,
  "Ġk": 923,
  "iz": 924,
  "Ġen": 925,
  "Ġ<": 926,
  "tr": 927,
  "ine": 928,
  "Ġle": 929,
  "int": 930,
  "ie": 931,
  "ies": 932,
  "og": 933,
  "Ġch": 934,
  "te": 935,
  "ter": 936,
  "Ġun": 937,
  "čĊ": 938,
  "Ġj": 939,
  "all": 940,
  "Ġby": 941,
  "ive": 942,
  "ure": 943,
  "()": 944,
  "Ġne": 945,
  "urn": 946,
  "ĠO": 947,
  "up": 948,
  "ud": 949,
  "Ġ{Ċ": 950,
  ")Ċ": 951,
  "ak": 952,
  "ind": 953,
  "Ġsh": 954,
  "ere": 955,
  "ult": 956,
  "ack": 957,
  "à¤": 958,
  "ost": 959,
  ",Ċ": 960,
  "ge": 961,
  "Ġ-": 962,
  "Ġtr": 963,
  "ard": 964,
  "orm": 965,
  "ust": 966,
  "ell": 967,
  "ip": 968,
  "ile": 969,
  "Ġus": 970,
  "Ã©": 971,
  "her": 972,
  "ia": 973,
  "ial": 974,
  "ff": 975,
  "cl": 976,
  "rou": 977,
  "ans": 978,
  "de": 979,
  "ck": 980,
  "ib": 981,
  "..": 982,
  "ast": 983,
  "per": 984,
  "act": 985,
  "ĠU": 986,
  "ide": 987,
  "are": 988,
  "ang": 989,
  "ich": 990,
  "get": 991,
  "ĠĠĠĠĠ": 992,
  "ome": 993,
  "ĠJ": 994,
  "ase": 995,
  "ew": 996,
  "ata": 997,
  "Ġpl": 998,
  "Ġsu": 999,
  "ice": 1000,
  "Ġab": 1001,
  "Ġres": 1002,
  "Ġi": 1003,
  "Ġin": 1004,
  "Ġis": 1005,
  "Ġit": 1006,
  "Ġif": 1007,
  "ime": 1008,
  "lo": 1009,
  "Ġdo": 1010,
  "ath": 1011,
  "ire": 1012,
  "Ġel": 1013,
  "elf": 1014,
  "Ġ\\": 1015,
  "=\"": 1016,
  "Ġall": 1017,
  "cc": 1018,
  "ord": 1019,
  "==": 1020,
  "Ġla": 1021,
  ").": 1022,
  "ace": 1023,
  "Ġpr": 1024,
  "Ġpro": 1025,
  "Ġme": 1026,
  "one": 1027,
  "Ġ|": 1028,
  "ated": 1029,
  "Ġim": 1030,
  "ok": 1031,
  "Ġcl": 1032,
  "ong": 1033,
  "##": 1034,
  "ite": 1035,
  "ign": 1036,
  "ach": 1037,
  "Ġnew": 1038,
  "ĠV": 1039,
  "Ġint": 1040,
  ">Ċ": 1041,
  "ĠTh": 1042,
  "ĠThe": 1043,
  "(\"": 1044,
  "ous": 1045,
  ";ĊĊ": 1046,
  "ary": 1047,
  "ne": 1048,
  "Ġha": 1049,
  "ens": 1050,
  "Ġad": 1051,
  "ert": 1052,
  "âĢĿ": 1053,
  "Ġso": 1054,
  "Ġ[": 1055,
  "ob": 1056,
  "ĠIn": 1057,
  "),": 1058,
  "->": 1059,
  "red": 1060,
  "ĠK": 1061,
  "Ġup": 1062,
  "ode": 1063,
  "Ġar": 1064,
  "Ġare": 1065,
  "ll": 1066,
  "gh": 1067,
  "Ġ&": 1068,
  "so": 1069,
  "Ġhas": 1070,
  "pp": 1071,
  "Ġ+": 1072,
  "\",": 1073,
  "ave": 1074,
  "Ġwhich": 1075,
  "áĥ": 1076,
  "du": 1077,
  "ake": 1078,
  "Ġgo": 1079,
  "ep": 1080,
  "ext": 1081,
  "In": 1082,
  "ress": 1083,
  "ont": 1084,
  "ory": 1085,
  "ï¼": 1086,
  "ple": 1087,
  "Ġone": 1088,
  "ph": 1089,
  "ize": 1090,
  "row": 1091,
  "ov": 1092,
  "Ġdes": 1093,
  "iew": 1094,
  "xt": 1095,
  "pr": 1096,
  "ry": 1097,
  "',": 1098,
  "ild": 1099,
  "ft": 1100,
  "Ã³": 1101,
  "ents": 1102,
  "erv": 1103,
  "ally": 1104,
  "to": 1105,
  "('": 1106,
  "</": 1107,
  "Ġte": 1108,
  "ose": 1109,
  "Ġno": 1110,
  "Ġnot": 1111,
  "Ġ:": 1112,
  "::": 1113,
  "ree": 1114,
  "Ġmy": 1115,
  "les": 1116,
  "Ġam": 1117,
  "str": 1118,
  "Ġpre": 1119,
  "'s": 1120,
  "ĠSt": 1121,
  "vel": 1122,
  "own": 1123,
  "ors": 1124,
  "Ġsa": 1125,
  "igh": 1126,
  "ight": 1127,
  "eg": 1128,
  "Ġsp": 1129,
  "ĠY": 1130,
  "ull": 1131,
  "Ġ}Ċ": 1132,
  "pro": 1133,
  "ely": 1134,
  "ings": 1135,
  "der": 1136,
  "we": 1137,
  "Ġro": 1138,
  "Ġ/": 1139,
  "Ġ//": 1140,
  "ish": 1141,
  "Ġany": 1142,
  "__": 1143,
  "à¦": 1144,
  "ink": 1145,
  "eth": 1146,
  "Ġwho": 1147,
  "Ġhad": 1148,
  "ork": 1149,
  "Ġset": 1150,
  "very": 1151,
  "ru": 1152,
  "St": 1153,
  "Ġdef": 1154,
  ");": 1155,
  ");Ċ": 1156,
  "Ġstr": 1157,
  "Ġag": 1158,
  "ef": 1159,
  "Ġ@": 1160,
  "ÃŃ": 1161,
  "Ġli": 1162,
  "ays": 1163,
  "Ġlo": 1164,
  "ĠCh": 1165,
  "ick": 1166,
  "ater": 1167,
  "ark": 1168,
  "Ġwhe": 1169,
  "Ġwhen": 1170,
  "app": 1171,
  "io": 1172,
  "ion": 1173,
  "ction": 1174,
  "err": 1175,
  ";čĊ": 1176,
  "Ġem": 1177,
  "ix": 1178,
  "old": 1179,
  "Ġdel": 1180,
  "Ġher": 1181,
  "Ġthem": 1182,
  "ss": 1183,
  "Ġfe": 1184,
  "li": 1185,
  "lic": 1186,
  "ec": 1187,
  "ect": 1188,
  "à¥": 1189,
  "ug": 1190,
  "ng": 1191,
  "ER": 1192,
  "Ġ.": 1193,
  "ĠIt": 1194,
  "))": 1195,
  "ys": 1196,
  "yst": 1197,
  ".s": 1198,
  "Ġbo": 1199,
  "ove": 1200,
  "Ġpe": 1201,
  "Ġper": 1202,
  ":Ċ": 1203,
  "rit": 1204,
  "Ġsc": 1205,
  "âĢľ": 1206,
  "ange": 1207,
  "Ġinto": 1208,
  "ates": 1209,
  "ict": 1210,
  "iss": 1211,
  "ax": 1212,
  "Ġuse": 1213,
  "Ġoff": 1214,
  "Ġ#": 1215,
  "Ġadd": 1216,
  ".Ċ": 1217,
  ".ĊĊ": 1218,
  "{Ċ": 1219,
  "Ã¡": 1220,
  "ian": 1221,
  "ade": 1222,
  "ĉĉĉ": 1223,
  "ĉĉĉĉ": 1224,
  "Ġob": 1225,
  "ks": 1226,
  "à¸": 1227,
  "Ġ_": 1228,
  "Ġes": 1229,
  "}Ċ": 1230,
  "eng": 1231,
  "à°": 1232,
  "Ġwhat": 1233,
  "Ġz": 1234,
  "ise": 1235,
  "ock": 1236,
  "ps": 1237,
  "led": 1238,
  "IN": 1239,
  "enc": 1240,
  "ence": 1241,
  "Ġ=>": 1242,
  "gr": 1243,
  "set": 1244,
  "Ġbet": 1245,
  "que": 1246,
  "arg": 1247,
  "Ġass": 1248,
  "als": 1249,
  "Ġser": 1250,
  "Ġ==": 1251,
  "atch": 1252,
  "ik": 1253,
  "pec": 1254,
  "pect": 1255,
  "aw": 1256,
  "Ġap": 1257,
  "Ġapp": 1258,
  "anc": 1259,
  "ance": 1260,
  "bo": 1261,
  "ref": 1262,
  "clud": 1263,
  "_t": 1264,
  "ma": 1265,
  "Ġonly": 1266,
  "Ġco": 1267,
  "Ġcon": 1268,
  "Ġcom": 1269,
  "Ġcont": 1270,
  "Ġcol": 1271,
  "Ġ}ĊĊ": 1272,
  "ery": 1273,
  "dd": 1274,
  "ON": 1275,
  "round": 1276,
  "Ġest": 1277,
  "Ġrec": 1278,
  "ied": 1279,
  "{\\": 1280,
  "Ġreg": 1281,
  "Ġent": 1282,
  "Ġend": 1283,
  ".c": 1284,
  "ics": 1285,
  "ton": 1286,
  "ser": 1287,
  "Ġ*/": 1288,
  "ern": 1289,
  "Ġgr": 1290,
  "Ġshe": 1291,
  "Ġev": 1292,
  "Th": 1293,
  "The": 1294,
  "Ġbu": 1295,
  "Ġbut": 1296,
  "Ġrel": 1297,
  "Ġbl": 1298,
  "rough": 1299,
  "its": 1300,
  "add": 1301,
  "Ġph": 1302,
  "the": 1303,
  "ther": 1304,
  "Ġsub": 1305,
  "ms": 1306,
  "ier": 1307,
  "sh": 1308,
  "ource": 1309,
  "Re": 1310,
  "Ġthen": 1311,
  "ĠRe": 1312,
  "au": 1313,
  "Ġop": 1314,
  "_{": 1315,
  "alse": 1316,
  "ons": 1317,
  "']": 1318,
  "ĠUn": 1319,
  "ues": 1320,
  "Ãł": 1321,
  "\">": 1322,
  "def": 1323,
  "wo": 1324,
  ".p": 1325,
  "Ġrem": 1326,
  "ĠHe": 1327,
  "à´": 1328,
  "Ġind": 1329,
  "à²": 1330,
  "ces": 1331,
  "cess": 1332,
  "Ġkn": 1333,
  "Ġknow": 1334,
  "['": 1335,
  "Ġ</": 1336,
  "ĠWe": 1337,
  "ren": 1338,
  "Ġresult": 1339,
  "Ġx": 1340,
  ".\"": 1341,
  "erm": 1342,
  "ures": 1343,
  "rr": 1344,
  "ST": 1345,
  "Ġwhere": 1346,
  "Ã¨": 1347,
  "RE": 1348,
  "Id": 1349,
  "of": 1350,
  "Ġà": 1351,
  "Ġà¤": 1352,
  ");ĊĊ": 1353,
  "ash": 1354,
  "iff": 1355,
  "Ex": 1356,
  "AT": 1357,
  "ins": 1358,
  "}ĊĊ": 1359,
  "ages": 1360,
  "Ġfl": 1361,
  "ty": 1362,
  "rib": 1363,
  "Ġet": 1364,
  "ann": 1365,
  "Ġdi": 1366,
  "Ġdis": 1367,
  "Ġac": 1368,
  "Ġacc": 1369,
  "Ġact": 1370,
  "wn": 1371,
  "ices": 1372,
  "sp": 1373,
  "ven": 1374,
  "vent": 1375,
  "und": 1376,
  "Ġ!": 1377,
  "Ġsup": 1378,
  "Ġused": 1379,
  "Ġatt": 1380,
  "à®": 1381,
  "ute": 1382,
  ")ĊĊ": 1383,
  "Ġsee": 1384,
  "ond": 1385,
  "let": 1386,
  "nc": 1387,
  "Ã¤": 1388,
  "...": 1389,
  "Ġsm": 1390,
  "roup": 1391,
  "ased": 1392,
  "ody": 1393,
  "low": 1394,
  "ari": 1395,
  "ric": 1396,
  "itt": 1397,
  "Ġke": 1398,
  "\":": 1399,
  "ames": 1400,
  "ner": 1401,
  "uc": 1402,
  "uch": 1403,
  "Ġloc": 1404,
  "amp": 1405,
  "oy": 1406,
  "Ġext": 1407,
  "ah": 1408,
  "rop": 1409,
  "ank": 1410,
  "Ġsur": 1411,
  "iel": 1412,
  "ield": 1413,
  "hed": 1414,
  "ife": 1415,
  "co": 1416,
  "con": 1417,
  "com": 1418,
  "cont": 1419,
  "use": 1420,
  "Ġprov": 1421,
  "OR": 1422,
  "ale": 1423,
  "âĢ¦": 1424,
  "rol": 1425,
  "âĢĵ": 1426,
  "Ġid": 1427,
  "ily": 1428,
  "_p": 1429,
  "AR": 1430,
  "LE": 1431,
  "ten": 1432,
  "ta": 1433,
  "ID": 1434,
  "ars": 1435,
  "ĠĠĠĠĠĠ": 1436,
  "ĠĠĠĠĠĠĠĠ": 1437,
  "ĠĠĠĠĠĠĠ": 1438,
  "ĠĠĠĠĠĠĠĠĠ": 1439,
  "ek": 1440,
  "Ġdon": 1441,
  "az": 1442,
  "Ġ>": 1443,
  "uct": 1444,
  "Ġnow": 1445,
  "_s": 1446,
  "Ġlet": 1447,
  "âĢĻs": 1448,
  "son": 1449,
  "Ġcor": 1450,
  "irect": 1451,
  "Ġbec": 1452,
  "ml": 1453,
  "')": 1454,
  "\"Ċ": 1455,
  "ĠĊ": 1456,
  "key": 1457,
  "fo": 1458,
  "be": 1459,
  "ber": 1460,
  "new": 1461,
  "oth": 1462,
  "($": 1463,
  "any": 1464,
  "ĠIf": 1465,
  "imes": 1466,
  "Ġ×": 1467,
  "ines": 1468,
  "Ġusing": 1469,
  "ĠAl": 1470,
  "ense": 1471,
  "oll": 1472,
  "Ġed": 1473,
  "ts": 1474,
  "Ġits": 1475,
  "ats": 1476,
  "ĠÃ": 1477,
  "cond": 1478,
  "Ġwhile": 1479,
  "Ã¼": 1480,
  "ĠAn": 1481,
  "àª": 1482,
  "Ġdist": 1483,
  "ĠQ": 1484,
  "EN": 1485,
  "odel": 1486,
  "Ġdid": 1487,
  "Ġspe": 1488,
  "Ġspec": 1489,
  "\")": 1490,
  ",\"": 1491,
  "_c": 1492,
  "Ġav": 1493,
  "ced": 1494,
  "Ġbr": 1495,
  "log": 1496,
  "Ġbel": 1497,
  "Ġsol": 1498,
  "Ġ)": 1499,
  "arn": 1500,
  "sc": 1501,
  "Ġtra": 1502,
  "ants": 1503,
  "els": 1504,
  "Ġgu": 1505,
  "Ġdec": 1506,
  "):": 1507,
  "Ġhel": 1508,
  "Ġhelp": 1509,
  "'t": 1510,
  "me": 1511,
  "mer": 1512,
  "ited": 1513,
  "++": 1514,
  "fr": 1515,
  "Ġpres": 1516,
  "AL": 1517,
  "ask": 1518,
  "ci": 1519,
  "ĠAr": 1520,
  "ized": 1521,
  "Ġdet": 1522,
  "ets": 1523,
  "Ġmed": 1524,
  "ined": 1525,
  "aj": 1526,
  "che": 1527,
  "ĠSe": 1528,
  "raw": 1529,
  ".m": 1530,
  "Ch": 1531,
  "ym": 1532,
  "Ġimp": 1533,
  "âĢĶ": 1534,
  "SE": 1535,
  "ey": 1536,
  "Ġthey": 1537,
  "ĠAnd": 1538,
  "Ġref": 1539,
  "IT": 1540,
  "Ã§": 1541,
  "Ġ*/Ċ": 1542,
  "ĠWh": 1543,
  "\",Ċ": 1544,
  "ada": 1545,
  "Ġsom": 1546,
  "Ġsome": 1547,
  "_m": 1548,
  "()Ċ": 1549,
  "roll": 1550,
  "Res": 1551,
  "ote": 1552,
  "Ġtem": 1553,
  "Ġche": 1554,
  "Ġhere": 1555,
  "man": 1556,
  "ĠAs": 1557,
  "Ġles": 1558,
  "ule": 1559,
  "ider": 1560,
  "',Ċ": 1561,
  "user": 1562,
  "yp": 1563,
  "ype": 1564,
  "br": 1565,
  ".t": 1566,
  "].": 1567,
  "ole": 1568,
  "Ġstring": 1569,
  "ouse": 1570,
  "To": 1571,
  ");čĊ": 1572,
  "}\\": 1573,
  "oci": 1574,
  "tt": 1575,
  "ared": 1576,
  "ger": 1577,
  "ists": 1578,
  "Ġ%": 1579,
  "AN": 1580,
  "uth": 1581,
  "ush": 1582,
  "ateg": 1583,
  "á»": 1584,
  "ives": 1585,
  "Ġexp": 1586,
  "Ġexper": 1587,
  "Ġ?": 1588,
  "_f": 1589,
  "ĠEx": 1590,
  "ify": 1591,
  "Ġ--": 1592,
  "ĠDe": 1593,
  "ĠSh": 1594,
  "aus": 1595,
  "ause": 1596,
  "Ġbecause": 1597,
  "ample": 1598,
  ".C": 1599,
  "uss": 1600,
  "Ġtry": 1601,
  "hen": 1602,
  "Ġrep": 1603,
  "ĥ½": 1604,
  "over": 1605,
  "Ġsk": 1606,
  "../": 1607,
  "Ġdr": 1608,
  "Ġfr": 1609,
  "chn": 1610,
  "Ġra": 1611,
  "ĠX": 1612,
  "ism": 1613,
  "}}": 1614,
  "Ġ,": 1615,
  "Ġpo": 1616,
  "Ġpos": 1617,
  "Ġpol": 1618,
  "ww": 1619,
  "oo": 1620,
  "ood": 1621,
  "ool": 1622,
  "ook": 1623,
  "ract": 1624,
  "bs": 1625,
  "ervice": 1626,
  "orn": 1627,
  ".S": 1628,
  "ude": 1629,
  "amb": 1630,
  "Ġund": 1631,
  "We": 1632,
  "],": 1633,
  "yn": 1634,
  "erg": 1635,
  "ĠTr": 1636,
  "Ã¶": 1637,
  "clude": 1638,
  "cho": 1639,
  "col": 1640,
  "Ġcr": 1641,
  "Ġcre": 1642,
  "less": 1643,
  "Ġposs": 1644,
  ".f": 1645,
  "ĠZ": 1646,
  "arr": 1647,
  "Ġ`": 1648,
  "iness": 1649,
  "arm": 1650,
  "ĠÂ": 1651,
  "pre": 1652,
  "for": 1653,
  "form": 1654,
  "fore": 1655,
  "Ġmem": 1656,
  "().": 1657,
  "><": 1658,
  "ina": 1659,
  "inal": 1660,
  "iÃ³": 1661,
  "wh": 1662,
  "unt": 1663,
  "It": 1664,
  "ved": 1665,
  "ĊĠĠĠĠĠĠĠ": 1666,
  "Ġdisc": 1667,
  "ung": 1668,
  "alk": 1669,
  ".l": 1670,
  "Ġmet": 1671,
  "Ġkey": 1672,
  "à§": 1673,
  "eld": 1674,
  "Ġart": 1675,
  "Ġgl": 1676,
  "Ġret": 1677,
  "Ġsl": 1678,
  "_d": 1679,
  "ica": 1680,
  "ical": 1681,
  "Ġpost": 1682,
  "CT": 1683,
  "ves": 1684,
  "à¤¾": 1685,
  "att": 1686,
  "Ġserv": 1687,
  "ca": 1688,
  "ron": 1689,
  "tem": 1690,
  "Ġuser": 1691,
  "reg": 1692,
  "Ġtoo": 1693,
  "Ġaw": 1694,
  "Ġ&&": 1695,
  "Ġsay": 1696,
  "iver": 1697,
  "ivers": 1698,
  "},": 1699,
  "oss": 1700,
  "loc": 1701,
  "chool": 1702,
  "Ġva": 1703,
  "Ġval": 1704,
  "Ġvar": 1705,
  "\">Ċ": 1706,
  "ases": 1707,
  "item": 1708,
  "hes": 1709,
  "aut": 1710,
  "ior": 1711,
  "td": 1712,
  "ĊĠĠĠĠĠĠĠĠ": 1713,
  "Ġlog": 1714,
  ".A": 1715,
  ".h": 1716,
  "Ġ||": 1717,
  "arent": 1718,
  "Ġ!=": 1719,
  "ired": 1720,
  "oun": 1721,
  "ount": 1722,
  "ound": 1723,
  "':": 1724,
  "by": 1725,
  "ically": 1726,
  "ien": 1727,
  "ient": 1728,
  "ends": 1729,
  "ots": 1730,
  "oh": 1731,
  "opy": 1732,
  "ĊĠĠĠ": 1733,
  "tp": 1734,
  "Ġtop": 1735,
  "ado": 1736,
  "Ġuna": 1737,
  "ader": 1738,
  ".,": 1739,
  "url": 1740,
  "ler": 1741,
  "DE": 1742,
  "Ġarg": 1743,
  "ĠThey": 1744,
  "ency": 1745,
  "bl": 1746,
  "ble": 1747,
  "Int": 1748,
  "eta": 1749,
  "ava": 1750,
  "akes": 1751,
  "RO": 1752,
  "]Ċ": 1753,
  "Ġexpl": 1754,
  "čĊčĊ": 1755,
  "era": 1756,
  "_l": 1757,
  "Ġder": 1758,
  "ij": 1759,
  "By": 1760,
  "ott": 1761,
  "Ä±": 1762,
  "_b": 1763,
  "Ġdesign": 1764,
  "SS": 1765,
  "Ġprof": 1766,
  ".T": 1767,
  "ĠPl": 1768,
  "Ġrest": 1769,
  "ray": 1770,
  "='": 1771,
  "Tr": 1772,
  "fl": 1773,
  "rray": 1774,
  "rem": 1775,
  "Ġvari": 1776,
  ".d": 1777,
  "IC": 1778,
  "ager": 1779,
  "rc": 1780,
  "._": 1781,
  "Õ¡": 1782,
  "ET": 1783,
  "Ġpop": 1784,
  "ruct": 1785,
  "rent": 1786,
  "ram": 1787,
  "ane": 1788,
  "urs": 1789,
  "Ã©s": 1790,
  "ĠCl": 1791,
  "oot": 1792,
  "ĠInd": 1793,
  ".b": 1794,
  "ght": 1795,
  "Ġ**": 1796,
  "ience": 1797,
  "Ġ///": 1798,
  "mp": 1799,
  "Ġcomp": 1800,
  "ĠIs": 1801,
  "arge": 1802,
  "arget": 1803,
  "Ġide": 1804,
  "lock": 1805,
  "ety": 1806,
  "Im": 1807,
  ".D": 1808,
  "(f": 1809,
  "Ġexpect": 1810,
  "ee": 1811,
  "Ġmen": 1812,
  "org": 1813,
  "_C": 1814,
  "Ġdif": 1815,
  "Ġdiff": 1816,
  "Ġdiffere": 1817,
  "ĠRes": 1818,
  "Ġer": 1819,
  "UL": 1820,
  "html": 1821,
  "rror": 1822,
  "ĠLe": 1823,
  "Ġcontin": 1824,
  "ĠTo": 1825,
  "ES": 1826,
  "ĠÎ": 1827,
  "Ġfew": 1828,
  "**Ċ": 1829,
  "En": 1830,
  "ED": 1831,
  "à±": 1832,
  "Ġorg": 1833,
  "He": 1834,
  "AM": 1835,
  "Ġsw": 1836,
  "àµ": 1837,
  "inc": 1838,
  "ince": 1839,
  "As": 1840,
  "ĠSo": 1841,
  "acter": 1842,
  "Ġve": 1843,
  "Ġvery": 1844,
  "Ġver": 1845,
  "Ġerr": 1846,
  "Ġiss": 1847,
  "ived": 1848,
  "ĠOn": 1849,
  "cal": 1850,
  "Ġnon": 1851,
  "[\"": 1852,
  "ike": 1853,
  "ï¼Į": 1854,
  "(\\": 1855,
  "ai": 1856,
  "ain": 1857,
  "ail": 1858,
  "air": 1859,
  "ait": 1860,
  "Ġgoing": 1861,
  "rap": 1862,
  "raph": 1863,
  "ape": 1864,
  "Ġtw": 1865,
  "Ġtwo": 1866,
  "(Ċ": 1867,
  "ĠÃ©": 1868,
  "Ġless": 1869,
  "Al": 1870,
  "Ġcome": 1871,
  "Se": 1872,
  "ral": 1873,
  "ene": 1874,
  "ener": 1875,
  "ttp": 1876,
  "Ġà¦": 1877,
  "/*": 1878,
  "):Ċ": 1879,
  "nce": 1880,
  "[i": 1881,
  "Item": 1882,
  "da": 1883,
  "day": 1884,
  "();": 1885,
  "();Ċ": 1886,
  "la": 1887,
  "Ġadv": 1888,
  "Ġsy": 1889,
  "Ġbetter": 1890,
  "ĠAd": 1891,
  "Ã²": 1892,
  "Ġorgan": 1893,
  "Ġcheck": 1894,
  "gg": 1895,
  "rite": 1896,
  "ĉĉĉĉĉ": 1897,
  "php": 1898,
  "Ġrece": 1899,
  "An": 1900,
  "ump": 1901,
  "Ġ{čĊ": 1902,
  "ittle": 1903,
  "à¯": 1904,
  "((": 1905,
  "ĠInt": 1906,
  "Ġbeh": 1907,
  "Wh": 1908,
  "Ġopt": 1909,
  "ctions": 1910,
  "itch": 1911,
  "×Ļ": 1912,
  "Ġdie": 1913,
  "ĠAll": 1914,
  "Ġdev": 1915,
  ".F": 1916,
  "Ãº": 1917,
  "Ġbus": 1918,
  "fe": 1919,
  "fer": 1920,
  "UT": 1921,
  "ĠEn": 1922,
  "Ġtot": 1923,
  "={": 1924,
  "Ġca": 1925,
  "Ġcan": 1926,
  "Ġcall": 1927,
  "Ġcase": 1928,
  "Ġcar": 1929,
  "Ġcap": 1930,
  "Ġcal": 1931,
  "Ġcare": 1932,
  "Ind": 1933,
  "Ġ<<": 1934,
  "¦ģ": 1935,
  "ox": 1936,
  "eb": 1937,
  "Ġamb": 1938,
  "ences": 1939,
  "ache": 1940,
  "IS": 1941,
  "ĠFr": 1942,
  "ese": 1943,
  "Î±": 1944,
  "Ġbeg": 1945,
  "med": 1946,
  "Ġpot": 1947,
  "20": 1948,
  "ides": 1949,
  "ply": 1950,
  "Ġ__": 1951,
  "ources": 1952,
  "erc": 1953,
  "ĠPh": 1954,
  "Ġprom": 1955,
  "ĠEl": 1956,
  "If": 1957,
  "ards": 1958,
  "ands": 1959,
  "no": 1960,
  "not": 1961,
  "now": 1962,
  "Ġcle": 1963,
  "ho": 1964,
  "AC": 1965,
  "apt": 1966,
  "ours": 1967,
  "Ġeng": 1968,
  "Ġbusiness": 1969,
  "Âł": 1970,
  "ĠOr": 1971,
  "af": 1972,
  "aph": 1973,
  "Ġdep": 1974,
  "Ġleg": 1975,
  "iven": 1976,
  ".j": 1977,
  "idd": 1978,
  "sw": 1979,
  "Ġprot": 1980,
  "ances": 1981,
  "omen": 1982,
  "aces": 1983,
  "ift": 1984,
  "ev": 1985,
  "uro": 1986,
  "Ġask": 1987,
  "orth": 1988,
  "UR": 1989,
  "Ġbre": 1990,
  "Ġbreak": 1991,
  "uck": 1992,
  "rm": 1993,
  "na": 1994,
  "angu": 1995,
  "result": 1996,
  ":ĊĊ": 1997,
  "aps": 1998,
  "}{": 1999,
  "ĠPr": 2000,
  "ĠPro": 2001,
  "Un": 2002,
  "Ġenc": 2003,
  "Ã¥": 2004,
  "Ġinc": 2005,
  "Ġseem": 2006,
  "Ġvo": 2007,
  "Ġvol": 2008,
  "ze": 2009,
  "à¥ĩ": 2010,
  "iter": 2011,
  "Ġcho": 2012,
  "Õ¡Õ": 2013,
  "Ġlaw": 2014,
  "ĠUS": 2015,
  "AS": 2016,
  "\"]": 2017,
  "×ķ": 2018,
  "lick": 2019,
  "ird": 2020,
  "Ġsure": 2021,
  "On": 2022,
  "Ġlos": 2023,
  "Ġident": 2024,
  "ĠEng": 2025,
  ".P": 2026,
  "Ġsuper": 2027,
  "une": 2028,
  "Set": 2029,
  "à¤°": 2030,
  "leg": 2031,
  "Ġbro": 2032,
  "``": 2033,
  "Ġter": 2034,
  "Ġterm": 2035,
  "></": 2036,
  "ĠNo": 2037,
  "_P": 2038,
  "_S": 2039,
  "go": 2040,
  "ĠÃł": 2041,
  "_n": 2042,
  "ĠShe": 2043,
  "At": 2044,
  "\")Ċ": 2045,
  "ĠBe": 2046,
  "(s": 2047,
  "ĠSp": 2048,
  "ana": 2049,
  "off": 2050,
  "Ġben": 2051,
  "ĠAt": 2052,
  "iod": 2053,
  "à³": 2054,
  "Î¿": 2055,
  "^{": 2056,
  "Ġma": 2057,
  "Ġman": 2058,
  "Ġmay": 2059,
  "Ġmany": 2060,
  "Ġmat": 2061,
  "Ġmar": 2062,
  "Ġmark": 2063,
  "ĠĠĠĠĊ": 2064,
  "Ġexam": 2065,
  "Ġexample": 2066,
  "uf": 2067,
  "uff": 2068,
  "ux": 2069,
  "ÏĦ": 2070,
  "outh": 2071,
  "here": 2072,
  "Ġdem": 2073,
  "ĠÕ": 2074,
  "Cl": 2075,
  "irc": 2076,
  "ope": 2077,
  "aint": 2078,
  "ui": 2079,
  "pi": 2080,
  "ades": 2081,
  "ently": 2082,
  "Ġele": 2083,
  "(),": 2084,
  "define": 2085,
  "Ġvan": 2086,
  "Ġelect": 2087,
  "(t": 2088,
  "px": 2089,
  "ĠLa": 2090,
  "ury": 2091,
  "ĠBl": 2092,
  "ids": 2093,
  "box": 2094,
  "ï¼Ł": 2095,
  "OT": 2096,
  "oney": 2097,
  "Ã£": 2098,
  "ret": 2099,
  "return": 2100,
  "my": 2101,
  "AD": 2102,
  "unc": 2103,
  "HE": 2104,
  "_{\\": 2105,
  "ULL": 2106,
  "ĠTe": 2107,
  "Ġresults": 2108,
  "))Ċ": 2109,
  "Ġfre": 2110,
  "Ġfree": 2111,
  "_T": 2112,
  "Ġmax": 2113,
  "ero": 2114,
  ".âĢĿ": 2115,
  "ĠSc": 2116,
  "\"\"": 2117,
  "Ġlim": 2118,
  "Ġsum": 2119,
  "Ġdesc": 2120,
  "})": 2121,
  "'Ċ": 2122,
  "lete": 2123,
  "Ġlow": 2124,
  "ills": 2125,
  "aper": 2126,
  "Ġappe": 2127,
  "Ġ$\\": 2128,
  "ql": 2129,
  "-s": 2130,
  "Ġden": 2131,
  "ients": 2132,
  "Sh": 2133,
  "áº": 2134,
  "come": 2135,
  "ING": 2136,
  "áĥĲ": 2137,
  "Ġtre": 2138,
  "Ġ+=": 2139,
  "ĠIm": 2140,
  "ones": 2141,
  "Ġgot": 2142,
  "Ġexist": 2143,
  "âĢĻt": 2144,
  "][": 2145,
  "áĢ": 2146,
  "Ġfa": 2147,
  "Ġfam": 2148,
  "Ġfar": 2149,
  "Ġ/*": 2150,
  "à¥į": 2151,
  "Ġprovide": 2152,
  "ideo": 2153,
  "LO": 2154,
  "ï¼ģ": 2155,
  "lex": 2156,
  ".st": 2157,
  "uk": 2158,
  "Ġdone": 2159,
  "acy": 2160,
  "ules": 2161,
  "Ġda": 2162,
  "Ġday": 2163,
  "Ġdat": 2164,
  "Ġdata": 2165,
  "Ġdays": 2166,
  "Ġnet": 2167,
  "utes": 2168,
  ".W": 2169,
  "Ġant": 2170,
  "Ġactiv": 2171,
  "Ġwhy": 2172,
  "opt": 2173,
  "ams": 2174,
  "###": 2175,
  "####": 2176,
  "Ġprovid": 2177,
  "Ġtreat": 2178,
  "arc": 2179,
  "arch": 2180,
  "den": 2181,
  "Ġ*Ċ": 2182,
  "rows": 2183,
  "Index": 2184,
  "rest": 2185,
  ".L": 2186,
  "ised": 2187,
  "Ġdu": 2188,
  "00": 2189,
  "Ġlot": 2190,
  "Î¹": 2191,
  "enn": 2192,
  "source": 2193,
  "ĠThese": 2194,
  "Ġ->": 2195,
  "IM": 2196,
  "bre": 2197,
  "ohn": 2198,
  ".g": 2199,
  "iction": 2200,
  "Ġfac": 2201,
  "Ġfact": 2202,
  "aim": 2203,
  "ored": 2204,
  ".n": 2205,
  "Bo": 2206,
  "esc": 2207,
  "where": 2208,
  "De": 2209,
  "ered": 2210,
  "ĉf": 2211,
  "Ġknown": 2212,
  "ĠWhat": 2213,
  "Ġlik": 2214,
  "Ġlike": 2215,
  "ume": 2216,
  "ched": 2217,
  "ync": 2218,
  "icro": 2219,
  "IL": 2220,
  "ĊĠĠĠĠĠĠĠĠĠĠĠ": 2221,
  "),Ċ": 2222,
  "Ġred": 2223,
  "Ġredu": 2224,
  "ĠBy": 2225,
  "ĠMe": 2226,
  "Ġdiffer": 2227,
  "Ġdifferent": 2228,
  "AB": 2229,
  "eq": 2230,
  "equ": 2231,
  "pha": 2232,
  "(m": 2233,
  "reen": 2234,
  "Ġwr": 2235,
  "Ġwrit": 2236,
  "irt": 2237,
  "Ġsays": 2238,
  "try": 2239,
  "Ġstd": 2240,
  "Ġess": 2241,
  "uit": 2242,
  "heck": 2243,
  "And": 2244,
  "ales": 2245,
  "IG": 2246,
  "ips": 2247,
  "Ar": 2248,
  "....": 2249,
  "Ġbecome": 2250,
  "],Ċ": 2251,
  "Ġ(!": 2252,
  "Ġprob": 2253,
  "ï¼ī": 2254,
  "urch": 2255,
  "_M": 2256,
  "ript": 2257,
  "Or": 2258,
  "ured": 2259,
  "hor": 2260,
  "_st": 2261,
  "\".": 2262,
  "ley": 2263,
  "PE": 2264,
  "alt": 2265,
  "alth": 2266,
  "ino": 2267,
  "Ġsex": 2268,
  "umn": 2269,
  "../../": 2270,
  "tes": 2271,
  "test": 2272,
  "py": 2273,
  "Ġconc": 2274,
  "-b": 2275,
  ")čĊ": 2276,
  "ĠGr": 2277,
  "Ġpor": 2278,
  ".M": 2279,
  "Ġann": 2280,
  "Ġexc": 2281,
  "Ġcou": 2282,
  "Ġcount": 2283,
  "Ġcour": 2284,
  "<?": 2285,
  "FF": 2286,
  "Ġprop": 2287,
  "Ġproper": 2288,
  "irm": 2289,
  "ags": 2290,
  "ĠĠĠĠĠĠĠĠĠĠ": 2291,
  "ĠĠĠĠĠĠĠĠĠĠĠ": 2292,
  "ĠĠĠĠĠĠĠĠĠĠĠĠĠ": 2293,
  "ĠĠĠĠĠĠĠĠĠĠĠĠ": 2294,
  "US": 2295,
  "pty": 2296,
  "ĠIN": 2297,
  "Ġprote": 2298,
  "va": 2299,
  "val": 2300,
  "var": 2301,
  "Ġupon": 2302,
  "Ġcountry": 2303,
  "AP": 2304,
  "else": 2305,
  "Ġcomput": 2306,
  "What": 2307,
  "iet": 2308,
  "enu": 2309,
  ">ĊĊ": 2310,
  "riv": 2311,
  "')Ċ": 2312,
  "met": 2313,
  "resh": 2314,
  "(p": 2315,
  "Ġdue": 2316,
  "gen": 2317,
  "Ġey": 2318,
  "Ġ|Ċ": 2319,
  "www": 2320,
  "rid": 2321,
  "ride": 2322,
  "ds": 2323,
  "-m": 2324,
  ".G": 2325,
  "tn": 2326,
  "olum": 2327,
  "ENT": 2328,
  "Ġarr": 2329,
  "Qu": 2330,
  "Ġna": 2331,
  "mb": 2332,
  "Ġcomb": 2333,
  "ken": 2334,
  "Ġtri": 2335,
  "Ġpress": 2336,
  "à«": 2337,
  "Ġdest": 2338,
  "à¤¾à¤": 2339,
  "do": 2340,
  "mand": 2341,
  "All": 2342,
  "ida": 2343,
  "ilt": 2344,
  "Box": 2345,
  "ges": 2346,
  "alf": 2347,
  "aff": 2348,
  "Ġge": 2349,
  "Ġget": 2350,
  "Ġgen": 2351,
  "UN": 2352,
  "(c": 2353,
  "ackage": 2354,
  "ided": 2355,
  "cy": 2356,
  "OM": 2357,
  "Î½": 2358,
  "Ġels": 2359,
  "Ġelse": 2360,
  "ĠMy": 2361,
  "ĠAss": 2362,
  "Ġ()": 2363,
  "Pl": 2364,
  "ogn": 2365,
  "olean": 2366,
  "×Ļ×": 2367,
  "ĊĊĊ": 2368,
  "ĊĊĊĊ": 2369,
  "odes": 2370,
  "CH": 2371,
  "aken": 2372,
  "Ġbegin": 2373,
  "Ġà°": 2374,
  "Up": 2375,
  "Îµ": 2376,
  "Ã£o": 2377,
  "Ġresp": 2378,
  "Of": 2379,
  "erty": 2380,
  "AG": 2381,
  "Ġáĥ": 2382,
  "lu": 2383,
  "iles": 2384,
  "Ġlib": 2385,
  ".w": 2386,
  "ï¼ļ": 2387,
  "II": 2388,
  "Ġwhether": 2389,
  "db": 2390,
  "oud": 2391,
  "ypes": 2392,
  "Le": 2393,
  "agn": 2394,
  ",âĢĿ": 2395,
  "ĠQu": 2396,
  "ney": 2397,
  "ples": 2398,
  "ights": 2399,
  "×ķ×": 2400,
  "Äį": 2401,
  "lient": 2402,
  "Å¡": 2403,
  "Ġdiv": 2404,
  "();ĊĊ": 2405,
  "cer": 2406,
  "}.": 2407,
  "eral": 2408,
  "Ġseg": 2409,
  "iÃ³n": 2410,
  "ued": 2411,
  "ha": 2412,
  "hat": 2413,
  "ires": 2414,
  "clus": 2415,
  "api": 2416,
  "Ġclear": 2417,
  "ĉc": 2418,
  "vo": 2419,
  "ĠMed": 2420,
  "Ġoffer": 2421,
  "Ġseen": 2422,
  "Ġens": 2423,
  "}$": 2424,
  "cle": 2425,
  "ĠBr": 2426,
  "Ġmap": 2427,
  "Ġ{ĊĊ": 2428,
  "(n": 2429,
  "OL": 2430,
  "Ġabs": 2431,
  "yl": 2432,
  "yle": 2433,
  "ros": 2434,
  "ross": 2435,
  "net": 2436,
  "ites": 2437,
  "aged": 2438,
  "Ob": 2439,
  "áĥĺ": 2440,
  "map": 2441,
  "pen": 2442,
  "pend": 2443,
  "No": 2444,
  "Node": 2445,
  "Ġdate": 2446,
  "img": 2447,
  "ĠAb": 2448,
  "ama": 2449,
  "ĠOne": 2450,
  "Ġdom": 2451,
  "_F": 2452,
  "PI": 2453,
  "Ġson": 2454,
  "Ġten": 2455,
  "ĠDo": 2456,
  "OD": 2457,
  "\").": 2458,
  "Ġface": 2459,
  "ribut": 2460,
  "args": 2461,
  "à¹": 2462,
  "oto": 2463,
  "ĠFl": 2464,
  "elt": 2465,
  "Ġvarious": 2466,
  "icult": 2467,
  "áĥĲáĥ": 2468,
  "ara": 2469,
  "aram": 2470,
  "elp": 2471,
  "ria": 2472,
  "())": 2473,
  "])": 2474,
  "Ad": 2475,
  "Add": 2476,
  "Ġneg": 2477,
  "ĠNot": 2478,
  "ĠDr": 2479,
  "osp": 2480,
  "Ġ\"\"": 2481,
  "iversity": 2482,
  "àµį": 2483,
  "Ġpred": 2484,
  "./": 2485,
  "rel": 2486,
  "Ġàª": 2487,
  "lib": 2488,
  "Ġos": 2489,
  "ores": 2490,
  "ĉĉĉĉĉĉ": 2491,
  "Not": 2492,
  "Ġinte": 2493,
  "Ġinter": 2494,
  ",\\": 2495,
  "uto": 2496,
  "CE": 2497,
  "ici": 2498,
  "top": 2499,
  "OS": 2500,
  "iled": 2501,
  "ios": 2502,
  "ambda": 2503,
  "(d": 2504,
  "ians": 2505,
  "à¤¿": 2506,
  "cr": 2507,
  "cre": 2508,
  "cri": 2509,
  "cript": 2510,
  "tra": 2511,
  "sel": 2512,
  "self": 2513,
  "Ġgra": 2514,
  "Ref": 2515,
  "Result": 2516,
  "Ġmatch": 2517,
  "Ġsi": 2518,
  "Ġsim": 2519,
  "Ġsit": 2520,
  "Ġsite": 2521,
  "#define": 2522,
  "Ph": 2523,
  "El": 2524,
  "').": 2525,
  "ili": 2526,
  "Ġtook": 2527,
  "ĠGu": 2528,
  "ran": 2529,
  "ÖĢ": 2530,
  "olumn": 2531,
  "Ġsal": 2532,
  "ais": 2533,
  "Ġcoun": 2534,
  "ĠAm": 2535,
  "max": 2536,
  "lt": 2537,
  "Ġste": 2538,
  "Ġstep": 2539,
  "Ġcas": 2540,
  "fort": 2541,
  "à¥įà¤": 2542,
  "Ġweb": 2543,
  "Ġ:=": 2544,
  "Ġ($": 2545,
  "sk": 2546,
  "!!": 2547,
  "ledge": 2548,
  "elta": 2549,
  "Ġhab": 2550,
  "omb": 2551,
  "Ġil": 2552,
  "ĠReg": 2553,
  "-d": 2554,
  "ĠBo": 2555,
  ">čĊ": 2556,
  "Ġwhole": 2557,
  "à¯į": 2558,
  "bed": 2559,
  "ĠDes": 2560,
  "Ġdig": 2561,
  "ped": 2562,
  "Def": 2563,
  "Ġimm": 2564,
  "à¦¾": 2565,
  "Ġfri": 2566,
  "Ġfriend": 2567,
  "Ġsym": 2568,
  "atal": 2569,
  "isk": 2570,
  "ga": 2571,
  "gan": 2572,
  "option": 2573,
  "ĠMr": 2574,
  "Ġ((": 2575,
  "used": 2576,
  "Ġdidn": 2577,
  "Ġcomes": 2578,
  "Ġje": 2579,
  "Is": 2580,
  "ĠEd": 2581,
  "Ġage": 2582,
  "gl": 2583,
  "ele": 2584,
  "Ãª": 2585,
  "Ġmag": 2586,
  "htt": 2587,
  "http": 2588,
  "https": 2589,
  "Ġty": 2590,
  "Ġtype": 2591,
  "Ġtyp": 2592,
  "à¥Ģ": 2593,
  "anguage": 2594,
  "','": 2595,
  "ls": 2596,
  "ails": 2597,
  "Ġdam": 2598,
  "anks": 2599,
  "isc": 2600,
  "Ġvi": 2601,
  "Ġvis": 2602,
  "Â·": 2603,
  "ATE": 2604,
  "ando": 2605,
  "andom": 2606,
  "ops": 2607,
  "Ġwrite": 2608,
  "ief": 2609,
  "Ġq": 2610,
  "Ġqu": 2611,
  "Ġque": 2612,
  "Ġsupp": 2613,
  "Ġsupport": 2614,
  "sg": 2615,
  "ĠGe": 2616,
  "ĠGet": 2617,
  "Ġcond": 2618,
  "Ġidea": 2619,
  "\\\\": 2620,
  "df": 2621,
  "Ent": 2622,
  "ura": 2623,
  "ural": 2624,
  "}(": 2625,
  "ged": 2626,
  "},Ċ": 2627,
  "ĠCo": 2628,
  "ĠCom": 2629,
  "ĠCon": 2630,
  "ĠCol": 2631,
  "ĠCont": 2632,
  "icy": 2633,
  "ario": 2634,
  "js": 2635,
  "Ġbi": 2636,
  "Ġbig": 2637,
  "Ġbit": 2638,
  "Ġdise": 2639,
  "Ġsitu": 2640,
  "std": 2641,
  "iddle": 2642,
  "unch": 2643,
  "_D": 2644,
  "ias": 2645,
  "angle": 2646,
  "uffer": 2647,
  "Ġproperty": 2648,
  "Ġoption": 2649,
  "Ġoptions": 2650,
  "serv": 2651,
  "When": 2652,
  "_h": 2653,
  "ached": 2654,
  "*/": 2655,
  "Ġill": 2656,
  "TR": 2657,
  "bol": 2658,
  "ĠAdd": 2659,
  "ipp": 2660,
  "amed": 2661,
  "ĠSet": 2662,
  "ony": 2663,
  "umb": 2664,
  "PO": 2665,
  "?\"": 2666,
  "Ġà¤ķ": 2667,
  "ico": 2668,
  "icon": 2669,
  "Ġlikely": 2670,
  "aced": 2671,
  "Ġterms": 2672,
  "Ġ===": 2673,
  "men": 2674,
  "ment": 2675,
  "ments": 2676,
  "cd": 2677,
  "ows": 2678,
  ".e": 2679,
  "Ġoffic": 2680,
  "Ġsaf": 2681,
  "aves": 2682,
  "lem": 2683,
  "ML": 2684,
  "True": 2685,
  "plement": 2686,
  "za": 2687,
  "ted": 2688,
  "ected": 2689,
  "Ġlower": 2690,
  "md": 2691,
  "Ġsomeone": 2692,
  "So": 2693,
  "Ġsat": 2694,
  "Â»": 2695,
  "ona": 2696,
  "uel": 2697,
  "Ïģ": 2698,
  "Ġappear": 2699,
  "Em": 2700,
  "json": 2701,
  "je": 2702,
  "ises": 2703,
  "ened": 2704,
  "ĉĊ": 2705,
  "ille": 2706,
  "Ġadded": 2707,
  "_N": 2708,
  "ÅĤ": 2709,
  "Ġll": 2710,
  "asc": 2711,
  "Ġdepend": 2712,
  "rec": 2713,
  "rect": 2714,
  "Ġdeg": 2715,
  "lev": 2716,
  "untu": 2717,
  "oms": 2718,
  "ĠAN": 2719,
  "ords": 2720,
  "Ġprovided": 2721,
  "Ġcolumn": 2722,
  "IV": 2723,
  "Ġinde": 2724,
  "Ġindex": 2725,
  ")\\": 2726,
  "Ġetc": 2727,
  "ĠSte": 2728,
  "dev": 2729,
  "ln": 2730,
  "ĠÂ«": 2731,
  "ĠAp": 2732,
  "ĠApp": 2733,
  "-c": 2734,
  "oper": 2735,
  "Ġhav": 2736,
  "Ġhave": 2737,
  "Ġau": 2738,
  "Ġaut": 2739,
  "}_": 2740,
  "rown": 2741,
  "Ġclean": 2742,
  "omet": 2743,
  "Ġprotect": 2744,
  "rew": 2745,
  "Ġrad": 2746,
  "Õ¸": 2747,
  "Ġimpact": 2748,
  "Sc": 2749,
  "Ġloss": 2750,
  "Ġstre": 2751,
  "ols": 2752,
  "UE": 2753,
  "rint": 2754,
  "Ġrecent": 2755,
  "ounds": 2756,
  ".)": 2757,
  "rt": 2758,
  "vert": 2759,
  "Ġport": 2760,
  "ĠRep": 2761,
  "ĠĠĠĠĠĠĠĠĠĠĠĠĠĠ": 2762,
  "ĠĠĠĠĠĠĠĠĠĠĠĠĠĠĠĠ": 2763,
  "ĠĠĠĠĠĠĠĠĠĠĠĠĠĠĠ": 2764,
  "ĠĠĠĠĠĠĠĠĠĠĠĠĠĠĠĠĠ": 2765,
  "Ġ},": 2766,
  "Ġ},Ċ": 2767,
  "Ïĥ": 2768,
  "artment": 2769,
  "len": 2770,
  "_B": 2771,
  "create": 2772,
  "Ġlay": 2773,
  "Ġcompet": 2774,
  "ii": 2775,
  "ka": 2776,
  "anced": 2777,
  "Ġrow": 2778,
  "yles": 2779,
  "Ġsus": 2780,
  "Ġur": 2781,
  "ialog": 2782,
  "Å¾": 2783,
  "Ġexpected": 2784,
  "_A": 2785,
  "Ġ)Ċ": 2786,
  "istr": 2787,
  "Ġtool": 2788,
  "Ġregard": 2789,
  "LL": 2790,
  "open": 2791,
  "\\n": 2792,
  "Ġbuy": 2793,
  "gy": 2794,
  "({": 2795,
  "lim": 2796,
  "see": 2797,
  "cause": 2798,
  "\"ĊĊ": 2799,
  "();čĊ": 2800,
  "TE": 2801,
  ".r": 2802,
  ".re": 2803,
  "atform": 2804,
  "Ġdecl": 2805,
  "ador": 2806,
  "sm": 2807,
  "Ġ]": 2808,
  "po": 2809,
  "pon": 2810,
  "pos": 2811,
  "por": 2812,
  "port": 2813,
  "pose": 2814,
  "post": 2815,
  "pond": 2816,
  "uid": 2817,
  ")(": 2818,
  "itz": 2819,
  "ĠThen": 2820,
  "Ġsem": 2821,
  "ba": 2822,
  "bar": 2823,
  "aci": 2824,
  "IR": 2825,
  "Ed": 2826,
  "Ġalt": 2827,
  "Ġ;": 2828,
  "_w": 2829,
  "Ġexact": 2830,
  "Ã±": 2831,
  "rs": 2832,
  "vers": 2833,
  "bers": 2834,
  "ters": 2835,
  "Ġpers": 2836,
  "version": 2837,
  "Ġvers": 2838,
  "verse": 2839,
  "Ġà²": 2840,
  "Ġopp": 2841,
  "Ġvia": 2842,
  "Ġtrying": 2843,
  ".B": 2844,
  "Ġnp": 2845,
  "One": 2846,
  "âĢ¦âĢ¦": 2847,
  "Ġfriends": 2848,
  "EL": 2849,
  "unk": 2850,
  "EM": 2851,
  "local": 2852,
  "ÅŁ": 2853,
  "_r": 2854,
  "_re": 2855,
  "Äĥ": 2856,
  "oph": 2857,
  "ita": 2858,
  "ital": 2859,
  "itat": 2860,
  "Ġlen": 2861,
  "ĠGo": 2862,
  "ĠGod": 2863,
  "{čĊ": 2864,
  "posed": 2865,
  "Ġ\"\"\"": 2866,
  "Ġlas": 2867,
  "Ġlast": 2868,
  "NS": 2869,
  "ĠSch": 2870,
  "sl": 2871,
  "ports": 2872,
  ">>": 2873,
  "Ġ}čĊ": 2874,
  "Ġindust": 2875,
  "obj": 2876,
  "object": 2877,
  "ny": 2878,
  "mm": 2879,
  "Ġcomm": 2880,
  "Ġcommon": 2881,
  "comm": 2882,
  "Ġcommun": 2883,
  "Ġcommunity": 2884,
  "vol": 2885,
  "ula": 2886,
  "ular": 2887,
  "Ġhy": 2888,
  "ounc": 2889,
  "IP": 2890,
  "illed": 2891,
  "rawing": 2892,
  "Ġsn": 2893,
  "aven": 2894,
  "Ġce": 2895,
  "erence": 2896,
  "eps": 2897,
  "Ġdeb": 2898,
  "HT": 2899,
  "Ġasked": 2900,
  "ror": 2901,
  "Ġbox": 2902,
  "ils": 2903,
  "ches": 2904,
  "Ġesc": 2905,
  "Be": 2906,
  "Ġseems": 2907,
  "pm": 2908,
  "Ġago": 2909,
  "Ġ\\\\": 2910,
  "ican": 2911,
  "ĠNe": 2912,
  "ĠNew": 2913,
  "Ġcompan": 2914,
  "Ġcompany": 2915,
  "Ġaf": 2916,
  "Ġaff": 2917,
  "rag": 2918,
  "Ġsil": 2919,
  "hr": 2920,
  "\",\"": 2921,
  "umer": 2922,
  "mu": 2923,
  "rl": 2924,
  "cret": 2925,
  "Ġrepl": 2926,
  "áĥĶ": 2927,
  "UI": 2928,
  "Ġknowledge": 2929,
  "ĠDep": 2930,
  "sec": 2931,
  "-t": 2932,
  "([": 2933,
  "Ġengine": 2934,
  "Ġtreatment": 2935,
  "Ã¸": 2936,
  "\\\"": 2937,
  "à¤¿à¤": 2938,
  "inst": 2939,
  "Ġprotected": 2940,
  "ĉfor": 2941,
  "QL": 2942,
  "Ġdels": 2943,
  "Ġang": 2944,
  "ĠEm": 2945,
  "oute": 2946,
  "rary": 2947,
  "rip": 2948,
  "comp": 2949,
  "Ġlit": 2950,
  "Ġrese": 2951,
  "Ġresearch": 2952,
  "ĠĠĠĠ<": 2953,
  "ĉs": 2954,
  "lob": 2955,
  "ĠCor": 2956,
  "etail": 2957,
  "izer": 2958,
  "ato": 2959,
  "ator": 2960,
  "ators": 2961,
  "atory": 2962,
  "}čĊ": 2963,
  "dom": 2964,
  "(&": 2965,
  "mt": 2966,
  "oke": 2967,
  "oken": 2968,
  "à¨": 2969,
  "ja": 2970,
  "acc": 2971,
  "urg": 2972,
  "Ã°": 2973,
  "Ġcred": 2974,
  "Ġurl": 2975,
  "Ġusers": 2976,
  "ĠID": 2977,
  "ï¼Ī": 2978,
  "ĠAg": 2979,
  "Ġsix": 2980,
  "ustr": 2981,
  "hers": 2982,
  "Ġmo": 2983,
  "Ġmod": 2984,
  "Ġmon": 2985,
  "Ġmov": 2986,
  "Ġmove": 2987,
  "Ġmom": 2988,
  "Ġmot": 2989,
  "Ġmoney": 2990,
  "Ġmor": 2991,
  "Ġmore": 2992,
  "Ġmoment": 2993,
  "urr": 2994,
  "urre": 2995,
  "urrent": 2996,
  "||": 2997,
  "Ġnews": 2998,
  "Str": 2999,
  "String": 3000,
  "Ġbed": 3001,
  "rame": 3002,
  ":\"": 3003,
  ")$": 3004,
  "lin": 3005,
  "line": 3006,
  "ling": 3007,
  "Ġonline": 3008,
  "link": 3009,
  "Ġep": 3010,
  "ste": 3011,
  "stem": 3012,
  "ster": 3013,
  "ĠUp": 3014,
  "ĠIS": 3015,
  "àµįà´": 3016,
  "Ã³n": 3017,
  "Ġâ": 3018,
  "ĠâĢ": 3019,
  "ĠâĢľ": 3020,
  "ĠâĢĵ": 3021,
  "ĠâĢĶ": 3022,
  "ĠâĢĺ": 3023,
  "à§ĩ": 3024,
  "Ġbehind": 3025,
  "Ġpod": 3026,
  "Ġprovides": 3027,
  "ente": 3028,
  "enter": 3029,
  "UM": 3030,
  "(b": 3031,
  "Ġà´": 3032,
  "ua": 3033,
  "ual": 3034,
  "ually": 3035,
  "Ġsaw": 3036,
  "201": 3037,
  "-f": 3038,
  "OP": 3039,
  "Ġnom": 3040,
  "Ġir": 3041,
  "ĠOF": 3042,
  "ĠPe": 3043,
  "ĠPer": 3044,
  "oon": 3045,
  "\"/": 3046,
  "Ġprec": 3047,
  "web": 3048,
  "ya": 3049,
  "ns": 3050,
  "ions": 3051,
  "Ġcons": 3052,
  "Ġconst": 3053,
  "Ġins": 3054,
  "Ġinst": 3055,
  "ains": 3056,
  "Ġinstance": 3057,
  "Ġconsum": 3058,
  "Ġinside": 3059,
  ",'": 3060,
  "ĠSm": 3061,
  "Ġbecame": 3062,
  "Ġswitch": 3063,
  "emb": 3064,
  "ora": 3065,
  "orage": 3066,
  "Ġcoll": 3067,
  "La": 3068,
  "Ġdoc": 3069,
  "ervices": 3070,
  "gether": 3071,
  "ista": 3072,
  "Õ¥": 3073,
  "CC": 3074,
  "ners": 3075,
  "Ġeyes": 3076,
  "Ġdim": 3077,
  "mat": 3078,
  "math": 3079,
  "mathb": 3080,
  "mathcal": 3081,
  "NA": 3082,
  "zy": 3083,
  "roy": 3084,
  "ĠNow": 3085,
  "airs": 3086,
  "ido": 3087,
  "ube": 3088,
  "Õ¶": 3089,
  "rg": 3090,
  "ĠSee": 3091,
  "adi": 3092,
  ".'": 3093,
  "ena": 3094,
  "ename": 3095,
  "anch": 3096,
  "IF": 3097,
  "Reg": 3098,
  "(i": 3099,
  "Ġaud": 3100,
  "Ġcy": 3101,
  "Ġenv": 3102,
  "ĠOb": 3103,
  "ems": 3104,
  "inu": 3105,
  "\");": 3106,
  "\");Ċ": 3107,
  "ï¼Ľ": 3108,
  "ymbol": 3109,
  "mar": 3110,
  "mary": 3111,
  "Ġobj": 3112,
  ".R": 3113,
  "ĠOR": 3114,
  "Ġtrad": 3115,
  "ourn": 3116,
  "Pr": 3117,
  "Pro": 3118,
  "ipe": 3119,
  "gu": 3120,
  "à¥ĭ": 3121,
  "ĠRed": 3122,
  "Ġsun": 3123,
  "Ġmode": 3124,
  "Ġmodel": 3125,
  "Ġmodels": 3126,
  ",čĊ": 3127,
  "}_{": 3128,
  "bf": 3129,
  "aily": 3130,
  "irtual": 3131,
  "Ġera": 3132,
  "efore": 3133,
  "Ġpret": 3134,
  "Ġ['": 3135,
  ".x": 3136,
  "Ġcontinu": 3137,
  "Ġcontinue": 3138,
  "=>": 3139,
  "Ġbegan": 3140,
  "Ġut": 3141,
  "ĊĠĠĠĠĠĠĠĠĠĠĠĠĠĠĠĠ": 3142,
  "My": 3143,
  "''": 3144,
  "Ġspeed": 3145,
  "ĠUs": 3146,
  "Ġprog": 3147,
  "pany": 3148,
  "(e": 3149,
  "ingle": 3150,
  "Ġaffect": 3151,
  "mark": 3152,
  "reet": 3153,
  "ailed": 3154,
  "selves": 3155,
  "Ġthemselves": 3156,
  "CO": 3157,
  "ĉm": 3158,
  "Ġactive": 3159,
  "(x": 3160,
  "(_": 3161,
  "Ġdisease": 3162,
  "Ġgre": 3163,
  "Ġgreat": 3164,
  "Ġcam": 3165,
  "Ġcame": 3166,
  "Ġcamp": 3167,
  "Ġfem": 3168,
  "Prop": 3169,
  "Ġalg": 3170,
  "à¤Ĥ": 3171,
  "pons": 3172,
  "ponse": 3173,
  "Ġconsist": 3174,
  "à±į": 3175,
  "áĥĶáĥ": 3176,
  "ĠDon": 3177,
  "```": 3178,
  "_g": 3179,
  ";čĊčĊ": 3180,
  "then": 3181,
  "medi": 3182,
  "Ġactivity": 3183,
  "rix": 3184,
  "Ġchoose": 3185,
  "Ġà®": 3186,
  "lambda": 3187,
  "ante": 3188,
  "Ġum": 3189,
  "aciÃ³": 3190,
  "ĠLet": 3191,
  "ini": 3192,
  "init": 3193,
  ">(": 3194,
  "Ġsec": 3195,
  "can": 3196,
  "irection": 3197,
  "gn": 3198,
  "Ġdog": 3199,
  "Ġargs": 3200,
  "anger": 3201,
  "Ġensure": 3202,
  "ÉĻ": 3203,
  "una": 3204,
  "Ġpa": 3205,
  "Ġpart": 3206,
  "Ġpar": 3207,
  "Ġpass": 3208,
  "Ġpat": 3209,
  "Ġpath": 3210,
  "Ġpay": 3211,
  "Ġpara": 3212,
  "Ġpast": 3213,
  "Ġparam": 3214,
  "Ġparts": 3215,
  "âĢŀ": 3216,
  "cel": 3217,
  "Ġtro": 3218,
  "izes": 3219,
  "ĠSer": 3220,
  "!\"": 3221,
  "EX": 3222,
  "rought": 3223,
  "ĠMc": 3224,
  "ÏĢ": 3225,
  "Ġdur": 3226,
  "Ġduring": 3227,
  "Ġspeak": 3228,
  "abs": 3229,
  "lying": 3230,
  "riter": 3231,
  "Ġheld": 3232,
  "Ġtravel": 3233,
  "tract": 3234,
  "${": 3235,
  "los": 3236,
  "lose": 3237,
  "ĠOf": 3238,
  "ano": 3239,
  "attle": 3240,
  "iers": 3241,
  "wer": 3242,
  "Ġwrong": 3243,
  "ĠSw": 3244,
  "uge": 3245,
  "Ġlab": 3246,
  "Ġlabel": 3247,
  "lege": 3248,
  "-p": 3249,
  "vey": 3250,
  "options": 3251,
  "à¦¾à¦": 3252,
  "ÏĤ": 3253,
  "Ġcapt": 3254,
  "à§į": 3255,
  "ĠDE": 3256,
  "bon": 3257,
  "Õ«": 3258,
  "ruction": 3259,
  "CL": 3260,
  "ella": 3261,
  "otes": 3262,
  "10": 3263,
  "TER": 3264,
  "Us": 3265,
  "Ġals": 3266,
  "Ġalso": 3267,
  "next": 3268,
  "Ġ[]": 3269,
  "ĠDef": 3270,
  "ERR": 3271,
  "nes": 3272,
  "ness": 3273,
  "ĠWhile": 3274,
  "×¨": 3275,
  "Ġdifference": 3276,
  "Ġax": 3277,
  "cale": 3278,
  "Ġnote": 3279,
  "];": 3280,
  "];Ċ": 3281,
  "Ġansw": 3282,
  "outer": 3283,
  "Ġtree": 3284,
  "Ġcompanies": 3285,
  "Now": 3286,
  "à¤¨": 3287,
  "des": 3288,
  "Ġauto": 3289,
  "Ġautom": 3290,
  "PS": 3291,
  "anged": 3292,
  "Ġlat": 3293,
  "Ġlate": 3294,
  "Ġlater": 3295,
  "Ġremain": 3296,
  "ocr": 3297,
  "Read": 3298,
  "_H": 3299,
  "Ġrele": 3300,
  "enced": 3301,
  "Arg": 3302,
  "rim": 3303,
  "Ġseu": 3304,
  "nav": 3305,
  "Ġuses": 3306,
  "ĠÄ": 3307,
  "Ġindepend": 3308,
  "Ġpan": 3309,
  "ĠOff": 3310,
  "Ġvir": 3311,
  "ĠHer": 3312,
  "erve": 3313,
  "erved": 3314,
  "Ġled": 3315,
  "phi": 3316,
  "sy": 3317,
  ".N": 3318,
  "ÃŃa": 3319,
  "TH": 3320,
  "cm": 3321,
  "ĠPre": 3322,
  "ĠPres": 3323,
  "FA": 3324,
  "Des": 3325,
  "OW": 3326,
  "PT": 3327,
  "Ġdri": 3328,
  "Ġparty": 3329,
  "UP": 3330,
  "]ĊĊ": 3331,
  "ĊĊĠĠĠ": 3332,
  "Ġ<=": 3333,
  "Ġdoor": 3334,
  "Ġdesigned": 3335,
  "ĠHere": 3336,
  "Ġones": 3337,
  "Ġemb": 3338,
  "Î·": 3339,
  "Ġmer": 3340,
  "Ġ>=": 3341,
  "eds": 3342,
  "Ġpas": 3343,
  "while": 3344,
  "ROM": 3345,
  "Ġcook": 3346,
  "Ġvon": 3347,
  "ĠArt": 3348,
  "icht": 3349,
  "Ġlost": 3350,
  "amm": 3351,
  "amma": 3352,
  "ART": 3353,
  "only": 3354,
  "pected": 3355,
  "ĠRec": 3356,
  "lay": 3357,
  "oe": 3358,
  "AME": 3359,
  "prop": 3360,
  "hel": 3361,
  "<<": 3362,
  "ech": 3363,
  ".ex": 3364,
  "Ġ/**": 3365,
  "Ġ/**Ċ": 3366,
  "PL": 3367,
  "ĠAND": 3368,
  "ham": 3369,
  "âĶ": 3370,
  "alle": 3371,
  "ĠII": 3372,
  "áĥĺáĥ": 3373,
  "inn": 3374,
  "\";": 3375,
  "\";Ċ": 3376,
  "Ġ~": 3377,
  "_\\": 3378,
  "ĉ}": 3379,
  "Ġgreen": 3380,
  "vi": 3381,
  "vid": 3382,
  "viron": 3383,
  "vironment": 3384,
  "vis": 3385,
  "Ġtemp": 3386,
  "Ġtemper": 3387,
  "Ġimmedi": 3388,
  "vec": 3389,
  "ĠRem": 3390,
  "âĢĺ": 3391,
  "\"><": 3392,
  "\"></": 3393,
  "Ġple": 3394,
  "attr": 3395,
  "ald": 3396,
  "Ġrev": 3397,
  "ni": 3398,
  ")}": 3399,
  "Ã¼r": 3400,
  "ae": 3401,
  "ORT": 3402,
  "Ġsch": 3403,
  "ĠST": 3404,
  "ĠCons": 3405,
  "env": 3406,
  "arse": 3407,
  "ao": 3408,
  "istry": 3409,
  "Ã¦": 3410,
  "imer": 3411,
  "DB": 3412,
  "Ġdrive": 3413,
  "-l": 3414,
  "Ġideas": 3415,
  "Ġwhose": 3416,
  "udo": 3417,
  "Ġreceive": 3418,
  "Ġreceived": 3419,
  "MS": 3420,
  "ĠDec": 3421,
  "Ġpet": 3422,
  "rad": 3423,
  "Ġveh": 3424,
  "Ġsci": 3425,
  "Ġscient": 3426,
  "aciÃ³n": 3427,
  "Ġcommit": 3428,
  "Ġune": 3429,
  "Ġdb": 3430,
  "ĠGl": 3431,
  "orts": 3432,
  "uly": 3433,
  "idge": 3434,
  "idget": 3435,
  "idad": 3436,
  "amet": 3437,
  "Ġcompon": 3438,
  "Ġcomponent": 3439,
  "Ġsold": 3440,
  "rench": 3441,
  "xi": 3442,
  "à¤ķ": 3443,
  "Ġoffers": 3444,
  "({Ċ": 3445,
  "Ġaccom": 3446,
  "which": 3447,
  "ota": 3448,
  "otal": 3449,
  "Ġord": 3450,
  "++)": 3451,
  "bor": 3452,
  "Ïħ": 3453,
  "Ġstream": 3454,
  "Source": 3455,
  "oved": 3456,
  "ĊĠĠĠĠĠĠĠĠĠĠĠĠĠĠĠ": 3457,
  "urt": 3458,
  "urther": 3459,
  "\"))": 3460,
  "aker": 3461,
  "bt": 3462,
  "xy": 3463,
  "arily": 3464,
  "Ġbehav": 3465,
  "iny": 3466,
  "aste": 3467,
  "aster": 3468,
  "Ã¢": 3469,
  "ĠFe": 3470,
  "Ġoffice": 3471,
  "aign": 3472,
  "SC": 3473,
  "ala": 3474,
  "hy": 3475,
  "_E": 3476,
  "'ve": 3477,
  "dr": 3478,
  "ĠAnt": 3479,
  "ournal": 3480,
  "mathbb": 3481,
  "arth": 3482,
  "'m": 3483,
  "Ġ(\"": 3484,
  "Ġ[Ċ": 3485,
  "ously": 3486,
  "gs": 3487,
  "Ġsafe": 3488,
  "ares": 3489,
  "Äĩ": 3490,
  "ĉb": 3491,
  "ocket": 3492,
  "Ġsin": 3493,
  "Ġsing": 3494,
  "Ġsingle": 3495,
  "alls": 3496,
  "ĠRead": 3497,
  "CK": 3498,
  "'.": 3499,
  "Ġchoice": 3500,
  "');": 3501,
  "');Ċ": 3502,
  "-\\": 3503,
  "zen": 3504,
  "ÄĻ": 3505,
  "ĠRE": 3506,
  ".de": 3507,
  "End": 3508,
  "ĠChe": 3509,
  "Ġfav": 3510,
  "Ġfavor": 3511,
  "term": 3512,
  "hi": 3513,
  "hip": 3514,
  "hib": 3515,
  "Ġdos": 3516,
  "swer": 3517,
  "Do": 3518,
  "Ġpressure": 3519,
  "à¦¿": 3520,
  "fs": 3521,
  "Ġanyone": 3522,
  "Rec": 3523,
  "ados": 3524,
  "Ġpel": 3525,
  "amples": 3526,
  "ribute": 3527,
  "Ġpen": 3528,
  "Ã½": 3529,
  "pg": 3530,
  ".to": 3531,
  "iam": 3532,
  "IO": 3533,
  "ION": 3534,
  "Ġhar": 3535,
  "Ġhard": 3536,
  "_e": 3537,
  "emp": 3538,
  "empt": 3539,
  "Ġattempt": 3540,
  "empl": 3541,
  "req": 3542,
  "yd": 3543,
  "Ġdistance": 3544,
  "uted": 3545,
  "à³į": 3546,
  "anel": 3547,
  "ANT": 3548,
  "Ġtools": 3549,
  "ells": 3550,
  "bu": 3551,
  "but": 3552,
  "button": 3553,
  "bug": 3554,
  "fa": 3555,
  "Ġcop": 3556,
  "Ġcopy": 3557,
  "ancy": 3558,
  "emplate": 3559,
  "rie": 3560,
  "ries": 3561,
  "ried": 3562,
  "riend": 3563,
  "Ġcountries": 3564,
  "Ġreve": 3565,
  "och": 3566,
  "URL": 3567,
  "$.": 3568,
  "Ġcat": 3569,
  "Ġcatch": 3570,
  "KE": 3571,
  "Ġ(Ċ": 3572,
  "loy": 3573,
  "ĠdÃ©": 3574,
  "hem": 3575,
  "à§įà¦": 3576,
  "Ġgreater": 3577,
  "aly": 3578,
  "ithub": 3579,
  ".$": 3580,
  "Ġ{\\": 3581,
  "Ġ*)": 3582,
  "asks": 3583,
  "ira": 3584,
  "nu": 3585,
  "num": 3586,
  "acters": 3587,
  "Ġscience": 3588,
  "cs": 3589,
  "Ġgoal": 3590,
  "ĠWeb": 3591,
  "ERT": 3592,
  "-g": 3593,
  "Entity": 3594,
  "ĠComp": 3595,
  "ictionary": 3596,
  "Ġchem": 3597,
  "illa": 3598,
  "kt": 3599,
  "{{": 3600,
  "itect": 3601,
  "mathbf": 3602,
  "MA": 3603,
  "ĠĠĊ": 3604,
  "ĠĠĠĠĠĠĠĠĊ": 3605,
  "Ġbroad": 3606,
  "Ġcool": 3607,
  "Ġmal": 3608,
  "Ġcommunic": 3609,
  "rypt": 3610,
  "Ġrelease": 3611,
  "oes": 3612,
  "_to": 3613,
  "xx": 3614,
  "ĠAc": 3615,
  "ĠAct": 3616,
  "ĠComm": 3617,
  "Ġing": 3618,
  "(l": 3619,
  "Ġsong": 3620,
  "%%": 3621,
  "_de": 3622,
  "irl": 3623,
  "_v": 3624,
  "Ġhelps": 3625,
  "lobal": 3626,
  "Ġrecently": 3627,
  "Ġgets": 3628,
  "rief": 3629,
  "Ġ(*": 3630,
  "ĠĠĠĠĠĠĠĠ<": 3631,
  "Ġcu": 3632,
  "Ġcur": 3633,
  "Ġcut": 3634,
  "Ġresource": 3635,
  "Ġresources": 3636,
  "eed": 3637,
  "Ġassum": 3638,
  "chem": 3639,
  "/s": 3640,
  "Ġcast": 3641,
  "has": 3642,
  "Ġqui": 3643,
  "Ġquick": 3644,
  "Ġquickly": 3645,
  "ression": 3646,
  "_L": 3647,
  "ĠStr": 3648,
  "ĠString": 3649,
  "ĉĉĉĉĉĉĉ": 3650,
  "ĉĉĉĉĉĉĉĉ": 3651,
  "iar": 3652,
  "_V": 3653,
  "enge": 3654,
  "Ã©e": 3655,
  ".y": 3656,
  "à¯įà®": 3657,
  "ees": 3658,
  "IB": 3659,
  "orge": 3660,
  "ugg": 3661,
  "exp": 3662,
  "tab": 3663,
  "())Ċ": 3664,
  "///": 3665,
  "////": 3666,
  "////////": 3667,
  "Ġbur": 3668,
  "Ġsou": 3669,
  "Ġsound": 3670,
  "Ġunt": 3671,
  "Ġuntil": 3672,
  "osed": 3673,
  "auth": 3674,
  "author": 3675,
  "SP": 3676,
  "Ġ\"\\": 3677,
  "mas": 3678,
  "enses": 3679,
  "ĠSu": 3680,
  "ĠSub": 3681,
  "ĠSup": 3682,
  "Ġdou": 3683,
  "clusion": 3684,
  "Ġdir": 3685,
  "Ġdirect": 3686,
  "Ġdire": 3687,
  "Ġdirectly": 3688,
  "HER": 3689,
  "INT": 3690,
  "Ġexactly": 3691,
  "ĠAng": 3692,
  "ky": 3693,
  "Ã¡s": 3694,
  "enty": 3695,
  "_,": 3696,
  "));": 3697,
  "));Ċ": 3698,
  "Ġgrand": 3699,
  "Ġsteps": 3700,
  "_O": 3701,
  "---": 3702,
  "----": 3703,
  "ĠEnd": 3704,
  "Ġcompar": 3705,
  "Ġrot": 3706,
  "ĠCO": 3707,
  "ĠCON": 3708,
  "ĠÃ©s": 3709,
  "Äħ": 3710,
  "erest": 3711,
  ".sh": 3712,
  "aled": 3713,
  "inct": 3714,
  "ola": 3715,
  "Ġwebs": 3716,
  "Ġwebsite": 3717,
  "Ġsaying": 3718,
  "âĢ¢": 3719,
  "__(": 3720,
  "eh": 3721,
  "ĉcase": 3722,
  "ques": 3723,
  "quest": 3724,
  "cons": 3725,
  "const": 3726,
  "Ġdemand": 3727,
  "Ġpredict": 3728,
  "/**": 3729,
  "/**Ċ": 3730,
  "ALL": 3731,
  "Ġcomfort": 3732,
  "call": 3733,
  "Ġassist": 3734,
  "Ġlayer": 3735,
  "Ġded": 3736,
  "atab": 3737,
  "how": 3738,
  "Ġnor": 3739,
  "Ġnorm": 3740,
  "ĉ\\": 3741,
  "IST": 3742,
  "Ġgrad": 3743,
  "×ľ": 3744,
  "pc": 3745,
  "Fl": 3746,
  "msg": 3747,
  "Ġcomponents": 3748,
  "Ġsurpr": 3749,
  "Ġhi": 3750,
  "Ġhis": 3751,
  "Ġhim": 3752,
  "Ġhist": 3753,
  "Ġhimself": 3754,
  "Ġhig": 3755,
  "Ġhigh": 3756,
  "Ġhigher": 3757,
  "Ġhit": 3758,
  "_ST": 3759,
  ".ph": 3760,
  ".php": 3761,
  "Ġuns": 3762,
  "ergy": 3763,
  "ilit": 3764,
  "ility": 3765,
  "ilities": 3766,
  "TP": 3767,
  "ris": 3768,
  "rist": 3769,
  "ĠSec": 3770,
  "urb": 3771,
  "-w": 3772,
  "ĠĊĊ": 3773,
  "ĠNS": 3774,
  "ULT": 3775,
  "Ġspect": 3776,
  "cor": 3777,
  "core": 3778,
  "Ġ\\(": 3779,
  "Ġflo": 3780,
  "Ġflow": 3781,
  "Ġfloat": 3782,
  "rict": 3783,
  "ani": 3784,
  "ett": 3785,
  "ette": 3786,
  "ĠDem": 3787,
  "btn": 3788,
  "Ġoptim": 3789,
  "dat": 3790,
  "data": 3791,
  "date": 3792,
  "ito": 3793,
  "itor": 3794,
  "Ġrepe": 3795,
  "ban": 3796,
  "uer": 3797,
  "Ġsafety": 3798,
  "semb": 3799,
  "uest": 3800,
  "ima": 3801,
  "imal": 3802,
  "oles": 3803,
  "àª¾": 3804,
  "elle": 3805,
  "à±įà°": 3806,
  "Bl": 3807,
  "ago": 3808,
  "ĠCheck": 3809,
  "sv": 3810,
  "à°¿": 3811,
  "AY": 3812,
  "iant": 3813,
  "INE": 3814,
  "oma": 3815,
  "oman": 3816,
  "LECT": 3817,
  "Ab": 3818,
  "empty": 3819,
  "ĉĉĊ": 3820,
  "IZ": 3821,
  "Let": 3822,
  "undred": 3823,
  "gt": 3824,
  "[:": 3825,
  "pa": 3826,
  "par": 3827,
  "pan": 3828,
  "part": 3829,
  "pat": 3830,
  "path": 3831,
  "Î»": 3832,
  "_.": 3833,
  "\"),": 3834,
  "ĠSk": 3835,
  "Ġexisting": 3836,
  "echo": 3837,
  "Ġbir": 3838,
  "duc": 3839,
  "duct": 3840,
  "acks": 3841,
  "rial": 3842,
  "Ġtend": 3843,
  "run": 3844,
  "ÖĤ": 3845,
  "etails": 3846,
  "mo": 3847,
  "mon": 3848,
  "mod": 3849,
  "Ġcomo": 3850,
  "ĠUse": 3851,
  "ĠUser": 3852,
  "overed": 3853,
  "nces": 3854,
  "BC": 3855,
  "uses": 3856,
  "zz": 3857,
  "pres": 3858,
  "press": 3859,
  "pression": 3860,
  "ĠCr": 3861,
  "ĠInc": 3862,
  "Ĥ¬": 3863,
  "band": 3864,
  "dated": 3865,
  "aches": 3866,
  "\\)": 3867,
  "ĠApr": 3868,
  "adem": 3869,
  "Ġserve": 3870,
  "Ġserver": 3871,
  "su": 3872,
  "sum": 3873,
  "sub": 3874,
  "ILE": 3875,
  "Ġhighly": 3876,
  "Ġindu": 3877,
  "//Ċ": 3878,
  "Ġsurv": 3879,
  "erver": 3880,
  "Ġnotice": 3881,
  "rivate": 3882,
  "arl": 3883,
  "arly": 3884,
  "Ġarm": 3885,
  "pare": 3886,
  "requ": 3887,
  "request": 3888,
  "Ġcounter": 3889,
  "inks": 3890,
  ".push": 3891,
  "number": 3892,
  "Ġmi": 3893,
  "Ġmin": 3894,
  "Ġmill": 3895,
  "Ġmind": 3896,
  "Ġmil": 3897,
  "Ġmit": 3898,
  "Ġmis": 3899,
  "Ġmiss": 3900,
  "Ġmid": 3901,
  "Ġmix": 3902,
  "ĠAf": 3903,
  "ĠAfter": 3904,
  "Ġeye": 3905,
  "Ġpow": 3906,
  "Ġpower": 3907,
  "mes": 3908,
  "])Ċ": 3909,
  "Ġswe": 3910,
  "():": 3911,
  "Ġcourt": 3912,
  "Ġnav": 3913,
  "ĠKe": 3914,
  "osa": 3915,
  "ITY": 3916,
  "Pre": 3917,
  "RI": 3918,
  "Ã«": 3919,
  "~~": 3920,
  "]{": 3921,
  "rot": 3922,
  "rote": 3923,
  "MP": 3924,
  "Ġadvant": 3925,
  "Ã©r": 3926,
  "cha": 3927,
  "char": 3928,
  "chan": 3929,
  "ford": 3930,
  "uns": 3931,
  "Ġcampaign": 3932,
  "iance": 3933,
  "ki": 3934,
  "Ġ'/": 3935,
  "ady": 3936,
  "Ġsites": 3937,
  "GL": 3938,
  "Ġmovement": 3939,
  "Ġou": 3940,
  "Ġout": 3941,
  "Ġour": 3942,
  "ĠSE": 3943,
  "Ġenh": 3944,
  "non": 3945,
  "Ap": 3946,
  "App": 3947,
  "Ġsea": 3948,
  "Ġobs": 3949,
  "Ġstri": 3950,
  "jo": 3951,
  "joy": 3952,
  "Ãµ": 3953,
  "Ġcore": 3954,
  "si": 3955,
  "ND": 3956,
  "Ġlatest": 3957,
  "ih": 3958,
  "ById": 3959,
  "Îº": 3960,
  "gar": 3961,
  "(r": 3962,
  "Ġbul": 3963,
  "oom": 3964,
  "ĠBro": 3965,
  "uts": 3966,
  "(-": 3967,
  "Ġjo": 3968,
  "Ġjob": 3969,
  "AGE": 3970,
  "Ġmagn": 3971,
  "$,": 3972,
  "Ġ\"/": 3973,
  "DF": 3974,
  ".Size": 3975,
  "Ġ(\\": 3976,
  "gle": 3977,
  "ĠPC": 3978,
  "aid": 3979,
  "sq": 3980,
  "sql": 3981,
  "AND": 3982,
  "avy": 3983,
  "-h": 3984,
  "ptr": 3985,
  "Ġfat": 3986,
  "FT": 3987,
  "patch": 3988,
  "FO": 3989,
  "à°¾": 3990,
  "ĠAS": 3991,
  "Ġpri": 3992,
  "Ġprim": 3993,
  "Ġprior": 3994,
  "Ġpriv": 3995,
  "ega": 3996,
  "Ġasync": 3997,
  "TO": 3998,
  "$$": 3999,
  "ĠGen": 4000,
  "Ġfarm": 4001,
  ".js": 4002,
  "Eng": 4003,
  "hab": 4004,
  "Ġwrote": 4005,
  "_R": 4006,
  "_RE": 4007,
  ".I": 4008,
  "wa": 4009,
  "way": 4010,
  "ways": 4011,
  "Ġalways": 4012,
  "AX": 4013,
  "Ġdriver": 4014,
  "AA": 4015,
  "Ġharm": 4016,
  "ĠNov": 4017,
  "ĠčĊ": 4018,
  "'),": 4019,
  "Ġfear": 4020,
  "uy": 4021,
  "Ġsurround": 4022,
  "aur": 4023,
  "icks": 4024,
  "ema": 4025,
  "email": 4026,
  "items": 4027,
  "mathrm": 4028,
  "Ġtrade": 4029,
  "Ġvolt": 4030,
  "Ġprem": 4031,
  "Ã§Ã£o": 4032,
  "She": 4033,
  "ben": 4034,
  "vas": 4035,
  "ĠSen": 4036,
  "(R": 4037,
  "They": 4038,
  "Ġ}čĊčĊ": 4039,
  "undle": 4040,
  "lig": 4041,
  "light": 4042,
  "Ġopin": 4043,
  "ĠAny": 4044,
  "Edit": 4045,
  "Ġpal": 4046,
  "Ġsen": 4047,
  "Ġsent": 4048,
  "Ġsens": 4049,
  "Ġsense": 4050,
  "Ġsend": 4051,
  "OK": 4052,
  "Ġbecomes": 4053,
  "Ġparams": 4054,
  "oder": 4055,
  "irth": 4056,
  "tx": 4057,
  "Ġauth": 4058,
  "Ġauthor": 4059,
  "ĠEX": 4060,
  "/c": 4061,
  "Ã¯": 4062,
  "*,": 4063,
  "module": 4064,
  "agon": 4065,
  "ï¼ļâĢľ": 4066,
  "PC": 4067,
  "×Ķ": 4068,
  "thers": 4069,
  "Ġvot": 4070,
  "Ġpref": 4071,
  "Ass": 4072,
  "Ġrat": 4073,
  "Ġrather": 4074,
  "Ġrate": 4075,
  "Off": 4076,
  "sim": 4077,
  "Ġ('": 4078,
  "Ġ::": 4079,
  "Ġrates": 4080,
  "}čĊčĊ": 4081,
  "âĢĶâĢĶ": 4082,
  "*)": 4083,
  ":(": 4084,
  "Ġsymbol": 4085,
  "RA": 4086,
  "/m": 4087,
  "à³įà²": 4088,
  "ĠTV": 4089,
  "Ġ''": 4090,
  "Ġmoving": 4091,
  "Ġsav": 4092,
  "Ġsave": 4093,
  "ignment": 4094,
  "ÄĽ": 4095,
  "19": 4096,
  "ials": 4097,
  "Ã´": 4098,
  "'],": 4099,
  "](": 4100,
  "cat": 4101,
  "Ġdecre": 4102,
  "Ġopport": 4103,
  "rue": 4104,
  "CA": 4105,
  "rees": 4106,
  "Î¼": 4107,
  "Ġsche": 4108,
  "ĠMet": 4109,
  "pri": 4110,
  "Ġmenu": 4111,
  "Ġlock": 4112,
  "\":\"": 4113,
  "ael": 4114,
  "raf": 4115,
  "raft": 4116,
  "mber": 4117,
  "Ġng": 4118,
  "ĠSun": 4119,
  "cp": 4120,
  "Ġ{}": 4121,
  "Ġreleased": 4122,
  "]:": 4123,
  "iva": 4124,
  "ival": 4125,
  "rome": 4126,
  "anges": 4127,
  "iced": 4128,
  "_G": 4129,
  "ĠUK": 4130,
  "Ġpy": 4131,
  "Ġzu": 4132,
  "car": 4133,
  "Ġdas": 4134,
  "Ġtor": 4135,
  "ĠEnt": 4136,
  "ello": 4137,
  "ellow": 4138,
  "Ġrob": 4139,
  "ums": 4140,
  "#if": 4141,
  "ĠTH": 4142,
  "ĠTHE": 4143,
  "alu": 4144,
  "alue": 4145,
  "ĉd": 4146,
  "bert": 4147,
  "Ġprep": 4148,
  "zer": 4149,
  "UG": 4150,
  "Ġidentify": 4151,
  "CD": 4152,
  "Ġment": 4153,
  "Ġmention": 4154,
  "Ġedge": 4155,
  "build": 4156,
  "ali": 4157,
  "Ġtu": 4158,
  "DA": 4159,
  "=$": 4160,
  "_ex": 4161,
  "Ġmas": 4162,
  "Ġmass": 4163,
  "Ġà¤¸": 4164,
  "DD": 4165,
  "Ġsust": 4166,
  "Ġnone": 4167,
  "Ġcredit": 4168,
  "rics": 4169,
  "Ġremains": 4170,
  "ye": 4171,
  "year": 4172,
  "}{\\": 4173,
  "Ã¨s": 4174,
  "ACK": 4175,
  "Ġexpert": 4176,
  ",-": 4177,
  "à¦°": 4178,
  "Ġwhom": 4179,
  "ĠBen": 4180,
  "NE": 4181,
  "ela": 4182,
  "rd": 4183,
  "Ġcard": 4184,
  "orks": 4185,
  "doc": 4186,
  "cles": 4187,
  "('/": 4188,
  "ORD": 4189,
  "Ġeth": 4190,
  "het": 4191,
  "hest": 4192,
  "iler": 4193,
  "ĠEs": 4194,
  "ĠEst": 4195,
  "Å¼": 4196,
  "Ġvert": 4197,
  "Ġdry": 4198,
  "()ĊĊ": 4199,
  "cher": 4200,
  "SD": 4201,
  "ivo": 4202,
  "Ġdro": 4203,
  "Ġdrop": 4204,
  "Ġsam": 4205,
  "Ġsame": 4206,
  "Ġmort": 4207,
  "LA": 4208,
  "UB": 4209,
  "Ġcontinued": 4210,
  "à´¿": 4211,
  "tag": 4212,
  "atever": 4213,
  "ĠRel": 4214,
  "Ġmes": 4215,
  "Ġmess": 4216,
  "Ġmessage": 4217,
  "lab": 4218,
  "label": 4219,
  "_W": 4220,
  "Ġok": 4221,
  "ifying": 4222,
  "ODE": 4223,
  "aa": 4224,
  "Ġwa": 4225,
  "Ġwas": 4226,
  "Ġway": 4227,
  "Ġwar": 4228,
  "Ġways": 4229,
  "Ġwarm": 4230,
  "Ġren": 4231,
  "Õ¸ÖĤ": 4232,
  "auto": 4233,
  "Ġappears": 4234,
  "Ġsets": 4235,
  "¥¿": 4236,
  "Ġlaws": 4237,
  "CTION": 4238,
  "rops": 4239,
  "Ġfloor": 4240,
  "icture": 4241,
  "Ġexists": 4242,
  "Ġho": 4243,
  "Ġhow": 4244,
  "Ġhot": 4245,
  "Ġhor": 4246,
  "Ġhom": 4247,
  "Ġhome": 4248,
  "Ġhon": 4249,
  "Ġhop": 4250,
  "Ġhope": 4251,
  "Ġhol": 4252,
  "Ġhold": 4253,
  "à¤¤": 4254,
  "cell": 4255,
  "pu": 4256,
  "put": 4257,
  "Ġoutput": 4258,
  "output": 4259,
  "ME": 4260,
  "ERROR": 4261,
  "áŀ": 4262,
  "ĠHT": 4263,
  "ĠNet": 4264,
  "ework": 4265,
  "tee": 4266,
  "ĠCong": 4267,
  "Ġcold": 4268,
  "Î¯": 4269,
  "ĠMo": 4270,
  "ĠMon": 4271,
  "ĠMod": 4272,
  "ĠMor": 4273,
  "ĠMore": 4274,
  "Ġcareer": 4275,
  ".Cont": 4276,
  "'))": 4277,
  "Ġ*/ĊĊ": 4278,
  "ĠBel": 4279,
  "ibr": 4280,
  "Ġcru": 4281,
  "ĠLaw": 4282,
  "ctx": 4283,
  "ronic": 4284,
  "ige": 4285,
  "igen": 4286,
  "';": 4287,
  "';Ċ": 4288,
  "';ĊĊ": 4289,
  "bum": 4290,
  "ĠAssoci": 4291,
  "Ġresist": 4292,
  "ĠÏĦ": 4293,
  "lich": 4294,
  "instance": 4295,
  "ĠAre": 4296,
  "Ġseemed": 4297,
  "lor": 4298,
  "Ġburn": 4299,
  "ĠPa": 4300,
  "ĠPar": 4301,
  "ĠPart": 4302,
  "ĠPat": 4303,
  "ĠPal": 4304,
  "igo": 4305,
  "ĠWhy": 4306,
  "css": 4307,
  "mi": 4308,
  "min": 4309,
  "mit": 4310,
  "Ġlimit": 4311,
  "ming": 4312,
  "Ġcoming": 4313,
  "coming": 4314,
  "eks": 4315,
  "eff": 4316,
  "(a": 4317,
  "{-": 4318,
  "12": 4319,
  "Ġteac": 4320,
  "Ġmaybe": 4321,
  "Ġsett": 4322,
  "Ġsetting": 4323,
  "Ġsettings": 4324,
  "PA": 4325,
  "}/": 4326,
  "comes": 4327,
  "ĠKey": 4328,
  "Ġvs": 4329,
  "âĶĢ": 4330,
  "Ġanti": 4331,
  "inese": 4332,
  "Ġfer": 4333,
  "Ġ>>": 4334,
  "Ġ\",": 4335,
  "TS": 4336,
  "Resource": 4337,
  "berg": 4338,
  "EE": 4339,
  "Ġinteg": 4340,
  "Ġintegr": 4341,
  "à²¿": 4342,
  "Ġmoved": 4343,
  "Am": 4344,
  "Ġja": 4345,
  "Ġjav": 4346,
  "Ġjava": 4347,
  "Ġjavax": 4348,
  "Ġexamples": 4349,
  "ĠSol": 4350,
  "login": 4351,
  "Ġhet": 4352,
  "RL": 4353,
  "Ġexplain": 4354,
  "Ġseek": 4355,
  "tau": 4356,
  "\");čĊ": 4357,
  "ĉt": 4358,
  "pet": 4359,
  "Ġmist": 4360,
  "gest": 4361,
  "Ġ-->": 4362,
  "Ġcontr": 4363,
  "Ġrom": 4364,
  "nb": 4365,
  "nbsp": 4366,
  "aved": 4367,
  "hern": 4368,
  "oice": 4369,
  "×Ĳ": 4370,
  "ĠJe": 4371,
  "ĠJes": 4372,
  "ĠJew": 4373,
  "Ġregarding": 4374,
  "Ġpresence": 4375,
  "iol": 4376,
  "itar": 4377,
  "cap": 4378,
  "Sp": 4379,
  "Me": 4380,
  "ione": 4381,
  "Ġhomes": 4382,
  "scope": 4383,
  "ĠÂ»": 4384,
  "ERS": 4385,
  "ĠBer": 4386,
  "uda": 4387,
  "endo": 4388,
  "IA": 4389,
  "Ġ$(": 4390,
  "iu": 4391,
  "ium": 4392,
  "ius": 4393,
  "buntu": 4394,
  "ĠTw": 4395,
  "Rem": 4396,
  "Ġbes": 4397,
  "Ġbest": 4398,
  "ras": 4399,
  "ipment": 4400,
  "ĠSur": 4401,
  "áĥĿ": 4402,
  "Ġcos": 4403,
  "Ġcost": 4404,
  "Ġcosts": 4405,
  "ĠDel": 4406,
  "Ġindependent": 4407,
  "_str": 4408,
  "ĠAcc": 4409,
  "grid": 4410,
  "vere": 4411,
  "ÃŁ": 4412,
  "Ġemp": 4413,
  "bsite": 4414,
  "){": 4415,
  "){Ċ": 4416,
  "GB": 4417,
  "Att": 4418,
  "olf": 4419,
  "Ġdiet": 4420,
  "osen": 4421,
  "ko": 4422,
  "While": 4423,
  "ĠEr": 4424,
  "Â°": 4425,
  "ugh": 4426,
  "ught": 4427,
  "bb": 4428,
  "ingu": 4429,
  "These": 4430,
  "Ġspent": 4431,
  "ĠRev": 4432,
  "ĠDi": 4433,
  "ĠDis": 4434,
  "column": 4435,
  "hol": 4436,
  "hold": 4437,
  "iana": 4438,
  "ĉp": 4439,
  "ĠÄĳ": 4440,
  "force": 4441,
  "(\"#": 4442,
  "Ġexpand": 4443,
  "_DE": 4444,
  "inf": 4445,
  "info": 4446,
  "ourse": 4447,
  "ocks": 4448,
  "rier": 4449,
  "ĠDev": 4450,
  "temp": 4451,
  "aul": 4452,
  "ault": 4453,
  "Ġdefault": 4454,
  "default": 4455,
  "Default": 4456,
  "Ġthr": 4457,
  "à¸²": 4458,
  "usr": 4459,
  "esh": 4460,
  "sem": 4461,
  "pret": 4462,
  "Ġpoll": 4463,
  "itary": 4464,
  "à±ģ": 4465,
  "\");ĊĊ": 4466,
  ":čĊ": 4467,
  "ango": 4468,
  "Dec": 4469,
  "asy": 4470,
  "nic": 4471,
  "*}": 4472,
  "partial": 4473,
  "rep": 4474,
  "Ġ++": 4475,
  "pol": 4476,
  "dt": 4477,
  "Ġmol": 4478,
  "Ġboy": 4479,
  "includ": 4480,
  "ooth": 4481,
  "ĠUN": 4482,
  "Ã©n": 4483,
  "ĠUI": 4484,
  "ĠPM": 4485,
  "ims": 4486,
  "oul": 4487,
  "ould": 4488,
  "rum": 4489,
  "Ġist": 4490,
  "(*": 4491,
  "ati": 4492,
  "atic": 4493,
  "atically": 4494,
  "(!": 4495,
  "ĠTO": 4496,
  "arp": 4497,
  "Ġdied": 4498,
  "di": 4499,
  "div": 4500,
  "dis": 4501,
  "dir": 4502,
  "<div": 4503,
  "Fe": 4504,
  "fol": 4505,
  "what": 4506,
  "ĠĠĠĠĠĠĠĠĠĠĠĠĠĠĠĠĠĠ": 4507,
  "ĠĠĠĠĠĠĠĠĠĠĠĠĠĠĠĠĠĠĠ": 4508,
  "ĠĠĠĠĠĠĠĠĠĠĠĠĠĠĠĠĠĠĠĠĠ": 4509,
  "ĠĠĠĠĠĠĠĠĠĠĠĠĠĠĠĠĠĠĠĠ": 4510,
  "Ġinsp": 4511,
  "Te": 4512,
  "}^{": 4513,
  "typ": 4514,
  "type": 4515,
  "ĠTra": 4516,
  "was": 4517,
  "Ġmental": 4518,
  "Ġadding": 4519,
  "Ġmovie": 4520,
  "rey": 4521,
  "omy": 4522,
  "Ġfo": 4523,
  "Ġfor": 4524,
  "Ġform": 4525,
  "Ġfol": 4526,
  "Ġfore": 4527,
  "Ġforms": 4528,
  "Ġforeign": 4529,
  "Ġfort": 4530,
  "ths": 4531,
  "ĉĠ": 4532,
  "à°¾à°": 4533,
  "river": 4534,
  "reme": 4535,
  "ker": 4536,
  "aby": 4537,
  "common": 4538,
  "eme": 4539,
  "XX": 4540,
  "CON": 4541,
  "Ġlif": 4542,
  "Ġlife": 4543,
  "inally": 4544,
  "card": 4545,
  "Ġsale": 4546,
  "Ġsales": 4547,
  "ĊĊĠĠĠĠĠĠĠ": 4548,
  "apers": 4549,
  "Ġpros": 4550,
  "ests": 4551,
  "('#": 4552,
  "ooks": 4553,
  "ĠReact": 4554,
  "Ġprepar": 4555,
  "uz": 4556,
  "elcome": 4557,
  "Ġacqu": 4558,
  ".*": 4559,
  "care": 4560,
  "BO": 4561,
  "ATA": 4562,
  "(C": 4563,
  "ĠAv": 4564,
  "ĠProp": 4565,
  "Ġfab": 4566,
  "ITH": 4567,
  "Ġvel": 4568,
  "ĠIP": 4569,
  "Ġesp": 4570,
  "ĠâĢ¦": 4571,
  "cribe": 4572,
  "Ġcart": 4573,
  "atis": 4574,
  ".__": 4575,
  "kn": 4576,
  "Ġstreng": 4577,
  "Ġstrength": 4578,
  "Ã©t": 4579,
  "ï¿": 4580,
  "pid": 4581,
  "ĠON": 4582,
  "Ġ=Ġ": 4583,
  "Ġpob": 4584,
  "Ext": 4585,
  ".v": 4586,
  "Ġ<?": 4587,
  "oted": 4588,
  "erman": 4589,
  "ĠPress": 4590,
  "PR": 4591,
  "=\\": 4592,
  "Ġhighest": 4593,
  "Ġ);": 4594,
  "Ġ);Ċ": 4595,
  "ĠDie": 4596,
  "region": 4597,
  ".Re": 4598,
  "Ġ\\Ċ": 4599,
  "ads": 4600,
  "Ġhyp": 4601,
  "sa": 4602,
  "(),Ċ": 4603,
  "Ġ${": 4604,
  "bi": 4605,
  "bit": 4606,
  "bin": 4607,
  "big": 4608,
  "ĠPy": 4609,
  "fty": 4610,
  "EC": 4611,
  "Top": 4612,
  "Ġà¸": 4613,
  "(name": 4614,
  "Ġterr": 4615,
  "ĠIl": 4616,
  "Ġom": 4617,
  "ups": 4618,
  "omes": 4619,
  "Ġvac": 4620,
  "Ġhat": 4621,
  "Ġsyn": 4622,
  "}ĊĊĊ": 4623,
  "Ġci": 4624,
  "Ġcirc": 4625,
  "Ġcit": 4626,
  "Ġcity": 4627,
  "Ġcir": 4628,
  "Ġcircuit": 4629,
  "<T": 4630,
  "Ġrap": 4631,
  "Ġrapid": 4632,
  "Ġchemical": 4633,
  "omega": 4634,
  "Lo": 4635,
  "Log": 4636,
  "Load": 4637,
  "ASE": 4638,
  "Ġinteract": 4639,
  "URE": 4640,
  "overn": 4641,
  "omain": 4642,
  "Ġcalls": 4643,
  "join": 4644,
  "Ġgoals": 4645,
  "ĠDesign": 4646,
  "Ġdepart": 4647,
  "ÅĻ": 4648,
  "Ġsubs": 4649,
  "Ġsubst": 4650,
  "Ġcitiz": 4651,
  "{}": 4652,
  "ounter": 4653,
  "Ġsentence": 4654,
  "àª¾àª": 4655,
  "Ġà¤¹": 4656,
  "rian": 4657,
  "âĢĮ": 4658,
  "cks": 4659,
  "ÄŁ": 4660,
  "erties": 4661,
  "Ġassign": 4662,
  "Ġvirt": 4663,
  "avel": 4664,
  "Ġ$_": 4665,
  "icip": 4666,
  "Ġaren": 4667,
  "Ġtrees": 4668,
  "Ġmissing": 4669,
  "users": 4670,
  "Ġ'@": 4671,
  "Ġflu": 4672,
  "Ã¡n": 4673,
  "ospital": 4674,
  "ĠSl": 4675,
  "ATH": 4676,
  "Args": 4677,
  "Ġ..": 4678,
  "Ġ...": 4679,
  "leq": 4680,
  "ĠMa": 4681,
  "ĠMar": 4682,
  "ĠMan": 4683,
  "ĠMay": 4684,
  "ĠMac": 4685,
  "ĠMat": 4686,
  "ĠMag": 4687,
  "ĠMal": 4688,
  "ĠMart": 4689,
  "ĠMany": 4690,
  "ĠMath": 4691,
  "ĠMad": 4692,
  "ĠMap": 4693,
  "service": 4694,
  ",ĊĊ": 4695,
  "ĠRef": 4696,
  "xim": 4697,
  "Ġpu": 4698,
  "Ġput": 4699,
  "Ġpur": 4700,
  "Ġpub": 4701,
  "Ġpurch": 4702,
  "Ġpun": 4703,
  "iverse": 4704,
  "Ġtrav": 4705,
  "CS": 4706,
  "require": 4707,
  "ĠId": 4708,
  "ĠLes": 4709,
  "Ġnov": 4710,
  "Ġ[\"": 4711,
  "aria": 4712,
  "arian": 4713,
  "à¦¿à¦": 4714,
  "olds": 4715,
  "ĠRet": 4716,
  "ĠReturn": 4717,
  "Fr": 4718,
  "From": 4719,
  "rand": 4720,
  "PP": 4721,
  "obs": 4722,
  "ĠSy": 4723,
  "returns": 4724,
  "sup": 4725,
  "rea": 4726,
  "reat": 4727,
  "read": 4728,
  "ream": 4729,
  "reate": 4730,
  "reak": 4731,
  "react": 4732,
  "reated": 4733,
  "ĉbreak": 4734,
  "Õ¡Õ¶": 4735,
  "Ġcircum": 4736,
  "END": 4737,
  "orem": 4738,
  "Ġjobs": 4739,
  "ded": 4740,
  "ĠRo": 4741,
  "ĠRob": 4742,
  "Ġta": 4743,
  "Ġtake": 4744,
  "Ġtaken": 4745,
  "Ġtax": 4746,
  "Ġtal": 4747,
  "Ġtalk": 4748,
  "Ġtag": 4749,
  "Ġtab": 4750,
  "Ġmessages": 4751,
  "area": 4752,
  "\";ĊĊ": 4753,
  "Ġpurchase": 4754,
  "sect": 4755,
  "section": 4756,
  "Ġ?>": 4757,
  "ĠAtt": 4758,
  "oor": 4759,
  "Gr": 4760,
  "Grid": 4761,
  "ncia": 4762,
  "Ġsac": 4763,
  "ĠLeg": 4764,
  "riage": 4765,
  "CP": 4766,
  "Why": 4767,
  "adow": 4768,
  "iki": 4769,
  "ĠNote": 4770,
  "ouncil": 4771,
  "Ġauf": 4772,
  "ila": 4773,
  "ilar": 4774,
  "ĠOnce": 4775,
  "Ġcry": 4776,
  "ĠCre": 4777,
  "meta": 4778,
  "};": 4779,
  "};ĊĊ": 4780,
  "};Ċ": 4781,
  "eller": 4782,
  "(M": 4783,
  "SA": 4784,
  "itory": 4785,
  "rup": 4786,
  "rupt": 4787,
  "lat": 4788,
  "lation": 4789,
  "'d": 4790,
  "anda": 4791,
  "Ġspend": 4792,
  "sych": 4793,
  "Ġparamet": 4794,
  "Ġstru": 4795,
  "Ġstruct": 4796,
  "Ġstrugg": 4797,
  "Ġwel": 4798,
  "Ġwell": 4799,
  "/>": 4800,
  "rug": 4801,
  "ï¿½": 4802,
  "Ġmir": 4803,
  "IZE": 4804,
  "Web": 4805,
  "Ġju": 4806,
  "Ġjud": 4807,
  "Ġdies": 4808,
  "UD": 4809,
  "Ġtopic": 4810,
  "Ġreplace": 4811,
  "ĠMont": 4812,
  "Then": 4813,
  "Ġexit": 4814,
  "/d": 4815,
  "ĠTom": 4816,
  "Ġoffered": 4817,
  "Ġadvantage": 4818,
  "selected": 4819,
  "ORM": 4820,
  ");čĊčĊ": 4821,
  "Ġol": 4822,
  "Ġold": 4823,
  "Ġolder": 4824,
  "Ġog": 4825,
  "Ġclearly": 4826,
  "bra": 4827,
  "Ġ\"\"\"Ċ": 4828,
  "??": 4829,
  "aren": 4830,
  "nia": 4831,
  ".png": 4832,
  ")]": 4833,
  "kin": 4834,
  "king": 4835,
  "Ġtalking": 4836,
  "Ġmission": 4837,
  "anta": 4838,
  "chi": 4839,
  "chie": 4840,
  "_x": 4841,
  "Ġstra": 4842,
  "Ġstraight": 4843,
  "DC": 4844,
  "à¤¸": 4845,
  "Ġadvice": 4846,
  "anes": 4847,
  "ĠQue": 4848,
  "[$": 4849,
  "DS": 4850,
  "VE": 4851,
  "VER": 4852,
  "Ġhelped": 4853,
  "Ġps": 4854,
  "edge": 4855,
  "itors": 4856,
  "(:": 4857,
  "ĠRobert": 4858,
  "ĠFeb": 4859,
  "]]": 4860,
  "Ġtou": 4861,
  "Ġtouch": 4862,
  "Ġtour": 4863,
  "vest": 4864,
  "lines": 4865,
  "itness": 4866,
  "ÅĽ": 4867,
  "Ġbra": 4868,
  "Ġbrain": 4869,
  "*Ċ": 4870,
  "ĠLO": 4871,
  "Ġtrip": 4872,
  "Ġgran": 4873,
  "ĠMary": 4874,
  "chen": 4875,
  "lia": 4876,
  "ĠReturns": 4877,
  "Ġ'<": 4878,
  "cape": 4879,
  "ĉg": 4880,
  "));ĊĊ": 4881,
  "aud": 4882,
  "(j": 4883,
  "lam": 4884,
  "ĠJer": 4885,
  "aset": 4886,
  "poses": 4887,
  "Ġknows": 4888,
  "Note": 4889,
  "ti": 4890,
  "til": 4891,
  "tic": 4892,
  "tion": 4893,
  "Ġaction": 4894,
  "ection": 4895,
  "Ġdirection": 4896,
  "uction": 4897,
  "vention": 4898,
  "Ġactions": 4899,
  "Ġprotection": 4900,
  ".\\": 4901,
  "Ġdifferences": 4902,
  "ĠTor": 4903,
  "Ġfra": 4904,
  "Ġgun": 4905,
  "Ġach": 4906,
  "Ġachie": 4907,
  "Ġachieve": 4908,
  "igu": 4909,
  "Ġnotes": 4910,
  "ji": 4911,
  "Ġideal": 4912,
  "Rel": 4913,
  "=(": 4914,
  ".To": 4915,
  "Ġidentity": 4916,
  "ses": 4917,
  "Ġcases": 4918,
  "Items": 4919,
  "kg": 4920,
  "ĠCompany": 4921,
  "Ġmac": 4922,
  "Ġmach": 4923,
  "going": 4924,
  "IX": 4925,
  "road": 4926,
  "ĠJo": 4927,
  "Ġmel": 4928,
  "ktop": 4929,
  "ĠNor": 4930,
  "ields": 4931,
  "'),Ċ": 4932,
  "cos": 4933,
  "ĠBu": 4934,
  "ĠBut": 4935,
  "Ġhabit": 4936,
  "Ġreq": 4937,
  "Ġrequ": 4938,
  "Ġrequest": 4939,
  "Ġrequired": 4940,
  "Ġrequires": 4941,
  "Ġod": 4942,
  "(h": 4943,
  "ODO": 4944,
  "ĠOh": 4945,
  "aks": 4946,
  "Ġsounds": 4947,
  "ĠMax": 4948,
  "crete": 4949,
  ")).": 4950,
  "uls": 4951,
  "Ġdoubt": 4952,
  "Ġ}}": 4953,
  "());": 4954,
  "());Ċ": 4955,
  "iger": 4956,
  "*/Ċ": 4957,
  "ĠANY": 4958,
  "omm": 4959,
  ".čĊ": 4960,
  "}^": 4961,
  "ĠLo": 4962,
  "ĠLog": 4963,
  "ĠLou": 4964,
  "odo": 4965,
  "ĠAM": 4966,
  "ĠTR": 4967,
  "Ġassume": 4968,
  "Ġsched": 4969,
  "11": 4970,
  "second": 4971,
  "yr": 4972,
  "edi": 4973,
  "edia": 4974,
  "edit": 4975,
  "Ġsetup": 4976,
  "ideos": 4977,
  "Ġdut": 4978,
  "Don": 4979,
  "Ġwriter": 4980,
  "Ġ[[": 4981,
  "ools": 4982,
  "(g": 4983,
  "Ġfrag": 4984,
  "dest": 4985,
  "rat": 4986,
  "rate": 4987,
  "Ġproof": 4988,
  "dim": 4989,
  "à¸Ļ": 4990,
  "oded": 4991,
  "ĠAR": 4992,
  "uri": 4993,
  "Ġcand": 4994,
  "Ġcandid": 4995,
  "Ġspeech": 4996,
  "Ser": 4997,
  "Ġseeing": 4998,
  "isms": 4999,
  ".J": 5000,
  "itu": 5001,
  "itud": 5002,
  "itude": 5003,
  ")/": 5004,
  "ĠNO": 5005,
  "ĠNOT": 5006,
  "gi": 5007,
  "gin": 5008,
  "ging": 5009,
  ".sw": 5010,
  "Ġpul": 5011,
  "Ġpull": 5012,
  "BA": 5013,
  "(\"/": 5014,
  "ĠTop": 5015,
  "lar": 5016,
  "angular": 5017,
  "Ġprepared": 5018,
  "unes": 5019,
  "Ġmath": 5020,
  "}(\\": 5021,
  "PU": 5022,
  "Ġadvance": 5023,
  "white": 5024,
  "Ġsweet": 5025,
  "Ġresol": 5026,
  "Ġkm": 5027,
  "elper": 5028,
  "Äģ": 5029,
  "late": 5030,
  "'])": 5031,
  "Ġobt": 5032,
  "Ġobtain": 5033,
  "Ġobtained": 5034,
  "eper": 5035,
  "menu": 5036,
  "Ġrows": 5037,
  "Rect": 5038,
  "ĠApple": 5039,
  "à¥ģ": 5040,
  "Ġlaunch": 5041,
  "ociety": 5042,
  "Ġproperly": 5043,
  "Ġblo": 5044,
  "Ġblood": 5045,
  "Ġblog": 5046,
  "refore": 5047,
  "KEY": 5048,
  "Ġsustain": 5049,
  "Ġfemale": 5050,
  ".put": 5051,
  "Ġtheme": 5052,
  "device": 5053,
  "real": 5054,
  "Ġast": 5055,
  "à¯ģ": 5056,
  "à®¿": 5057,
  "Ġdin": 5058,
  "bal": 5059,
  "ball": 5060,
  "ront": 5061,
  "Ġ\"<": 5062,
  "iday": 5063,
  "ÂŃ": 5064,
  "ĠMex": 5065,
  "Ġsys": 5066,
  "reshold": 5067,
  "Ġbusinesses": 5068,
  "ĠDiv": 5069,
  "AV": 5070,
  "Ġvit": 5071,
  "Ġadvanced": 5072,
  "lik": 5073,
  "like": 5074,
  "~\\": 5075,
  "note": 5076,
  "ĠUSA": 5077,
  "DO": 5078,
  "anted": 5079,
  "Ġcards": 5080,
  "ĠSuper": 5081,
  "Ġgod": 5082,
  "Ġraw": 5083,
  "np": 5084,
  "ĠCH": 5085,
  "Ġbon": 5086,
  "('.": 5087,
  "Ġsan": 5088,
  "Ġsand": 5089,
  ")-": 5090,
  "ova": 5091,
  "cdot": 5092,
  "Co": 5093,
  "Con": 5094,
  "Com": 5095,
  "Cont": 5096,
  "Color": 5097,
  "Col": 5098,
  "Column": 5099,
  "BS": 5100,
  "ĠFre": 5101,
  "ĠFree": 5102,
  "=\"#": 5103,
  "ĠrÃ©": 5104,
  "Î¬": 5105,
  "yy": 5106,
  ")ĊĊĊ": 5107,
  "Ġec": 5108,
  "queue": 5109,
  ").Ċ": 5110,
  ").ĊĊ": 5111,
  "Ġappeared": 5112,
  "})Ċ": 5113,
  "zi": 5114,
  "Ġabsol": 5115,
  "Ġadvert": 5116,
  "Ġupd": 5117,
  "Ġupdate": 5118,
  "Ġupdated": 5119,
  "Ġfan": 5120,
  "akers": 5121,
  "/*Ċ": 5122,
  "chema": 5123,
  "IE": 5124,
  "ÏĮ": 5125,
  "Ġserved": 5126,
  "Ġ^": 5127,
  "Ġya": 5128,
  "Ġindeed": 5129,
  "×ª": 5130,
  "à«ĩ": 5131,
  "andle": 5132,
  "Ġ+Ċ": 5133,
  "Ġhash": 5134,
  "Ġkeys": 5135,
  "Ġlogin": 5136,
  "?:": 5137,
  "++)Ċ": 5138,
  "ĉ//": 5139,
  "Æ°": 5140,
  "Ġ);ĊĊ": 5141,
  "Ġweap": 5142,
  "Ġcolle": 5143,
  "Ġcollect": 5144,
  "Ġcollection": 5145,
  "Ġcollege": 5146,
  "HERE": 5147,
  "Go": 5148,
  "ĠCD": 5149,
  "Ġaffected": 5150,
  "Ġped": 5151,
  "ername": 5152,
  "REE": 5153,
  "âĢĻve": 5154,
  "oi": 5155,
  "oint": 5156,
  "oid": 5157,
  "oin": 5158,
  "Ġdiss": 5159,
  "Ġauthors": 5160,
  "arks": 5161,
  "(false": 5162,
  "Ġdepending": 5163,
  "itchen": 5164,
  "Ġmale": 5165,
  "ĠTwo": 5166,
  "olar": 5167,
  "Ġresistance": 5168,
  "atin": 5169,
  "ating": 5170,
  "ĠÂ£": 5171,
  "Ġsaved": 5172,
  "night": 5173,
  "Ġà¤®": 5174,
  "ĠSO": 5175,
  "Ġmu": 5176,
  "Ġmus": 5177,
  "Ġmust": 5178,
  "Ġmut": 5179,
  "Ġmur": 5180,
  "agen": 5181,
  "FAULT": 5182,
  "Ġlie": 5183,
  "Ġbud": 5184,
  "Ġbudget": 5185,
  "utf": 5186,
  "small": 5187,
  "Ġcities": 5188,
  "Ġhelping": 5189,
  "Ġlose": 5190,
  "eqref": 5191,
  "Ã¨nc": 5192,
  "Reader": 5193,
  "Ġfant": 5194,
  "Red": 5195,
  "/b": 5196,
  "à¤²": 5197,
  "ingly": 5198,
  "pes": 5199,
  "Ġtypes": 5200,
  "Dr": 5201,
  ")*": 5202,
  "Ġrent": 5203,
  "_se": 5204,
  "_set": 5205,
  "à¤¹": 5206,
  "ĠCongress": 5207,
  "$\\": 5208,
  "ECT": 5209,
  "Any": 5210,
  "Ġprev": 5211,
  "adio": 5212,
  "Book": 5213,
  "ĠHel": 5214,
  "-r": 5215,
  "Ġacid": 5216,
  "ĠOS": 5217,
  "ARR": 5218,
  "tre": 5219,
  "roups": 5220,
  "Ge": 5221,
  "Get": 5222,
  "Ġ{'": 5223,
  "ĠĠĠĠĠĠĠĠĠĠĠĠĊ": 5224,
  "Engine": 5225,
  "aked": 5226,
  "eneric": 5227,
  "det": 5228,
  "inux": 5229,
  "âĢĻm": 5230,
  "yc": 5231,
  "ycl": 5232,
  "Ġrect": 5233,
  "Ġmotion": 5234,
  "iro": 5235,
  "iron": 5236,
  "ironment": 5237,
  "rav": 5238,
  "ĠMer": 5239,
  "ĠSum": 5240,
  "Ġpure": 5241,
  "Ġbond": 5242,
  "Ġfamous": 5243,
  "ĠSmith": 5244,
  "van": 5245,
  "Ġimg": 5246,
  "uggest": 5247,
  "allel": 5248,
  "Bu": 5249,
  "But": 5250,
  "Button": 5251,
  "isf": 5252,
  "ĠHen": 5253,
  "ancel": 5254,
  "CR": 5255,
  "ĠEN": 5256,
  "hs": 5257,
  "Ġ/>": 5258,
  "Ġ/>Ċ": 5259,
  "Ġgradu": 5260,
  "Ġstreet": 5261,
  "ĠEv": 5262,
  "eli": 5263,
  "Ke": 5264,
  "Key": 5265,
  "Ġ*/čĊ": 5266,
  "sqrt": 5267,
  "proof": 5268,
  "Ġsud": 5269,
  "Ġsudden": 5270,
  "ĠDet": 5271,
  "ĠEngine": 5272,
  "arts": 5273,
  "=True": 5274,
  "igr": 5275,
  "Ã¶r": 5276,
  ":\\": 5277,
  "alled": 5278,
  "bel": 5279,
  "ONE": 5280,
  "onym": 5281,
  "Ġincl": 5282,
  "Ġvote": 5283,
  "Ġvary": 5284,
  "Left": 5285,
  "Ġhaven": 5286,
  "Email": 5287,
  "Ġran": 5288,
  "Ġrank": 5289,
  "ĠBi": 5290,
  "ĠBig": 5291,
  "afe": 5292,
  "dy": 5293,
  "ready": 5294,
  "Ġalready": 5295,
  "ĠAction": 5296,
  "Ġresulting": 5297,
  "Ġholds": 5298,
  "Ġcin": 5299,
  "Ġmm": 5300,
  "clusive": 5301,
  "15": 5302,
  "ĠOnly": 5303,
  "Ġcm": 5304,
  "à¥¤": 5305,
  "Ġlots": 5306,
  "à´¿à´": 5307,
  "Ġ-->Ċ": 5308,
  "Ġcompos": 5309,
  "ĠGL": 5310,
  "ĠExt": 5311,
  "Ġprove": 5312,
  "kl": 5313,
  "Ġdescri": 5314,
  "itute": 5315,
  "\\x": 5316,
  "Dep": 5317,
  "nal": 5318,
  "Ġelection": 5319,
  "ICE": 5320,
  "infty": 5321,
  "IND": 5322,
  "lla": 5323,
  "isch": 5324,
  "Ġafford": 5325,
  "ende": 5326,
  "ender": 5327,
  "ended": 5328,
  "áĥĿáĥ": 5329,
  "(id": 5330,
  "Ġ{\"": 5331,
  "asi": 5332,
  "Det": 5333,
  "Ġwer": 5334,
  "Ġwere": 5335,
  "ÃŃt": 5336,
  "ACE": 5337,
  "ĠOffice": 5338,
  "Ġ``": 5339,
  "imp": 5340,
  "import": 5341,
  "ika": 5342,
  "rac": 5343,
  "raction": 5344,
  "Ġliqu": 5345,
  "ĠSci": 5346,
  "ĠScience": 5347,
  "':Ċ": 5348,
  "Ġtrial": 5349,
  "edy": 5350,
  "Ġannual": 5351,
  "(w": 5352,
  "OST": 5353,
  "Ġdisk": 5354,
  "iat": 5355,
  "iation": 5356,
  "iate": 5357,
  "ĠAfr": 5358,
  "(\"%": 5359,
  "EST": 5360,
  "Ġoffering": 5361,
  "ecess": 5362,
  "Ġasking": 5363,
  "QU": 5364,
  "dist": 5365,
  "Ġhighlight": 5366,
  "rans": 5367,
  "Ġpartner": 5368,
  "Ġpartners": 5369,
  "?.": 5370,
  "Ġtur": 5371,
  "Ġturn": 5372,
  "sey": 5373,
  "Ġà¤ª": 5374,
  "ĠAnn": 5375,
  "bot": 5376,
  "Ġbird": 5377,
  "Body": 5378,
  "·¸": 5379,
  "Ġdepends": 5380,
  "(S": 5381,
  "bing": 5382,
  "ĠResult": 5383,
  "istan": 5384,
  "istance": 5385,
  "erior": 5386,
  "Ġcash": 5387,
  "rig": 5388,
  "right": 5389,
  "opyright": 5390,
  "%,": 5391,
  "Ġox": 5392,
  "Ġ(_": 5393,
  "awn": 5394,
  ".swing": 5395,
  "ĠConst": 5396,
  "Ġcompare": 5397,
  "Ġcompared": 5398,
  "_SE": 5399,
  "ivery": 5400,
  "Ġeste": 5401,
  "step": 5402,
  "oz": 5403,
  "Requ": 5404,
  "Ġmask": 5405,
  "Ġpoly": 5406,
  "×¢": 5407,
  "Ġ!==": 5408,
  "Ġremaining": 5409,
  "REF": 5410,
  "à¸£": 5411,
  "role": 5412,
  "_tr": 5413,
  ")),": 5414,
  "ws": 5415,
  "ĠNews": 5416,
  "');ĊĊ": 5417,
  "Ġcontinues": 5418,
  "ĠReal": 5419,
  "rich": 5420,
  "sets": 5421,
  "»¿": 5422,
  "ĠĠĠĠĠĠĠĠĠĠĠĠĠĠĠĠĠĠĠĠĠĠ": 5423,
  "ĠĠĠĠĠĠĠĠĠĠĠĠĠĠĠĠĠĠĠĠĠĠĠ": 5424,
  "ĠĠĠĠĠĠĠĠĠĠĠĠĠĠĠĠĠĠĠĠĠĠĠĠĠ": 5425,
  "ĠĠĠĠĠĠĠĠĠĠĠĠĠĠĠĠĠĠĠĠĠĠĠĠ": 5426,
  "\";čĊ": 5427,
  ".H": 5428,
  "(v": 5429,
  "han": 5430,
  "hand": 5431,
  "ĠIts": 5432,
  "SET": 5433,
  "nel": 5434,
  "HP": 5435,
  "@\"": 5436,
  "Ġmine": 5437,
  "'ĊĊ": 5438,
  "asp": 5439,
  "ĠUsing": 5440,
  "ĠBre": 5441,
  "Ġsurg": 5442,
  "ĠUpdate": 5443,
  "match": 5444,
  "Ġsuc": 5445,
  "Ġsuch": 5446,
  "tilde": 5447,
  "aux": 5448,
  "Ġadvent": 5449,
  "Ġtreated": 5450,
  "fra": 5451,
  "frac": 5452,
  ".write": 5453,
  "Obj": 5454,
  "Object": 5455,
  "know": 5456,
  "known": 5457,
  "Ġprompt": 5458,
  "eler": 5459,
  "del": 5460,
  "delta": 5461,
  "FC": 5462,
  "fg": 5463,
  "Hz": 5464,
  "FL": 5465,
  "Ġappearance": 5466,
  "Ġratio": 5467,
  "Ġgro": 5468,
  "Ġgrow": 5469,
  "Ġgrowth": 5470,
  "Ġgrou": 5471,
  "Ġgroup": 5472,
  "Ġground": 5473,
  "Ġgroups": 5474,
  "_by": 5475,
  "()čĊ": 5476,
  "ĠProf": 5477,
  "props": 5478,
  "plements": 5479,
  "\"/>": 5480,
  "Ġarms": 5481,
  "sert": 5482,
  "ARE": 5483,
  "Ġlayout": 5484,
  "Serial": 5485,
  "ĠAT": 5486,
  "Ġ×Ĳ": 5487,
  "ĠUSB": 5488,
  "Ġbot": 5489,
  "Ġboth": 5490,
  "Ġbott": 5491,
  "Ġbottom": 5492,
  "ĠOnline": 5493,
  "MM": 5494,
  "MD": 5495,
  "she": 5496,
  "Ġfruit": 5497,
  "Ġnoted": 5498,
  "ĠIns": 5499,
  "ĠInst": 5500,
  "ete": 5501,
  "eter": 5502,
  "eters": 5503,
  "Ġparameter": 5504,
  "Ġparameters": 5505,
  "acer": 5506,
  "Ġru": 5507,
  "Ġrun": 5508,
  "Ġruns": 5509,
  "ilies": 5510,
  "ocs": 5511,
  "à¤®": 5512,
  "prot": 5513,
  ")->": 5514,
  "Ġexplained": 5515,
  "ĠHttp": 5516,
  "Ġtak": 5517,
  "ĠÃº": 5518,
  "ĠPet": 5519,
  "See": 5520,
  "à®¿à®": 5521,
  "EXT": 5522,
  "ĠMem": 5523,
  "yes": 5524,
  "Ġgent": 5525,
  "udd": 5526,
  "Ġven": 5527,
  "Ġvent": 5528,
  "}}\\": 5529,
  "uan": 5530,
  "Ã§a": 5531,
  "à§ĩà¦": 5532,
  "Ġdan": 5533,
  "Ġdans": 5534,
  "Ġcalling": 5535,
  "zo": 5536,
  "}[": 5537,
  "[j": 5538,
  "ĠIII": 5539,
  "iveness": 5540,
  "lets": 5541,
  "Åĳ": 5542,
  "buf": 5543,
  "_sh": 5544,
  "erences": 5545,
  "à²¿à²": 5546,
  "pop": 5547,
  "ĠAL": 5548,
  "isa": 5549,
  "ĠDB": 5550,
  "layout": 5551,
  "ju": 5552,
  "Ġpayment": 5553,
  "anya": 5554,
  "Ġappl": 5555,
  "Ġapplic": 5556,
  "Ġapply": 5557,
  "Ġapplied": 5558,
  "SL": 5559,
  "($_": 5560,
  "elled": 5561,
  "Ġton": 5562,
  "Ġwat": 5563,
  "Ġwater": 5564,
  "Ġwatch": 5565,
  "Ġbow": 5566,
  "ĠWho": 5567,
  "cohol": 5568,
  "Ġquiet": 5569,
  "(\"\\": 5570,
  "iner": 5571,
  "install": 5572,
  "Ġvalu": 5573,
  "Ġvalue": 5574,
  "Ġvalues": 5575,
  "ori": 5576,
  "orig": 5577,
  "oria": 5578,
  "orial": 5579,
  "poss": 5580,
  "\\u": 5581,
  "Ġsusp": 5582,
  "Ġrub": 5583,
  "Ġmotiv": 5584,
  "ðŁ": 5585,
  "Ġip": 5586,
  "uesday": 5587,
  "ĠÂ·": 5588,
  "ĠPo": 5589,
  "ĠPol": 5590,
  "ĠPort": 5591,
  "Ġcup": 5592,
  "=\\\"": 5593,
  "Ġ),": 5594,
  "Ġ),Ċ": 5595,
  "ĠAssert": 5596,
  "Ġcars": 5597,
  "DR": 5598,
  "idx": 5599,
  "Ag": 5600,
  "arios": 5601,
  "TC": 5602,
  "ĠWed": 5603,
  "Ġgender": 5604,
  "ymb": 5605,
  "Ġri": 5606,
  "Ġrisk": 5607,
  "Ġris": 5608,
  "Ġrise": 5609,
  "Ġrid": 5610,
  "pective": 5611,
  "`Ċ": 5612,
  "Ne": 5613,
  "New": 5614,
  "Next": 5615,
  "Net": 5616,
  "ĠAD": 5617,
  "Ġcab": 5618,
  "Ġhotel": 5619,
  "HTML": 5620,
  "Ġregul": 5621,
  "Õ¥Õ": 5622,
  "etc": 5623,
  "etch": 5624,
  "ĠIr": 5625,
  "Ġcolumns": 5626,
  "Ġunf": 5627,
  "/j": 5628,
  "Ġmig": 5629,
  "Ġmight": 5630,
  "andon": 5631,
  "iot": 5632,
  "ggest": 5633,
  "ursday": 5634,
  "IES": 5635,
  "psi": 5636,
  "oly": 5637,
  "oses": 5638,
  "war": 5639,
  "ward": 5640,
  "ware": 5641,
  "wards": 5642,
  "Ġforward": 5643,
  "ftware": 5644,
  "aver": 5645,
  "ĠSecond": 5646,
  "Ġfet": 5647,
  "ĠLook": 5648,
  "othing": 5649,
  "osh": 5650,
  ":'": 5651,
  "Ġspr": 5652,
  "Ġspring": 5653,
  "gers": 5654,
  "ĠMrs": 5655,
  "IGN": 5656,
  "Ġpobl": 5657,
  "exports": 5658,
  "ĠBet": 5659,
  "ounce": 5660,
  "Ġmixed": 5661,
  "Ġdoub": 5662,
  "clear": 5663,
  "ĠBit": 5664,
  "when": 5665,
  "Ġni": 5666,
  "Ġnil": 5667,
  "Ġrend": 5668,
  "ĠDen": 5669,
  "Es": 5670,
  "Est": 5671,
  ".[": 5672,
  "opp": 5673,
  "adius": 5674,
  "Ġsalt": 5675,
  "atar": 5676,
  "extern": 5677,
  "ĠClub": 5678,
  "SH": 5679,
  "Ġvacc": 5680,
  "Op": 5681,
  "Open": 5682,
  "Oper": 5683,
  "Option": 5684,
  "Options": 5685,
  "16": 5686,
  "Ġapt": 5687,
  "kit": 5688,
  "ĠCommon": 5689,
  "Ġfou": 5690,
  "Ġfound": 5691,
  "Ġfour": 5692,
  "Ġscan": 5693,
  "nn": 5694,
  "Ġconn": 5695,
  "Ġconnect": 5696,
  "Ġconnection": 5697,
  "Ġinn": 5698,
  "Ġconnected": 5699,
  "Ġinnov": 5700,
  "conn": 5701,
  "connect": 5702,
  "modal": 5703,
  "apse": 5704,
  "Ġfans": 5705,
  "LS": 5706,
  "iest": 5707,
  "Ġ'\\": 5708,
  "ĠLos": 5709,
  "mut": 5710,
  "Ġmole": 5711,
  "30": 5712,
  "Br": 5713,
  "():Ċ": 5714,
  "mem": 5715,
  "ami": 5716,
  "amin": 5717,
  "aming": 5718,
  "amic": 5719,
  "\\,": 5720,
  "Ġprime": 5721,
  "RC": 5722,
  "dl": 5723,
  "oni": 5724,
  "onic": 5725,
  "Ġforg": 5726,
  "_string": 5727,
  "Ġ?>Ċ": 5728,
  "ANG": 5729,
  "NU": 5730,
  "NULL": 5731,
  "Ġsed": 5732,
  "Ġexperts": 5733,
  "Oh": 5734,
  "Ġfi": 5735,
  "Ġfind": 5736,
  "Ġfin": 5737,
  "Ġfil": 5738,
  "Ġfile": 5739,
  "Ġfiles": 5740,
  "Ġfive": 5741,
  "Ġfix": 5742,
  "Ġfig": 5743,
  "Ġfit": 5744,
  "Ġfill": 5745,
  "Ġfight": 5746,
  "Ġfine": 5747,
  "Ġfinally": 5748,
  "Ġfif": 5749,
  "Ġfib": 5750,
  ".Point": 5751,
  "ĠReview": 5752,
  "Ġdepartment": 5753,
  "ascript": 5754,
  "rams": 5755,
  "{\"": 5756,
  "Ġfn": 5757,
  "bur": 5758,
  "burg": 5759,
  "Ġelev": 5760,
  "Ġseed": 5761,
  "aped": 5762,
  "Ġturns": 5763,
  "Ġaus": 5764,
  "IME": 5765,
  "_back": 5766,
  "appy": 5767,
  "Õ¸ÖĤÕ": 5768,
  "Ġrequests": 5769,
  "ounced": 5770,
  "sudo": 5771,
  "Ġsteel": 5772,
  "Ġ=Ċ": 5773,
  "Ġfle": 5774,
  "Ġflex": 5775,
  "Ġchoices": 5776,
  "Ġsubstant": 5777,
  "ez": 5778,
  "aba": 5779,
  "txt": 5780,
  "reek": 5781,
  "âĶĢâĶĢ": 5782,
  "RT": 5783,
  "Ġcmd": 5784,
  "Ġaux": 5785,
  "console": 5786,
  "ĠInput": 5787,
  "ĠPan": 5788,
  "Ġlogger": 5789,
  "Ġbiggest": 5790,
  "Sl": 5791,
  "Ġ{@": 5792,
  "FS": 5793,
  "Ġnu": 5794,
  "Ġnum": 5795,
  "Ġnut": 5796,
  "Ġnumer": 5797,
  "Are": 5798,
  "ĠZe": 5799,
  "Before": 5800,
  "Enc": 5801,
  "aine": 5802,
  "ained": 5803,
  "ainer": 5804,
  "ĠIT": 5805,
  "Ġspeaking": 5806,
  "Ġhal": 5807,
  "Ġhalf": 5808,
  "emy": 5809,
  "Ġmob": 5810,
  "aws": 5811,
  "icago": 5812,
  "uh": 5813,
  "ĠNE": 5814,
  "oose": 5815,
  ";&": 5816,
  "Ġpp": 5817,
  "ASS": 5818,
  "lers": 5819,
  "Ġaccompl": 5820,
  "nam": 5821,
  "name": 5822,
  "username": 5823,
  "names": 5824,
  "Ġusername": 5825,
  "mente": 5826,
  "bm": 5827,
  "Ġimpl": 5828,
  "Ġreb": 5829,
  "erra": 5830,
  "Ġadm": 5831,
  "Ġportion": 5832,
  "ĠPop": 5833,
  "ĠAtl": 5834,
  "iga": 5835,
  "igation": 5836,
  "STR": 5837,
  "Comp": 5838,
  "Ġ;Ċ": 5839,
  "ĠRoad": 5840,
  "Use": 5841,
  "User": 5842,
  "defined": 5843,
  "Ġvirus": 5844,
  "iders": 5845,
  "rase": 5846,
  "desc": 5847,
  "rated": 5848,
  "Where": 5849,
  "API": 5850,
  "Äĳ": 5851,
  "ÖĢÕ": 5852,
  "dec": 5853,
  "Ġprepare": 5854,
  "NO": 5855,
  "ĠCommit": 5856,
  "ĠBuild": 5857,
  "coin": 5858,
  "ycle": 5859,
  "adas": 5860,
  "hal": 5861,
  "ĠAP": 5862,
  "ĠAPI": 5863,
  "ĠLouis": 5864,
  "Enter": 5865,
  "Ġencour": 5866,
  "(T": 5867,
  "Ġtwice": 5868,
  "Che": 5869,
  "Check": 5870,
  "Ġprin": 5871,
  "Ġprint": 5872,
  "(__": 5873,
  "Ġsie": 5874,
  "ĠDC": 5875,
  "cia": 5876,
  "cial": 5877,
  "Ġcrucial": 5878,
  "18": 5879,
  "ĠThom": 5880,
  "ĠThomas": 5881,
  "Ġupdates": 5882,
  "/p": 5883,
  "ributed": 5884,
  "oral": 5885,
  "UC": 5886,
  "Ġhero": 5887,
  "Offset": 5888,
  "hens": 5889,
  "Ġsurrounding": 5890,
  "Ġends": 5891,
  "Ġapi": 5892,
  ".z": 5893,
  "UID": 5894,
  "NG": 5895,
  "amil": 5896,
  "amily": 5897,
  "25": 5898,
  "Ġ})": 5899,
  "Ġ})Ċ": 5900,
  "iente": 5901,
  "NT": 5902,
  "acket": 5903,
  "capt": 5904,
  "caption": 5905,
  "Ġbeat": 5906,
  "resp": 5907,
  "respond": 5908,
  "mode": 5909,
  "model": 5910,
  "models": 5911,
  "WS": 5912,
  "ongo": 5913,
  "OC": 5914,
  "Ġfins": 5915,
  "erent": 5916,
  "Ïī": 5917,
  "Ġlic": 5918,
  "Ġlicense": 5919,
  "ĠMel": 5920,
  "uv": 5921,
  "ku": 5922,
  "inline": 5923,
  "Ġadj": 5924,
  "Ġadjust": 5925,
  "Ġbin": 5926,
  "xa": 5927,
  "=[": 5928,
  "tot": 5929,
  "total": 5930,
  "IVE": 5931,
  "sol": 5932,
  "sole": 5933,
  "Ġwealth": 5934,
  "rence": 5935,
  "none": 5936,
  "vm": 5937,
  "Rep": 5938,
  "Ġbear": 5939,
  "LC": 5940,
  ".Write": 5941,
  "aters": 5942,
  "ĠLab": 5943,
  "Ġseeking": 5944,
  "oca": 5945,
  "ocal": 5946,
  "-to": 5947,
  "isi": 5948,
  "inet": 5949,
  "ĠParty": 5950,
  "Ġexplan": 5951,
  "Ġscr": 5952,
  "Ġscre": 5953,
  "Ġscreen": 5954,
  "_SIZE": 5955,
  "ĠCA": 5956,
  "Ġexplo": 5957,
  "hetic": 5958,
  "ï¼īĊ": 5959,
  "ĠSecret": 5960,
  "keys": 5961,
  "Ġintr": 5962,
  "enda": 5963,
  "endar": 5964,
  ".sub": 5965,
  "Ġdomin": 5966,
  "kan": 5967,
  "media": 5968,
  "Ġfold": 5969,
  "Ġfolder": 5970,
  "ercial": 5971,
  "Ġwatching": 5972,
  "-M": 5973,
  "Ġdf": 5974,
  "PRO": 5975,
  "ĠSH": 5976,
  "ITE": 5977,
  "Ġforth": 5978,
  "rage": 5979,
  "Pe": 5980,
  "Per": 5981,
  ".]": 5982,
  "Ġ[]Ċ": 5983,
  "Ġspl": 5984,
  "Ġsplit": 5985,
  "Î¿Ïħ": 5986,
  "cf": 5987,
  "romise": 5988,
  "Art": 5989,
  "Ġtrib": 5990,
  "Ġschedule": 5991,
  "200": 5992,
  "sys": 5993,
  "system": 5994,
  "Ġfro": 5995,
  "Ġfrom": 5996,
  "Ġprovider": 5997,
  "Ġpi": 5998,
  "Ġpie": 5999,
  "Ġpin": 6000,
  "Ġpil": 6001,
  "Only": 6002,
  "abe": 6003,
  "abel": 6004,
  "abet": 6005,
  "erry": 6006,
  "QUE": 6007,
  "Api": 6008,
  "Ġdogs": 6009,
  "Ġperm": 6010,
  "Ġperman": 6011,
  "vin": 6012,
  "ving": 6013,
  "Ġdriving": 6014,
  "{ĊĊ": 6015,
  "Ġtum": 6016,
  "wd": 6017,
  "à¥Ī": 6018,
  "Ġhabitat": 6019,
  "!Ċ": 6020,
  "!ĊĊ": 6021,
  "rev": 6022,
  "required": 6023,
  "kes": 6024,
  "Ġtakes": 6025,
  "\"\"\"": 6026,
  "Ġhyd": 6027,
  "overy": 6028,
  "Ġtopics": 6029,
  "ĠÃ¼": 6030,
  "ĠAccess": 6031,
  "à³ģ": 6032,
  "ulo": 6033,
  "uce": 6034,
  "dates": 6035,
  "ĠBur": 6036,
  ".json": 6037,
  "]=": 6038,
  "Ġviv": 6039,
  "Ġprimer": 6040,
  "Ġsel": 6041,
  "Ġself": 6042,
  "Ġselected": 6043,
  "Ġsell": 6044,
  "aga": 6045,
  "ĠMA": 6046,
  "Ġye": 6047,
  "Ġyet": 6048,
  "Ġyes": 6049,
  "\"].": 6050,
  "Ġber": 6051,
  "Ġmarriage": 6052,
  "aka": 6053,
  "à²¾": 6054,
  "Ġ});": 6055,
  "Ġ});Ċ": 6056,
  "Ġ});ĊĊ": 6057,
  "azz": 6058,
  "_ch": 6059,
  "Ġgrant": 6060,
  "iano": 6061,
  "arser": 6062,
  "Ġsoul": 6063,
  "rick": 6064,
  "Ġreset": 6065,
  "yan": 6066,
  "ĠRom": 6067,
  "_y": 6068,
  "ĠBY": 6069,
  "ĠTry": 6070,
  "Ġinteger": 6071,
  "ĠSD": 6072,
  "Ġadvoc": 6073,
  "Ġremained": 6074,
  ")))": 6075,
  "Ġ×Ķ": 6076,
  "plus": 6077,
  "Ġlayers": 6078,
  "Ġcommonly": 6079,
  ">&": 6080,
  "Ġdiseases": 6081,
  "Ġsky": 6082,
  "pers": 6083,
  "person": 6084,
  "Desc": 6085,
  "agers": 6086,
  "nov": 6087,
  "ĠPR": 6088,
  "ĠPRO": 6089,
  "ĠSi": 6090,
  "ĠSim": 6091,
  "ĠSil": 6092,
  "ĠSir": 6093,
  "Ġextent": 6094,
  "FI": 6095,
  "FIG": 6096,
  "\\/": 6097,
  "dot": 6098,
  "ancer": 6099,
  "Ġodd": 6100,
  "break": 6101,
  "ĊĠĠĠĠĠĠĠĠĠĠĠĠĠĠĠĠĠĠĠ": 6102,
  "aire": 6103,
  "Ġguy": 6104,
  "Ġfly": 6105,
  "crip": 6106,
  "Head": 6107,
  "Header": 6108,
  "Ġtut": 6109,
  "Ġot": 6110,
  "MI": 6111,
  ".ĊĊĊ": 6112,
  ".ĊĊĊĊ": 6113,
  "onse": 6114,
  "Ġguys": 6115,
  "uj": 6116,
  "Ġble": 6117,
  "Ġfacts": 6118,
  "apes": 6119,
  ",$": 6120,
  "Ġ\".": 6121,
  "nesday": 6122,
  "bind": 6123,
  "Ġrepair": 6124,
  "Ġgrade": 6125,
  "ĠÃ¨": 6126,
  "his": 6127,
  "ĠIO": 6128,
  "sch": 6129,
  "Î³": 6130,
  "?Ċ": 6131,
  "?ĊĊ": 6132,
  "^{\\": 6133,
  "sen": 6134,
  "send": 6135,
  "Ġ\"$": 6136,
  "Ġdra": 6137,
  "Ġdraw": 6138,
  "Ġdram": 6139,
  "ĠAC": 6140,
  "ĠBE": 6141,
  "allet": 6142,
  "aise": 6143,
  "ĠMen": 6144,
  "Ġsupports": 6145,
  "(()": 6146,
  "ĠSM": 6147,
  "Ġseat": 6148,
  "Ġflight": 6149,
  "Ġpurs": 6150,
  "Ġseus": 6151,
  "sf": 6152,
  "ĠCa": 6153,
  "ĠCan": 6154,
  "ĠCar": 6155,
  "ĠCal": 6156,
  "ĠCap": 6157,
  "ĠCam": 6158,
  "ĠCamp": 6159,
  "ĠCall": 6160,
  "ĠCard": 6161,
  "ĠCast": 6162,
  "ĠCare": 6163,
  "ĠCarol": 6164,
  "ĠCas": 6165,
  "Ġsig": 6166,
  "Ġsign": 6167,
  "Ġsignal": 6168,
  "Ġsigns": 6169,
  "Ġsegment": 6170,
  "ĠCommand": 6171,
  "Gen": 6172,
  "Ġtypical": 6173,
  "Ġtypically": 6174,
  "tk": 6175,
  "iy": 6176,
  "ĠÎ±": 6177,
  "ĠAbout": 6178,
  "types": 6179,
  "-n": 6180,
  "ĠSuch": 6181,
  "help": 6182,
  "ĠEnvironment": 6183,
  ")[": 6184,
  "Non": 6185,
  "None": 6186,
  "Ġbug": 6187,
  "Ġwarn": 6188,
  "Ġbegins": 6189,
  "Ġforma": 6190,
  "Ġformat": 6191,
  "Ġformal": 6192,
  "Ġapps": 6193,
  "eqn": 6194,
  "appro": 6195,
  "bes": 6196,
  "Ġcopyright": 6197,
  "addr": 6198,
  "address": 6199,
  "ĠOk": 6200,
  "km": 6201,
  "Ġarmy": 6202,
  "bserv": 6203,
  "Ġhardware": 6204,
  "Ġgene": 6205,
  "Ġgener": 6206,
  "Ġmand": 6207,
  "ĠCL": 6208,
  "(@": 6209,
  "tempt": 6210,
  "Ġfriendly": 6211,
  "Ġcatal": 6212,
  "oves": 6213,
  "ĠPrem": 6214,
  "Ġassistance": 6215,
  "ned": 6216,
  "Ġturned": 6217,
  "Ġ}ĊĊĊ": 6218,
  "gypt": 6219,
  "+\"": 6220,
  "Ġbits": 6221,
  "Ġinteraction": 6222,
  "Ġformation": 6223,
  "itÃ©": 6224,
  "Ġcv": 6225,
  "ĠSpe": 6226,
  "ĠSpec": 6227,
  "ĠSpecial": 6228,
  "Sec": 6229,
  "useum": 6230,
  "roc": 6231,
  "alo": 6232,
  "ARRANT": 6233,
  "lice": 6234,
  "Ġcra": 6235,
  "Ġcraft": 6236,
  "III": 6237,
  "DP": 6238,
  "âĢĿ,": 6239,
  "à¸Ń": 6240,
  "Ġobst": 6241,
  "izz": 6242,
  "Ġans": 6243,
  "Ġanswer": 6244,
  "Ġanswers": 6245,
  "_num": 6246,
  "Ġembed": 6247,
  "ĠWH": 6248,
  "Ġinstr": 6249,
  "GR": 6250,
  "mic": 6251,
  "member": 6252,
  "sort": 6253,
  "ede": 6254,
  "ederal": 6255,
  "eder": 6256,
  "edef": 6257,
  "Ġcapture": 6258,
  "price": 6259,
  "iden": 6260,
  "ident": 6261,
  "idence": 6262,
  "idents": 6263,
  "Ġspending": 6264,
  "Cons": 6265,
  "Once": 6266,
  "Ġnoticed": 6267,
  "tree": 6268,
  "{(": 6269,
  "fn": 6270,
  "ĠItem": 6271,
  "ĠWARRANT": 6272,
  "Ġtall": 6273,
  "CM": 6274,
  "Ġreli": 6275,
  "Ġrelig": 6276,
  "ĠArm": 6277,
  "PUT": 6278,
  "Ġtrou": 6279,
  "ACT": 6280,
  "×ĳ": 6281,
  "Ġboys": 6282,
  "ĠObama": 6283,
  "bro": 6284,
  "Ġ{{": 6285,
  "avi": 6286,
  "avig": 6287,
  "ifi": 6288,
  "ific": 6289,
  "Ġscientific": 6290,
  "anz": 6291,
  "SI": 6292,
  "Ġwelcome": 6293,
  "Ġencourage": 6294,
  "Ġcout": 6295,
  "àµģ": 6296,
  "iones": 6297,
  "Ġsoc": 6298,
  "Ġsoci": 6299,
  "Ġsocial": 6300,
  "×©": 6301,
  "Ġsheet": 6302,
  ".se": 6303,
  ".set": 6304,
  "cluded": 6305,
  "Ġlabels": 6306,
  "\"),Ċ": 6307,
  "kins": 6308,
  "results": 6309,
  "Ġdrivers": 6310,
  "Ġcontra": 6311,
  "Ġcontract": 6312,
  "Ġcontrast": 6313,
  "Ġpero": 6314,
  "RES": 6315,
  "Ġpm": 6316,
  "]['": 6317,
  "Ġalle": 6318,
  "Ġalleg": 6319,
  "'],Ċ": 6320,
  "Ġ'.": 6321,
  "Ġ'./": 6322,
  "Ġsad": 6323,
  "ĠĠĠĠĠĠĠĠĠĠĠĠĠĠĠĠĠĠĠĠĠĠĠĠĠĠ": 6324,
  "ĠĠĠĠĠĠĠĠĠĠĠĠĠĠĠĠĠĠĠĠĠĠĠĠĠĠĠ": 6325,
  "ÃŃs": 6326,
  "reng": 6327,
  "ych": 6328,
  "ĠNon": 6329,
  "ĠNone": 6330,
  "ĠPath": 6331,
  "Ġmere": 6332,
  "rog": 6333,
  "tex": 6334,
  "text": 6335,
  "Ġresolve": 6336,
  "_a": 6337,
  "_at": 6338,
  "ĠEU": 6339,
  "))ĊĊ": 6340,
  "Av": 6341,
  "eros": 6342,
  "()).": 6343,
  "rogen": 6344,
  "ĠWhe": 6345,
  "ĠWhen": 6346,
  "ĠWhere": 6347,
  "Ġenhance": 6348,
  "-md": 6349,
  "`,": 6350,
  "ĠâĢŀ": 6351,
  ".X": 6352,
  "Ġknowing": 6353,
  "Ġtun": 6354,
  "[-": 6355,
  "(A": 6356,
  "Ġrig": 6357,
  "Ġright": 6358,
  "Ġrights": 6359,
  "outs": 6360,
  ".Generic": 6361,
  "Ġdar": 6362,
  "Ġdark": 6363,
  "âĸ": 6364,
  "Ġreplaced": 6365,
  "-st": 6366,
  "xf": 6367,
  "blem": 6368,
  "layer": 6369,
  "gal": 6370,
  "Async": 6371,
  "LOG": 6372,
  "ĠCommittee": 6373,
  "']Ċ": 6374,
  "osc": 6375,
  "olo": 6376,
  "olog": 6377,
  "ology": 6378,
  "olor": 6379,
  "×ŀ": 6380,
  "submit": 6381,
  "ĠâĢ¢": 6382,
  "Ġcant": 6383,
  "ĠJu": 6384,
  "ĠJune": 6385,
  "ĠJuly": 6386,
  "ĠJul": 6387,
  "ĠJud": 6388,
  "uler": 6389,
  "alla": 6390,
  "Ġtf": 6391,
  "Ġrisks": 6392,
  "imo": 6393,
  "ĠMartin": 6394,
  "Hel": 6395,
  "sn": 6396,
  "Ġisn": 6397,
  "Ġwasn": 6398,
  "ĠBra": 6399,
  "×ł": 6400,
  "Ġwarning": 6401,
  "impl": 6402,
  "okes": 6403,
  "dered": 6404,
  "unn": 6405,
  "Ġdatas": 6406,
  "Ġdataset": 6407,
  "ĠTre": 6408,
  "chor": 6409,
  "ĠMS": 6410,
  "Ġbreast": 6411,
  "Ġofficer": 6412,
  "Ġofficers": 6413,
  "Ġjun": 6414,
  "à²¾à²": 6415,
  "Ġlogging": 6416,
  "ĠTer": 6417,
  "Ġka": 6418,
  "umps": 6419,
  "pub": 6420,
  "ĠIll": 6421,
  "Ġgrat": 6422,
  "Ġevid": 6423,
  "Ġevidence": 6424,
  "}).": 6425,
  "Ġio": 6426,
  "mys": 6427,
  "Ġprotest": 6428,
  "ĠAdv": 6429,
  "uten": 6430,
  "Ġscheme": 6431,
  "Ġliquid": 6432,
  "AST": 6433,
  "train": 6434,
  "Ġul": 6435,
  "Ġult": 6436,
  "Ġath": 6437,
  "IAL": 6438,
  "(st": 6439,
  "(str": 6440,
  "(string": 6441,
  "ented": 6442,
  "Sm": 6443,
  "ĠHy": 6444,
  "Ġcompat": 6445,
  "Ġcommitted": 6446,
  "Login": 6447,
  "yt": 6448,
  "}_{\\": 6449,
  "ĠMoreover": 6450,
  "%)": 6451,
  "imm": 6452,
  "Ste": 6453,
  "Step": 6454,
  "ĠJewish": 6455,
  "enger": 6456,
  "cht": 6457,
  "Ġmak": 6458,
  "Ġmake": 6459,
  "Ġmakes": 6460,
  "handle": 6461,
  "imest": 6462,
  "teen": 6463,
  "Ġbirds": 6464,
  "eto": 6465,
  "umes": 6466,
  "Ġ\"-": 6467,
  "ĠSC": 6468,
  "fi": 6469,
  "fig": 6470,
  "file": 6471,
  "field": 6472,
  "fil": 6473,
  "find": 6474,
  "fin": 6475,
  "fit": 6476,
  "filter": 6477,
  "fill": 6478,
  "fix": 6479,
  "files": 6480,
  "à°¿à°": 6481,
  "Ġcheap": 6482,
  "GE": 6483,
  "GET": 6484,
  "pert": 6485,
  "perty": 6486,
  "ulf": 6487,
  "Ġ\"%": 6488,
  ".Is": 6489,
  "ĠSa": 6490,
  "ĠSan": 6491,
  "ĠSal": 6492,
  "ĠSam": 6493,
  "ĠSant": 6494,
  "ĠSand": 6495,
  "ĠSar": 6496,
  "ĠSaf": 6497,
  "Ġdrag": 6498,
  "Ġsubmit": 6499,
  ".Font": 6500,
  "cb": 6501,
  "ĠDisc": 6502,
  "Ġcircle": 6503,
  "Const": 6504,
  "MB": 6505,
  "had": 6506,
  "Ġjoy": 6507,
  "ĠAfric": 6508,
  "Ġwet": 6509,
  "Ġ',": 6510,
  "utor": 6511,
  "Ġsomewhat": 6512,
  "Ġgrew": 6513,
  "Ac": 6514,
  "Act": 6515,
  "Action": 6516,
  "Access": 6517,
  "Acc": 6518,
  "ĠOp": 6519,
  "ĠOpen": 6520,
  "ĠOper": 6521,
  ".Tab": 6522,
  "Ġdebug": 6523,
  "ÎŃ": 6524,
  "ceive": 6525,
  "enth": 6526,
  "Ġlimits": 6527,
  "hist": 6528,
  "Exp": 6529,
  "ĠMexico": 6530,
  "ĠMaybe": 6531,
  "Ġmatches": 6532,
  "ĠOl": 6533,
  "ĠOld": 6534,
  "Ġpron": 6535,
  "Ġattr": 6536,
  "Ġattract": 6537,
  "Ġfighting": 6538,
  "asts": 6539,
  "Ġmaps": 6540,
  "à·": 6541,
  "wner": 6542,
  "foo": 6543,
  "foot": 6544,
  "?>": 6545,
  "aya": 6546,
  "olly": 6547,
  "mid": 6548,
  "Ġsuperior": 6549,
  "Ġdefe": 6550,
  "Ġlies": 6551,
  "ische": 6552,
  "Ġvertical": 6553,
  "contact": 6554,
  "ĠPen": 6555,
  "EP": 6556,
  "pool": 6557,
  "lan": 6558,
  "land": 6559,
  "lands": 6560,
  "lang": 6561,
  "nown": 6562,
  "isp": 6563,
  "isplay": 6564,
  "iser": 6565,
  ".;": 6566,
  "ĠStep": 6567,
  "ĠEnter": 6568,
  "Ġconsists": 6569,
  "vare": 6570,
  "Â«": 6571,
  "Ġsomet": 6572,
  "Ġsole": 6573,
  "aret": 6574,
  "ĠHTML": 6575,
  "NN": 6576,
  "[\\": 6577,
  "ĠIM": 6578,
  "Ġrenew": 6579,
  "Ġdesigns": 6580,
  "ooking": 6581,
  "fields": 6582,
  "Ġfourth": 6583,
  "ĠDO": 6584,
  "CI": 6585,
  "apa": 6586,
  "apan": 6587,
  "igan": 6588,
  "Ġtom": 6589,
  "AF": 6590,
  "ĠBox": 6591,
  "Ġredirect": 6592,
  "')ĊĊ": 6593,
  "ĠSP": 6594,
  "ĠRoy": 6595,
  "cember": 6596,
  "Ġaz": 6597,
  "loss": 6598,
  "ĠÃ©t": 6599,
  "'}": 6600,
  "Ġ\"#": 6601,
  "Users": 6602,
  ".res": 6603,
  "Ġacts": 6604,
  "lie": 6605,
  "lier": 6606,
  "textbf": 6607,
  "Ġlogic": 6608,
  "iche": 6609,
  "Ġplt": 6610,
  "ĠDu": 6611,
  "eras": 6612,
  "Ġgrown": 6613,
  "ĠSeg": 6614,
  "\":Ċ": 6615,
  "acher": 6616,
  "dp": 6617,
  "Ġanywhere": 6618,
  "rend": 6619,
  "render": 6620,
  "MO": 6621,
  "Ġchecked": 6622,
  "ĠOption": 6623,
  "âĢĿ.": 6624,
  "Ġillustr": 6625,
  "*(": 6626,
  "yal": 6627,
  "mond": 6628,
  "+\\": 6629,
  "ĉ<": 6630,
  "connection": 6631,
  "inity": 6632,
  "ativ": 6633,
  "ative": 6634,
  "atives": 6635,
  "atively": 6636,
  "who": 6637,
  "(\".": 6638,
  "-sm": 6639,
  "high": 6640,
  "mal": 6641,
  "dk": 6642,
  "Ġpare": 6643,
  "Ġparent": 6644,
  "ARY": 6645,
  "ributes": 6646,
  "ovember": 6647,
  "ONT": 6648,
  "ĉčĊ": 6649,
  "Ġnormally": 6650,
  "ĠHenry": 6651,
  "jar": 6652,
  "eful": 6653,
  "ĠSom": 6654,
  "ĠSome": 6655,
  "Ġsynt": 6656,
  "Ġclo": 6657,
  "Ġclose": 6658,
  "Ġclos": 6659,
  "Ġcloud": 6660,
  "Ġclock": 6661,
  "Ġcloser": 6662,
  "Ġclosely": 6663,
  "ĠLu": 6664,
  "Ġcul": 6665,
  "Ġcult": 6666,
  "PM": 6667,
  "gent": 6668,
  "à°Ĥ": 6669,
  "Props": 6670,
  "/.": 6671,
  "tical": 6672,
  "\"/>Ċ": 6673,
  "ĠĠĠĠĠĠĠĠĠĠĠĠĠĠĠĠĠĠĠĠĠĠĠĠĠĠĠĠ": 6674,
  "ĠĠĠĠĠĠĠĠĠĠĠĠĠĠĠĠĠĠĠĠĠĠĠĠĠĠĠĠĠ": 6675,
  "rant": 6676,
  "Ġ'#": 6677,
  "14": 6678,
  "ĠSon": 6679,
  "Med": 6680,
  "ARD": 6681,
  "Ġfavour": 6682,
  "Ġba": 6683,
  "Ġbas": 6684,
  "Ġbase": 6685,
  "Ġbased": 6686,
  "Ġbar": 6687,
  "Ġbad": 6688,
  "Ġbal": 6689,
  "Ġball": 6690,
  "Ġban": 6691,
  "Ġband": 6692,
  "Ġbank": 6693,
  "Ġbag": 6694,
  "Ġbab": 6695,
  "Ġbaby": 6696,
  "Ġbat": 6697,
  "Ġbath": 6698,
  "Ġbatch": 6699,
  "ĠSex": 6700,
  "Ġdrawn": 6701,
  "Ġdent": 6702,
  "ĠSie": 6703,
  "subsection": 6704,
  "hash": 6705,
  "Ġdebt": 6706,
  "cludes": 6707,
  "Ġpued": 6708,
  "ĠPhys": 6709,
  "reci": 6710,
  "Ġillness": 6711,
  "___": 6712,
  "____": 6713,
  "created": 6714,
  "_NAME": 6715,
  "they": 6716,
  "Look": 6717,
  "Ġadvis": 6718,
  "ĠRest": 6719,
  "Ġfru": 6720,
  "Ġmoves": 6721,
  "ometimes": 6722,
  "Ġqueue": 6723,
  "Ġsongs": 6724,
  ".V": 6725,
  "xiety": 6726,
  "Â®": 6727,
  "Ġmuscle": 6728,
  "itan": 6729,
  "Ġblow": 6730,
  "];ĊĊ": 6731,
  "Ġtorn": 6732,
  "Ġdinner": 6733,
  "ocity": 6734,
  "ĠEmp": 6735,
  "omas": 6736,
  ";i": 6737,
  "Ġti": 6738,
  "Ġtim": 6739,
  "Ġtime": 6740,
  "Ġtimes": 6741,
  "Ġtit": 6742,
  "Ġtitle": 6743,
  "Ġtip": 6744,
  "Ġtips": 6745,
  "Ġtil": 6746,
  "Ġtill": 6747,
  "Ġprimarily": 6748,
  "Ġsuddenly": 6749,
  "Ġbreat": 6750,
  "Ġbreath": 6751,
  "resource": 6752,
  "Ġbread": 6753,
  "ĠNa": 6754,
  "ĠNav": 6755,
  "Ġnou": 6756,
  "\">čĊ": 6757,
  "Ġuma": 6758,
  "Ġhole": 6759,
  "ĠĠĠĠĠĠ<": 6760,
  "Ġà¨": 6761,
  "Ġduty": 6762,
  "ĠCore": 6763,
  "there": 6764,
  "Ġentr": 6765,
  "Ġentre": 6766,
  "Ġentry": 6767,
  "aser": 6768,
  "')->": 6769,
  "ĠHa": 6770,
  "ĠHar": 6771,
  "ĠHam": 6772,
  "ĠHaw": 6773,
  "iento": 6774,
  "ĠGree": 6775,
  "ĠIV": 6776,
  "ĠThose": 6777,
  "wargs": 6778,
  "About": 6779,
  "aml": 6780,
  "Ġpert": 6781,
  "MT": 6782,
  "urer": 6783,
  "ĠServ": 6784,
  "ĠService": 6785,
  "ĠServices": 6786,
  "rar": 6787,
  "Ġpowers": 6788,
  "oub": 6789,
  "ouble": 6790,
  "ynt": 6791,
  "Ġmoments": 6792,
  "fd": 6793,
  "ĠEnc": 6794,
  "isme": 6795,
  "Ġbuying": 6796,
  "ĠHead": 6797,
  "vari": 6798,
  ">'": 6799,
  "Ġtod": 6800,
  "liament": 6801,
  "roph": 6802,
  "Ġorganic": 6803,
  "BI": 6804,
  "Ġsignals": 6805,
  "iti": 6806,
  "ition": 6807,
  "itions": 6808,
  "dition": 6809,
  "Ġaddition": 6810,
  "Ġadditional": 6811,
  "itis": 6812,
  "Ġaccommod": 6813,
  "Cor": 6814,
  "Core": 6815,
  "Ġdropped": 6816,
  "&&": 6817,
  "ĠLuc": 6818,
  "inue": 6819,
  "hot": 6820,
  "oked": 6821,
  "Ġsolo": 6822,
  "Ġ).": 6823,
  "^\\": 6824,
  "Ġbeach": 6825,
  "tw": 6826,
  "->_": 6827,
  "Ġrac": 6828,
  "Ġrace": 6829,
  "Ġenum": 6830,
  "Ġbis": 6831,
  "kind": 6832,
  "ĠDefault": 6833,
  "ridge": 6834,
  "ttps": 6835,
  "RED": 6836,
  "ĉĉĉĊ": 6837,
  "'].": 6838,
  "ustral": 6839,
  "Mr": 6840,
  "oli": 6841,
  "olic": 6842,
  "olid": 6843,
  "Ġtorch": 6844,
  "xis": 6845,
  "rab": 6846,
  "Ġfee": 6847,
  "Ġfeel": 6848,
  "Ġfeed": 6849,
  "Ġfeet": 6850,
  "Ġfeeling": 6851,
  "Ġfeels": 6852,
  "HECK": 6853,
  "VD": 6854,
  "Ġ(-": 6855,
  "rible": 6856,
  "à¹Ī": 6857,
  "ĠVa": 6858,
  "ĠVal": 6859,
  "ĠValue": 6860,
  "ĠVan": 6861,
  "Ġadds": 6862,
  "nen": 6863,
  "ncies": 6864,
  "Ġze": 6865,
  "ountry": 6866,
  ")=": 6867,
  "oga": 6868,
  "present": 6869,
  "ĠĠ<": 6870,
  "ĠBob": 6871,
  "BD": 6872,
  "Ġradi": 6873,
  "Ġradio": 6874,
  "à´¾": 6875,
  "uled": 6876,
  "Ġjudge": 6877,
  "Ġreply": 6878,
  "Ġbare": 6879,
  "_LO": 6880,
  "ushed": 6881,
  "asket": 6882,
  "Draw": 6883,
  "/g": 6884,
  "iences": 6885,
  "ĠOpt": 6886,
  "rer": 6887,
  "Ġresid": 6888,
  "Ġinstances": 6889,
  "Ġesta": 6890,
  "Ġestab": 6891,
  "MC": 6892,
  "ropri": 6893,
  "Ġride": 6894,
  "ifer": 6895,
  "Ġregularly": 6896,
  "bul": 6897,
  "Ġtea": 6898,
  "Ġteam": 6899,
  "Ġteach": 6900,
  "Ġteams": 6901,
  "Ġteacher": 6902,
  "Ġkne": 6903,
  "Ġknew": 6904,
  "Ġfluid": 6905,
  "SO": 6906,
  "SON": 6907,
  "Ġmovies": 6908,
  "ĠLee": 6909,
  "Ġdefend": 6910,
  "uis": 6911,
  "ĠExp": 6912,
  "ĠExpl": 6913,
  "imestamp": 6914,
  "Dev": 6915,
  "Device": 6916,
  "ĠHard": 6917,
  "ĠSanta": 6918,
  "_k": 6919,
  "Ġselling": 6920,
  "Ã¤r": 6921,
  "Ã¹": 6922,
  "Ġdraft": 6923,
  "Ġedges": 6924,
  "onal": 6925,
  "itional": 6926,
  "=\"/": 6927,
  "Ġanswered": 6928,
  "-S": 6929,
  "Ġbone": 6930,
  "ĠBO": 6931,
  "ĠHD": 6932,
  "000": 6933,
  "ĠĠĠĠĠĠĠĠĠĠĠĠ<": 6934,
  "appa": 6935,
  "ĠArmy": 6936,
  "CRE": 6937,
  "}-": 6938,
  "cluding": 6939,
  "Ġongoing": 6940,
  "\"],": 6941,
  "Ġextend": 6942,
  "Ġextends": 6943,
  "Ġextended": 6944,
  "ĠAff": 6945,
  "-e": 6946,
  "Ġachieved": 6947,
  "Ġassigned": 6948,
  "ervlet": 6949,
  "RS": 6950,
  "Ġbusy": 6951,
  "(null": 6952,
  ")+": 6953,
  "ĠEp": 6954,
  "forms": 6955,
  "Ġinline": 6956,
  "Ġ×ľ": 6957,
  "dep": 6958,
  "depend": 6959,
  "ĠDist": 6960,
  "oj": 6961,
  "record": 6962,
  "à¸²à¸": 6963,
  "cmd": 6964,
  "Ġsmo": 6965,
  "Ġsmooth": 6966,
  ";ĊĊĊ": 6967,
  "zt": 6968,
  "ania": 6969,
  "irty": 6970,
  "Ġrand": 6971,
  "Ġrandom": 6972,
  "Ġfault": 6973,
  "such": 6974,
  "Ġlift": 6975,
  "Ġmad": 6976,
  "Ġmade": 6977,
  "Ġstruggle": 6978,
  "Ġlaunched": 6979,
  "TD": 6980,
  "ĠLat": 6981,
  "13": 6982,
  "uma": 6983,
  "uman": 6984,
  "ĠEss": 6985,
  "Ġfaces": 6986,
  "Ġtub": 6987,
  "exas": 6988,
  "Ġappend": 6989,
  "atio": 6990,
  "ation": 6991,
  "ations": 6992,
  "ational": 6993,
  "location": 6994,
  "equation": 6995,
  "Ġcommunication": 6996,
  "igration": 6997,
  "ĠAssociation": 6998,
  "eration": 6999,
  "avigation": 7000,
  "oundation": 7001,
  "Ġstrings": 7002,
  "tics": 7003,
  "idade": 7004,
  ".cl": 7005,
  ".class": 7006,
  ".close": 7007,
  "stein": 7008,
  "asm": 7009,
  "Ġpand": 7010,
  "ĉĉĉĉĉĉĉĉĉ": 7011,
  "Ġidx": 7012,
  "\"+": 7013,
  "ĠPay": 7014,
  "ĠCG": 7015,
  "Ġtempl": 7016,
  "Ġtemplate": 7017,
  "ĠCOM": 7018,
  "seg": 7019,
  "Ġjs": 7020,
  "Ġjson": 7021,
  "(['": 7022,
  "à¶": 7023,
  "dc": 7024,
  "eren": 7025,
  "Ġhall": 7026,
  "Ġstret": 7027,
  "Ġfetch": 7028,
  "onymous": 7029,
  "mos": 7030,
  "most": 7031,
  "footer": 7032,
  "nie": 7033,
  "asse": 7034,
  "irectory": 7035,
  "à«į": 7036,
  "Ġcurve": 7037,
  "Ġwebsites": 7038,
  "\\t": 7039,
  "bas": 7040,
  "base": 7041,
  "atabase": 7042,
  "based": 7043,
  "uality": 7044,
  ")\"": 7045,
  "bat": 7046,
  "Ġ\\<": 7047,
  "PIO": 7048,
  "Ġabsor": 7049,
  "202": 7050,
  "SM": 7051,
  "asa": 7052,
  "ĠCS": 7053,
  "Ġwheel": 7054,
  "BN": 7055,
  "Ġrapidly": 7056,
  "Ġmerely": 7057,
  "apache": 7058,
  "\",čĊ": 7059,
  "Ġdoct": 7060,
  "Ġdoctor": 7061,
  "mac": 7062,
  "urrency": 7063,
  "Ġdance": 7064,
  "Ġtech": 7065,
  "Ġtechn": 7066,
  "Ġej": 7067,
  "ipo": 7068,
  "ĠJun": 7069,
  "ibrary": 7070,
  "obe": 7071,
  "ober": 7072,
  "contr": 7073,
  "Ġmagic": 7074,
  "Ġmeta": 7075,
  "Ġmetal": 7076,
  "-re": 7077,
  "ĠÏĢ": 7078,
  "ĠBon": 7079,
  "DM": 7080,
  "^{-": 7081,
  "Ġlegs": 7082,
  "Ġnewsp": 7083,
  "Gu": 7084,
  "Ġdates": 7085,
  "job": 7086,
  "ĠÎ¼": 7087,
  "ĠTem": 7088,
  "argo": 7089,
  "*.": 7090,
  "Ġdispl": 7091,
  "ificial": 7092,
  "amps": 7093,
  "orthern": 7094,
  "Ġtap": 7095,
  "Ġdish": 7096,
  "pad": 7097,
  "Seg": 7098,
  "aten": 7099,
  "%.": 7100,
  "à¥įà¤°": 7101,
  "Scale": 7102,
  "aders": 7103,
  "bits": 7104,
  "ijn": 7105,
  "Ġprops": 7106,
  "_res": 7107,
  "Ġsilver": 7108,
  "matrix": 7109,
  "Īĺ": 7110,
  "Ġeg": 7111,
  "Ġegg": 7112,
  "ĠArg": 7113,
  "agent": 7114,
  "}\"": 7115,
  "ĠPot": 7116,
  "rapper": 7117,
  "à«įàª": 7118,
  "Ġtough": 7119,
  ".E": 7120,
  "Doc": 7121,
  "vc": 7122,
  "Ġbg": 7123,
  "sin": 7124,
  "sing": 7125,
  "Ġentries": 7126,
  "ĠÃī": 7127,
  "ĠCreat": 7128,
  "ĠCreate": 7129,
  "ĠCreated": 7130,
  "à©": 7131,
  "ĠWhether": 7132,
  "ĠMP": 7133,
  "ORY": 7134,
  "-se": 7135,
  "Loc": 7136,
  "Location": 7137,
  "Local": 7138,
  "ĠSpr": 7139,
  "ĠEll": 7140,
  "Ķ×": 7141,
  "outhern": 7142,
  "formance": 7143,
  "BL": 7144,
  "een": 7145,
  "Ġproviders": 7146,
  "Ã©es": 7147,
  "âĦ": 7148,
  "enta": 7149,
  "ental": 7150,
  "ĠOK": 7151,
  "Ġpag": 7152,
  "Ġpage": 7153,
  "Ġpages": 7154,
  "Ġbuf": 7155,
  "Ġbuff": 7156,
  "Ġbuffer": 7157,
  "ĠÏĥ": 7158,
  "Ġencou": 7159,
  "har": 7160,
  "born": 7161,
  "ĠSym": 7162,
  "Ġbless": 7163,
  "ĠDer": 7164,
  "Ġcombat": 7165,
  "Ġradius": 7166,
  "fc": 7167,
  "Ġantib": 7168,
  "Ġfoundation": 7169,
  "ampions": 7170,
  "Ġcompens": 7171,
  "Ġ-=": 7172,
  "abetes": 7173,
  "Ġholiday": 7174,
  "Ġcer": 7175,
  "Ġcert": 7176,
  "Ġcere": 7177,
  "found": 7178,
  "Ġpermit": 7179,
  "Ġcable": 7180,
  "à°Ĥà°": 7181,
  "Ġdeck": 7182,
  "Ġtermin": 7183,
  "plex": 7184,
  "Ġdriv": 7185,
  "HS": 7186,
  "'>": 7187,
  "aded": 7188,
  "owner": 7189,
  "Ġ]Ċ": 7190,
  "brief": 7191,
  "\")ĊĊ": 7192,
  "quer": 7193,
  "query": 7194,
  "alg": 7195,
  "}`": 7196,
  "Byte": 7197,
  "Bytes": 7198,
  "Build": 7199,
  "Ġoptional": 7200,
  "Ġpip": 7201,
  "catch": 7202,
  "ĠLatin": 7203,
  "forward": 7204,
  "ĠDim": 7205,
  "(get": 7206,
  "ĠInf": 7207,
  "sd": 7208,
  "Ġvoc": 7209,
  "Ġendl": 7210,
  "Iter": 7211,
  "prec": 7212,
  "());ĊĊ": 7213,
  "Ġgrab": 7214,
  "navbar": 7215,
  "ĠÂ©": 7216,
  "));čĊ": 7217,
  "rule": 7218,
  "ulty": 7219,
  ".send": 7220,
  "final": 7221,
  "amer": 7222,
  "amera": 7223,
  "ĠJeff": 7224,
  "Ġdoors": 7225,
  "uits": 7226,
  "rong": 7227,
  "Ġcro": 7228,
  "Ġcross": 7229,
  "Ġcrow": 7230,
  "toString": 7231,
  "umm": 7232,
  "ummy": 7233,
  "ensus": 7234,
  "UST": 7235,
  "(L": 7236,
  "ensure": 7237,
  "rangle": 7238,
  "Ġtow": 7239,
  "Ġtowards": 7240,
  "Ġtoward": 7241,
  "Ġtown": 7242,
  "Ġcleaning": 7243,
  "100": 7244,
  "prim": 7245,
  "ĠLanguage": 7246,
  "ĠTree": 7247,
  "Î®": 7248,
  "à¯ģà®": 7249,
  "Ġproc": 7250,
  "Ġprocess": 7251,
  "Ġproced": 7252,
  "Ġprocedure": 7253,
  "Ġproceed": 7254,
  "Ġprocedures": 7255,
  "antly": 7256,
  "Ġspectrum": 7257,
  "Ġrecip": 7258,
  "Ġrecipe": 7259,
  "endl": 7260,
  "Ġevil": 7261,
  "prime": 7262,
  "Ġdeclar": 7263,
  "pir": 7264,
  "Ġtags": 7265,
  "Ġexplanation": 7266,
  "#Ċ": 7267,
  "Ġputs": 7268,
  "super": 7269,
  "Ġnewly": 7270,
  "Ġsect": 7271,
  "Ġsection": 7272,
  "Ġsector": 7273,
  "Ġsections": 7274,
  "Ã©m": 7275,
  "istant": 7276,
  "ĠLow": 7277,
  "Ġmarg": 7278,
  "Ġmargin": 7279,
  "bles": 7280,
  "ToString": 7281,
  "âĢł": 7282,
  "jet": 7283,
  "Ġeggs": 7284,
  "oir": 7285,
  "Ġages": 7286,
  "Ġtres": 7287,
  "_EX": 7288,
  "ishment": 7289,
  "Ġnegot": 7290,
  "Ġpaying": 7291,
  "Ġinteractions": 7292,
  "overs": 7293,
  "ĠSat": 7294,
  "Ġprivacy": 7295,
  "dit": 7296,
  "uta": 7297,
  "Ġnos": 7298,
  "á»į": 7299,
  "Ġliv": 7300,
  "Ġlive": 7301,
  "Ġliving": 7302,
  "Ġlives": 7303,
  "Ġlived": 7304,
  "uen": 7305,
  "Ġsubstantial": 7306,
  "Ang": 7307,
  "jud": 7308,
  "riteria": 7309,
  "iste": 7310,
  "ister": 7311,
  "register": 7312,
  "isters": 7313,
  "istes": 7314,
  "mann": 7315,
  "ismo": 7316,
  "endor": 7317,
  "LY": 7318,
  "hline": 7319,
  "Ġserves": 7320,
  "ĠGra": 7321,
  "ĠGrand": 7322,
  "ilde": 7323,
  "ilder": 7324,
  "Builder": 7325,
  "urrenc": 7326,
  "Ġ.=": 7327,
  "Ġgentle": 7328,
  "question": 7329,
  "Ġlesson": 7330,
  "Ġlessons": 7331,
  "Ã®": 7332,
  "ĠLoad": 7333,
  "Ġencounter": 7334,
  "Ġlegis": 7335,
  "Ġ)ĊĊ": 7336,
  "ĠSea": 7337,
  "onto": 7338,
  "ĠLi": 7339,
  "ĠLib": 7340,
  "ĠLine": 7341,
  "ĠLin": 7342,
  "ĠLinux": 7343,
  "ĠLim": 7344,
  "-(": 7345,
  "async": 7346,
  "Ġ};": 7347,
  "Ġ};Ċ": 7348,
  "Ġ};ĊĊ": 7349,
  "_field": 7350,
  "Ġlin": 7351,
  "Ġline": 7352,
  "Ġlink": 7353,
  "Ġlines": 7354,
  "Ġlinks": 7355,
  "Ġ\"'": 7356,
  "Ġfaced": 7357,
  "Ret": 7358,
  "Return": 7359,
  "Ġcomposition": 7360,
  "Ġbind": 7361,
  "Ġbinding": 7362,
  "ETH": 7363,
  "conds": 7364,
  "RR": 7365,
  "ï¼ĮâĢľ": 7366,
  "!=": 7367,
  "ifically": 7368,
  "OWN": 7369,
  "Ġoptimal": 7370,
  "Ġreplied": 7371,
  "ĠCase": 7372,
  "Ġpup": 7373,
  "anna": 7374,
  "zed": 7375,
  "Ġgranted": 7376,
  "emph": 7377,
  "Ġpaths": 7378,
  "Ġsle": 7379,
  "Ġcoord": 7380,
  ".k": 7381,
  "jor": 7382,
  "_reg": 7383,
  "Ġcha": 7384,
  "Ġchar": 7385,
  "Ġcharacter": 7386,
  "Ġcharg": 7387,
  "Ġcharacters": 7388,
  "Ġcharge": 7389,
  "Ġchat": 7390,
  "Ġchart": 7391,
  "Ġcharged": 7392,
  "Ġcharges": 7393,
  "ĠCarolina": 7394,
  "Ġproved": 7395,
  "ORE": 7396,
  "ucky": 7397,
  "Ġmurder": 7398,
  "condition": 7399,
  "Ġdecrease": 7400,
  "ĠCR": 7401,
  "Ġfert": 7402,
  "ĠBern": 7403,
  "Ġflood": 7404,
  "pay": 7405,
  "Ġsmile": 7406,
  ".Ex": 7407,
  "|\\": 7408,
  "ĠPlus": 7409,
  "Ġcooking": 7410,
  "_i": 7411,
  "_id": 7412,
  "_in": 7413,
  "_int": 7414,
  "ĠPS": 7415,
  "Ġmovements": 7416,
  "Ġtone": 7417,
  "adors": 7418,
  "âĢĻd": 7419,
  "×ĵ": 7420,
  "(B": 7421,
  "ferred": 7422,
  "HO": 7423,
  "FR": 7424,
  "clos": 7425,
  "close": 7426,
  "(`": 7427,
  "bus": 7428,
  ".ch": 7429,
  "Ġpreced": 7430,
  "Ġvend": 7431,
  ";\"": 7432,
  "illy": 7433,
  "?)": 7434,
  "random": 7435,
  "lee": 7436,
  "leep": 7437,
  "/v": 7438,
  "ĠðŁ": 7439,
  "ĠCE": 7440,
  "ilarly": 7441,
  "itats": 7442,
  "riz": 7443,
  "à«Ģ": 7444,
  "ĠBa": 7445,
  "ĠBar": 7446,
  "ĠBay": 7447,
  "ĠBas": 7448,
  "ĠBase": 7449,
  "ĠBal": 7450,
  "eny": 7451,
  "aze": 7452,
  "Ġpatch": 7453,
  "Ġtar": 7454,
  "Ġdriven": 7455,
  "mosp": 7456,
  "mine": 7457,
  "las": 7458,
  "lass": 7459,
  "last": 7460,
  "Opt": 7461,
  "leted": 7462,
  "Su": 7463,
  "Sub": 7464,
  "Sup": 7465,
  "Sum": 7466,
  "Support": 7467,
  "Results": 7468,
  "Ġmini": 7469,
  "Ġminim": 7470,
  "Ġminimum": 7471,
  "Ġmining": 7472,
  "Ġexplains": 7473,
  "ĠGre": 7474,
  "ĠGreat": 7475,
  "ĠGreen": 7476,
  "ĠGreek": 7477,
  "uzz": 7478,
  "ONG": 7479,
  "ĠBad": 7480,
  "isted": 7481,
  "ĊĠĠĠĠ": 7482,
  "Ġprefix": 7483,
  "ĠpÃ¥": 7484,
  "refix": 7485,
  "/t": 7486,
  ".show": 7487,
  "iors": 7488,
  ".In": 7489,
  "Ġdt": 7490,
  "Ġmatching": 7491,
  "Ġsomewhere": 7492,
  "Ġdiscrim": 7493,
  "ĠSpring": 7494,
  "ĠGi": 7495,
  "ĠIde": 7496,
  "ĠEls": 7497,
  "ĠBul": 7498,
  "itudes": 7499,
  "Ġinnovative": 7500,
  "urd": 7501,
  "ĉv": 7502,
  "stry": 7503,
  "Ġindustry": 7504,
  "Ġfeat": 7505,
  "Ġfeatures": 7506,
  "Ġfeature": 7507,
  "Ġ×©": 7508,
  "TA": 7509,
  "(P": 7510,
  "à¤ª": 7511,
  "awa": 7512,
  "$_": 7513,
  "Ġ'%": 7514,
  "Ġhan": 7515,
  "Ġhand": 7516,
  "Ġhands": 7517,
  "Ġhandle": 7518,
  "Ġhandler": 7519,
  "Ġhandling": 7520,
  "à´¾à´": 7521,
  "Ġrelief": 7522,
  "unte": 7523,
  "Ġconce": 7524,
  "Ġconcept": 7525,
  "Ġconcent": 7526,
  "oker": 7527,
  "Ġbanks": 7528,
  "geq": 7529,
  "bd": 7530,
  "elly": 7531,
  "}'": 7532,
  "ciples": 7533,
  "Lay": 7534,
  "Layout": 7535,
  "Layer": 7536,
  "xe": 7537,
  "áº¡": 7538,
  "Ġouter": 7539,
  "argv": 7540,
  "Ġrating": 7541,
  "Ġlosing": 7542,
  "Ġpd": 7543,
  "\"čĊ": 7544,
  "Sw": 7545,
  "USE": 7546,
  "USER": 7547,
  "Met": 7548,
  "Ġwriters": 7549,
  "_sub": 7550,
  "Ġseeds": 7551,
  "Ġscroll": 7552,
  "Ġ\\,": 7553,
  "yer": 7554,
  "oven": 7555,
  "Ġnurs": 7556,
  "32": 7557,
  "Ġrising": 7558,
  "áĥĺáĥ¡": 7559,
  "Ġstead": 7560,
  "don": 7561,
  "tf": 7562,
  "Ġprintf": 7563,
  "gra": 7564,
  "gram": 7565,
  "grad": 7566,
  "graph": 7567,
  "grade": 7568,
  "Ġcompute": 7569,
  "Ġcomputer": 7570,
  "iated": 7571,
  "trl": 7572,
  "ĠProv": 7573,
  "Ġasc": 7574,
  "idi": 7575,
  "sur": 7576,
  "ĠDictionary": 7577,
  "Ġnumpy": 7578,
  "stra": 7579,
  "stract": 7580,
  "strap": 7581,
  "Ġcorn": 7582,
  "Ġcorner": 7583,
  "ders": 7584,
  "áº¿": 7585,
  ">,": 7586,
  "gb": 7587,
  "zip": 7588,
  "onia": 7589,
  "Ġrepeat": 7590,
  "Ġrepeated": 7591,
  "rb": 7592,
  "Ġverb": 7593,
  "eno": 7594,
  "_result": 7595,
  "Using": 7596,
  "Ġnan": 7597,
  "-A": 7598,
  "route": 7599,
  "Ġpra": 7600,
  "Ġpray": 7601,
  "à³Ĩ": 7602,
  "à¦¨": 7603,
  "fic": 7604,
  "mask": 7605,
  "vant": 7606,
  "hips": 7607,
  "ategy": 7608,
  "apsed": 7609,
  "Ġsought": 7610,
  "posing": 7611,
  "Ġextr": 7612,
  "Ġextra": 7613,
  "Ġextrem": 7614,
  "Ġextreme": 7615,
  "Ġextremely": 7616,
  "Ġske": 7617,
  "Ġcommitment": 7618,
  "Ġham": 7619,
  "Ġarts": 7620,
  "Ġcrew": 7621,
  "Ġattempts": 7622,
  "ĠPL": 7623,
  "_(": 7624,
  "Ġpad": 7625,
  "orb": 7626,
  "Ġdisp": 7627,
  "Ġdisplay": 7628,
  "Ġdisplayed": 7629,
  "Ġdispatch": 7630,
  "atalog": 7631,
  "Ġwaters": 7632,
  "Ġcontrib": 7633,
  "PH": 7634,
  "Ġpropag": 7635,
  "Ġ\"\",": 7636,
  "valu": 7637,
  "value": 7638,
  "values": 7639,
  "inte": 7640,
  "inter": 7641,
  "ĠAI": 7642,
  "Ġcommittee": 7643,
  "Ġtan": 7644,
  "Ġtank": 7645,
  "ĠDid": 7646,
  "Ġcircumst": 7647,
  "Ġcomputers": 7648,
  "ĠCle": 7649,
  "Ġregardless": 7650,
  "antes": 7651,
  "NC": 7652,
  "INS": 7653,
  "acking": 7654,
  "ĠÎº": 7655,
  "channel": 7656,
  "Ġ\"+": 7657,
  "straint": 7658,
  "Ġintegrated": 7659,
  "unci": 7660,
  "ĠNY": 7661,
  "erves": 7662,
  "Ġshel": 7663,
  "Ġshell": 7664,
  "Ġft": 7665,
  "ILL": 7666,
  "olume": 7667,
  "idos": 7668,
  "Ġcompact": 7669,
  "!!!": 7670,
  "Ġbroke": 7671,
  "Ġbroken": 7672,
  "à¤¾à¤°": 7673,
  "ril": 7674,
  "ĠApril": 7675,
  "uke": 7676,
  ".}": 7677,
  "Ġ\"./": 7678,
  "dem": 7679,
  "ĠLI": 7680,
  "Ġhang": 7681,
  "ĠRod": 7682,
  "margin": 7683,
  "brid": 7684,
  "ĠComput": 7685,
  "achment": 7686,
  "ĠCat": 7687,
  "ĠCath": 7688,
  "ĠCatal": 7689,
  "ĠCatholic": 7690,
  "ĠSem": 7691,
  "Ġsaving": 7692,
  "BE": 7693,
  "rf": 7694,
  "tor": 7695,
  "ÂłÂł": 7696,
  "Ġoutcome": 7697,
  "Ġoutcomes": 7698,
  "erals": 7699,
  "lot": 7700,
  "WE": 7701,
  "âĤ": 7702,
  "âĤ¬": 7703,
  "away": 7704,
  "olicy": 7705,
  "ighb": 7706,
  "GA": 7707,
  "cam": 7708,
  "came": 7709,
  "(std": 7710,
  "Ġay": 7711,
  "outes": 7712,
  "Ġemph": 7713,
  "Ġemphas": 7714,
  "olute": 7715,
  "sex": 7716,
  "iller": 7717,
  "deb": 7718,
  "debug": 7719,
  "Ġza": 7720,
  "(ex": 7721,
  "Register": 7722,
  ".U": 7723,
  "erous": 7724,
  "illi": 7725,
  "Ġfees": 7726,
  "17": 7727,
  "Ġ\\\"": 7728,
  "ĠJon": 7729,
  "ĠJones": 7730,
  "olt": 7731,
  "anto": 7732,
  "ĠPers": 7733,
  "ĠPerson": 7734,
  "ĠQueen": 7735,
  "àµģà´": 7736,
  "\\'": 7737,
  "aca": 7738,
  "Ġmg": 7739,
  "(D": 7740,
  "ĠAz": 7741,
  "bet": 7742,
  "beta": 7743,
  "Area": 7744,
  "ĠĠĠĠĠĠĠĠĠĠĠĠĠĠĠĠĠĠĠĠĠĠĠĠĠĠĠĠĠĠ": 7745,
  "ĠĠĠĠĠĠĠĠĠĠĠĠĠĠĠĠĠĠĠĠĠĠĠĠĠĠĠĠĠĠĠĠ": 7746,
  "ĠĠĠĠĠĠĠĠĠĠĠĠĠĠĠĠĠĠĠĠĠĠĠĠĠĠĠĠĠĠĠ": 7747,
  "\"))Ċ": 7748,
  "Ġdisput": 7749,
  "Ġpill": 7750,
  ".join": 7751,
  "Ġsab": 7752,
  "fold": 7753,
  "hl": 7754,
  "Editor": 7755,
  "UTF": 7756,
  "Ġbecom": 7757,
  "asis": 7758,
  "Ġms": 7759,
  "Ġmsg": 7760,
  "ĠRen": 7761,
  "Ġnit": 7762,
  "anguages": 7763,
  "ĠRome": 7764,
  "à¸±": 7765,
  "Ġradiation": 7766,
  "igenous": 7767,
  "Ä±n": 7768,
  "berry": 7769,
  ".-": 7770,
  "ĠIre": 7771,
  "Ġcommunicate": 7772,
  "anim": 7773,
  "lag": 7774,
  "ĠKn": 7775,
  "hop": 7776,
  "Ġlegisl": 7777,
  "Ġmant": 7778,
  "isl": 7779,
  "ĮĢ": 7780,
  "limit": 7781,
  "?âĢĿ": 7782,
  "folio": 7783,
  "Ġcrash": 7784,
  "Ġ'-": 7785,
  "serve": 7786,
  "server": 7787,
  "Ġstreets": 7788,
  "50": 7789,
  "actual": 7790,
  "irmed": 7791,
  "Ġmerc": 7792,
  "editor": 7793,
  "ĠLabor": 7794,
  "BB": 7795,
  "£áĥ": 7796,
  "Ġhaz": 7797,
  "icol": 7798,
  "aje": 7799,
  "Ġcrowd": 7800,
  "icons": 7801,
  "enum": 7802,
  "Ġsacr": 7803,
  "aki": 7804,
  "Who": 7805,
  "BU": 7806,
  "BUG": 7807,
  "DEBUG": 7808,
  "ĠMot": 7809,
  "wan": 7810,
  "sis": 7811,
  "aris": 7812,
  "_number": 7813,
  "Ġanc": 7814,
  "Gl": 7815,
  "fx": 7816,
  "Ġchest": 7817,
  "Ġoh": 7818,
  "rating": 7819,
  "Ġgenes": 7820,
  "Ġprohib": 7821,
  "lower": 7822,
  "esta": 7823,
  "ikip": 7824,
  "ikipedia": 7825,
  "nh": 7826,
  "Ġmarks": 7827,
  "Ġeleg": 7828,
  "Ġcum": 7829,
  "bc": 7830,
  "undo": 7831,
  "bn": 7832,
  "ĠPA": 7833,
  "LP": 7834,
  "Ġpit": 7835,
  "Ġpitch": 7836,
  "_LE": 7837,
  "},\\": 7838,
  "imple": 7839,
  "GER": 7840,
  "Ġdesp": 7841,
  "cert": 7842,
  "varphi": 7843,
  ".List": 7844,
  "ĠHelp": 7845,
  "Ġfram": 7846,
  "Ġframe": 7847,
  "ĠTerm": 7848,
  "Ġwash": 7849,
  "overline": 7850,
  "Ġarc": 7851,
  "Ġarch": 7852,
  "Ġarchitect": 7853,
  "Ġarchitecture": 7854,
  "GS": 7855,
  "abeth": 7856,
  ".tr": 7857,
  "angers": 7858,
  "ĠSn": 7859,
  "ĠClean": 7860,
  "Loader": 7861,
  "pred": 7862,
  "_for": 7863,
  "Ġpic": 7864,
  "Ġpick": 7865,
  "Ġpict": 7866,
  "Ġrely": 7867,
  "ĠAge": 7868,
  "Ġdil": 7869,
  "istrib": 7870,
  "Ġ'\"": 7871,
  "Ġproven": 7872,
  "_j": 7873,
  "Ġthy": 7874,
  ")]Ċ": 7875,
  "Ġdoctors": 7876,
  "Ġappeal": 7877,
  "}),": 7878,
  "×ķ×ª": 7879,
  "Ġpulled": 7880,
  "Ġcultiv": 7881,
  "ramework": 7882,
  "ĠTri": 7883,
  "Ġdivid": 7884,
  "Ġsudo": 7885,
  "ĠWhich": 7886,
  "Ġdot": 7887,
  "Ġfu": 7888,
  "Ġfun": 7889,
  "Ġfull": 7890,
  "Ġfund": 7891,
  "Ġful": 7892,
  "Ġfut": 7893,
  "Ġfunc": 7894,
  "Ġfully": 7895,
  "Ġfuel": 7896,
  "Ġfunding": 7897,
  "connected": 7898,
  "upt": 7899,
  "ĠHas": 7900,
  "ĠHash": 7901,
  "Ġnic": 7902,
  "Ġnice": 7903,
  "Ġpurchased": 7904,
  "Ġprinted": 7905,
  "Good": 7906,
  "Ġnod": 7907,
  "Ġnode": 7908,
  "Ġnodes": 7909,
  "ĠVi": 7910,
  "ĠVir": 7911,
  "ĠVis": 7912,
  "ĠColl": 7913,
  "ĠEsp": 7914,
  "Er": 7915,
  "Err": 7916,
  "Ġchecking": 7917,
  "cloud": 7918,
  "izers": 7919,
  "Ġhate": 7920,
  ".widget": 7921,
  ".a": 7922,
  ".app": 7923,
  ".ap": 7924,
  ".append": 7925,
  ".apache": 7926,
  ".as": 7927,
  "Ġcel": 7928,
  "Ġcell": 7929,
  "Ġcells": 7930,
  "Ġcele": 7931,
  "alm": 7932,
  "Ġsurve": 7933,
  "Ġsurvey": 7934,
  "him": 7935,
  "raz": 7936,
  "Ġchecks": 7937,
  "Ġcod": 7938,
  "Ġcode": 7939,
  "Ġcodes": 7940,
  "ĠCy": 7941,
  "ĠSov": 7942,
  "Ġmys": 7943,
  "Ġmyself": 7944,
  "Ġmyst": 7945,
  "Ġses": 7946,
  "Ġhay": 7947,
  "inv": 7948,
  "_fl": 7949,
  "Ġtrem": 7950,
  "inar": 7951,
  "inary": 7952,
  "ĠMO": 7953,
  "Ġmic": 7954,
  "Ġmicro": 7955,
  "Ġtemps": 7956,
  "ĠLOG": 7957,
  "aylor": 7958,
  "Ġbench": 7959,
  "Ġstrip": 7960,
  "ĠJews": 7961,
  "Ġinnovation": 7962,
  "xc": 7963,
  "Ġ{}Ċ": 7964,
  "Ġjug": 7965,
  "Ġtrig": 7966,
  "Ġtrigger": 7967,
  "two": 7968,
  "cers": 7969,
  "Ã©d": 7970,
  "Mem": 7971,
  "ULE": 7972,
  "ĠJean": 7973,
  "Ġunc": 7974,
  "irs": 7975,
  "irst": 7976,
  "cipl": 7977,
  "ĠJO": 7978,
  "Ġsob": 7979,
  "Ġtube": 7980,
  "âķ": 7981,
  "+'": 7982,
  "Ġadventure": 7983,
  "Struct": 7984,
  "opping": 7985,
  "OLD": 7986,
  "Ġbatt": 7987,
  "Ġbatter": 7988,
  "Ġbattle": 7989,
  "Ġbattery": 7990,
  "icit": 7991,
  "Ġstrike": 7992,
  "andler": 7993,
  "chat": 7994,
  "logger": 7995,
  "Ïĩ": 7996,
  "orses": 7997,
  "Ġtreatments": 7998,
  "âĢĭ": 7999,
  "ĠLE": 8000,
  "ĠLED": 8001,
  "ocker": 8002,
  "Ġà¤¬": 8003,
  "Ġthera": 8004,
  "Member": 8005,
  "Ġgi": 8006,
  "Ġgiv": 8007,
  "Ġgiven": 8008,
  "Ġgive": 8009,
  "Ġgirl": 8010,
  "Ġgives": 8011,
  "Ġgir": 8012,
  "Ġgiving": 8013,
  "Ġgirls": 8014,
  "Ġgrav": 8015,
  "(re": 8016,
  "(res": 8017,
  "(result": 8018,
  "ĠKen": 8019,
  "sters": 8020,
  "ischen": 8021,
  "Ġ\"_": 8022,
  "Ġtrim": 8023,
  "spe": 8024,
  "spec": 8025,
  "ayment": 8026,
  "/\\": 8027,
  "cn": 8028,
  "may": 8029,
  "ĠMah": 8030,
  "Ġlegislation": 8031,
  "ulous": 8032,
  ".TabIndex": 8033,
  "ĠLem": 8034,
  "ASK": 8035,
  "eda": 8036,
  "into": 8037,
  "inton": 8038,
  "tim": 8039,
  "time": 8040,
  "times": 8041,
  "Ġdatetime": 8042,
  "Ġprimera": 8043,
  "ĠArts": 8044,
  "ket": 8045,
  "Ġmarket": 8046,
  "Ġmarketing": 8047,
  "Ġmarkets": 8048,
  "ĠDou": 8049,
  "ĠJoe": 8050,
  "Ġpap": 8051,
  "Ġĉ": 8052,
  "Strip": 8053,
  "bolds": 8054,
  "Ġvolunt": 8055,
  "theless": 8056,
  "Second": 8057,
  "Ġcoding": 8058,
  "Ġ>Ċ": 8059,
  "×Ļ×Ŀ": 8060,
  "ĠCook": 8061,
  "answer": 8062,
  "Ġwrites": 8063,
  "ESS": 8064,
  "Ġtx": 8065,
  "-B": 8066,
  "vy": 8067,
  "Ġsz": 8068,
  "ARN": 8069,
  "Ġfur": 8070,
  "Ġfurn": 8071,
  "Ġdia": 8072,
  "Ġdiam": 8073,
  "Ġdiag": 8074,
  "Ġdiagn": 8075,
  "Ġdiagram": 8076,
  "Ġdial": 8077,
  "Ġdialog": 8078,
  "ĠIndust": 8079,
  "Ġought": 8080,
  "'];": 8081,
  "'];Ċ": 8082,
  "boldsymbol": 8083,
  "Ġmetadata": 8084,
  "Les": 8085,
  "ipes": 8086,
  "à¸µ": 8087,
  "emo": 8088,
  "emon": 8089,
  "pin": 8090,
  "ping": 8091,
  "Ġmapping": 8092,
  "isode": 8093,
  "IMIT": 8094,
  "ribe": 8095,
  "Hi": 8096,
  "High": 8097,
  "His": 8098,
  "Hist": 8099,
  "ĠEdit": 8100,
  "ilton": 8101,
  "udi": 8102,
  "udio": 8103,
  "Ġatmosp": 8104,
  "ĠConsider": 8105,
  "FE": 8106,
  "Ġanyway": 8107,
  "git": 8108,
  "Ġig": 8109,
  "Ġign": 8110,
  "Ġstem": 8111,
  "Ġanys": 8112,
  "Ġcoordin": 8113,
  "Assert": 8114,
  "ĠSET": 8115,
  "Ġassumed": 8116,
  "modules": 8117,
  "Ġescort": 8118,
  "aman": 8119,
  "Ġabsence": 8120,
  "arest": 8121,
  "Ġmissed": 8122,
  "frak": 8123,
  "ateix": 8124,
  "bridge": 8125,
  "asta": 8126,
  "]))": 8127,
  "linux": 8128,
  "ĠArea": 8129,
  "ĠÃ¡": 8130,
  "VM": 8131,
  "Ġcad": 8132,
  "Ġcada": 8133,
  "raq": 8134,
  "CF": 8135,
  "idel": 8136,
  "apy": 8137,
  "Ġko": 8138,
  "Ġkom": 8139,
  "Keys": 8140,
  "expr": 8141,
  "Ġarriv": 8142,
  "Ġarrived": 8143,
  "Ġlowest": 8144,
  "ĠProm": 8145,
  "ĠPromise": 8146,
  ";\\": 8147,
  "lessly": 8148,
  "ĠMas": 8149,
  "ĠMass": 8150,
  "Ġkan": 8151,
  "ĠMarc": 8152,
  "ĠMarch": 8153,
  "done": 8154,
  "_pr": 8155,
  "_pro": 8156,
  "Ġtant": 8157,
  "ĠEmail": 8158,
  "Ġdirections": 8159,
  "hu": 8160,
  "hus": 8161,
  "Ġenthus": 8162,
  "Ġrobust": 8163,
  "(in": 8164,
  "(int": 8165,
  "Ġbol": 8166,
  "Ġbold": 8167,
  "}]": 8168,
  "swe": 8169,
  "Ġhem": 8170,
  "arcel": 8171,
  "ture": 8172,
  "Ġcav": 8173,
  "dx": 8174,
  "erk": 8175,
  "Ġresta": 8176,
  "Ġrestaur": 8177,
  "sche": 8178,
  "docs": 8179,
  "Ġexpertise": 8180,
  "best": 8181,
  "Ġresc": 8182,
  "ĠBall": 8183,
  "áĥĶáĥĳ": 8184,
  "ĠDom": 8185,
  "ĠCommun": 8186,
  "via": 8187,
  "ĠRos": 8188,
  "akt": 8189,
  "maz": 8190,
  "Ġfewer": 8191,
  "Ġeq": 8192,
  "Ġequ": 8193,
  "Ġequal": 8194,
  "Ġequip": 8195,
  "Ġequipment": 8196,
  "Ġequally": 8197,
  "domain": 8198,
  "atisf": 8199,
  "DT": 8200,
  "interest": 8201,
  "elles": 8202,
  "Ġsont": 8203,
  "Ġ:Ċ": 8204,
  "24": 8205,
  "Ġnue": 8206,
  "Ã±o": 8207,
  "}:": 8208,
  "ĠLess": 8209,
  "inction": 8210,
  "aptop": 8211,
  ".Se": 8212,
  ".Set": 8213,
  "ensed": 8214,
  "ÈĻ": 8215,
  "ĠLy": 8216,
  "ÈĽ": 8217,
  "Ġ|ĊĊ": 8218,
  "Ġsv": 8219,
  "ulse": 8220,
  "osph": 8221,
  "Ġspeaker": 8222,
  "anny": 8223,
  "Ġhorm": 8224,
  "prite": 8225,
  "ĠOs": 8226,
  "\\Ċ": 8227,
  "Ġinstanceof": 8228,
  "Ġtimer": 8229,
  "iene": 8230,
  "Phi": 8231,
  "ĠSus": 8232,
  "PER": 8233,
  "Ġsympt": 8234,
  "orse": 8235,
  "asic": 8236,
  "&\\": 8237,
  "icio": 8238,
  "icious": 8239,
  "icion": 8240,
  "irk": 8241,
  "Ġ],": 8242,
  "Ġ],Ċ": 8243,
  ")?": 8244,
  "Ġestat": 8245,
  "Ġestate": 8246,
  "Ġforever": 8247,
  "langle": 8248,
  "Öģ": 8249,
  ".aw": 8250,
  "Lambda": 8251,
  "origin": 8252,
  "original": 8253,
  "adel": 8254,
  ":[": 8255,
  "cz": 8256,
  "bsp": 8257,
  "Ġgel": 8258,
  "ATED": 8259,
  "Ġtxt": 8260,
  "bad": 8261,
  "BER": 8262,
  "Ġaffects": 8263,
  "ĠISBN": 8264,
  "\\[": 8265,
  "Ġboxes": 8266,
  "likely": 8267,
  "Ant": 8268,
  "ictures": 8269,
  "ounded": 8270,
  "(type": 8271,
  "Ġgeneric": 8272,
  "atge": 8273,
  "oda": 8274,
  "oday": 8275,
  "acts": 8276,
  "zero": 8277,
  "Ġending": 8278,
  "Ġpipe": 8279,
  "enny": 8280,
  "Ġgram": 8281,
  "Ġtodo": 8282,
  "BR": 8283,
  "ĠCart": 8284,
  "occ": 8285,
  "{$": 8286,
  "ragment": 8287,
  "Ġschema": 8288,
  "hard": 8289,
  "Ġreveal": 8290,
  "Ġrevealed": 8291,
  "since": 8292,
  "language": 8293,
  "flag": 8294,
  "/Ċ": 8295,
  "erge": 8296,
  "wp": 8297,
  "-de": 8298,
  "Ġbio": 8299,
  "Ġui": 8300,
  "Ġuint": 8301,
  "lad": 8302,
  "erving": 8303,
  "ophy": 8304,
  "',čĊ": 8305,
  "Ġutility": 8306,
  "ĠIF": 8307,
  "Ġinsight": 8308,
  "Ġinsights": 8309,
  "]+": 8310,
  "ateur": 8311,
  "ASH": 8312,
  "ĠImp": 8313,
  "/{": 8314,
  "rive": 8315,
  "Il": 8316,
  "Db": 8317,
  ".toString": 8318,
  "!)": 8319,
  "Ġbene": 8320,
  "Ġbenef": 8321,
  "Ġbenefit": 8322,
  "Ġciut": 8323,
  "law": 8324,
  "aha": 8325,
  ",,": 8326,
  "ĠMD": 8327,
  "Ġlens": 8328,
  "Ġshr": 8329,
  "testing": 8330,
  ".Th": 8331,
  "(k": 8332,
  "(key": 8333,
  "Ġcounsel": 8334,
  "Ġeren": 8335,
  "Fi": 8336,
  "Field": 8337,
  "Fig": 8338,
  "Figure": 8339,
  "Find": 8340,
  "Fil": 8341,
  "File": 8342,
  "Fin": 8343,
  "Fields": 8344,
  "Files": 8345,
  "ĠHTTP": 8346,
  "-F": 8347,
  "-C": 8348,
  "THE": 8349,
  "Ġsubstance": 8350,
  "Ġdefect": 8351,
  "chant": 8352,
  "ĠTreat": 8353,
  "Ġfragment": 8354,
  "ĠImport": 8355,
  "apply": 8356,
  "appe": 8357,
  "apped": 8358,
  "apper": 8359,
  "Ġwatched": 8360,
  "[(": 8361,
  "ĠMAX": 8362,
  "ĠPac": 8363,
  "ĠPack": 8364,
  "ĠPacific": 8365,
  "UTH": 8366,
  "yg": 8367,
  "Ġoc": 8368,
  "Ġocc": 8369,
  "vs": 8370,
  "ĠColumn": 8371,
  "Ġik": 8372,
  "Ġthemes": 8373,
  "Because": 8374,
  "ogy": 8375,
  "iso": 8376,
  "ison": 8377,
  "Ġcomparison": 8378,
  "appoint": 8379,
  "Ġdisappoint": 8380,
  "Ġcrypt": 8381,
  "Ġstruck": 8382,
  "Ġgear": 8383,
  "mun": 8384,
  "Ġunw": 8385,
  "Ġvec": 8386,
  "Ġlip": 8387,
  "bow": 8388,
  "ĠIL": 8389,
  "ĸ´": 8390,
  "Î±Î¹": 8391,
  "ĠOptional": 8392,
  "Ġvig": 8393,
  "ĠSecretary": 8394,
  "Ġtimeout": 8395,
  "ighter": 8396,
  "isco": 8397,
  "prev": 8398,
  "MAX": 8399,
  "este": 8400,
  "ester": 8401,
  "ested": 8402,
  "Ġrequested": 8403,
  "Ġflour": 8404,
  "Ġpla": 8405,
  "Ġplay": 8406,
  "Ġplace": 8407,
  "Ġplan": 8408,
  "Ġplant": 8409,
  "Ġplayer": 8410,
  "Ġplaces": 8411,
  "Ġplans": 8412,
  "Ġplaced": 8413,
  "Ġplays": 8414,
  "Ġplanet": 8415,
  "Ġplate": 8416,
  "Ġplane": 8417,
  "Ġplain": 8418,
  "Ġplanned": 8419,
  "Ġcaptured": 8420,
  "ĠGuard": 8421,
  "eix": 8422,
  ".api": 8423,
  "_input": 8424,
  "Ġdemands": 8425,
  "SSERT": 8426,
  "wt": 8427,
  "elen": 8428,
  "yo": 8429,
  "you": 8430,
  "comfort": 8431,
  "Ġaffili": 8432,
  "#ifdef": 8433,
  "deg": 8434,
  "Ġscal": 8435,
  "Ġscale": 8436,
  "ĠKh": 8437,
  "idity": 8438,
  "Î´": 8439,
  "dm": 8440,
  "decl": 8441,
  "Ġadvantages": 8442,
  "ructure": 8443,
  "ĠRemove": 8444,
  "herent": 8445,
  "ikes": 8446,
  ")))Ċ": 8447,
  "inq": 8448,
  "rast": 8449,
  ".:": 8450,
  "icide": 8451,
  "irms": 8452,
  "acht": 8453,
  "proto": 8454,
  "/w": 8455,
  "Refer": 8456,
  "Reference": 8457,
  "alking": 8458,
  "Ġ@\"": 8459,
  "Ġih": 8460,
  "ilst": 8461,
  "ea": 8462,
  "ear": 8463,
  "ead": 8464,
  "Ġarea": 8465,
  "Ġinstead": 8466,
  "Ġareas": 8467,
  "ears": 8468,
  ".read": 8469,
  "ĠInstead": 8470,
  "ean": 8471,
  "each": 8472,
  "linear": 8473,
  ".--": 8474,
  "ĠBed": 8475,
  "ĠRog": 8476,
  "Ġsymbols": 8477,
  "Que": 8478,
  "Queue": 8479,
  "ĠOhio": 8480,
  "mount": 8481,
  "Ġcub": 8482,
  "ĠResource": 8483,
  "tenance": 8484,
  "gage": 8485,
  "ameter": 8486,
  "ĠSmall": 8487,
  "ĠRh": 8488,
  "igs": 8489,
  "Ġont": 8490,
  "Ġonto": 8491,
  "days": 8492,
  "score": 8493,
  "adv": 8494,
  "gor": 8495,
  "Ġ##": 8496,
  "ipt": 8497,
  "Ġscript": 8498,
  "Ġsemi": 8499,
  "Ġsubt": 8500,
  "rank": 8501,
  "mg": 8502,
  "Ġtypeof": 8503,
  "lights": 8504,
  "ĠRa": 8505,
  "ĠRad": 8506,
  "ĠRam": 8507,
  "ĠRay": 8508,
  "¸°": 8509,
  ",--": 8510,
  "ĠSoc": 8511,
  "ĠSoci": 8512,
  "ĠSocial": 8513,
  "ĠSociety": 8514,
  "aza": 8515,
  "itc": 8516,
  "ĠAmb": 8517,
  "Ġconnecting": 8518,
  ":%": 8519,
  "ATCH": 8520,
  "Ġà¤¨": 8521,
  "mathfrak": 8522,
  "iem": 8523,
  "ĠRow": 8524,
  "Del": 8525,
  "Delta": 8526,
  "Delete": 8527,
  "Ġsir": 8528,
  "enz": 8529,
  "áº£": 8530,
  "ĠFA": 8531,
  "Ġmile": 8532,
  "Ġmiles": 8533,
  "ĠÄį": 8534,
  "Ġliked": 8535,
  "leton": 8536,
  "writ": 8537,
  "agg": 8538,
  "agger": 8539,
  "Ġsees": 8540,
  "ctr": 8541,
  "Ġelectr": 8542,
  "Ġelectric": 8543,
  "Ġelectrical": 8544,
  "Ġelectro": 8545,
  "Ġelectron": 8546,
  "Ġelectronic": 8547,
  "Ġ'''": 8548,
  "atern": 8549,
  "iency": 8550,
  "Ġforum": 8551,
  "Ġ_,": 8552,
  "Ġmistake": 8553,
  "Ġwrap": 8554,
  "Ġdecline": 8555,
  "seq": 8556,
  "sequ": 8557,
  "Ġsubsequ": 8558,
  "Ġkon": 8559,
  "ĠnÃ£o": 8560,
  "Ġtile": 8561,
  "BT": 8562,
  "Ġrum": 8563,
  "à¤Ĺ": 8564,
  "Ġmuscles": 8565,
  "iri": 8566,
  "irit": 8567,
  "NOT": 8568,
  "à°°": 8569,
  "Ġtrop": 8570,
  "neg": 8571,
  "arry": 8572,
  "HD": 8573,
  "ĠRO": 8574,
  "hav": 8575,
  "have": 8576,
  "ropy": 8577,
  "cci": 8578,
  "ĠMB": 8579,
  "Rest": 8580,
  "bec": 8581,
  "Ġà¤ľ": 8582,
  "aug": 8583,
  "augh": 8584,
  "Ġfs": 8585,
  "à²°": 8586,
  "Ġsb": 8587,
  "ĠAh": 8588,
  "à¸¥": 8589,
  "Ġapplies": 8590,
  "Ġfruits": 8591,
  "PN": 8592,
  "rio": 8593,
  "rior": 8594,
  "Ġinterior": 8595,
  "asters": 8596,
  "Ġnas": 8597,
  "HTTP": 8598,
  "Meta": 8599,
  "Ġcrop": 8600,
  "ĠCru": 8601,
  "Ġcontinuing": 8602,
  "COM": 8603,
  "-a": 8604,
  "ÃŃn": 8605,
  "Ġ(@": 8606,
  "×ĺ": 8607,
  "nÃŃ": 8608,
  "ĠGran": 8609,
  "inos": 8610,
  "nap": 8611,
  "ĠWi": 8612,
  "ĠWil": 8613,
  "ĠWill": 8614,
  "ĠWilliam": 8615,
  "ĠWild": 8616,
  "ĠWin": 8617,
  "ĠWilliams": 8618,
  "ĠWind": 8619,
  "ĠWindows": 8620,
  "SR": 8621,
  "ipl": 8622,
  "iple": 8623,
  "Ġfoc": 8624,
  "Ġfocus": 8625,
  "Ġfocused": 8626,
  "opes": 8627,
  "Ġstrengthen": 8628,
  "%;": 8629,
  "ĠDig": 8630,
  "ĠUr": 8631,
  "Ġsubmitted": 8632,
  "ĠProt": 8633,
  "ĠINT": 8634,
  "tery": 8635,
  "Ġinterf": 8636,
  "Ġinterface": 8637,
  "Ġbonus": 8638,
  "HA": 8639,
  "Ġpowder": 8640,
  "ĠMu": 8641,
  "ĠMus": 8642,
  "ĠMuslim": 8643,
  "ĠMur": 8644,
  "ĠLA": 8645,
  "Ġmarker": 8646,
  "Ġgenu": 8647,
  "otos": 8648,
  "ĠĠĠĊ": 8649,
  "à®¾": 8650,
  "news": 8651,
  "DL": 8652,
  "oco": 8653,
  "ocol": 8654,
  "ocolate": 8655,
  "ĠHo": 8656,
  "ĠHow": 8657,
  "ĠHol": 8658,
  "ĠHot": 8659,
  "ĠHor": 8660,
  "ĠHom": 8661,
  "ĠHome": 8662,
  "ĠHon": 8663,
  "ĠHoly": 8664,
  "Ġflying": 8665,
  "Ġarrive": 8666,
  "OME": 8667,
  "**:": 8668,
  "Ġsentences": 8669,
  "_th": 8670,
  "Ġscreens": 8671,
  "ĠVar": 8672,
  "router": 8673,
  "owa": 8674,
  "Ġtent": 8675,
  "?>Ċ": 8676,
  "ĠCoast": 8677,
  "(((": 8678,
  "$(": 8679,
  "ĠCEO": 8680,
  "={{": 8681,
  "}\\)": 8682,
  "ĉC": 8683,
  "alar": 8684,
  "Ġevident": 8685,
  "asty": 8686,
  "resa": 8687,
  "Ġnose": 8688,
  "Ġlikes": 8689,
  "Ġcoc": 8690,
  "Ġcock": 8691,
  "engers": 8692,
  "Ġreput": 8693,
  "Ġhardly": 8694,
  ".\",": 8695,
  "Ġreputation": 8696,
  "Ġminds": 8697,
  "))čĊ": 8698,
  "aix": 8699,
  "FP": 8700,
  "Ġscheduled": 8701,
  "):čĊ": 8702,
  "ĠNorm": 8703,
  "ĠEND": 8704,
  "onth": 8705,
  "ĠSud": 8706,
  "bell": 8707,
  "bury": 8708,
  "ĠGR": 8709,
  "=\"+": 8710,
  "ĠJob": 8711,
  "NSString": 8712,
  "Ins": 8713,
  "Inst": 8714,
  "Instance": 8715,
  "etary": 8716,
  "Ġà¤ķà¥ĩ": 8717,
  "ailing": 8718,
  "ĠSou": 8719,
  "Ġak": 8720,
  "igue": 8721,
  "ĠFa": 8722,
  "ĠFar": 8723,
  "ĠFair": 8724,
  "also": 8725,
  "Ġoch": 8726,
  "pared": 8727,
  "Ġrecept": 8728,
  "aska": 8729,
  "Ġfuncion": 8730,
  "Ġfeatured": 8731,
  "Ġ'',": 8732,
  "Ġbottle": 8733,
  "Ġimpacts": 8734,
  "Ġpayments": 8735,
  "ldots": 8736,
  "phan": 8737,
  "Ġ[],": 8738,
  "Dictionary": 8739,
  "orer": 8740,
  "Ġburning": 8741,
  "Po": 8742,
  "Post": 8743,
  "Pos": 8744,
  "Position": 8745,
  "Port": 8746,
  "Pol": 8747,
  "Pop": 8748,
  "Pool": 8749,
  "anti": 8750,
  "antic": 8751,
  "antity": 8752,
  "cores": 8753,
  "erate": 8754,
  "Ġpig": 8755,
  "=-": 8756,
  "lg": 8757,
  "track": 8758,
  "Ġknock": 8759,
  "Ġmodes": 8760,
  "ĠTy": 8761,
  "[:,": 8762,
  "Ġsor": 8763,
  "Ġsort": 8764,
  "Ġnord": 8765,
  "tip": 8766,
  "Ġ=>Ċ": 8767,
  "Ġts": 8768,
  "Ã¬": 8769,
  "ĠBuilding": 8770,
  "ois": 8771,
  "dam": 8772,
  "#import": 8773,
  "Ġ\"Ċ": 8774,
  "Ġreven": 8775,
  "Ġjew": 8776,
  "Ġannounc": 8777,
  "Ġlogo": 8778,
  ".Linq": 8779,
  "your": 8780,
  "arty": 8781,
  "enable": 8782,
  "Ġhell": 8783,
  "emed": 8784,
  "/\"": 8785,
  "Compat": 8786,
  "called": 8787,
  "Ġdip": 8788,
  "Ġdipl": 8789,
  "Ġcov": 8790,
  "Ġcover": 8791,
  "Ġcovered": 8792,
  "Ġcoverage": 8793,
  "Ġcovers": 8794,
  "\\(": 8795,
  "GO": 8796,
  "batch": 8797,
  "uni": 8798,
  "unity": 8799,
  "unic": 8800,
  "unit": 8801,
  "unicip": 8802,
  "ĠCommunity": 8803,
  "à¹ī": 8804,
  "-Ċ": 8805,
  "=\"\"": 8806,
  "unct": 8807,
  "unction": 8808,
  "Ġidentical": 8809,
  "cpp": 8810,
  "ĠSupreme": 8811,
  "umpy": 8812,
  "verb": 8813,
  "Enum": 8814,
  "Enumer": 8815,
  "Ġcrack": 8816,
  "Ġbil": 8817,
  "Ġbill": 8818,
  "lon": 8819,
  "long": 8820,
  "psilon": 8821,
  "varepsilon": 8822,
  "Ġversus": 8823,
  "Ġsync": 8824,
  "à¤µ": 8825,
  "rons": 8826,
  "gence": 8827,
  "Ġtort": 8828,
  "Ġrib": 8829,
  "Ãªn": 8830,
  "oa": 8831,
  "oad": 8832,
  "Ġholes": 8833,
  "-x": 8834,
  "Ġcord": 8835,
  "Ġsigu": 8836,
  "iza": 8837,
  "izable": 8838,
  "izar": 8839,
  "Ġger": 8840,
  "elve": 8841,
  "elves": 8842,
  "){čĊ": 8843,
  ".View": 8844,
  "ĠÎµ": 8845,
  "Ġhasn": 8846,
  "Ġly": 8847,
  "à±ģà°": 8848,
  "Ġrestart": 8849,
  "EG": 8850,
  "ono": 8851,
  "onom": 8852,
  "Ġell": 8853,
  "peg": 8854,
  "Ġexpanded": 8855,
  "Ġss": 8856,
  "LOW": 8857,
  "Policy": 8858,
  "aught": 8859,
  "ĠAsh": 8860,
  "Ġhopes": 8861,
  "ĠImm": 8862,
  "Ġ'_": 8863,
  "ĠCP": 8864,
  "ĠCPU": 8865,
  "Ġmolt": 8866,
  "Ġreson": 8867,
  "ureau": 8868,
  "sor": 8869,
  "Ġsettle": 8870,
  "ctic": 8871,
  "gre": 8872,
  "greg": 8873,
  "VA": 8874,
  "VAL": 8875,
  "Ġelected": 8876,
  "RESS": 8877,
  "ĠMatt": 8878,
  "xb": 8879,
  "OU": 8880,
  "OUT": 8881,
  "OUR": 8882,
  "OUN": 8883,
  "àª¨": 8884,
  ".ToString": 8885,
  "Ġlad": 8886,
  "Ġlady": 8887,
  "Ġcommunications": 8888,
  "ĠBat": 8889,
  "ÃĹ": 8890,
  "×Ĺ": 8891,
  "ughter": 8892,
  "Ġcollections": 8893,
  "Ġtalks": 8894,
  "Ġequipped": 8895,
  "Ġhip": 8896,
  "\\{": 8897,
  "Ġdrain": 8898,
  "à¥įà¤¯": 8899,
  "COL": 8900,
  "plt": 8901,
  "ĠAli": 8902,
  "TV": 8903,
  "isse": 8904,
  "isset": 8905,
  "dden": 8906,
  "lymp": 8907,
  "ĠOlymp": 8908,
  "Ġelsewhere": 8909,
  "ĠLabel": 8910,
  "ĠWARRANTIES": 8911,
  "Ġtrials": 8912,
  "icans": 8913,
  "Ġcaps": 8914,
  "ĠRose": 8915,
  "];čĊ": 8916,
  "ĠEq": 8917,
  "ĠEqu": 8918,
  "XT": 8919,
  "orne": 8920,
  "orney": 8921,
  "Ġpartnership": 8922,
  "enders": 8923,
  "ĠCop": 8924,
  "ĠMach": 8925,
  "ĠMachine": 8926,
  "Ã¼n": 8927,
  "ĠInv": 8928,
  "ĠInvest": 8929,
  "contain": 8930,
  "container": 8931,
  "opl": 8932,
  "ople": 8933,
  "Ġpeople": 8934,
  "ĠPeople": 8935,
  "AVE": 8936,
  "ĠIdent": 8937,
  "=%": 8938,
  "+++": 8939,
  "CG": 8940,
  "erd": 8941,
  "Ġservers": 8942,
  "Ġassault": 8943,
  "Ã¤n": 8944,
  "aro": 8945,
  "aron": 8946,
  "ĠBell": 8947,
  "Ġmoder": 8948,
  "Ġmodern": 8949,
  "xd": 8950,
  "Ġtok": 8951,
  "Ġtoken": 8952,
  "ĠExec": 8953,
  "Ġlegit": 8954,
  "PG": 8955,
  "Õ¸Õ": 8956,
  "Ġmesh": 8957,
  "Ġappre": 8958,
  "pler": 8959,
  "Ġhits": 8960,
  "Ġgray": 8961,
  "Ġtel": 8962,
  "Ġtell": 8963,
  "Ġtele": 8964,
  "Ġtells": 8965,
  "Ġtelling": 8966,
  "Ġjur": 8967,
  "VC": 8968,
  "čĊĠĠĠĠĠĠĠ": 8969,
  "Ġcampus": 8970,
  "rus": 8971,
  "ETHOD": 8972,
  "Ïį": 8973,
  "(struct": 8974,
  "Ġrod": 8975,
  "rin": 8976,
  "ring": 8977,
  "earing": 8978,
  "ĠBC": 8979,
  "Ġvor": 8980,
  "\")čĊ": 8981,
  "Pres": 8982,
  "Press": 8983,
  "ĠJersey": 8984,
  "disc": 8985,
  "Ġtout": 8986,
  "angel": 8987,
  "ĠÅ": 8988,
  "_lo": 8989,
  "_log": 8990,
  "Sk": 8991,
  "Ġstretch": 8992,
  ">\\": 8993,
  "Ġframes": 8994,
  "Ġhabits": 8995,
  "ĠHence": 8996,
  "Ġcow": 8997,
  "/f": 8998,
  "Ok": 8999,
  "Ġdont": 9000,
  "Ġbars": 9001,
  "flags": 9002,
  "Ã¤t": 9003,
  "ĠHE": 9004,
  "Ġassignment": 9005,
  "uent": 9006,
  "Ġhoping": 9007,
  "Ġexplos": 9008,
  "clusions": 9009,
  "Ġintegral": 9010,
  "ĠAnton": 9011,
  "Ġdesk": 9012,
  "Ġdesktop": 9013,
  "Related": 9014,
  "```Ċ": 9015,
  "Ġtong": 9016,
  "Ġinch": 9017,
  "Ġinches": 9018,
  "ĠALL": 9019,
  "regular": 9020,
  "UES": 9021,
  "Lock": 9022,
  "ĠFac": 9023,
  "ĠFace": 9024,
  "(Q": 9025,
  "odge": 9026,
  "à¥ĩà¤Ĥ": 9027,
  "*/ĊĊ": 9028,
  "atz": 9029,
  "ĠFred": 9030,
  "Ġtwe": 9031,
  "cit": 9032,
  "cite": 9033,
  "city": 9034,
  "licit": 9035,
  "Ġancest": 9036,
  "ĠDa": 9037,
  "ĠData": 9038,
  "ĠDate": 9039,
  "ĠDav": 9040,
  "ĠDay": 9041,
  "ĠDavid": 9042,
  "ĠDan": 9043,
  "ĠDar": 9044,
  "ĠDat": 9045,
  "ĠDam": 9046,
  "ĠDark": 9047,
  "Ġwx": 9048,
  "()))": 9049,
  "Ġintegrity": 9050,
  "Ġlogical": 9051,
  "_en": 9052,
  "_end": 9053,
  "Ġ$.": 9054,
  "ĠEditor": 9055,
  "ĠLas": 9056,
  "ĠLast": 9057,
  "ĠBoy": 9058,
  "ï¿½ï¿½": 9059,
  "Ġbeta": 9060,
  "riday": 9061,
  "YY": 9062,
  "Ġpes": 9063,
  "Ġalleged": 9064,
  "ĠAk": 9065,
  "âĨ": 9066,
  "});": 9067,
  "});Ċ": 9068,
  "});ĊĊ": 9069,
  "Ġfiber": 9070,
  "ĠMi": 9071,
  "ĠMin": 9072,
  "ĠMil": 9073,
  "ĠMill": 9074,
  "ĠMid": 9075,
  "ĠMir": 9076,
  "ĠMit": 9077,
  "pson": 9078,
  "\\<": 9079,
  "());čĊ": 9080,
  ">{": 9081,
  "ARG": 9082,
  "Detail": 9083,
  "Details": 9084,
  "Ġattitude": 9085,
  "$-": 9086,
  "Ġpens": 9087,
  "rell": 9088,
  "oro": 9089,
  "orous": 9090,
  "orough": 9091,
  "ambÃ©": 9092,
  "ĠEsc": 9093,
  "Ġmysql": 9094,
  "rolling": 9095,
  "(){": 9096,
  "(){Ċ": 9097,
  "Ġnie": 9098,
  "Ġfitness": 9099,
  "Ġliver": 9100,
  "cu": 9101,
  "cur": 9102,
  "cul": 9103,
  "curity": 9104,
  "Ġoccur": 9105,
  "cut": 9106,
  "Ġoccurs": 9107,
  "Ġoccurred": 9108,
  "cup": 9109,
  "Ġoccup": 9110,
  ">=": 9111,
  "SB": 9112,
  "\\%": 9113,
  "andy": 9114,
  "elect": 9115,
  "were": 9116,
  "TF": 9117,
  "ĠLew": 9118,
  "EO": 9119,
  "Ġintel": 9120,
  "Ġintellig": 9121,
  "Ġintelligence": 9122,
  "ĠJr": 9123,
  "Media": 9124,
  "Ġsafely": 9125,
  "Ġpredicted": 9126,
  "ĉĉčĊ": 9127,
  "×§": 9128,
  "Ġ[-": 9129,
  "Ġbid": 9130,
  "LD": 9131,
  "Ġgut": 9132,
  "Ġgerm": 9133,
  "Ġthems": 9134,
  "ĠUP": 9135,
  "Ġdang": 9136,
  "Ġdanger": 9137,
  "Ġdangerous": 9138,
  ".py": 9139,
  "Ġcabin": 9140,
  "pled": 9141,
  "esa": 9142,
  "inois": 9143,
  "Ġmirror": 9144,
  "apple": 9145,
  "ĠEdition": 9146,
  "Ġmild": 9147,
  "Ġwed": 9148,
  "foreach": 9149,
  "===": 9150,
  "====": 9151,
  "ĠMos": 9152,
  "ĠMost": 9153,
  "nil": 9154,
  "Ã¡t": 9155,
  "Ġdecay": 9156,
  "łáĥ": 9157,
  "mysql": 9158,
  "People": 9159,
  "Ġbeneath": 9160,
  "Ġclosing": 9161,
  "forcement": 9162,
  "âĦ¢": 9163,
  "rous": 9164,
  "Tra": 9165,
  "Trace": 9166,
  "àª°": 9167,
  "Ġ//Ċ": 9168,
  "mbox": 9169,
  "ĠMarg": 9170,
  ":-": 9171,
  "Ġsomehow": 9172,
  "certain": 9173,
  ".Id": 9174,
  "_EN": 9175,
  "Å¯": 9176,
  "Ġcuts": 9177,
  "}$,": 9178,
  "itants": 9179,
  "Di": 9180,
  "Dis": 9181,
  "Dir": 9182,
  "Did": 9183,
  "Dim": 9184,
  "ĉr": 9185,
  "Ġbreaks": 9186,
  "Ġpilot": 9187,
  "ĠPO": 9188,
  "ĠEmpire": 9189,
  "Ġ×ĳ": 9190,
  "bg": 9191,
  "cost": 9192,
  "]čĊ": 9193,
  "Ġdive": 9194,
  "ĠGer": 9195,
  "ĠGerm": 9196,
  "ĠGerman": 9197,
  "ĠGermany": 9198,
  "Ġpix": 9199,
  ";;": 9200,
  "archive": 9201,
  "à¤¦": 9202,
  "Ġsind": 9203,
  "Ġpixel": 9204,
  "Ġsteam": 9205,
  "ĠMic": 9206,
  "ĠMich": 9207,
  "ĠMicro": 9208,
  "ĠMichigan": 9209,
  "textit": 9210,
  "Ġà¤ħ": 9211,
  "Dist": 9212,
  "Ãī": 9213,
  "Ġflower": 9214,
  "Ġflowers": 9215,
  "'+": 9216,
  "Ġcatalog": 9217,
  "Ġlets": 9218,
  "Ġdose": 9219,
  "mc": 9220,
  "Ġnob": 9221,
  "Ġnous": 9222,
  ".âĢĻ": 9223,
  "Ã¶n": 9224,
  "ubl": 9225,
  "ublic": 9226,
  "ublish": 9227,
  "Ġcamb": 9228,
  "Ġfuck": 9229,
  "iams": 9230,
  "Pointer": 9231,
  "Ġbones": 9232,
  "Div": 9233,
  "ĠScient": 9234,
  "Ġestaven": 9235,
  "Ġlaun": 9236,
  "Ã¡l": 9237,
  "Ġnh": 9238,
  "dots": 9239,
  "Õ¡Õ¯": 9240,
  "Ġmerg": 9241,
  "Ġmerge": 9242,
  "chol": 9243,
  "Ġ&&Ċ": 9244,
  "Ġfiled": 9245,
  "ĠSav": 9246,
  "ĠSave": 9247,
  "vet": 9248,
  "Ġnat": 9249,
  "Ġnation": 9250,
  "Ġnative": 9251,
  "Ġnations": 9252,
  "ĠLogin": 9253,
  "ĠBuy": 9254,
  ".),": 9255,
  "vg": 9256,
  "pot": 9257,
  "services": 9258,
  "ĠLie": 9259,
  "inson": 9260,
  "_TR": 9261,
  "Ġensures": 9262,
  "Ġ\\(\\": 9263,
  "ĠIC": 9264,
  "}}{": 9265,
  "iral": 9266,
  "Ġcomputing": 9267,
  "ĠSher": 9268,
  "Ġvolunte": 9269,
  "ilty": 9270,
  "riers": 9271,
  "iph": 9272,
  "ipher": 9273,
  "ĉw": 9274,
  "YS": 9275,
  "ĠIss": 9276,
  "Ġflux": 9277,
  "idades": 9278,
  "Ġ×Ķ×": 9279,
  "Ġdifferently": 9280,
  ".Read": 9281,
  ".awt": 9282,
  "Ġencouraged": 9283,
  "ĠHP": 9284,
  "ĠKenn": 9285,
  "ĠLoc": 9286,
  "ĠLocal": 9287,
  "ĠLocation": 9288,
  "ĠResources": 9289,
  "Ġmd": 9290,
  "eman": 9291,
  "ĠPortug": 9292,
  "_read": 9293,
  "Ġoutputs": 9294,
  "]),": 9295,
  "owl": 9296,
  "ako": 9297,
  "Ġoppos": 9298,
  "Ġopposite": 9299,
  "Ġopposition": 9300,
  "ucket": 9301,
  "ĠExper": 9302,
  "Ġchemicals": 9303,
  "}$.": 9304,
  "Bean": 9305,
  "Ġdenied": 9306,
  "iah": 9307,
  "ORK": 9308,
  "_no": 9309,
  "_node": 9310,
  "Ġà¤¹à¥Ī": 9311,
  "Ġpose": 9312,
  "phas": 9313,
  "Ġnotion": 9314,
  "á»Ļ": 9315,
  "***": 9316,
  "****": 9317,
  "ĠWilson": 9318,
  "TL": 9319,
  "equal": 9320,
  "equals": 9321,
  "ĠSteve": 9322,
  "ĠCarl": 9323,
  "wr": 9324,
  "write": 9325,
  "wrap": 9326,
  "eties": 9327,
  "ĠEdward": 9328,
  "ilib": 9329,
  "sten": 9330,
  "]\\": 9331,
  ".).": 9332,
  "Ġtox": 9333,
  "Ġtoxic": 9334,
  "Ġtons": 9335,
  "aquest": 9336,
  "ĠNob": 9337,
  "Ġther": 9338,
  "Ġthere": 9339,
  "Ġtherefore": 9340,
  "Ġtherapy": 9341,
  "Ġtherm": 9342,
  "Ġtherap": 9343,
  "Ġthermal": 9344,
  "ĠRT": 9345,
  "acco": 9346,
  "account": 9347,
  "ricult": 9348,
  "Black": 9349,
  "à¸¡": 9350,
  "Ġ---": 9351,
  "-L": 9352,
  "à¸ģ": 9353,
  "Ġweren": 9354,
  "ĠSab": 9355,
  "_CH": 9356,
  "ĠBroad": 9357,
  "ĠBol": 9358,
  "Conn": 9359,
  "Connection": 9360,
  "Connect": 9361,
  "à¸´": 9362,
  "ĠINTO": 9363,
  "à²¦": 9364,
  "cin": 9365,
  "cing": 9366,
  "Ġfits": 9367,
  "]}": 9368,
  "Ġ×ŀ": 9369,
  "ĠSend": 9370,
  "DEX": 9371,
  ".co": 9372,
  ".com": 9373,
  ".con": 9374,
  ".cont": 9375,
  ".content": 9376,
  ".count": 9377,
  "swered": 9378,
  "DI": 9379,
  "DIR": 9380,
  "ĠFL": 9381,
  "Ġcort": 9382,
  "à¸ĩ": 9383,
  "Ġpersist": 9384,
  "ĠEdge": 9385,
  "ĊĠĠĠĠĠĠĠĠĠĠĠĠĠĠĠĠĠĠĠĠĠĠĠĠ": 9386,
  "icted": 9387,
  "Ġreceiver": 9388,
  "ĠKent": 9389,
  "Ġtitles": 9390,
  "ĠAst": 9391,
  "amine": 9392,
  "ĠâĨ": 9393,
  "ĠDog": 9394,
  "Ġnam": 9395,
  "Ġname": 9396,
  "Ġnames": 9397,
  "Ġnamed": 9398,
  "Ġcig": 9399,
  "Real": 9400,
  "utt": 9401,
  "gorith": 9402,
  "Ġnewspaper": 9403,
  "âĢĿï¼Į": 9404,
  ".has": 9405,
  "Ġbulk": 9406,
  "ĠUnless": 9407,
  "Py": 9408,
  "Ġdental": 9409,
  "aÃ§Ã£o": 9410,
  "URI": 9411,
  "ardo": 9412,
  "Ġtodos": 9413,
  "Ġpermitted": 9414,
  "ĠCab": 9415,
  "ĠOP": 9416,
  "Ġfocuses": 9417,
  "Ġfunny": 9418,
  "/(": 9419,
  "Help": 9420,
  "Helper": 9421,
  "ĠBow": 9422,
  "'\\": 9423,
  "\"}": 9424,
  "Ġvotes": 9425,
  "_with": 9426,
  "Ã©g": 9427,
  "ĉ&": 9428,
  "vals": 9429,
  "tc": 9430,
  "Ġupcoming": 9431,
  "achel": 9432,
  "ski": 9433,
  "skip": 9434,
  "odd": 9435,
  "Ġspeakers": 9436,
  "criptor": 9437,
  "tl": 9438,
  "tle": 9439,
  "adores": 9440,
  "ATUS": 9441,
  "ucks": 9442,
  "Ġdrives": 9443,
  "ĠMenu": 9444,
  "Ġsettled": 9445,
  "_cl": 9446,
  "_class": 9447,
  "ilo": 9448,
  "ilon": 9449,
  "epsilon": 9450,
  "ilos": 9451,
  "Ġ___": 9452,
  "Her": 9453,
  "Here": 9454,
  "Remove": 9455,
  "Ġii": 9456,
  "ĠUt": 9457,
  "ĠUtil": 9458,
  "inery": 9459,
  "Ġpunt": 9460,
  "ĠCopy": 9461,
  "ĠCopyright": 9462,
  "ĠGreg": 9463,
  "ahr": 9464,
  "ĠCorn": 9465,
  "ijk": 9466,
  "ĠBud": 9467,
  "ĠBudd": 9468,
  "acs": 9469,
  "Resources": 9470,
  "omer": 9471,
  "phy": 9472,
  "ĠHi": 9473,
  "ĠHis": 9474,
  "ĠHist": 9475,
  "ĠHistory": 9476,
  "ĠHim": 9477,
  "Amount": 9478,
  "izza": 9479,
  "Arr": 9480,
  "Array": 9481,
  "ĠMars": 9482,
  "Ġstrain": 9483,
  "ŀ×": 9484,
  "Ġradical": 9485,
  "ĠQt": 9486,
  "ĠSound": 9487,
  "Ġsubstr": 9488,
  "ĠPed": 9489,
  "Ġdesigner": 9490,
  "Ġvez": 9491,
  "_U": 9492,
  "esp": 9493,
  "Ġestud": 9494,
  "Ġsettlement": 9495,
  "ĠCC": 9496,
  "ĠHay": 9497,
  "Ġoct": 9498,
  "xic": 9499,
  "itate": 9500,
  "Ġindependence": 9501,
  "#!": 9502,
  "#!/": 9503,
  "Ġave": 9504,
  "Ġavec": 9505,
  "_VAL": 9506,
  "Ġga": 9507,
  "Ġgame": 9508,
  "Ġgames": 9509,
  "Ġgas": 9510,
  "Ġgar": 9511,
  "Ġgal": 9512,
  "Ġgard": 9513,
  "Ġgall": 9514,
  "Ġgap": 9515,
  "Ġgay": 9516,
  "Ġgam": 9517,
  "Ġcher": 9518,
  "Ġprediction": 9519,
  "DER": 9520,
  "stru": 9521,
  "struct": 9522,
  "struction": 9523,
  "parts": 9524,
  "important": 9525,
  "Ġchap": 9526,
  "Ġchapter": 9527,
  "]*": 9528,
  "Ġmyth": 9529,
  "iper": 9530,
  "Ġsingular": 9531,
  "Ġdiameter": 9532,
  "ĠĠĠĠčĊ": 9533,
  "Ġtokens": 9534,
  "ĠTex": 9535,
  "ĠText": 9536,
  "ĠTexas": 9537,
  "Ġfemin": 9538,
  "Î¸": 9539,
  "exist": 9540,
  "(G": 9541,
  "ORS": 9542,
  "Ġlips": 9543,
  "cred": 9544,
  "quet": 9545,
  "Ġequality": 9546,
  "lyph": 9547,
  ".(": 9548,
  "ariant": 9549,
  "ĠTen": 9550,
  "rod": 9551,
  "rodu": 9552,
  "roduction": 9553,
  "marks": 9554,
  "MR": 9555,
  "ircle": 9556,
  "Ġbei": 9557,
  "Cloud": 9558,
  "ĠWis": 9559,
  "Ġsavings": 9560,
  "ĠUsed": 9561,
  "ethe": 9562,
  "ether": 9563,
  "/css": 9564,
  "]);": 9565,
  "]);Ċ": 9566,
  "urred": 9567,
  "ĠGets": 9568,
  "Ġasks": 9569,
  "ĠĠĠĠĠĠĠĠĠĠĠĠĠĠĠĠĊ": 9570,
  "oment": 9571,
  "(req": 9572,
  "(request": 9573,
  "}=": 9574,
  "Ġpink": 9575,
  "Ġmp": 9576,
  "mediate": 9577,
  "elo": 9578,
  "their": 9579,
  "Ġtang": 9580,
  "Ġlon": 9581,
  "Ġlong": 9582,
  "ĠJos": 9583,
  "ĠJose": 9584,
  "ĠestÃ¡": 9585,
  "Ġki": 9586,
  "Ġkid": 9587,
  "Ġkids": 9588,
  "Ġkil": 9589,
  "Ġkill": 9590,
  "Ġkilled": 9591,
  "Ġkit": 9592,
  "Ġkitchen": 9593,
  "Ġkick": 9594,
  "Ġkilling": 9595,
  "Ġow": 9596,
  "Ġown": 9597,
  "Ġowner": 9598,
  "Ġowners": 9599,
  "Ġowned": 9600,
  "Ġentrance": 9601,
  "UND": 9602,
  "agan": 9603,
  "Ġmyster": 9604,
  "ĠSky": 9605,
  "cmp": 9606,
  "_z": 9607,
  "Ġpdf": 9608,
  "prob": 9609,
  "ISE": 9610,
  "ĠDEFAULT": 9611,
  "Ġhers": 9612,
  "Ġherself": 9613,
  "Ġbeam": 9614,
  "Ġtemple": 9615,
  "[k": 9616,
  "citep": 9617,
  "Ġdy": 9618,
  "Ġattempted": 9619,
  "jav": 9620,
  "java": 9621,
  "Ġparte": 9622,
  "ĉ{": 9623,
  "OF": 9624,
  "plementation": 9625,
  ")),Ċ": 9626,
  "kappa": 9627,
  "charg": 9628,
  "charge": 9629,
  "fly": 9630,
  "Ġuk": 9631,
  "-P": 9632,
  "Ġlying": 9633,
  "```ĊĊ": 9634,
  "AK": 9635,
  "ĠTRUE": 9636,
  "à«ĭ": 9637,
  "Ġaver": 9638,
  "Ġaverage": 9639,
  "Ġà¤µ": 9640,
  "people": 9641,
  "Ġub": 9642,
  "');čĊ": 9643,
  "Ġcats": 9644,
  "ĠRecord": 9645,
  "Ġads": 9646,
  "Ġtv": 9647,
  "Ġattorney": 9648,
  "effect": 9649,
  "Ġfifth": 9650,
  "ĠDise": 9651,
  "TON": 9652,
  "ĠSW": 9653,
  "ometer": 9654,
  "PD": 9655,
  "Ġmos": 9656,
  "Ġmost": 9657,
  "Ġmostly": 9658,
  "Ġrh": 9659,
  "ĠProte": 9660,
  "Ġ'',Ċ": 9661,
  "Ġao": 9662,
  "Ġiz": 9663,
  "ĠSS": 9664,
  "ĠReading": 9665,
  "Ġcontrad": 9666,
  "Ġdru": 9667,
  "Ġdrug": 9668,
  "Ġdrugs": 9669,
  "Ġbags": 9670,
  "ĠRon": 9671,
  "aja": 9672,
  "ajax": 9673,
  "ĠSep": 9674,
  "ĠSept": 9675,
  "Ġcann": 9676,
  "Ġcannot": 9677,
  "Ġguns": 9678,
  "ĠPenn": 9679,
  "ĉĉĉĉĉĉĉĉĉĉ": 9680,
  "ĠGir": 9681,
  "ĠGirl": 9682,
  "prod": 9683,
  "product": 9684,
  "produ": 9685,
  "à®°": 9686,
  "rv": 9687,
  "Ġreserv": 9688,
  "ĠGrid": 9689,
  "logo": 9690,
  "Ġinteractive": 9691,
  "ĠDub": 9692,
  "ĠOil": 9693,
  "gets": 9694,
  "oval": 9695,
  "(y": 9696,
  "/h": 9697,
  "lies": 9698,
  "_pl": 9699,
  "Ġsuppl": 9700,
  "Ġsupply": 9701,
  "Ġsupplies": 9702,
  "Ġsupplied": 9703,
  "GEN": 9704,
  "Ġlawyer": 9705,
  "à¤¯": 9706,
  "Metadata": 9707,
  "Len": 9708,
  "ĠIR": 9709,
  "fb": 9710,
  "arcelona": 9711,
  "ĠGT": 9712,
  ":/": 9713,
  "://": 9714,
  "Ġkh": 9715,
  "clock": 9716,
  "Ġmai": 9717,
  "Ġmain": 9718,
  "Ġmail": 9719,
  "Ġmais": 9720,
  "Ġmainly": 9721,
  "Ġmaint": 9722,
  "Ġmaintain": 9723,
  "Ġmaintaining": 9724,
  "Ġmaintained": 9725,
  "Ġprayer": 9726,
  "coh": 9727,
  "Ġcasual": 9728,
  "retch": 9729,
  "Ġresolved": 9730,
  "ĠDeath": 9731,
  "Ġutf": 9732,
  "@end": 9733,
  "Inv": 9734,
  "elfare": 9735,
  "ĠComment": 9736,
  "ncy": 9737,
  "Ġdol": 9738,
  "Ġdoll": 9739,
  "idal": 9740,
  "ouses": 9741,
  "requency": 9742,
  "Â²": 9743,
  "ĠTHIS": 9744,
  "Ã©c": 9745,
  "exists": 9746,
  "Ġours": 9747,
  "Ġourselves": 9748,
  "burgh": 9749,
  "Ġbull": 9750,
  "Inf": 9751,
  "Info": 9752,
  "ĠMcC": 9753,
  "Ġcourage": 9754,
  "oped": 9755,
  "PRE": 9756,
  "Ġaged": 9757,
  "mock": 9758,
  "pread": 9759,
  "Ġscar": 9760,
  "IDE": 9761,
  "VO": 9762,
  "TT": 9763,
  "apture": 9764,
  "onda": 9765,
  "onday": 9766,
  "-sh": 9767,
  "Ġion": 9768,
  "Ġengines": 9769,
  "VALID": 9770,
  "enti": 9771,
  "ential": 9772,
  "ention": 9773,
  "entity": 9774,
  "entic": 9775,
  "entials": 9776,
  "entication": 9777,
  "pur": 9778,
  "irable": 9779,
  "Ġcourts": 9780,
  "Ġbearing": 9781,
  "ĠcÃ³": 9782,
  "Ġseats": 9783,
  "Ġhex": 9784,
  "22": 9785,
  "Ġfed": 9786,
  "typeof": 9787,
  "Ġbands": 9788,
  "ĠPos": 9789,
  "ĠPost": 9790,
  "qli": 9791,
  "ĠSmart": 9792,
  "_SH": 9793,
  "Ġdebut": 9794,
  "\\!": 9795,
  "Ġnavig": 9796,
  "Ġnavigation": 9797,
  "Ġnavigate": 9798,
  "Ġdues": 9799,
  "Ġelem": 9800,
  "Ġelement": 9801,
  "Ġelements": 9802,
  "IRE": 9803,
  "×¤": 9804,
  "-v": 9805,
  "Ġà¤¦": 9806,
  "kr": 9807,
  "opts": 9808,
  "ĠPor": 9809,
  "ourney": 9810,
  "NET": 9811,
  ".at": 9812,
  "á»ĳ": 9813,
  "ĠDrive": 9814,
  "EF": 9815,
  "itionally": 9816,
  "Ġram": 9817,
  "_UN": 9818,
  "ĠFarm": 9819,
  "ICK": 9820,
  "Ġmice": 9821,
  "HR": 9822,
  "\"]Ċ": 9823,
  "iten": 9824,
  "Si": 9825,
  "Size": 9826,
  "Sim": 9827,
  "otimes": 9828,
  "ACH": 9829,
  "vt": 9830,
  "à§ģ": 9831,
  "ĠSciences": 9832,
  "']))": 9833,
  "ĠHit": 9834,
  "...\"": 9835,
  "Ġ([": 9836,
  "urable": 9837,
  "Ġprod": 9838,
  "Ġprodu": 9839,
  "('./": 9840,
  "Ġmomentum": 9841,
  "Ġale": 9842,
  "Ġalert": 9843,
  "ĠBrook": 9844,
  "ĠBab": 9845,
  "_MAX": 9846,
  "ĠNord": 9847,
  "asted": 9848,
  "oct": 9849,
  "ĠGa": 9850,
  "ĠGal": 9851,
  "ĠGar": 9852,
  "ĠGall": 9853,
  "pie": 9854,
  "ulti": 9855,
  "ifice": 9856,
  "ĠDelete": 9857,
  "tras": 9858,
  "Ġjet": 9859,
  "Ġtape": 9860,
  "'.$": 9861,
  "Ġmorph": 9862,
  "Ġexped": 9863,
  "Ã¾": 9864,
  "reader": 9865,
  "exit": 9866,
  "uli": 9867,
  "ulin": 9868,
  "uling": 9869,
  "Track": 9870,
  "40": 9871,
  "Bus": 9872,
  "idas": 9873,
  "Ġov": 9874,
  "Ã³w": 9875,
  "Ġdit": 9876,
  "INSERT": 9877,
  "Ġoffices": 9878,
  "Õ¥ÖĢ": 9879,
  "Ġcrown": 9880,
  "viously": 9881,
  "Ġcurr": 9882,
  "Ġcurrent": 9883,
  "Ġcurrently": 9884,
  "Ġcurrency": 9885,
  "ĠMuse": 9886,
  "flo": 9887,
  "flow": 9888,
  "float": 9889,
  "ĠHistor": 9890,
  "ĠEnvironmental": 9891,
  "gres": 9892,
  "gress": 9893,
  "plet": 9894,
  "plete": 9895,
  "...Ċ": 9896,
  "...ĊĊ": 9897,
  "ĠGard": 9898,
  "ĠGarden": 9899,
  "Ġ|=": 9900,
  "Ġrecru": 9901,
  "Ġcollab": 9902,
  "ĠDavis": 9903,
  "Ġdre": 9904,
  "Ġdream": 9905,
  "Ġdress": 9906,
  "Ġdreams": 9907,
  "Ġdrew": 9908,
  "ĠBasic": 9909,
  "ĠCond": 9910,
  "rose": 9911,
  "Ġidentifying": 9912,
  "Ġmigr": 9913,
  "aco": 9914,
  "acon": 9915,
  "Ġcompound": 9916,
  "ĠGro": 9917,
  "ifting": 9918,
  "Ġpredictions": 9919,
  "ĠAG": 9920,
  "ĠÃ®": 9921,
  "\"I": 9922,
  "Ġsuperv": 9923,
  "Ġjul": 9924,
  "flu": 9925,
  "pection": 9926,
  "resources": 9927,
  "Ġemphasis": 9928,
  "Ĥĺ": 9929,
  "erts": 9930,
  "Flag": 9931,
  "Flags": 9932,
  "ĠSteel": 9933,
  "Ġgrey": 9934,
  "alia": 9935,
  "alian": 9936,
  "Ġmagnitude": 9937,
  "ityEngine": 9938,
  "ÏĨ": 9939,
  "ĠSA": 9940,
  "hn": 9941,
  "čĊĠĠĠ": 9942,
  "_X": 9943,
  "ĠSilver": 9944,
  "isons": 9945,
  "lined": 9946,
  "_is": 9947,
  "Ġbowl": 9948,
  "Ġenhanced": 9949,
  "Ġster": 9950,
  "cfg": 9951,
  "ellar": 9952,
  "Ġforming": 9953,
  ".db": 9954,
  "Ġpuzz": 9955,
  "ĠCV": 9956,
  "Ġduties": 9957,
  "Ġthirty": 9958,
  "emos": 9959,
  "Ġfought": 9960,
  "'))Ċ": 9961,
  "ĠCT": 9962,
  "tar": 9963,
  "target": 9964,
  "ĠUSE": 9965,
  "ĠParliament": 9966,
  "ĠFC": 9967,
  "iley": 9968,
  "Ġrecipes": 9969,
  "-ch": 9970,
  "Ġbegun": 9971,
  "Ãºs": 9972,
  "ruption": 9973,
  "ĠSin": 9974,
  "ĠSince": 9975,
  "ĠSing": 9976,
  "ĠSingle": 9977,
  "ĠBased": 9978,
  "Ġshed": 9979,
  "Environment": 9980,
  "ĠCamb": 9981,
  "ĠCambridge": 9982,
  "-th": 9983,
  "Spe": 9984,
  "Spec": 9985,
  "Ġsink": 9986,
  "ocom": 9987,
  "Ġsurely": 9988,
  "ĠEt": 9989,
  "ĠEth": 9990,
  "Ġrepet": 9991,
  "ĠMother": 9992,
  "Ġmeth": 9993,
  "Ġmethod": 9994,
  "inds": 9995,
  "à®¾à®": 9996,
  "clean": 9997,
  "Ġdys": 9998,
  "Ġcasa": 9999,
  "agu": 10000,
  "ague": 10001,
  "agues": 10002,
  "Ġvarying": 10003,
  "à±ĭ": 10004,
  "Ġsurrounded": 10005,
  "Ġdrops": 10006,
  "Ġmistakes": 10007,
  "oids": 10008,
  "Ġore": 10009,
  "ĠVari": 10010,
  "Descriptor": 10011,
  "ifts": 10012,
  "Ġhast": 10013,
  "Ġlocked": 10014,
  "Ġveg": 10015,
  "Ġveget": 10016,
  "ĠCome": 10017,
  ".Event": 10018,
  "fp": 10019,
  "Ġprotecting": 10020,
  "Ġdw": 10021,
  "ande": 10022,
  "ander": 10023,
  "anded": 10024,
  "ctl": 10025,
  "Ġtiming": 10026,
  "ĠInn": 10027,
  "Ġdisturb": 10028,
  "yled": 10029,
  ",y": 10030,
  ".Ch": 10031,
  "âĶĤ": 10032,
  ".sc": 10033,
  "ĠHal": 10034,
  "ĠHall": 10035,
  "schema": 10036,
  "Ġstruggling": 10037,
  "ĠPu": 10038,
  "ĠPut": 10039,
  "ĠPub": 10040,
  "ĠPublic": 10041,
  "ĠPur": 10042,
  "ciÃ³": 10043,
  "Ġbroader": 10044,
  "unks": 10045,
  ".style": 10046,
  "single": 10047,
  "ĠPak": 10048,
  "ĠPakistan": 10049,
  "pow": 10050,
  "power": 10051,
  "ĉe": 10052,
  "ĉecho": 10053,
  "emple": 10054,
  "ĠGB": 10055,
  "ĠClear": 10056,
  "ĠBor": 10057,
  "Ġfilling": 10058,
  "Ġmaj": 10059,
  "Ġmajor": 10060,
  "Ġds": 10061,
  "ĠHan": 10062,
  "ĠHand": 10063,
  "Ġforgot": 10064,
  "pathy": 10065,
  "ĠDI": 10066,
  "Ġassistant": 10067,
  "engo": 10068,
  "Ġgaming": 10069,
  "enes": 10070,
  "eness": 10071,
  "ÖĦ": 10072,
  "Ġactively": 10073,
  "//ĊĊ": 10074,
  "Ä«": 10075,
  "ĠToronto": 10076,
  "Ġprofound": 10077,
  "ĠResults": 10078,
  "ĠDR": 10079,
  "ĠSurvey": 10080,
  "Ġsectors": 10081,
  "Ġmarc": 10082,
  "Ġmarch": 10083,
  "ajo": 10084,
  "ajor": 10085,
  "illion": 10086,
  "ativa": 10087,
  "+++++": 10088,
  "gray": 10089,
  "Ġwal": 10090,
  "Ġwalk": 10091,
  "Ġwall": 10092,
  "Ġwalking": 10093,
  "Ġwalls": 10094,
  "Ġwallet": 10095,
  "'][": 10096,
  "']['": 10097,
  "tags": 10098,
  "bold": 10099,
  "ĠSche": 10100,
  "vironments": 10101,
  "Ġkg": 10102,
  "Ġgrain": 10103,
  "Ps": 10104,
  "ensuremath": 10105,
  "iversary": 10106,
  "gun": 10107,
  "cciÃ³": 10108,
  "burn": 10109,
  "elli": 10110,
  "elling": 10111,
  "ellig": 10112,
  "Ġdollar": 10113,
  "Ġdollars": 10114,
  "à¥Ĥ": 10115,
  "Ġ},ĊĊ": 10116,
  "Ġdesde": 10117,
  "Ġ\"[": 10118,
  "asma": 10119,
  "Ġpuede": 10120,
  "Ġcookie": 10121,
  "Ġcookies": 10122,
  "optional": 10123,
  "VI": 10124,
  "VID": 10125,
  "ĠCOVID": 10126,
  "VICE": 10127,
  "ĠXX": 10128,
  "ĠSong": 10129,
  "csv": 10130,
  "Ġade": 10131,
  "Ġadequ": 10132,
  "Ġadequate": 10133,
  "Ġpixels": 10134,
  "cpy": 10135,
  "ĠJOIN": 10136,
  "Ġcb": 10137,
  "letes": 10138,
  "LOC": 10139,
  "LOCK": 10140,
  "Ġelections": 10141,
  "ĠArc": 10142,
  "ĠArch": 10143,
  "hd": 10144,
  "ĠAsk": 10145,
  "SW": 10146,
  "Ġpresc": 10147,
  "ugs": 10148,
  "special": 10149,
  "Ġflows": 10150,
  "ĠĠĠĠĉ": 10151,
  ">\"": 10152,
  "\"\"\"Ċ": 10153,
  "Ġnn": 10154,
  "Ġcryst": 10155,
  "ĠTa": 10156,
  "ĠTal": 10157,
  "ĠTax": 10158,
  "ĠTag": 10159,
  "ĠTab": 10160,
  "ĠTable": 10161,
  "rust": 10162,
  "Ġpale": 10163,
  "Ġoccupied": 10164,
  "):ĊĊ": 10165,
  "SG": 10166,
  "><?": 10167,
  "-D": 10168,
  "Speed": 10169,
  "PTION": 10170,
  "ĠProtection": 10171,
  "anys": 10172,
  "oric": 10173,
  "Ġgradient": 10174,
  "Ġtie": 10175,
  "Ġtied": 10176,
  "ĠGO": 10177,
  "Ġpou": 10178,
  "Ġpour": 10179,
  "Ġinspir": 10180,
  "ĉbool": 10181,
  "Ġvertices": 10182,
  "JS": 10183,
  "JSON": 10184,
  "AMP": 10185,
  "cv": 10186,
  "otor": 10187,
  "Ġinstru": 10188,
  "Ġinstruction": 10189,
  "Ġinstructions": 10190,
  "Ġinstrument": 10191,
  "Ġinstruct": 10192,
  "Ġinstruments": 10193,
  "ĠAB": 10194,
  "Ġsolely": 10195,
  "hou": 10196,
  "house": 10197,
  "?'": 10198,
  "osta": 10199,
  "Ġmetab": 10200,
  "Rev": 10201,
  "_CL": 10202,
  "Ġrevol": 10203,
  "Ġdisrupt": 10204,
  "Ġimmun": 10205,
  "Ġimmune": 10206,
  "eres": 10207,
  "ĠPH": 10208,
  "ĠPHP": 10209,
  "hors": 10210,
  "illo": 10211,
  "Ġprest": 10212,
  "Ġsteady": 10213,
  "--Ċ": 10214,
  "Ġacquire": 10215,
  "Ġacquired": 10216,
  "Ġpubl": 10217,
  "Ġsty": 10218,
  "Ġstyle": 10219,
  "Ġstyles": 10220,
  "coll": 10221,
  "icas": 10222,
  "+=": 10223,
  "ĠPhD": 10224,
  "izard": 10225,
  "Ġabsorb": 10226,
  "setup": 10227,
  "ĠEL": 10228,
  "Ġpersu": 10229,
  "ĠBrad": 10230,
  "Ġdecimal": 10231,
  "acker": 10232,
  "choice": 10233,
  "aired": 10234,
  "Ġtraveling": 10235,
  "ributions": 10236,
  "Ġnoun": 10237,
  "_mod": 10238,
  "ĠCou": 10239,
  "ĠCount": 10240,
  "ĠCour": 10241,
  "ĠCourt": 10242,
  "ĠCourse": 10243,
  "rient": 10244,
  "ĠĠĠĠĠĠĊ": 10245,
  "_STR": 10246,
  "AE": 10247,
  "othe": 10248,
  "other": 10249,
  "othes": 10250,
  "ĠEmer": 10251,
  "ĠIllinois": 10252,
  "ĠAle": 10253,
  "ĠAlex": 10254,
  "icens": 10255,
  "\"'": 10256,
  "urers": 10257,
  "_idx": 10258,
  "cart": 10259,
  "ĉĉĠ": 10260,
  "ueue": 10261,
  "LES": 10262,
  "dex": 10263,
  "<<\"": 10264,
  "closed": 10265,
  "Ġpc": 10266,
  "Ġ$$": 10267,
  "oup": 10268,
  "Ġdigest": 10269,
  "contains": 10270,
  "Ġcs": 10271,
  "Ġà¦ķ": 10272,
  "Ġende": 10273,
  "Ġended": 10274,
  "Ġtipo": 10275,
  "ĠBus": 10276,
  "ĠBusiness": 10277,
  "ĠBush": 10278,
  "|Ċ": 10279,
  "ĠAppro": 10280,
  "Ġadvers": 10281,
  "Ġcooling": 10282,
  "Ġtheore": 10283,
  "Ġports": 10284,
  "mitt": 10285,
  "mitted": 10286,
  "Ġdecreased": 10287,
  "Ġgenre": 10288,
  "Ġtongue": 10289,
  "ĠDead": 10290,
  "aan": 10291,
  "Ġturb": 10292,
  "Ġ>>>": 10293,
  "_min": 10294,
  "jan": 10295,
  "Ġlicensed": 10296,
  "ĠáĥĽ": 10297,
  "ĠNova": 10298,
  "Ġthee": 10299,
  "Comm": 10300,
  "Common": 10301,
  "nik": 10302,
  ".clear": 10303,
  "esso": 10304,
  "essor": 10305,
  "Ġdivide": 10306,
  "Ġdivided": 10307,
  "ANS": 10308,
  "Ġvm": 10309,
  "ĠCro": 10310,
  "Ġdishes": 10311,
  "Ġgem": 10312,
  "ĠHong": 10313,
  "Ġceremon": 10314,
  "elay": 10315,
  ")|": 10316,
  "ĠEric": 10317,
  "para": 10318,
  "param": 10319,
  "params": 10320,
  "Ġwhilst": 10321,
  "scr": 10322,
  "script": 10323,
  "screen": 10324,
  "javascript": 10325,
  "scription": 10326,
  "scroll": 10327,
  "ĠED": 10328,
  "ĠBitcoin": 10329,
  "BM": 10330,
  "Dem": 10331,
  ",p": 10332,
  "inen": 10333,
  "inent": 10334,
  "Ġdens": 10335,
  "Ġdensity": 10336,
  "rency": 10337,
  "Ġgoto": 10338,
  "Ġaffecting": 10339,
  "ĠRoss": 10340,
  "Nodes": 10341,
  "Ġquit": 10342,
  "Ġquite": 10343,
  "-lg": 10344,
  "Ġeu": 10345,
  "Ġfloating": 10346,
  "ĠSoviet": 10347,
  "Ġmitj": 10348,
  "_Click": 10349,
  "Ġlag": 10350,
  "Ġbills": 10351,
  "Ġcrops": 10352,
  "Ġsorts": 10353,
  "ĠTyp": 10354,
  "ĠType": 10355,
  "Ġcref": 10356,
  "Ġtowns": 10357,
  "thes": 10358,
  "Ġattempting": 10359,
  "ĠâĨĴ": 10360,
  "Ġtale": 10361,
  "Ġdeclare": 10362,
  "Ġdeclared": 10363,
  "Ġscales": 10364,
  "imb": 10365,
  "atoes": 10366,
  "ĠOnt": 10367,
  "ĠCSS": 10368,
  "urchase": 10369,
  "ĠÃ¶": 10370,
  "ĠNeg": 10371,
  "Ġash": 10372,
  "Ġclust": 10373,
  "ĠFer": 10374,
  "ĠBan": 10375,
  "ĠBank": 10376,
  "ĠBand": 10377,
  "ĠBang": 10378,
  "Ġmoderate": 10379,
  "Ġtenia": 10380,
  "ĠMust": 10381,
  "Ġ'$": 10382,
  "emen": 10383,
  "ement": 10384,
  "Ġimplement": 10385,
  "ements": 10386,
  "Ġimplementation": 10387,
  "Ġimplements": 10388,
  "Ġimplemented": 10389,
  "eu": 10390,
  "eur": 10391,
  "REG": 10392,
  "Ġencountered": 10393,
  "á»ĭ": 10394,
  "nica": 10395,
  "prov": 10396,
  "_mode": 10397,
  "_model": 10398,
  "Headers": 10399,
  "Ġhighlights": 10400,
  "ÃŃst": 10401,
  "Ġprinter": 10402,
  "handler": 10403,
  "dig": 10404,
  "Ġà¤°": 10405,
  "ĠDisney": 10406,
  "Ġnur": 10407,
  "integer": 10408,
  "/L": 10409,
  "Ġhandles": 10410,
  "=\"_": 10411,
  "inda": 10412,
  "Ġspray": 10413,
  "Ġembedded": 10414,
  "(X": 10415,
  "Ġnobody": 10416,
  "Ġapple": 10417,
  "ĠAlt": 10418,
  "Ġmud": 10419,
  "Ġexpense": 10420,
  "Ġexpenses": 10421,
  "ĠSel": 10422,
  "ĠSelf": 10423,
  "Ġbay": 10424,
  "icode": 10425,
  "Bel": 10426,
  "Ġ'</": 10427,
  "Ġmold": 10428,
  "Ġsucc": 10429,
  "Ġdrama": 10430,
  "Ġ×ķ": 10431,
  "plug": 10432,
  "plugin": 10433,
  "ĠSale": 10434,
  "Ġdistant": 10435,
  "Ġtear": 10436,
  "Ġtears": 10437,
  "ĠCos": 10438,
  "ĠCost": 10439,
  "Ġnick": 10440,
  "Ġfavourite": 10441,
  ">)": 10442,
  "endregion": 10443,
  "'])Ċ": 10444,
  "ĠME": 10445,
  "lap": 10446,
  "ĠPosition": 10447,
  "/r": 10448,
  "iations": 10449,
  "Ġfel": 10450,
  "Ġfelt": 10451,
  "Ġfell": 10452,
  "Ġfellow": 10453,
  ".trans": 10454,
  "ĠIron": 10455,
  "Ġcompensation": 10456,
  "Ġiv": 10457,
  "Ġà¤²": 10458,
  "URN": 10459,
  "Ġjuice": 10460,
  "ï½": 10461,
  "Ġdass": 10462,
  "Cr": 10463,
  "Cre": 10464,
  "_u": 10465,
  "_url": 10466,
  "_un": 10467,
  "ascular": 10468,
  "Ġ<-": 10469,
  "illes": 10470,
  "wi": 10471,
  "win": 10472,
  "wid": 10473,
  "width": 10474,
  "wide": 10475,
  "wing": 10476,
  "Ġgrowing": 10477,
  "Ġdrawing": 10478,
  "widget": 10479,
  "wind": 10480,
  "window": 10481,
  "widet": 10482,
  "Language": 10483,
  "Ids": 10484,
  "oples": 10485,
  "notes": 10486,
  "issa": 10487,
  "aires": 10488,
  "EB": 10489,
  "Ġcyber": 10490,
  "priv": 10491,
  "rowse": 10492,
  "rowser": 10493,
  "columns": 10494,
  "Ġgenuine": 10495,
  "anche": 10496,
  "kw": 10497,
  "kwargs": 10498,
  "ahl": 10499,
  "olen": 10500,
  "Edge": 10501,
  "mn": 10502,
  "Ġvoting": 10503,
  "around": 10504,
  "ĠBru": 10505,
  "Ġfills": 10506,
  "ĠNavy": 10507,
  "Ġreveals": 10508,
  "cest": 10509,
  "ĠGil": 10510,
  "Ġsons": 10511,
  "arms": 10512,
  "ntic": 10513,
  "icos": 10514,
  "enabled": 10515,
  "PAR": 10516,
  "mag": 10517,
  "_VALUE": 10518,
  "Ġconcentr": 10519,
  "isen": 10520,
  "timeout": 10521,
  "Ġminimize": 10522,
  "ĊĠĠĠĠĠĠĠĠĠĠĠĠĠĠĠĠĠĠĠĠĠĠĠ": 10523,
  "Ġassuming": 10524,
  "wen": 10525,
  "ĠColumb": 10526,
  "ĠColumbia": 10527,
  "alog": 10528,
  "ĠInfo": 10529,
  "Ġtreating": 10530,
  "\">ĊĊ": 10531,
  "×¡": 10532,
  "Ġriding": 10533,
  "aran": 10534,
  "arant": 10535,
  "]/": 10536,
  "Ġcompounds": 10537,
  "Ġstere": 10538,
  "arv": 10539,
  "tons": 10540,
  "-T": 10541,
  "lients": 10542,
  "hero": 10543,
  "irts": 10544,
  "metadata": 10545,
  "Ġdiamond": 10546,
  "ĠNap": 10547,
  "Ġencourag": 10548,
  "rays": 10549,
  "Ġphr": 10550,
  "Ġphrase": 10551,
  "Sur": 10552,
  "à°¨": 10553,
  "Ġimplementing": 10554,
  "ĠDur": 10555,
  "ĠDuring": 10556,
  "AI": 10557,
  "AIN": 10558,
  "AIL": 10559,
  "rik": 10560,
  "_train": 10561,
  "ĠDES": 10562,
  "Ġcondem": 10563,
  "Ġpars": 10564,
  "Ġparse": 10565,
  "Ġparser": 10566,
  "bled": 10567,
  "()),": 10568,
  "ZE": 10569,
  "ĠSK": 10570,
  "Ġ\"@": 10571,
  "weak": 10572,
  "Ġsla": 10573,
  "Ġaddr": 10574,
  "Ġaddress": 10575,
  "Disc": 10576,
  "Ġ}}Ċ": 10577,
  "ĠLewis": 10578,
  "override": 10579,
  "Ġoutline": 10580,
  "Ġmystery": 10581,
  "Ċĉ": 10582,
  "ĠAV": 10583,
  "Ġjaw": 10584,
  "ailure": 10585,
  "Ġpels": 10586,
  ",.": 10587,
  "Ġreceives": 10588,
  "ĠVe": 10589,
  "ĠVer": 10590,
  "ĠVen": 10591,
  "ĠVery": 10592,
  "emplo": 10593,
  "limited": 10594,
  "Library": 10595,
  "Ġlogs": 10596,
  "Ġtower": 10597,
  "Ġpressing": 10598,
  "axy": 10599,
  "?,": 10600,
  "commit": 10601,
  ")\",": 10602,
  "áĥķ": 10603,
  "ĠPi": 10604,
  "Ġsour": 10605,
  "Ġsource": 10606,
  "Ġsources": 10607,
  "auge": 10608,
  "ventions": 10609,
  "ĠRES": 10610,
  "ĠCho": 10611,
  ".rf": 10612,
  "Ġgently": 10613,
  "ennis": 10614,
  ")^": 10615,
  "plugins": 10616,
  "Ġbron": 10617,
  "Ġbonds": 10618,
  "Ġtwelve": 10619,
  "sequently": 10620,
  "Ġdispar": 10621,
  "ĠTheorem": 10622,
  "News": 10623,
  "cdn": 10624,
  "widetilde": 10625,
  "Ġ);čĊ": 10626,
  "à¦ķ": 10627,
  "ĠMoh": 10628,
  "mir": 10629,
  "sheet": 10630,
  "Ġdaugh": 10631,
  "essa": 10632,
  "essage": 10633,
  "essages": 10634,
  ".message": 10635,
  "(message": 10636,
  "ĉS": 10637,
  "Na": 10638,
  "Nav": 10639,
  "uced": 10640,
  "Ġmerch": 10641,
  "UTE": 10642,
  "Ġmacro": 10643,
  "NER": 10644,
  "Ġtid": 10645,
  "ĉi": 10646,
  "ĉif": 10647,
  "ĠOptions": 10648,
  "ï¼īĊĊ": 10649,
  "Ġappar": 10650,
  "ĠVM": 10651,
  "uty": 10652,
  "Ġcaptain": 10653,
  "rely": 10654,
  "lp": 10655,
  "âķĲ": 10656,
  "Ġknee": 10657,
  "lyn": 10658,
  "Ġdefeat": 10659,
  "(ch": 10660,
  "(char": 10661,
  "Ġ}).": 10662,
  "Dom": 10663,
  "()[": 10664,
  "Õµ": 10665,
  "azi": 10666,
  "adium": 10667,
  "Ġgrows": 10668,
  "Ġsq": 10669,
  "Ġsqu": 10670,
  "Ġsquare": 10671,
  "Ġsql": 10672,
  "ĠSummer": 10673,
  "LM": 10674,
  "ĠConn": 10675,
  "ĠConnect": 10676,
  "ĠConnection": 10677,
  "totype": 10678,
  "ĠJoh": 10679,
  "ĠJohn": 10680,
  "Ġgallery": 10681,
  "Ġhandled": 10682,
  "folder": 10683,
  "Ġcomputed": 10684,
  ".Y": 10685,
  "Ġ({": 10686,
  "ĠiOS": 10687,
  "Domain": 10688,
  "(var": 10689,
  "<=": 10690,
  "anga": 10691,
  "_rec": 10692,
  "}\",": 10693,
  "áº¥": 10694,
  "Ġdying": 10695,
  "labels": 10696,
  "abl": 10697,
  "able": 10698,
  "ably": 10699,
  "ables": 10700,
  "abled": 10701,
  "Ġprobably": 10702,
  "Ġvaluable": 10703,
  "Ġcomfortable": 10704,
  "Ġapplicable": 10705,
  "Ġreliable": 10706,
  "abla": 10707,
  "Ġsustainable": 10708,
  "variable": 10709,
  "Ġaffordable": 10710,
  "nabla": 10711,
  "Enable": 10712,
  "Enabled": 10713,
  "asset": 10714,
  "assets": 10715,
  "rock": 10716,
  "ĠHawai": 10717,
  "ĠMind": 10718,
  "Ġtens": 10719,
  "Ġtensor": 10720,
  "Ġtension": 10721,
  "hour": 10722,
  "Ġbabies": 10723,
  ".reg": 10724,
  "Ġignor": 10725,
  "Ġignore": 10726,
  "Ġignored": 10727,
  "Æ°á»": 10728,
  "ĠMC": 10729,
  "ĠDue": 10730,
  "Ġharvest": 10731,
  "[n": 10732,
  "Submit": 10733,
  "Ġlogged": 10734,
  ")čĊčĊ": 10735,
  "Ġbelt": 10736,
  "nis": 10737,
  "Ah": 10738,
  "Ġrip": 10739,
  "ĠHad": 10740,
  "ĠSimon": 10741,
  "Ġcompanion": 10742,
  "Ġperf": 10743,
  "23": 10744,
  "Ġsurge": 10745,
  "Ġsurgery": 10746,
  "owned": 10747,
  "food": 10748,
  "WM": 10749,
  "uffle": 10750,
  "ĊĠĠĠĠĊ": 10751,
  "nl": 10752,
  "à¦¾à¦°": 10753,
  "ancell": 10754,
  "netic": 10755,
  "Ġcontrary": 10756,
  ".en": 10757,
  ".end": 10758,
  "Ġmagnet": 10759,
  "Ġmagnetic": 10760,
  "Ġfate": 10761,
  "writer": 10762,
  "allas": 10763,
  "airy": 10764,
  "Ã±a": 10765,
  "iology": 10766,
  "ongs": 10767,
  "thew": 10768,
  "pth": 10769,
  "`.": 10770,
  "Ġsegments": 10771,
  "Ġcomparing": 10772,
  "ĠPas": 10773,
  "ĠPass": 10774,
  "Ġoldest": 10775,
  "ĠJS": 10776,
  "ĠJSON": 10777,
  "ĠBurn": 10778,
  "Ġplacing": 10779,
  "mers": 10780,
  "Iterator": 10781,
  "ovo": 10782,
  "Ġdivine": 10783,
  "iac": 10784,
  "ockets": 10785,
  "trace": 10786,
  "ĠSales": 10787,
  "Ġns": 10788,
  "azy": 10789,
  "(F": 10790,
  "Ġformats": 10791,
  "Ġinnoc": 10792,
  "Ġnoble": 10793,
  "Which": 10794,
  "ĠNC": 10795,
  "ĠJuan": 10796,
  "NGTH": 10797,
  "pects": 10798,
  "xff": 10799,
  "Ġgrave": 10800,
  "-y": 10801,
  "-year": 10802,
  "();čĊčĊ": 10803,
  "(/": 10804,
  "ROUP": 10805,
  "ouri": 10806,
  "WH": 10807,
  "âĪ": 10808,
  "chers": 10809,
  "Ġteachers": 10810,
  "Ġciv": 10811,
  "Ġcivil": 10812,
  "Ġswitching": 10813,
  "WR": 10814,
  "ĠJa": 10815,
  "ĠJan": 10816,
  "ĠJac": 10817,
  "ĠJack": 10818,
  "ĠJackson": 10819,
  "ĠJane": 10820,
  "ĠJam": 10821,
  "ĠJames": 10822,
  "ĠJap": 10823,
  "ĠJapan": 10824,
  "ĠJacob": 10825,
  "speed": 10826,
  "ï¼īï¼Į": 10827,
  "ymph": 10828,
  "Ġparad": 10829,
  "Ġkin": 10830,
  "Ġkind": 10831,
  "Ġking": 10832,
  "Ġkinds": 10833,
  "Ġkingdom": 10834,
  "CB": 10835,
  "ructions": 10836,
  "ĠFab": 10837,
  "ĠCra": 10838,
  "Ġexpanding": 10839,
  "Ġprinc": 10840,
  "Ġprincip": 10841,
  "Ġprinciple": 10842,
  "ĠNi": 10843,
  "ĠNic": 10844,
  "ĠNick": 10845,
  "Ġrab": 10846,
  "thm": 10847,
  "ADD": 10848,
  "Ġvag": 10849,
  "Attr": 10850,
  ".junit": 10851,
  "Ġdesigning": 10852,
  "SION": 10853,
  "Pref": 10854,
  "approx": 10855,
  "ĠOT": 10856,
  "Ġdign": 10857,
  "Ġrs": 10858,
  "Ġsinging": 10859,
  "urse": 10860,
  "ĠTE": 10861,
  "Ġpint": 10862,
  "pal": 10863,
  "Ġku": 10864,
  "nan": 10865,
  "Ã©l": 10866,
  "Ġdad": 10867,
  "Ġharmon": 10868,
  "Ġmales": 10869,
  "Ġpant": 10870,
  "Ġny": 10871,
  "ĠÕ°": 10872,
  "Ġcomen": 10873,
  "Ġmysqli": 10874,
  "ĠGrant": 10875,
  "got": 10876,
  "tat": 10877,
  "ĠDIS": 10878,
  "ĠSets": 10879,
  "Sty": 10880,
  "icions": 10881,
  "obi": 10882,
  "obile": 10883,
  "rypted": 10884,
  "á»ĩ": 10885,
  "á»¥": 10886,
  "Ġjed": 10887,
  "ownt": 10888,
  "ĠVisual": 10889,
  "(N": 10890,
  "tri": 10891,
  "trib": 10892,
  "tries": 10893,
  "trim": 10894,
  "itals": 10895,
  "isan": 10896,
  "ĠDun": 10897,
  "ĠFel": 10898,
  "both": 10899,
  "ĠSix": 10900,
  "arer": 10901,
  "oren": 10902,
  "ĠperÃ²": 10903,
  "!!!!": 10904,
  "ngth": 10905,
  "reed": 10906,
  "Ġ:)": 10907,
  ".Int": 10908,
  "gorithm": 10909,
  "Ġvoy": 10910,
  "à¦¤": 10911,
  "asses": 10912,
  "ĠWindow": 10913,
  "GC": 10914,
  "Ġsyntax": 10915,
  "Ġnamely": 10916,
  "Ġlov": 10917,
  "Ġlove": 10918,
  "Ġloved": 10919,
  "Ġlovely": 10920,
  "Ġloves": 10921,
  "Ġloving": 10922,
  "ĠÃ§": 10923,
  "Ġdense": 10924,
  "'\"": 10925,
  ",(": 10926,
  "ĠRequ": 10927,
  "Ġpir": 10928,
  "Ġmixing": 10929,
  "rying": 10930,
  "ĠStruct": 10931,
  "Ġillust": 10932,
  "mouse": 10933,
  "Ġconsume": 10934,
  "Ġconsumer": 10935,
  "Ġconsumers": 10936,
  "Ġjam": 10937,
  "ĠVin": 10938,
  "Ġresort": 10939,
  "Ġdistances": 10940,
  "Ġ&=": 10941,
  "]-": 10942,
  "]->": 10943,
  "Ġtyping": 10944,
  "ĠEle": 10945,
  "ĠElect": 10946,
  "ĠRegion": 10947,
  "voke": 10948,
  "pic": 10949,
  "Ġvacation": 10950,
  "|^": 10951,
  "Region": 10952,
  ".pl": 10953,
  "nom": 10954,
  "nombre": 10955,
  "nome": 10956,
  ".debug": 10957,
  "ĠKr": 10958,
  "lov": 10959,
  "abc": 10960,
  "Ġreserve": 10961,
  "Ġreserved": 10962,
  "Ġopts": 10963,
  "geo": 10964,
  "odb": 10965,
  "Ben": 10966,
  "Ġresidence": 10967,
  "Ġfal": 10968,
  "Ġfall": 10969,
  "Ġfalling": 10970,
  "Ġfalls": 10971,
  "lings": 10972,
  "Ġfeelings": 10973,
  "Ïİ": 10974,
  "__,": 10975,
  "Õ¡Õµ": 10976,
  "uir": 10977,
  "Ġ----": 10978,
  "uru": 10979,
  "boy": 10980,
  "TEXT": 10981,
  "IDTH": 10982,
  "Ġobtaining": 10983,
  "Ġplates": 10984,
  "Ġ!!": 10985,
  "gon": 10986,
  "rett": 10987,
  "Ġpursue": 10988,
  "Ġzur": 10989,
  "sha": 10990,
  "shape": 10991,
  "share": 10992,
  "shared": 10993,
  "Ġembod": 10994,
  "Ġblend": 10995,
  "Ġmotivation": 10996,
  "Ġsheets": 10997,
  "OB": 10998,
  "cas": 10999,
  "cast": 11000,
  "case": 11001,
  "Ġoccas": 11002,
  "Ġoccasion": 11003,
  "Ġbroadcast": 11004,
  "Ġforecast": 11005,
  "cases": 11006,
  "Ġstreams": 11007,
  "![": 11008,
  "ĠBreak": 11009,
  "(tr": 11010,
  "(true": 11011,
  "ĉcout": 11012,
  "Ġcrystal": 11013,
  "ĠGab": 11014,
  "ership": 11015,
  "Ġdub": 11016,
  "ĠOt": 11017,
  "ĠOther": 11018,
  "Ġdones": 11019,
  "ĠPod": 11020,
  "distance": 11021,
  "ĠTro": 11022,
  "Die": 11023,
  "ĠMs": 11024,
  "Ġqued": 11025,
  "':'": 11026,
  "Ġcaso": 11027,
  "ĠFern": 11028,
  "Ġ\")": 11029,
  "Ġtempt": 11030,
  "oat": 11031,
  "itas": 11032,
  "illance": 11033,
  "Ġceremony": 11034,
  "rection": 11035,
  "detail": 11036,
  "details": 11037,
  "Ġscratch": 11038,
  "Ġfrustr": 11039,
  "avid": 11040,
  "Ġbell": 11041,
  ");ĊĊĊ": 11042,
  "Ġsubsc": 11043,
  "Ġequals": 11044,
  "HL": 11045,
  "Ġfever": 11046,
  "}else": 11047,
  "Ġmatched": 11048,
  "bone": 11049,
  "Ev": 11050,
  "Event": 11051,
  "Even": 11052,
  "Events": 11053,
  "uci": 11054,
  "Ġescol": 11055,
  "Ġreleases": 11056,
  "\"?": 11057,
  "inas": 11058,
  "Sch": 11059,
  "akh": 11060,
  "<a": 11061,
  "ĠMode": 11062,
  "ĠModel": 11063,
  "Ġsod": 11064,
  "]).": 11065,
  "Ġsne": 11066,
  "God": 11067,
  "Ġsubtle": 11068,
  "iciÃ³": 11069,
  "Ġric": 11070,
  "Ġrich": 11071,
  "Ġrice": 11072,
  "Ġconsisting": 11073,
  "ĠConstant": 11074,
  "ĠBL": 11075,
  "Gui": 11076,
  "eca": 11077,
  "ecause": 11078,
  "SY": 11079,
  "\"><?": 11080,
  "iffs": 11081,
  "<p": 11082,
  "Ġracial": 11083,
  "ÅĦ": 11084,
  "Prefix": 11085,
  "ĠLock": 11086,
  "ĠConsult": 11087,
  "etes": 11088,
  "ĠMatch": 11089,
  "Ġladies": 11090,
  "pd": 11091,
  "pdf": 11092,
  "Ġcc": 11093,
  "Ġterrit": 11094,
  "Ġterritory": 11095,
  "60": 11096,
  "ĳ×": 11097,
  "ĉerr": 11098,
  "Î¹Îº": 11099,
  "Ġbom": 11100,
  "Ġbomb": 11101,
  ">.": 11102,
  "LED": 11103,
  "ĠUl": 11104,
  "ĠUlt": 11105,
  "ĠPin": 11106,
  "_URL": 11107,
  "ORDER": 11108,
  "school": 11109,
  "ANGE": 11110,
  "compat": 11111,
  "ĠTai": 11112,
  "Ġpays": 11113,
  "ĠDor": 11114,
  "Ve": 11115,
  "Ver": 11116,
  "Vert": 11117,
  "Vertex": 11118,
  "Ġdx": 11119,
  "etadata": 11120,
  "Ġspo": 11121,
  "Ġspot": 11122,
  "Ġspoke": 11123,
  "Ġspons": 11124,
  "Ġspoken": 11125,
  "Ġspots": 11126,
  "Ġspokes": 11127,
  "áŁ": 11128,
  "Ġpowered": 11129,
  "Ġà¦¸": 11130,
  "-top": 11131,
  "INGS": 11132,
  "Ġseam": 11133,
  "toBe": 11134,
  "sal": 11135,
  "switch": 11136,
  "MIN": 11137,
  "Ġ*čĊ": 11138,
  "VEL": 11139,
  "crit": 11140,
  "Ġbases": 11141,
  "ĠGive": 11142,
  "ĠGiven": 11143,
  "ĠAnth": 11144,
  "\"],Ċ": 11145,
  "Ġdarkness": 11146,
  "Ġgit": 11147,
  "consin": 11148,
  "Õ¸ÖĤÕ´": 11149,
  "emes": 11150,
  "because": 11151,
  "apis": 11152,
  "archy": 11153,
  "Ġenumer": 11154,
  "ĠSTR": 11155,
  ".color": 11156,
  "_ref": 11157,
  "esty": 11158,
  "Ġshelter": 11159,
  "Ġdenote": 11160,
  "ircraft": 11161,
  "Further": 11162,
  "ĉĠĠ": 11163,
  "ĉĠĠĠ": 11164,
  "Final": 11165,
  "Finally": 11166,
  "verty": 11167,
  "idae": 11168,
  "Ġcampaigns": 11169,
  "Unknown": 11170,
  "Ġ'Ċ": 11171,
  "APP": 11172,
  "Ġholy": 11173,
  "Ġportions": 11174,
  "Ġaj": 11175,
  "closure": 11176,
  "orr": 11177,
  "orry": 11178,
  "links": 11179,
  "(\"<": 11180,
  "Ġcharging": 11181,
  "ĠChoose": 11182,
  "Ġib": 11183,
  "Ġsacred": 11184,
  "_trans": 11185,
  "stants": 11186,
  "Ġraces": 11187,
  "ĠTX": 11188,
  "ĠGas": 11189,
  "ribed": 11190,
  "\\}": 11191,
  "Ġindependently": 11192,
  "ĠHop": 11193,
  "ĠHope": 11194,
  "chart": 11195,
  "Ġtends": 11196,
  "ĠChem": 11197,
  "ogs": 11198,
  "Ġmb": 11199,
  "Ġlig": 11200,
  "Ġlight": 11201,
  "Ġlights": 11202,
  "Ġlighting": 11203,
  "ĠBelg": 11204,
  "ĠÂ¿": 11205,
  "addle": 11206,
  "ĠTan": 11207,
  "_HE": 11208,
  "\\]": 11209,
  "iert": 11210,
  "WA": 11211,
  "OUNT": 11212,
  "Ġprobe": 11213,
  "Scene": 11214,
  "edu": 11215,
  "Ġcp": 11216,
  "ĠWinter": 11217,
  "ĠSU": 11218,
  "Ġcute": 11219,
  ".be": 11220,
  ".begin": 11221,
  "unda": 11222,
  "unday": 11223,
  "(num": 11224,
  "_not": 11225,
  "angles": 11226,
  "inge": 11227,
  "inger": 11228,
  "ingers": 11229,
  "rx": 11230,
  "=='": 11231,
  "tabular": 11232,
  "][\"": 11233,
  "ĠLind": 11234,
  "Ê»": 11235,
  "';čĊ": 11236,
  "bank": 11237,
  "evin": 11238,
  "Ġphosph": 11239,
  "pts": 11240,
  "Ġconcepts": 11241,
  "ĠMade": 11242,
  "TY": 11243,
  "TYPE": 11244,
  "estamp": 11245,
  "ĠOak": 11246,
  "Ċĉĉ": 11247,
  "Ġpec": 11248,
  "pute": 11249,
  "collect": 11250,
  "collection": 11251,
  "ĠBath": 11252,
  "ĠCM": 11253,
  "oned": 11254,
  "Ġballs": 11255,
  "Ġtropical": 11256,
  ",:": 11257,
  "-%": 11258,
  "Ġunto": 11259,
  "phabet": 11260,
  "ĉĉĉĉĊ": 11261,
  "ĠSN": 11262,
  "ĠEM": 11263,
  "âĪĴ": 11264,
  "Ġzum": 11265,
  "_form": 11266,
  "ĠVI": 11267,
  "Ġmul": 11268,
  "Ġmult": 11269,
  "Ġmulti": 11270,
  "Ġmultip": 11271,
  "aughter": 11272,
  "Ġdaughter": 11273,
  "esch": 11274,
  "isis": 11275,
  "ĠDoc": 11276,
  "ĠDoctor": 11277,
  "tesy": 11278,
  "Ġsha": 11279,
  "Ġshall": 11280,
  "Ġshap": 11281,
  "Ġshape": 11282,
  "Ġshapes": 11283,
  "Ġshaped": 11284,
  "aar": 11285,
  "sequence": 11286,
  "Ġali": 11287,
  "Ġalign": 11288,
  "Ġalike": 11289,
  "Ġalignment": 11290,
  "ĠHu": 11291,
  "ĠHum": 11292,
  "ĠHuman": 11293,
  "ĠSpeed": 11294,
  "Ġpartly": 11295,
  "rance": 11296,
  "zes": 11297,
  "comb": 11298,
  "ellite": 11299,
  "/**čĊ": 11300,
  "Ġà¤Ĩ": 11301,
  "agne": 11302,
  "Ġpt": 11303,
  "sr": 11304,
  "src": 11305,
  "_;": 11306,
  "Ġosc": 11307,
  "Ġoscill": 11308,
  "Ġrecycl": 11309,
  "Ġ\"\",Ċ": 11310,
  "Âłanys": 11311,
  "ERSION": 11312,
  "them": 11313,
  "theme": 11314,
  "swers": 11315,
  "gov": 11316,
  "Ġcure": 11317,
  "iances": 11318,
  "Ġengineer": 11319,
  "Ġengineering": 11320,
  "Ġengineers": 11321,
  ":#": 11322,
  "Ġdtype": 11323,
  "Ġtoy": 11324,
  "Ġtoys": 11325,
  "Pi": 11326,
  "Ġdistr": 11327,
  "Ġdistrib": 11328,
  "Ġdistrict": 11329,
  "\".$": 11330,
  "steps": 11331,
  "_fe": 11332,
  "Ġcircles": 11333,
  "Ġportfolio": 11334,
  "Ġrated": 11335,
  "kk": 11336,
  "eric": 11337,
  "posts": 11338,
  "expl": 11339,
  "×Ľ": 11340,
  "olas": 11341,
  "YP": 11342,
  "YPE": 11343,
  "ĠAnna": 11344,
  "ĠCu": 11345,
  "ĠCur": 11346,
  "ĠCup": 11347,
  "ĠCub": 11348,
  "ĠCut": 11349,
  "Ġcarb": 11350,
  "audio": 11351,
  "ctrl": 11352,
  "Sn": 11353,
  "fail": 11354,
  "ĠMaj": 11355,
  "ĠMajor": 11356,
  "ĠTrib": 11357,
  "Install": 11358,
  "ĠUnd": 11359,
  "ĠUnder": 11360,
  "(u": 11361,
  "(url": 11362,
  "ĠPast": 11363,
  "Cho": 11364,
  "ĠEV": 11365,
  "Ġbeside": 11366,
  "Ġbesides": 11367,
  "ĠRecords": 11368,
  "ctrine": 11369,
  "Sheet": 11370,
  "Ġshade": 11371,
  "Ġtob": 11372,
  "oft": 11373,
  "andal": 11374,
  "Ġcurves": 11375,
  "à¸Ķ": 11376,
  "|Ġ": 11377,
  "Ġwrapped": 11378,
  "Ġges": 11379,
  "Ġgest": 11380,
  "Vec": 11381,
  "zeta": 11382,
  "rates": 11383,
  "Ġdependency": 11384,
  "ercise": 11385,
  "sz": 11386,
  "\"},": 11387,
  "\"},Ċ": 11388,
  "Bi": 11389,
  "Big": 11390,
  "Bit": 11391,
  "Ġsoup": 11392,
  "cluster": 11393,
  "ĠMagic": 11394,
  "sta": 11395,
  "stack": 11396,
  "star": 11397,
  "start": 11398,
  "stat": 11399,
  "static": 11400,
  "state": 11401,
  "status": 11402,
  "stats": 11403,
  "svg": 11404,
  "_ids": 11405,
  "')čĊ": 11406,
  "Lab": 11407,
  "Label": 11408,
  "Ġpaste": 11409,
  "lÃŃ": 11410,
  "Coll": 11411,
  "Ġasp": 11412,
  "Ġaspect": 11413,
  "Ġhelper": 11414,
  "HC": 11415,
  "_I": 11416,
  "_IN": 11417,
  "_ID": 11418,
  "Ġspeaks": 11419,
  "Ġstreaming": 11420,
  "ERY": 11421,
  "isor": 11422,
  "Ġcls": 11423,
  "Ġzo": 11424,
  "vir": 11425,
  "Ġvoted": 11426,
  "ĠHans": 11427,
  "shell": 11428,
  "hom": 11429,
  "home": 11430,
  "equiv": 11431,
  "character": 11432,
  "Ġprobable": 11433,
  "elson": 11434,
  "âĢ³": 11435,
  "vd": 11436,
  "fff": 11437,
  "ffff": 11438,
  "Try": 11439,
  "[key": 11440,
  "seen": 11441,
  "xit": 11442,
  "Ġrepeatedly": 11443,
  "ĠBlu": 11444,
  "ĠBlue": 11445,
  "Ġsymmet": 11446,
  "alias": 11447,
  "Ġobsc": 11448,
  "£¼": 11449,
  "proc": 11450,
  "Î²": 11451,
  "ĠGallery": 11452,
  "Leg": 11453,
  "ĠTalk": 11454,
  ",b": 11455,
  "(čĊ": 11456,
  "('\\": 11457,
  "prom": 11458,
  "âĢĻ,": 11459,
  "Ġ./": 11460,
  "ĠAth": 11461,
  "Ġpier": 11462,
  "ĠUV": 11463,
  "Ġgods": 11464,
  "ĠMoney": 11465,
  "Ġsends": 11466,
  "isely": 11467,
  "ĉl": 11468,
  "ĉlog": 11469,
  "iere": 11470,
  "Ġmagical": 11471,
  "Ġscripts": 11472,
  "Ġvom": 11473,
  "ĠAlways": 11474,
  "ĠPs": 11475,
  "ĠCe": 11476,
  "entes": 11477,
  "Os": 11478,
  "ĠEC": 11479,
  "Ġbeds": 11480,
  ".transform": 11481,
  "ĠTher": 11482,
  "ĠThere": 11483,
  "ĠTherefore": 11484,
  "mus": 11485,
  "Ġparas": 11486,
  "ĠlÃŃ": 11487,
  ".O": 11488,
  ".On": 11489,
  "à¤¾à¤¨": 11490,
  "Decl": 11491,
  "Ġfriendship": 11492,
  "Ġidi": 11493,
  "à´¤": 11494,
  "otation": 11495,
  "_)": 11496,
  "Ġ||Ċ": 11497,
  "rob": 11498,
  "Ġintelligent": 11499,
  "uter": 11500,
  "hang": 11501,
  "ĠISO": 11502,
  "Ġfifty": 11503,
  "uite": 11504,
  "ĠNat": 11505,
  "ĠNative": 11506,
  "ĠNations": 11507,
  "ĠNation": 11508,
  "oler": 11509,
  "adr": 11510,
  "ĉdata": 11511,
  "_REG": 11512,
  "Ġcitizen": 11513,
  "Ġcitizens": 11514,
  "helper": 11515,
  "ĠMexican": 11516,
  "Ġflip": 11517,
  "Ģà¸": 11518,
  "à¦²": 11519,
  "Ġexplaining": 11520,
  "Ġpins": 11521,
  "mploy": 11522,
  "ĠFam": 11523,
  "ĠFamily": 11524,
  "Ġmemb": 11525,
  "Ġmembers": 11526,
  "Ġmember": 11527,
  "Ġmembership": 11528,
  "Ġmembr": 11529,
  "ĠUsers": 11530,
  "Review": 11531,
  "udes": 11532,
  "lis": 11533,
  "lish": 11534,
  "list": 11535,
  "lished": 11536,
  "Ġestablish": 11537,
  "Ġestablished": 11538,
  "Ġestablishment": 11539,
  "English": 11540,
  "Ġaccompan": 11541,
  "Ġaccompanied": 11542,
  "Ġaccompany": 11543,
  "Ġalien": 11544,
  "anas": 11545,
  "nut": 11546,
  "Ġdiver": 11547,
  "Ġdivers": 11548,
  "Ġdiverse": 11549,
  "ĠDriver": 11550,
  "zie": 11551,
  "ĠHart": 11552,
  "Ġbust": 11553,
  "Ġ\"</": 11554,
  "mate": 11555,
  "mates": 11556,
  "Ġcomun": 11557,
  "ogg": 11558,
  "oggle": 11559,
  "ĠSL": 11560,
  "Ġbarely": 11561,
  "ĠEntity": 11562,
  "Ġcd": 11563,
  "Ġbite": 11564,
  "Ġ[âĢ¦": 11565,
  "habitants": 11566,
  "ĠPow": 11567,
  "ĠPower": 11568,
  "ĠEmb": 11569,
  "Ġ??": 11570,
  "Ġmedi": 11571,
  "Ġmedia": 11572,
  "Ġmedical": 11573,
  "Ġmedic": 11574,
  "Ġmedium": 11575,
  "Ġmedian": 11576,
  "great": 11577,
  "obl": 11578,
  "Ġcollecting": 11579,
  "Ġseal": 11580,
  "[x": 11581,
  "Ġmarginal": 11582,
  "cpu": 11583,
  "Ġdesigners": 11584,
  "Sche": 11585,
  "Schema": 11586,
  "-----": 11587,
  "tol": 11588,
  "ĠÃ¥": 11589,
  "Ġcompete": 11590,
  "ĠHur": 11591,
  "ĠYe": 11592,
  "ĠYes": 11593,
  "ĠYear": 11594,
  "ĠYet": 11595,
  "held": 11596,
  "Ġbullet": 11597,
  "SN": 11598,
  "áºŃ": 11599,
  "Ġ\"\"Ċ": 11600,
  "NR": 11601,
  "odi": 11602,
  "sent": 11603,
  "ĠMuch": 11604,
  "ĠWARRANTY": 11605,
  "Ġantic": 11606,
  "Ġanticip": 11607,
  "Ġharmony": 11608,
  "portion": 11609,
  "àµĨ": 11610,
  "Lat": 11611,
  "cls": 11612,
  ".fl": 11613,
  "ĠMol": 11614,
  "/'": 11615,
  "IDS": 11616,
  "Ġscrap": 11617,
  "Ġties": 11618,
  "ĠPresent": 11619,
  "arma": 11620,
  "ospel": 11621,
  "LOAD": 11622,
  ":.": 11623,
  "urop": 11624,
  "urope": 11625,
  "ĠĠĠĠĠĠĠĠĠĠĠĠĠĠĠĠ<": 11626,
  "specific": 11627,
  "conc": 11628,
  "Ġwrapper": 11629,
  "ĠToast": 11630,
  "Ġaug": 11631,
  "Ġpole": 11632,
  "anth": 11633,
  "Ġtrips": 11634,
  "ĠRap": 11635,
  "Psi": 11636,
  "expect": 11637,
  "expected": 11638,
  "Ġunexpected": 11639,
  "mont": 11640,
  "month": 11641,
  "Ġdatasets": 11642,
  "mass": 11643,
  "ĠDefense": 11644,
  "UX": 11645,
  "kh": 11646,
  "Ġsang": 11647,
  "Ġrc": 11648,
  "xs": 11649,
  "Õ¿": 11650,
  "Ġ{čĊčĊ": 11651,
  "ĠMonth": 11652,
  "ĠOTHER": 11653,
  "hentic": 11654,
  "nea": 11655,
  "Ġinspire": 11656,
  "Ġinspired": 11657,
  "ellen": 11658,
  "ellent": 11659,
  "follow": 11660,
  "ĠFed": 11661,
  "Ġhypothes": 11662,
  "Ġcrossed": 11663,
  "Ġpenet": 11664,
  "ĠUnityEngine": 11665,
  "ĠBry": 11666,
  "_up": 11667,
  "lf": 11668,
  "amo": 11669,
  "amos": 11670,
  "amount": 11671,
  "_def": 11672,
  "pleted": 11673,
  "Ġtremend": 11674,
  "ĠJosh": 11675,
  "Ġtwist": 11676,
  "esterday": 11677,
  "Ġyesterday": 11678,
  "unge": 11679,
  "ungen": 11680,
  "oons": 11681,
  "ulu": 11682,
  "ulum": 11683,
  "riculum": 11684,
  "ulus": 11685,
  ".File": 11686,
  "Ġmari": 11687,
  "ockey": 11688,
  "Ġrubber": 11689,
  "qq": 11690,
  "adora": 11691,
  "Ġachieving": 11692,
  "Actions": 11693,
  "Ms": 11694,
  "Msg": 11695,
  "ĠHold": 11696,
  "ĠMort": 11697,
  "stan": 11698,
  "stand": 11699,
  "stance": 11700,
  "stant": 11701,
  "standard": 11702,
  "Ġdst": 11703,
  "Ġcyl": 11704,
  "OG": 11705,
  "xture": 11706,
  "Texture": 11707,
  "ixture": 11708,
  ".i": 11709,
  ".id": 11710,
  ".in": 11711,
  ".is": 11712,
  ".io": 11713,
  ".int": 11714,
  "four": 11715,
  "fortun": 11716,
  "ĠByte": 11717,
  "ĠsiÄĻ": 11718,
  "#+": 11719,
  "variant": 11720,
  "CREATE": 11721,
  "Ġà¦¬": 11722,
  "Ġresistor": 11723,
  "ARNING": 11724,
  "cod": 11725,
  "code": 11726,
  "Ġah": 11727,
  "Ġahead": 11728,
  "ĠNotes": 11729,
  "Ġcheer": 11730,
  "/ĊĊ": 11731,
  "âķĲâķĲ": 11732,
  "ĠLev": 11733,
  "ĠLevel": 11734,
  "Ġ];": 11735,
  "ĠGP": 11736,
  "ĠGPIO": 11737,
  "Ġprotagon": 11738,
  "Ġratings": 11739,
  "eer": 11740,
  "_RO": 11741,
  "ĠFR": 11742,
  "ĠFROM": 11743,
  "ĠLl": 11744,
  "ĠSER": 11745,
  "Ġcamps": 11746,
  "rez": 11747,
  ".UI": 11748,
  "union": 11749,
  "ingham": 11750,
  "termin": 11751,
  "Ġpets": 11752,
  "Ġpicking": 11753,
  "Ġtobacco": 11754,
  "ĠAnne": 11755,
  "Temp": 11756,
  "Template": 11757,
  "ĠCollect": 11758,
  "ĠCollection": 11759,
  "Ġregards": 11760,
  ")$.": 11761,
  "iko": 11762,
  "omed": 11763,
  "Ġtard": 11764,
  ")}\\": 11765,
  "ĠRF": 11766,
  "Ġoccasions": 11767,
  "Super": 11768,
  "amen": 11769,
  "ament": 11770,
  "amente": 11771,
  "aments": 11772,
  "amento": 11773,
  "ournament": 11774,
  ",B": 11775,
  "Ġà¤¤": 11776,
  "Ġbass": 11777,
  "dn": 11778,
  "Ġhadn": 11779,
  "Ġmont": 11780,
  "Ġmonth": 11781,
  "Ġmonths": 11782,
  "Ġmonthly": 11783,
  "pril": 11784,
  "ieu": 11785,
  "Ġgig": 11786,
  "Ġpersistent": 11787,
  "mind": 11788,
  "Alt": 11789,
  "ĠBalt": 11790,
  "Ġtelev": 11791,
  "Ġrou": 11792,
  "Ġround": 11793,
  "Ġrout": 11794,
  "Ġroute": 11795,
  "Ġrough": 11796,
  "Ġroutine": 11797,
  "Ġrouter": 11798,
  "Ġroutes": 11799,
  "Ġroughly": 11800,
  "Ġlasting": 11801,
  "TI": 11802,
  "|-": 11803,
  "uras": 11804,
  "thead": 11805,
  "Ġdeclined": 11806,
  "Ġodds": 11807,
  "Ġranks": 11808,
  "Ġdonde": 11809,
  "Ġwheels": 11810,
  "icensed": 11811,
  "Âº": 11812,
  "Ġknife": 11813,
  "Ġsurf": 11814,
  "Ġsurface": 11815,
  "Ġsurfaces": 11816,
  "optim": 11817,
  "mad": 11818,
  "made": 11819,
  "neys": 11820,
[...]
