{
  "!": 0,
  "\"": 1,
  "#": 2,
  "$": 3,
  "%": 4,
  "&": 5,
  "'": 6,
  "(": 7,
  ")": 8,
  "*": 9,
  "+": 10,
  ",": 11,
  "-": 12,
  ".": 13,
  "/": 14,
  "0": 15,
  "1": 16,
  "2": 17,
  "3": 18,
  "4": 19,
  "5": 20,
  "6": 21,
  "7": 22,
  "8": 23,
  "9": 24,
  ":": 25,
  ";": 26,
  "<": 27,
  "=": 28,
  ">": 29,
  "?": 30,
  "@": 31,
  "A": 32,
  "B": 33,
  "C": 34,
  "D": 35,
  "E": 36,
  "F": 37,
  "G": 38,
  "H": 39,
  "I": 40,
  "J": 41,
  "K": 42,
  "L": 43,
  "M": 44,
  "N": 45,
  "O": 46,
  "P": 47,
  "Q": 48,
  "R": 49,
  "S": 50,
  "T": 51,
  "U": 52,
  "V": 53,
  "W": 54,
  "X": 55,
  "Y": 56,
  "Z": 57,
  "[": 58,
  "\\": 59,
  "]": 60,
  "^": 61,
  "_": 62,
  "`": 63,
  "a": 64,
  "b": 65,
  "c": 66,
  "d": 67,
  "e": 68,
  "f": 69,
  "g": 70,
  "h": 71,
  "i": 72,
  "j": 73,
  "k": 74,
  "l": 75,
  "m": 76,
  "n": 77,
  "o": 78,
  "p": 79,
  "q": 80,
  "r": 81,
  "s": 82,
  "t": 83,
  "u": 84,
  "v": 85,
  "w": 86,
  "x": 87,
  "y": 88,
  "z": 89,
  "{": 90,
  "|": 91,
  "}": 92,
  "~": 93,
  "�": 124311,
  "\u0000": 188,
  "\u0001": 189,
  "\u0002": 190,
  "\u0003": 191,
  "\u0004": 192,
  "\u0005": 193,
  "\u0006": 194,
  "\u0007": 195,
  "\b": 196,
  "\u000e": 197,
  "\u000f": 198,
  "\u0010": 199,
  "\u0011": 200,
  "\u0012": 201,
  "\u0013": 202,
  "\u0014": 203,
  "\u0015": 204,
  "\u0016": 205,
  "\u0017": 206,
  "\u0018": 207,
  "\u0019": 208,
  "\u001a": 209,
  "\u001b": 210,
  "": 211,
  "in": 246,
  "er": 247,
  " t": 248,
  " a": 249,
  "en": 250,
  "on": 251,
  "re": 252,
  " s": 253,
  "at": 254,
  "or": 255,
  "es": 256,
  "an": 257,
  " d": 258,
  "he": 259,
  " c": 260,
  " p": 261,
  "is": 262,
  "ar": 263,
  "it": 264,
  "al": 265,
  "le": 267,
  "ou": 268,
  " m": 269,
  " f": 270,
  " w": 271,
  " b": 272,
  "as": 273,
  "ing": 274,
  " the": 275,
  "ic": 276,
  "et": 277,
  " o": 278,
  "ion": 279,
  "ed": 280,
  "el": 281,
  " n": 282,
  "ro": 283,
  "ent": 284,
  " �": 127467,
  "nd": 286,
  "st": 287,
  "а": 289,
  " l": 290,
  " in": 291,
  ";\n": 292,
  "ct": 293,
  "om": 294,
  "il": 295,
  " h": 296,
  "am": 297,
  " =": 298,
  "id": 299,
  " to": 300,
  "о": 301,
  " e": 303,
  "ا": 304,
  "im": 305,
  " re": 306,
  " v": 307,
  "ad": 308,
  " th": 309,
  " and": 310,
  "е": 311,
  " of": 312,
  " g": 313,
  "ur": 314,
  "и": 315,
  "ch": 316,
  " de": 318,
  " S": 319,
  " u": 320,
  "т": 321,
  "ut": 322,
  "ol": 323,
  "н": 324,
  " y": 325,
  "ig": 326,
  "se": 327,
  "р": 328,
  "ot": 329,
  "em": 330,
  "ag": 331,
  "iv": 332,
  " (": 333,
  "qu": 334,
  " T": 335,
  " {": 336,
  " A": 337,
  "ay": 338,
  " I": 339,
  "ac": 341,
  "ul": 343,
  ");\n": 344,
  " C": 345,
  ".\n\n": 346,
  "os": 347,
  "if": 348,
  "od": 350,
  "с": 351,
  "tr": 352,
  " k": 353,
  "un": 354,
  "ل": 355,
  "--": 356,
  "est": 357,
  "é": 358,
  "ab": 359,
  "ate": 360,
  "ir": 361,
  " is": 363,
  "л": 364,
  "ow": 365,
  "us": 366,
  "ation": 368,
  " }": 369,
  "ort": 371,
  " M": 372,
  " \"": 373,
  "//": 374,
  "um": 375,
  " for": 376,
  "ie": 377,
  " P": 379,
  "ter": 380,
  "ce": 381,
  "our": 382,
  " on": 383,
  "ap": 384,
  "th": 385,
  " {\n": 386,
  " con": 387,
  "av": 388,
  "ers": 389,
  "**": 390,
  "te": 391,
  ",\n": 392,
  " be": 393,
  "م": 394,
  " D": 395,
  "()": 396,
  "و": 397,
  " B": 398,
  "end": 399,
  " st": 400,
  "ist": 401,
  "ak": 402,
  "ly": 403,
  "pe": 404,
  " *": 405,
  "ن": 406,
  "and": 407,
  " r": 408,
  "res": 410,
  "ub": 411,
  "oc": 412,
  "ر": 413,
  " al": 414,
  "ess": 416,
  "ith": 417,
  "’": 418,
  "о�": 419,
  " pro": 420,
  " j": 421,
  "у": 422,
  "ي": 423,
  "ame": 424,
  "ver": 425,
  ")\n": 426,
  "port": 427,
  " an": 428,
  "á": 429,
  "ä": 430,
  " L": 431,
  " com": 432,
  " ne": 433,
  " F": 434,
  "20": 435,
  "ass": 436,
  " E": 437,
  " se": 438,
  "lic": 439,
  " R": 440,
  " '": 441,
  "к": 442,
  " <": 444,
  "ы": 445,
  "ue": 446,
  "op": 447,
  "out": 448,
  " en": 449,
  "ht": 450,
  " wh": 451,
  " as": 452,
  " qu": 454,
  "ction": 455,
  "age": 457,
  " N": 458,
  "og": 459,
  " it": 460,
  " you": 461,
  "iz": 462,
  " with": 463,
  " that": 464,
  "..": 465,
  " W": 466,
  " H": 467,
  "ip": 468,
  "д": 469,
  "ex": 470,
  "int": 471,
  "ill": 472,
  "ant": 473,
  "urn": 474,
  " this": 475,
  " ا": 476,
  "art": 477,
  " tr": 478,
  " G": 479,
  "м": 480,
  " he": 481,
  ";\n\n": 482,
  " or": 483,
  "00": 484,
  " le": 485,
  "ik": 486,
  "ment": 487,
  "ore": 489,
  "rom": 490,
  "ere": 491,
  " ex": 492,
  "ine": 493,
  "ang": 495,
  "ت": 496,
  "----": 497,
  "ा": 498,
  "в": 499,
  "ind": 500,
  "get": 501,
  ">\n": 502,
  "ain": 503,
  "ok": 504,
  "ib": 505,
  "ud": 506,
  "pl": 507,
  "turn": 508,
  "ó": 509,
  " O": 510,
  " -": 511,
  "ect": 512,
  "ia": 513,
  "ity": 514,
  " un": 515,
  " if": 516,
  "ه": 517,
  " at": 518,
  "ی": 519,
  "con": 520,
  "per": 521,
  "я": 522,
  "ata": 524,
  "د": 525,
  " $": 526,
  " ch": 527,
  " pr": 528,
  "orm": 529,
  "ack": 530,
  " are": 531,
  "ile": 532,
  "pt": 533,
  "í": 534,
  " la": 535,
  ".\n": 536,
  "==": 538,
  "import": 539,
  "able": 540,
  "ial": 541,
  "ost": 542,
  "cl": 543,
  "ies": 544,
  " cl": 545,
  "(\"": 546,
  "ov": 547,
  "ust": 548,
  "ü": 550,
  "ö": 551,
  " i": 553,
  "ult": 554,
  "ave": 555,
  "nt": 556,
  " z": 557,
  "=\"": 558,
  " we": 559,
  "ld": 560,
  "ight": 561,
  "ublic": 562,
  "ive": 563,
  "all": 564,
  "ა": 565,
  "act": 566,
  " ال": 567,
  " from": 569,
  "å": 570,
  " su": 571,
  "ire": 572,
  "****": 573,
  "ell": 574,
  "ard": 575,
  "י": 576,
  "ser": 577,
  "tring": 578,
  " U": 579,
  " //": 580,
  "ice": 581,
  "ord": 582,
  " }\n": 584,
  "ff": 586,
  "->": 587,
  ";\r\n": 588,
  "ne": 589,
  "ı": 590,
  "de": 591,
  "ra": 592,
  "ь": 593,
  "ans": 594,
  "ide": 595,
  "ase": 596,
  "ա": 597,
  " new": 598,
  " do": 599,
  " return": 600,
  " The": 601,
  " not": 603,
  "ure": 604,
  "े": 605,
  "ast": 606,
  "ob": 607,
  " V": 608,
  "र": 609,
  " pl": 610,
  " your": 611,
  "з": 612,
  "In": 614,
  "pr": 615,
  "com": 616,
  ".s": 617,
  " sh": 618,
  "ime": 619,
  " J": 620,
  "are": 621,
  "ont": 622,
  " ar": 623,
  " п": 625,
  "ype": 626,
  " el": 627,
  "ite": 628,
  "س": 629,
  "ו": 630,
  "pp": 631,
  " by": 633,
  "ب": 634,
  " K": 635,
  " +": 636,
  " que": 638,
  "iew": 639,
  "ail": 640,
  "ч": 641,
  " can": 642,
  "п": 643,
  "201": 644,
  " me": 645,
  " с": 646,
  "ა�": 648,
  "\",": 649,
  " was": 650,
  "്": 651,
  "ace": 652,
  "ode": 653,
  " int": 654,
  "ach": 655,
  " have": 656,
  "ll": 657,
  "ij": 658,
  "्": 659,
  "г": 660,
  "ge": 661,
  "elf": 662,
  " par": 663,
  " ad": 664,
  "ი": 665,
  "str": 666,
  "one": 667,
  "rou": 668,
  " ab": 669,
  "”": 670,
  " res": 671,
  "St": 672,
  "ens": 673,
  "ف": 674,
  "du": 675,
  "form": 676,
  "10": 678,
  "ich": 679,
  "ç": 680,
  "ong": 681,
  "('": 682,
  "ð": 683,
  "à": 684,
  "ա�": 685,
  "cc": 686,
  "xt": 687,
  " :": 688,
  "ة": 689,
  "ра": 690,
  "ع": 691,
  "pon": 692,
  " get": 693,
  "ber": 694,
  "й": 695,
  "Re": 696,
  "ा�": 697,
  " all": 698,
  " [": 699,
  "х": 700,
  "ath": 701,
  "io": 702,
  "α": 703,
  "ject": 704,
  " te": 705,
  " In": 706,
  " des": 707,
  "і": 708,
  "ign": 709,
  ":\n": 710,
  "alue": 711,
  "ork": 712,
  "ve": 713,
  " will": 714,
  "}\n": 715,
  "();\n": 716,
  ").": 717,
  "::": 718,
  " в": 719,
  " class": 720,
  "{\n": 721,
  "lo": 722,
  "ome": 723,
  " Th": 724,
  "ст": 725,
  "ize": 726,
  " public": 727,
  " م": 728,
  "au": 729,
  "ull": 730,
  "ions": 732,
  "б": 733,
  " }\n\n": 734,
  " @": 735,
  "י�": 736,
  "der": 737,
  "ook": 738,
  "--------": 739,
  "ш": 740,
  " us": 741,
  "ance": 742,
  "ould": 743,
  " н": 744,
  " im": 746,
  "__": 747,
  "put": 748,
  "ient": 749,
  ".get": 751,
  "ен": 752,
  " per": 753,
  " vo": 754,
  "ext": 755,
  "ated": 756,
  "č": 757,
  "ق": 758,
  "yst": 759,
  "ous": 760,
  "ि": 761,
  "so": 762,
  "',": 763,
  "。": 764,
  "ple": 765,
  "ו�": 766,
  "ک": 767,
  "erv": 768,
  "ე": 769,
  "par": 771,
  "া": 772,
  "cr": 773,
  "ress": 774,
  "ck": 776,
  "’s": 777,
  "ert": 780,
  "ey": 781,
  "ount": 782,
  "</": 783,
  "ma": 784,
  " go": 785,
  "्�": 786,
  "š": 787,
  " so": 788,
  "ake": 789,
  "ary": 790,
  " и": 791,
  "up": 792,
  "vent": 793,
  "ory": 794,
  " /": 795,
  "ο": 796,
  "pro": 797,
  "τ": 798,
  "ã": 799,
  "ft": 800,
  " &": 801,
  " к": 802,
  " dis": 803,
  "ear": 804,
  " ma": 805,
  "്�": 806,
  "ә": 807,
  "unction": 808,
  " cont": 809,
  "err": 810,
  "_t": 811,
  "ystem": 812,
  "ी": 813,
  "ан": 814,
  " out": 815,
  "row": 816,
  " und": 817,
  "ug": 819,
  "ien": 820,
  " क": 821,
  "ah": 822,
  "ual": 823,
  "this": 824,
  "ock": 825,
  " has": 826,
  "we": 827,
  "fer": 828,
  "ე�": 829,
  "19": 831,
  " et": 832,
  " no": 833,
  ");\n\n": 834,
  "div": 835,
  " em": 836,
  "Name": 837,
  " Y": 838,
  "ER": 839,
  "ition": 840,
  " up": 841,
  "ك": 842,
  " =>": 843,
  "ri": 844,
  " man": 845,
  "ι": 846,
  "ery": 847,
  " pre": 848,
  "##": 849,
  " es": 850,
  " б": 851,
  " sa": 852,
  "ink": 853,
  "eng": 854,
  " д": 855,
  "ા": 856,
  "'s": 857,
  "ek": 858,
  " .": 859,
  " و": 860,
  " but": 861,
  "ε": 863,
  "ng": 864,
  " est": 865,
  "cre": 866,
  "ound": 867,
  "gr": 868,
  "name": 869,
  " na": 870,
  "12": 871,
  " St": 873,
  "்": 874,
  "app": 875,
  "====": 876,
  "ier": 877,
  "Id": 878,
  " Re": 879,
  "ree": 880,
  "Con": 881,
  "********": 882,
  "ि�": 883,
  "ր": 884,
  " о": 885,
  "ors": 886,
  "))": 887,
  "String": 888,
  "ে": 889,
  "ose": 890,
  "text": 891,
  " set": 892,
  "lect": 893,
  " my": 894,
  "ild": 895,
  "ц": 896,
  "ø": 897,
  "che": 898,
  " ب": 899,
  "ი�": 900,
  "ations": 901,
  "iel": 902,
  " т": 903,
  " */": 904,
  "ical": 905,
  "ann": 906,
  "to": 907,
  "),": 908,
  "ew": 909,
  "ов": 910,
  " am": 911,
  "own": 912,
  "ark": 913,
  "ther": 914,
  "}\n\n": 915,
  "ener": 916,
  " more": 917,
  " м": 918,
  "ps": 919,
  "ح": 921,
  "List": 922,
  " ==": 923,
  "ो": 924,
  "cept": 925,
  "ν": 926,
  "gh": 928,
  "è": 929,
  "Pro": 930,
  "odel": 931,
  " а": 932,
  "ph": 933,
  "ement": 934,
  "ings": 935,
  "add": 936,
  "IN": 937,
  " “": 938,
  "া�": 939,
  "ар": 940,
  "ike": 941,
  "ool": 942,
  " var": 943,
  "ade": 944,
  " ro": 945,
  "ON": 946,
  "The": 947,
  "set": 948,
  "ivate": 949,
  "，": 950,
  "und": 951,
  "ş": 952,
  " gr": 954,
  "ão": 956,
  "atch": 957,
  "ung": 958,
  " str": 959,
  "clud": 960,
  " op": 961,
  "Ex": 962,
  " inter": 963,
  "11": 964,
  " col": 966,
  " part": 967,
  "न": 968,
  "her": 969,
  ".l": 970,
  " one": 971,
  "vel": 972,
  "ick": 973,
  "ं": 974,
  "ater": 975,
  "rr": 976,
  "ec": 977,
  "...": 978,
  "iss": 979,
  " void": 980,
  "ج": 981,
  "ո": 982,
  "ton": 983,
  " sp": 984,
  "ר": 985,
  "क": 986,
  " ag": 987,
  "ž": 988,
  "ал": 989,
  "æ": 990,
  ".m": 991,
  " |": 992,
  " they": 993,
  "ер": 995,
  " const": 996,
  "ep": 997,
  "inal": 998,
  ")\n\n": 999,
  "ش": 1000,
  "ол": 1001,
  "les": 1002,
  " da": 1003,
  "return": 1004,
  "ат": 1005,
  " Ch": 1006,
  "tt": 1007,
  "enc": 1008,
  " our": 1009,
  " </": 1010,
  "ет": 1011,
  "ú": 1012,
  " their": 1013,
  "ays": 1014,
  " pe": 1015,
  "ા�": 1016,
  "me": 1017,
  "ove": 1018,
  " comp": 1019,
  " self": 1020,
  "ange": 1021,
  " app": 1022,
  "anc": 1023,
  "15": 1024,
  "bject": 1025,
  " def": 1026,
  "urr": 1027,
  " time": 1028,
  "Com": 1029,
  "quest": 1031,
  " any": 1032,
  "ă": 1033,
  "ado": 1034,
  "ж": 1035,
  "ven": 1036,
  " ob": 1037,
  "eth": 1038,
  " #": 1039,
  "fo": 1040,
  "az": 1041,
  " over": 1042,
  " !": 1043,
  "data": 1044,
  "ി": 1045,
  " die": 1046,
  " ک": 1047,
  " about": 1048,
  "ef": 1049,
  "্": 1050,
  ".c": 1051,
  "ence": 1052,
  " del": 1053,
  "led": 1054,
  " stat": 1055,
  "ю": 1056,
  "ss": 1057,
  "alse": 1058,
  "']": 1059,
  "ি": 1060,
  "\"\n": 1062,
  "ava": 1063,
  "ents": 1064,
  "ե": 1065,
  "ise": 1066,
  "View": 1067,
  ");\r\n": 1068,
  "RE": 1069,
  "“": 1070,
  " work": 1071,
  "ry": 1072,
  "pos": 1073,
  "ank": 1074,
  "val": 1075,
  "oy": 1077,
  "ит": 1078,
  "ish": 1079,
  "ն": 1080,
  " er": 1081,
  "eb": 1083,
  " function": 1084,
  "ال": 1085,
  "sh": 1086,
  "ST": 1087,
  " which": 1088,
  "pec": 1089,
  "oint": 1090,
  " ent": 1091,
  "reat": 1093,
  "ble": 1094,
  "16": 1095,
  "que": 1096,
  " –": 1097,
  "ix": 1098,
  "্�": 1099,
  "30": 1100,
  "…": 1101,
  "duct": 1102,
  "tem": 1103,
  "aw": 1104,
  " */\n": 1105,
  ".com": 1106,
  "line": 1107,
  "ે": 1108,
  "Th": 1109,
  "tion": 1111,
  "ز": 1112,
  "abel": 1113,
  "್": 1114,
  "Cont": 1115,
  "ор": 1116,
  " add": 1117,
  "sp": 1118,
  "ო": 1119,
  "\",\n": 1120,
  "ely": 1121,
  "irst": 1122,
  "ió": 1123,
  "public": 1124,
  " ت": 1125,
  "self": 1126,
  "18": 1127,
  "א": 1128,
  "mer": 1129,
  "uk": 1130,
  "25": 1131,
  " bl": 1132,
  "Type": 1133,
  " van": 1134,
  "ied": 1135,
  "rit": 1136,
  "ale": 1137,
  "σ": 1138,
  "essage": 1139,
  "arg": 1140,
  "\");\n": 1141,
  "ê": 1142,
  "ific": 1143,
  "ield": 1144,
  " _": 1145,
  "oll": 1146,
  "్": 1147,
  "õ": 1148,
  "200": 1149,
  "erm": 1150,
  "['": 1151,
  "uch": 1152,
  "dd": 1153,
  "ρ": 1154,
  "cess": 1155,
  "Data": 1156,
  "ć": 1157,
  " bu": 1158,
  " String": 1159,
  "vo": 1160,
  "co": 1161,
  "ל": 1162,
  " fe": 1163,
  "ada": 1164,
  "ان": 1165,
  ".f": 1166,
  "crip": 1167,
  "ה": 1168,
  " use": 1169,
  "ian": 1170,
  ".p": 1171,
  " else": 1172,
  "Res": 1173,
  "Ch": 1174,
  "ty": 1175,
  "eg": 1176,
  "ны": 1177,
  " para": 1178,
  " id": 1180,
  " é": 1181,
  "',\n": 1182,
  " x": 1183,
  " also": 1184,
  " who": 1185,
  " System": 1186,
  "ese": 1187,
  " à": 1188,
  "ervice": 1190,
  "\tif": 1191,
  " It": 1192,
  "э": 1193,
  " der": 1194,
  "AT": 1195,
  "ash": 1196,
  ".set": 1197,
  "ом": 1198,
  " his": 1199,
  "ox": 1200,
  "()\n": 1201,
  " на": 1202,
  " some": 1203,
  "umber": 1204,
  " data": 1205,
  "uth": 1206,
  "ID": 1207,
  "Col": 1208,
  ".S": 1209,
  "\":": 1210,
  "ի": 1211,
  " ver": 1212,
  "ator": 1213,
  "ner": 1214,
  "pect": 1215,
  " private": 1216,
  "ע": 1217,
  "igh": 1218,
  "any": 1219,
  " pos": 1220,
  "lement": 1221,
  "aj": 1222,
  " null": 1223,
  "்�": 1224,
  " Pro": 1225,
  " acc": 1226,
  "ел": 1227,
  " when": 1228,
  "EN": 1229,
  " स": 1230,
  " je": 1231,
  "14": 1232,
  " пр": 1233,
  "од": 1234,
  " end": 1235,
  "fig": 1236,
  "($": 1237,
  "ait": 1238,
  "ke": 1239,
  " other": 1240,
  "ى": 1241,
  "қ": 1242,
  "yn": 1243,
  " off": 1244,
  "_s": 1245,
  "Text": 1246,
  "old": 1247,
  "ger": 1248,
  "view": 1249,
  " af": 1250,
  " year": 1251,
  "_m": 1252,
  "erson": 1253,
  "ни": 1254,
  "als": 1255,
  "\">": 1256,
  "đ": 1257,
  "red": 1258,
  ".b": 1259,
  "read": 1260,
  " br": 1261,
  "ಿ": 1262,
  " з": 1263,
  "----------------": 1264,
  "tern": 1265,
  " like": 1266,
  "್�": 1267,
  "OR": 1268,
  "000": 1269,
  "_c": 1270,
  "ión": 1271,
  "ten": 1272,
  "ി�": 1273,
  "li": 1274,
  " name": 1275,
  " need": 1276,
  "ource": 1277,
  "13": 1278,
  "AR": 1279,
  " kn": 1280,
  "def": 1281,
  "urrent": 1282,
  "roup": 1283,
  "ception": 1284,
  "ł": 1285,
  "date": 1286,
  " di": 1287,
  "ص": 1288,
  "202": 1290,
  " reg": 1291,
  "ار": 1292,
  "ო�": 1293,
  " just": 1294,
  " This": 1295,
  "त": 1296,
  " act": 1297,
  "ute": 1298,
  "но": 1299,
  " org": 1300,
  " ser": 1301,
  " her": 1302,
  ".A": 1303,
  "_f": 1304,
  "wo": 1305,
  " been": 1306,
  " may": 1307,
  " les": 1308,
  " د": 1309,
  " true": 1310,
  "quire": 1311,
  "π": 1312,
  "ə": 1313,
  "let": 1314,
  "its": 1315,
  " min": 1316,
  "uct": 1317,
  " een": 1318,
  "ւ": 1319,
  "100": 1320,
  " there": 1321,
  "param": 1322,
  "son": 1323,
  "خ": 1324,
  " ل": 1325,
  "_p": 1326,
  "ict": 1327,
  "ai": 1328,
  "ax": 1329,
  "ating": 1332,
  " ,": 1333,
  " Un": 1334,
  "،": 1335,
  " rec": 1336,
  ".t": 1337,
  "ys": 1338,
  "ader": 1339,
  " them": 1340,
  " real": 1341,
  " ac": 1342,
  "cont": 1344,
  " che": 1345,
  "oun": 1346,
  ".d": 1347,
  "ates": 1348,
  " por": 1349,
  " ind": 1350,
  "า": 1351,
  "To": 1352,
  "ices": 1353,
  "itt": 1354,
  "Cl": 1355,
  "new": 1356,
  " Com": 1357,
  " ph": 1358,
  " hel": 1359,
  "\treturn": 1360,
  " comm": 1361,
  "、": 1362,
  "ి": 1363,
  "32": 1364,
  "utton": 1365,
  "LE": 1366,
  "ning": 1367,
  ":\n\n": 1368,
  " los": 1369,
  "\")": 1370,
  "ues": 1371,
  " co": 1372,
  "ط": 1373,
  " ह": 1374,
  "Tr": 1375,
  " what": 1377,
  " bet": 1378,
  "ond": 1379,
  " We": 1380,
  "arch": 1381,
  "ли": 1382,
  " ap": 1383,
  "trib": 1384,
  " met": 1385,
  "17": 1386,
  " ?": 1387,
  " >": 1388,
  "η": 1389,
  "////": 1390,
  "uf": 1391,
  "user": 1392,
  "vid": 1393,
  "ible": 1394,
  "yle": 1395,
  " value": 1396,
  "ς": 1397,
  "50": 1398,
  "น": 1399,
  "ength": 1400,
  "very": 1401,
  " ف": 1402,
  "ponse": 1403,
  "of": 1404,
  " fr": 1405,
  "iet": 1406,
  "ог": 1407,
  "class": 1408,
  " lo": 1409,
  "ault": 1410,
  "ask": 1411,
  " het": 1412,
  " у": 1413,
  "\";\n": 1414,
  "Ob": 1415,
  " av": 1416,
  "్�": 1417,
  "().": 1418,
  "ल": 1419,
  "ে�": 1421,
  " had": 1422,
  " val": 1423,
  " sc": 1424,
  "ages": 1425,
  " du": 1426,
  "ames": 1427,
  "be": 1428,
  "var": 1429,
  "ি�": 1430,
  "IT": 1432,
  " ה": 1433,
  "ф": 1434,
  "clude": 1436,
  " cons": 1437,
  " med": 1439,
  " det": 1440,
  "ument": 1441,
  "_l": 1442,
  "на": 1443,
  "ana": 1444,
  " would": 1445,
  "υ": 1446,
  "AL": 1447,
  "roll": 1448,
  " false": 1449,
  " Q": 1450,
  "پ": 1451,
  " Z": 1452,
  " type": 1453,
  "ole": 1454,
  "ular": 1455,
  "olum": 1456,
  "min": 1457,
  "24": 1458,
  " how": 1459,
  "स": 1460,
  "。\n\n": 1461,
  " dr": 1462,
  "AN": 1463,
  "ful": 1464,
  " dif": 1465,
  "til": 1466,
  "na": 1467,
  " were": 1468,
  "ہ": 1469,
  " ع": 1470,
  "'t": 1471,
  ".h": 1472,
  "####": 1473,
  "ople": 1474,
  " into": 1475,
  " sur": 1476,
  "ows": 1477,
  " Tr": 1478,
  "amp": 1479,
  " De": 1480,
  "air": 1481,
  " {\r\n": 1482,
  " cre": 1483,
  " make": 1484,
  "rol": 1485,
  "ina": 1486,
  "от": 1487,
  "ta": 1488,
  " א": 1489,
  "(f": 1490,
  "ու": 1491,
  "SE": 1493,
  "્": 1494,
  "ے": 1495,
  " Con": 1496,
  "ु": 1497,
  " result": 1498,
  "_b": 1499,
  " rel": 1500,
  "_id": 1501,
  "ات": 1502,
  " loc": 1503,
  "\">\n": 1504,
  "ics": 1505,
  "')": 1506,
  " sub": 1507,
  "error": 1508,
  "ethod": 1509,
  " )": 1510,
  "ze": 1511,
  " fl": 1512,
  "ી": 1513,
  " Se": 1514,
  "========": 1515,
  "્�": 1516,
  "af": 1517,
  "ह": 1518,
  "ho": 1519,
  " java": 1521,
  "ody": 1522,
  " म": 1523,
  "ml": 1524,
  "ts": 1525,
  " list": 1526,
  "ins": 1528,
  "_d": 1529,
  "ww": 1530,
  "ת": 1531,
  "En": 1532,
  "ా": 1533,
  "מ": 1534,
  " than": 1536,
  "’t": 1537,
  "ем": 1538,
  "itle": 1539,
  "ente": 1540,
  " first": 1541,
  "ica": 1542,
  " aw": 1543,
  "ę": 1544,
  " bo": 1545,
  "By": 1546,
  " प": 1547,
  "Se": 1548,
  "–": 1549,
  "Par": 1550,
  "je": 1551,
  " import": 1552,
  " tem": 1553,
  "Item": 1554,
  "ു": 1555,
  "]\n": 1556,
  " س": 1557,
  "value": 1558,
  "ious": 1559,
  "work": 1560,
  "ause": 1561,
  "print": 1562,
  "ка": 1563,
  "lick": 1564,
  "ule": 1565,
  " back": 1566,
  "ense": 1567,
  " start": 1568,
  " ein": 1569,
  " only": 1570,
  "(\n": 1571,
  " You": 1572,
  "ures": 1573,
  " ke": 1574,
  "ower": 1575,
  "**\n": 1576,
  "****************": 1577,
  "arr": 1578,
  " its": 1580,
  "raw": 1581,
  "ร": 1582,
  " fil": 1583,
  " string": 1584,
  "ces": 1585,
  " inform": 1586,
  "ą": 1587,
  " form": 1588,
  "ments": 1589,
  "ү": 1590,
  "urs": 1591,
  "ities": 1592,
  "ayer": 1593,
  " look": 1594,
  " let": 1595,
  " static": 1596,
  "ember": 1597,
  "day": 1598,
  " best": 1599,
  "म": 1600,
  "Value": 1601,
  "ler": 1602,
  " under": 1603,
  "ు": 1604,
  " trans": 1605,
  "ender": 1606,
  " most": 1607,
  " find": 1608,
  " person": 1609,
  " ed": 1610,
  "ustom": 1611,
  "ла": 1612,
  "].": 1613,
  " help": 1614,
  "olog": 1615,
  "ки": 1616,
  "string": 1617,
  " Wh": 1618,
  " ng": 1619,
  "ateg": 1620,
  "lection": 1621,
  "den": 1622,
  "oth": 1623,
  " rem": 1624,
  "ا�": 1625,
  "κ": 1626,
  " people": 1627,
  " !=": 1628,
  " Al": 1629,
  "أ": 1630,
  " car": 1631,
  "।": 1632,
  "const": 1633,
  "ி": 1634,
  "ọ": 1635,
  "ാ": 1636,
  "la": 1637,
  "ಿ�": 1638,
  "ед": 1639,
  "ğ": 1640,
  " He": 1641,
  " ass": 1642,
  "irect": 1643,
  " want": 1644,
  "ari": 1645,
  "://": 1646,
  "ession": 1647,
  "ren": 1648,
  "ան": 1649,
  " An": 1650,
  "ै": 1651,
  "ия": 1652,
  "bo": 1653,
  "={": 1654,
  "ு": 1655,
  "gram": 1656,
  ".D": 1657,
  "olumn": 1658,
  "br": 1659,
  " don": 1660,
  " long": 1661,
  "он": 1662,
  "!\n\n": 1663,
  " gu": 1664,
  " sk": 1665,
  "ern": 1666,
  "Im": 1667,
  "wa": 1668,
  "22": 1669,
  " inst": 1670,
  "load": 1671,
  "rough": 1672,
  " um": 1673,
  "?\n\n": 1675,
  "ha": 1676,
  "щ": 1677,
  " أ": 1678,
  "ets": 1679,
  "_C": 1680,
  " final": 1681,
  "μ": 1682,
  "40": 1683,
  " arr": 1684,
  " &&": 1685,
  "ב": 1686,
  "λ": 1687,
  " read": 1688,
  "ë": 1689,
  "ש": 1690,
  "อ": 1691,
  "orld": 1692,
  "uc": 1693,
  "];\n": 1694,
  "hed": 1695,
  ".F": 1696,
  "reak": 1697,
  "fr": 1698,
  "atus": 1699,
  " ge": 1700,
  "ой": 1701,
  " ve": 1702,
  "ting": 1703,
  "';\n": 1704,
  " test": 1705,
  "ção": 1706,
  "++": 1707,
  "no": 1709,
  "bl": 1710,
  "Object": 1711,
  " every": 1712,
  " Ar": 1713,
  " spec": 1714,
  "és": 1715,
  " should": 1716,
  "ponent": 1717,
  "ES": 1718,
  ".j": 1719,
  " know": 1720,
  "ood": 1721,
  "ility": 1722,
  "Exception": 1723,
  " sm": 1724,
  "נ": 1725,
  " mon": 1726,
  "[i": 1727,
  " cr": 1728,
  " she": 1729,
  " Ex": 1730,
  "wn": 1731,
  "\tpublic": 1732,
  " well": 1734,
  "ush": 1735,
  "ż": 1736,
  "ux": 1737,
  " pres": 1739,
  " sch": 1740,
  "ms": 1741,
  "да": 1742,
  " si": 1743,
  "yp": 1744,
  " den": 1745,
  "tra": 1746,
  "iver": 1747,
  "ാ�": 1748,
  "ager": 1749,
  " ن": 1750,
  "ಾ": 1751,
  " il": 1752,
  " exper": 1753,
  "ө": 1754,
  " som": 1755,
  "col": 1757,
  "ative": 1758,
  " г": 1759,
  "word": 1760,
  "reg": 1761,
  " hand": 1762,
  "url": 1763,
  "【": 1764,
  "try": 1765,
  "rap": 1766,
  "ons": 1767,
  "ream": 1768,
  "ily": 1769,
  "iness": 1770,
  " mod": 1771,
  "】": 1772,
  " dat": 1773,
  " then": 1774,
  "Get": 1775,
  "：": 1776,
  "ym": 1777,
  " through": 1778,
  "));\n": 1779,
  "use": 1780,
  "ccess": 1781,
  " pol": 1782,
  "uss": 1783,
  " user": 1784,
  " char": 1785,
  " inv": 1786,
  "aut": 1787,
  "fore": 1788,
  "idth": 1789,
  " opt": 1790,
  "ન": 1791,
  "arent": 1792,
  "ా�": 1793,
  ".n": 1794,
  "fl": 1795,
  "icht": 1796,
  "ats": 1797,
  " р": 1798,
  "ý": 1799,
  " require": 1800,
  "â": 1801,
  " If": 1802,
  "User": 1803,
  " sim": 1804,
  "using": 1805,
  "ends": 1806,
  " ч": 1807,
  " right": 1808,
  "serv": 1809,
  " %": 1810,
  " pass": 1812,
  "ka": 1813,
  "amb": 1814,
  "ி�": 1815,
  "��": 127536,
  "(s": 1817,
  " الم": 1818,
  "23": 1819,
  "þ": 1820,
  " },\n": 1821,
  "ის": 1822,
  " stud": 1823,
  "ί": 1824,
  "ui": 1825,
  "ية": 1826,
  "sert": 1827,
  " very": 1828,
  "ough": 1829,
  "ñ": 1830,
  "ife": 1831,
  "ais": 1832,
  "ref": 1833,
  "_S": 1834,
  "void": 1835,
  " As": 1836,
  "ior": 1837,
  " these": 1838,
  " web": 1839,
  "State": 1840,
  "ased": 1841,
  "):\n": 1842,
  "ു�": 1843,
  " dec": 1844,
  "ам": 1845,
  " sol": 1846,
  " product": 1847,
  " case": 1848,
  "ર": 1849,
  "ಾ�": 1850,
  "cond": 1851,
  "ებ": 1852,
  "CT": 1853,
  "\")\n": 1854,
  "key": 1856,
  " good": 1857,
  "ene": 1858,
  "ام": 1859,
  " mak": 1860,
  "ો": 1861,
  "ars": 1862,
  "ni": 1864,
  " cor": 1865,
  " ka": 1866,
  " vis": 1867,
  "60": 1868,
  "ե�": 1869,
  " bel": 1870,
  "ು": 1871,
  "lient": 1872,
  "rray": 1873,
  " prof": 1874,
  " dur": 1875,
  " down": 1876,
  " bus": 1877,
  " where": 1878,
  " two": 1879,
  " see": 1880,
  "unc": 1881,
  "De": 1882,
  "»": 1883,
  " sl": 1884,
  " post": 1885,
  " att": 1886,
  "perty": 1887,
  "Time": 1888,
  " pour": 1889,
  " aut": 1890,
  " high": 1891,
  "ся": 1892,
  " after": 1893,
  "rem": 1894,
  " ext": 1895,
  "php": 1896,
  "for": 1897,
  "cent": 1898,
  ".g": 1899,
  "ouse": 1900,
  "ru": 1901,
  "ackage": 1902,
  "ак": 1903,
  "ature": 1904,
  "ister": 1905,
  "ür": 1906,
  "UL": 1907,
  ".add": 1908,
  "[]": 1909,
  " even": 1910,
  "ational": 1911,
  " now": 1912,
  " Sh": 1913,
  "ara": 1914,
  " art": 1915,
  " And": 1916,
  " eff": 1917,
  "ouble": 1918,
  "ి�": 1919,
  "ote": 1920,
  "ience": 1921,
  "round": 1922,
  " men": 1924,
  " не": 1925,
  "ور": 1926,
  " una": 1927,
  "ider": 1928,
  "rror": 1929,
  "uff": 1930,
  "ivers": 1931,
  " file": 1932,
  "ando": 1933,
  "action": 1934,
  "ersion": 1935,
  "arn": 1936,
  "oin": 1937,
  ".st": 1938,
  "include": 1939,
  " sup": 1940,
  " mark": 1941,
  "Set": 1942,
  "ify": 1943,
  "ane": 1944,
  "rite": 1945,
  "umn": 1946,
  "els": 1947,
  "ин": 1948,
  " many": 1949,
  "arget": 1950,
  "Ind": 1951,
  " os": 1952,
  " las": 1953,
  " מ": 1954,
  "htt": 1955,
  " gl": 1956,
  "leg": 1957,
  "att": 1958,
  "play": 1959,
  " cal": 1961,
  " way": 1962,
  ".P": 1963,
  "_P": 1964,
  " much": 1965,
  ".C": 1966,
  "-s": 1967,
  "hr": 1968,
  "RO": 1969,
  "ט": 1970,
  ".M": 1971,
  "ayout": 1972,
  " bec": 1973,
  " Le": 1974,
  " dem": 1975,
  "press": 1976,
  " ho": 1977,
  "IC": 1978,
  " could": 1979,
  ".L": 1980,
  "(t": 1981,
  "ार": 1982,
  "ants": 1983,
  "ines": 1984,
  "28": 1985,
  " om": 1986,
  " ou": 1987,
  "lease": 1988,
  "प": 1989,
  "ր�": 1990,
  "Key": 1991,
  " New": 1992,
  "ride": 1993,
  "Service": 1994,
  "21": 1996,
  "র": 1997,
  "ու�": 1998,
  "ution": 1999,
  "ION": 2000,
  " ج": 2001,
  "roid": 2003,
  " ж": 2004,
  " while": 2005,
  "ced": 2006,
  "za": 2007,
  "DE": 2008,
  "='": 2009,
  "((": 2010,
  "่": 2011,
  "util": 2012,
  "item": 2013,
  "99": 2014,
  " said": 2015,
  "era": 2016,
  " used": 2017,
  "्र": 2018,
  "velop": 2019,
  " Pl": 2020,
  " من": 2021,
  "He": 2022,
  "ja": 2023,
  "org": 2024,
  " ל": 2025,
  "../": 2027,
  "emb": 2028,
  "Wh": 2029,
  "opy": 2030,
  " try": 2031,
  "ward": 2032,
  "wh": 2034,
  " fam": 2035,
  "');\n": 2036,
  "ino": 2037,
  "alk": 2038,
  "vis": 2039,
  "า�": 2040,
  " og": 2041,
  " number": 2042,
  "cription": 2043,
  "об": 2044,
  "ד": 2045,
  "ya": 2046,
  "Event": 2047,
  "rint": 2048,
  "27": 2049,
  " mo": 2050,
  " ב": 2052,
  " serv": 2053,
  "ό": 2054,
  "ос": 2055,
  " *\n": 2056,
  " years": 2058,
  "ocument": 2059,
  "ست": 2060,
  " event": 2061,
  " here": 2062,
  "ited": 2063,
  " play": 2064,
  " cas": 2065,
  "26": 2066,
  "ized": 2067,
  "ô": 2068,
  "cript": 2070,
  "ci": 2071,
  "ес": 2072,
  "ante": 2073,
  "land": 2074,
  "-b": 2075,
  "ación": 2076,
  "idad": 2077,
  "ೆ": 2079,
  " print": 2080,
  " ///": 2081,
  "aar": 2082,
  "-m": 2083,
  " X": 2084,
  "ض": 2085,
  " ه": 2086,
  " En": 2087,
  " fin": 2088,
  "ά": 2089,
  "log": 2090,
  "Info": 2091,
  " پ": 2092,
  "uit": 2093,
  "】【": 2094,
  "){\n": 2095,
  " ब": 2096,
  " key": 2097,
  "other": 2098,
  " log": 2099,
  "order": 2100,
  "ken": 2101,
  "(m": 2102,
  "ally": 2103,
  "());\n": 2104,
  "AM": 2105,
  " comple": 2106,
  "ন": 2107,
  "ư": 2108,
  "ama": 2109,
  "cho": 2110,
  "_T": 2111,
  "],": 2112,
  "ér": 2113,
  "kt": 2114,
  "AS": 2115,
  " On": 2117,
  "...\n\n": 2118,
  " في": 2119,
  " day": 2120,
  " information": 2121,
  "#include": 2122,
  "We": 2124,
  " ра": 2125,
  " item": 2126,
  "_n": 2127,
  " differ": 2128,
  "ttp": 2129,
  " pas": 2130,
  " last": 2131,
  "ET": 2132,
  "Button": 2133,
  "umm": 2134,
  "Sh": 2135,
  "dit": 2136,
  "alth": 2138,
  "UR": 2140,
  "ő": 2141,
  "이": 2142,
  " sin": 2143,
  " tak": 2144,
  " Cl": 2146,
  "то": 2148,
  " program": 2149,
  "ollow": 2150,
  " word": 2151,
  "ails": 2152,
  "Pl": 2153,
  "ғ": 2154,
  "ros": 2155,
  " includ": 2156,
  " text": 2157,
  "unt": 2158,
  "struct": 2160,
  "back": 2161,
  "'\n": 2163,
  " current": 2164,
  "ذ": 2165,
  "))\n": 2166,
  "mp": 2167,
  " great": 2168,
  " For": 2170,
  " ins": 2171,
  " ر": 2172,
  " gener": 2173,
  "arm": 2174,
  "On": 2175,
  "64": 2176,
  " ي": 2177,
  "ique": 2178,
  "An": 2179,
  "ва": 2180,
  "ga": 2181,
  " does": 2182,
  "roller": 2183,
  "atur": 2184,
  " fa": 2185,
  " --": 2186,
  "Qu": 2187,
  " sign": 2188,
  ".w": 2189,
  "pre": 2190,
  " because": 2191,
  " home": 2192,
  " such": 2193,
  "Model": 2194,
  " free": 2195,
  "80": 2196,
  " did": 2197,
  "At": 2198,
  " τ": 2199,
  ");": 2200,
  "Man": 2201,
  "ams": 2202,
  "ล": 2203,
  "ек": 2204,
  ".in": 2205,
  "Or": 2206,
  "ED": 2207,
  "tn": 2208,
  " before": 2209,
  "Error": 2210,
  " <<": 2211,
  "index": 2212,
  "ital": 2213,
  "ś": 2214,
  "UT": 2215,
  "ida": 2216,
  "ample": 2217,
  "ives": 2219,
  "Un": 2220,
  "ware": 2221,
  "_in": 2222,
  "ون": 2223,
  " num": 2224,
  "29": 2225,
  "им": 2226,
  "[\"": 2227,
  " process": 2228,
  "],\n": 2229,
  "uthor": 2230,
  "다": 2231,
  "ste": 2232,
  ")\r\n": 2233,
  "File": 2234,
  "comm": 2235,
  " provid": 2236,
  "rop": 2238,
  " Pr": 2239,
  "ache": 2240,
  "ector": 2241,
  "loat": 2242,
  "ил": 2243,
  " ya": 2244,
  "01": 2245,
  "IS": 2246,
  "ี": 2247,
  "ás": 2248,
  "ido": 2249,
  " online": 2250,
  " voor": 2251,
  "Over": 2252,
  "oad": 2253,
  "face": 2254,
  "fe": 2256,
  "Request": 2257,
  " take": 2258,
  "As": 2259,
  "ional": 2260,
  "Map": 2261,
  "oh": 2262,
  "man": 2263,
  " ste": 2264,
  "chn": 2265,
  " Fr": 2266,
  "),\n": 2267,
  " ש": 2268,
  " own": 2269,
  " Res": 2270,
  "file": 2271,
  "go": 2272,
  " child": 2273,
  "ग": 2274,
  "—": 2275,
  "enu": 2276,
  "Color": 2277,
  " view": 2278,
  "Ar": 2279,
  "ours": 2280,
  " cap": 2281,
  " के": 2282,
  " न": 2283,
  " das": 2284,
  "imes": 2285,
  " მ": 2287,
  " q": 2288,
  "td": 2289,
  "':": 2290,
  " break": 2291,
  "vert": 2292,
  "iter": 2293,
  " arg": 2294,
  ".W": 2295,
  "ared": 2296,
  " top": 2297,
  "by": 2298,
  "ually": 2299,
  "erg": 2300,
  "Al": 2301,
  " size": 2302,
  "ason": 2303,
  "atic": 2304,
  "ains": 2305,
  " sit": 2306,
  "ailable": 2307,
  "ocation": 2308,
  " show": 2309,
  " ce": 2310,
  "....": 2311,
  " model": 2312,
  " using": 2313,
  "ң": 2314,
  "enn": 2315,
  "ini": 2316,
  " design": 2317,
  "ين": 2318,
  "rc": 2319,
  "ism": 2320,
  "Index": 2321,
  " за": 2322,
  " sal": 2323,
  " check": 2324,
  "_M": 2325,
  " {\n\n": 2326,
  "ვ": 2327,
  " world": 2328,
  " ज": 2329,
  "eter": 2330,
  "-t": 2331,
  "ول": 2332,
  "ijn": 2333,
  " \\": 2334,
  "ament": 2335,
  "्य": 2336,
  " week": 2337,
  "ு�": 2339,
  " э": 2340,
  "ק": 2341,
  "lication": 2342,
  " л": 2343,
  " son": 2344,
  " book": 2345,
  " dé": 2346,
  "Element": 2347,
  " him": 2348,
  "itch": 2349,
  "lete": 2350,
  " ||": 2351,
  " ش": 2352,
  "Form": 2353,
  "ие": 2354,
  "(self": 2355,
  " mit": 2356,
  " е": 2357,
  "ght": 2358,
  "(n": 2359,
  "(p": 2360,
  "do": 2361,
  "ivity": 2362,
  "(c": 2363,
  " think": 2364,
  "ого": 2365,
  " business": 2366,
  "Test": 2367,
  " «": 2368,
  "AD": 2369,
  " tot": 2370,
  " again": 2371,
  " system": 2372,
  " call": 2373,
  "ye": 2374,
  " prote": 2375,
  "ico": 2376,
  "ua": 2377,
  "ados": 2378,
  " cent": 2379,
  " pa": 2380,
  "(this": 2381,
  "ח": 2382,
  "ih": 2383,
  "ות": 2384,
  " zu": 2385,
  "AC": 2387,
  "package": 2388,
  " point": 2389,
  " Be": 2390,
  "ים": 2391,
  "ott": 2392,
  " х": 2393,
  " produ": 2394,
  "ث": 2395,
  " Col": 2396,
  "ั": 2397,
  " being": 2398,
  "oto": 2399,
  " rep": 2400,
  " mat": 2401,
  "ideo": 2402,
  " made": 2403,
  "ios": 2404,
  " each": 2405,
  "oot": 2406,
  " poss": 2407,
  "();\n\n": 2408,
  "ля": 2410,
  "right": 2411,
  " run": 2412,
  " une": 2414,
  "ero": 2415,
  "‌": 2416,
  "35": 2418,
  "gen": 2419,
  "-d": 2420,
  "aterial": 2421,
  "Int": 2422,
  " ha": 2423,
  " अ": 2424,
  "export": 2425,
  " place": 2426,
  " ‘": 2427,
  "ident": 2428,
  " qual": 2429,
  "ир": 2430,
  "ape": 2431,
  "ರ": 2432,
  " po": 2433,
  "_name": 2434,
  "ks": 2435,
  "ā": 2436,
  "Le": 2437,
  " है": 2438,
  "oken": 2439,
  " cle": 2440,
  " soc": 2441,
  " found": 2442,
  "گ": 2443,
  "type": 2444,
  " open": 2445,
  "ें": 2446,
  " ist": 2447,
  "פ": 2448,
  " support": 2449,
  "This": 2450,
  " create": 2451,
  " Gr": 2452,
  "ụ": 2453,
  "hip": 2454,
  "ora": 2455,
  " pat": 2456,
  "Date": 2457,
  "ather": 2458,
  "ס": 2459,
  "////////": 2460,
  "come": 2462,
  " To": 2464,
  "')\n": 2465,
  " __": 2466,
  "ollection": 2467,
  ".”": 2468,
  "_st": 2469,
  "po": 2470,
  "ু": 2471,
  "result": 2472,
  "Context": 2473,
  "‍": 2475,
  "ها": 2476,
  " como": 2477,
  "ей": 2478,
  "ala": 2479,
  "da": 2480,
  "ined": 2481,
  "Box": 2483,
  "ок": 2484,
  "istr": 2485,
  "ql": 2486,
  "olean": 2487,
  "create": 2488,
  "ож": 2489,
  " super": 2490,
  "ters": 2491,
  "ende": 2492,
  "nen": 2493,
  " line": 2494,
  "ween": 2495,
  " All": 2496,
  "33": 2497,
  "(),": 2498,
  "45": 2499,
  "ists": 2500,
  " ...": 2501,
  "Size": 2502,
  " cho": 2503,
  "sole": 2504,
  "vice": 2505,
  "व": 2506,
  " ku": 2507,
  " partic": 2508,
  "orn": 2509,
  "ৰ": 2510,
  ".e": 2511,
  "une": 2512,
  "App": 2514,
  "icense": 2515,
  " ni": 2516,
  "Of": 2517,
  "ocal": 2518,
  "ай": 2519,
  " order": 2520,
  " service": 2521,
  "(d": 2523,
  "ainer": 2524,
  "έ": 2525,
  " develop": 2526,
  "lected": 2527,
  " ح": 2528,
  "Add": 2529,
  "Class": 2530,
  "ita": 2531,
  "iment": 2532,
  "اد": 2533,
  " App": 2534,
  "ync": 2535,
  "Em": 2536,
  "input": 2537,
  "द": 2538,
  "ía": 2539,
  "ן": 2540,
  " contin": 2541,
  ".util": 2542,
  " /**\n": 2543,
  "lich": 2544,
  "All": 2545,
  " method": 2546,
  " );\n": 2547,
  "indow": 2548,
  "لى": 2549,
  "itor": 2550,
  ".T": 2551,
  "\"]": 2552,
  " custom": 2553,
  "െ": 2554,
  " Or": 2555,
  " quest": 2557,
  " ক": 2558,
  " state": 2559,
  "ige": 2560,
  "Field": 2561,
  ".B": 2562,
  " className": 2563,
  "pace": 2564,
  "pany": 2565,
  " next": 2566,
  "ploy": 2567,
  " life": 2568,
  " request": 2569,
  " those": 2570,
  "!!": 2571,
  "Path": 2572,
  "ctions": 2573,
  " eas": 2574,
  " follow": 2575,
  "trans": 2576,
  "loy": 2577,
  "search": 2578,
  "ா": 2579,
  "itial": 2580,
  "indows": 2582,
  "ị": 2583,
  " द": 2584,
  " care": 2585,
  " So": 2586,
  "ira": 2587,
  "غ": 2588,
  "ын": 2589,
  "36": 2590,
  " mu": 2591,
  " خ": 2592,
  " vol": 2593,
  " vi": 2594,
  "list": 2595,
  "tract": 2596,
  "ump": 2597,
  " array": 2598,
  "icle": 2599,
  "Ad": 2600,
  " different": 2601,
  "(new": 2602,
  "aining": 2603,
  " oper": 2604,
  " र": 2605,
  "­": 2606,
  "For": 2607,
  "IL": 2608,
  " List": 2609,
  " prov": 2610,
  "Up": 2612,
  ".log": 2613,
  "უ�": 2614,
  "้": 2615,
  " beg": 2616,
  "<?": 2617,
  "ас": 2618,
  " expect": 2619,
  "raph": 2620,
  " mov": 2621,
  "rows": 2622,
  "wer": 2624,
  " dans": 2625,
  " Sch": 2626,
  " Te": 2627,
  " mar": 2628,
  " व": 2629,
  " ल": 2630,
  "ots": 2631,
  "\"\n\n": 2632,
  "ост": 2633,
  "ത": 2634,
  " organ": 2635,
  "ias": 2636,
  "เ�": 2637,
  " same": 2638,
  "AP": 2639,
  " Ad": 2640,
  "î": 2641,
  "define": 2642,
  ".app": 2643,
  "iving": 2644,
  "########": 2645,
  " coun": 2646,
  " intern": 2647,
  "ING": 2648,
  "less": 2649,
  "][": 2650,
  "._": 2651,
  " local": 2652,
  "LO": 2653,
  " `": 2654,
  "Node": 2655,
  " site": 2656,
  "nect": 2657,
  "ura": 2659,
  "function": 2660,
  " rece": 2661,
  "stance": 2662,
  " });\n": 2663,
  "ന": 2664,
  " proble": 2665,
  "men": 2666,
  " style": 2667,
  " ref": 2668,
  " really": 2669,
  "ird": 2670,
  "ela": 2671,
  "כ": 2672,
  "Log": 2673,
  "ified": 2674,
  "____": 2675,
  "omb": 2676,
  "},\n": 2677,
  "Array": 2679,
  "uil": 2680,
  "ission": 2681,
  "γ": 2682,
  "_F": 2683,
  " ik": 2684,
  "span": 2685,
  "ру": 2686,
  " —": 2687,
  "та": 2688,
  " pop": 2689,
  "\tc": 2690,
  "--------------------------------": 2691,
  " writ": 2692,
  "Message": 2693,
  "ric": 2694,
  "tribut": 2695,
  "(int": 2696,
  " sem": 2697,
  "90": 2698,
  "ں": 2699,
  "Component": 2700,
  " ->": 2701,
  "Group": 2702,
  "ు�": 2703,
  " ide": 2704,
  "ili": 2705,
  "ished": 2707,
  "ato": 2708,
  "ს": 2710,
  " +=": 2711,
  " main": 2712,
  "site": 2713,
  "OM": 2714,
  " Ind": 2715,
  "य": 2716,
  " Is": 2717,
  "ever": 2718,
  "atab": 2719,
  "mit": 2720,
  " sw": 2721,
  "ց": 2722,
  "inc": 2723,
  "Result": 2724,
  "는": 2725,
  "ways": 2726,
  "urch": 2727,
  " आ": 2728,
  "Manager": 2729,
  " net": 2730,
  " pay": 2731,
  " đ": 2732,
  "ии": 2733,
  " qui": 2734,
  "ิ": 2735,
  "ત": 2736,
  "િ": 2737,
  " /*": 2738,
  "sc": 2739,
  " default": 2740,
  "ದ": 2741,
  "70": 2742,
  "Image": 2743,
  " au": 2744,
  "ர": 2745,
  "ې": 2746,
  " exp": 2747,
  "ง": 2748,
  "ू": 2749,
  " commun": 2750,
  " (!": 2751,
  "ency": 2752,
  "Override": 2753,
  " equ": 2754,
  "lock": 2755,
  " must": 2757,
  " dan": 2758,
  "ω": 2759,
  "else": 2760,
  "pty": 2761,
  "Config": 2763,
  " von": 2764,
  " game": 2765,
  " от": 2766,
  " conf": 2767,
  "ness": 2768,
  " object": 2769,
  "Act": 2770,
  "ß": 2771,
  "ств": 2772,
  "વ": 2773,
  "tes": 2774,
  " direct": 2775,
  "OT": 2776,
  "();\r\n": 2777,
  " ו": 2778,
  " fun": 2779,
  "ENT": 2781,
  "ม": 2782,
  "erc": 2783,
  "ti": 2784,
  "IM": 2785,
  " dep": 2786,
  "irm": 2787,
  "Code": 2788,
  "heck": 2789,
  "ross": 2790,
  " available": 2791,
  " fact": 2792,
  "ক": 2793,
  " ق": 2794,
  "88": 2795,
  " hab": 2796,
  "from": 2797,
  " around": 2798,
  "ти": 2799,
  "ত": 2800,
  "är": 2801,
  "Des": 2802,
  "uck": 2803,
  "ijk": 2804,
  ".print": 2805,
  "html": 2806,
  " Sp": 2807,
  "aff": 2808,
  ".id": 2809,
  ".re": 2810,
  "ization": 2811,
  "stand": 2812,
  " cu": 2813,
  "Val": 2814,
  "off": 2815,
  " Br": 2816,
  " rest": 2817,
  " ta": 2818,
  " ()": 2819,
  " between": 2820,
  " cour": 2821,
  "મ": 2822,
  "va": 2823,
  "Not": 2824,
  ">\r\n": 2825,
  "ör": 2826,
  "not": 2827,
  " ა�": 2828,
  " დ": 2829,
  " ret": 2830,
  "ee": 2831,
  "ium": 2832,
  "uro": 2833,
  "cul": 2834,
  "With": 2835,
  "-l": 2836,
  " wer": 2838,
  " old": 2839,
  " say": 2840,
  "iles": 2841,
  " non": 2842,
  "ée": 2843,
  "HE": 2844,
  " Me": 2845,
  "plate": 2846,
  "over": 2847,
  " mais": 2848,
  "================": 2849,
  "por": 2850,
  "http": 2851,
  "posit": 2852,
  "ically": 2853,
  "ક": 2854,
  "oss": 2855,
  "ג": 2856,
  "orth": 2857,
  " market": 2858,
  "31": 2859,
  "AB": 2860,
  "omen": 2861,
  " term": 2862,
  " error": 2863,
  "ags": 2864,
  "odule": 2865,
  " cert": 2866,
  " ti": 2867,
  "vir": 2868,
  "05": 2870,
  " pu": 2871,
  "اب": 2872,
  " android": 2873,
  "UN": 2874,
  " mus": 2875,
  " still": 2876,
  " ang": 2877,
  "(String": 2878,
  "pen": 2879,
  " plus": 2880,
  " auf": 2881,
  "ή": 2882,
  " without": 2883,
  "ав": 2884,
  "რ": 2885,
  "Pr": 2886,
  "crib": 2887,
  "obal": 2888,
  "Hand": 2889,
  " Get": 2890,
  "ln": 2891,
  " month": 2892,
  "ий": 2893,
  " ak": 2894,
  "Controller": 2895,
  " mas": 2896,
  "ubl": 2897,
  "ать": 2898,
  ".r": 2899,
  " US": 2900,
  " ك": 2901,
  "aan": 2902,
  "ito": 2903,
  "./": 2904,
  "_D": 2905,
  "ilter": 2906,
  " disc": 2907,
  " offer": 2908,
  " err": 2909,
  "ron": 2910,
  "/*": 2912,
  " going": 2913,
  "ान": 2914,
  "ם": 2915,
  "iven": 2917,
  "AG": 2918,
  "ential": 2919,
  " both": 2920,
  " ben": 2921,
  "query": 2922,
  "ift": 2923,
  " ব": 2924,
  "vol": 2925,
  "ег": 2926,
  "nection": 2928,
  " ш": 2929,
  " স": 2930,
  "ading": 2931,
  "ULL": 2932,
  "Sc": 2933,
  "pons": 2934,
  "ис": 2935,
  "anel": 2936,
  "bar": 2937,
  "37": 2938,
  "older": 2939,
  " project": 2940,
  "ര": 2941,
  "ena": 2942,
  "reate": 2943,
  "tribute": 2944,
  "teger": 2945,
  " max": 2946,
  "04": 2947,
  "met": 2948,
  "-f": 2949,
  "></": 2950,
  " No": 2951,
  "ategory": 2952,
  " put": 2953,
  "ք": 2954,
  "ny": 2955,
  "ati": 2956,
  "ali": 2957,
  " page": 2958,
  "ipp": 2959,
  "र्�": 2960,
  " }\r\n": 2961,
  "ก": 2962,
  "}\r\n": 2963,
  " Americ": 2964,
  "ftware": 2965,
  " report": 2966,
  "34": 2967,
  "oney": 2968,
  "ー": 2969,
  "n't": 2970,
  " build": 2971,
  "aving": 2972,
  "ου": 2973,
  "ingle": 2974,
  "Fr": 2975,
  "ummary": 2976,
  " uma": 2977,
  "Is": 2978,
  " incre": 2979,
  "ground": 2980,
  " happ": 2981,
  "ology": 2982,
  "оз": 2983,
  ">\n\n": 2984,
  " La": 2985,
  "ার": 2986,
  "adi": 2987,
  " ann": 2988,
  "US": 2989,
  "С": 2990,
  "ved": 2991,
  "ittle": 2992,
  " love": 2993,
  "ani": 2994,
  "ո�": 2995,
  " leg": 2996,
  "ҳ": 2997,
  "oud": 2998,
  " client": 2999,
  "isplay": 3000,
  " seg": 3001,
  "code": 3002,
  " Ob": 3003,
  " ક": 3004,
  "য়": 3005,
  " ს": 3006,
  "ল": 3007,
  "08": 3008,
  " come": 3009,
  "www": 3010,
  "ế": 3011,
  "_re": 3013,
  "ypes": 3014,
  " ter": 3015,
  "thing": 3016,
  "#define": 3017,
  " But": 3018,
  "ustr": 3019,
  "А": 3020,
  " als": 3021,
  "ур": 3022,
  " об": 3023,
  "ъ": 3024,
  " ba": 3025,
  "_N": 3026,
  " std": 3027,
  "inter": 3028,
  "ુ": 3029,
  "sg": 3030,
  "the": 3031,
  "lar": 3032,
  "ò": 3033,
  " color": 3034,
  "ạ": 3035,
  "ด": 3036,
  "book": 3037,
  "dition": 3038,
  " fri": 3039,
  "api": 3040,
  "ume": 3041,
  "private": 3042,
  " cost": 3043,
  "ards": 3044,
  " second": 3045,
  " content": 3046,
  " too": 3047,
  "rist": 3048,
  "ba": 3049,
  " path": 3050,
  " ग": 3051,
  " Qu": 3052,
  "에": 3053,
  "ogle": 3054,
  ".is": 3055,
  "из": 3056,
  "PE": 3057,
  "ара": 3058,
  "ika": 3059,
  "09": 3060,
  " eng": 3061,
  ".length": 3062,
  " Cont": 3063,
  "П": 3064,
  "ير": 3065,
  " few": 3066,
  "zi": 3067,
  " প": 3068,
  " wa": 3069,
  " hist": 3070,
  " für": 3071,
  "creen": 3072,
  "):": 3073,
  "ben": 3074,
  "ki": 3075,
  " Bl": 3076,
  "하": 3077,
  "ference": 3078,
  " Im": 3079,
  " port": 3081,
  " aan": 3082,
  "ano": 3083,
  "ائ": 3084,
  "resent": 3085,
  "pring": 3086,
  "оль": 3087,
  "{\r\n": 3088,
  "Layout": 3089,
  "]\n\n": 3090,
  " Mar": 3091,
  " ré": 3092,
  " lim": 3093,
  "inn": 3094,
  " full": 3095,
  "38": 3096,
  "55": 3098,
  " appro": 3099,
  "config": 3100,
  " pod": 3101,
  "ief": 3102,
  "ئ": 3103,
  " access": 3104,
  " effect": 3105,
  "No": 3106,
  "-p": 3107,
  "OL": 3108,
  " kan": 3109,
  " They": 3110,
  " ja": 3111,
  "ification": 3112,
  "Param": 3113,
  " Ph": 3114,
  "ან": 3115,
  "cle": 3116,
  "eld": 3117,
  "\").": 3118,
  "07": 3119,
  " company": 3121,
  " message": 3122,
  " त": 3123,
  "lex": 3124,
  "ona": 3125,
  " stand": 3126,
  "ো": 3127,
  "chen": 3128,
  "assword": 3129,
  "Response": 3130,
  " spe": 3131,
  "ब": 3132,
  " head": 3133,
  "test": 3134,
  "ʻ": 3135,
  "vec": 3136,
  "Gr": 3137,
  " ko": 3138,
  " feel": 3139,
  " Des": 3140,
  "valid": 3141,
  "label": 3142,
  "lt": 3143,
  "ips": 3144,
  "_B": 3145,
  " kom": 3146,
  " IN": 3147,
  "199": 3148,
  "IG": 3149,
  "It": 3150,
  "px": 3151,
  " pot": 3152,
  "ં": 3153,
  " zijn": 3154,
  " level": 3155,
  "oci": 3156,
  " document": 3157,
  " team": 3158,
  " mill": 3159,
  " \"\"": 3160,
  "med": 3161,
  "06": 3162,
  " enc": 3163,
  "pert": 3164,
  " bas": 3165,
  "Opt": 3166,
  " ہ": 3167,
  "ework": 3168,
  " mem": 3169,
  "ima": 3170,
  "Out": 3171,
  "max": 3172,
  "(b": 3173,
  " health": 3174,
  ".pro": 3175,
  "ables": 3176,
  ".Cont": 3177,
  "Status": 3178,
  "500": 3179,
  "iones": 3181,
  "Be": 3182,
  " sure": 3183,
  " experience": 3184,
  " El": 3185,
  " ст": 3186,
  "place": 3187,
  "zen": 3188,
  " invest": 3189,
  "ț": 3190,
  "aces": 3191,
  "Trans": 3192,
  "gg": 3193,
  "content": 3196,
  " How": 3197,
  "FF": 3198,
  "39": 3199,
  " إ": 3200,
  "char": 3201,
  "ending": 3202,
  " field": 3203,
  "idget": 3204,
  " lot": 3205,
  "Ent": 3207,
  "cur": 3208,
  " Man": 3209,
  "χ": 3210,
  "fect": 3211,
  " ca": 3212,
  " الت": 3213,
  " )\n": 3214,
  "alt": 3215,
  "ething": 3216,
  "ination": 3217,
  " There": 3218,
  "Input": 3219,
  "ived": 3220,
  " я": 3221,
  " қ": 3222,
  "ories": 3223,
  "pecial": 3224,
  "을": 3225,
  " imp": 3226,
  " things": 3227,
  " mag": 3228,
  "02": 3230,
  "init": 3231,
  " ir": 3232,
  "én": 3233,
  "ா�": 3234,
  " small": 3235,
  "elt": 3236,
  " table": 3237,
  "mb": 3238,
  "isk": 3239,
  "న": 3240,
  "ակ": 3241,
  " iss": 3242,
  "uffer": 3243,
  "ille": 3245,
  "len": 3246,
  "ज": 3247,
  "tings": 3248,
  "uration": 3249,
  " по": 3250,
  "cer": 3251,
  "true": 3252,
  "​": 3253,
  " License": 3255,
  " won": 3256,
  " ki": 3257,
  "ക": 3258,
  " sex": 3259,
  " mom": 3260,
  " ü": 3261,
  " protect": 3262,
  "System": 3263,
  "ling": 3264,
  " response": 3265,
  "angu": 3266,
  " always": 3267,
  "Page": 3268,
  " Amer": 3270,
  "ต": 3271,
  "OD": 3272,
  "ट": 3273,
  " consider": 3274,
  "room": 3275,
  " present": 3276,
  " tu": 3277,
  "If": 3278,
  "44": 3279,
  "եր": 3280,
  ".out": 3281,
  "Util": 3282,
  " вы": 3284,
  " में": 3285,
  " change": 3286,
  "acter": 3287,
  " ans": 3288,
  " perform": 3289,
  " job": 3291,
  "ves": 3292,
  "atures": 3293,
  " range": 3294,
  " А": 3295,
  " during": 3296,
  "δ": 3297,
  " keep": 3298,
  " review": 3299,
  "บ": 3300,
  "OS": 3301,
  "array": 3302,
  " prom": 3303,
  "igen": 3304,
  "image": 3306,
  "ель": 3307,
  "\tthis": 3308,
  "********************************": 3309,
  "object": 3310,
  ";\r\n\r\n": 3311,
  " Par": 3312,
  "ం�": 3313,
  "ў": 3314,
  "opt": 3315,
  "ids": 3316,
  " days": 3317,
  " important": 3318,
  " П": 3319,
  " Sc": 3320,
  "ought": 3321,
  " آ": 3322,
  "ర": 3323,
  "75": 3324,
  "の": 3325,
  " aff": 3326,
  "Equ": 3327,
  "уд": 3328,
  " little": 3329,
  "ả": 3330,
  " પ": 3331,
  "\\n": 3332,
  "！": 3333,
  ".R": 3335,
  "Inter": 3336,
  " techn": 3337,
  "rl": 3338,
  "irt": 3339,
  "аз": 3340,
  "ند": 3341,
  " hum": 3342,
  "iy": 3343,
  "ид": 3344,
  " :=": 3345,
  " dos": 3346,
  " three": 3347,
  "의": 3348,
  "stru": 3349,
  "ای": 3350,
  " water": 3351,
  "oi": 3352,
  " I'": 3353,
  "。\n": 3354,
  "ַ": 3355,
  "check": 3356,
  "Count": 3357,
  "ialog": 3358,
  "ula": 3359,
  "այ": 3360,
  " expl": 3361,
  " input": 3362,
  " va": 3363,
  "ыл": 3364,
  " interest": 3365,
  "').": 3366,
  "Table": 3368,
  "earch": 3369,
  "ret": 3370,
  " better": 3371,
  "uild": 3372,
  "_h": 3373,
  " room": 3374,
  "And": 3375,
  " հ": 3376,
  " website": 3377,
  "Label": 3379,
  "ব": 3380,
  "_r": 3381,
  "New": 3382,
  "amente": 3383,
  " भ": 3384,
  "ез": 3385,
  "amespace": 3386,
  " ess": 3388,
  "Reg": 3389,
  "-c": 3390,
  " til": 3391,
  "(e": 3392,
  "pi": 3393,
  " С": 3394,
  " وال": 3395,
  "ao": 3396,
  "ales": 3397,
  "ands": 3398,
  " link": 3399,
  "’re": 3400,
  " including": 3401,
  " big": 3402,
  " ol": 3403,
  "Listener": 3404,
  ",\r\n": 3405,
  "ో": 3406,
  " mult": 3407,
  " power": 3408,
  "ources": 3409,
  " index": 3410,
  " AN": 3411,
  " school": 3412,
  " В": 3413,
  " li": 3414,
  "Def": 3415,
  " π": 3416,
  " hard": 3417,
  "ম": 3418,
  "ლ": 3419,
  ".ex": 3420,
  " Ab": 3421,
  "ം": 3422,
  "resh": 3423,
  "elle": 3424,
  "cht": 3425,
  "cord": 3426,
  "arly": 3427,
  " code": 3428,
  "umb": 3429,
  "ativ": 3430,
  "iled": 3431,
  " catch": 3432,
  "）": 3433,
  " plan": 3434,
  "isa": 3435,
  "mon": 3436,
  "way": 3437,
  " vous": 3438,
  "Pos": 3439,
  " family": 3440,
  " double": 3441,
  "Str": 3442,
  " success": 3443,
  "aps": 3444,
  " got": 3445,
  "oute": 3446,
  "Client": 3447,
  " fac": 3449,
  "img": 3450,
  "())": 3452,
  "ệ": 3453,
  " within": 3454,
  "48": 3455,
  "\ts": 3456,
  " date": 3457,
  "eder": 3458,
  "Click": 3459,
  "ude": 3460,
  "rawing": 3461,
  " account": 3462,
  "ances": 3463,
  " exc": 3464,
  " ===": 3465,
  "ques": 3466,
  ",\"": 3467,
  "ẹ": 3468,
  "uilder": 3469,
  " sam": 3470,
  " ((": 3471,
  "_data": 3472,
  "Dis": 3473,
  " struct": 3474,
  "В": 3475,
  "Action": 3476,
  " ф": 3477,
  " something": 3478,
  "ario": 3479,
  "aa": 3480,
  " bit": 3481,
  "enter": 3482,
  " ע": 3483,
  "ede": 3484,
  "uid": 3485,
  ".to": 3486,
  "abase": 3487,
  "إ": 3488,
  "്ത": 3489,
  "otal": 3490,
  " beh": 3491,
  "յ": 3492,
  " nicht": 3493,
  "ibr": 3494,
  " left": 3495,
  "agement": 3496,
  "ability": 3497,
  "cia": 3498,
  " group": 3499,
  "_w": 3500,
  "ormal": 3501,
  "ை": 3502,
  "erties": 3503,
  " á": 3504,
  " might": 3505,
  "ii": 3506,
  "ут": 3507,
  "You": 3508,
  "ري": 3509,
  " element": 3510,
  "aka": 3511,
  " control": 3513,
  " services": 3514,
  " special": 3515,
  "CH": 3516,
  "amework": 3517,
  "mt": 3518,
  " provide": 3519,
  "ById": 3520,
  "aster": 3521,
  "eta": 3522,
  "ș": 3524,
  " red": 3525,
  "ko": 3526,
  "ды": 3527,
  "idade": 3528,
  "த": 3529,
  "ने": 3530,
  " mot": 3531,
  "ores": 3532,
  "iginal": 3533,
  " dist": 3534,
  "ھ": 3535,
  "（": 3536,
  " At": 3537,
  " count": 3538,
  "gl": 3539,
  " bar": 3540,
  " total": 3541,
  " κ": 3542,
  " base": 3543,
  " chang": 3544,
  " another": 3545,
  "Content": 3546,
  "itional": 3547,
  "ones": 3548,
  "66": 3549,
  "idd": 3550,
  " image": 3552,
  " می": 3553,
  "viron": 3554,
  " area": 3555,
  "ision": 3556,
  "igned": 3557,
  " She": 3558,
  "riter": 3559,
  "ಂ": 3560,
  " since": 3561,
  "andom": 3562,
  " Fl": 3563,
  "avor": 3564,
  "ights": 3565,
  "head": 3566,
  "Sub": 3568,
  "Det": 3569,
  " vers": 3570,
  " body": 3571,
  "SS": 3572,
  "yl": 3573,
  " give": 3574,
  " gen": 3575,
  "EM": 3576,
  "்க": 3577,
  " hot": 3578,
  "(i": 3579,
  "ే": 3580,
  "EL": 3581,
  " trav": 3582,
  " ($": 3583,
  "ಲ": 3584,
  "atis": 3585,
  " war": 3586,
  "fter": 3587,
  " extends": 3588,
  "03": 3589,
  " sich": 3590,
  " გ": 3591,
  "ready": 3592,
  " på": 3593,
  " har": 3594,
  "Line": 3595,
  " util": 3596,
  "arge": 3597,
  " σ": 3598,
  " não": 3600,
  "О": 3601,
  " My": 3602,
  "vers": 3603,
  " kind": 3604,
  "لا": 3605,
  "ین": 3606,
  "ills": 3607,
  "icon": 3608,
  "*/": 3609,
  "ın": 3610,
  "К": 3611,
  " search": 3612,
  " સ": 3613,
  "hi": 3614,
  "db": 3615,
  "ми": 3616,
  " الأ": 3617,
  "mo": 3618,
  "ում": 3619,
  ".\"": 3620,
  " air": 3621,
  "տ": 3622,
  "Number": 3623,
  " assert": 3624,
  "comp": 3625,
  " social": 3626,
  "oogle": 3627,
  ".x": 3628,
  " contact": 3629,
  "ù": 3630,
  "ieve": 3631,
  " record": 3632,
  "zy": 3633,
  "ched": 3634,
  "ить": 3635,
  "ě": 3636,
  ".append": 3637,
  "로": 3638,
  "án": 3639,
  " echo": 3640,
  " bro": 3641,
  " turn": 3642,
  "acc": 3643,
  "ย": 3644,
  " email": 3645,
  "оп": 3646,
  "ately": 3647,
  "\tb": 3648,
  "ador": 3649,
  "ocus": 3650,
  "\tprivate": 3651,
  "map": 3652,
  " gre": 3653,
  " fore": 3654,
  " href": 3655,
  "uy": 3656,
  "77": 3657,
  "ود": 3658,
  "ired": 3659,
  " action": 3660,
  " bed": 3661,
  "ões": 3662,
  "צ": 3663,
  " able": 3664,
  " bir": 3665,
  "ca": 3666,
  " niet": 3667,
  "ύ": 3668,
  "ения": 3669,
  "imer": 3670,
  "한": 3671,
  ".println": 3673,
  "orage": 3674,
  "jor": 3675,
  "ич": 3676,
  " dest": 3677,
  " Do": 3678,
  "ici": 3679,
  " anal": 3680,
  " required": 3681,
  " less": 3682,
  "ité": 3683,
  " …": 3684,
  " allow": 3685,
  "Ser": 3686,
  "gress": 3687,
  "لي": 3688,
  "actory": 3689,
  "ظ": 3690,
  "ette": 3691,
  "Column": 3692,
  " address": 3693,
  ".G": 3694,
  "च": 3695,
  " javax": 3696,
  "ул": 3697,
  " looking": 3698,
  " never": 3699,
  "Ph": 3700,
  "ար": 3701,
  "oo": 3702,
  " target": 3703,
  "><": 3704,
  " material": 3705,
  "post": 3706,
  "ules": 3707,
  "ว": 3708,
  " sus": 3709,
  "ì": 3710,
  "اء": 3711,
  " bool": 3712,
  " α": 3713,
  "uto": 3714,
  "ელ": 3715,
  "49": 3716,
  "დ": 3717,
  "IP": 3719,
  "िय": 3720,
  " mil": 3721,
  " param": 3722,
  "_type": 3724,
  "acy": 3725,
  "joy": 3726,
  " dig": 3727,
  " Dr": 3728,
  " title": 3729,
  " ask": 3730,
  " With": 3732,
  " context": 3733,
  "apt": 3734,
  "ما": 3735,
  "sk": 3736,
  "Н": 3737,
  "endo": 3738,
  "ив": 3739,
  "odes": 3740,
  "context": 3741,
  " video": 3742,
  "ों": 3743,
  "my": 3744,
  "い": 3745,
  "UE": 3746,
  "し": 3748,
  "iversity": 3749,
  "aper": 3750,
  " personal": 3751,
  " config": 3752,
  "sub": 3753,
  "ನ": 3754,
  "cha": 3755,
  "aph": 3756,
  "Instance": 3757,
  " grow": 3758,
  " cou": 3759,
  "vious": 3760,
  "mand": 3761,
  "open": 3762,
  "്ക": 3763,
  "fic": 3764,
  " उ": 3765,
  " mal": 3766,
  "request": 3767,
  "ences": 3768,
  " Ver": 3769,
  " entre": 3770,
  "ố": 3771,
  "pository": 3772,
  " പ": 3773,
  "ista": 3774,
  "ამ": 3775,
  "yd": 3776,
  " sent": 3777,
  "summary": 3778,
  " indiv": 3779,
  "ाल": 3780,
  "Entity": 3782,
  "yr": 3783,
  "ican": 3784,
  "abled": 3785,
  "icy": 3786,
  " boolean": 3787,
  "ड": 3788,
  " profession": 3789,
  "მ": 3790,
  "ently": 3791,
  "iod": 3792,
  " buy": 3794,
  " dom": 3795,
  "From": 3796,
  " options": 3797,
  ",”": 3798,
  "imal": 3799,
  "ained": 3800,
  "apter": 3801,
  ".data": 3802,
  " mes": 3803,
  " console": 3804,
  "ск": 3805,
  "iti": 3806,
  "ação": 3807,
  " products": 3808,
  "UI": 3809,
  " Su": 3810,
  "αι": 3811,
  "Property": 3812,
  "PO": 3813,
  "Control": 3814,
  "65": 3815,
  "pa": 3816,
  "mi": 3817,
  "?\n": 3818,
  "ension": 3819,
  "\tfor": 3820,
  " money": 3822,
  ".de": 3823,
  "не": 3824,
  "지": 3825,
  "ાં": 3826,
  " adv": 3827,
  " price": 3828,
  "લ": 3829,
  "ét": 3830,
  "\n//": 3831,
  "ites": 3832,
  ".create": 3833,
  "ên": 3834,
  "perties": 3836,
  ">>": 3837,
  "adas": 3838,
  "EX": 3839,
  "аль": 3840,
  "نا": 3841,
  " version": 3842,
  " individ": 3843,
  "embers": 3844,
  "annel": 3845,
  " include": 3846,
  "ounc": 3847,
  " más": 3848,
  "ended": 3849,
  " פ": 3850,
  "board": 3851,
  "ering": 3852,
  " avec": 3853,
  "message": 3854,
  "assert": 3855,
  "option": 3856,
  "link": 3857,
  " NULL": 3858,
  "lev": 3859,
  " Dis": 3861,
  " dev": 3862,
  "்த": 3863,
  "്ന": 3864,
  " Eng": 3865,
  " ident": 3866,
  "box": 3867,
  " children": 3868,
  " law": 3869,
  " Reg": 3870,
  "고": 3871,
  " Set": 3872,
  " http": 3873,
  "ных": 3874,
  ".Get": 3875,
  "({\n": 3876,
  "Query": 3877,
  " fre": 3878,
  "wing": 3879,
  "ের": 3880,
  "akt": 3881,
  " sn": 3882,
  "ster": 3883,
  "ön": 3884,
  "ին": 3885,
  " К": 3886,
  "({": 3887,
  "ls": 3888,
  " nov": 3889,
  " uns": 3890,
  " aus": 3891,
  "Style": 3892,
  "md": 3893,
  "ાર": 3894,
  "fort": 3895,
  " match": 3896,
  "IO": 3897,
  " Med": 3898,
  " za": 3899,
  "umer": 3900,
  " મ": 3901,
  " bes": 3902,
  "وا": 3903,
  "ither": 3904,
  ").\n\n": 3905,
  " following": 3906,
  "ấ": 3907,
  "agen": 3908,
  " из": 3909,
  " gover": 3910,
  " mi": 3911,
  "ท": 3912,
  " আ": 3914,
  " nos": 3915,
  "ז": 3916,
  "श": 3917,
  " Car": 3918,
  "ention": 3919,
  " Sie": 3920,
  "select": 3921,
  "ী": 3922,
  "ల": 3923,
  " position": 3924,
  " ing": 3925,
  "opp": 3926,
  " map": 3927,
  " على": 3929,
  "\\\"": 3930,
  ".Drawing": 3932,
  "аш": 3933,
  " await": 3934,
  " short": 3935,
  "ename": 3936,
  "una": 3937,
  "ン": 3938,
  " कर": 3939,
  " update": 3940,
  " ד": 3941,
  " lat": 3942,
  " visit": 3943,
  "icro": 3944,
  "ել": 3945,
  "ವ": 3946,
  "יי�": 3947,
  " Intern": 3948,
  " uit": 3949,
  " Not": 3950,
  " nil": 3951,
  " hal": 3952,
  ".Form": 3953,
  "ça": 3954,
  " की": 3955,
  "button": 3956,
  " today": 3957,
  " को": 3958,
  " eine": 3959,
  " sob": 3960,
  "obile": 3961,
  "\".": 3962,
  ".Add": 3963,
  "യ": 3964,
  "िक": 3965,
  ".cl": 3966,
  "raft": 3967,
  " mach": 3968,
  " creat": 3969,
  "ouch": 3970,
  "plit": 3971,
  "unk": 3972,
  "(x": 3973,
  " Add": 3975,
  "amos": 3976,
  "(st": 3977,
  " է": 3978,
  " sou": 3980,
  " الع": 3981,
  " dire": 3982,
  " fut": 3984,
  "','": 3985,
  "ри": 3986,
  "update": 3987,
  "্য": 3988,
  "format": 3989,
  " bij": 3990,
  "가": 3991,
  "maz": 3992,
  "uz": 3993,
  "\tint": 3994,
  "clus": 3995,
  "tre": 3996,
  "anguage": 3997,
  "ют": 3998,
  "iction": 3999,
  "di": 4000,
  "(R": 4001,
  "${": 4003,
  "300": 4004,
  "anks": 4005,
  "ollections": 4007,
  "upport": 4008,
  " obj": 4009,
  "eturn": 4010,
  " Can": 4011,
  "ande": 4012,
  "rect": 4014,
  "ides": 4015,
  "φ": 4016,
  "json": 4018,
  " blog": 4019,
  "니": 4020,
  " এ": 4021,
  " (\n": 4022,
  " working": 4023,
  "θ": 4024,
  "aring": 4025,
  "web": 4026,
  "des": 4027,
  "'re": 4028,
  "ès": 4029,
  " nu": 4030,
  " door": 4031,
  " based": 4032,
  "ML": 4033,
  " lead": 4034,
  "opyright": 4035,
  "ತ": 4036,
  " appe": 4037,
  " don't": 4038,
  "95": 4039,
  " lik": 4040,
  "eters": 4041,
  "yles": 4042,
  "ji": 4043,
  " comb": 4044,
  "ém": 4045,
  "ност": 4046,
  " making": 4047,
  " occ": 4048,
  "Handler": 4049,
  " Gener": 4050,
  " ze": 4051,
  "ored": 4052,
  "bol": 4053,
  "conom": 4054,
  "HT": 4055,
  "47": 4056,
  "وم": 4057,
  " М": 4058,
  " possible": 4059,
  " far": 4060,
  "zo": 4061,
  " در": 4062,
  " մ": 4063,
  " activ": 4065,
  "・": 4066,
  " kun": 4067,
  " meet": 4068,
  "ku": 4069,
  "Collection": 4070,
  "hel": 4071,
  "_list": 4072,
  " sever": 4073,
  "OP": 4074,
  " course": 4075,
  " cam": 4076,
  " done": 4077,
  "abil": 4078,
  " quality": 4079,
  " ID": 4080,
  "itive": 4081,
  "https": 4082,
  "ნ": 4083,
  " auch": 4084,
  "!\n": 4085,
  " research": 4086,
  "();": 4087,
  "aur": 4088,
  "(l": 4089,
  "},": 4090,
  "abor": 4091,
  " />\n": 4092,
  "ട": 4093,
  "\"></": 4094,
  " Int": 4095,
  "mente": 4096,
  "cope": 4097,
  ".Text": 4098,
  "path": 4099,
  "Edit": 4100,
  " ur": 4101,
  " yang": 4102,
  "Stream": 4103,
  " away": 4104,
  "ци": 4105,
  "rix": 4106,
  "ATE": 4107,
  " alle": 4108,
  " ay": 4109,
  "-in": 4110,
  "utes": 4111,
  "table": 4112,
  "js": 4113,
  "än": 4114,
  " moment": 4115,
  " cell": 4116,
  " light": 4117,
  " label": 4118,
  " imple": 4119,
  "default": 4120,
  ".,": 4122,
  "SON": 4123,
  " sum": 4124,
  "aba": 4125,
  "46": 4126,
  " understand": 4127,
  "Point": 4128,
  "dis": 4129,
  "ply": 4130,
  "\tf": 4131,
  " div": 4132,
  " easy": 4133,
  " Er": 4134,
  "Arg": 4135,
  "mas": 4136,
  " vot": 4137,
  "eren": 4138,
  ".find": 4139,
  " food": 4140,
  " vari": 4141,
  " wel": 4142,
  "ably": 4143,
  "ін": 4144,
  "udio": 4145,
  " times": 4146,
  "Url": 4147,
  " [\n": 4148,
  " past": 4149,
  " four": 4150,
  "vironment": 4151,
  "«": 4152,
  "Fl": 4153,
  " mind": 4155,
  "lation": 4156,
  "ury": 4157,
  ".”\n\n": 4158,
  "bsite": 4159,
  "ades": 4160,
  " along": 4161,
  " begin": 4162,
  " ക": 4163,
  " य": 4164,
  "ест": 4165,
  " source": 4166,
  "ograph": 4167,
  "_L": 4168,
  "ň": 4169,
  "ад": 4170,
  "email": 4171,
  " od": 4172,
  "ề": 4173,
  "obj": 4174,
  " seem": 4175,
  " ens": 4176,
  "static": 4177,
  " throw": 4178,
  "•": 4179,
  "response": 4180,
  " enjoy": 4181,
  "thers": 4182,
  " May": 4183,
  " it's": 4185,
  " house": 4186,
  ".sh": 4187,
  " ε": 4188,
  " already": 4189,
  "را": 4190,
  " ،": 4191,
  "Vis": 4192,
  "기": 4193,
  "aat": 4194,
  "args": 4195,
  "ё": 4196,
  "ients": 4197,
  " છ": 4198,
  "uns": 4199,
  " से": 4200,
  "Ab": 4201,
  " User": 4202,
  "\",\"": 4203,
  "ibility": 4204,
  " When": 4205,
  " iz": 4206,
  "elo": 4208,
  "ად": 4209,
  "net": 4210,
  " ո": 4211,
  "icial": 4212,
  " software": 4213,
  " Б": 4214,
  " side": 4215,
  "/c": 4216,
  " Log": 4217,
  " exist": 4218,
  " Pol": 4219,
  "’ve": 4220,
  "TR": 4221,
  " deb": 4222,
  "avig": 4223,
  "্র": 4224,
  ".Windows": 4225,
  "Pre": 4226,
  "};\n\n": 4227,
  " cover": 4228,
  " property": 4229,
  "group": 4230,
  "ases": 4231,
  " ten": 4232,
  "ಗ": 4233,
  " whe": 4234,
  "ţ": 4235,
  "ivo": 4236,
  "ponents": 4237,
  "ные": 4238,
  "ев": 4239,
  " »": 4240,
  " given": 4241,
  "ral": 4242,
  "Menu": 4243,
  " impro": 4244,
  " Em": 4245,
  " download": 4246,
  "side": 4247,
  "Select": 4248,
  "iety": 4249,
  "で": 4250,
  " width": 4251,
  "ère": 4252,
  " protected": 4254,
  " Н": 4255,
  " employ": 4256,
  ".class": 4257,
  "++)": 4258,
  "ար�": 4259,
  "ного": 4260,
  " block": 4261,
  "ley": 4262,
  " pract": 4263,
  " called": 4264,
  "ộ": 4265,
  " tre": 4266,
  " mer": 4267,
  "ער": 4268,
  "atform": 4269,
  " kw": 4270,
  "Д": 4271,
  "(&": 4272,
  "ured": 4273,
  "IR": 4274,
  "…\n\n": 4275,
  "uh": 4276,
  " כ": 4277,
  " against": 4278,
  "ку": 4279,
  "_RE": 4280,
  " results": 4281,
  "േ": 4282,
  "jo": 4283,
  " Christ": 4284,
  " Bo": 4285,
  "nes": 4286,
  "Check": 4287,
  "ോ": 4288,
  "्त": 4289,
  " DE": 4290,
  " perfect": 4291,
  "78": 4292,
  "ports": 4293,
  " redu": 4294,
  "_H": 4295,
  " რ": 4296,
  "ной": 4297,
  "ור": 4298,
  "ớ": 4299,
  " cur": 4300,
  "pose": 4301,
  "sol": 4303,
  "ты": 4304,
  "asi": 4306,
  " μ": 4307,
  " prim": 4308,
  " Date": 4309,
  "ส": 4310,
  "Per": 4311,
  "ohn": 4312,
  " ra": 4313,
  " large": 4314,
  "';\n\n": 4315,
  " ম": 4316,
  "portun": 4317,
  " needs": 4318,
  "ਾ": 4319,
  "_IN": 4320,
  "�क": 4321,
  "ட": 4322,
  " י": 4323,
  " benef": 4324,
  "Token": 4325,
  "El": 4326,
  " ny": 4327,
  " bi": 4328,
  "Т": 4330,
  "ymb": 4331,
  " આ": 4332,
  " float": 4333,
  "ney": 4334,
  "sel": 4335,
  "ges": 4336,
  " pag": 4337,
  "CC": 4338,
  " به": 4339,
  " thing": 4340,
  " why": 4341,
  "ի�": 4342,
  " Min": 4343,
  ".N": 4344,
  " din": 4345,
  "aim": 4346,
  "iff": 4347,
  " individual": 4349,
  "unch": 4350,
  "ottom": 4351,
  " win": 4352,
  "-w": 4353,
  "ান": 4354,
  " Cal": 4355,
  " certain": 4356,
  "Read": 4357,
  "ன": 4358,
  " este": 4359,
  "ీ": 4360,
  "Start": 4361,
  "\tm": 4362,
  "size": 4363,
  ".size": 4365,
  ",\n\n": 4366,
  " low": 4367,
  " camp": 4368,
  " เ�": 4369,
  " conc": 4370,
  "්": 4371,
  " elect": 4373,
  "્ય": 4374,
  "М": 4375,
  " Ne": 4376,
  " respons": 4377,
  " inte": 4378,
  "IV": 4379,
  " View": 4380,
  "ня": 4381,
  "elling": 4382,
  "kan": 4383,
  " fund": 4384,
  " learn": 4385,
  " alg": 4386,
  ".y": 4387,
  " dies": 4388,
  "ಕ": 4389,
  " ત": 4390,
  "ony": 4391,
  "incip": 4392,
  "izer": 4393,
  " via": 4394,
  "์": 4395,
  " status": 4396,
  "isi": 4397,
  "уч": 4398,
  "ון": 4399,
  " energ": 4400,
  "sl": 4401,
  " students": 4402,
  "ube": 4403,
  "mission": 4404,
  "position": 4405,
  "ը": 4406,
  " sort": 4407,
  "ements": 4408,
  "oon": 4409,
  "iro": 4410,
  "ение": 4411,
  "ổ": 4412,
  "ging": 4413,
  ">(": 4414,
  "ма": 4415,
  "ün": 4416,
  "};\n": 4417,
  "Us": 4418,
  " ut": 4419,
  ".org": 4420,
  "elijk": 4421,
  "pression": 4422,
  "where": 4423,
  "cy": 4424,
  "ples": 4425,
  " thought": 4426,
  " trad": 4427,
  " amount": 4428,
  " neg": 4429,
  " valid": 4430,
  "left": 4431,
  "Product": 4432,
  " જ": 4433,
  " By": 4434,
  "�்": 71062,
  "gether": 4436,
  "imo": 4437,
  " src": 4438,
  "mm": 4439,
  "ete": 4440,
  "UM": 4441,
  "dr": 4442,
  "Builder": 4443,
  "ternal": 4444,
  "gy": 4445,
  " hat": 4446,
  "artment": 4447,
  " ان": 4448,
  "cover": 4449,
  "ifier": 4451,
  ".Forms": 4452,
  "rary": 4453,
  "ival": 4454,
  "_V": 4455,
  "оч": 4456,
  " Est": 4457,
  "imum": 4458,
  " Ser": 4459,
  "ctor": 4460,
  "-h": 4461,
  "uis": 4462,
  " live": 4463,
  " }\r\n\r\n": 4464,
  "әр": 4465,
  " Text": 4466,
  "ώ": 4467,
  " having": 4468,
  "uments": 4469,
  " That": 4470,
  " inc": 4471,
  "num": 4472,
  "’m": 4473,
  " ook": 4474,
  "())\n": 4475,
  " esc": 4476,
  "title": 4477,
  "sa": 4478,
  "La": 4479,
  "time": 4480,
  " situ": 4481,
  "lish": 4482,
  " land": 4483,
  " tool": 4484,
  "CE": 4485,
  "kl": 4486,
  " да": 4487,
  ".html": 4488,
  " display": 4489,
  " single": 4490,
  " Ste": 4491,
  " گ": 4492,
  " کی": 4493,
  "يد": 4494,
  " talk": 4495,
  " node": 4496,
  " Die": 4497,
  "ication": 4498,
  "İ": 4499,
  " для": 4500,
  "га": 4501,
  "ella": 4502,
  "ema": 4503,
  "ј": 4504,
  " ;": 4505,
  "Post": 4506,
  " प्र": 4507,
  " ե": 4508,
  " until": 4509,
  "cel": 4510,
  "aga": 4511,
  "atter": 4512,
  "mes": 4513,
  " What": 4514,
  "uer": 4515,
  "uccess": 4516,
  "_pro": 4517,
  "_e": 4518,
  "uel": 4519,
  "ик": 4520,
  "59": 4521,
  "Bar": 4522,
  "\tvar": 4523,
  " ant": 4524,
  "68": 4525,
  "amento": 4526,
  "vi": 4527,
  " ich": 4529,
  "ус": 4530,
  " len": 4531,
  " ন": 4532,
  " More": 4533,
  "Ref": 4534,
  "58": 4535,
  "])": 4536,
  "react": 4537,
  " kon": 4538,
  "uts": 4539,
  "]);\n": 4540,
  " છે": 4541,
  " Co": 4542,
  "И": 4543,
  "ungen": 4544,
  "ops": 4545,
  "////////////////": 4546,
  "Р": 4547,
  "IF": 4548,
  "aint": 4549,
  "ु�": 4550,
  " Per": 4551,
  "arning": 4552,
  "down": 4553,
  "рав": 4554,
  "ione": 4555,
  "outh": 4556,
  "്ര": 4557,
  " mor": 4558,
  " Pre": 4559,
  " func": 4560,
  " govern": 4561,
  " None": 4562,
  " О": 4563,
  " cond": 4564,
  " treat": 4565,
  " url": 4566,
  " സ": 4567,
  "Comp": 4568,
  " educ": 4569,
  " چ": 4570,
  " হ": 4571,
  "ulation": 4572,
  " publ": 4573,
  " Test": 4574,
  " gro": 4575,
  "‘": 4576,
  " Object": 4577,
  " Je": 4578,
  " height": 4579,
  "ár": 4580,
  "body": 4581,
  "Http": 4582,
  ".value": 4583,
  "„": 4584,
  " cult": 4585,
  " Up": 4586,
  " clean": 4587,
  "lege": 4588,
  "42": 4589,
  "formation": 4590,
  "}\r\n\r\n": 4591,
  "ince": 4592,
  "ções": 4593,
  " mis": 4594,
  "স": 4595,
  " och": 4597,
  "عد": 4598,
  " load": 4599,
  "Call": 4600,
  " раз": 4601,
  " purch": 4602,
  "ავ": 4603,
  " simple": 4604,
  " св": 4605,
  " toget": 4606,
  "Link": 4607,
  "True": 4608,
  "anda": 4609,
  "\");\r\n": 4610,
  "ocket": 4611,
  "ř": 4612,
  "=>": 4613,
  "ợ": 4614,
  " together": 4615,
  "oke": 4616,
  "മ": 4617,
  "’ll": 4618,
  "Mod": 4619,
  "atal": 4620,
  "Method": 4621,
  "lin": 4622,
  " nie": 4623,
  "ipe": 4624,
  "ourn": 4625,
  " ص": 4626,
  "(r": 4627,
  " once": 4628,
  " items": 4630,
  " output": 4631,
  "ju": 4632,
  "field": 4633,
  " select": 4634,
  " wat": 4635,
  "itter": 4636,
  "еч": 4637,
  "은": 4638,
  ".spring": 4639,
  "etch": 4640,
  "aged": 4641,
  " Ass": 4642,
  "198": 4643,
  "არ�": 4644,
  "Activity": 4645,
  " means": 4646,
  "df": 4647,
  "AY": 4648,
  "క": 4649,
  " };\n": 4650,
  "uly": 4651,
  " original": 4652,
  " dit": 4653,
  " })\n": 4654,
  "arl": 4655,
  "orr": 4656,
  "oom": 4657,
  " ok": 4658,
  "End": 4659,
  " card": 4661,
  "ilt": 4662,
  " અ": 4663,
  "ANT": 4664,
  " cir": 4665,
  " actually": 4666,
  "ую": 4667,
  "ный": 4668,
  " mean": 4669,
  "ტ": 4670,
  "ker": 4671,
  " أن": 4672,
  "si": 4673,
  "rij": 4674,
  " beaut": 4675,
  "ात": 4676,
  " often": 4678,
  " either": 4679,
  "ութ": 4680,
  " makes": 4681,
  "uring": 4682,
  " ú": 4683,
  " bad": 4684,
  " tod": 4685,
  " problem": 4686,
  " comput": 4687,
  "IZ": 4688,
  "ounds": 4689,
  "iga": 4690,
  "namespace": 4691,
  "mun": 4692,
  "Null": 4693,
  " ин": 4694,
  " hom": 4695,
  "？": 4696,
  "ً": 4697,
  "رو": 4698,
  " supp": 4699,
  "eller": 4700,
  "vider": 4701,
  "ენ": 4702,
  " God": 4703,
  " getting": 4704,
  "а�": 4705,
  "400": 4706,
  " Т": 4707,
  "annot": 4708,
  "ને": 4709,
  "erd": 4711,
  " dam": 4712,
  "(data": 4713,
  " Am": 4714,
  "ры": 4715,
  "script": 4716,
  "Source": 4717,
  " values": 4718,
  " Array": 4719,
  "framework": 4720,
  "What": 4721,
  " deal": 4722,
  "ram": 4723,
  "әа": 4724,
  "를": 4725,
  " community": 4726,
  " Data": 4727,
  ".name": 4728,
  "их": 4729,
  "Change": 4730,
  " connect": 4731,
  " cred": 4732,
  "ators": 4734,
  "parse": 4735,
  " mass": 4736,
  " please": 4737,
  " sobre": 4738,
  " amb": 4739,
  " bon": 4740,
  "mod": 4741,
  "еб": 4742,
  " later": 4743,
  " Mon": 4744,
  "സ": 4745,
  " geb": 4746,
  " quick": 4747,
  " ao": 4748,
  " night": 4749,
  " specific": 4750,
  " tal": 4751,
  "point": 4752,
  " կ": 4753,
  "Order": 4754,
  " ever": 4755,
  " что": 4756,
  "../../": 4757,
  "서": 4758,
  "params": 4759,
  "TH": 4760,
  "す": 4761,
  " story": 4762,
  "Factory": 4763,
  " initial": 4764,
  "iste": 4765,
  " და": 4766,
  "cret": 4767,
  "ко": 4768,
  "ას": 4769,
  " features": 4770,
  " details": 4771,
  " natur": 4772,
  " под": 4773,
  " इ": 4774,
  "Base": 4775,
  " particip": 4776,
  ".push": 4777,
  " Your": 4778,
  "сп": 4779,
  " ele": 4780,
  " کے": 4783,
  " author": 4784,
  "agn": 4785,
  " below": 4786,
  " „": 4787,
  " store": 4788,
  ")(": 4789,
  " Web": 4790,
  "ural": 4791,
  " continue": 4792,
  "ент": 4793,
  "parent": 4794,
  "уп": 4795,
  "abe": 4796,
  " Part": 4797,
  "ơ": 4798,
  "...\n": 4799,
  "anto": 4800,
  " औ": 4801,
  "اس": 4802,
  "service": 4803,
  "ամ": 4804,
  "સ": 4805,
  ".php": 4806,
  "Sp": 4807,
  " OR": 4808,
  " space": 4809,
  " several": 4810,
  "<String": 4811,
  " prob": 4812,
  " recomm": 4813,
  " University": 4814,
  " വ": 4815,
  "yo": 4816,
  " ი": 4817,
  " emp": 4818,
  " question": 4819,
  " ಮ": 4820,
  " ont": 4821,
  " country": 4822,
  "atabase": 4823,
  "Back": 4824,
  " instance": 4825,
  "source": 4826,
  " لل": 4827,
  "imate": 4828,
  "ami": 4829,
  "change": 4830,
  "pond": 4831,
  "remove": 4832,
  "used": 4833,
  "ომ": 4834,
  "Acc": 4835,
  "std": 4836,
  " cook": 4837,
  " face": 4838,
  " enough": 4839,
  " send": 4840,
  "anch": 4841,
  " ),\n": 4842,
  "Update": 4843,
  " Gl": 4844,
  " ప": 4846,
  "oved": 4847,
  "리": 4848,
  " phot": 4849,
  " pur": 4850,
  "(_": 4851,
  " про": 4852,
  "aging": 4853,
  " args": 4854,
  ".swing": 4855,
  "fa": 4856,
  "ει": 4857,
  "Repository": 4858,
  "ित": 4859,
  "ән": 4860,
  "្": 4861,
  "_ST": 4862,
  " ét": 4863,
  "ila": 4864,
  " uint": 4866,
  "�ი": 5960,
  "cribe": 4868,
  "ording": 4869,
  "ण": 4870,
  " clos": 4872,
  "41": 4873,
  "אַ": 4874,
  " press": 4875,
  "oper": 4876,
  "color": 4877,
  " ಸ": 4878,
  " Gu": 4879,
  " example": 4880,
  "еп": 4881,
  "(j": 4883,
  "uri": 4884,
  " members": 4886,
  " alt": 4887,
  "iday": 4888,
  " says": 4889,
  "uint": 4890,
  ".J": 4891,
  " These": 4892,
  "56": 4893,
  " bal": 4894,
  " ber": 4895,
  " দ": 4896,
  " Off": 4897,
  " study": 4898,
  " gar": 4899,
  " host": 4900,
  "dated": 4901,
  "aking": 4902,
  " <=": 4903,
  " extra": 4904,
  "ется": 4905,
  " heb": 4907,
  " financ": 4908,
  " ach": 4909,
  " particular": 4910,
  " become": 4911,
  "idden": 4913,
  "stit": 4914,
  " sind": 4915,
  " city": 4916,
  "/s": 4917,
  "ள": 4918,
  " player": 4919,
  " और": 4920,
  " major": 4921,
  " others": 4922,
  "mark": 4923,
  "!--": 4924,
  "active": 4925,
  ".springframework": 4926,
  "apping": 4927,
  "ま": 4928,
  " ப": 4929,
  "_size": 4930,
  "One": 4931,
  "ист": 4932,
  "_de": 4933,
  " games": 4934,
  " media": 4935,
  " sens": 4936,
  "ilar": 4937,
  "ball": 4938,
  " Ge": 4939,
  " ی": 4940,
  " especial": 4941,
  " button": 4942,
  "или": 4943,
  " વ": 4944,
  " hold": 4945,
  " Euro": 4946,
  "ری": 4947,
  "\"))": 4948,
  " >=": 4949,
  " נ": 4950,
  "ising": 4951,
  " write": 4952,
  "kn": 4953,
  " necess": 4954,
  " Mark": 4955,
  " च": 4956,
  "ison": 4957,
  " yet": 4958,
  " prec": 4959,
  "TE": 4960,
  "Mode": 4961,
  "iento": 4962,
  " kl": 4963,
  "model": 4964,
  "98": 4965,
  "iri": 4966,
  "UP": 4967,
  "ged": 4968,
  "57": 4969,
  " polit": 4970,
  "€": 4971,
  "ustry": 4972,
  "_to": 4973,
  " lib": 4974,
  " ط": 4975,
  " stay": 4976,
  " save": 4977,
  "aya": 4978,
  "ental": 4979,
  " './": 4980,
  "height": 4981,
  "URL": 4982,
  "icult": 4983,
  " autom": 4984,
  " location": 4985,
  " favor": 4986,
  " news": 4987,
  " pers": 4988,
  "Create": 4989,
  "AME": 4990,
  "ությ": 4991,
  "\telse": 4992,
  " One": 4993,
  " font": 4994,
  "็": 4995,
  " nga": 4996,
  "pu": 4997,
  " teach": 4998,
  " throws": 4999,
  "gt": 5000,
  "edd": 5001,
  " Д": 5002,
  " sche": 5003,
  "ester": 5004,
  "ικ": 5005,
  "NS": 5006,
  "ි": 5007,
  " hours": 5008,
  " comes": 5009,
  "anu": 5010,
  " oder": 5011,
  " complet": 5012,
  "inding": 5013,
  "zer": 5014,
  "gu": 5015,
  "ค": 5016,
  ".put": 5018,
  " पर": 5019,
  " THE": 5020,
  "atu": 5021,
  "ministr": 5022,
  "ില": 5023,
  " sav": 5024,
  " ['": 5025,
  " miss": 5026,
  " women": 5027,
  " share": 5028,
  "Off": 5029,
  "ხ": 5030,
  " þ": 5031,
  " pie": 5032,
  "osp": 5033,
  " copy": 5034,
  " above": 5035,
  "################": 5036,
  " least": 5037,
  "να": 5038,
  "ಳ": 5039,
  "Width": 5040,
  " larg": 5041,
  ".on": 5042,
  "્ર": 5043,
  "ORT": 5044,
  "ées": 5045,
  ".con": 5046,
  "ecut": 5047,
  " Val": 5048,
  " nam": 5049,
  "iful": 5050,
  "ุ": 5051,
  " friend": 5052,
  "])\n": 5053,
  "97": 5054,
  " бол": 5055,
  "hand": 5056,
  "PL": 5057,
  "encia": 5058,
  "OK": 5059,
  "quired": 5060,
  "ార": 5061,
  " etc": 5062,
  "inate": 5064,
  " provided": 5065,
  "ത്ത": 5066,
  " focus": 5067,
  " Act": 5070,
  " represent": 5071,
  "Tem": 5072,
  "_R": 5073,
  "zt": 5074,
  " due": 5075,
  "antes": 5076,
  "([": 5077,
  "ाम": 5078,
  "YPE": 5079,
  " пер": 5080,
  "្�": 5081,
  " Р": 5082,
  " application": 5083,
  "ESS": 5084,
  "AX": 5085,
  "fully": 5086,
  "ola": 5087,
  "は": 5088,
  "ensive": 5089,
  " reason": 5090,
  "elen": 5091,
  "endif": 5092,
  "ipo": 5093,
  " Comp": 5094,
  ".model": 5095,
  "igr": 5096,
  "ҭ": 5097,
  "150": 5098,
  " season": 5099,
  " bre": 5100,
  "-n": 5101,
  "DB": 5102,
  "िल": 5103,
  "ogn": 5104,
  "cast": 5105,
  "Б": 5106,
  " row": 5107,
  "ờ": 5108,
  "pload": 5109,
  "icles": 5110,
  " walk": 5111,
  " pick": 5112,
  " ...\n\n": 5113,
  ".text": 5114,
  "ät": 5115,
  " ന": 5116,
  "start": 5117,
  "ingen": 5118,
  " wait": 5119,
  " Nov": 5120,
  "yt": 5121,
  " pou": 5122,
  " sont": 5123,
  " Dec": 5124,
  "argin": 5125,
  "anger": 5128,
  " الس": 5129,
  " across": 5130,
  "」": 5131,
  "ón": 5132,
  " الح": 5133,
  "ires": 5134,
  " შ": 5135,
  "Valid": 5137,
  " compan": 5138,
  "product": 5139,
  "ят": 5140,
  " File": 5141,
  " close": 5142,
  "inary": 5143,
  " period": 5144,
  "Command": 5145,
  "________": 5146,
  " Us": 5147,
  " development": 5148,
  "ун": 5149,
  " auto": 5150,
  "/**\n": 5151,
  "ە": 5152,
  " hu": 5153,
  " move": 5154,
  "eft": 5155,
  " future": 5156,
  "വ": 5157,
  " tamb": 5158,
  "に": 5159,
  " writing": 5160,
  "server": 5161,
  "ecess": 5162,
  "just": 5163,
  "്ട": 5164,
  " werden": 5165,
  "ะ": 5166,
  " Form": 5167,
  " ago": 5168,
  " مع": 5169,
  " track": 5170,
  "مل": 5171,
  " click": 5172,
  "pend": 5173,
  "state": 5174,
  "istance": 5175,
  " task": 5176,
  " offers": 5177,
  " است": 5178,
  "How": 5179,
  "Module": 5180,
  " sie": 5181,
  "ો�": 5182,
  " dating": 5184,
  "”,": 5185,
  " doing": 5186,
  " OF": 5187,
  "Hel": 5188,
  "most": 5189,
  " opportun": 5190,
  "Const": 5191,
  " inn": 5192,
  "struction": 5193,
  " option": 5194,
  " handle": 5195,
  "43": 5196,
  "iddle": 5197,
  " princip": 5198,
  "wards": 5199,
  "structor": 5200,
  " gir": 5201,
  " אי�": 5202,
  "adio": 5203,
  "۔": 5204,
  " Il": 5205,
  "と": 5206,
  "req": 5207,
  " ev": 5208,
  "lear": 5209,
  " ọ": 5210,
  "iple": 5211,
  "rea": 5212,
  " pal": 5213,
  "վ": 5214,
  " Our": 5215,
  " bien": 5216,
  "anz": 5217,
  "page": 5218,
  "ె": 5219,
  "AV": 5221,
  "Cell": 5222,
  "్ర": 5223,
  "ít": 5224,
  "ல": 5225,
  "چ": 5226,
  "Grid": 5227,
  "Address": 5228,
  "<<": 5230,
  " common": 5231,
  " pack": 5232,
  " sym": 5233,
  " Free": 5234,
  " questions": 5235,
  "Options": 5236,
  "Default": 5237,
  " });\n\n": 5238,
  " і": 5239,
  " clear": 5240,
  "ixed": 5241,
  "·": 5242,
  "ijd": 5243,
  "iki": 5244,
  " ah": 5245,
  "аб": 5246,
  " created": 5247,
  " zo": 5248,
  "iate": 5249,
  " np": 5250,
  " comment": 5251,
  "َ": 5252,
  " info": 5253,
  " typ": 5254,
  "urther": 5255,
  "nh": 5256,
  " discuss": 5257,
  " сп": 5258,
  " music": 5259,
  "ậ": 5260,
  " users": 5261,
  " mga": 5262,
  " вс": 5263,
  " State": 5264,
  " ц": 5265,
  "_v": 5266,
  ".js": 5267,
  "ERR": 5268,
  "leep": 5269,
  " pict": 5270,
  "iten": 5271,
  " human": 5272,
  " Bar": 5273,
  "null": 5274,
  "adding": 5275,
  "unit": 5276,
  " subject": 5277,
  " network": 5278,
  " മ": 5279,
  " signific": 5280,
  " Read": 5281,
  "lim": 5282,
  "ро": 5283,
  "Attribute": 5284,
  "reet": 5285,
  "lu": 5287,
  "aha": 5288,
  "ecute": 5289,
  "аст": 5290,
  "Title": 5291,
  "OV": 5293,
  " determ": 5294,
  "agment": 5295,
  "count": 5296,
  " با": 5297,
  "Child": 5298,
  "base": 5299,
  " started": 5300,
  " maint": 5301,
  " ren": 5303,
  "\");\n\n": 5304,
  "has": 5305,
  " role": 5306,
  " Art": 5307,
  " tw": 5308,
  " ত": 5309,
  "header": 5310,
  "edia": 5311,
  " IS": 5312,
  "Integer": 5313,
  " minutes": 5314,
  "_g": 5315,
  "ไ": 5316,
  "ART": 5318,
  " tele": 5319,
  "My": 5320,
  "ум": 5321,
  "valu": 5322,
  "hen": 5323,
  " bil": 5324,
  "ele": 5325,
  "asure": 5326,
  "_set": 5327,
  " compet": 5328,
  " pred": 5329,
  "aux": 5330,
  "curity": 5331,
  "еш": 5332,
  "არ": 5333,
  "år": 5334,
  "_G": 5335,
  "-se": 5336,
  "্ত": 5337,
  "67": 5338,
  "center": 5339,
  "Block": 5340,
  "க": 5341,
  " global": 5342,
  " nh": 5343,
  "imple": 5344,
  " über": 5345,
  " econom": 5346,
  " í": 5347,
  "്റ": 5348,
  " Public": 5349,
  " श": 5350,
  "يل": 5351,
  " I'm": 5353,
  "itted": 5354,
  "PI": 5355,
  "Đ": 5356,
  "ход": 5357,
  "Panel": 5358,
  "ള": 5359,
  " temp": 5360,
  " tell": 5361,
  " пол": 5362,
  "oman": 5363,
  "root": 5364,
  "});\n": 5365,
  " ג": 5366,
  "ា": 5367,
  " हो": 5368,
  "_W": 5369,
  "loor": 5370,
  " though": 5371,
  "atie": 5372,
  "Icon": 5373,
  " hope": 5374,
  "ignment": 5375,
  "itions": 5376,
  " tout": 5377,
  " applic": 5378,
  " months": 5379,
  " cy": 5380,
  "etr": 5381,
  " box": 5382,
  "е�": 5383,
  "Me": 5384,
  "inder": 5385,
  "itar": 5386,
  " Post": 5388,
  "hal": 5389,
  "Row": 5390,
  "Load": 5391,
  " Trans": 5392,
  " associ": 5393,
  " length": 5394,
  "amm": 5395,
  " everything": 5396,
  ".v": 5397,
  "pli": 5398,
  "idades": 5399,
  " relations": 5400,
  "author": 5401,
  "ス": 5402,
  "show": 5403,
  " Es": 5404,
  "(function": 5405,
  " క": 5406,
  "quals": 5407,
  " strong": 5408,
  " complete": 5409,
  "oma": 5410,
  " Det": 5411,
  " bei": 5412,
  "사": 5413,
  "icas": 5414,
  "olo": 5415,
  "\tcase": 5416,
  " está": 5417,
  " known": 5418,
  "인": 5419,
  " ges": 5420,
  " nach": 5422,
  "QL": 5423,
  "ല": 5424,
  " However": 5425,
  "ди": 5426,
  " United": 5427,
  " של": 5428,
  "ises": 5429,
  "lig": 5430,
  "_path": 5431,
  "(C": 5432,
  "hing": 5433,
  "illa": 5434,
  "ध": 5435,
  "Fe": 5436,
  " obt": 5437,
  "IB": 5438,
  " ಕ": 5439,
  " front": 5440,
  " },": 5441,
  " τη": 5442,
  "isch": 5443,
  ".getElement": 5444,
  " points": 5445,
  "eni": 5446,
  "child": 5447,
  "﻿": 5448,
  "eds": 5449,
  "رد": 5450,
  " tax": 5451,
  "oe": 5452,
  "ָ": 5453,
  " Cor": 5454,
  "ving": 5455,
  " Ag": 5456,
  " ז": 5457,
  " async": 5458,
  " film": 5459,
  "(name": 5460,
  " whether": 5461,
  "ала": 5462,
  " ple": 5463,
  "ische": 5464,
  "رب": 5465,
  "OW": 5466,
  " series": 5467,
  "urg": 5468,
  ".Size": 5469,
  " deg": 5470,
  "た": 5471,
  "FA": 5472,
  " maar": 5473,
  " See": 5474,
  "(){\n": 5475,
  " inf": 5476,
  " heart": 5477,
  " Inter": 5478,
  "printf": 5479,
  " RE": 5480,
  "ett": 5481,
  " dir": 5482,
  "át": 5483,
  "sy": 5484,
  " young": 5485,
  "ห": 5486,
  "asy": 5487,
  "ffect": 5488,
  " fall": 5489,
  " respect": 5490,
  "typ": 5491,
  "astic": 5492,
  " watch": 5493,
  "Stack": 5494,
  "ibrary": 5495,
  " bring": 5496,
  "Container": 5497,
  "control": 5498,
  "்ப": 5499,
  "usiness": 5500,
  " હ": 5501,
  "ול": 5502,
  "There": 5503,
  " */\n\n": 5504,
  "sm": 5505,
  " db": 5506,
  "시": 5507,
  "iva": 5508,
  "ї": 5509,
  "هم": 5510,
  " Str": 5511,
  "urt": 5512,
  "asa": 5513,
  "ണ": 5514,
  "ատ": 5515,
  " Class": 5516,
  "Position": 5517,
  "스": 5518,
  "plied": 5519,
  "해": 5520,
  "entes": 5521,
  "func": 5522,
  " dar": 5523,
  " choose": 5525,
  "CL": 5526,
  " install": 5527,
  " eu": 5528,
  " happen": 5529,
  "ուն": 5530,
  " fast": 5531,
  "ト": 5532,
  ".\r\n": 5533,
  " friends": 5534,
  "ắ": 5535,
  " stop": 5536,
  " invol": 5537,
  "uma": 5539,
  "event": 5541,
  " ।": 5542,
  "પ": 5543,
  "urance": 5544,
  "éc": 5545,
  "Equal": 5546,
  "ủ": 5547,
  " history": 5548,
  "ự": 5549,
  "Serv": 5550,
  "Part": 5551,
  "year": 5552,
  " hor": 5553,
  "TO": 5554,
  " ө": 5555,
  " City": 5556,
  "Utils": 5557,
  "ೇ": 5558,
  "ια": 5560,
  "প": 5561,
  "Empty": 5562,
  " someone": 5563,
  " General": 5564,
  "197": 5565,
  "ಡ": 5566,
  "ể": 5567,
  "ynam": 5568,
  ":\r\n": 5569,
  " wie": 5570,
  " json": 5571,
  "Num": 5572,
  " query": 5573,
  "ован": 5574,
  "ugin": 5575,
  "iente": 5576,
  " Dep": 5577,
  "ATION": 5579,
  "て": 5580,
  "/m": 5581,
  "%%": 5582,
  " phone": 5583,
  "ODE": 5584,
  " pet": 5585,
  "anged": 5586,
  "acebook": 5587,
  "asing": 5588,
  "ledge": 5589,
  "Buffer": 5590,
  "auth": 5591,
  "_ex": 5592,
  "ufact": 5593,
  " ز": 5594,
  " anim": 5595,
  "়": 5598,
  ":\"": 5599,
  " infl": 5600,
  " popular": 5601,
  " window": 5602,
  " industry": 5603,
  " btn": 5604,
  "Header": 5605,
  "\";\n\n": 5606,
  "Char": 5608,
  "್ರ": 5609,
  "്യ": 5610,
  "atrix": 5611,
  " age": 5612,
  " unique": 5614,
  " enter": 5615,
  "ustomer": 5616,
  " million": 5617,
  " так": 5618,
  "ocol": 5619,
  " kh": 5620,
  "को": 5621,
  "//\n//": 5622,
  "ే�": 5623,
  "rief": 5624,
  "ombre": 5625,
  "(),\n": 5626,
  "soft": 5627,
  "69": 5628,
  "िन": 5629,
  "ised": 5630,
  "ħ": 5631,
  "ট": 5632,
  "admin": 5633,
  " American": 5634,
  "آ": 5635,
  "anta": 5636,
  " added": 5637,
  " fit": 5638,
  "unn": 5639,
  "verage": 5640,
  "ера": 5641,
  "utions": 5642,
  " vor": 5643,
  " Ang": 5644,
  " strateg": 5645,
  "يا": 5647,
  "256": 5648,
  "ky": 5649,
  ".annot": 5650,
  "Dialog": 5651,
  "な": 5652,
  "het": 5653,
  " sil": 5654,
  " article": 5655,
  "asse": 5656,
  "info": 5657,
  " Cr": 5658,
  "го": 5659,
  "ipping": 5660,
  "undle": 5661,
  " wir": 5662,
  " мож": 5663,
  "egin": 5664,
  " వ": 5665,
  " И": 5666,
  "ले": 5667,
  " Google": 5668,
  " collection": 5669,
  " CON": 5670,
  "current": 5671,
  "options": 5672,
  " ot": 5673,
  "So": 5675,
  " uk": 5676,
  "ór": 5677,
  " ç": 5678,
  "entity": 5679,
  "uper": 5680,
  "න": 5681,
  "part": 5682,
  "ttps": 5683,
  "Height": 5684,
  "local": 5685,
  "aten": 5686,
  " க": 5687,
  "Dr": 5688,
  "py": 5689,
  " virt": 5690,
  "eme": 5691,
  " сл": 5692,
  "도": 5693,
  "ysis": 5694,
  "ued": 5695,
  "''": 5696,
  " came": 5697,
  "<T": 5698,
  "ī": 5699,
  " অ": 5701,
  " ih": 5702,
  "outer": 5703,
  " yn": 5704,
  " fig": 5705,
  "ಿದ": 5706,
  "cal": 5707,
  " experien": 5708,
  " ק": 5709,
  "iert": 5710,
  " exam": 5711,
  " phys": 5712,
  "uj": 5713,
  "اف": 5714,
  " aux": 5715,
  "ọn": 5716,
  "ota": 5717,
  "este": 5718,
  " Fe": 5719,
  " character": 5720,
  " addition": 5721,
  "OUT": 5723,
  "É": 5724,
  " при": 5725,
  "ively": 5726,
  " near": 5727,
  " join": 5728,
  "stract": 5729,
  "մ": 5730,
  "iam": 5731,
  "andid": 5732,
  " tim": 5733,
  " Of": 5734,
  " environment": 5735,
  "urrenc": 5736,
  "patch": 5737,
  " ö": 5738,
  "iger": 5739,
  "()\n\n": 5740,
  "Format": 5741,
  "roups": 5742,
  ".se": 5743,
  "<div": 5744,
  "ils": 5745,
  " previous": 5746,
  "ым": 5747,
  " works": 5748,
  " hon": 5749,
  " trab": 5750,
  " conse": 5751,
  " override": 5752,
  " various": 5753,
  "ां": 5754,
  " prop": 5755,
  "ით": 5756,
  "ivery": 5757,
  "PS": 5758,
  "Player": 5759,
  " device": 5760,
  " render": 5761,
  " wr": 5762,
  "gn": 5763,
  "aily": 5764,
  "Connection": 5765,
  "Bl": 5766,
  "CK": 5767,
  "aciones": 5768,
  "ditions": 5769,
  "ached": 5770,
  "ս": 5771,
  "vas": 5772,
  " hi": 5773,
  "iden": 5774,
  "etwork": 5775,
  " nd": 5776,
  "ầ": 5777,
  " কর": 5778,
  "بر": 5779,
  " https": 5780,
  "rodu": 5781,
  "ər": 5782,
  " World": 5783,
  " accept": 5784,
  "ിക": 5785,
  "Gener": 5786,
  "Task": 5787,
  " John": 5788,
  " register": 5789,
  " expected": 5790,
  "ിയ": 5791,
  "oor": 5792,
  "_file": 5793,
  " Sub": 5794,
  "Resource": 5795,
  "phone": 5796,
  " professional": 5797,
  "ako": 5798,
  " ն": 5799,
  " terms": 5801,
  "essages": 5802,
  "ે�": 5803,
  "Filter": 5804,
  " స": 5805,
  " வ": 5806,
  "자": 5807,
  "lood": 5808,
  ".user": 5809,
  "IZE": 5810,
  " بال": 5811,
  " Red": 5812,
  "ccount": 5813,
  "ulo": 5814,
  " energy": 5815,
  "თ": 5816,
  "ald": 5817,
  " का": 5818,
  "When": 5819,
  "어": 5820,
  " black": 5821,
  " perm": 5822,
  "itude": 5823,
  "റ": 5824,
  "ption": 5825,
  "idos": 5826,
  " ep": 5827,
  " limit": 5828,
  "enda": 5829,
  " Sm": 5830,
  ".V": 5831,
  "\td": 5832,
  "roy": 5833,
  "{{": 5834,
  " naar": 5835,
  "Search": 5836,
  "gan": 5837,
  "uses": 5838,
  "де": 5839,
  "تر": 5840,
  " parent": 5841,
  " went": 5842,
  "ಾರ": 5843,
  " step": 5844,
  " News": 5845,
  " general": 5846,
  "wner": 5847,
  "দ": 5848,
  "ता": 5849,
  " customer": 5850,
  "ും": 5851,
  "///": 5852,
  "़": 5853,
  " að": 5854,
  "\\\\": 5855,
  " chall": 5856,
  "Eng": 5857,
  "lib": 5858,
  "Location": 5859,
  "Provider": 5860,
  " column": 5861,
  " Cent": 5862,
  "KE": 5864,
  "rel": 5865,
  " companies": 5866,
  ");\r\n\r\n": 5868,
  " provides": 5869,
  " types": 5870,
  "iner": 5871,
  " format": 5872,
  "jet": 5873,
  "II": 5874,
  " sugg": 5875,
  "ervlet": 5876,
  "width": 5877,
  " server": 5878,
  " engine": 5879,
  "sv": 5880,
  "יר": 5881,
  " dass": 5882,
  " pen": 5883,
  " sel": 5884,
  "gle": 5885,
  " Aug": 5886,
  "աս": 5887,
  " member": 5888,
  " customers": 5889,
  " West": 5890,
  " contr": 5891,
  "acity": 5892,
  "ობ": 5893,
  " ek": 5894,
  "attr": 5895,
  " ન": 5896,
  "client": 5897,
  "light": 5898,
  "eli": 5899,
  " diffic": 5900,
  " Pa": 5901,
  " Out": 5902,
  "udi": 5903,
  " ]": 5905,
  "Top": 5906,
  " early": 5907,
  " Please": 5908,
  " weight": 5909,
  "tributed": 5910,
  " dim": 5911,
  " answer": 5912,
  "ello": 5913,
  " അ": 5914,
  "「": 5915,
  " idea": 5916,
  " terr": 5917,
  " hier": 5918,
  " government": 5919,
  " Apr": 5920,
  "\tp": 5921,
  " whole": 5922,
  "status": 5923,
  "Down": 5924,
  "undo": 5925,
  " took": 5926,
  "iler": 5927,
  "#if": 5928,
  " кот": 5929,
  " Don": 5930,
  "abs": 5931,
  "env": 5933,
  "ған": 5934,
  " Copyright": 5935,
  "ਾ�": 5936,
  "xy": 5937,
  " normal": 5938,
  " indic": 5939,
  "्ट": 5940,
  "plac": 5941,
  "#endif": 5942,
  " Some": 5943,
  " *)": 5944,
  " reading": 5945,
  " issues": 5946,
  "ख": 5947,
  " password": 5948,
  "ried": 5949,
  "'ll": 5950,
  " ನ": 5951,
  " cut": 5952,
  "ҙ": 5953,
  "હ": 5954,
  " apply": 5955,
  "ns": 5956,
  "(const": 5957,
  " received": 5958,
  " express": 5959,
  "(M": 5961,
  "address": 5962,
  "ાન": 5963,
  "120": 5964,
  " beautiful": 5965,
  " suggest": 5966,
  "inen": 5967,
  " coll": 5968,
  "orte": 5969,
  "oria": 5970,
  "ах": 5971,
  "aker": 5972,
  "views": 5973,
  " mel": 5974,
  " Ed": 5975,
  " needed": 5976,
  " +\n": 5977,
  "'.": 5978,
  "tributes": 5979,
  "ना": 5980,
  " بر": 5981,
  " events": 5982,
  "Types": 5983,
  " []": 5984,
  "ыр": 5985,
  " ],\n": 5986,
  "qual": 5987,
  "output": 5988,
  "من": 5989,
  "()->": 5990,
  "omain": 5991,
  " fi": 5992,
  "Description": 5993,
  " Home": 5994,
  " anything": 5995,
  "ונ": 5996,
  "္": 5997,
  "straint": 5998,
  " სა�": 5999,
  "........": 6000,
  "255": 6001,
  "icip": 6002,
  " correct": 6003,
  " У": 6004,
  "TER": 6005,
  "olume": 6006,
  "भ": 6007,
  " onder": 6008,
  " training": 6009,
  " ส": 6010,
  "Tag": 6011,
  "ീ": 6012,
  " […": 6013,
  " ம": 6014,
  " sy": 6015,
  " Cre": 6017,
  " switch": 6018,
  "ITY": 6019,
  "ums": 6020,
  " regard": 6021,
  "level": 6022,
  "tty": 6023,
  "ffer": 6024,
  " taking": 6025,
  " delete": 6026,
  " center": 6028,
  " gi": 6029,
  "ых": 6030,
  " Pe": 6031,
  "ighb": 6032,
  " draw": 6033,
  " York": 6034,
  " nous": 6035,
  " seen": 6036,
  " AND": 6037,
  " internet": 6038,
  "(S": 6040,
  "_str": 6041,
  " React": 6042,
  "ય": 6043,
  " TV": 6044,
  "Case": 6045,
  " screen": 6046,
  "-M": 6047,
  "же": 6048,
  "emos": 6049,
  "ներ": 6050,
  "acht": 6051,
  "rowser": 6052,
  "Frame": 6053,
  "rt": 6054,
  " performance": 6055,
  " among": 6056,
  "now": 6057,
  "ieren": 6058,
  " اس": 6059,
  "ԥ": 6060,
  "anced": 6061,
  "Dec": 6062,
  "istic": 6063,
  " Check": 6064,
  " మ": 6065,
  " sing": 6066,
  " lang": 6067,
  " wonder": 6068,
  " Just": 6069,
  "வ": 6070,
  "(false": 6071,
  " prior": 6072,
  "ipment": 6074,
  " как": 6075,
  " tag": 6076,
  "riend": 6077,
  " session": 6078,
  " interface": 6079,
  "ILE": 6080,
  " */\r\n": 6081,
  "ibil": 6082,
  "bs": 6083,
  "block": 6084,
  "51": 6085,
  " impact": 6086,
  " www": 6087,
  " remove": 6088,
  "igo": 6089,
  "_url": 6090,
  "anner": 6091,
  "ē": 6092,
  " **": 6093,
  "untime": 6094,
  "Items": 6095,
  "msg": 6096,
  "ید": 6097,
  "ини": 6098,
  " auth": 6099,
  " natural": 6100,
  "gi": 6101,
  ".io": 6102,
  " kann": 6103,
  " rate": 6104,
  "DA": 6106,
  " priv": 6107,
  ".H": 6108,
  "ٹ": 6109,
  " rap": 6110,
  "IST": 6111,
  "რ�": 6112,
  "aven": 6113,
  "ეს": 6114,
  "പ": 6116,
  ".getElementById": 6117,
  "\tt": 6118,
  "ounter": 6119,
  " loss": 6120,
  " Europe": 6121,
  "ở": 6122,
  "Oper": 6123,
  "bor": 6124,
  "(a": 6125,
  " è": 6126,
  "then": 6127,
  "್ಲ": 6128,
  "Am": 6129,
  "oj": 6130,
  "ית": 6131,
  " Acc": 6132,
  " votre": 6133,
  "်": 6134,
  " თ": 6135,
  " building": 6136,
  "52": 6137,
  " cannot": 6138,
  "ras": 6139,
  " feature": 6140,
  " integr": 6141,
  "================================": 6142,
  " бы": 6143,
  " actual": 6144,
  " files": 6145,
  ").\n": 6147,
  "ం": 6148,
  "issions": 6149,
  "adu": 6150,
  " एक": 6151,
  ".label": 6152,
  "hl": 6153,
  " relationship": 6154,
  "icos": 6155,
  "ய": 6156,
  "ું": 6157,
  "asta": 6158,
  "ู": 6159,
  "िए": 6160,
  "Output": 6161,
  " After": 6162,
  " sec": 6163,
  "chema": 6164,
  "imento": 6165,
  "ULT": 6166,
  "ń": 6167,
  "istrib": 6168,
  "adem": 6169,
  " Return": 6170,
  "τα": 6171,
  "ალ": 6172,
  "-st": 6173,
  " opp": 6174,
  "ही": 6175,
  " ર": 6177,
  " init": 6178,
  "host": 6179,
  "ป": 6180,
  " ने": 6181,
  " opport": 6182,
  "β": 6183,
  "with": 6184,
  "(value": 6185,
  "ago": 6186,
  "-r": 6187,
  " tro": 6188,
  "।\n\n": 6189,
  "(true": 6190,
  "イ": 6191,
  " technology": 6192,
  " brand": 6193,
  "kin": 6194,
  "”\n\n": 6195,
  "pc": 6196,
  "У": 6198,
  "ણ": 6199,
  " command": 6200,
  "UG": 6201,
  "ided": 6202,
  "لم": 6203,
  "Te": 6204,
  " voc": 6205,
  " exact": 6206,
  " comfort": 6207,
  "կ": 6208,
  " background": 6209,
  "ober": 6210,
  "MS": 6211,
  "edit": 6212,
  " platform": 6213,
  "Rel": 6214,
  " grand": 6215,
  "ellen": 6216,
  " implement": 6217,
  "heet": 6218,
  " worden": 6219,
  " percent": 6220,
  "alle": 6221,
  "izes": 6222,
  "\"\"": 6223,
  " hotel": 6224,
  "ավ": 6225,
  " हैं": 6226,
  " half": 6227,
  "Card": 6228,
  " sig": 6229,
  "\"/": 6230,
  "്ച": 6231,
  "ís": 6232,
  "semb": 6233,
  " και": 6234,
  "kom": 6235,
  "éd": 6236,
  "bserv": 6237,
  " except": 6238,
  " sen": 6239,
  " selected": 6240,
  " Hot": 6241,
  "Auth": 6242,
  " pan": 6243,
  " words": 6244,
  " component": 6245,
  " rights": 6246,
  " resol": 6247,
  " Pres": 6248,
  "izing": 6249,
  "odo": 6250,
  "лар": 6251,
  "иш": 6252,
  " Event": 6253,
  " со": 6254,
  "Ver": 6255,
  " از": 6256,
  " pi": 6257,
  " living": 6258,
  "รี": 6259,
  " అ": 6260,
  "acion": 6261,
  " conditions": 6262,
  " travel": 6263,
  " management": 6264,
  " Park": 6265,
  " थ": 6267,
  "ле": 6268,
  "ред": 6269,
  "POST": 6270,
  " seu": 6271,
  "vision": 6272,
  "Br": 6273,
  " believe": 6274,
  " ком": 6275,
  "_time": 6276,
  " sites": 6277,
  " foot": 6278,
  ".assert": 6279,
  "кт": 6280,
  " میں": 6281,
  " True": 6282,
  " ST": 6283,
  " пред": 6284,
  "rs": 6285,
  " End": 6286,
  " الج": 6287,
  " language": 6288,
  "ership": 6289,
  " receive": 6290,
  ".TabIndex": 6291,
  "ROM": 6292,
  "Server": 6293,
  " claim": 6294,
  " dog": 6295,
  "Open": 6296,
  "Window": 6297,
  "Do": 6298,
  "player": 6299,
  " potential": 6300,
  " fire": 6301,
  " Gre": 6302,
  "ые": 6303,
  " staff": 6304,
  "dir": 6305,
  " nog": 6306,
  "قد": 6307,
  "though": 6308,
  " white": 6309,
  " simply": 6310,
  " ख": 6311,
  "ך": 6312,
  " ${": 6313,
  "Stat": 6314,
  " veh": 6315,
  " five": 6316,
  "fs": 6317,
  "уб": 6318,
  "section": 6319,
  "าร": 6320,
  "tries": 6321,
  "ṣ": 6322,
  "ño": 6323,
  " esta": 6324,
  "aria": 6325,
  "}}": 6326,
  "니다": 6327,
  "וא": 6328,
  "ismo": 6329,
  "Thread": 6330,
  "enta": 6331,
  "inner": 6332,
  "efore": 6333,
  " ill": 6334,
  "-to": 6335,
  "gest": 6336,
  "igin": 6337,
  " kar": 6338,
  " კ": 6339,
  "translation": 6340,
  " Service": 6341,
  "ety": 6342,
  "ERT": 6343,
  " description": 6344,
  " કર": 6345,
  "airs": 6346,
  "Max": 6347,
  "uni": 6348,
  " Oct": 6349,
  "oph": 6350,
  "tex": 6351,
  " Port": 6352,
  " mut": 6353,
  "аг": 6354,
  "esta": 6355,
  " entire": 6356,
  " hol": 6357,
  "ori": 6358,
  "்ட": 6359,
  " \"\\": 6360,
  "Level": 6361,
  "196": 6362,
  "ाय": 6363,
  "bit": 6364,
  " dro": 6365,
  " .\n\n": 6366,
  "ursor": 6367,
  " todo": 6368,
  " casino": 6369,
  " ju": 6370,
  " த": 6371,
  " everyone": 6372,
  "ื": 6373,
  " Her": 6374,
  "alo": 6375,
  " জ": 6376,
  " Sw": 6377,
  "یں": 6378,
  "ptember": 6379,
  "iso": 6380,
  "_get": 6381,
  "بي": 6382,
  " conv": 6383,
  " Def": 6384,
  " Ap": 6385,
  " bud": 6386,
  "alls": 6387,
  " nou": 6388,
  " difficult": 6389,
  " SE": 6390,
  "уж": 6391,
  " further": 6392,
  "omet": 6393,
  " stock": 6394,
  "Е": 6395,
  " 이": 6396,
  " Now": 6397,
  " δ": 6398,
  "izar": 6399,
  " ү": 6400,
  "find": 6401,
  " ger": 6402,
  " wird": 6403,
  "icrosoft": 6404,
  "-g": 6405,
  "ัน": 6406,
  "ture": 6407,
  " Stud": 6408,
  "ಸ": 6409,
  "Length": 6410,
  " deze": 6411,
  " '@": 6412,
  "으": 6413,
  " decl": 6414,
  "ál": 6415,
  "istry": 6416,
  "း": 6417,
  " та": 6418,
  " ~": 6419,
  " nas": 6420,
  "Current": 6421,
  " root": 6422,
  "�়": 44038,
  " gam": 6424,
  "click": 6425,
  "Bo": 6426,
  "AGE": 6427,
  "Г": 6428,
  "_E": 6429,
  " Create": 6430,
  " School": 6431,
  "coming": 6432,
  " emb": 6433,
  "(id": 6434,
  " saf": 6435,
  "igt": 6436,
  " vir": 6437,
  "ень": 6438,
  "ellent": 6439,
  "ham": 6440,
  "lem": 6441,
  " High": 6442,
  "Params": 6443,
  " Ze": 6444,
  "uw": 6445,
  " ts": 6446,
  " token": 6447,
  "itting": 6448,
  "aste": 6449,
  "ական": 6450,
  "ABLE": 6451,
  "եր�": 6452,
  " ord": 6453,
  "istory": 6454,
  " San": 6455,
  " Integer": 6456,
  "ינ": 6457,
  " һ": 6459,
  " Sol": 6460,
  "'est": 6461,
  "('/": 6462,
  "ில": 6463,
  " descri": 6464,
  " Mus": 6465,
  ",'": 6466,
  " Ma": 6467,
  "Email": 6468,
  " additional": 6469,
  "DF": 6470,
  " Air": 6471,
  " issue": 6472,
  "Game": 6473,
  "iene": 6474,
  " changes": 6475,
  "ړ": 6476,
  ".annotation": 6477,
  "が": 6478,
  "Web": 6479,
  "ég": 6480,
  ".\"\n\n": 6481,
  "ije": 6482,
  "ır": 6483,
  "\"));\n": 6484,
  ";\n\n/": 6485,
  "Adapter": 6486,
  "_ID": 6487,
  "oder": 6488,
  "_DE": 6490,
  "aren": 6491,
  ">();\n": 6492,
  "ന്ന": 6493,
  " han": 6494,
  "imm": 6495,
  "ная": 6496,
  " paper": 6497,
  "िस": 6498,
  " cele": 6499,
  "ции": 6500,
  "েন": 6501,
  "SP": 6503,
  "*\n": 6504,
  "лен": 6505,
  "ッ": 6506,
  "әт": 6507,
  "/d": 6508,
  "라": 6509,
  " includes": 6510,
  "cher": 6511,
  " ga": 6512,
  "see": 6513,
  "sem": 6514,
  " ArrayList": 6515,
  "لك": 6516,
  "weet": 6517,
  ".ap": 6518,
  "ERS": 6519,
  "anning": 6520,
  " yourself": 6521,
  "ん": 6522,
  " sua": 6523,
  "уш": 6524,
  " Pat": 6525,
  "offset": 6526,
  "Lo": 6527,
  "وق": 6528,
  "last": 6529,
  "800": 6530,
  " marketing": 6531,
  ".toString": 6532,
  " forward": 6533,
  " Time": 6534,
  ".next": 6535,
  " filter": 6536,
  "pg": 6537,
  " mir": 6538,
  " ר": 6539,
  "enses": 6540,
  ".state": 6542,
  " taken": 6543,
  " contract": 6544,
  " \"/": 6545,
  " trying": 6546,
  "idge": 6547,
  "Json": 6548,
  " connection": 6549,
  "рат": 6550,
  " tech": 6551,
  " bab": 6552,
  " ses": 6553,
  "igher": 6554,
  " crit": 6555,
  "ിന": 6556,
  "actions": 6557,
  "Min": 6558,
  " bill": 6559,
  "osed": 6560,
  " બ": 6561,
  " refer": 6562,
  " az": 6563,
  "600": 6564,
  "lose": 6565,
  "lik": 6566,
  "Record": 6567,
  "sten": 6568,
  " areas": 6569,
  "_key": 6570,
  " active": 6571,
  " however": 6572,
  "Unit": 6573,
  "ør": 6574,
  "änd": 6575,
  " för": 6576,
  "حد": 6577,
  "54": 6578,
  "_value": 6579,
  " š": 6580,
  " छ": 6581,
  " States": 6582,
  "bi": 6583,
  "Equals": 6584,
  "ointer": 6585,
  " inde": 6586,
  ".Name": 6587,
  " National": 6588,
  "_info": 6589,
  "ще": 6590,
  "Password": 6591,
  " عن": 6592,
  "ास": 6594,
  "dev": 6595,
  " quite": 6596,
  " reserv": 6597,
  " };\n\n": 6598,
  " č": 6599,
  " ensure": 6600,
  "AND": 6601,
  " Serv": 6602,
  " student": 6603,
  " border": 6604,
  "yes": 6606,
  " ח": 6607,
  ".write": 6608,
  " mode": 6609,
  "96": 6610,
  "ый": 6611,
  " similar": 6612,
  " inside": 6613,
  "être": 6614,
  "ні": 6615,
  " einen": 6616,
  "cing": 6617,
  "\"><": 6618,
  "él": 6619,
  "וד": 6620,
  " soon": 6621,
  "CA": 6622,
  " dal": 6623,
  "(\"#": 6624,
  " tom": 6625,
  " wor": 6626,
  " almost": 6627,
  " running": 6628,
  " Count": 6629,
  " financial": 6630,
  " separ": 6631,
  "ინ": 6632,
  "°": 6633,
  " TH": 6634,
  "})\n": 6635,
  " board": 6636,
  "lam": 6637,
  "53": 6638,
  " او": 6639,
  " South": 6640,
  "('#": 6641,
  "gar": 6642,
  "pected": 6643,
  " plant": 6644,
  "еж": 6645,
  " doc": 6646,
  " ax": 6647,
  "aves": 6648,
  " modern": 6649,
  "ერ": 6651,
  "udo": 6652,
  " \",": 6653,
  " \\\n": 6654,
  " Ent": 6655,
  "Entry": 6656,
  "Application": 6657,
  "87": 6658,
  " ე": 6659,
  ".png": 6660,
  " currently": 6661,
  " Color": 6662,
  " Work": 6663,
  "uli": 6664,
  " ہے": 6665,
  " котор": 6666,
  "endar": 6667,
  "_A": 6669,
  "car": 6670,
  " fan": 6671,
  " >>": 6672,
  " waar": 6673,
  "oz": 6674,
  " Will": 6675,
  " sv": 6676,
  " era": 6677,
  "’est": 6678,
  " problems": 6680,
  "CTION": 6681,
  " tab": 6682,
  "opping": 6683,
  "ذا": 6684,
  "anga": 6685,
  "ា�": 6688,
  " ಪ": 6689,
  " Exception": 6690,
  " flex": 6691,
  "ာ": 6692,
  " <!--": 6693,
  " stream": 6694,
  " ful": 6695,
  "empty": 6696,
  ".Data": 6699,
  "akes": 6700,
  "hem": 6702,
  "اه": 6703,
  "bon": 6704,
  " nur": 6705,
  "(\"/": 6706,
  "िया": 6707,
  "vest": 6708,
  " prem": 6709,
  " credit": 6710,
  " ž": 6711,
  " muit": 6712,
  "tx": 6713,
  "}>\n": 6714,
  " jed": 6715,
  "ERE": 6716,
  " ded": 6717,
  ".view": 6718,
  "ác": 6719,
  "Rem": 6720,
  "анд": 6721,
  " designed": 6722,
  " office": 6723,
  "hib": 6724,
  "το": 6725,
  " Na": 6726,
  "uda": 6727,
  " Rem": 6728,
  "Function": 6730,
  "ban": 6731,
  " template": 6732,
  "igger": 6733,
  "container": 6734,
  "ifi": 6735,
  " latest": 6736,
  " Best": 6737,
  "pare": 6738,
  "adius": 6739,
  "อง": 6740,
  "afe": 6741,
  "Book": 6742,
  " UI": 6743,
  "iting": 6744,
  "ahr": 6745,
  "Work": 6746,
  "tml": 6747,
  " Online": 6748,
  "250": 6749,
  "აც": 6750,
  " third": 6751,
  "hu": 6753,
  "्व": 6754,
  "items": 6755,
  "peed": 6756,
  " famil": 6757,
  " insp": 6758,
  " bank": 6759,
  "ev": 6760,
  "일": 6761,
  " todos": 6762,
  " aqu": 6763,
  " fem": 6764,
  " sab": 6765,
  "can": 6766,
  " lower": 6767,
  "(v": 6768,
  " significant": 6769,
  "selves": 6770,
  "osa": 6771,
  "Init": 6772,
  "otype": 6773,
  " nothing": 6775,
  "ّ": 6776,
  "Session": 6777,
  " effort": 6778,
  "গ": 6779,
  "ே": 6780,
  "են": 6781,
  " Het": 6782,
  " takes": 6783,
  "Last": 6784,
  " NS": 6785,
  " Book": 6786,
  "ੀ": 6787,
  " regular": 6788,
  " fill": 6789,
  "rapper": 6790,
  " heeft": 6791,
  " compr": 6792,
  " bin": 6793,
  " mid": 6794,
  " likely": 6795,
  "??": 6796,
  "king": 6797,
  "માં": 6798,
  " fra": 6799,
  "ência": 6800,
  "Parameter": 6801,
  " told": 6802,
  "-S": 6803,
  "isse": 6804,
  " tour": 6805,
  " usually": 6806,
  "зы": 6807,
  "quence": 6809,
  "++;\n": 6810,
  " ready": 6811,
  "core": 6812,
  " hac": 6813,
  " especially": 6814,
  " msg": 6815,
  " gew": 6816,
  " ways": 6818,
  "cry": 6819,
  " Ac": 6820,
  "och": 6822,
  "ите": 6823,
  "ақ": 6824,
  "pm": 6825,
  "uv": 6826,
  "isation": 6827,
  "fin": 6828,
  "icient": 6829,
  "る": 6830,
  " organiz": 6831,
  "eler": 6832,
  "Args": 6833,
  " deliver": 6834,
  ".net": 6835,
  " ib": 6836,
  " Type": 6837,
  "node": 6839,
  " Facebook": 6840,
  " చ": 6841,
  "bers": 6842,
  "fil": 6843,
  "uta": 6844,
  "ALL": 6845,
  " restaur": 6846,
  " recommend": 6847,
  "(T": 6848,
  " models": 6849,
  "Av": 6850,
  " 있": 6851,
  "عة": 6852,
  " Ant": 6853,
  "Collections": 6854,
  "ρο": 6855,
  " Game": 6856,
  "וב": 6857,
  " standard": 6858,
  "adata": 6859,
  " الش": 6860,
  "CR": 6861,
  " requ": 6862,
  " Les": 6863,
  "register": 6864,
  " risk": 6865,
  "while": 6866,
  " המ": 6867,
  "ithub": 6868,
  "್ತ": 6869,
  "awa": 6870,
  " \"\"\"\n": 6871,
  " probably": 6872,
  " params": 6873,
  "pha": 6874,
  " '/": 6875,
  " reviews": 6876,
  ".prot": 6877,
  "һ": 6879,
  "images": 6880,
  "ект": 6881,
  " kön": 6882,
  " manufact": 6883,
  "ischen": 6884,
  "(!": 6885,
  "ル": 6886,
  " agre": 6887,
  "_x": 6888,
  "бот": 6889,
  "ным": 6890,
  " tar": 6891,
  " digital": 6892,
  " الف": 6893,
  " announc": 6894,
  " condition": 6895,
  "efined": 6896,
  " Soc": 6897,
  "apa": 6898,
  " increase": 6899,
  " according": 6900,
  "\tString": 6901,
  "ní": 6902,
  "IA": 6903,
  "iding": 6904,
  "*/\n": 6905,
  " ҳ": 6906,
  " entr": 6907,
  "《": 6908,
  " cause": 6909,
  "ામ": 6910,
  " Tw": 6911,
  "Interface": 6912,
  " Inc": 6913,
  "له": 6914,
  "Phone": 6915,
  "ाह": 6916,
  " ал": 6917,
  "וע": 6918,
  "atas": 6919,
  " å": 6920,
  "arth": 6921,
  "Mon": 6922,
  "tribution": 6923,
  "amily": 6924,
  "(pro": 6925,
  "verse": 6926,
  " vez": 6927,
  " tut": 6928,
  "Version": 6929,
  " plac": 6930,
  "avigation": 6931,
  " Del": 6932,
  " Day": 6933,
  " அ": 6934,
  " section": 6935,
  " hit": 6936,
  "итель": 6937,
  "ctx": 6938,
  " lov": 6939,
  "mos": 6940,
  "್ಯ": 6941,
  " (\"": 6942,
  " Hand": 6943,
  " fail": 6944,
  "Api": 6945,
  "FT": 6947,
  " NOT": 6948,
  " song": 6949,
  " transform": 6950,
  "(get": 6951,
  "mbly": 6952,
  "Obj": 6953,
  "ා": 6954,
  "_se": 6955,
  " knowledge": 6956,
  "iny": 6957,
  "\tbreak": 6958,
  "First": 6959,
  "か": 6960,
  "alar": 6961,
  "ourse": 6962,
  "enge": 6963,
  "aki": 6964,
  "ustral": 6965,
  "ños": 6966,
  "rest": 6967,
  " до": 6968,
  " кон": 6969,
  " approach": 6970,
  "angle": 6971,
  " mobile": 6972,
  " production": 6973,
  " غ": 6974,
  " bag": 6975,
  "bsp": 6976,
  "\";\r\n": 6977,
  ".ToString": 6978,
  "_user": 6979,
  "oding": 6980,
  " lie": 6981,
  " happy": 6982,
  "adores": 6983,
  "Details": 6984,
  ".To": 6985,
  "INT": 6986,
  " sales": 6987,
  "త": 6988,
  "heid": 6989,
  " choice": 6990,
  "merc": 6991,
  " fab": 6992,
  " эт": 6993,
  "ű": 6994,
  " you're": 6995,
  " consum": 6996,
  " matter": 6997,
  "holder": 6998,
  " couple": 6999,
  " related": 7000,
  " Rob": 7001,
  "dule": 7002,
  "Reader": 7003,
  " ş": 7004,
  "Helper": 7005,
  " फ": 7006,
  "emp": 7007,
  " fo": 7008,
  "ਰ": 7009,
  " recent": 7010,
  " إلى": 7011,
  " North": 7012,
  " definit": 7013,
  "аж": 7014,
  "avi": 7015,
  "ая": 7016,
  "​�": 7017,
  ".txt": 7018,
  " books": 7019,
  " PM": 7020,
  "86": 7021,
  "кі": 7022,
  " Mod": 7023,
  "ikk": 7024,
  "ган": 7025,
  "িক": 7026,
  "(user": 7027,
  "emo": 7028,
  "tras": 7029,
  "apan": 7030,
  "Tool": 7031,
  " ச": 7032,
  " wanted": 7033,
  "btn": 7034,
  " security": 7035,
  " bis": 7036,
  "src": 7037,
  " Windows": 7038,
  "ർ": 7040,
  "ته": 7041,
  " ಅ": 7042,
  ".read": 7043,
  "Process": 7044,
  "อล": 7045,
  "iko": 7046,
  "imi": 7047,
  "byte": 7048,
  " From": 7049,
  " estab": 7050,
  " AM": 7051,
  "ते": 7052,
  " ի": 7053,
  "values": 7054,
  "يم": 7055,
  " subs": 7056,
  " ru": 7057,
  " Sl": 7058,
  " Met": 7059,
  " dise": 7060,
  " foi": 7061,
  "ੇ": 7062,
  " drug": 7063,
  "UB": 7064,
  " کو": 7065,
  "sets": 7066,
  "ches": 7067,
  " ос": 7068,
  "Body": 7069,
  " players": 7070,
  "'),\n": 7071,
  " imm": 7072,
  " <?": 7073,
  "atar": 7074,
  " yo": 7075,
  "З": 7076,
  " coming": 7077,
  "Sl": 7078,
  " amaz": 7079,
  " את": 7080,
  " Center": 7081,
  "eline": 7082,
  " entry": 7083,
  "אָ": 7084,
  "sch": 7085,
  "auto": 7086,
  "_col": 7087,
  "ெ": 7088,
  " req": 7089,
  "ების": 7090,
  ".parse": 7091,
  "ех": 7092,
  " aj": 7093,
  "יל": 7094,
  "(err": 7095,
  " pretty": 7096,
  " desc": 7097,
  " higher": 7098,
  " meer": 7099,
  " Math": 7100,
  " published": 7101,
  "irit": 7102,
  " bol": 7103,
  "ospital": 7105,
  " Feb": 7106,
  "ран": 7107,
  "ining": 7108,
  "を": 7109,
  "Ste": 7110,
  "न्�": 7111,
  "ishing": 7112,
  "uster": 7113,
  " Found": 7114,
  " pero": 7115,
  "raint": 7116,
  "Engine": 7117,
  "》": 7118,
  "-up": 7119,
  "bum": 7120,
  "echo": 7121,
  "nb": 7122,
  "്പ": 7123,
  "ిం�": 7124,
  "ப": 7125,
  "atory": 7126,
  "PT": 7127,
  "り": 7128,
  " frame": 7129,
  "ening": 7130,
  "chan": 7131,
  "رف": 7133,
  "Account": 7134,
  "ಯ": 7135,
  " इस": 7136,
  " Here": 7137,
  "ои": 7138,
  " од": 7139,
  "');\n\n": 7140,
  " altern": 7141,
  "next": 7142,
  "ков": 7143,
  " official": 7144,
  " purchase": 7145,
  "ಲ್ಲ": 7146,
  "kr": 7147,
  " Name": 7148,
  "ગ": 7149,
  "Store": 7150,
  ".col": 7151,
  "lice": 7152,
  " immedi": 7153,
  " gas": 7154,
  "ekt": 7155,
  "Access": 7156,
  " الإ": 7157,
  " vel": 7158,
  "ín": 7159,
  " ig": 7160,
  "정": 7161,
  "aling": 7162,
  "ead": 7163,
  " prevent": 7164,
  "empl": 7165,
  " sun": 7166,
  " Program": 7167,
  " το": 7168,
  "ೂ": 7169,
  " ما": 7170,
  " ris": 7171,
  "temp": 7172,
  "'ve": 7173,
  " machine": 7174,
  " Map": 7175,
  " thems": 7176,
  "మ": 7177,
  "री": 7178,
  " virtual": 7179,
  "_SIZE": 7180,
  "orge": 7181,
  "PC": 7182,
  "�്ച": 7183,
  " sound": 7184,
  "rown": 7185,
  " round": 7186,
  " WH": 7187,
  "تم": 7188,
  "Widget": 7189,
  " sale": 7190,
  " й": 7191,
  "etime": 7192,
  " included": 7193,
  ".status": 7194,
  " party": 7195,
  " prefer": 7196,
  " noch": 7197,
  " الد": 7198,
  "lluminate": 7199,
  "ITH": 7200,
  "acks": 7201,
  "()\r\n": 7202,
  " tur": 7203,
  "ായ": 7204,
  "ads": 7205,
  " concern": 7206,
  "িন": 7207,
  " absol": 7208,
  "idas": 7209,
  "ACK": 7210,
  " returns": 7211,
  "ASS": 7212,
  " einer": 7213,
  " Internet": 7214,
  " touch": 7215,
  "ensor": 7216,
  "));\n\n": 7217,
  "Ext": 7218,
  "dom": 7219,
  " arch": 7220,
  "ė": 7221,
  " или": 7222,
  "ਿ": 7223,
  "arter": 7224,
  "}</": 7225,
  " investig": 7226,
  "only": 7227,
  "tag": 7228,
  "જ": 7229,
  " oil": 7230,
  "ideos": 7231,
  " shows": 7232,
  "inition": 7233,
  "asc": 7234,
  "ensions": 7235,
  " pel": 7236,
  " nice": 7237,
  " zum": 7238,
  " ci": 7239,
  "ҡ": 7240,
  " progress": 7241,
  " temper": 7242,
  "_tr": 7243,
  " longer": 7244,
  " mai": 7245,
  "-\n": 7246,
  "quare": 7247,
  "oni": 7248,
  " resources": 7249,
  "Price": 7250,
  "enden": 7251,
  " ಹ": 7252,
  "(w": 7253,
  "adh": 7255,
  "=$": 7256,
  ".setText": 7257,
  "ൽ": 7258,
  "geb": 7259,
  "ени": 7260,
  " /**": 7261,
  " EX": 7262,
  " six": 7263,
  " kr": 7264,
  "BA": 7265,
  " pain": 7266,
  "ptr": 7267,
  " सम": 7268,
  "oko": 7269,
  " sell": 7270,
  "styles": 7271,
  "ournal": 7273,
  " parte": 7274,
  " î": 7275,
  "oring": 7276,
  "ное": 7277,
  " fol": 7278,
  " য": 7279,
  "ague": 7280,
  "<quote": 7281,
  " treatment": 7282,
  " weeks": 7283,
  "`\n": 7284,
  " Product": 7285,
  "duc": 7286,
  "แ": 7287,
  "LL": 7288,
  "رة": 7289,
  "ება": 7290,
  " இ": 7291,
  "ares": 7292,
  "Category": 7294,
  " esp": 7295,
  " sé": 7296,
  "prise": 7297,
  "alia": 7298,
  " graph": 7299,
  "iser": 7300,
  "ictionary": 7301,
  "ிய": 7302,
  "otion": 7303,
  " einem": 7304,
  "Left": 7305,
  " პ": 7306,
  " fait": 7307,
  " -->\n": 7308,
  "จ": 7309,
  "ailed": 7310,
  " note": 7311,
  "ARR": 7312,
  "89": 7313,
  "wise": 7314,
  "fol": 7315,
  "acional": 7316,
  "auf": 7317,
  "esc": 7318,
  " clients": 7319,
  ".core": 7320,
  " տ": 7321,
  "გ": 7322,
  "یر": 7323,
  "Š": 7324,
  "wi": 7325,
  " menu": 7326,
  " images": 7327,
  " الق": 7328,
  "рем": 7329,
  "yy": 7330,
  "'\n\n": 7331,
  "Selected": 7332,
  "є": 7333,
  "さ": 7334,
  "ும்": 7335,
  "area": 7336,
  " им": 7337,
  " held": 7338,
  " announ": 7339,
  "bug": 7340,
  " haben": 7341,
  "iche": 7342,
  "ць": 7343,
  " systems": 7344,
  "τη": 7345,
  "ому": 7346,
  " onClick": 7347,
  "لی": 7348,
  " drive": 7349,
  " tor": 7350,
  " په": 7351,
  "ango": 7352,
  "ौ": 7353,
  " );\n\n": 7354,
  "180": 7355,
  " hun": 7356,
  " learning": 7357,
  " random": 7358,
  " را": 7359,
  " UR": 7360,
  " gest": 7361,
  "те": 7362,
  "_con": 7363,
  " continu": 7364,
  "ilo": 7365,
  "\":\"": 7366,
  "----------------------------------------------------------------": 7367,
  "_count": 7368,
  " hy": 7369,
  " viol": 7370,
  " outside": 7371,
  " του": 7372,
  " Av": 7373,
  " rather": 7374,
  "лі": 7375,
  " international": 7376,
  " anyone": 7377,
  "esso": 7378,
  "inst": 7379,
  " forma": 7380,
  " worth": 7381,
  " ա�": 7382,
  "BC": 7383,
  "enz": 7385,
  "aks": 7386,
  "eto": 7387,
  "false": 7388,
  " upon": 7389,
  "ests": 7390,
  " calcul": 7391,
  " оп": 7392,
  " March": 7393,
  " policy": 7394,
  "হ": 7395,
  " Software": 7396,
  " الن": 7397,
  " located": 7398,
  "anuary": 7399,
  " introdu": 7400,
  "\\u": 7401,
  "flow": 7402,
  "Press": 7403,
  "ുന": 7404,
  " aud": 7406,
  "ары": 7407,
  "ға": 7408,
  " solution": 7409,
  " faz": 7410,
  "Vector": 7411,
  " distributed": 7412,
  " written": 7413,
  " vert": 7414,
  " ?>": 7415,
  "lang": 7416,
  " facil": 7417,
  "ography": 7418,
  "onder": 7419,
  "jes": 7421,
  " Har": 7422,
  "istics": 7423,
  "dy": 7424,
  "bed": 7425,
  " computer": 7426,
  " الك": 7427,
  "ના": 7428,
  " multiple": 7429,
  "ம": 7430,
  " ++": 7431,
  "aman": 7432,
  " ^": 7433,
  "vector": 7434,
  "amera": 7435,
  "xx": 7436,
  "aly": 7437,
  "INE": 7438,
  ".query": 7439,
  "ady": 7440,
  "พ": 7441,
  "/b": 7442,
  "password": 7443,
  " Black": 7444,
  "imary": 7445,
  "ұ": 7446,
  "ynamic": 7447,
  "hol": 7448,
  ".sub": 7449,
  " confirm": 7450,
  ".\n//": 7451,
  "++)\n": 7452,
  "его": 7453,
  " FOR": 7454,
  "nav": 7455,
  " reach": 7456,
  "τε": 7457,
  "price": 7458,
  " hij": 7459,
  "وب": 7460,
  "agram": 7461,
  "123": 7462,
  " mens": 7463,
  "ξ": 7464,
  "ū": 7466,
  "ço": 7467,
  "atisf": 7468,
  "nie": 7469,
  " nem": 7470,
  "ramework": 7471,
  "itu": 7472,
  " Inst": 7473,
  "ứ": 7474,
  "\"),": 7475,
  " nt": 7476,
  "స": 7477,
  "ρα": 7478,
  " Use": 7479,
  "Configuration": 7480,
  "Pol": 7481,
  " اور": 7482,
  "아": 7483,
  "IE": 7484,
  " April": 7485,
  "Route": 7486,
  " •": 7487,
  " мен": 7488,
  "001": 7489,
  "ungs": 7490,
  " EN": 7491,
  "나": 7492,
  "ය": 7493,
  " instead": 7494,
  "raf": 7495,
  "్న": 7496,
  " leave": 7497,
  "':\n": 7498,
  " unit": 7499,
  "END": 7500,
  "102": 7501,
  ".Set": 7502,
  "Que": 7503,
  " ei": 7504,
  "?.": 7505,
  ".json": 7506,
  "ees": 7507,
  "ाद": 7508,
  " appear": 7509,
  "장": 7510,
  "ई": 7511,
  "ascript": 7512,
  "TP": 7513,
  "äl": 7514,
  " feed": 7515,
  "riteria": 7516,
  "card": 7517,
  " propos": 7518,
  "OST": 7519,
  " san": 7520,
  "ountry": 7521,
  "location": 7522,
  " có": 7523,
  "Next": 7524,
  " cette": 7525,
  " rele": 7526,
  " wordt": 7527,
  "Local": 7528,
  " dia": 7529,
  "eno": 7530,
  " safe": 7531,
  " transport": 7532,
  " צ": 7533,
  " är": 7534,
  ".apache": 7535,
  "աց": 7536,
  "ayment": 7537,
  "Á": 7538,
  "Cal": 7539,
  " الب": 7540,
  "eh": 7541,
  " ಬ": 7542,
  "్య": 7543,
  "ân": 7544,
  "inar": 7545,
  "cu": 7546,
  " న": 7547,
  "NU": 7548,
  "πο": 7549,
  "ца": 7550,
  " English": 7551,
  "FO": 7552,
  " Г": 7553,
  "itchen": 7554,
  "XX": 7555,
  "main": 7556,
  " =\n": 7557,
  " speed": 7558,
  "าย": 7560,
  "rupt": 7561,
  " $_": 7562,
  "رك": 7563,
  "~~": 7564,
  " ground": 7565,
  "्ष": 7566,
  "ToString": 7567,
  "โ": 7568,
  "first": 7569,
  " It's": 7570,
  " kids": 7571,
  "irection": 7572,
  " asked": 7573,
  "_index": 7574,
  " legal": 7575,
  " bul": 7576,
  "ERROR": 7577,
  ".Collections": 7578,
  "adr": 7579,
  " ul": 7580,
  " administr": 7581,
  " assist": 7582,
  " vac": 7583,
  "akan": 7584,
  " Afr": 7585,
  "ún": 7586,
  "login": 7587,
  "ڪ": 7588,
  "ೀ": 7589,
  " એ": 7590,
  "Op": 7591,
  "79": 7592,
  "ക്ക": 7593,
  " national": 7594,
  "ael": 7595,
  " celebr": 7596,
  " ý": 7597,
  " Fin": 7598,
  "ellow": 7599,
  " medical": 7600,
  "ederal": 7601,
  "್ನ": 7602,
  "mercial": 7603,
  "ර": 7604,
  "arden": 7605,
  " എ": 7607,
  " Design": 7608,
  "ду": 7609,
  " Austr": 7610,
  "pack": 7611,
  "ク": 7612,
  " Open": 7613,
  "urrency": 7614,
  " Long": 7615,
  "(g": 7616,
  " His": 7617,
  "сы": 7618,
  "tocol": 7619,
  " apr": 7620,
  "oub": 7621,
  "Settings": 7622,
  "ınd": 7623,
  "ų": 7624,
  "GET": 7625,
  " Then": 7626,
  "esch": 7627,
  " تو": 7628,
  "Red": 7630,
  "ই": 7631,
  " behind": 7632,
  "[:": 7633,
  " rom": 7634,
  "”.": 7635,
  "hood": 7637,
  "nder": 7638,
  "াল": 7639,
  "\tSystem": 7640,
  ".*": 7641,
  "plete": 7642,
  "Found": 7643,
  " recogn": 7644,
  "수": 7645,
  "icha": 7646,
  "ု": 7647,
  "CP": 7649,
  " Mal": 7650,
  " House": 7651,
  "=True": 7652,
  " пос": 7653,
  "float": 7654,
  " то": 7655,
  " tit": 7656,
  " Si": 7657,
  "GL": 7658,
  "Storage": 7659,
  " easily": 7660,
  " Fre": 7661,
  " он": 7662,
  "ipl": 7664,
  " proced": 7665,
  "hold": 7666,
  " June": 7667,
  " late": 7668,
  " flow": 7669,
  "zu": 7670,
  "ajo": 7671,
  " stri": 7672,
  " average": 7673,
  " Group": 7674,
  " education": 7675,
  " Sal": 7676,
  "LECT": 7677,
  "тер": 7678,
  "դ": 7679,
  "मा": 7680,
  " Go": 7682,
  " Direct": 7683,
  "edi": 7684,
  "Þ": 7685,
  ")\n\n\n": 7686,
  " database": 7687,
  "-e": 7688,
  " Bro": 7689,
  " ideas": 7690,
  "195": 7691,
  " nature": 7692,
  " opportunity": 7693,
  "ifest": 7694,
  " skills": 7695,
  "cm": 7696,
  "Rect": 7697,
  " Mag": 7698,
  " spr": 7699,
  " materials": 7700,
  " throughout": 7701,
  "ück": 7702,
  "inda": 7703,
  "ecur": 7704,
  " ball": 7705,
  " parts": 7706,
  " norm": 7707,
  " imag": 7708,
  " cha": 7709,
  "iza": 7710,
  "grid": 7711,
  " comments": 7712,
  " você": 7713,
  "Target": 7714,
  " seems": 7715,
  "ono": 7716,
  " till": 7717,
  "amin": 7718,
  " ANY": 7719,
  "[j": 7720,
  "RA": 7721,
  " مح": 7722,
  "Sign": 7723,
  "יש": 7724,
  " буд": 7725,
  " affect": 7726,
  "ilder": 7727,
  "ట": 7728,
  "illed": 7729,
  " icon": 7730,
  " paint": 7731,
  " Sk": 7733,
  " cases": 7734,
  "blic": 7735,
  "ಮ": 7736,
  "ViewById": 7737,
  "length": 7738,
  "oday": 7739,
  " collect": 7740,
  " ת": 7741,
  " TO": 7742,
  "Each": 7743,
  "110": 7744,
  " Hol": 7745,
  "imation": 7746,
  " Health": 7747,
  "That": 7748,
  "('.": 7749,
  " Key": 7750,
  " allows": 7751,
  " storage": 7752,
  "ൂ": 7753,
  "Long": 7754,
  " Over": 7755,
  "خت": 7756,
  " methods": 7757,
  " दे": 7758,
  " Mc": 7759,
  "ragment": 7760,
  " charg": 7761,
  " proper": 7762,
  " candid": 7763,
  " August": 7765,
  "icket": 7766,
  "Our": 7767,
  "But": 7768,
  "icker": 7769,
  " neighb": 7770,
  "ceed": 7771,
  "(str": 7772,
  "76": 7773,
  "ِ": 7774,
  "itation": 7775,
  " €": 7776,
  "avy": 7777,
  "요": 7778,
  ".WriteLine": 7779,
  "vey": 7780,
  " ந": 7781,
  "ილ": 7782,
  " Main": 7783,
  "aje": 7784,
  " պ": 7785,
  "101": 7786,
  "Project": 7787,
  "ême": 7788,
  "entry": 7789,
  "unities": 7790,
  "anya": 7791,
  " zur": 7792,
  "UD": 7793,
  " sein": 7794,
  " region": 7795,
  " variety": 7796,
  "inger": 7797,
  " که": 7798,
  " comme": 7799,
  " Start": 7800,
  " Sim": 7801,
  "'))": 7802,
  ".map": 7803,
  "sql": 7804,
  "GridView": 7805,
  "graph": 7806,
  " Image": 7807,
  " ;\n": 7808,
  "ემ": 7809,
  "ociety": 7810,
  "band": 7811,
  " False": 7812,
  "트": 7813,
  "лю": 7814,
  ".remove": 7815,
  " skin": 7816,
  "ની": 7817,
  " pun": 7818,
  ":(": 7819,
  "Changed": 7820,
  "ाव": 7821,
  " ip": 7822,
  " excellent": 7823,
  "게": 7825,
  "gorith": 7826,
  "acing": 7827,
  " ڪ": 7828,
  " chat": 7829,
  "Dep": 7830,
  " ത": 7831,
  "emory": 7832,
  "(string": 7833,
  "ORD": 7834,
  "van": 7835,
  "દ": 7836,
  "ുന്ന": 7838,
  "……": 7840,
  "Selector": 7841,
  " complex": 7842,
  "zz": 7843,
  " کر": 7844,
  "atives": 7845,
  " წ": 7846,
  "85": 7847,
  "ற": 7848,
  "ฟ": 7849,
  " exception": 7850,
  "제": 7851,
  "ityEngine": 7852,
  " Top": 7853,
  "_of": 7854,
  " fort": 7855,
  "BO": 7856,
  "ocr": 7857,
  " death": 7858,
  "יק": 7860,
  "ности": 7861,
  " […]\n\n": 7862,
  " !==": 7863,
  " AS": 7864,
  "194": 7865,
  " hebben": 7866,
  "раз": 7867,
  "Co": 7868,
  "ке": 7869,
  " cop": 7870,
  "ancel": 7871,
  "eneric": 7872,
  "_SE": 7874,
  "term": 7875,
  "ция": 7876,
  "ODO": 7877,
  " ס": 7878,
  "িত": 7879,
  "ություն": 7880,
  "ող": 7881,
  " September": 7882,
  " là": 7883,
  "quer": 7885,
  "aign": 7886,
  "module": 7887,
  "үр": 7888,
  " chance": 7889,
  " कि": 7890,
  "ugu": 7891,
  "Tree": 7892,
  " gel": 7893,
  ".Group": 7894,
  " quickly": 7895,
  " Cas": 7896,
  "exp": 7897,
  "lan": 7898,
  "ով": 7899,
  "ี่": 7900,
  " ба": 7901,
  "vez": 7902,
  "riday": 7903,
  "region": 7904,
  "-F": 7905,
  "وں": 7906,
  "128": 7907,
  "Л": 7909,
  "иг": 7910,
  " nom": 7911,
  " դ": 7912,
  "imit": 7913,
  "ijke": 7914,
  " Business": 7915,
  " რომ": 7916,
  "(-": 7917,
  " cross": 7918,
  "jen": 7919,
  "icate": 7920,
  "대": 7921,
  "Option": 7922,
  " programs": 7923,
  "یک": 7924,
  "number": 7925,
  "قة": 7926,
  " უ�": 7927,
  "EXT": 7928,
  "lat": 7929,
  " sist": 7930,
  "cs": 7931,
  " deep": 7932,
  " ones": 7933,
  "ση": 7934,
  "Var": 7935,
  " hair": 7936,
  " America": 7937,
  " lock": 7938,
  " activity": 7939,
  "(result": 7940,
  " insurance": 7941,
  " built": 7942,
  " China": 7943,
  " wish": 7944,
  "ayers": 7945,
  " leading": 7946,
  "ски": 7947,
  " faire": 7948,
  "(h": 7949,
  "از": 7950,
  " weap": 7951,
  "보": 7952,
  "}\n\n//": 7953,
  "ர்": 7954,
  "ropri": 7955,
  "/or": 7956,
  "engan": 7957,
  "qq": 7958,
  "ء": 7959,
  " रह": 7960,
  "MA": 7961,
  "\"),\n": 7962,
  "Login": 7963,
  " Dav": 7964,
  "/p": 7966,
  "eting": 7967,
  "Impl": 7968,
  "URE": 7969,
  " seek": 7970,
  "원": 7971,
  " '<": 7972,
  "192": 7973,
  "Mapping": 7974,
  "imb": 7975,
  " patients": 7976,
  " cart": 7977,
  "rot": 7978,
  "�ে": 7980,
  ".path": 7981,
  "attle": 7982,
  " necessary": 7983,
  " Dan": 7984,
  " cool": 7985,
  " }\n\n\n": 7986,
  "izont": 7987,
  "witch": 7988,
  " Cons": 7989,
  "*)": 7991,
  "ૂ": 7992,
  " tree": 7993,
  "});\n\n": 7994,
  "వ": 7995,
  "False": 7996,
  "top": 7997,
  " July": 7998,
  "ahl": 7999,
  "wood": 8000,
  " activities": 8001,
  " wide": 8002,
  "tempt": 8003,
  " band": 8004,
  "(re": 8005,
  "Ne": 8006,
  "API": 8007,
  "font": 8008,
  ".aw": 8009,
  ".close": 8010,
  " सं": 8011,
  "mar": 8012,
  " Model": 8013,
  "ров": 8014,
  "After": 8015,
  "aire": 8016,
  " nan": 8017,
  "Return": 8018,
  ".List": 8019,
  "ipped": 8020,
  "ాల": 8021,
  " resid": 8022,
  "ര്": 8023,
  " memory": 8024,
  " instit": 8025,
  " consult": 8026,
  "inos": 8027,
  " wrong": 8028,
  ",-": 8029,
  " remember": 8030,
  "-year": 8031,
  " JSON": 8032,
  "users": 8033,
  "style": 8034,
  "～": 8035,
  "ность": 8036,
  " Id": 8037,
  " header": 8038,
  "[$": 8039,
  " empty": 8040,
  "_by": 8041,
  " slot": 8042,
  "ичес": 8043,
  "ए": 8044,
  "account": 8045,
  " сам": 8046,
  " Super": 8047,
  "стан": 8048,
  " unt": 8049,
  "Delete": 8050,
  " looks": 8051,
  "որ": 8052,
  "Port": 8053,
  " implements": 8054,
  " वि�": 8055,
  "more": 8056,
  "tect": 8057,
  "के": 8058,
  " release": 8059,
  " circ": 8060,
  " town": 8061,
  "-based": 8062,
  " Ber": 8063,
  " quant": 8064,
  "ship": 8065,
  "ош": 8066,
  "Active": 8067,
  "__(": 8068,
  "}/": 8069,
  "zie": 8070,
  "sen": 8071,
  " fant": 8072,
  " filename": 8073,
  "ช": 8074,
  " practice": 8075,
  " movie": 8076,
  "weight": 8077,
  "ikt": 8078,
  " playing": 8079,
  " star": 8080,
  "_at": 8081,
  "али": 8082,
  "Please": 8083,
  "CD": 8084,
  "upp": 8085,
  "JSON": 8086,
  "jer": 8087,
  "�்த": 8088,
  "μα": 8089,
  " Person": 8090,
  " Mac": 8091,
  " gan": 8092,
  " growth": 8093,
  "olute": 8094,
  " aber": 8095,
  "ordin": 8096,
  " County": 8097,
  "Total": 8098,
  "জ": 8099,
  " cada": 8100,
  "anges": 8101,
  " saw": 8102,
  " discover": 8103,
  "аны": 8104,
  " kas": 8105,
  "Values": 8106,
  ".res": 8107,
  " Ke": 8108,
  " Any": 8109,
  "்ற": 8110,
  " meng": 8111,
  " immed": 8112,
  " ability": 8113,
  "oker": 8114,
  "-B": 8115,
  " پر": 8116,
  "ҟ": 8117,
  "——": 8118,
  "ап": 8119,
  "EST": 8120,
  "but": 8121,
  "atan": 8122,
  "Dir": 8123,
  " Der": 8124,
  " pap": 8125,
  "gal": 8126,
  " سے": 8127,
  "cd": 8128,
  " pattern": 8129,
  "ington": 8130,
  "(@": 8131,
  " resource": 8132,
  " գ": 8135,
  " photos": 8136,
  "CO": 8137,
  "lı": 8138,
  " hay": 8139,
  "Show": 8140,
  "template": 8141,
  "ymbol": 8142,
  " useful": 8143,
  "Controls": 8144,
  "ouw": 8145,
  " არ": 8146,
  "ಾಗ": 8147,
  " Microsoft": 8148,
  "ATA": 8149,
  " tan": 8150,
  "cz": 8151,
  " الص": 8153,
  "icens": 8154,
  "ů": 8155,
  "בר": 8156,
  "_code": 8157,
  "(res": 8158,
  "＿": 8159,
  "ueue": 8160,
  " expert": 8161,
  "っ": 8162,
  "اع": 8163,
  "ategories": 8164,
  " First": 8165,
  "ological": 8166,
  " favorite": 8167,
  " compar": 8169,
  "لة": 8170,
  " ў": 8171,
  "avel": 8172,
  "ետ": 8173,
  "ора": 8174,
  " Link": 8175,
  " ton": 8176,
  " floor": 8177,
  " Http": 8178,
  "лы": 8179,
  "ाज": 8180,
  " lives": 8181,
  "тә": 8182,
  "ყ": 8183,
  ".current": 8184,
  " margin": 8185,
  " properties": 8186,
  "ӣ": 8187,
  "@Override": 8188,
  " charge": 8189,
  ".In": 8190,
  " Jes": 8191,
  "का": 8192,
  " tend": 8193,
  "arios": 8194,
  " PRO": 8195,
  " UK": 8196,
  "aken": 8197,
  "Art": 8198,
  "ода": 8199,
  " levels": 8200,
  "itable": 8201,
  " દ": 8202,
  "ongo": 8203,
  " jour": 8204,
  "ARE": 8205,
  " wur": 8206,
  "esh": 8207,
  "sta": 8208,
  ".cont": 8209,
  "acters": 8210,
  "amed": 8211,
  "ած": 8212,
  " բ": 8213,
  " pool": 8214,
  "_add": 8215,
  "ulu": 8216,
  " Pal": 8217,
  " الخ": 8218,
  "Gl": 8219,
  "components": 8220,
  "Template": 8221,
  " avoid": 8222,
  "ؤ": 8223,
  "mazon": 8224,
  " improve": 8225,
  "Vari": 8226,
  " শ": 8227,
  " evalu": 8228,
  "Del": 8229,
  " India": 8230,
  " While": 8231,
  "Enabled": 8232,
  "thes": 8233,
  "yg": 8234,
  "(B": 8235,
  "lag": 8236,
  "xim": 8237,
  " త": 8238,
  "ecurity": 8239,
  "iring": 8240,
  " god": 8241,
  " frequ": 8242,
  " vida": 8243,
  "scope": 8244,
  "olf": 8245,
  " parse": 8246,
  "aro": 8247,
  " recently": 8248,
  "용": 8249,
  " daily": 8250,
  " mehr": 8251,
  "onday": 8252,
  "Α": 8253,
  "actor": 8254,
  " score": 8255,
  " empres": 8256,
  "long": 8257,
  " compl": 8258,
  "يو": 8259,
  " equipment": 8261,
  "exports": 8262,
  " tools": 8263,
  "Il": 8264,
  " firm": 8265,
  " ai": 8266,
  " selection": 8267,
  "Properties": 8268,
  " abs": 8269,
  "hest": 8270,
  " capt": 8271,
  "truct": 8272,
  "も": 8273,
  "Main": 8274,
  "=\\\"": 8275,
  " liter": 8276,
  " analysis": 8277,
  " prices": 8278,
  " convert": 8279,
  "يس": 8280,
  ".dis": 8281,
  " Sa": 8282,
  "Font": 8283,
  "ுக": 8284,
  "ova": 8285,
  "encies": 8286,
  "eden": 8287,
  " career": 8288,
  " Ben": 8289,
  "Í": 8290,
  " ·": 8291,
  " roll": 8292,
  ".string": 8293,
  " amazing": 8294,
  "こ": 8295,
  "oms": 8296,
  "Use": 8297,
  "’d": 8298,
  "ಂದ": 8299,
  " boy": 8300,
  " গ": 8301,
  "Can": 8302,
  ".)": 8303,
  "(null": 8304,
  " ο": 8305,
  "acket": 8306,
  "ствен": 8307,
  ".css": 8308,
  " jo": 8309,
  " verd": 8311,
  " finally": 8312,
  "fit": 8313,
  " effective": 8314,
  " updated": 8315,
  "ία": 8316,
  " influ": 8317,
  " demand": 8318,
  "ина": 8319,
  "өр": 8320,
  "ත": 8321,
  " concept": 8322,
  " déc": 8324,
  "ién": 8325,
  "elles": 8326,
  " trust": 8327,
  "nu": 8328,
  " bath": 8329,
  "utt": 8330,
  "None": 8331,
  "ersist": 8332,
  "aires": 8333,
  " pros": 8334,
  "delete": 8335,
  " fer": 8336,
  " kle": 8337,
  " sense": 8338,
  " train": 8339,
  "unday": 8340,
  " sz": 8341,
  " directly": 8342,
  " Aut": 8343,
  ".$": 8344,
  " FROM": 8345,
  "known": 8346,
  " לה": 8347,
  " club": 8348,
  " dh": 8349,
  " alert": 8350,
  ".\n\n\n": 8351,
  "aries": 8352,
  "oro": 8353,
  "?:": 8354,
  " Techn": 8355,
  " liv": 8356,
  " fields": 8357,
  "ில்": 8358,
  "otes": 8359,
  " can't": 8360,
  " didn": 8361,
  " pages": 8362,
  "ді": 8363,
  "ário": 8364,
  "72": 8365,
  "Ag": 8366,
  "Detail": 8367,
  "About": 8368,
  "ધ": 8369,
  " War": 8370,
  "ラ": 8371,
  " ..": 8372,
  " Commun": 8373,
  "agem": 8374,
  "ondon": 8375,
  "NE": 8376,
  " projects": 8377,
  " Prom": 8378,
  "yth": 8379,
  " så": 8380,
  " γ": 8381,
  "ds": 8382,
  "ooth": 8384,
  "inde": 8385,
  "과": 8386,
  "urer": 8387,
  ".new": 8388,
  " ар": 8389,
  " aspect": 8390,
  " gold": 8392,
  " km": 8395,
  " buffer": 8396,
  "う": 8397,
  "-a": 8398,
  "Props": 8399,
  " это": 8400,
  "(()": 8401,
  "Hash": 8402,
  "firm": 8403,
  "izontal": 8404,
  "ông": 8405,
  ".</": 8406,
  " goal": 8407,
  " PC": 8408,
  " vie": 8409,
  " të": 8410,
  ".ch": 8411,
  " અને": 8412,
  "са": 8413,
  " thread": 8414,
  "äh": 8415,
  "Msg": 8416,
  "():\n": 8417,
  "û": 8418,
  "dat": 8419,
  "stream": 8420,
  "****************************************************************": 8421,
  " DateTime": 8422,
  "ව": 8423,
  " starting": 8424,
  "eda": 8425,
  "ög": 8426,
  "pat": 8427,
  "isc": 8428,
  "arante": 8429,
  " Bel": 8430,
  "cción": 8431,
  "_string": 8432,
  " Brit": 8433,
  " notice": 8434,
  "상": 8435,
  "ిన": 8436,
  "Range": 8437,
  " moet": 8438,
  " exerc": 8439,
  "-re": 8440,
  "ugar": 8441,
  " lu": 8442,
  "PR": 8443,
  "ners": 8444,
  " Information": 8445,
  "ussi": 8446,
  " gets": 8447,
  "+\"": 8448,
  "Right": 8449,
  ".error": 8450,
  " techni": 8451,
  " این": 8452,
  "дан": 8453,
  " elements": 8454,
  " mention": 8455,
  " भी": 8456,
  "들": 8457,
  "ше": 8458,
  " kam": 8459,
  "isode": 8460,
  "каз": 8461,
  "lay": 8462,
  "IGHT": 8463,
  "اح": 8464,
  " blood": 8465,
  "Mark": 8466,
  "$this": 8467,
  "rame": 8468,
  ".web": 8469,
  "iana": 8470,
  " ::": 8471,
  ".min": 8472,
  "asons": 8473,
  "ыз": 8474,
  "ija": 8475,
  "্ব": 8476,
  " Error": 8477,
  " views": 8478,
  "ೋ": 8479,
  "كن": 8480,
  "ez": 8481,
  " decision": 8482,
  "arts": 8483,
  "습": 8484,
  " numbers": 8485,
  " observ": 8486,
  "har": 8487,
  " November": 8488,
  " owner": 8489,
  " associated": 8490,
  "ண": 8491,
  "eur": 8492,
  "toString": 8493,
  "ರು": 8494,
  "lean": 8495,
  "aus": 8496,
  " Sen": 8497,
  "PTION": 8498,
  " delivery": 8499,
  "contr": 8500,
  "ivil": 8501,
  "сли": 8502,
  " adult": 8503,
  " histor": 8504,
  " können": 8505,
  "որ�": 8506,
  " attention": 8507,
  " January": 8508,
  " ''": 8509,
  " rob": 8510,
  " International": 8511,
  ".update": 8512,
  " rais": 8513,
  "Display": 8514,
  " tid": 8515,
  "ိ": 8516,
  "OC": 8518,
  "chaft": 8519,
  "method": 8520,
  " lines": 8521,
  "\\x": 8522,
  "ων": 8523,
  "kk": 8524,
  " Real": 8525,
  "cil": 8526,
  " attempt": 8527,
  "ää": 8528,
  "onom": 8529,
  " rock": 8530,
  "oter": 8531,
  " morning": 8532,
  "oggle": 8533,
  " category": 8534,
  " shall": 8535,
  " ವ": 8536,
  " Ein": 8537,
  "_back": 8538,
  "role": 8539,
  "ოს": 8540,
  " oh": 8541,
  "ran": 8542,
  " WITH": 8543,
  "close": 8545,
  " picture": 8546,
  " dag": 8547,
  " bottom": 8548,
  " Sam": 8549,
  " verb": 8550,
  " kwa": 8551,
  " Base": 8552,
  " college": 8553,
  " essential": 8554,
  "ть": 8555,
  " road": 8556,
  " IT": 8557,
  "ები": 8558,
  "icks": 8559,
  " commit": 8560,
  "Serial": 8561,
  "ર્�": 8562,
  " doesn't": 8563,
  "unsigned": 8564,
  "'];\n": 8565,
  " settings": 8566,
  " innov": 8567,
  " sleep": 8568,
  "ViewController": 8569,
  " names": 8570,
  " earn": 8571,
  "ое": 8572,
  " October": 8573,
  "}\n\n\n": 8574,
  "ద": 8575,
  "sych": 8576,
  " sold": 8577,
  " Down": 8578,
  "reci": 8579,
  "сл": 8580,
  "ccording": 8581,
  "ims": 8582,
  " cin": 8583,
  " Project": 8584,
  "ങ": 8585,
  "וי�": 8586,
  " Vector": 8587,
  " جي": 8588,
  "_array": 8589,
  " photo": 8590,
  " King": 8591,
  " ign": 8592,
  " הא": 8593,
  " extrem": 8594,
  ".a": 8595,
  " woman": 8596,
  " unsigned": 8597,
  "space": 8598,
  " awọn": 8599,
  "арт": 8600,
  " pul": 8601,
  "BUG": 8602,
  "111": 8603,
  "iller": 8604,
  "ೊ": 8605,
  " parents": 8606,
  ")).": 8607,
  " solid": 8608,
  " Lo": 8609,
  " durch": 8610,
  " ор": 8611,
  " situation": 8612,
  "aturday": 8613,
  "Render": 8615,
  "Trace": 8616,
  "oles": 8617,
  "Die": 8618,
  "-de": 8619,
  "_TYPE": 8620,
  " má": 8621,
  "ibly": 8622,
  "angular": 8624,
  "wargs": 8625,
  " lost": 8626,
  "DS": 8627,
  " goes": 8628,
  " advert": 8629,
  " itself": 8630,
  " benefits": 8631,
  "ු": 8632,
  "OG": 8633,
  "ws": 8634,
  " internal": 8635,
  "property": 8636,
  "ம்": 8637,
  " որ": 8638,
  " \"<": 8639,
  " enh": 8640,
  " evid": 8641,
  " Also": 8642,
  "istration": 8643,
  "াক": 8644,
  "_sh": 8645,
  "ouncil": 8646,
  " satisf": 8647,
  " hour": 8648,
  " module": 8649,
  "сь": 8650,
  " muy": 8651,
  "ancy": 8652,
  " trip": 8653,
  "ós": 8654,
  " GNU": 8655,
  "_date": 8656,
  " З": 8657,
  "fg": 8658,
  "cat": 8659,
  "لام": 8660,
  ".key": 8661,
  " regul": 8662,
  " positive": 8663,
  "ข": 8664,
  "ُ": 8665,
  " uses": 8666,
  " rot": 8667,
  "oriz": 8668,
  " smart": 8669,
  " लिए": 8670,
  ".widget": 8671,
  " cab": 8672,
  " green": 8673,
  "ाई": 8674,
  "က": 8675,
  " profile": 8676,
  ".'": 8677,
  "AA": 8678,
  "Ü": 8679,
  "ngth": 8680,
  " desde": 8681,
  "وس": 8682,
  " challeng": 8683,
  "store": 8684,
  "Ptr": 8685,
  "aja": 8686,
  "Cache": 8687,
  " structure": 8688,
  " diff": 8690,
  ".X": 8691,
  "ら": 8692,
  ".show": 8693,
  "mat": 8694,
  ".body": 8695,
  " บ": 8696,
  "craft": 8697,
  "63": 8698,
  "_CON": 8699,
  "ruary": 8700,
  " drink": 8701,
  "lichen": 8702,
  " girl": 8703,
  "იდ": 8704,
  " dark": 8705,
  "Home": 8706,
  " cov": 8707,
  "оя": 8708,
  " Most": 8709,
  " Big": 8710,
  " ذ": 8711,
  " transfer": 8712,
  ".Point": 8713,
  ".info": 8714,
  "asic": 8715,
  " doesn": 8716,
  " contains": 8717,
  " groups": 8718,
  " consist": 8719,
  "อน": 8720,
  "iu": 8721,
  ".google": 8722,
  " opin": 8723,
  "refix": 8724,
  "eles": 8725,
  "Database": 8726,
  "ప": 8727,
  " pes": 8728,
  " rat": 8729,
  "Device": 8730,
  " kut": 8731,
  " []\n": 8732,
  " Created": 8733,
  "_ch": 8734,
  " highly": 8735,
  ".send": 8736,
  " tmp": 8738,
  " led": 8739,
  " ?>\n": 8740,
  " raz": 8741,
  "how": 8742,
  "version": 8743,
  "ASE": 8744,
  " প্র": 8745,
  "imiento": 8746,
  "]]": 8747,
  "ुर": 8748,
  "お": 8749,
  " driver": 8750,
  "(key": 8751,
  " แ": 8752,
  "udent": 8753,
  " plans": 8754,
  "alled": 8755,
  "Offset": 8756,
  " চ": 8757,
  "legate": 8758,
  "otos": 8759,
  "फ": 8760,
  "से": 8761,
  " લ": 8762,
  "62": 8763,
  " лю": 8764,
  "{\n\n": 8765,
  " hands": 8766,
  "Callback": 8767,
  "(P": 8768,
  "орм": 8769,
  "61": 8770,
  "usher": 8771,
  "91": 8772,
  " mm": 8773,
  "ovie": 8774,
  " costs": 8775,
  "/*\n": 8776,
  " nue": 8777,
  "ата": 8778,
  " 수": 8779,
  " Los": 8780,
  " scr": 8781,
  "iqu": 8782,
  " gives": 8783,
  "vari": 8784,
  "్త": 8785,
  "uga": 8787,
  " independ": 8788,
  "ევ": 8789,
  " cos": 8790,
  " fine": 8791,
  " Hel": 8792,
  "Arr": 8793,
  "Visible": 8794,
  " nj": 8795,
  "®": 8796,
  " countries": 8797,
  " fresh": 8798,
  "outes": 8799,
  " Е": 8800,
  "bruary": 8801,
  " offset": 8802,
  ".Log": 8803,
  "enty": 8804,
  "ම": 8805,
  " £": 8806,
  "voir": 8808,
  ".tr": 8809,
  "'=>": 8810,
  " Opt": 8811,
  "IX": 8812,
  "ಟ": 8813,
  "rypt": 8814,
  " cit": 8815,
  "(*": 8816,
  "look": 8817,
  "imest": 8818,
  "үн": 8819,
  "وي": 8820,
  "าน": 8821,
  " ച": 8822,
  "リ": 8823,
  "ồ": 8824,
  "ип": 8825,
  ".Is": 8826,
  "ebug": 8827,
  " myself": 8828,
  "grade": 8829,
  " UN": 8830,
  " kat": 8831,
  "иб": 8832,
  "면": 8833,
  "akk": 8834,
  "uario": 8835,
  "Direct": 8836,
  ".event": 8837,
  " 사": 8838,
  " Let": 8839,
  " lic": 8840,
  "ORM": 8841,
  "ữ": 8842,
  " capital": 8843,
  " nut": 8844,
  "oga": 8845,
  ".E": 8846,
  "Report": 8847,
  "apped": 8848,
  "augh": 8849,
  "bool": 8850,
  " کہ": 8851,
  ".k": 8852,
  " syn": 8853,
  "totype": 8854,
  "్ల": 8855,
  " inj": 8856,
  "مر": 8857,
  " piece": 8859,
  " να": 8860,
  "Run": 8861,
  "Spec": 8862,
  "יה": 8863,
  " College": 8864,
  " jud": 8865,
  " ven": 8866,
  " são": 8867,
  "ANG": 8868,
  " cat": 8870,
  "crypt": 8871,
  "Exp": 8872,
  "Transaction": 8873,
  "oration": 8874,
  " ideal": 8875,
  ".Write": 8876,
  " לא": 8877,
  "icio": 8878,
  "GB": 8879,
  " Vol": 8880,
  "ონ": 8881,
  " providing": 8882,
  "’un": 8883,
  " Ih": 8884,
  " numer": 8885,
  " medic": 8886,
  "iber": 8887,
  ")->": 8888,
  "uen": 8889,
  "avior": 8890,
  "stants": 8891,
  "covery": 8892,
  "یم": 8893,
  "uu": 8894,
  " Prof": 8895,
  " ini": 8896,
  "ურ": 8897,
  "नी": 8898,
  " fat": 8899,
  " mog": 8900,
  "سب": 8901,
  "IES": 8902,
  "<int": 8903,
  "));\r\n": 8904,
  "Ass": 8905,
  " industr": 8906,
  "}`": 8907,
  " воз": 8908,
  "اق": 8909,
  " shop": 8910,
  " và": 8911,
  "aron": 8912,
  " Play": 8913,
  " être": 8914,
  " الر": 8915,
  " untuk": 8916,
  " primary": 8917,
  "(request": 8918,
  " neigh": 8919,
  "ifications": 8920,
  "nik": 8921,
  " Result": 8922,
  " defined": 8923,
  " ә": 8924,
  " finish": 8925,
  "edef": 8926,
  "_text": 8927,
  "andle": 8928,
  "Profile": 8929,
  " Foundation": 8930,
  "OB": 8931,
  " …\n\n": 8932,
  " pelo": 8933,
  "MP": 8934,
  "war": 8935,
  "_NAME": 8936,
  " [\"": 8937,
  "999": 8938,
  "اص": 8939,
  "append": 8940,
  "Contact": 8941,
  ".I": 8942,
  " Por": 8943,
  ".equals": 8944,
  " sizeof": 8946,
  "process": 8947,
  " requirements": 8948,
  " completely": 8949,
  "ords": 8950,
  "олько": 8951,
  " warm": 8952,
  "del": 8953,
  "Ö": 8954,
  " על": 8955,
  "ONE": 8956,
  "KEY": 8957,
  " daar": 8958,
  "'],": 8959,
  " Update": 8960,
  "ζ": 8961,
  "াম": 8962,
  " oc": 8963,
  " bak": 8964,
  "LOG": 8965,
  " TR": 8967,
  " pare": 8968,
  ".z": 8969,
  "router": 8970,
  " agus": 8971,
  "ומ": 8972,
  " guide": 8973,
  ".type": 8974,
  "IND": 8975,
  ".content": 8976,
  "SD": 8977,
  " Fil": 8978,
  " ban": 8979,
  "());\n\n": 8980,
  " με": 8981,
  "gre": 8982,
  "idi": 8983,
  " meeting": 8984,
  " ու": 8985,
  " Message": 8986,
  "ေ": 8987,
  " changed": 8988,
  "ನ್ನ": 8989,
  "\",\r\n": 8990,
  " worked": 8991,
  " Number": 8992,
  "description": 8993,
  " Page": 8994,
  "ming": 8995,
  " President": 8996,
  "returns": 8997,
  "BD": 8998,
  " mol": 8999,
  " '../": 9000,
  "angan": 9001,
  " individuals": 9002,
  " Di": 9003,
  " prime": 9004,
  " serious": 9005,
  ".trans": 9006,
  " الذ": 9007,
  "ford": 9008,
  "یا": 9009,
  " edit": 9011,
  "ów": 9012,
  " URL": 9013,
  " December": 9014,
  "uka": 9015,
  " Initial": 9016,
  "plot": 9017,
  " لا": 9018,
  "VER": 9019,
  "\":\n": 9020,
  "dates": 9021,
  " peut": 9022,
  " oo": 9023,
  "ක": 9024,
  "iek": 9025,
  " constructor": 9026,
  " Russ": 9027,
  "atz": 9028,
  "utter": 9029,
  " dead": 9030,
  " ye": 9031,
  "Met": 9032,
  " HT": 9033,
  "imp": 9034,
  "Parser": 9035,
  " AR": 9036,
  "gs": 9037,
  "ום": 9038,
  " peu": 9039,
  "edding": 9040,
  " [[": 9041,
  " Call": 9042,
  " byte": 9043,
  " versch": 9044,
  "More": 9045,
  "build": 9046,
  "Core": 9047,
  "193": 9048,
  "rome": 9049,
  " safety": 9050,
  " themselves": 9051,
  "вер": 9052,
  " mount": 9053,
  " अप": 9054,
  "﻿using": 9055,
  "Bean": 9056,
  " former": 9057,
  "(:": 9058,
  " cm": 9059,
  "uba": 9060,
  " setting": 9061,
  " execut": 9062,
  " stress": 9063,
  " التي": 9064,
  " direction": 9065,
  "})": 9066,
  " pub": 9067,
  "-control": 9068,
  " Item": 9069,
  "Async": 9070,
  "డ": 9071,
  "்கள": 9072,
  "estion": 9073,
  "adow": 9074,
  "주": 9075,
  "ieder": 9076,
  " lig": 9077,
  "uman": 9078,
  " payment": 9079,
  " creating": 9080,
  " allowed": 9081,
  " \"\"\"": 9082,
  " vit": 9083,
  " container": 9084,
  "application": 9085,
  " */\n/": 9086,
  "rec": 9087,
  " Das": 9088,
  "lients": 9089,
  "ында": 9090,
  " ва": 9091,
  " didn't": 9092,
  "rd": 9093,
  "connect": 9094,
  "(ex": 9095,
  " în": 9096,
  " fix": 9098,
  "embre": 9099,
  " wood": 9100,
  "്ങ": 9101,
  "య": 9102,
  "130": 9103,
  " describ": 9104,
  "oco": 9105,
  "ən": 9106,
  "comes": 9107,
  "erman": 9108,
  "úblic": 9109,
  " -->": 9110,
  "ിക്ക": 9111,
  "mail": 9112,
  "CS": 9113,
  ":'": 9114,
  " Every": 9115,
  ".service": 9116,
  " Du": 9117,
  " Aus": 9119,
  " scale": 9120,
  " NO": 9121,
  "gb": 9122,
  "icated": 9123,
  "ҵ": 9124,
  ".Font": 9125,
  " distance": 9126,
  " mb": 9127,
  " effects": 9128,
  "وج": 9129,
  "inue": 9130,
  "ander": 9131,
  " Char": 9132,
  "anna": 9133,
  " summer": 9134,
  " channel": 9135,
  " helps": 9136,
  "(\"%": 9137,
  "ARRANT": 9138,
  " raise": 9139,
  "Author": 9140,
  ".api": 9141,
  " работ": 9142,
  " cash": 9143,
  "console": 9144,
  "Document": 9145,
  " Ill": 9146,
  " дар": 9147,
  " prepar": 9148,
  " push": 9149,
  " stuff": 9150,
  " kunnen": 9151,
  " Net": 9152,
  "nap": 9153,
  " ped": 9154,
  " bur": 9155,
  "иль": 9156,
  "gorithm": 9157,
  " Que": 9158,
  " successful": 9159,
  "성": 9160,
  "itos": 9161,
  " links": 9162,
  " failed": 9163,
  "-md": 9164,
  " andere": 9165,
  "ATH": 9166,
  " optim": 9167,
  " solutions": 9168,
  "Match": 9169,
  ".ComponentModel": 9170,
  "ಿಸ": 9171,
  " hem": 9172,
  ";i": 9173,
  " sport": 9174,
  " Che": 9175,
  "REE": 9176,
  ".getString": 9177,
  "iforn": 9178,
  " Friday": 9179,
  " Op": 9180,
  "mploy": 9181,
  "وز": 9182,
  "column": 9183,
  "ახ": 9184,
  " WARRANT": 9185,
  ".load": 9186,
  "ाक": 9187,
  "aku": 9188,
  ".GroupLayout": 9189,
  " strength": 9190,
  " Associ": 9191,
  "್ದ": 9192,
  "드": 9193,
  "itect": 9194,
  " applications": 9195,
  " այ": 9196,
  " Make": 9197,
  "alian": 9198,
  "(context": 9199,
  "sembly": 9200,
  "ിച്ച": 9201,
  " exclus": 9202,
  "illing": 9203,
  "িল": 9204,
  "android": 9205,
  " stage": 9206,
  ".awt": 9207,
  "ль": 9208,
  " vict": 9209,
  "-A": 9210,
  " states": 9211,
  "Enter": 9212,
  "queue": 9213,
  "_y": 9214,
  ".sc": 9215,
  " très": 9216,
  "து": 9217,
  ".jpg": 9218,
  " ვ": 9219,
  ".as": 9220,
  "Screen": 9222,
  " conduct": 9223,
  " puede": 9224,
  " printf": 9225,
  " Bit": 9226,
  "алы": 9227,
  " pré": 9228,
  "ۇ": 9229,
  " accur": 9230,
  " camera": 9231,
  "iture": 9232,
  "Rec": 9233,
  "nbsp": 9234,
  "iately": 9235,
  " mun": 9236,
  "istas": 9237,
  " convers": 9238,
  "ণ": 9239,
  " Android": 9240,
  " basic": 9241,
  " drop": 9242,
  " Code": 9243,
  "():": 9244,
  "ality": 9245,
  "160": 9246,
  " interested": 9247,
  " counter": 9248,
  "assen": 9249,
  "াৰ": 9250,
  "Č": 9251,
  "/j": 9252,
  "нов": 9253,
  "azi": 9254,
  "loc": 9255,
  "erry": 9256,
  "pet": 9257,
  "gel": 9258,
  " Dem": 9259,
  "late": 9260,
  "াই": 9261,
  " dengan": 9262,
  " rent": 9263,
  "extern": 9264,
  " login": 9265,
  "ibt": 9266,
  "orial": 9267,
  "hs": 9268,
  "ICE": 9269,
  " Vis": 9270,
  "руг": 9271,
  "UID": 9272,
  "れ": 9273,
  " શ": 9274,
  " considered": 9275,
  "($_": 9276,
  "volution": 9277,
  "uan": 9278,
  "_state": 9279,
  "wers": 9280,
  " entity": 9281,
  "entifier": 9282,
  "دا": 9283,
  " és": 9284,
  "ती": 9285,
  "'],\n": 9286,
  " {@": 9287,
  "amer": 9288,
  "double": 9289,
  " suff": 9290,
  " ав": 9291,
  "Servlet": 9292,
  " Response": 9293,
  "ство": 9294,
  " muito": 9295,
  "-group": 9296,
  " elif": 9297,
  "াত": 9298,
  "kw": 9299,
  "пр": 9300,
  " callback": 9301,
  "()).": 9302,
  " definitely": 9303,
  " UnityEngine": 9304,
  " operation": 9305,
  "emy": 9306,
  "ำ": 9307,
  ".Generic": 9308,
  " fair": 9309,
  "HTML": 9310,
  "ಲ್ಲಿ": 9311,
  "တ": 9312,
  " img": 9313,
  "전": 9314,
  "мен": 9315,
  " partner": 9316,
  "aden": 9317,
  " encour": 9318,
  "ці": 9319,
  "(file": 9320,
  "asks": 9321,
  "raz": 9322,
  "onn": 9323,
  "_dir": 9324,
  "ville": 9325,
  "avo": 9326,
  " Amazon": 9327,
  "ეთ": 9328,
  "ClickListener": 9329,
  " ս": 9330,
  " તે": 9331,
  "700": 9332,
  "ბ": 9333,
  "aled": 9334,
  " align": 9336,
  "]=": 9337,
  " vehicle": 9338,
  " foreach": 9339,
  "lying": 9340,
  "\tconst": 9341,
  "_log": 9342,
  " ez": 9343,
  "lor": 9344,
  "ּ": 9345,
  "othing": 9346,
  " пл": 9347,
  "ári": 9348,
  " emerg": 9350,
  "NA": 9351,
  " ’": 9352,
  "ами": 9353,
  " уч": 9354,
  " interesting": 9355,
  " huge": 9356,
  "Writer": 9357,
  "ाइ": 9358,
  ";\n\n\n": 9359,
  ".props": 9360,
  "Att": 9361,
  "write": 9362,
  " certainly": 9363,
  " Sur": 9364,
  " USA": 9365,
  " respond": 9366,
  " basis": 9367,
  "ту": 9368,
  "(in": 9369,
  "endre": 9370,
  "-sm": 9371,
  "Tab": 9372,
  "total": 9373,
  " force": 9374,
  " obtain": 9375,
  "FAULT": 9376,
  "ployee": 9377,
  " padding": 9379,
  "vention": 9380,
  "יט": 9381,
  "aver": 9382,
  "ني": 9383,
  "\"+": 9384,
  "onstr": 9385,
  "anti": 9386,
  " shape": 9387,
  "ания": 9389,
  " constant": 9390,
  " existing": 9391,
  " birth": 9392,
  "Aut": 9393,
  " hear": 9394,
  " shared": 9395,
  "Effect": 9396,
  "ാന": 9397,
  ".setState": 9398,
  " fest": 9399,
  "home": 9400,
  "ρι": 9401,
  "aca": 9402,
  "venue": 9403,
  " rules": 9404,
  "fi": 9405,
  " Returns": 9406,
  " places": 9407,
  "ोग": 9408,
  " veel": 9409,
  "\">\r\n": 9410,
  "nost": 9411,
  " کا": 9412,
  "mal": 9413,
  "liche": 9414,
  "ং": 9415,
  "Head": 9416,
  "']['": 9417,
  " parameters": 9418,
  " Den": 9419,
  "icensed": 9420,
  " eyes": 9421,
  " sea": 9422,
  "ikan": 9423,
  "ías": 9424,
  "uten": 9425,
  "Ed": 9426,
  " mü": 9427,
  " depend": 9428,
  "نت": 9429,
  " \"./": 9430,
  " Hotel": 9431,
  " essay": 9432,
  " relig": 9433,
  " fully": 9434,
  "مة": 9435,
  "င": 9436,
  "MENT": 9437,
  " flag": 9438,
  " stra": 9439,
  "\"/>\n": 9440,
  "ქ": 9441,
  "erve": 9442,
  " די": 9443,
  " gebru": 9444,
  " akt": 9445,
  "nesday": 9446,
  "(`": 9447,
  "هي": 9448,
  "osten": 9449,
  " تع": 9450,
  "ಪ": 9451,
  "Handle": 9452,
  " Mr": 9453,
  " route": 9454,
  " appropr": 9455,
  " Rel": 9456,
  "190": 9457,
  " theme": 9458,
  "DD": 9459,
  " commercial": 9460,
  "\tg": 9461,
  "हीं": 9462,
  "-L": 9463,
  "-pro": 9464,
  "berg": 9465,
  "haps": 9466,
  " Tem": 9467,
  "ана": 9468,
  "ış": 9469,
  "эр": 9470,
  "cons": 9471,
  " culture": 9472,
  " বি�": 9473,
  " purpose": 9474,
  "ತ್ತ": 9475,
  "ivos": 9476,
  " même": 9477,
  "Car": 9478,
  "ughter": 9479,
  " бу": 9480,
  " reference": 9481,
  "unda": 9482,
  " pode": 9483,
  "ном": 9485,
  "access": 9486,
  " wall": 9487,
  "रे": 9488,
  " também": 9489,
  " TODO": 9490,
  "وی": 9491,
  " porque": 9492,
  " бар": 9493,
  "িয়": 9494,
  " pens": 9495,
  "ҩ": 9497,
  " >\n": 9498,
  " Good": 9499,
  " Cap": 9500,
  ".open": 9501,
  "ells": 9502,
  " ад": 9503,
  " Services": 9504,
  "\tvoid": 9505,
  " exactly": 9506,
  " Mer": 9507,
  " Company": 9508,
  " statement": 9509,
  "ifornia": 9510,
  "inu": 9511,
  ");\n//": 9512,
  " measure": 9513,
  " Department": 9514,
  " organization": 9515,
  " आप": 9516,
  " difer": 9517,
  "Your": 9518,
  " unter": 9519,
  " się": 9520,
  "SSERT": 9522,
  "ाग": 9523,
  " gran": 9524,
  "vement": 9525,
  " package": 9526,
  " vector": 9527,
  "obs": 9528,
  ".bind": 9529,
  "(\"\\": 9530,
  "////////////////////////////////": 9531,
  ".config": 9532,
  " nombre": 9533,
  "uru": 9534,
  "')\n\n": 9535,
  ".index": 9536,
  "han": 9537,
  "्थ": 9538,
  "oda": 9539,
  " Law": 9540,
  " London": 9541,
  "aight": 9542,
  " developed": 9543,
  " env": 9545,
  " license": 9546,
  "))\n\n": 9547,
  " tra": 9548,
  "ursday": 9549,
  "arrant": 9550,
  "(object": 9551,
  " advant": 9552,
  "900": 9553,
  " surface": 9554,
  "ാണ": 9555,
  "respond": 9556,
  "']\n": 9557,
  "aved": 9558,
  "centr": 9559,
  " poder": 9560,
  "EC": 9561,
  " mix": 9562,
  "ー�": 48815,
  " Find": 9564,
  " soll": 9565,
  "assets": 9566,
  "ème": 9567,
  " eg": 9568,
  "ც": 9569,
  " construction": 9570,
  " motor": 9571,
  "bet": 9572,
  "plies": 9573,
  "ris": 9574,
  "ิน": 9575,
  " هم": 9576,
  "ॉ": 9577,
  " classes": 9578,
  " pow": 9579,
  "hes": 9580,
  "PA": 9581,
  "añ": 9582,
  " fn": 9583,
  "ontal": 9584,
  " Fire": 9585,
  "'un": 9586,
  " ഇ": 9587,
  " I've": 9588,
  " thinking": 9589,
  " Phil": 9590,
  " Back": 9591,
  "Register": 9592,
  " ט": 9593,
  "дел": 9594,
  " lag": 9595,
  " lä": 9596,
  " été": 9597,
  " slow": 9598,
  "Queue": 9599,
  " meas": 9600,
  "hor": 9601,
  "cut": 9602,
  " decided": 9603,
  "цы": 9604,
  " dream": 9605,
  " involved": 9606,
  " difference": 9607,
  " ആ": 9608,
  " physical": 9609,
  "amo": 9610,
  " relev": 9611,
  "부": 9612,
  "uesday": 9613,
  ".App": 9614,
  "thread": 9615,
  " io": 9616,
  " namespace": 9617,
  "Float": 9618,
  " jaar": 9619,
  " reported": 9620,
  "она": 9621,
  " vill": 9622,
  "itz": 9623,
  "oul": 9624,
  "-v": 9625,
  " sans": 9626,
  "атель": 9627,
  " pela": 9628,
  " cast": 9629,
  " έ": 9630,
  " Gold": 9631,
  "_num": 9632,
  "\");": 9633,
  " editor": 9634,
  "straints": 9635,
  " rates": 9636,
  " II": 9637,
  "ниң": 9638,
  " intent": 9639,
  " somet": 9640,
  "DC": 9641,
  "was": 9642,
  "ednes": 9643,
  "=\"#": 9644,
  "Fragment": 9645,
  " fight": 9646,
  "exas": 9647,
  "ై": 9648,
  " cookies": 9649,
  "strong": 9650,
  " carry": 9651,
  " leur": 9652,
  "్ట": 9653,
  "\\/": 9654,
  " diagn": 9655,
  "ashion": 9656,
  " tips": 9657,
  ".test": 9658,
  " են": 9659,
  " blue": 9660,
  " characters": 9661,
  "agon": 9662,
  "اض": 9663,
  "iced": 9664,
  "QU": 9665,
  "quis": 9666,
  "Est": 9667,
  " vent": 9668,
  "360": 9669,
  "적": 9670,
  "；": 9671,
  "aught": 9672,
  " giving": 9673,
  "filter": 9674,
  "74": 9675,
  "։": 9676,
  " felt": 9677,
  "bel": 9678,
  "_.": 9679,
  " degree": 9680,
  "вет": 9681,
  "тор": 9682,
  " $(": 9683,
  " lab": 9684,
  "igration": 9685,
  "ია": 9686,
  " pressure": 9687,
  " conven": 9688,
  "tected": 9689,
  "=(": 9690,
  " aussi": 9691,
  "PORT": 9692,
  "اج": 9693,
  "ighest": 9694,
  "ડ": 9695,
  "ാര": 9696,
  "Statement": 9697,
  " но": 9698,
  " {}": 9699,
  " Street": 9700,
  ".btn": 9701,
  " Action": 9702,
  " ('": 9703,
  "allet": 9704,
  "(D": 9705,
  "Success": 9706,
  " secret": 9707,
  "으로": 9708,
  "73": 9709,
  " limited": 9710,
  " tun": 9711,
  "ड़": 9712,
  " released": 9713,
  " lan": 9714,
  " 가": 9715,
  " rad": 9716,
  "=\"<?": 9717,
  "Graph": 9718,
  " só": 9719,
  " reserved": 9720,
  "call": 9721,
  " Mat": 9722,
  " paid": 9723,
  "84": 9724,
  "ारी": 9725,
  "alla": 9726,
  "rier": 9727,
  "Rece": 9728,
  " kal": 9729,
  "iar": 9730,
  "RED": 9731,
  "bu": 9732,
  ")));\n": 9733,
  " Show": 9734,
  " пра": 9735,
  " master": 9736,
  "Admin": 9737,
  "Net": 9738,
  "bre": 9739,
  " budget": 9740,
  " solo": 9741,
  "pass": 9742,
  " ON": 9743,
  " Bank": 9744,
  "שר": 9745,
  " dry": 9746,
  "Non": 9747,
  "ï": 9748,
  "usi": 9749,
  "्या": 9750,
  "pared": 9751,
  " Card": 9752,
  "ERCHANT": 9753,
  "Es": 9754,
  "ோ": 9755,
  " Value": 9756,
  " functions": 9757,
  "ольз": 9758,
  "lie": 9759,
  "oli": 9760,
  "iverse": 9761,
  "_test": 9762,
  " stories": 9763,
  " Point": 9764,
  "_error": 9765,
  "ixel": 9766,
  "SELECT": 9767,
  " mul": 9768,
  "Names": 9769,
  "ես": 9770,
  "ventory": 9771,
  " towards": 9772,
  " أو": 9773,
  " Vi": 9774,
  " viel": 9775,
  "house": 9776,
  "esome": 9777,
  "ული": 9778,
  " gem": 9779,
  " sust": 9780,
  "white": 9781,
  "81": 9782,
  "achine": 9783,
  "Script": 9784,
  "display": 9785,
  "organ": 9786,
  "case": 9787,
  "like": 9788,
  "orith": 9789,
  "MenuItem": 9791,
  " Instit": 9792,
  "oup": 9793,
  "ใ": 9794,
  "Modal": 9795,
  "RES": 9796,
  "ענ": 9797,
  " Version": 9798,
  " mother": 9799,
  " middle": 9800,
  " Et": 9801,
  ".pre": 9802,
  " تح": 9803,
  "esse": 9804,
  ".Tab": 9805,
  "േ�": 9806,
  "orary": 9807,
  "require": 9808,
  "ുട": 9809,
  "(item": 9810,
  ".save": 9811,
  "71": 9812,
  ".Controls": 9813,
  "ilies": 9814,
  "words": 9815,
  " spot": 9816,
  " univers": 9817,
  " cum": 9818,
  "fü": 9819,
  " எ": 9820,
  "los": 9821,
  "amil": 9822,
  " videos": 9823,
  "bb": 9824,
  "ednesday": 9825,
  " ट": 9826,
  " wenn": 9827,
  "yon": 9828,
  " Ho": 9829,
  "ટ": 9830,
  "191": 9831,
  " symbol": 9832,
  " :\n": 9833,
  "ارة": 9834,
  "doc": 9835,
  " posts": 9836,
  "jar": 9837,
  "ҷ": 9838,
  "essa": 9839,
  "'),": 9840,
  "ecause": 9841,
  " CH": 9842,
  "-C": 9843,
  "aza": 9844,
  "_on": 9845,
  "(input": 9846,
  " É": 9847,
  " Mo": 9849,
  "izz": 9850,
  " և": 9851,
  "REF": 9852,
  "Reference": 9853,
  "vr": 9854,
  "ায়": 9855,
  " doll": 9856,
  " Um": 9857,
  "rought": 9858,
  " moving": 9859,
  "ిక": 9860,
  " sometimes": 9861,
  " sender": 9862,
  "osition": 9863,
  " Leg": 9864,
  "！\n\n": 9865,
  " pm": 9866,
  " spend": 9867,
  "գ": 9868,
  " kur": 9869,
  "нач": 9870,
  " Power": 9871,
  "ыш": 9872,
  "ERCHANTABILITY": 9873,
  "strap": 9874,
  " replac": 9875,
  "Loc": 9876,
  " kitchen": 9877,
  "nel": 9878,
  " ett": 9879,
  " Develop": 9880,
  "92": 9881,
  " core": 9882,
  " Input": 9883,
  "wan": 9884,
  " Max": 9885,
  " grande": 9886,
  "ства": 9887,
  " kont": 9888,
  " Click": 9889,
  " Land": 9890,
  "StackTrace": 9891,
  " ак": 9892,
  "يف": 9893,
  "/**": 9894,
  " goed": 9895,
  " ভ": 9896,
  "lines": 9898,
  "alert": 9899,
  "رت": 9900,
  " IP": 9901,
  "ერ�": 9902,
  " mail": 9903,
  "ulate": 9904,
  " maybe": 9905,
  "ipes": 9906,
  "employ": 9907,
  " dump": 9908,
  "\")]\n": 9909,
  "82": 9910,
  "_ptr": 9911,
  " undefined": 9912,
  " Cour": 9913,
  " baby": 9914,
  "্ট": 9915,
  " Apple": 9917,
  "�ી": 9918,
  "coin": 9919,
  "83": 9920,
  " France": 9921,
  "ferences": 9923,
  " decis": 9924,
  "yan": 9925,
  "Channel": 9926,
  "det": 9927,
  "יד": 9928,
  " cours": 9929,
  " sat": 9930,
  " Mart": 9931,
  "DateTime": 9932,
  "AST": 9933,
  "alloc": 9934,
  " soft": 9935,
  " gratis": 9936,
  "ellig": 9937,
  " mort": 9938,
  " shown": 9939,
  " Task": 9940,
  "né": 9941,
  "rote": 9943,
  "Pat": 9944,
  " ons": 9945,
  "ాన": 9946,
  "Like": 9947,
  "-time": 9948,
  "atalog": 9949,
  "estroy": 9951,
  "Ş": 9952,
  " pesso": 9953,
  "יות": 9954,
  "140": 9955,
  ".junit": 9956,
  "Parameters": 9957,
  " {\n//": 9958,
  "լ": 9959,
  "ech": 9960,
  "LS": 9961,
  "Initial": 9962,
  " hund": 9963,
  " gave": 9964,
  " sample": 9965,
  "ങ്ങ": 9966,
  "amiento": 9967,
  "allow": 9968,
  ".start": 9969,
  "ూ�": 9970,
  " Edit": 9971,
  " guarante": 9972,
  " specified": 9973,
  "lands": 9974,
  "esis": 9975,
  "ედ": 9976,
  " geen": 9977,
  "tu": 9978,
  " attack": 9979,
  " Request": 9980,
  "érie": 9981,
  "());\r\n": 9982,
  "ted": 9983,
  "xis": 9984,
  " Japan": 9985,
  " reve": 9986,
  " см": 9987,
  "wy": 9988,
  "ae": 9989,
  "ుల": 9990,
  " February": 9991,
  " prod": 9992,
  "ач": 9993,
  "abet": 9994,
  ".__": 9995,
  " Table": 9996,
  "ieved": 9997,
  " ]\n": 9998,
  "erap": 9999,
  "shot": 10000,
  "ـ": 10001,
  " vs": 10002,
  "(void": 10003,
  " devices": 10005,
  "\"\r\n": 10006,
  "ოდ": 10008,
  " assess": 10009,
  " mundo": 10010,
  "Ç": 10011,
  "TA": 10012,
  " ర": 10013,
  "\\t": 10014,
  " straight": 10015,
  "SC": 10016,
  " contain": 10017,
  " ગ": 10018,
  " վ": 10019,
  "्म": 10020,
  "શ": 10021,
  " Eu": 10022,
  "Cons": 10023,
  "ിര": 10024,
  "rooms": 10025,
  " bez": 10026,
  "EventListener": 10027,
  " Hash": 10028,
  " аз": 10029,
  "Ident": 10030,
  "Play": 10031,
  "yi": 10032,
  " ค": 10033,
  " উ": 10034,
  " planning": 10035,
  " html": 10036,
  " pin": 10037,
  "�ე": 10038,
  " restr": 10039,
  "equals": 10040,
  "PP": 10041,
  "่น": 10042,
  "рам": 10043,
  " prev": 10044,
  " tijd": 10045,
  " Media": 10046,
  " layer": 10047,
  " twe": 10048,
  " letter": 10049,
  "EE": 10050,
  "ிக": 10051,
  " adjust": 10052,
  "common": 10054,
  " CO": 10055,
  "oca": 10056,
  "ოვ": 10057,
  " ri": 10058,
  " otherwise": 10059,
  " \"\";\n": 10060,
  "ativa": 10061,
  " tou": 10062,
  "ပ": 10063,
  "Area": 10064,
  " مس": 10065,
  " Mil": 10066,
  "icture": 10067,
  " hop": 10068,
  "ará": 10069,
  "ાવ": 10070,
  "ayo": 10071,
  " became": 10072,
  ".end": 10073,
  "eln": 10074,
  " dent": 10075,
  " passed": 10076,
  " Arch": 10077,
  "あ": 10078,
  " Thank": 10079,
  " police": 10080,
  " helpful": 10081,
  "ouver": 10082,
  "िर": 10083,
  " expos": 10084,
  " deux": 10085,
  " rank": 10086,
  "Ε": 10087,
  "QUE": 10088,
  "ати": 10089,
  "door": 10090,
  "uke": 10091,
  " campaign": 10092,
  "IME": 10093,
  "omic": 10094,
  "ათ": 10095,
  "github": 10096,
  "front": 10097,
  " court": 10098,
  "/v": 10099,
  "-P": 10100,
  " gift": 10101,
  "usa": 10103,
  ".Location": 10104,
  "لف": 10105,
  "atos": 10106,
  " patient": 10107,
  " sports": 10108,
  " saying": 10109,
  " browser": 10110,
  " API": 10111,
  " anti": 10112,
  "obe": 10113,
  " steps": 10114,
  " sud": 10115,
  " modify": 10116,
  "Ф": 10117,
  " understanding": 10118,
  "idence": 10119,
  "inas": 10120,
  " admin": 10121,
  " бер": 10122,
  " ia": 10123,
  " username": 10124,
  "isp": 10125,
  " Year": 10126,
  " Sil": 10127,
  "itary": 10128,
  "token": 10129,
  ".split": 10130,
  "уль": 10131,
  " Produ": 10132,
  " Canada": 10133,
  "Dao": 10134,
  "hn": 10135,
  " contra": 10136,
  " র": 10137,
  "---": 10138,
  " IO": 10139,
  " rich": 10140,
  "Day": 10141,
  "ში": 10142,
  "DR": 10143,
  "awn": 10144,
  " labor": 10145,
  " damage": 10146,
  "ദ": 10147,
  " sau": 10148,
  "ær": 10149,
  "_status": 10151,
  " actions": 10152,
  "ILITY": 10153,
  "・・": 10154,
  "las": 10155,
  " quer": 10156,
  " cual": 10157,
  "365": 10158,
  " began": 10159,
  "Comment": 10160,
  "ặ": 10161,
  "stant": 10162,
  "ее": 10163,
  " Stand": 10164,
  " argument": 10165,
  "ologies": 10166,
  ".assertEqual": 10167,
  " eer": 10168,
  "orrow": 10169,
  "ען": 10170,
  " smo": 10171,
  " reduce": 10172,
  "יע": 10173,
  "mitted": 10174,
  " (*": 10176,
  "criptor": 10177,
  "وع": 10178,
  "ంద": 10179,
  "ア": 10180,
  " сво": 10181,
  " tx": 10182,
  " coach": 10183,
  " businesses": 10184,
  " já": 10185,
  "imos": 10186,
  " Great": 10187,
  "/w": 10188,
  " panel": 10189,
  " también": 10190,
  "EO": 10192,
  " sed": 10193,
  "ensed": 10194,
  " furn": 10195,
  "types": 10196,
  "Matrix": 10197,
  "த்த": 10198,
  "(response": 10199,
  " generate": 10200,
  " jobs": 10201,
  " SO": 10202,
  " nation": 10203,
  "ід": 10204,
  "={{": 10205,
  " }}": 10206,
  "eral": 10207,
  "obil": 10208,
  "kar": 10209,
  "’h": 10210,
  "SQL": 10211,
  " Christmas": 10212,
  "Holder": 10213,
  "ृ": 10214,
  " COM": 10215,
  "Pane": 10216,
  "azione": 10217,
  " incor": 10218,
  " му": 10219,
  "ulti": 10220,
  "ronic": 10221,
  " nag": 10222,
  "'a": 10223,
  " California": 10224,
  " pictures": 10225,
  "pite": 10226,
  "WS": 10227,
  "ագ": 10228,
  " micro": 10229,
  "cp": 10230,
  "مي": 10231,
  "만": 10232,
  "обы": 10233,
  " arm": 10234,
  "(java": 10235,
  "ið": 10236,
  "overn": 10237,
  " vos": 10238,
  "く": 10239,
  "Track": 10240,
  " Twitter": 10242,
  "];\n\n": 10243,
  " president": 10244,
  "legal": 10245,
  "route": 10246,
  " Os": 10247,
  "rew": 10248,
  " wonderful": 10249,
  "ableView": 10250,
  " manager": 10251,
  " tried": 10252,
  "fast": 10253,
  " Other": 10254,
  " divers": 10255,
  " હત": 10256,
  " مت": 10257,
  "');": 10258,
  "ogen": 10259,
  " political": 10261,
  "ACE": 10262,
  " corpor": 10263,
  " ble": 10264,
  ".Label": 10265,
  "ുക": 10266,
  " comun": 10267,
  "command": 10268,
  "Role": 10269,
  " pró": 10270,
  "ატ": 10271,
  "्ल": 10272,
  " {\"": 10273,
  " curr": 10274,
  " př": 10275,
  " Search": 10276,
  " supply": 10277,
  " thous": 10278,
  "acle": 10279,
  "Draw": 10280,
  "ғы": 10281,
  " Word": 10282,
  " cout": 10283,
  " serve": 10284,
  "وت": 10285,
  "(\".": 10286,
  " returned": 10287,
  " healthy": 10288,
  "Parent": 10289,
  " tip": 10290,
  " hus": 10291,
  "qar": 10292,
  "usion": 10293,
  "ную": 10294,
  " nav": 10295,
  "grad": 10296,
  " played": 10297,
  " advice": 10298,
  "ाथ": 10299,
  "Amount": 10300,
  "mut": 10301,
  " Config": 10302,
  " مش": 10303,
  " bere": 10304,
  " beginning": 10305,
  "ает": 10306,
  "imin": 10307,
  " Wash": 10308,
  " dol": 10309,
  "itan": 10310,
  " ces": 10311,
  "iano": 10312,
  "ила": 10313,
  ".Component": 10314,
  " وت": 10315,
  " Jesus": 10316,
  "য়": 10317,
  " regarding": 10318,
  " bem": 10319,
  " cards": 10320,
  " heard": 10321,
  "չ": 10322,
  "94": 10323,
  "Btn": 10324,
  " Are": 10325,
  " dress": 10327,
  "esto": 10328,
  "IAL": 10329,
  " trade": 10330,
  " David": 10331,
  "Users": 10332,
  "Gu": 10333,
  " layout": 10334,
  " White": 10335,
  " Bet": 10336,
  " Sunday": 10337,
  " eigen": 10338,
  " maximum": 10339,
  " vec": 10340,
  "(N": 10341,
  " pand": 10342,
  "LC": 10343,
  "отр": 10344,
  "ını": 10345,
  "kg": 10346,
  "ொ": 10347,
  "াব": 10348,
  "93": 10349,
  " largest": 10350,
  "ಗಳ": 10351,
  " saved": 10352,
  " Rep": 10353,
  "יב": 10354,
  " ले": 10355,
  "asion": 10356,
  "arily": 10357,
  "ITE": 10358,
  "بل": 10359,
  " neces": 10360,
  " grid": 10361,
  "νο": 10362,
  "ության": 10363,
  " principal": 10364,
  ".for": 10365,
  " speak": 10366,
  "anging": 10367,
  " vend": 10368,
  "Full": 10369,
  "shop": 10370,
  "Ang": 10371,
  " пом": 10372,
  " 그": 10373,
  " Э": 10374,
  "isten": 10375,
  "_class": 10376,
  " articles": 10377,
  "porary": 10378,
  " growing": 10379,
  "_image": 10380,
  " Ins": 10381,
  " heat": 10382,
  " pair": 10383,
  " ბ": 10384,
  "'h": 10385,
  " quel": 10386,
  " Tex": 10387,
  "oka": 10388,
  "DTO": 10389,
  "Ge": 10390,
  "should": 10391,
  "ալ": 10392,
  "Now": 10393,
  " iter": 10394,
  "allery": 10395,
  " lui": 10396,
  "יא": 10397,
  " })": 10398,
  "_res": 10399,
  "ില്": 10400,
  "Bytes": 10401,
  "»,": 10402,
  "osen": 10403,
  " dann": 10404,
  " тр": 10405,
  " traditional": 10406,
  " produce": 10407,
  " balance": 10408,
  "CON": 10409,
  "εί": 10410,
  " bat": 10411,
  "Pop": 10412,
  " chem": 10413,
  " decor": 10414,
  "Step": 10415,
  "Dto": 10416,
  " writer": 10417,
  "ющ": 10418,
  " tiene": 10419,
  " wants": 10420,
  " της": 10421,
  "াদ": 10422,
  "Only": 10423,
  " rule": 10424,
  " appreci": 10425,
  " exit": 10426,
  " Oper": 10427,
  " feeling": 10428,
  "cio": 10429,
  "эн": 10430,
  "username": 10431,
  " monitor": 10432,
  "idh": 10433,
  " ale": 10434,
  " tam": 10435,
  " errors": 10436,
  "project": 10437,
  " weekend": 10438,
  " Even": 10439,
  "क्ष": 10440,
  "Operation": 10441,
  " sac": 10442,
  "________________": 10443,
  " components": 10444,
  "erial": 10445,
  "125": 10446,
  ".View": 10447,
  "sites": 10448,
  "әм": 10450,
  "SA": 10451,
  " fue": 10452,
  "vin": 10453,
  " useState": 10454,
  " пок": 10455,
  " merc": 10456,
  " tous": 10457,
  " боль": 10458,
  "ientes": 10459,
  " hash": 10460,
  "pol": 10461,
  " പ്ര": 10462,
  " Ha": 10463,
  "Custom": 10464,
  " Assert": 10465,
  " viv": 10466,
  "onto": 10467,
  " mechan": 10468,
  "ਿ�": 10469,
  "ously": 10470,
  " fu": 10471,
  "amount": 10472,
  "Byte": 10473,
  " overall": 10474,
  "(A": 10475,
  "inha": 10476,
  "ım": 10477,
  "ools": 10478,
  " Club": 10479,
  "ahan": 10480,
  "аты": 10481,
  "ields": 10482,
  " EventArgs": 10483,
  " Monday": 10484,
  " tel": 10485,
  "seg": 10486,
  "inline": 10487,
  "vor": 10488,
  "Σ": 10489,
  " comfortable": 10490,
  " Saturday": 10491,
  "ಬ": 10493,
  "unden": 10494,
  "dag": 10495,
  " nä": 10496,
  "hos": 10497,
  "?>": 10498,
  " immediately": 10499,
  "cos": 10500,
  "bd": 10501,
  " नहीं": 10502,
  " Order": 10503,
  " ”": 10504,
  "ฟรี": 10505,
  " Flor": 10506,
  "ір": 10507,
  " greater": 10508,
  "iling": 10509,
  " tests": 10510,
  ".be": 10511,
  "они": 10512,
  "neh": 10513,
  " Sign": 10514,
  "annels": 10515,
  " sand": 10517,
  "RT": 10518,
  "ിൽ": 10519,
  ".has": 10520,
  " miles": 10521,
  "ť": 10522,
  " sql": 10523,
  " años": 10524,
  "မ": 10525,
  " agree": 10526,
  "typedef": 10527,
  " все": 10528,
  "üt": 10529,
  "emon": 10530,
  " Author": 10531,
  " fabric": 10532,
  "impl": 10533,
  " spirit": 10534,
  "Support": 10535,
  "lee": 10536,
  "บอล": 10537,
  "قي": 10538,
  " strategy": 10539,
  " cel": 10540,
  " Team": 10541,
  " lí": 10542,
  "ულ": 10543,
  " ikke": 10544,
  "ernel": 10546,
  "eri": 10547,
  "PM": 10548,
  " instr": 10549,
  " Л": 10550,
  "Scroll": 10551,
  "ահ": 10552,
  " fir": 10554,
  " employees": 10555,
  " ته": 10556,
  " expand": 10557,
  " demonstr": 10558,
  "------------": 10559,
  "pliance": 10560,
  "із": 10561,
  " Educ": 10562,
  " घ": 10563,
  " απ": 10564,
  ";\n//": 10565,
  " комп": 10567,
  " looked": 10568,
  " colors": 10569,
  " $('#": 10570,
  " turned": 10571,
  " kap": 10572,
  "Strip": 10573,
  " rev": 10574,
  " East": 10575,
  " дол": 10576,
  "Mapper": 10577,
  "cn": 10578,
  "alu": 10579,
  " batter": 10580,
  "яв": 10581,
  " cer": 10582,
  "Save": 10583,
  "alance": 10584,
  "osing": 10585,
  "boot": 10586,
  "\")\n\n": 10588,
  "ների": 10589,
  " hospital": 10590,
  " stack": 10591,
  "agnost": 10592,
  " Ba": 10593,
  "_com": 10595,
  "өн": 10596,
  "्क": 10597,
  "Db": 10598,
  "اش": 10599,
  "scribe": 10600,
  "Root": 10601,
  "\ttry": 10602,
  " lots": 10603,
  " Board": 10604,
  "plan": 10605,
  "roperty": 10606,
  " ئ": 10607,
  "هن": 10608,
  " Men": 10609,
  " મા�": 10610,
  "Weight": 10611,
  "hell": 10612,
  " clin": 10614,
  "indi": 10615,
  "{\"": 10616,
  "ика": 10617,
  " conn": 10618,
  " detail": 10619,
  ".printStackTrace": 10620,
  "_a": 10621,
  "_i": 10622,
  " messages": 10623,
  " '\\": 10624,
  " reli": 10625,
  "target": 10626,
  "arlier": 10627,
  " casa": 10628,
  " requires": 10629,
  " Х": 10630,
  "Person": 10632,
  "yond": 10633,
  "ceive": 10634,
  " jou": 10635,
  "պ": 10636,
  " Plan": 10637,
  "omas": 10638,
  " loved": 10639,
  "avas": 10640,
  "}\n\n/": 10642,
  " Mas": 10643,
  " Jack": 10644,
  "ართ": 10645,
  " serial": 10646,
  " offered": 10647,
  "وان": 10648,
  " ctx": 10649,
  "!!!": 10650,
  " shipping": 10651,
  " Node": 10652,
  "\twhile": 10653,
  "ında": 10654,
  " Build": 10655,
  "icing": 10656,
  "１": 10657,
  "egen": 10658,
  " ty": 10659,
  "join": 10660,
  " ხ": 10661,
  "ेश": 10662,
  "<string": 10663,
  " Tur": 10664,
  "rum": 10665,
  "-k": 10666,
  " insert": 10667,
  " psych": 10668,
  " scen": 10669,
  " topic": 10670,
  " SH": 10671,
  "იც": 10672,
  "aran": 10673,
  "ượ": 10674,
  " sor": 10675,
  "ष": 10676,
  " responsible": 10677,
  "utils": 10678,
  " mask": 10679,
  " uw": 10680,
  "ecution": 10681,
  " logger": 10682,
  ".co": 10683,
  " meaning": 10684,
  " trabal": 10685,
  " Button": 10686,
  " Sex": 10687,
  " gez": 10688,
  " NE": 10689,
  "”.\n\n": 10690,
  "ু�": 10691,
  "ertain": 10692,
  "\";": 10693,
  "Х": 10695,
  "elcome": 10696,
  "_model": 10697,
  "Π": 10698,
  "Write": 10699,
  "){\r\n": 10700,
  " hacer": 10701,
  "েক": 10702,
  "cles": 10703,
  ".from": 10704,
  "cell": 10705,
  "ются": 10706,
  "bservable": 10707,
  "_per": 10708,
  "umi": 10709,
  "ני": 10710,
  " ps": 10711,
  "bose": 10712,
  "ிர": 10713,
  "ähr": 10714,
  " volume": 10715,
  " مج": 10716,
  "Double": 10717,
  "_start": 10718,
  "Pe": 10719,
  " исп": 10720,
  " eye": 10721,
  " \"+": 10722,
  " that's": 10723,
  " الط": 10724,
  " его": 10725,
  "став": 10726,
  " reader": 10727,
  "OVID": 10728,
  "category": 10729,
  "children": 10730,
  " Green": 10731,
  "window": 10732,
  " την": 10733,
  "\tpro": 10734,
  " Social": 10736,
  "entication": 10737,
  " nke": 10738,
  " truly": 10739,
  "inden": 10740,
  " Las": 10741,
  "Bit": 10742,
  " js": 10743,
  "ики": 10744,
  " diet": 10745,
  " pil": 10746,
  "xture": 10747,
  " WHERE": 10748,
  "�ా": 10749,
  "oti": 10750,
  "################################": 10751,
  " tv": 10752,
  "مد": 10753,
  " 대": 10754,
  "ircle": 10755,
  " Auto": 10756,
  " reports": 10757,
  "atically": 10758,
  "\"))\n": 10759,
  " iç": 10760,
  "(path": 10761,
  "OUR": 10762,
  "yled": 10763,
  " Component": 10764,
  "구": 10765,
  " gut": 10766,
  "anje": 10767,
  "icien": 10768,
  " metal": 10769,
  "108": 10770,
  ".join": 10771,
  "merce": 10772,
  "º": 10773,
  "อต": 10774,
  "гә": 10775,
  "óg": 10776,
  "unto": 10777,
  " recon": 10778,
  "iers": 10779,
  " Coun": 10780,
  ".component": 10781,
  "стр": 10782,
  "jon": 10783,
  "apat": 10784,
  "тив": 10785,
  " operator": 10786,
  "კ": 10787,
  "IVE": 10788,
  " glass": 10789,
  "íst": 10790,
  " без": 10791,
  "یت": 10792,
  "ừ": 10793,
  "wen": 10794,
  " Lat": 10795,
  " tipo": 10796,
  "lements": 10797,
  " Engine": 10798,
  ".client": 10799,
  "ALUE": 10800,
  " Function": 10801,
  " Kom": 10802,
  "bling": 10803,
  ".width": 10804,
  " estim": 10805,
  "ారు": 10806,
  "’é": 10807,
  ")*": 10809,
  ".http": 10810,
  " gy": 10811,
  "Video": 10812,
  " parameter": 10813,
  " Many": 10814,
  "화": 10815,
  " Auf": 10816,
  " caso": 10817,
  " eller": 10818,
  "ಿಕ": 10819,
  "ichael": 10820,
  "Year": 10821,
  " investment": 10822,
  " אַ": 10823,
  "FC": 10824,
  " feet": 10825,
  "ôt": 10826,
  " 기": 10827,
  "'d": 10828,
  "raag": 10829,
  " setup": 10830,
  " audio": 10831,
  " был": 10832,
  "וק": 10833,
  "BS": 10834,
  " extremely": 10835,
  " prés": 10836,
  "ник": 10837,
  "ின": 10839,
  "(L": 10840,
  " variable": 10841,
  " sett": 10842,
  " guid": 10843,
  " ए": 10844,
  " Video": 10845,
  " appropriate": 10846,
  " central": 10847,
  "azz": 10848,
  " له": 10849,
  " minimum": 10850,
  " Research": 10851,
  " easier": 10852,
  "دم": 10853,
  " disease": 10854,
  ".target": 10855,
  " gal": 10856,
  " isn": 10857,
  "under": 10858,
  "ете": 10859,
  " correspond": 10860,
  "ũ": 10861,
  "τικ": 10862,
  "сть": 10863,
  "=\"/": 10864,
  "atever": 10865,
  ".dart": 10866,
  "',\r\n": 10867,
  " بن": 10868,
  " ker": 10869,
  "onym": 10870,
  " país": 10871,
  "FL": 10872,
  " retr": 10873,
  " Method": 10874,
  " epis": 10875,
  "cor": 10876,
  " نے": 10877,
  "itas": 10878,
  "argo": 10879,
  " placeholder": 10880,
  "selected": 10881,
  " આવ": 10882,
  "TS": 10883,
  "_un": 10884,
  " della": 10885,
  " completed": 10886,
  " weather": 10887,
  "صل": 10888,
  "irmed": 10889,
  "/\n": 10890,
  "isher": 10891,
  " grup": 10892,
  "ër": 10893,
  "%%%%": 10894,
  "ذه": 10895,
  " hous": 10896,
  "interface": 10897,
  " provider": 10898,
  ".lang": 10899,
  "keit": 10900,
  "rgan": 10901,
  "aats": 10902,
  " protection": 10903,
  "და": 10904,
  "eling": 10905,
  "tee": 10906,
  "boolean": 10907,
  "uled": 10908,
  "ECT": 10909,
  "@\"": 10910,
  "formed": 10911,
  " Mit": 10912,
  "'m": 10913,
  "wide": 10914,
  ".String": 10915,
  " album": 10916,
  " encontr": 10917,
  "Events": 10918,
  ".ui": 10919,
  "אר": 10920,
  "meta": 10921,
  " adapt": 10922,
  " warrant": 10923,
  " во": 10924,
  "عل": 10925,
  "Doc": 10926,
  " temps": 10927,
  "/core": 10928,
  " прав": 10929,
  "Scale": 10930,
  "ًا": 10931,
  " edge": 10932,
  " himself": 10933,
  "Iter": 10934,
  "iku": 10935,
  "Ã": 10936,
  " kor": 10937,
  " thank": 10938,
  "Err": 10939,
  "park": 10940,
  "rench": 10941,
  " ল": 10942,
  " durante": 10943,
  " врем": 10944,
  " schools": 10945,
  " scene": 10946,
  " bonus": 10947,
  "ám": 10948,
  " Whe": 10949,
  "ेल": 10950,
  "ícul": 10951,
  "isen": 10952,
  "modal": 10953,
  "uminate": 10954,
  "лу": 10955,
  "Schema": 10956,
  "asil": 10957,
  "ಿಯ": 10959,
  " electric": 10960,
  "ಿಗ": 10961,
  ".Ex": 10962,
  " ʻ": 10964,
  " knew": 10965,
  "Close": 10966,
  " ole": 10967,
  " increased": 10968,
  "ител": 10969,
  "ველ": 10970,
  "draw": 10971,
  " opportunities": 10972,
  " sector": 10973,
  "\")\r\n": 10974,
  "_cl": 10975,
  "Don": 10976,
  " nak": 10977,
  " ingred": 10978,
  " dialog": 10979,
  " рас": 10980,
  " wind": 10981,
  "')->": 10982,
  " vid": 10983,
  " Franc": 10984,
  "ڻ": 10985,
  " Network": 10986,
  "Ac": 10987,
  " science": 10988,
  " compared": 10989,
  "uir": 10990,
  "ुन": 10991,
  "소": 10992,
  " studies": 10993,
  " spent": 10994,
  " их": 10995,
  "earn": 10996,
  " farm": 10997,
  "rian": 10998,
  " Camp": 10999,
  "oid": 11000,
  " ea": 11001,
  "arde": 11002,
  " eat": 11003,
  " alone": 11004,
  "ới": 11005,
  "#\n": 11006,
  " />": 11007,
  " cells": 11008,
  " пов": 11009,
  "unning": 11010,
  " broad": 11011,
  " scient": 11012,
  " Son": 11013,
  "سم": 11014,
  " Management": 11015,
  "Constants": 11016,
  "inct": 11017,
  "wd": 11018,
  "tegr": 11019,
  "ulture": 11020,
  ".prototype": 11021,
  " visual": 11022,
  " bot": 11023,
  "verter": 11024,
  " offering": 11025,
  " ड": 11026,
  "წ": 11027,
  "oreach": 11028,
  "oven": 11029,
  "اری": 11030,
  "-T": 11031,
  ".common": 11032,
  "яз": 11033,
  " mejor": 11034,
  "ין": 11035,
  "HP": 11036,
  " cro": 11037,
  " Rest": 11038,
  "Mar": 11039,
  " teams": 11040,
  " Local": 11041,
  "そ": 11042,
  " Fore": 11043,
  " fans": 11044,
  " Att": 11045,
  "Job": 11046,
  " pad": 11047,
  " wo": 11048,
  " library": 11049,
  "help": 11050,
  " '#": 11051,
  "Τ": 11052,
  " race": 11053,
  " :\n\n": 11054,
  "Timeout": 11055,
  "primary": 11056,
  "ania": 11057,
  " mé": 11058,
  "upload": 11059,
  " increasing": 11060,
  "_dict": 11062,
  " zich": 11063,
  " announced": 11064,
  " mand": 11065,
  "ട്ട": 11066,
  "aming": 11067,
  "Je": 11068,
  " BE": 11069,
  " gradu": 11070,
  "AIL": 11071,
  " Custom": 11072,
  " Star": 11073,
  ".[": 11074,
  " mac": 11075,
  " figure": 11076,
  " brought": 11077,
  "ந்த": 11078,
  "Cre": 11079,
  "imestamp": 11080,
  " IM": 11081,
  " sul": 11082,
  " Kr": 11083,
  "في": 11084,
  "Logger": 11085,
  ".querySelector": 11086,
  " txt": 11087,
  ".Se": 11088,
  "adora": 11089,
  " economic": 11090,
  " últ": 11091,
  "/g": 11092,
  "amen": 11093,
  " cuando": 11094,
  " vast": 11095,
  " attract": 11096,
  " beach": 11097,
  "asket": 11098,
  "્ટ": 11099,
  "izi": 11101,
  " OK": 11102,
  " wet": 11103,
  "ayload": 11104,
  " Line": 11105,
  ".example": 11106,
  "isset": 11107,
  "ның": 11108,
  " κα": 11109,
  " rooms": 11110,
  " Cam": 11111,
  " (_": 11112,
  " \"#": 11113,
  "isis": 11114,
  "itet": 11115,
  " ile": 11116,
  "care": 11117,
  "Progress": 11118,
  "instance": 11119,
  "্ষ": 11120,
  " ತ": 11121,
  " Office": 11122,
  "قت": 11123,
  " Paul": 11124,
  "ാണ്": 11125,
  "ির": 11126,
  " goals": 11127,
  "τι": 11128,
  " incl": 11129,
  ".button": 11130,
  "send": 11131,
  " এক": 11132,
  "Les": 11133,
  "Member": 11134,
  "န": 11135,
  "structions": 11136,
  " Yes": 11137,
  "enas": 11138,
  " api": 11139,
  "endant": 11140,
  " pull": 11141,
  "chor": 11142,
  ".post": 11143,
  " polic": 11144,
  "فر": 11145,
  "lished": 11146,
  " bh": 11147,
  "؟": 11148,
  "_node": 11149,
  "еи": 11150,
  "ahi": 11151,
  "երը": 11152,
  " wire": 11153,
  " lok": 11154,
  "ირ": 11155,
  "문": 11156,
  "Na": 11157,
  "888": 11158,
  "ក": 11159,
  "’a": 11160,
  " spread": 11161,
  " offic": 11162,
  " Console": 11163,
  "inta": 11164,
  " Well": 11165,
  "iliar": 11166,
  "!=": 11167,
  "есп": 11168,
  " identify": 11169,
  " Ա": 11170,
  "ล็": 11171,
  "ians": 11172,
  " جو": 11173,
  " occur": 11174,
  " ก": 11175,
  "-center": 11176,
  " coff": 11177,
  "ega": 11178,
  " {}\n": 11179,
  "শ": 11180,
  "여": 11181,
  " relax": 11182,
  " listen": 11183,
  " mur": 11184,
  "ופ": 11185,
  " raw": 11186,
  " resp": 11187,
  "yk": 11188,
  " вид": 11189,
  "Parse": 11190,
  " determine": 11191,
  " enable": 11192,
  ".fr": 11193,
  " Jah": 11194,
  "Find": 11195,
  " fel": 11196,
  "licit": 11197,
  "에서": 11198,
  "ünd": 11199,
  "105": 11200,
  "..\n\n": 11201,
  " girls": 11202,
  "uestion": 11203,
  "Related": 11204,
  ".As": 11205,
  " PR": 11206,
  " shoot": 11207,
  "ất": 11208,
  " elle": 11209,
  " Qual": 11210,
  " loop": 11211,
  " harm": 11212,
  "oded": 11213,
  "ersistence": 11214,
  " ร": 11215,
  " Global": 11216,
  "olve": 11217,
  "enance": 11218,
  "ίν": 11219,
  "ده": 11220,
  "];": 11221,
  "Enc": 11222,
  "ườ": 11223,
  " )\n\n": 11224,
  " کې": 11225,
  " estr": 11226,
  "Inst": 11227,
  " Lin": 11228,
  "roke": 11229,
  "थ": 11230,
  " ան": 11231,
  " ll": 11232,
  "Host": 11233,
  " redistrib": 11234,
  "орт": 11235,
  "Perm": 11236,
  "handle": 11237,
  "Free": 11238,
  "SET": 11239,
  "ச": 11240,
  "ಿದ್ದ": 11241,
  " named": 11242,
  " wax": 11243,
  ".time": 11244,
  "omin": 11245,
  "ugg": 11246,
  "nya": 11247,
  "دي": 11248,
  " ihr": 11249,
  "DO": 11250,
  " testing": 11251,
  " mist": 11252,
  "conds": 11253,
  "Seg": 11254,
  "ej": 11255,
  "kit": 11256,
  " ಆ": 11257,
  "_config": 11258,
  " $(\"#": 11259,
  "/f": 11260,
  " AT": 11261,
  " ster": 11262,
  "aughter": 11263,
  " Download": 11264,
  " surv": 11265,
  ".un": 11266,
  "uture": 11267,
  "ús": 11268,
  " sar": 11269,
  " families": 11270,
  "्प": 11271,
  "_length": 11272,
  "ición": 11273,
  "ython": 11274,
  "তে": 11275,
  "apon": 11276,
  " DB": 11277,
  " Ik": 11278,
  " discount": 11279,
  " benefit": 11280,
  "anten": 11281,
  " sources": 11282,
  " forms": 11283,
  " wife": 11284,
  "ilename": 11285,
  " sehr": 11286,
  " concentr": 11287,
  " cup": 11288,
  " afford": 11289,
  "jection": 11290,
  "Cor": 11291,
  "burg": 11292,
  "(event": 11293,
  "oes": 11294,
  " station": 11295,
  "MD": 11296,
  " population": 11297,
  " launch": 11298,
  " mp": 11299,
  ".title": 11300,
  "าก": 11301,
  "frame": 11303,
  "ൻ": 11304,
  "िं": 11305,
  "tor": 11306,
  "қәа": 11307,
  "STR": 11308,
  "त्र": 11309,
  " mont": 11310,
  " Each": 11311,
  "document": 11312,
  " Jan": 11313,
  "olar": 11314,
  ".Model": 11315,
  "овать": 11316,
  " dont": 11317,
  "ાય": 11318,
  " tempo": 11319,
  " ض": 11320,
  " Trump": 11322,
  " anc": 11323,
  "empo": 11324,
  " award": 11325,
  "_sub": 11326,
  "otor": 11327,
  "antic": 11328,
  " implied": 11329,
  "\tself": 11330,
  "ับ": 11331,
  "هر": 11332,
  " WITHOUT": 11333,
  "erse": 11334,
  "(type": 11335,
  " income": 11336,
  "ाप": 11337,
  "ijo": 11338,
  "Ч": 11339,
  ")]\n": 11340,
  " [];\n": 11341,
  " Room": 11342,
  " ub": 11343,
  ",$": 11344,
  " builder": 11345,
  "ოლ": 11346,
  "atively": 11347,
  "уа": 11348,
  "-line": 11349,
  "остав": 11350,
  "_EX": 11351,
  " wear": 11352,
  " unser": 11353,
  "plus": 11354,
  "Sort": 11355,
  "ím": 11356,
  "inese": 11357,
  "aller": 11358,
  " shopping": 11359,
  "ashboard": 11360,
  " bound": 11361,
  " father": 11362,
  "igital": 11363,
  "gin": 11364,
  " até": 11365,
  "Rate": 11366,
  " beyond": 11367,
  "oyal": 11368,
  " ప్ర": 11369,
  " यह": 11370,
  " ult": 11371,
  "ogy": 11372,
  " gain": 11373,
  " thr": 11374,
  "_result": 11375,
  "ание": 11376,
  " collabor": 11377,
  "ೆಯ": 11378,
  "_ERROR": 11379,
  " Sun": 11380,
  " powerful": 11381,
  "마": 11382,
  "બ": 11383,
  "menu": 11384,
  "iform": 11385,
  "produ": 11386,
  " Gal": 11387,
  "Loading": 11388,
  "_k": 11389,
  " burn": 11390,
  " highest": 11391,
  " อ": 11392,
  " '../../": 11393,
  " Govern": 11394,
  " bytes": 11395,
  "created": 11396,
  " tent": 11397,
  " Double": 11398,
  " ан": 11399,
  " loan": 11400,
  "ictions": 11401,
  "errors": 11402,
  "oice": 11403,
  ".serv": 11404,
  " factors": 11405,
  " wurde": 11406,
  "iques": 11407,
  " guys": 11408,
  "চ": 11409,
  " علي": 11410,
  "וש": 11412,
  " manage": 11413,
  ".draw": 11414,
  "על": 11415,
  "ntax": 11416,
  " ee": 11417,
  "ھی": 11418,
  " Description": 11419,
  " ej": 11420,
  " calls": 11421,
  "InstanceState": 11422,
  " besch": 11423,
  "win": 11424,
  "tmp": 11425,
  " ამ": 11426,
  " تر": 11427,
  " gebruik": 11428,
  " mere": 11429,
  " Dev": 11430,
  "ங": 11431,
  "ità": 11433,
  "_O": 11434,
  ">{": 11435,
  " anos": 11436,
  ".forEach": 11437,
  ".height": 11438,
  "enerated": 11439,
  " finished": 11440,
  " nearly": 11441,
  " communication": 11442,
  " ჩ": 11443,
  "atr": 11444,
  " Full": 11445,
  "բ": 11446,
  " memb": 11447,
  "_PRO": 11448,
  "\tr": 11449,
  " talking": 11450,
  "reh": 11451,
  " ఆ": 11452,
  "ത്": 11453,
  " traff": 11454,
  " indust": 11455,
  " թ": 11456,
  "με": 11457,
  " нов": 11458,
  " cmd": 11459,
  "reme": 11460,
  " rencont": 11461,
  " immer": 11462,
  " thanks": 11463,
  "ickets": 11464,
  "ระ": 11465,
  "سی": 11466,
  "ைய": 11467,
  " script": 11468,
  " Life": 11469,
  " reasons": 11470,
  " evidence": 11471,
  "خر": 11472,
  "اً": 11473,
  " कार": 11474,
  "LIC": 11475,
  "_table": 11476,
  " records": 11477,
  " voice": 11478,
  "ßen": 11479,
  "Background": 11480,
  " fav": 11481,
  "350": 11482,
  " lack": 11483,
  "aal": 11484,
  " \".": 11485,
  "ificate": 11486,
  "heit": 11487,
  "_number": 11488,
  "세": 11489,
  " quando": 11490,
  "toBe": 11491,
  " objects": 11492,
  "كل": 11493,
  "css": 11494,
  "си": 11495,
  "non": 11496,
  "icul": 11497,
  " mijn": 11498,
  " gö": 11499,
  "äng": 11500,
  " можно": 11501,
  " fear": 11502,
  " vil": 11503,
  "ndef": 11504,
  "terior": 11505,
  "ӯ": 11506,
  "igi": 11507,
  ".getName": 11508,
  "신": 11509,
  "इ": 11510,
  "Ap": 11511,
  "Gen": 11512,
  "ებს": 11514,
  "եղ": 11515,
  " dispon": 11516,
  "Layer": 11517,
  ".message": 11518,
  "redit": 11519,
  " export": 11520,
  "anned": 11521,
  " bụ": 11522,
  " spect": 11523,
  " verw": 11524,
  " Price": 11525,
  " aim": 11526,
  "trie": 11527,
  " guard": 11528,
  "'])": 11529,
  " \"$": 11530,
  " nor": 11531,
  " hundred": 11532,
  " кор": 11533,
  "itat": 11534,
  "(__": 11535,
  " hasta": 11536,
  "arp": 11537,
  "OU": 11538,
  "ategor": 11539,
  "leted": 11541,
  " experienced": 11542,
  " trial": 11543,
  "だ": 11544,
  " agent": 11545,
  " realiz": 11546,
  "াস": 11547,
  " park": 11548,
  "تي": 11549,
  " permet": 11550,
  " endl": 11551,
  " بعد": 11552,
  "uler": 11553,
  "동": 11554,
  "න්": 11555,
  " repe": 11556,
  " initi": 11557,
  " ged": 11558,
  "’une": 11559,
  " wieder": 11560,
  " kil": 11561,
  " Gar": 11562,
  " maken": 11563,
  "ಿನ": 11564,
  " technical": 11565,
  "[index": 11566,
  "auc": 11567,
  "Enum": 11568,
  "Ó": 11569,
  " domain": 11570,
  " Gen": 11571,
  " valor": 11572,
  "003": 11573,
  "uent": 11574,
  "_map": 11575,
  "Vol": 11576,
  " haar": 11577,
  " radio": 11578,
  "abilities": 11580,
  "וי": 11581,
  "ล็อต": 11582,
  " سر": 11583,
  "터": 11584,
  "AF": 11585,
  " European": 11586,
  "кой": 11587,
  " Tom": 11588,
  " detect": 11589,
  "NGTH": 11590,
  "ABILITY": 11591,
  "utos": 11592,
  "phere": 11593,
  " weer": 11594,
  "회": 11595,
  "Rule": 11596,
  " secure": 11597,
  " Ener": 11598,
  "ним": 11599,
  "global": 11600,
  "оду": 11601,
  "ometry": 11602,
  "き": 11603,
  "fix": 11604,
  "session": 11605,
  "การ": 11606,
  ".Com": 11607,
  "commod": 11608,
  " lif": 11609,
  "props": 11610,
  "itud": 11611,
  " Mill": 11612,
  "_cast": 11613,
  " кол": 11614,
  "apes": 11615,
  "Any": 11616,
  " કે": 11617,
  "ುವ": 11618,
  "-sh": 11619,
  "Cond": 11620,
  "pective": 11621,
  "ETH": 11622,
  " somew": 11623,
  " cancer": 11624,
  ".On": 11625,
  "ுத": 11626,
  ")/": 11627,
  " dict": 11628,
  "Editor": 11629,
  " props": 11630,
  " {'": 11631,
  " Box": 11632,
  ".max": 11633,
  " particularly": 11634,
  " Texas": 11635,
  " Washington": 11636,
  "success": 11637,
  "LAG": 11638,
  " friendly": 11639,
  " Look": 11640,
  "우": 11641,
  " inclus": 11642,
  "ец": 11643,
  "bin": 11644,
  "voice": 11645,
  "لب": 11646,
  "activity": 11647,
  "));": 11648,
  "Sk": 11649,
  " Plus": 11650,
  "=\"{{": 11651,
  "alf": 11652,
  "uwe": 11653,
  "_for": 11654,
  "visor": 11655,
  " ಇ": 11656,
  " removed": 11657,
  " esper": 11658,
  "ух": 11660,
  "enen": 11661,
  " Univers": 11662,
  " থ": 11663,
  "103": 11664,
  " guess": 11665,
  "اري": 11666,
  " arguments": 11667,
  "Ο": 11668,
  "ỉ": 11669,
  " Account": 11670,
  "مان": 11671,
  " isso": 11672,
  " pom": 11673,
  "olut": 11674,
  " surround": 11675,
  "әл": 11676,
  " هو": 11677,
  "istrict": 11678,
  " apro": 11679,
  " Australia": 11680,
  " restaurant": 11681,
  " jog": 11682,
  " zelf": 11683,
  " Ч": 11684,
  "___": 11685,
  " Casino": 11686,
  " aren": 11687,
  "idente": 11689,
  "्स": 11690,
  " Blue": 11691,
  " although": 11692,
  " Isra": 11693,
  "clip": 11694,
  "그": 11695,
  "વા": 11696,
  " threat": 11697,
  "002": 11698,
  ".delete": 11699,
  "faces": 11700,
  " Spiel": 11701,
  "ેલ": 11702,
  " wrote": 11703,
  " cache": 11704,
  "tab": 11705,
  "نے": 11706,
  "iration": 11708,
  " Pay": 11709,
  "dk": 11711,
  " impress": 11712,
  " earlier": 11713,
  " agr": 11714,
  " church": 11715,
  "ভ": 11716,
  "্ৰ": 11717,
  "chedule": 11718,
  " onze": 11719,
  " ό": 11720,
  "Go": 11721,
  "Where": 11722,
  "contact": 11723,
  "ações": 11724,
  " lit": 11725,
  "لس": 11726,
  " sets": 11727,
  "vc": 11728,
  "ستان": 11729,
  "isto": 11730,
  "¿": 11731,
  "zh": 11732,
  "-D": 11733,
  "rat": 11734,
  "LA": 11735,
  "alysis": 11736,
  " Mont": 11737,
  "een": 11738,
  " võ": 11739,
  " Dat": 11740,
  " onChange": 11741,
  " dy": 11742,
  "ಕ್�": 11743,
  " ท": 11744,
  "115": 11745,
  "escription": 11746,
  "Enumer": 11747,
  "prite": 11748,
  "ού": 11749,
  " ast": 11750,
  " vu": 11751,
  " Control": 11752,
  "anted": 11753,
  " absolut": 11754,
  "ुल": 11755,
  " ही": 11756,
  " fetch": 11757,
  "ари": 11758,
  "endl": 11759,
  "að": 11760,
  "essor": 11761,
  "レ": 11762,
  "국": 11763,
  "]['": 11764,
  "습니다": 11765,
  "_j": 11766,
  "λλ": 11767,
  " naj": 11768,
  " Unity": 11769,
  "ន": 11770,
  "aq": 11771,
  "raints": 11772,
  " waiting": 11773,
  "üh": 11774,
  " públic": 11775,
  " bod": 11776,
  " distr": 11777,
  " fon": 11778,
  " Para": 11779,
  " strict": 11780,
  " bra": 11781,
  "ង": 11782,
  "Note": 11783,
  " مد": 11784,
  " ṣ": 11785,
  "าง": 11786,
  "ув": 11787,
  " оч": 11788,
  "ampions": 11789,
  "(F": 11790,
  " Arg": 11791,
  "xml": 11792,
  "үү": 11793,
  "ols": 11794,
  "arse": 11795,
  "serve": 11796,
  "ders": 11797,
  "या": 11798,
  " upload": 11799,
  "ograf": 11800,
  " uno": 11801,
  "Cho": 11803,
  "_object": 11804,
  "\tset": 11805,
  "רא": 11806,
  "олог": 11807,
  " hyd": 11808,
  "(View": 11809,
  "ại": 11810,
  " passion": 11811,
  "ഗ": 11812,
  " seconds": 11813,
  "anne": 11814,
  "_item": 11815,
  "cores": 11816,
  "rior": 11817,
  " listed": 11818,
  " remov": 11819,
  "IGN": 11820,
  "िव": 11821,
  "ENSE": 11822,
  " củ": 11823,
  " connected": 11824,
  "orithm": 11825,
  "plex": 11826,
  "ком": 11827,
  "{}": 11828,
  " operations": 11829,
  " Organ": 11830,
  "road": 11831,
  "★": 11832,
  " temperature": 11833,
  "nam": 11834,
  " ও": 11835,
  " COVID": 11836,
  " notre": 11837,
  " mission": 11838,
  " academ": 11839,
  " cloud": 11840,
  "EB": 11841,
  " schon": 11842,
  ")),": 11843,
  "ket": 11844,
  " partir": 11845,
  "uren": 11846,
  " momento": 11847,
  "ambda": 11849,
  " چې": 11850,
  " estate": 11851,
  " jag": 11852,
  "ල": 11853,
  "ப்ப": 11854,
  " boost": 11855,
  " Care": 11856,
  " aplic": 11857,
  "nis": 11858,
  " lev": 11859,
  "ৈ": 11860,
  " Som": 11861,
  " mesmo": 11862,
  "ಣ": 11863,
  " whose": 11864,
  "atches": 11865,
  "lla": 11866,
  "огда": 11867,
  "Fin": 11868,
  "ыс": 11869,
  "(k": 11870,
  " Elect": 11871,
  "ienen": 11872,
  "ες": 11873,
  " finding": 11874,
  " impos": 11875,
  "antity": 11876,
  "ળ": 11877,
  "െയ": 11878,
  " helping": 11879,
  "standing": 11880,
  "useum": 11881,
  " reflect": 11882,
  "Connect": 11883,
  " cv": 11884,
  "igu": 11885,
  "ที่": 11886,
  ".isEmpty": 11887,
  "입": 11888,
  " cold": 11889,
  "etzt": 11890,
  "=False": 11891,
  " се": 11892,
  "catch": 11893,
  " multi": 11894,
  " ov": 11895,
  " của": 11896,
  "essions": 11897,
  " vai": 11898,
  "(error": 11899,
  "เ": 11900,
  " guy": 11901,
  " challenge": 11902,
  "лек": 11903,
  " websites": 11904,
  "ookie": 11905,
  "stat": 11906,
  " director": 11907,
  " Term": 11908,
  "Cap": 11909,
  " wij": 11910,
  "TextBox": 11911,
  " sb": 11912,
  "_out": 11913,
  "chi": 11914,
  "mu": 11915,
  "icted": 11916,
  ".use": 11918,
  "ура": 11919,
  " CD": 11920,
  "\\\n": 11921,
  " अन": 11922,
  ".object": 11923,
  ".User": 11924,
  " moved": 11925,
  "և": 11926,
  "iele": 11927,
  " Creat": 11928,
  "ட்ட": 11929,
  "مال": 11930,
  "Loader": 11931,
  " generally": 11932,
  "ร์": 11933,
  "(req": 11934,
  "Intent": 11935,
  "Hi": 11936,
  "ensity": 11937,
  "lijk": 11938,
  " surpr": 11939,
  " doub": 11940,
  "roperties": 11941,
  " ث": 11942,
  "Transform": 11943,
  " cré": 11944,
  " 하": 11945,
  "люч": 11946,
  "104": 11947,
  " โ": 11948,
  " Review": 11949,
  " ahead": 11950,
  " Report": 11951,
  " iyo": 11952,
  " scre": 11953,
  "Look": 11954,
  "losed": 11955,
  "icons": 11956,
  " fal": 11957,
  "chron": 11958,
  "Pool": 11959,
  " gaan": 11960,
  "************************************************************************": 11961,
  " opening": 11962,
  "xFF": 11963,
  "ös": 11964,
  " controller": 11965,
  " compare": 11966,
  "lets": 11967,
  "ორ": 11968,
  "Wrapper": 11969,
  " Note": 11970,
  "\tassert": 11971,
  " эк": 11972,
  " sys": 11973,
  " external": 11974,
  " gibt": 11975,
  " ati": 11976,
  "ibles": 11977,
  "NT": 11978,
  "];\r\n": 11979,
  "/t": 11980,
  "submit": 11981,
  " atr": 11982,
  " Enter": 11983,
  " capacity": 11984,
  "izable": 11985,
  "OUN": 11986,
  "profile": 11987,
  " Last": 11988,
  "unte": 11989,
  " matrix": 11990,
  "-K": 11991,
  "\tlog": 11992,
  " Rock": 11993,
  "crete": 11994,
  "Here": 11995,
  " هذا": 11996,
  "eks": 11997,
  " Ess": 11998,
  " במ": 11999,
  "ág": 12000,
  " apart": 12001,
  "ించ": 12002,
  " तो": 12003,
  " schedule": 12004,
  "\".\n\n": 12005,
  " AL": 12006,
  " Since": 12007,
  " jeg": 12008,
  " кар": 12009,
  " Contact": 12011,
  " menos": 12012,
  " dispatch": 12013,
  " \"\n": 12014,
  " થ": 12015,
  " born": 12016,
  "umin": 12017,
  ".format": 12018,
  "Invalid": 12019,
  "eless": 12020,
  "They": 12021,
  "Fields": 12022,
  " configuration": 12023,
  "ucht": 12024,
  "_int": 12025,
  "ีย": 12026,
  " Thanks": 12027,
  "タ": 12028,
  "рос": 12029,
  " journal": 12030,
  "թ": 12031,
  "Axis": 12032,
  " \"../": 12033,
  " Simple": 12034,
  "lj": 12035,
  "sum": 12037,
  " gone": 12038,
  "тар": 12039,
  " nar": 12040,
  " Div": 12041,
  " Water": 12042,
  " Ur": 12043,
  " און": 12044,
  " аб": 12045,
  "112": 12046,
  " ud": 12047,
  "-mail": 12048,
  "ataset": 12049,
  "Section": 12050,
  "ких": 12051,
  "arga": 12052,
  " posted": 12053,
  "ديد": 12054,
  "비": 12055,
  "ચ": 12056,
  " sexual": 12057,
  " ки": 12058,
  "IONS": 12059,
  "های": 12060,
  "ӡ": 12061,
  " processing": 12062,
  "-old": 12063,
  " alloc": 12064,
  "Sm": 12065,
  " appoint": 12066,
  " Mor": 12067,
  "\"].": 12068,
  " relevant": 12069,
  " factor": 12070,
  " wild": 12071,
  " rac": 12072,
  "elijke": 12073,
  " ნ": 12074,
  " artist": 12075,
  " seus": 12076,
  "rees": 12077,
  "reshold": 12078,
  " doctor": 12079,
  "ੋ": 12080,
  " Da": 12081,
  " rub": 12082,
  " համ": 12083,
  " copyright": 12084,
  "ҳои": 12085,
  " todas": 12086,
  "েল": 12087,
  " Bay": 12088,
  "fen": 12089,
  "오": 12090,
  " annual": 12091,
  "лем": 12092,
  "Score": 12093,
  " सक": 12094,
  "خص": 12095,
  "cycl": 12096,
  ".Error": 12097,
  "olic": 12098,
  " ment": 12099,
  "allel": 12100,
  "MM": 12101,
  " Frank": 12102,
  "անի": 12103,
  "Keys": 12104,
  " grad": 12105,
  "gang": 12106,
  "unes": 12107,
  "ска": 12108,
  "ugins": 12109,
  "alis": 12110,
  " бай": 12111,
  "erta": 12112,
  "×": 12113,
  " rapid": 12114,
  "Ids": 12115,
  " permit": 12116,
  " ск": 12117,
  " critical": 12118,
  " larger": 12119,
  " ಎ": 12120,
  "се": 12121,
  "لال": 12122,
  " truth": 12123,
  " mental": 12125,
  " dus": 12126,
  " Tra": 12127,
  "conn": 12128,
  "Global": 12129,
  " organis": 12130,
  " buying": 12131,
  " incred": 12132,
  "-R": 12133,
  " uz": 12134,
  "alah": 12135,
  "device": 12136,
  "boBox": 12137,
  " tanto": 12138,
  " ہیں": 12139,
  " ship": 12140,
  "oso": 12141,
[...]
