{"version": "1.0", "truncation": null, "padding": null, "added_tokens": [{"id": 130725, "content": "<|begin_of_text|>", "single_word": false, "lstrip": false, "rstrip": false, "normalized": false, "special": true}, {"id": 36, "content": "<|end_of_text|>", "single_word": false, "lstrip": false, "rstrip": false, "normalized": false, "special": true}, {"id": 130726, "content": "<|pad|>", "single_word": false, "lstrip": false, "rstrip": false, "normalized": false, "special": true}, {"id": 130727, "content": "<|unk|>", "single_word": false, "lstrip": false, "rstrip": false, "normalized": false, "special": true}, {"id": 130728, "content": "<|sep|>", "single_word": false, "lstrip": false, "rstrip": false, "normalized": false, "special": true}, {"id": 130729, "content": "<|cls|>", "single_word": false, "lstrip": false, "rstrip": false, "normalized": false, "special": true}, {"id": 130730, "content": "<|mask|>", "single_word": false, "lstrip": false, "rstrip": false, "normalized": false, "special": true}, {"id": 130173, "content": "<|newline|>", "single_word": false, "lstrip": false, "rstrip": false, "normalized": false, "special": true}, {"id": 130731, "content": "<|paragraph|>", "single_word": false, "lstrip": false, "rstrip": false, "normalized": false, "special": true}, {"id": 130732, "content": "<|document|>", "single_word": false, "lstrip": false, "rstrip": false, "normalized": false, "special": true}, {"id": 130733, "content": "<|system|>", "single_word": false, "lstrip": false, "rstrip": false, "normalized": false, "special": true}, {"id": 130734, "content": "<|user|>", "single_word": false, "lstrip": false, "rstrip": false, "normalized": false, "special": true}, {"id": 130735, "content": "<|assistant|>", "single_word": false, "lstrip": false, "rstrip": false, "normalized": false, "special": true}, {"id": 130736, "content": "<|tool|>", "single_word": false, "lstrip": false, "rstrip": false, "normalized": false, "special": true}, {"id": 130737, "content": "<|function|>", "single_word": false, "lstrip": false, "rstrip": false, "normalized": false, "special": true}, {"id": 129411, "content": "<|context|>", "single_word": false, "lstrip": false, "rstrip": false, "normalized": false, "special": true}, {"id": 130738, "content": "<|instruction|>", "single_word": false, "lstrip": false, "rstrip": false, "normalized": false, "special": true}, {"id": 129279, "content": "<|response|>", "single_word": false, "lstrip": false, "rstrip": false, "normalized": false, "special": true}, {"id": 130739, "content": "<|turn|>", "single_word": false, "lstrip": false, "rstrip": false, "normalized": false, "special": true}, {"id": 130740, "content": "<|end_turn|>", "single_word": false, "lstrip": false, "rstrip": false, "normalized": false, "special": true}, {"id": 130741, "content": "<|code_begin|>", "single_word": false, "lstrip": false, "rstrip": false, "normalized": false, "special": true}, {"id": 130742, "content": "<|code_end|>", "single_word": false, "lstrip": false, "rstrip": false, "normalized": false, "special": true}, {"id": 130743, "content": "<|output_begin|>", "single_word": false, "lstrip": false, "rstrip": false, "normalized": false, "special": true}, {"id": 130744, "content": "<|output_end|>", "single_word": false, "lstrip": false, "rstrip": false, "normalized": false, "special": true}, {"id": 130745, "content": "<|error|>", "single_word": false, "lstrip": false, "rstrip": false, "normalized": false, "special": true}, {"id": 130746, "content": "<|stdin|>", "single_word": false, "lstrip": false, "rstrip": false, "normalized": false, "special": true}, {"id": 130747, "content": "<|stdout|>", "single_word": false, "lstrip": false, "rstrip": false, "normalized": false, "special": true}, {"id": 130748, "content": "<|stderr|>", "single_word": false, "lstrip": false, "rstrip": false, "normalized": false, "special": true}, {"id": 130749, "content": "<|file_begin|>", "single_word": false, "lstrip": false, "rstrip": false, "normalized": false, "special": true}, {"id": 130750, "content": "<|file_end|>", "single_word": false, "lstrip": false, "rstrip": false, "normalized": false, "special": true}, {"id": 130751, "content": "<|lang:python|>", "single_word": false, "lstrip": false, "rstrip": false, "normalized": false, "special": true}, {"id": 130752, "content": "<|lang:javascript|>", "single_word": false, "lstrip": false, "rstrip": false, "normalized": false, "special": true}, {"id": 130753, "content": "<|lang:typescript|>", "single_word": false, "lstrip": false, "rstrip": false, "normalized": false, "special": true}, {"id": 130754, "content": "<|lang:java|>", "single_word": false, "lstrip": false, "rstrip": false, "normalized": false, "special": true}, {"id": 130755, "content": "<|lang:cpp|>", "single_word": false, "lstrip": false, "rstrip": false, "normalized": false, "special": true}, {"id": 130756, "content": "<|lang:c|>", "single_word": false, "lstrip": false, "rstrip": false, "normalized": false, "special": true}, {"id": 130757, "content": "<|lang:rust|>", "single_word": false, "lstrip": false, "rstrip": false, "normalized": false, "special": true}, {"id": 130758, "content": "<|lang:go|>", "single_word": false, "lstrip": false, "rstrip": false, "normalized": false, "special": true}, {"id": 130759, "content": "<|lang:ruby|>", "single_word": false, "lstrip": false, "rstrip": false, "normalized": false, "special": true}, {"id": 130760, "content": "<|lang:php|>", "single_word": false, "lstrip": false, "rstrip": false, "normalized": false, "special": true}, {"id": 130761, "content": "<|lang:swift|>", "single_word": false, "lstrip": false, "rstrip": false, "normalized": false, "special": true}, {"id": 130762, "content": "<|lang:kotlin|>", "single_word": false, "lstrip": false, "rstrip": false, "normalized": false, "special": true}, {"id": 130763, "content": "<|lang:scala|>", "single_word": false, "lstrip": false, "rstrip": false, "normalized": false, "special": true}, {"id": 130764, "content": "<|lang:r|>", "single_word": false, "lstrip": false, "rstrip": false, "normalized": false, "special": true}, {"id": 130765, "content": "<|lang:julia|>", "single_word": false, "lstrip": false, "rstrip": false, "normalized": false, "special": true}, {"id": 130766, "content": "<|lang:sql|>", "single_word": false, "lstrip": false, "rstrip": false, "normalized": false, "special": true}, {"id": 130767, "content": "<|lang:html|>", "single_word": false, "lstrip": false, "rstrip": false, "normalized": false, "special": true}, {"id": 130768, "content": "<|lang:css|>", "single_word": false, "lstrip": false, "rstrip": false, "normalized": false, "special": true}, {"id": 130769, "content": "<|lang:bash|>", "single_word": false, "lstrip": false, "rstrip": false, "normalized": false, "special": true}, {"id": 130770, "content": "<|lang:shell|>", "single_word": false, "lstrip": false, "rstrip": false, "normalized": false, "special": true}, {"id": 130771, "content": "<|json_begin|>", "single_word": false, "lstrip": false, "rstrip": false, "normalized": false, "special": true}, {"id": 130772, "content": "<|json_end|>", "single_word": false, "lstrip": false, "rstrip": false, "normalized": false, "special": true}, {"id": 130773, "content": "<|tool_call|>", "single_word": false, "lstrip": false, "rstrip": false, "normalized": false, "special": true}, {"id": 130774, "content": "<|tool_result|>", "single_word": false, "lstrip": false, "rstrip": false, "normalized": false, "special": true}, {"id": 130775, "content": "<|function_call|>", "single_word": false, "lstrip": false, "rstrip": false, "normalized": false, "special": true}, {"id": 130776, "content": "<|function_result|>", "single_word": false, "lstrip": false, "rstrip": false, "normalized": false, "special": true}, {"id": 130777, "content": "<|api_request|>", "single_word": false, "lstrip": false, "rstrip": false, "normalized": false, "special": true}, {"id": 130778, "content": "<|api_response|>", "single_word": false, "lstrip": false, "rstrip": false, "normalized": false, "special": true}, {"id": 130779, "content": "<|schema|>", "single_word": false, "lstrip": false, "rstrip": false, "normalized": false, "special": true}, {"id": 130780, "content": "<|arguments|>", "single_word": false, "lstrip": false, "rstrip": false, "normalized": false, "special": true}, {"id": 130781, "content": "<|source:wikipedia|>", "single_word": false, "lstrip": false, "rstrip": false, "normalized": false, "special": true}, {"id": 130782, "content": "<|source:github|>", "single_word": false, "lstrip": false, "rstrip": false, "normalized": false, "special": true}, {"id": 130783, "content": "<|source:arxiv|>", "single_word": false, "lstrip": false, "rstrip": false, "normalized": false, "special": true}, {"id": 130784, "content": "<|source:web|>", "single_word": false, "lstrip": false, "rstrip": false, "normalized": false, "special": true}, {"id": 130785, "content": "<|source:book|>", "single_word": false, "lstrip": false, "rstrip": false, "normalized": false, "special": true}, {"id": 130786, "content": "<|source:code|>", "single_word": false, "lstrip": false, "rstrip": false, "normalized": false, "special": true}, {"id": 130787, "content": "<|source:docs|>", "single_word": false, "lstrip": false, "rstrip": false, "normalized": false, "special": true}, {"id": 130788, "content": "<|source:news|>", "single_word": false, "lstrip": false, "rstrip": false, "normalized": false, "special": true}, {"id": 130789, "content": "<|source:social|>", "single_word": false, "lstrip": false, "rstrip": false, "normalized": false, "special": true}, {"id": 130790, "content": "<|source:other|>", "single_word": false, "lstrip": false, "rstrip": false, "normalized": false, "special": true}, {"id": 130791, "content": "<|think_begin|>", "single_word": false, "lstrip": false, "rstrip": false, "normalized": false, "special": true}, {"id": 130792, "content": "<|think_end|>", "single_word": false, "lstrip": false, "rstrip": false, "normalized": false, "special": true}, {"id": 130793, "content": "<|step|>", "single_word": false, "lstrip": false, "rstrip": false, "normalized": false, "special": true}, {"id": 130794, "content": "<|plan|>", "single_word": false, "lstrip": false, "rstrip": false, "normalized": false, "special": true}, {"id": 130795, "content": "<|reflect|>", "single_word": false, "lstrip": false, "rstrip": false, "normalized": false, "special": true}, {"id": 130796, "content": "<|verify|>", "single_word": false, "lstrip": false, "rstrip": false, "normalized": false, "special": true}, {"id": 130797, "content": "<|conclude|>", "single_word": false, "lstrip": false, "rstrip": false, "normalized": false, "special": true}, {"id": 130798, "content": "<|reason|>", "single_word": false, "lstrip": false, "rstrip": false, "normalized": false, "special": true}, {"id": 130799, "content": "<|analyze|>", "single_word": false, "lstrip": false, "rstrip": false, "normalized": false, "special": true}, {"id": 130800, "content": "<|synthesize|>", "single_word": false, "lstrip": false, "rstrip": false, "normalized": false, "special": true}, {"id": 130801, "content": "<|fim_prefix|>", "single_word": false, "lstrip": false, "rstrip": false, "normalized": false, "special": true}, {"id": 130802, "content": "<|fim_middle|>", "single_word": false, "lstrip": false, "rstrip": false, "normalized": false, "special": true}, {"id": 130803, "content": "<|fim_suffix|>", "single_word": false, "lstrip": false, "rstrip": false, "normalized": false, "special": true}, {"id": 130804, "content": "<|fim_pad|>", "single_word": false, "lstrip": false, "rstrip": false, "normalized": false, "special": true}, {"id": 130805, "content": "<|vision_start|>", "single_word": false, "lstrip": false, "rstrip": false, "normalized": false, "special": true}, {"id": 130806, "content": "<|vision_end|>", "single_word": false, "lstrip": false, "rstrip": false, "normalized": false, "special": true}, {"id": 130807, "content": "<|vision_pad|>", "single_word": false, "lstrip": false, "rstrip": false, "normalized": false, "special": true}, {"id": 130808, "content": "<|image_pad|>", "single_word": false, "lstrip": false, "rstrip": false, "normalized": false, "special": true}, {"id": 130809, "content": "<|video_pad|>", "single_word": false, "lstrip": false, "rstrip": false, "normalized": false, "special": true}, {"id": 130810, "content": "<|object_ref_start|>", "single_word": false, "lstrip": false, "rstrip": false, "normalized": false, "special": true}, {"id": 130811, "content": "<|object_ref_end|>", "single_word": false, "lstrip": false, "rstrip": false, "normalized": false, "special": true}, {"id": 130812, "content": "<|box_start|>", "single_word": false, "lstrip": false, "rstrip": false, "normalized": false, "special": true}, {"id": 130813, "content": "<|box_end|>", "single_word": false, "lstrip": false, "rstrip": false, "normalized": false, "special": true}, {"id": 130814, "content": "<|quad_start|>", "single_word": false, "lstrip": false, "rstrip": false, "normalized": false, "special": true}, {"id": 130815, "content": "<|quad_end|>", "single_word": false, "lstrip": false, "rstrip": false, "normalized": false, "special": true}, {"id": 129994, "content": "<|im_start|>", "single_word": false, "lstrip": false, "rstrip": false, "normalized": false, "special": true}, {"id": 130816, "content": "<|im_end|>", "single_word": false, "lstrip": false, "rstrip": false, "normalized": false, "special": true}, {"id": 130817, "content": "<|file_sep|>", "single_word": false, "lstrip": false, "rstrip": false, "normalized": false, "special": true}, {"id": 130818, "content": "<|repo_name|>", "single_word": false, "lstrip": false, "rstrip": false, "normalized": false, "special": true}, {"id": 130174, "content": "<tool_call>", "single_word": false, "lstrip": false, "rstrip": false, "normalized": false, "special": true}, {"id": 130226, "content": "</tool_call>", "single_word": false, "lstrip": false, "rstrip": false, "normalized": false, "special": true}, {"id": 130819, "content": "<tool_response>", "single_word": false, "lstrip": false, "rstrip": false, "normalized": false, "special": true}, {"id": 130820, "content": "</tool_response>", "single_word": false, "lstrip": false, "rstrip": false, "normalized": false, "special": true}, {"id": 128512, "content": "<think>", "single_word": false, "lstrip": false, "rstrip": false, "normalized": false, "special": true}, {"id": 128601, "content": "</think>", "single_word": false, "lstrip": false, "rstrip": false, "normalized": false, "special": true}, {"id": 130821, "content": "<|EOT|>", "single_word": false, "lstrip": false, "rstrip": false, "normalized": false, "special": true}, {"id": 130822, "content": "<|reserved_0|>", "single_word": false, "lstrip": false, "rstrip": false, "normalized": false, "special": true}, {"id": 130823, "content": "<|reserved_1|>", "single_word": false, "lstrip": false, "rstrip": false, "normalized": false, "special": true}, {"id": 130824, "content": "<|reserved_2|>", "single_word": false, "lstrip": false, "rstrip": false, "normalized": false, "special": true}, {"id": 130825, "content": "<|reserved_3|>", "single_word": false, "lstrip": false, "rstrip": false, "normalized": false, "special": true}, {"id": 130826, "content": "<|reserved_4|>", "single_word": false, "lstrip": false, "rstrip": false, "normalized": false, "special": true}, {"id": 130827, "content": "<|reserved_5|>", "single_word": false, "lstrip": false, "rstrip": false, "normalized": false, "special": true}, {"id": 130828, "content": "<|reserved_6|>", "single_word": false, "lstrip": false, "rstrip": false, "normalized": false, "special": true}, {"id": 130829, "content": "<|reserved_7|>", "single_word": false, "lstrip": false, "rstrip": false, "normalized": false, "special": true}, {"id": 130830, "content": "<|reserved_8|>", "single_word": false, "lstrip": false, "rstrip": false, "normalized": false, "special": true}, {"id": 130831, "content": "<|reserved_9|>", "single_word": false, "lstrip": false, "rstrip": false, "normalized": false, "special": true}, {"id": 130832, "content": "<|reserved_10|>", "single_word": false, "lstrip": false, "rstrip": false, "normalized": false, "special": true}, {"id": 130833, "content": "<|reserved_11|>", "single_word": false, "lstrip": false, "rstrip": false, "normalized": false, "special": true}, {"id": 130834, "content": "<|reserved_12|>", "single_word": false, "lstrip": false, "rstrip": false, "normalized": false, "special": true}, {"id": 130835, "content": "<|reserved_13|>", "single_word": false, "lstrip": false, "rstrip": false, "normalized": false, "special": true}, {"id": 130836, "content": "<|reserved_14|>", "single_word": false, "lstrip": false, "rstrip": false, "normalized": false, "special": true}, {"id": 130837, "content": "<|reserved_15|>", "single_word": false, "lstrip": false, "rstrip": false, "normalized": false, "special": true}, {"id": 130838, "content": "<|reserved_16|>", "single_word": false, "lstrip": false, "rstrip": false, "normalized": false, "special": true}, {"id": 130839, "content": "<|reserved_17|>", "single_word": false, "lstrip": false, "rstrip": false, "normalized": false, "special": true}, {"id": 130840, "content": "<|reserved_18|>", "single_word": false, "lstrip": false, "rstrip": false, "normalized": false, "special": true}, {"id": 130841, "content": "<|reserved_19|>", "single_word": false, "lstrip": false, "rstrip": false, "normalized": false, "special": true}, {"id": 130842, "content": "<|reserved_20|>", "single_word": false, "lstrip": false, "rstrip": false, "normalized": false, "special": true}, {"id": 130843, "content": "<|reserved_21|>", "single_word": false, "lstrip": false, "rstrip": false, "normalized": false, "special": true}, {"id": 130844, "content": "<|reserved_22|>", "single_word": false, "lstrip": false, "rstrip": false, "normalized": false, "special": true}, {"id": 130845, "content": "<|reserved_23|>", "single_word": false, "lstrip": false, "rstrip": false, "normalized": false, "special": true}, {"id": 130846, "content": "<|reserved_24|>", "single_word": false, "lstrip": false, "rstrip": false, "normalized": false, "special": true}, {"id": 130847, "content": "<|reserved_25|>", "single_word": false, "lstrip": false, "rstrip": false, "normalized": false, "special": true}, {"id": 130848, "content": "<|reserved_26|>", "single_word": false, "lstrip": false, "rstrip": false, "normalized": false, "special": true}, {"id": 130849, "content": "<|reserved_27|>", "single_word": false, "lstrip": false, "rstrip": false, "normalized": false, "special": true}, {"id": 130850, "content": "<|reserved_28|>", "single_word": false, "lstrip": false, "rstrip": false, "normalized": false, "special": true}, {"id": 130851, "content": "<|reserved_29|>", "single_word": false, "lstrip": false, "rstrip": false, "normalized": false, "special": true}, {"id": 130852, "content": "<|reserved_30|>", "single_word": false, "lstrip": false, "rstrip": false, "normalized": false, "special": true}, {"id": 130853, "content": "<|reserved_31|>", "single_word": false, "lstrip": false, "rstrip": false, "normalized": false, "special": true}, {"id": 130854, "content": "<|reserved_32|>", "single_word": false, "lstrip": false, "rstrip": false, "normalized": false, "special": true}, {"id": 130855, "content": "<|reserved_33|>", "single_word": false, "lstrip": false, "rstrip": false, "normalized": false, "special": true}, {"id": 130856, "content": "<|reserved_34|>", "single_word": false, "lstrip": false, "rstrip": false, "normalized": false, "special": true}, {"id": 130857, "content": "<|reserved_35|>", "single_word": false, "lstrip": false, "rstrip": false, "normalized": false, "special": true}, {"id": 130858, "content": "<|reserved_36|>", "single_word": false, "lstrip": false, "rstrip": false, "normalized": false, "special": true}, {"id": 130859, "content": "<|reserved_37|>", "single_word": false, "lstrip": false, "rstrip": false, "normalized": false, "special": true}, {"id": 130860, "content": "<|reserved_38|>", "single_word": false, "lstrip": false, "rstrip": false, "normalized": false, "special": true}, {"id": 130861, "content": "<|reserved_39|>", "single_word": false, "lstrip": false, "rstrip": false, "normalized": false, "special": true}, {"id": 130862, "content": "<|reserved_40|>", "single_word": false, "lstrip": false, "rstrip": false, "normalized": false, "special": true}, {"id": 130863, "content": "<|reserved_41|>", "single_word": false, "lstrip": false, "rstrip": false, "normalized": false, "special": true}, {"id": 130864, "content": "<|reserved_42|>", "single_word": false, "lstrip": false, "rstrip": false, "normalized": false, "special": true}, {"id": 130865, "content": "<|reserved_43|>", "single_word": false, "lstrip": false, "rstrip": false, "normalized": false, "special": true}, {"id": 130866, "content": "<|reserved_44|>", "single_word": false, "lstrip": false, "rstrip": false, "normalized": false, "special": true}, {"id": 130867, "content": "<|reserved_45|>", "single_word": false, "lstrip": false, "rstrip": false, "normalized": false, "special": true}, {"id": 130868, "content": "<|reserved_46|>", "single_word": false, "lstrip": false, "rstrip": false, "normalized": false, "special": true}, {"id": 130869, "content": "<|reserved_47|>", "single_word": false, "lstrip": false, "rstrip": false, "normalized": false, "special": true}, {"id": 130870, "content": "<|reserved_48|>", "single_word": false, "lstrip": false, "rstrip": false, "normalized": false, "special": true}, {"id": 130871, "content": "<|reserved_49|>", "single_word": false, "lstrip": false, "rstrip": false, "normalized": false, "special": true}, {"id": 130872, "content": "<|reserved_50|>", "single_word": false, "lstrip": false, "rstrip": false, "normalized": false, "special": true}, {"id": 130873, "content": "<|reserved_51|>", "single_word": false, "lstrip": false, "rstrip": false, "normalized": false, "special": true}, {"id": 130874, "content": "<|reserved_52|>", "single_word": false, "lstrip": false, "rstrip": false, "normalized": false, "special": true}, {"id": 130875, "content": "<|reserved_53|>", "single_word": false, "lstrip": false, "rstrip": false, "normalized": false, "special": true}, {"id": 130876, "content": "<|reserved_54|>", "single_word": false, "lstrip": false, "rstrip": false, "normalized": false, "special": true}, {"id": 130877, "content": "<|reserved_55|>", "single_word": false, "lstrip": false, "rstrip": false, "normalized": false, "special": true}, {"id": 130878, "content": "<|reserved_56|>", "single_word": false, "lstrip": false, "rstrip": false, "normalized": false, "special": true}, {"id": 130879, "content": "<|reserved_57|>", "single_word": false, "lstrip": false, "rstrip": false, "normalized": false, "special": true}, {"id": 130880, "content": "<|reserved_58|>", "single_word": false, "lstrip": false, "rstrip": false, "normalized": false, "special": true}, {"id": 130881, "content": "<|reserved_59|>", "single_word": false, "lstrip": false, "rstrip": false, "normalized": false, "special": true}, {"id": 130882, "content": "<|reserved_60|>", "single_word": false, "lstrip": false, "rstrip": false, "normalized": false, "special": true}, {"id": 130883, "content": "<|reserved_61|>", "single_word": false, "lstrip": false, "rstrip": false, "normalized": false, "special": true}, {"id": 130884, "content": "<|reserved_62|>", "single_word": false, "lstrip": false, "rstrip": false, "normalized": false, "special": true}, {"id": 130885, "content": "<|reserved_63|>", "single_word": false, "lstrip": false, "rstrip": false, "normalized": false, "special": true}, {"id": 130886, "content": "<|reserved_64|>", "single_word": false, "lstrip": false, "rstrip": false, "normalized": false, "special": true}, {"id": 130887, "content": "<|reserved_65|>", "single_word": false, "lstrip": false, "rstrip": false, "normalized": false, "special": true}, {"id": 130888, "content": "<|reserved_66|>", "single_word": false, "lstrip": false, "rstrip": false, "normalized": false, "special": true}, {"id": 130889, "content": "<|reserved_67|>", "single_word": false, "lstrip": false, "rstrip": false, "normalized": false, "special": true}, {"id": 130890, "content": "<|reserved_68|>", "single_word": false, "lstrip": false, "rstrip": false, "normalized": false, "special": true}, {"id": 130891, "content": "<|reserved_69|>", "single_word": false, "lstrip": false, "rstrip": false, "normalized": false, "special": true}, {"id": 130892, "content": "<|reserved_70|>", "single_word": false, "lstrip": false, "rstrip": false, "normalized": false, "special": true}, {"id": 130893, "content": "<|reserved_71|>", "single_word": false, "lstrip": false, "rstrip": false, "normalized": false, "special": true}, {"id": 130894, "content": "<|reserved_72|>", "single_word": false, "lstrip": false, "rstrip": false, "normalized": false, "special": true}, {"id": 130895, "content": "<|reserved_73|>", "single_word": false, "lstrip": false, "rstrip": false, "normalized": false, "special": true}, {"id": 130896, "content": "<|reserved_74|>", "single_word": false, "lstrip": false, "rstrip": false, "normalized": false, "special": true}, {"id": 130897, "content": "<|reserved_75|>", "single_word": false, "lstrip": false, "rstrip": false, "normalized": false, "special": true}, {"id": 130898, "content": "<|reserved_76|>", "single_word": false, "lstrip": false, "rstrip": false, "normalized": false, "special": true}, {"id": 130899, "content": "<|reserved_77|>", "single_word": false, "lstrip": false, "rstrip": false, "normalized": false, "special": true}, {"id": 130900, "content": "<|reserved_78|>", "single_word": false, "lstrip": false, "rstrip": false, "normalized": false, "special": true}, {"id": 130901, "content": "<|reserved_79|>", "single_word": false, "lstrip": false, "rstrip": false, "normalized": false, "special": true}, {"id": 130902, "content": "<|reserved_80|>", "single_word": false, "lstrip": false, "rstrip": false, "normalized": false, "special": true}, {"id": 130903, "content": "<|reserved_81|>", "single_word": false, "lstrip": false, "rstrip": false, "normalized": false, "special": true}, {"id": 130904, "content": "<|reserved_82|>", "single_word": false, "lstrip": false, "rstrip": false, "normalized": false, "special": true}, {"id": 130905, "content": "<|reserved_83|>", "single_word": false, "lstrip": false, "rstrip": false, "normalized": false, "special": true}, {"id": 130906, "content": "<|reserved_84|>", "single_word": false, "lstrip": false, "rstrip": false, "normalized": false, "special": true}, {"id": 130907, "content": "<|reserved_85|>", "single_word": false, "lstrip": false, "rstrip": false, "normalized": false, "special": true}, {"id": 130908, "content": "<|reserved_86|>", "single_word": false, "lstrip": false, "rstrip": false, "normalized": false, "special": true}, {"id": 130909, "content": "<|reserved_87|>", "single_word": false, "lstrip": false, "rstrip": false, "normalized": false, "special": true}, {"id": 130910, "content": "<|reserved_88|>", "single_word": false, "lstrip": false, "rstrip": false, "normalized": false, "special": true}, {"id": 130911, "content": "<|reserved_89|>", "single_word": false, "lstrip": false, "rstrip": false, "normalized": false, "special": true}, {"id": 130912, "content": "<|reserved_90|>", "single_word": false, "lstrip": false, "rstrip": false, "normalized": false, "special": true}, {"id": 130913, "content": "<|reserved_91|>", "single_word": false, "lstrip": false, "rstrip": false, "normalized": false, "special": true}, {"id": 130914, "content": "<|reserved_92|>", "single_word": false, "lstrip": false, "rstrip": false, "normalized": false, "special": true}, {"id": 130915, "content": "<|reserved_93|>", "single_word": false, "lstrip": false, "rstrip": false, "normalized": false, "special": true}, {"id": 130916, "content": "<|reserved_94|>", "single_word": false, "lstrip": false, "rstrip": false, "normalized": false, "special": true}, {"id": 130917, "content": "<|reserved_95|>", "single_word": false, "lstrip": false, "rstrip": false, "normalized": false, "special": true}, {"id": 130918, "content": "<|reserved_96|>", "single_word": false, "lstrip": false, "rstrip": false, "normalized": false, "special": true}, {"id": 130919, "content": "<|reserved_97|>", "single_word": false, "lstrip": false, "rstrip": false, "normalized": false, "special": true}, {"id": 130920, "content": "<|reserved_98|>", "single_word": false, "lstrip": false, "rstrip": false, "normalized": false, "special": true}, {"id": 130921, "content": "<|reserved_99|>", "single_word": false, "lstrip": false, "rstrip": false, "normalized": false, "special": true}, {"id": 130922, "content": "<|reserved_100|>", "single_word": false, "lstrip": false, "rstrip": false, "normalized": false, "special": true}, {"id": 130923, "content": "<|reserved_101|>", "single_word": false, "lstrip": false, "rstrip": false, "normalized": false, "special": true}, {"id": 130924, "content": "<|reserved_102|>", "single_word": false, "lstrip": false, "rstrip": false, "normalized": false, "special": true}, {"id": 130925, "content": "<|reserved_103|>", "single_word": false, "lstrip": false, "rstrip": false, "normalized": false, "special": true}, {"id": 130926, "content": "<|reserved_104|>", "single_word": false, "lstrip": false, "rstrip": false, "normalized": false, "special": true}, {"id": 130927, "content": "<|reserved_105|>", "single_word": false, "lstrip": false, "rstrip": false, "normalized": false, "special": true}, {"id": 130928, "content": "<|reserved_106|>", "single_word": false, "lstrip": false, "rstrip": false, "normalized": false, "special": true}, {"id": 130929, "content": "<|reserved_107|>", "single_word": false, "lstrip": false, "rstrip": false, "normalized": false, "special": true}, {"id": 130930, "content": "<|reserved_108|>", "single_word": false, "lstrip": false, "rstrip": false, "normalized": false, "special": true}, {"id": 130931, "content": "<|reserved_109|>", "single_word": false, "lstrip": false, "rstrip": false, "normalized": false, "special": true}, {"id": 130932, "content": "<|reserved_110|>", "single_word": false, "lstrip": false, "rstrip": false, "normalized": false, "special": true}, {"id": 130933, "content": "<|reserved_111|>", "single_word": false, "lstrip": false, "rstrip": false, "normalized": false, "special": true}, {"id": 130934, "content": "<|reserved_112|>", "single_word": false, "lstrip": false, "rstrip": false, "normalized": false, "special": true}, {"id": 130935, "content": "<|reserved_113|>", "single_word": false, "lstrip": false, "rstrip": false, "normalized": false, "special": true}, {"id": 130936, "content": "<|reserved_114|>", "single_word": false, "lstrip": false, "rstrip": false, "normalized": false, "special": true}, {"id": 130937, "content": "<|reserved_115|>", "single_word": false, "lstrip": false, "rstrip": false, "normalized": false, "special": true}, {"id": 130938, "content": "<|reserved_116|>", "single_word": false, "lstrip": false, "rstrip": false, "normalized": false, "special": true}, {"id": 130939, "content": "<|reserved_117|>", "single_word": false, "lstrip": false, "rstrip": false, "normalized": false, "special": true}, {"id": 130940, "content": "<|reserved_118|>", "single_word": false, "lstrip": false, "rstrip": false, "normalized": false, "special": true}, {"id": 130941, "content": "<|reserved_119|>", "single_word": false, "lstrip": false, "rstrip": false, "normalized": false, "special": true}, {"id": 130942, "content": "<|reserved_120|>", "single_word": false, "lstrip": false, "rstrip": false, "normalized": false, "special": true}, {"id": 130943, "content": "<|reserved_121|>", "single_word": false, "lstrip": false, "rstrip": false, "normalized": false, "special": true}, {"id": 130944, "content": "<|reserved_122|>", "single_word": false, "lstrip": false, "rstrip": false, "normalized": false, "special": true}, {"id": 130945, "content": "<|reserved_123|>", "single_word": false, "lstrip": false, "rstrip": false, "normalized": false, "special": true}, {"id": 130946, "content": "<|reserved_124|>", "single_word": false, "lstrip": false, "rstrip": false, "normalized": false, "special": true}, {"id": 130947, "content": "<|reserved_125|>", "single_word": false, "lstrip": false, "rstrip": false, "normalized": false, "special": true}, {"id": 130948, "content": "<|reserved_126|>", "single_word": false, "lstrip": false, "rstrip": false, "normalized": false, "special": true}, {"id": 130949, "content": "<|reserved_127|>", "single_word": false, "lstrip": false, "rstrip": false, "normalized": false, "special": true}, {"id": 130950, "content": "<|reserved_128|>", "single_word": false, "lstrip": false, "rstrip": false, "normalized": false, "special": true}, {"id": 130951, "content": "<|reserved_129|>", "single_word": false, "lstrip": false, "rstrip": false, "normalized": false, "special": true}, {"id": 130952, "content": "<|reserved_130|>", "single_word": false, "lstrip": false, "rstrip": false, "normalized": false, "special": true}, {"id": 130953, "content": "<|reserved_131|>", "single_word": false, "lstrip": false, "rstrip": false, "normalized": false, "special": true}, {"id": 130954, "content": "<|reserved_132|>", "single_word": false, "lstrip": false, "rstrip": false, "normalized": false, "special": true}, {"id": 130955, "content": "<|reserved_133|>", "single_word": false, "lstrip": false, "rstrip": false, "normalized": false, "special": true}, {"id": 130956, "content": "<|reserved_134|>", "single_word": false, "lstrip": false, "rstrip": false, "normalized": false, "special": true}, {"id": 130957, "content": "<|reserved_135|>", "single_word": false, "lstrip": false, "rstrip": false, "normalized": false, "special": true}, {"id": 130958, "content": "<|reserved_136|>", "single_word": false, "lstrip": false, "rstrip": false, "normalized": false, "special": true}, {"id": 130959, "content": "<|reserved_137|>", "single_word": false, "lstrip": false, "rstrip": false, "normalized": false, "special": true}, {"id": 130960, "content": "<|reserved_138|>", "single_word": false, "lstrip": false, "rstrip": false, "normalized": false, "special": true}, {"id": 130961, "content": "<|reserved_139|>", "single_word": false, "lstrip": false, "rstrip": false, "normalized": false, "special": true}, {"id": 130962, "content": "<|reserved_140|>", "single_word": false, "lstrip": false, "rstrip": false, "normalized": false, "special": true}, {"id": 130963, "content": "<|reserved_141|>", "single_word": false, "lstrip": false, "rstrip": false, "normalized": false, "special": true}, {"id": 130964, "content": "<|reserved_142|>", "single_word": false, "lstrip": false, "rstrip": false, "normalized": false, "special": true}, {"id": 130965, "content": "<|reserved_143|>", "single_word": false, "lstrip": false, "rstrip": false, "normalized": false, "special": true}, {"id": 130966, "content": "<|reserved_144|>", "single_word": false, "lstrip": false, "rstrip": false, "normalized": false, "special": true}, {"id": 130967, "content": "<|reserved_145|>", "single_word": false, "lstrip": false, "rstrip": false, "normalized": false, "special": true}, {"id": 130968, "content": "<|reserved_146|>", "single_word": false, "lstrip": false, "rstrip": false, "normalized": false, "special": true}, {"id": 130969, "content": "<|reserved_147|>", "single_word": false, "lstrip": false, "rstrip": false, "normalized": false, "special": true}, {"id": 130970, "content": "<|reserved_148|>", "single_word": false, "lstrip": false, "rstrip": false, "normalized": false, "special": true}, {"id": 130971, "content": "<|reserved_149|>", "single_word": false, "lstrip": false, "rstrip": false, "normalized": false, "special": true}, {"id": 130972, "content": "<|reserved_150|>", "single_word": false, "lstrip": false, "rstrip": false, "normalized": false, "special": true}, {"id": 130973, "content": "<|reserved_151|>", "single_word": false, "lstrip": false, "rstrip": false, "normalized": false, "special": true}, {"id": 130974, "content": "<|reserved_152|>", "single_word": false, "lstrip": false, "rstrip": false, "normalized": false, "special": true}, {"id": 130975, "content": "<|reserved_153|>", "single_word": false, "lstrip": false, "rstrip": false, "normalized": false, "special": true}, {"id": 130976, "content": "<|reserved_154|>", "single_word": false, "lstrip": false, "rstrip": false, "normalized": false, "special": true}, {"id": 130977, "content": "<|reserved_155|>", "single_word": false, "lstrip": false, "rstrip": false, "normalized": false, "special": true}, {"id": 130978, "content": "<|reserved_156|>", "single_word": false, "lstrip": false, "rstrip": false, "normalized": false, "special": true}, {"id": 130979, "content": "<|reserved_157|>", "single_word": false, "lstrip": false, "rstrip": false, "normalized": false, "special": true}, {"id": 130980, "content": "<|reserved_158|>", "single_word": false, "lstrip": false, "rstrip": false, "normalized": false, "special": true}, {"id": 130981, "content": "<|reserved_159|>", "single_word": false, "lstrip": false, "rstrip": false, "normalized": false, "special": true}, {"id": 130982, "content": "<|reserved_160|>", "single_word": false, "lstrip": false, "rstrip": false, "normalized": false, "special": true}, {"id": 130983, "content": "<|reserved_161|>", "single_word": false, "lstrip": false, "rstrip": false, "normalized": false, "special": true}, {"id": 130984, "content": "<|reserved_162|>", "single_word": false, "lstrip": false, "rstrip": false, "normalized": false, "special": true}, {"id": 130985, "content": "<|reserved_163|>", "single_word": false, "lstrip": false, "rstrip": false, "normalized": false, "special": true}, {"id": 130986, "content": "<|reserved_164|>", "single_word": false, "lstrip": false, "rstrip": false, "normalized": false, "special": true}, {"id": 130987, "content": "<|reserved_165|>", "single_word": false, "lstrip": false, "rstrip": false, "normalized": false, "special": true}, {"id": 130988, "content": "<|reserved_166|>", "single_word": false, "lstrip": false, "rstrip": false, "normalized": false, "special": true}, {"id": 130989, "content": "<|reserved_167|>", "single_word": false, "lstrip": false, "rstrip": false, "normalized": false, "special": true}, {"id": 130990, "content": "<|reserved_168|>", "single_word": false, "lstrip": false, "rstrip": false, "normalized": false, "special": true}, {"id": 130991, "content": "<|reserved_169|>", "single_word": false, "lstrip": false, "rstrip": false, "normalized": false, "special": true}, {"id": 130992, "content": "<|reserved_170|>", "single_word": false, "lstrip": false, "rstrip": false, "normalized": false, "special": true}, {"id": 130993, "content": "<|reserved_171|>", "single_word": false, "lstrip": false, "rstrip": false, "normalized": false, "special": true}, {"id": 130994, "content": "<|reserved_172|>", "single_word": false, "lstrip": false, "rstrip": false, "normalized": false, "special": true}, {"id": 130995, "content": "<|reserved_173|>", "single_word": false, "lstrip": false, "rstrip": false, "normalized": false, "special": true}, {"id": 130996, "content": "<|reserved_174|>", "single_word": false, "lstrip": false, "rstrip": false, "normalized": false, "special": true}, {"id": 130997, "content": "<|reserved_175|>", "single_word": false, "lstrip": false, "rstrip": false, "normalized": false, "special": true}, {"id": 130998, "content": "<|reserved_176|>", "single_word": false, "lstrip": false, "rstrip": false, "normalized": false, "special": true}, {"id": 130999, "content": "<|reserved_177|>", "single_word": false, "lstrip": false, "rstrip": false, "normalized": false, "special": true}, {"id": 131000, "content": "<|reserved_178|>", "single_word": false, "lstrip": false, "rstrip": false, "normalized": false, "special": true}, {"id": 131001, "content": "<|reserved_179|>", "single_word": false, "lstrip": false, "rstrip": false, "normalized": false, "special": true}, {"id": 131002, "content": "<|reserved_180|>", "single_word": false, "lstrip": false, "rstrip": false, "normalized": false, "special": true}, {"id": 131003, "content": "<|reserved_181|>", "single_word": false, "lstrip": false, "rstrip": false, "normalized": false, "special": true}, {"id": 131004, "content": "<|reserved_182|>", "single_word": false, "lstrip": false, "rstrip": false, "normalized": false, "special": true}, {"id": 131005, "content": "<|reserved_183|>", "single_word": false, "lstrip": false, "rstrip": false, "normalized": false, "special": true}, {"id": 131006, "content": "<|reserved_184|>", "single_word": false, "lstrip": false, "rstrip": false, "normalized": false, "special": true}, {"id": 131007, "content": "<|reserved_185|>", "single_word": false, "lstrip": false, "rstrip": false, "normalized": false, "special": true}, {"id": 131008, "content": "<|reserved_186|>", "single_word": false, "lstrip": false, "rstrip": false, "normalized": false, "special": true}, {"id": 131009, "content": "<|reserved_187|>", "single_word": false, "lstrip": false, "rstrip": false, "normalized": false, "special": true}, {"id": 131010, "content": "<|reserved_188|>", "single_word": false, "lstrip": false, "rstrip": false, "normalized": false, "special": true}, {"id": 131011, "content": "<|reserved_189|>", "single_word": false, "lstrip": false, "rstrip": false, "normalized": false, "special": true}, {"id": 131012, "content": "<|reserved_190|>", "single_word": false, "lstrip": false, "rstrip": false, "normalized": false, "special": true}, {"id": 131013, "content": "<|reserved_191|>", "single_word": false, "lstrip": false, "rstrip": false, "normalized": false, "special": true}, {"id": 131014, "content": "<|reserved_192|>", "single_word": false, "lstrip": false, "rstrip": false, "normalized": false, "special": true}, {"id": 131015, "content": "<|reserved_193|>", "single_word": false, "lstrip": false, "rstrip": false, "normalized": false, "special": true}, {"id": 131016, "content": "<|reserved_194|>", "single_word": false, "lstrip": false, "rstrip": false, "normalized": false, "special": true}, {"id": 131017, "content": "<|reserved_195|>", "single_word": false, "lstrip": false, "rstrip": false, "normalized": false, "special": true}, {"id": 131018, "content": "<|reserved_196|>", "single_word": false, "lstrip": false, "rstrip": false, "normalized": false, "special": true}, {"id": 131019, "content": "<|reserved_197|>", "single_word": false, "lstrip": false, "rstrip": false, "normalized": false, "special": true}, {"id": 131020, "content": "<|reserved_198|>", "single_word": false, "lstrip": false, "rstrip": false, "normalized": false, "special": true}, {"id": 131021, "content": "<|reserved_199|>", "single_word": false, "lstrip": false, "rstrip": false, "normalized": false, "special": true}, {"id": 131022, "content": "<|reserved_200|>", "single_word": false, "lstrip": false, "rstrip": false, "normalized": false, "special": true}, {"id": 131023, "content": "<|reserved_201|>", "single_word": false, "lstrip": false, "rstrip": false, "normalized": false, "special": true}, {"id": 131024, "content": "<|reserved_202|>", "single_word": false, "lstrip": false, "rstrip": false, "normalized": false, "special": true}, {"id": 131025, "content": "<|reserved_203|>", "single_word": false, "lstrip": false, "rstrip": false, "normalized": false, "special": true}, {"id": 131026, "content": "<|reserved_204|>", "single_word": false, "lstrip": false, "rstrip": false, "normalized": false, "special": true}, {"id": 131027, "content": "<|reserved_205|>", "single_word": false, "lstrip": false, "rstrip": false, "normalized": false, "special": true}, {"id": 131028, "content": "<|reserved_206|>", "single_word": false, "lstrip": false, "rstrip": false, "normalized": false, "special": true}, {"id": 131029, "content": "<|reserved_207|>", "single_word": false, "lstrip": false, "rstrip": false, "normalized": false, "special": true}, {"id": 131030, "content": "<|reserved_208|>", "single_word": false, "lstrip": false, "rstrip": false, "normalized": false, "special": true}, {"id": 131031, "content": "<|reserved_209|>", "single_word": false, "lstrip": false, "rstrip": false, "normalized": false, "special": true}, {"id": 131032, "content": "<|reserved_210|>", "single_word": false, "lstrip": false, "rstrip": false, "normalized": false, "special": true}, {"id": 131033, "content": "<|reserved_211|>", "single_word": false, "lstrip": false, "rstrip": false, "normalized": false, "special": true}, {"id": 131034, "content": "<|reserved_212|>", "single_word": false, "lstrip": false, "rstrip": false, "normalized": false, "special": true}, {"id": 131035, "content": "<|reserved_213|>", "single_word": false, "lstrip": false, "rstrip": false, "normalized": false, "special": true}, {"id": 131036, "content": "<|reserved_214|>", "single_word": false, "lstrip": false, "rstrip": false, "normalized": false, "special": true}, {"id": 131037, "content": "<|reserved_215|>", "single_word": false, "lstrip": false, "rstrip": false, "normalized": false, "special": true}, {"id": 131038, "content": "<|reserved_216|>", "single_word": false, "lstrip": false, "rstrip": false, "normalized": false, "special": true}, {"id": 131039, "content": "<|reserved_217|>", "single_word": false, "lstrip": false, "rstrip": false, "normalized": false, "special": true}, {"id": 131040, "content": "<|reserved_218|>", "single_word": false, "lstrip": false, "rstrip": false, "normalized": false, "special": true}, {"id": 131041, "content": "<|reserved_219|>", "single_word": false, "lstrip": false, "rstrip": false, "normalized": false, "special": true}, {"id": 131042, "content": "<|reserved_220|>", "single_word": false, "lstrip": false, "rstrip": false, "normalized": false, "special": true}, {"id": 131043, "content": "<|reserved_221|>", "single_word": false, "lstrip": false, "rstrip": false, "normalized": false, "special": true}, {"id": 131044, "content": "<|reserved_222|>", "single_word": false, "lstrip": false, "rstrip": false, "normalized": false, "special": true}, {"id": 131045, "content": "<|reserved_223|>", "single_word": false, "lstrip": false, "rstrip": false, "normalized": false, "special": true}, {"id": 131046, "content": "<|reserved_224|>", "single_word": false, "lstrip": false, "rstrip": false, "normalized": false, "special": true}, {"id": 131047, "content": "<|reserved_225|>", "single_word": false, "lstrip": false, "rstrip": false, "normalized": false, "special": true}, {"id": 131048, "content": "<|reserved_226|>", "single_word": false, "lstrip": false, "rstrip": false, "normalized": false, "special": true}, {"id": 131049, "content": "<|reserved_227|>", "single_word": false, "lstrip": false, "rstrip": false, "normalized": false, "special": true}, {"id": 131050, "content": "<|reserved_228|>", "single_word": false, "lstrip": false, "rstrip": false, "normalized": false, "special": true}, {"id": 131051, "content": "<|reserved_229|>", "single_word": false, "lstrip": false, "rstrip": false, "normalized": false, "special": true}, {"id": 131052, "content": "<|reserved_230|>", "single_word": false, "lstrip": false, "rstrip": false, "normalized": false, "special": true}, {"id": 131053, "content": "<|reserved_231|>", "single_word": false, "lstrip": false, "rstrip": false, "normalized": false, "special": true}, {"id": 131054, "content": "<|reserved_232|>", "single_word": false, "lstrip": false, "rstrip": false, "normalized": false, "special": true}, {"id": 131055, "content": "<|reserved_233|>", "single_word": false, "lstrip": false, "rstrip": false, "normalized": false, "special": true}, {"id": 131056, "content": "<|reserved_234|>", "single_word": false, "lstrip": false, "rstrip": false, "normalized": false, "special": true}, {"id": 131057, "content": "<|reserved_235|>", "single_word": false, "lstrip": false, "rstrip": false, "normalized": false, "special": true}, {"id": 131058, "content": "<|reserved_236|>", "single_word": false, "lstrip": false, "rstrip": false, "normalized": false, "special": true}, {"id": 131059, "content": "<|reserved_237|>", "single_word": false, "lstrip": false, "rstrip": false, "normalized": false, "special": true}, {"id": 131060, "content": "<|reserved_238|>", "single_word": false, "lstrip": false, "rstrip": false, "normalized": false, "special": true}, {"id": 131061, "content": "<|reserved_239|>", "single_word": false, "lstrip": false, "rstrip": false, "normalized": false, "special": true}, {"id": 131062, "content": "<|reserved_240|>", "single_word": false, "lstrip": false, "rstrip": false, "normalized": false, "special": true}, {"id": 131063, "content": "<|reserved_241|>", "single_word": false, "lstrip": false, "rstrip": false, "normalized": false, "special": true}, {"id": 131064, "content": "<|reserved_242|>", "single_word": false, "lstrip": false, "rstrip": false, "normalized": false, "special": true}, {"id": 131065, "content": "<|reserved_243|>", "single_word": false, "lstrip": false, "rstrip": false, "normalized": false, "special": true}, {"id": 131066, "content": "<|reserved_244|>", "single_word": false, "lstrip": false, "rstrip": false, "normalized": false, "special": true}, {"id": 131067, "content": "<|reserved_245|>", "single_word": false, "lstrip": false, "rstrip": false, "normalized": false, "special": true}, {"id": 131068, "content": "<|reserved_246|>", "single_word": false, "lstrip": false, "rstrip": false, "normalized": false, "special": true}, {"id": 131069, "content": "<|reserved_247|>", "single_word": false, "lstrip": false, "rstrip": false, "normalized": false, "special": true}, {"id": 131070, "content": "<|reserved_248|>", "single_word": false, "lstrip": false, "rstrip": false, "normalized": false, "special": true}, {"id": 131071, "content": "<|reserved_249|>", "single_word": false, "lstrip": false, "rstrip": false, "normalized": false, "special": true}], "normalizer": null, "pre_tokenizer": {"type": "Sequence", "pretokenizers": [{"type": "Split", "pattern": {"Regex": "[^\\r\\n\\p{L}\\p{N}]?[\\p{Lu}\\p{Lt}\\p{Lm}\\p{Lo}\\p{M}]*[\\p{Ll}\\p{Lm}\\p{Lo}\\p{M}]+(?i:'s|'t|'re|'ve|'m|'ll|'d)?|[^\\r\\n\\p{L}\\p{N}]?[\\p{Lu}\\p{Lt}\\p{Lm}\\p{Lo}\\p{M}]+[\\p{Ll}\\p{Lm}\\p{Lo}\\p{M}]*(?i:'s|'t|'re|'ve|'m|'ll|'d)?|\\p{N}{1,3}| ?[^\\s\\p{L}\\p{N}]+[\\r\\n/]*|\\s*[\\r\\n]+|\\s+(?!\\S)|\\s+"}, "behavior": "Isolated", "invert": false}, {"type": "ByteLevel", "add_prefix_space": false, "trim_offsets": true, "use_regex": false}]}, "post_processor": {"type": "ByteLevel", "add_prefix_space": true, "trim_offsets": false, "use_regex": true}, "decoder": {"type": "ByteLevel", "add_prefix_space": true, "trim_offsets": true, "use_regex": true}, "model": {"type": "BPE", "dropout": null, "unk_token": null, "continuing_subword_prefix": null, "end_of_word_suffix": null, "fuse_unk": false, "byte_fallback": false, "ignore_merges": true, "vocab": {"!": 106, "\"": 73, "#": 320, "$": 155, "%": 222, "&": 787, "'": 160, "(": 114, ")": 30, "*": 236, "+": 276, ",": 0, "-": 21, ".": 2, "/": 61, "0": 26, "1": 24, "2": 31, "3": 49, "4": 63, "5": 68, "6": 102, "7": 115, "8": 97, "9": 131, ":": 15, ";": 116, "<": 227, "=": 218, ">": 108, "?": 84, "@": 830, "A": 143, "B": 286, "C": 272, "D": 268, "E": 460, "F": 353, "G": 427, "H": 395, "I": 75, "J": 752, "K": 501, "L": 391, "M": 350, "N": 439, "O": 850, "P": 410, "Q": 657, "R": 416, "S": 290, "T": 381, "U": 756, "V": 561, "W": 545, "X": 518, "Y": 718, "Z": 900, "[": 193, "\\": 53, "]": 129, "^": 332, "_": 103, "`": 406, "a": 149, "b": 257, "c": 220, "d": 239, "e": 275, "f": 242, "g": 511, "h": 354, "i": 247, "j": 685, "k": 377, "l": 506, "m": 295, "n": 209, "o": 583, "p": 240, "q": 633, "r": 344, "s": 95, "t": 404, "u": 572, "v": 463, "w": 690, "x": 124, "y": 244, "z": 590, "{": 65, "|": 360, "}": 123, "~": 1070, "¡": 1544, "¢": 2502, "£": 2394, "¤": 1631, "¥": 1367, "¦": 1943, "§": 812, "¨": 820, "©": 1572, "ª": 1251, "«": 2068, "¬": 1727, "®": 1487, "¯": 889, "°": 402, "±": 916, "²": 922, "³": 1176, "´": 778, "µ": 517, "¶": 1346, "·": 1273, "¸": 522, "¹": 939, "º": 740, "»": 841, "¼": 864, "½": 666, "¾": 413, "¿": 1102, "ĠàŃ": 127226, "Ġà«": 128613, "Â": 106686, "Ã": 81227, "Ä": 76643, "Å": 53337, "Æ": 81968, "Ç": 54843, "È": 85133, "É": 34977, "Ê": 33584, "Ë": 30999, "Ì": 29830, "Í": 57530, "Î": 1650, "Ï": 2874, "Ð": 77, "Ñ": 173, "Ò": 21883, "Ó": 80771, "Ô": 67703, "Õ": 28618, "Ö": 14755, "×": 3363, "Ø": 546, "Ù": 754, "Ú": 3971, "Û": 1425, "Ü": 85446, "Ý": 109344, "Þ": 92974, "ß": 82143, "à": 100834, "á": 13815, "â": 19044, "ã": 90131, "ä": 94923, "å": 80837, "æ": 19095, "ç": 32444, "è": 9707, "é": 13181, "ê": 13497, "ë": 29275, "ì": 14402, "í": 44353, "î": 123343, "ï": 76534, "ð": 66399, "ñ": 122928, "ò": 123551, "ó": 100218, "ô": 127401, "Ġà³": 129083, "Ġà¯": 128699, "Ġà±": 128641, "à¬ģ": 11768, "à¬Ĥ": 14500, "à¬ĥ": 55928, "à¬ħ": 45315, "à¬Ī": 90564, "à¬ī": 18801, "à¬Ĭ": 123891, "à¬ĭ": 117007, "Ā": 130303, "ā": 128662, "Ă": 129031, "ă": 129343, "Ą": 129565, "ą": 129412, "Ć": 129496, "ć": 129271, "Ĉ": 128172, "ĉ": 79398, "Ċ": 11, "ċ": 129032, "Č": 128459, "č": 128779, "Ď": 129213, "ď": 129254, "Đ": 129433, "đ": 129378, "Ē": 129282, "ē": 129457, "Ĕ": 129233, "ĕ": 129148, "Ė": 129682, "ė": 129283, "Ę": 129142, "ę": 129434, "Ě": 129458, "ě": 128934, "Ĝ": 129158, "ĝ": 129314, "Ğ": 129018, "ğ": 129139, "Ġ": 7, "ġ": 125571, "Ģ": 503, "ģ": 475, "Ĥ": 436, "ĥ": 1001, "Ħ": 538, "ħ": 1079, "Ĩ": 932, "ĩ": 1248, "Ī": 878, "ī": 1574, "Ĭ": 2256, "ĭ": 915, "Į": 634, "į": 1304, "İ": 1890, "ı": 1171, "Ĳ": 1521, "ĳ": 1861, "Ĵ": 1944, "ĵ": 2307, "Ķ": 1771, "ķ": 1663, "ĸ": 2092, "Ĺ": 1592, "ĺ": 1481, "Ļ": 1726, "ļ": 1676, "Ľ": 2871, "ľ": 1302, "Ŀ": 3102, "ŀ": 2671, "Ł": 1680, "ł": 1616, "Ń": 1750, "ĠĠ": 1645, "ĠĠĠĠ": 4817, "in": 226, "er": 409, "Ġt": 584, "Ġa": 6, "en": 288, "on": 420, "re": 921, "Ġs": 665, "at": 753, "or": 451, "es": 371, "ĠĠĠĠĠĠĠĠ": 19208, "an": 578, "ĠĠĠ": 1316, "Ġd": 650, "he": 1684, "Ġc": 629, "Ġp": 399, "is": 448, "ar": 842, "it": 647, "ĊĊ": 158, "al": 498, "à¤": 130024, "le": 689, "ou": 2429, "Ġm": 500, "Ġf": 585, "Ġw": 941, "Ġb": 581, "as": 619, "ing": 127, "Ġthe": 1, "ic": 559, "et": 971, "Ġo": 1565, "ion": 1696, "ed": 150, "el": 828, "Ġn": 687, "ro": 1654, "ent": 1333, "ĠÐ": 490, "nd": 1921, "st": 859, "áĥ": 18803, "Ġl": 799, "Ġin": 9, ";Ċ": 66, "ct": 4151, "ĠĠĠĠĠĠĠ": 1862, "om": 1339, "il": 1217, "Ġh": 951, "am": 734, "Ġ=": 34, "id": 477, "Ġto": 3, "âĢ": 64801, "Ġe": 469, "im": 1181, "Ġre": 681, "Ġv": 765, "ad": 959, "Ġth": 3153, "Ġand": 4, "Ġof": 5, "Ġg": 944, "ur": 1404, "ch": 1107, "Ġà": 4368, "Ġde": 445, "ĉĉ": 115276, "ĠS": 267, "Ġu": 1397, "ut": 2183, "ol": 1390, "Ġy": 838, "ig": 1832, "se": 1898, "ot": 790, "em": 886, "ag": 1720, "iv": 2066, "Ġ(": 20, "qu": 3379, "ĠĠĠĠĠĠĠĠĠĠĠ": 3526, "ĠT": 285, "Ġ{": 281, "ĠA": 145, "ay": 1365, "ĠI": 16, "à¥": 130175, "ac": 1089, "à¦": 73033, "ul": 1356, ");Ċ": 144, "ĠC": 263, ".ĊĊ": 146, "os": 870, "if": 902, "Ġà¤": 129520, "od": 2009, "čĊ": 113825, "tr": 996, "Ġk": 1132, "un": 1227, "--": 940, "est": 1027, "Ã©": 4921, "ab": 1190, "ate": 628, "ir": 1595, "à¸": 2285, "Ġis": 10, "ow": 2086, "us": 794, "à´": 129459, "ation": 435, "Ġ}": 540, "ĠØ": 1594, "ort": 5075, "ĠM": 284, "Ġ\"": 43, "//": 1885, "um": 1127, "Ġfor": 12, "ie": 656, "àª": 103674, "ĠP": 347, "ter": 2375, "ce": 2294, "our": 2312, "Ġon": 17, "ap": 1541, "th": 271, "Ġ{Ċ": 64, "Ġcon": 3072, "av": 2309, "ĠĠĠĠĠĠĠĠĠĠĠĠĠĠĠĠ": 61765, "ers": 292, "**": 776, "te": 1849, ",Ċ": 130, "Ġbe": 22, "ĠD": 296, "()": 366, "ĠB": 258, "end": 470, "Ġst": 1768, "ist": 807, "ak": 1408, "ly": 356, "pe": 2617, "Ġ*": 112, "and": 458, "Ġr": 737, "à²": 128472, "res": 2190, "ub": 2547, "oc": 1787, "Ġal": 2063, "à°": 105390, "ess": 2575, "ith": 4126, "âĢĻ": 294, "Ġpro": 2869, "Ġj": 1117, "ame": 2093, "ver": 3286, ")Ċ": 92, "port": 3606, "Ġan": 44, "Ã¡": 12965, "Ã¤": 17969, "ĠL": 351, "Ġcom": 1504, "Ġne": 6881, "ĠF": 386, "20": 274, "ass": 2480, "ĠE": 468, "Ġse": 2900, "lic": 6801, "ĠR": 301, "Ġ'": 82, "Ġ×": 12034, "Ġ<": 104, "ue": 2983, "op": 1309, "out": 1350, "Ġen": 1920, "ht": 5895, "Ġwh": 4168, "Ġas": 25, "à®": 126593, "Ġqu": 4188, "ction": 18517, "ãĢ": 1317, "age": 1421, "ĠN": 389, "og": 2489, "Ġit": 19, "Ġyou": 14, "iz": 3664, "Ġwith": 18, "Ġthat": 13, "..": 775, "ĠW": 476, "ĠH": 339, "ip": 1728, "ex": 1962, "int": 897, "ill": 2025, "ant": 945, "urn": 10809, "Ġthis": 27, "art": 3140, "Ġtr": 2544, "ĠG": 348, "Ġhe": 72, ";ĊĊ": 423, "Ġor": 37, "00": 330, "Ġle": 2444, "ĠĠĠĠĠĠĠĠĠĠĠĠĠĠĠ": 7175, "ik": 2243, "ment": 2415, "à§": 127859, "ore": 2129, "rom": 4774, "ere": 4025, "Ġex": 2178, "ine": 877, "àµ": 128970, "ang": 1790, "----": 17343, "ind": 2707, "get": 769, ">Ċ": 126, "ain": 2070, "ok": 2563, "ib": 1978, "ud": 3151, "pl": 3295, "turn": 14695, "ĠĠĠĠĠ": 30533, "Ã³": 19801, "ĠO": 624, "Ġ-": 57, "ect": 9124, "ia": 901, "ity": 957, "Ġun": 598, "Ġif": 48, "Ġat": 32, "con": 2951, "per": 1880, "á»": 101926, "ata": 3650, "Ġ$": 54, "Ġch": 1709, "Ġpr": 4865, "orm": 8050, "ack": 2582, "Ġare": 23, "ile": 2592, "pt": 2126, "ÃŃ": 13745, "Ġla": 1691, ".Ċ": 8, "ĠâĢ": 45221, "==": 6405, "import": 325, "able": 519, "ial": 2407, "ost": 4350, "cl": 2588, "ies": 723, "Ġcl": 2638, "(\"": 277, "ov": 2155, "ust": 3737, "Ġà¦": 86608, "Ã¼": 24379, "Ã¶": 20235, "à«": 127450, "Ġi": 180, "ult": 9295, "ave": 4287, "nt": 4789, "Ġz": 2042, "=\"": 119, "Ġwe": 51, "ld": 3795, "ight": 3060, "ublic": 67302, "ive": 1220, "all": 1388, "act": 4200, "ï¼": 80507, "Ġfrom": 33, "Ã¥": 40736, "Ġsu": 8457, "ire": 3766, "****": 22686, "ell": 1342, "ard": 1369, "ser": 5676, "tring": 47085, "ĠU": 493, "Ġ//": 231, "ice": 2945, "ord": 5378, "ãģ": 573, "Ġ}Ċ": 168, "Ġàª": 128847, "ff": 2142, "->": 217, ";čĊ": 129033, "ne": 1764, "Ä±": 28239, "de": 1636, "ra": 1836, "ans": 1414, "ide": 2162, "ase": 3950, "Ġnew": 85, "Ġdo": 80, "Ġreturn": 161, "ĠThe": 45, "ä¸": 855, "Ġnot": 41, "ĉĉĉĉ": 123924, "ure": 2476, "ast": 2223, "ob": 2144, "ĠV": 549, "Ġpl": 4021, "Ġyour": 35, "Ġáĥ": 68438, "In": 205, "pr": 3713, "com": 3269, ".s": 2406, "Ġsh": 1563, "ime": 3655, "ĠJ": 478, "are": 2269, "ont": 5453, "Ġar": 4110, "à¯": 126223, "ype": 14758, "Ġel": 3616, "ite": 1870, "pp": 4340, "å¤": 3265, "Ġby": 40, "ĠK": 385, "Ġ+": 197, "à±": 128703, "Ġque": 4057, "iew": 24871, "ail": 3642, "Ġcan": 38, "201": 91, "Ġme": 111, "à³": 128524, "\",": 259, "Ġwas": 29, "ace": 4490, "ode": 4942, "Ġint": 529, "ach": 2808, "Ġhave": 28, "ll": 4395, "ij": 5735, "ge": 1647, "elf": 13172, "Ġpar": 3172, "Ġad": 2548, "str": 2758, "one": 1298, "rou": 12967, "Ġab": 4095, "âĢĿ": 224, "Ġres": 1887, "St": 3113, "ens": 1579, "du": 9127, "ĠĠĠĠĠĠĠĠĠĠĠĠĠĠĠĠĠĠĠ": 15308, "form": 2260, "ĠÕ": 74303, "10": 147, "ich": 3395, "Ã§": 35583, "ong": 2555, "('": 310, "Ã°": 57049, "Ãł": 26119, "cc": 3155, "xt": 8373, "Ġ:": 278, "pon": 3076, "Ġget": 81, "ber": 3469, "Re": 2046, "Ġall": 52, "Ġ[": 148, "ath": 2714, "io": 1705, "ject": 10632, "Ġte": 6147, "ĠIn": 195, "Ġdes": 2883, "ign": 5927, ":Ċ": 142, "alue": 74608, "ork": 9084, "ve": 3069, "Ġwill": 42, "}Ċ": 232, "();Ċ": 394, ").": 207, "::": 210, "Ġclass": 182, "{Ċ": 840, "lo": 3857, "ome": 4094, "ĠTh": 2882, "ize": 1405, "Ġpublic": 228, "au": 2863, "ull": 4688, "å½": 8552, "ions": 2179, "Ġ}ĊĊ": 253, "Ġ@": 233, "der": 4233, "ook": 6988, "--------": 22470, "Ġus": 198, "ance": 1658, "ould": 16111, "ãĥ": 970, "Ġim": 3893, "__": 1216, "put": 5697, "ient": 6679, "äº": 2387, ".get": 428, "Ġper": 461, "Ġvo": 19300, "ext": 8737, "ated": 677, "Äį": 37709, "yst": 6486, "ous": 1535, "so": 2686, "',": 229, "ple": 7864, "erv": 13365, "ĠĊ": 141, "à¹": 9540, "par": 5327, "cr": 3264, "ress": 5966, "Ġà´": 114112, "ck": 3099, "âĢĻs": 39, "áº": 94605, "Ġì": 9814, "ert": 4226, "ey": 2191, "ount": 15303, "</": 256, "ma": 2271, "Ġgo": 199, "Å¡": 35441, "Ġso": 70, "ake": 3042, "ary": 1148, "up": 1590, "vent": 9439, "ory": 3669, "Ġ/": 432, "pro": 4253, "Ã£": 51778, "ft": 1847, "Ġ&": 156, "Ġdis": 1785, "ear": 6215, "Ġma": 9821, "ĉĉĉ": 114894, "unction": 45399, "Ġcont": 15320, "err": 4108, "_t": 684, "ystem": 24276, "Ġout": 67, "row": 2140, "Ġund": 3404, "ãĤ": 1012, "ug": 3685, "ien": 5573, "ah": 1520, "ual": 6116, "this": 595, "ock": 3416, "Ġhas": 50, "we": 2305, "fer": 5655, "áĢ": 21115, "19": 523, "Ġet": 1975, "Ġno": 136, ");ĊĊ": 804, "div": 374, "Ġem": 4744, "Name": 496, "ĠY": 933, "ER": 2530, "ition": 6212, "Ġup": 71, "Ġ=>": 398, "ri": 3005, "Ġman": 640, "ery": 2788, "Ġpre": 1090, "##": 1942, "Ġes": 6371, "Ġsa": 8648, "ink": 3938, "eng": 5208, "'s": 109, "ek": 3519, "Ġ.": 208, "Ġbut": 46, "Ġà°": 65957, "ng": 5238, "Ġest": 9110, "cre": 8520, "ound": 8173, "gr": 4321, "name": 847, "Ġna": 6853, "12": 266, "Ġà²": 128867, "ĠSt": 709, "app": 2333, "====": 38339, "ier": 1681, "Id": 621, "ĠRe": 1345, "ree": 5566, "Con": 4149, "********": 13453, "ors": 1320, "))": 1136, "String": 1126, "ose": 3736, "text": 706, "Ġset": 225, "lect": 13356, "Ġmy": 56, "ild": 13273, "Ã¸": 42249, "che": 5171, "ations": 1114, "iel": 8232, "Ġ*/": 7334, "ical": 1646, "ann": 4130, "to": 712, "),": 187, "ew": 5289, "Ġam": 264, "own": 3741, "ark": 3864, "ther": 9128, "}ĊĊ": 453, "ener": 6220, "Ġmore": 58, "ps": 1816, "åı": 1855, "List": 985, "Ġ==": 499, "cept": 15428, "ìĿ": 3219, "gh": 2354, "Ã¨": 38376, "Pro": 4787, "odel": 29401, "ph": 2064, "ement": 7997, "ings": 1044, "add": 2216, "IN": 3065, "ĠâĢľ": 117, "ĠĠĠĠĠĠĠĠĠĠĠĠĠĠĠĠĠĠĠĠĠĠĠ": 30363, "ike": 7483, "ool": 6064, "Ġvar": 814, "ade": 2392, "Ġro": 5390, "ON": 3626, "The": 47, "set": 1093, "ivate": 30933, "ï¼Į": 1583, "und": 4915, "ÅŁ": 44050, "áŀ": 16246, "ĠĠĠĠĠĠĠĠĠ": 58958, "Ġgr": 3633, "æľ": 2313, "Ã£o": 42388, "atch": 6866, "ung": 3475, "Ġstr": 1928, "clud": 80396, "Ġop": 5455, "Ex": 4669, "Ġinter": 3411, "11": 327, "ç¥": 38498, "Ġcol": 3331, "Ġpart": 299, "her": 3624, ".l": 6188, "Ġone": 59, "vel": 10651, "ick": 2010, "ater": 4743, "rr": 7104, "ec": 3470, "...": 291, "iss": 4591, "Ġvoid": 730, "ton": 1829, "Ġsp": 2141, "Ġag": 9149, "Å¾": 43816, "Ã¦": 42106, ".m": 839, "Ġ|": 304, "Ġthey": 55, "æĹ": 4889, "Ġconst": 600, "ep": 3739, "inal": 7361, ")ĊĊ": 615, "les": 1715, "Ġda": 5912, "return": 2242, "ĠCh": 1275, "tt": 3290, "enc": 8468, "Ġour": 89, "Ġ</": 368, "Ãº": 32353, "Ġtheir": 60, "ays": 3778, "Ġpe": 5292, "me": 2667, "ove": 7157, "Ġcomp": 7787, "Ġself": 311, "ange": 9437, "Ġapp": 825, "anc": 7616, "15": 352, "Ġdef": 869, "urr": 14215, "Ġtime": 79, "Com": 7673, "Ġà®": 97007, "quest": 17681, "Ġany": 132, "Äĥ": 26100, "ado": 5399, "ven": 6438, "Ġob": 9577, "eth": 4066, "Ġ#": 261, "fo": 9753, "az": 3511, "Ġover": 139, "Ġ!": 1458, "data": 1254, "Ġdie": 2424, "Ġabout": 62, "ef": 3890, ".c": 2448, "ence": 2096, "Ġdel": 4205, "led": 1059, "Ġstat": 10733, "ss": 4058, "alse": 45006, "']": 1908, "ĠÎ": 5040, "\"Ċ": 358, "ava": 9869, "ents": 3866, "ise": 1981, "View": 1274, ");čĊ": 129734, "RE": 3377, "âĢľ": 701, "Ġwork": 152, "ry": 2229, "pos": 6402, "ank": 4167, "val": 3434, "åħ": 2926, "oy": 3578, "ish": 1206, "Ġer": 8237, "Ġë": 20202, "eb": 3245, "Ġfunction": 390, "sh": 2036, "ST": 3000, "Ġwhich": 76, "pec": 14842, "oint": 18239, "Ġent": 9785, "à¨": 127957, "reat": 13725, "ble": 4589, "16": 418, "que": 5324, "ĠâĢĵ": 174, "ix": 2262, "30": 335, "âĢ¦": 749, "duct": 19372, "tem": 18678, "aw": 2388, "Ġ*/Ċ": 617, ".com": 265, "line": 1178, "Th": 5255, "ä¹": 5636, "tion": 15912, "abel": 13561, "Cont": 20386, "Ġadd": 492, "sp": 3221, "\",Ċ": 514, "ely": 2608, "irst": 28115, "iÃ³": 67530, "public": 2706, "self": 2365, "18": 539, "mer": 3867, "uk": 3758, "25": 530, "Ġbl": 3561, "Type": 627, "Ġvan": 4854, "ied": 3485, "rit": 9713, "ale": 3096, "essage": 87586, "arg": 4535, "\");Ċ": 1063, "Ãª": 48559, "ific": 11894, "ield": 16558, "Ġ_": 505, "oll": 5148, "Ãµ": 80860, "200": 185, "erm": 7305, "['": 785, "uch": 9919, "dd": 3039, "cess": 17425, "Data": 826, "Äĩ": 28696, "Ġbu": 22467, "ĠString": 954, "vo": 8655, "co": 2504, "Ġfe": 11299, "ada": 4592, ".f": 4127, "crip": 37405, "Ġuse": 137, "ian": 952, ".p": 4049, "ĠĊĊ": 361, "Ġelse": 393, "Res": 7292, "Ch": 2746, "ty": 2351, "eg": 5596, "Ġpara": 6726, "Ġà¸": 41405, "Ġid": 926, "ĠÃ©": 18437, "ĠĠĠĠĠĠĠĠĠĠĠĠĠĠĠĠĠĠĠĠĠĠĠĠĠĠĠĠĠĠĠĠ": 50346, "',Ċ": 733, "Ġx": 424, "Ġalso": 83, "Ġwho": 94, "ĠSystem": 1150, "ese": 5225, "ĠÃł": 5693, "Ġå": 41256, "ervice": 66323, "ĉif": 115853, "ĠIt": 121, "Ġder": 4833, "AT": 3004, "ash": 2515, ".set": 1224, "Ġhis": 74, "ox": 2949, "()Ċ": 673, "Ġsome": 98, "umber": 6626, "Ġdata": 241, "uth": 9285, "ID": 1395, "Col": 7642, ".S": 729, "\":": 403, "Ġver": 10456, "ator": 1668, "ner": 2732, "pect": 14322, "Ġprivate": 565, "igh": 7630, "any": 3901, "Ġpos": 6852, "lement": 15954, "aj": 5172, "Ġnull": 843, "ĠPro": 1772, "Ġacc": 10277, "Ġwhen": 86, "EN": 3415, "Ġje": 15445, "14": 510, "Ġend": 270, "fig": 3210, "($": 849, "ait": 8571, "ke": 4337, "Ġother": 110, "yn": 3919, "Ġoff": 250, "_s": 2134, "Text": 1802, "old": 3220, "ger": 3658, "view": 3842, "Ġaf": 10975, "Ġyear": 183, "_m": 2568, "erson": 6962, "als": 1490, "\">": 620, "Äĳ": 83278, "red": 3129, ".b": 3564, "read": 4815, "Ġbr": 4611, "----------------": 7075, "tern": 12515, "Ġlike": 78, "OR": 3610, "000": 215, "_c": 2919, "iÃ³n": 62714, "ten": 7186, "li": 919, "Ġname": 273, "Ġneed": 157, "ource": 20924, "13": 526, "AR": 3326, "Ġkn": 9391, "def": 1857, "urrent": 59374, "roup": 38233, "ception": 12708, "ÅĤ": 33039, "date": 5060, "Ġdi": 4037, "ĠÂ": 44710, "202": 324, "Ġreg": 6448, "Ġjust": 88, "ĠThis": 153, "Ġact": 2319, "ute": 5070, "Ġorg": 1530, "Ġser": 11210, "Ġher": 118, ".A": 3115, "_f": 3665, "wo": 12038, "Ġbeen": 93, "Ġmay": 178, "Ġles": 5251, "Ġtrue": 479, "quire": 20366, "ÉĻ": 70948, "let": 2014, "its": 2433, "Ġmin": 2419, "uct": 18108, "Ġeen": 27647, "100": 329, "Ġthere": 99, "param": 1060, "son": 1742, "_p": 2561, "ict": 8111, "ai": 2234, "ax": 2970, "à·": 30475, "íķ": 5623, "ating": 888, "Ġ,": 574, "ĠUn": 2540, "Ġrec": 5328, ".t": 4131, "ys": 2698, "ader": 9306, "Ġthem": 100, "Ġreal": 547, "Ġac": 6778, "å®": 3068, "cont": 19098, "Ġche": 6958, "oun": 9193, ".d": 3301, "ates": 1299, "Ġpor": 11428, "Ġind": 7695, "To": 473, "ices": 6129, "itt": 5066, "Cl": 4609, "new": 2314, "ĠCom": 5210, "Ġph": 7270, "Ġhel": 25310, "ĉreturn": 117290, "Ġcomm": 6304, "32": 622, "utton": 27197, "LE": 4310, "ning": 4323, ":ĊĊ": 1396, "Ġlos": 12443, "\")": 2250, "ues": 5659, "Ġco": 1723, "Tr": 5100, "åĪ": 2571, "Ġwhat": 96, "Ġbet": 4169, "čĊčĊ": 122366, "ond": 6345, "ĠWe": 200, "arch": 7473, "Ġap": 6496, "trib": 22364, "Ġmet": 1854, "17": 648, "Ġ?": 1280, "Ġ>": 836, "////": 39739, "uf": 9639, "user": 1844, "vid": 17622, "ible": 2723, "yle": 13656, "Ġvalue": 369, "50": 509, "ength": 37810, "very": 7977, "ponse": 78836, "of": 1353, "Ġfr": 5310, "iet": 13246, "class": 1277, "Ġlo": 6018, "ault": 13605, "ask": 6993, "Ġhet": 27225, "\";Ċ": 1716, "Ob": 14434, "Ġav": 9948, "().": 1104, "à¶": 31435, "Ġhad": 105, "Ġval": 2516, "Ġsc": 2787, "ages": 3239, "Ġdu": 4053, "ames": 8167, "be": 2581, "var": 1326, "ä»": 2107, "IT": 2876, "åĲ": 3041, "clude": 35656, "Ġcons": 8743, "ĠÃ": 51377, "Ġmed": 8908, "Ġdet": 9066, "ument": 47537, "_l": 4530, "ana": 2404, "Ġwould": 90, "AL": 3137, "roll": 10257, "Ġfalse": 885, "ĠQ": 1478, "ĠZ": 993, "Ġtype": 396, "ole": 3784, "ular": 4523, "min": 2930, "24": 623, "Ġhow": 128, "Ġdr": 5877, "AN": 2972, "ful": 1950, "Ġdif": 33034, "til": 4295, "na": 3051, "Ġwere": 113, "'t": 9822, ".h": 1446, "####": 7156, "ople": 36338, "Ġinto": 120, "Ġsur": 6559, "ows": 5579, "ĠTr": 2674, "amp": 4399, "ĠDe": 1910, "air": 4456, "Ġ{čĊ": 128705, "Ġcre": 9616, "Ġmake": 133, "rol": 10530, "ina": 2434, "ta": 2887, "(f": 3367, "ëĭ": 5652, "SE": 2941, "ĠCon": 3230, "Ġresult": 589, "_b": 3235, "Ġrel": 3929, "_id": 918, "Ġloc": 15772, "\">Ċ": 607, "ics": 1718, "')": 1809, "Ġsub": 1080, "error": 3837, "ethod": 55692, "Ġ)": 1338, "ze": 5046, "Ġfl": 2691, "ĠSe": 3262, "========": 30926, "af": 2737, "ho": 4686, "åľ": 4564, "Ġjava": 2193, "ody": 7257, "ml": 2976, "ts": 2217, "Ġlist": 433, "çļ": 1410, "ins": 1812, "_d": 3542, "ww": 15012, "En": 8060, "å¹": 8823, "Ġthan": 125, "âĢĻt": 101, "itle": 29633, "ente": 14140, "Ġfirst": 135, "ica": 3828, "Ġaw": 12380, "ÄĻ": 42845, "Ġbo": 7519, "By": 1021, "Se": 6145, "âĢĵ": 1219, "Par": 10490, "je": 10049, "Ġimport": 1381, "Ġtem": 34694, "Item": 1930, "]Ċ": 736, "value": 2189, "ious": 3133, "work": 4034, "ause": 20816, "print": 3580, "lick": 16106, "ule": 7747, "Ġback": 177, "ense": 6193, "Ġstart": 365, "Ġein": 23925, "Ġonly": 134, "(Ċ": 942, "ĠYou": 188, "ures": 3726, "Ġke": 16084, "ower": 7070, "**Ċ": 2929, "****************": 36024, "arr": 5338, "æĸ": 3359, "Ġits": 140, "raw": 6563, "Ġfil": 14839, "Ġstring": 783, "ces": 8318, "Ġinform": 7355, "Äħ": 42796, "Ġform": 636, "ments": 3471, "urs": 8323, "ities": 3104, "ayer": 11293, "Ġlook": 289, "Ġlet": 450, "Ġstatic": 1047, "ember": 20348, "day": 6614, "Ġbest": 219, "Value": 1177, "ler": 2139, "Ġunder": 338, "Ġtrans": 3686, "ender": 5820, "Ġmost": 170, "Ġfind": 238, "Ġperson": 554, "Ġed": 6595, "ustom": 64659, "].": 1882, "Ġhelp": 196, "olog": 16601, "string": 1824, "ĠWh": 4692, "Ġng": 9479, "ateg": 51091, "lection": 15546, "den": 4624, "oth": 4357, "Ġrem": 6499, "Ġpeople": 122, "Ġ!=": 1109, "ĠAl": 1687, "Ġcar": 637, "const": 2115, "á»į": 91277, "la": 3547, "ÄŁ": 57805, "ĠHe": 260, "Ġass": 8649, "irect": 35474, "Ġwant": 181, "ari": 3694, "://": 280, "ession": 22792, "ĠĠĠĠĠĠĠĠĠĠĠĠĠĠĠĠĠĠĠĠĠĠĠĠĠĠĠ": 56983, "ren": 7503, "ĠAn": 1125, "bo": 4727, "={": 2564, "gram": 21961, ".D": 3328, "br": 1147, "ĠĠĠĠĠĠĠĠĠĠĠĠĠ": 76351, "ĠĠĠĠĠĠ": 43581, "Ġdon": 376, "Ġlong": 269, "!ĊĊ": 6185, "Ġgu": 11717, "Ġsk": 5246, "ern": 5259, "Im": 6408, "wa": 7165, "22": 792, "Ġinst": 10680, "load": 5951, "rough": 18785, "Ġum": 7587, "ç½": 8352, "?ĊĊ": 1695, "ha": 3372, "ets": 2855, "_C": 3414, "Ġfinal": 679, "40": 771, "Ġarr": 11662, "Ġ&&": 1284, "Ġread": 494, "Ã«": 46930, "orld": 34681, "uc": 4877, "];Ċ": 3535, "hed": 4249, ".F": 5776, "reak": 16284, "fr": 3787, "atus": 23023, "Ġge": 7145, "Ġve": 12224, "ting": 2736, "';Ċ": 1897, "Ġtest": 521, "Ã§Ã£o": 48543, "++": 5860, "åĽ": 5613, "no": 1617, "bl": 4023, "Object": 1782, "Ġevery": 306, "ĠAr": 2497, "Ġspec": 7647, "Ã©s": 14163, "Ġshould": 171, "ponent": 34265, "ES": 3314, ".j": 5992, "Ġknow": 159, "ood": 11390, "ility": 10639, "Exception": 1657, "Ġsm": 3982, "Ġmon": 5464, "[i": 1539, "Ġcr": 2522, "Ġshe": 169, "ĠEx": 4109, "wn": 20059, "ĉpublic": 129239, "Ġê": 24926, "Ġwell": 163, "ush": 5431, "Å¼": 59391, "ux": 6445, "ĠÚ": 4784, "Ġpres": 10452, "Ġsch": 23334, "ms": 1473, "Ġsi": 11660, "yp": 7720, "Ġden": 4460, "tra": 10237, "iver": 8937, "ager": 9586, "Ġil": 11182, "Ġexper": 41380, "Ġsom": 15284, "Ġæ": 48992, "col": 2550, "ative": 2317, "word": 8768, "reg": 5981, "Ġhand": 691, "url": 3282, "try": 6565, "rap": 13659, "ons": 1558, "ream": 18782, "ily": 4520, "iness": 5720, "Ġmod": 4629, "Ġdat": 12458, "Ġthen": 154, "Get": 1621, "ï¼ļ": 9446, "ym": 3917, "Ġthrough": 194, "));Ċ": 1528, "use": 1683, "ccess": 62843, "Ġpol": 7921, "uss": 6669, "Ġuser": 707, "Ġchar": 2656, "Ġinv": 11743, "aut": 9575, "fore": 19543, "idth": 91160, "Ġopt": 6337, ".n": 4856, "fl": 4829, "icht": 46844, "ats": 2127, "Ã½": 50276, "Ġrequire": 1241, "Ã¢": 5904, "ĠIf": 206, "User": 2380, "Ġsim": 12015, "using": 1735, "ends": 5932, "Ġright": 216, "serv": 17099, "Ġ%": 892, "è§": 8419, "Ġpass": 1486, "ka": 4358, "amb": 7162, "£áĥ": 95224, "(s": 1775, "23": 883, "Ã¾": 88332, "Ġ},Ċ": 1023, "Ġstud": 29543, "ui": 4995, "sert": 45514, "Ġvery": 166, "ough": 6037, "Ã±": 34934, "ife": 9833, "ais": 10148, "ref": 780, "_S": 3498, "void": 2832, "ĠAs": 553, "ior": 11491, "Ġthese": 176, "Ġweb": 1083, "State": 1639, "ased": 6972, "):Ċ": 802, "Ġdec": 6533, "Ġsol": 12098, "Ġproduct": 670, "Ġcase": 337, "cond": 15728, "CT": 4988, "\")Ċ": 1452, "èµ": 14254, "key": 2507, "Ġgood": 164, "ene": 4344, "Ġmak": 35120, "ars": 1484, "çĶ": 2839, "ni": 5973, "Ġcor": 8902, "Ġka": 22432, "Ġvis": 17410, "60": 1028, "Ġbel": 14869, "rray": 113172, "Ġprof": 21304, "Ġdur": 33560, "Ġdown": 252, "Ġbus": 3136, "Ġwhere": 184, "Ġtwo": 151, "Ġsee": 172, "unc": 12287, "De": 5561, "Â»": 14712, "Ġsl": 2815, "Ġpost": 442, "Ġatt": 12189, "perty": 94188, "Time": 1661, "Ġpour": 6285, "Ġaut": 9736, "Ġhigh": 322, "Ġafter": 162, "rem": 4698, "Ġext": 11625, "php": 2717, "for": 1382, "cent": 4218, ".g": 1755, "ouse": 12653, "ru": 7635, "ackage": 55555, "ĠĠĠĠĊ": 43809, "ature": 10122, "ister": 7532, "Ã¼r": 57407, "UL": 6906, ".add": 1922, "[]": 2498, "Ġeven": 191, "ational": 3341, "Ġnow": 165, "ĠSh": 1172, "ara": 3531, "Ġart": 1417, "ĠAnd": 305, "Ġeff": 20794, "ouble": 53767, "ote": 4421, "ience": 12648, "round": 16093, "Ģà¸": 33004, "Ġmen": 1169, "Ġuna": 10560, "ider": 6966, "rror": 77691, "uff": 5910, "ivers": 12765, "Ġfile": 474, "ando": 8197, "action": 6655, "ersion": 26134, "arn": 5330, "oin": 11818, ".st": 12761, "include": 4437, "Ġsup": 24768, "Ġmark": 3431, "Set": 1799, "ify": 3545, "ane": 2517, "rite": 31356, "umn": 13360, "els": 2496, "Ġmany": 189, "arget": 31013, "Ind": 9591, "Ġos": 3668, "Ġlas": 13479, "htt": 41868, "ĉĉĉĉĉ": 124479, "Ġgl": 3788, "leg": 9328, "att": 4012, "play": 7584, "è½": 12389, "Ġcal": 8999, "Ġway": 167, ".P": 3657, "_P": 4284, "Ġmuch": 186, ".C": 2381, "-s": 1155, "hr": 5792, "RO": 5024, ".M": 3792, "ayout": 52693, "Ġbec": 44975, "ĠLe": 2559, "Ġdem": 10201, "press": 9930, "Ġho": 8210, "IC": 2804, "Ġcould": 175, ".L": 5381, "(t": 2339, "ants": 2643, "ines": 3007, "28": 1050, "Ġom": 13118, "Ġou": 10265, "lease": 24218, "Key": 1652, "ĠNew": 421, "ride": 22095, "Service": 1935, "ìĹ": 8464, "21": 727, "ution": 17593, "ION": 10811, "æĪ": 3782, "roid": 15065, "Ġwhile": 234, "ced": 6387, "za": 5762, "DE": 4925, "='": 1439, "((": 2187, "util": 13923, "item": 2080, "99": 1993, "Ġsaid": 107, "era": 5746, "Ġused": 213, "velop": 30446, "ĠPl": 5808, "He": 745, "ja": 6547, "org": 5158, "çº": 13508, "../": 9682, "emb": 15210, "Wh": 9630, "opy": 16261, "Ġtry": 425, "ward": 6871, "å¥": 15640, "wh": 8969, "Ġfam": 31040, "');Ċ": 1499, "ino": 3232, "alk": 8830, "vis": 8063, "Ġog": 23794, "Ġnumber": 307, "cription": 32624, "ya": 3325, "Event": 2087, "27": 1106, "Ġmo": 6898, "çī": 9976, "Ġserv": 35092, "Ġ*Ċ": 1322, "ä½": 2968, "Ġyears": 190, "ocument": 69397, "Ġevent": 594, "Ġhere": 203, "ited": 5502, "Ġplay": 456, "Ġcas": 14508, "26": 1076, "ized": 1352, "Ã´": 59193, "Ĥà°": 95314, "cript": 9069, "ci": 5545, "ante": 8473, "land": 2006, "-b": 1587, "aciÃ³n": 30207, "idad": 37658, "łáĥ": 85272, "Ġprint": 1318, "Ġ///": 1163, "aar": 19522, "-m": 1556, "ĠX": 823, "ĠEn": 4256, "Ġfin": 12404, "log": 2975, "Info": 1830, "uit": 8670, "){Ċ": 3276, "Ġkey": 632, "other": 6167, "Ġlog": 1758, "order": 6051, "ken": 10933, "(m": 3472, "ally": 1703, "());Ċ": 1875, "AM": 2697, "Ġcomple": 76087, "Æ°": 77975, "ama": 4705, "cho": 12103, "_T": 4412, "],": 1740, "Ã©r": 28930, "kt": 15545, "AS": 2451, "å¼": 5894, "ĠOn": 949, "...ĊĊ": 11438, "Ġday": 211, "Ġinformation": 309, "#include": 1827, "åį": 5900, "We": 318, "Ġitem": 1531, "_n": 2185, "Ġdiffer": 11142, "ttp": 80355, "Ġpas": 13256, "Ġlast": 223, "ET": 4501, "Button": 3754, "umm": 8420, "Sh": 3095, "dit": 23259, "æĺ": 3699, "alth": 24897, "áŁ": 40549, "UR": 6777, "Åĳ": 47273, "Ġsin": 7759, "Ġtak": 21481, "à©": 128159, "ĠCl": 3647, "Ġà¨": 128936, "Ġprogram": 661, "ollow": 38880, "Ġword": 1243, "ails": 9003, "Pl": 9482, "ros": 5122, "Ġinclud": 88909, "Ġtext": 815, "unt": 6571, "Ĥ¬": 19609, "struct": 6921, "back": 2578, "è¿": 3118, "'Ċ": 1207, "Ġcurrent": 604, "))Ċ": 1174, "mp": 6259, "Ġgreat": 243, "éĩ": 7044, "ĠFor": 431, "Ġins": 6627, "Ġgener": 24717, "arm": 4493, "On": 871, "64": 968, "ique": 10218, "An": 1675, "ga": 7362, "Ġdoes": 312, "roller": 35750, "atur": 20716, "Ġfa": 6836, "Ġ--": 613, "Qu": 8459, "Ġsign": 1422, ".w": 5316, "pre": 3802, "Ġbecause": 179, "Ġhome": 279, "Ġsuch": 235, "Model": 2423, "Ġfree": 388, "80": 1279, "Ġdid": 283, "At": 1119, ");": 1567, "Man": 7814, "ams": 5698, ".in": 7975, "Or": 2845, "ED": 2414, "tn": 17626, "Ġbefore": 204, "Error": 1443, "Ġ<<": 1748, "index": 3804, "ital": 9756, "ÅĽ": 57119, "UT": 7296, "ida": 7622, "ample": 18136, "è¯": 3490, "ives": 3514, "Un": 4195, "ware": 6493, "_in": 4556, "Ġnum": 4324, "29": 1232, "[\"": 2428, "Ġprocess": 481, "],Ċ": 2511, "uthor": 51170, "ste": 12517, ")čĊ": 126060, "File": 1523, "comm": 11673, "Ġprovid": 71333, "ç»": 4739, "rop": 6665, "ĠPr": 4250, "ache": 7063, "ector": 15764, "loat": 27125, "Ġya": 10442, "01": 931, "IS": 2616, "Ã¡s": 35720, "ido": 10582, "Ġonline": 551, "Ġvoor": 38296, "Over": 4737, "oad": 24944, "face": 13685, "ĠÒ": 72745, "fe": 4922, "Request": 2362, "Ġtake": 202, "As": 512, "ional": 12031, "Map": 2220, "oh": 3677, "man": 791, "Ġste": 7325, "chn": 25962, "ĠFr": 5404, "),Ċ": 1300, "Ġown": 314, "ĠRes": 6599, "file": 2150, "go": 4262, "Ġchild": 943, "âĢĶ": 1362, "enu": 25970, "Color": 2981, "Ġview": 890, "Ar": 5924, "ours": 6705, "Ġcap": 4311, "Ġdas": 17746, "imes": 3487, "è®": 4851, "Ġq": 3249, "td": 641, "':": 1293, "Ġbreak": 887, "vert": 6892, "iter": 7656, "Ġarg": 8078, ".W": 8813, "ared": 5401, "Ġtop": 384, "by": 1689, "ually": 9348, "erg": 8886, "Al": 3794, "Ġsize": 720, "ason": 13608, "atic": 3703, "ains": 4989, "Ġsit": 2776, "ailable": 73385, "ocation": 16349, "Ġshow": 397, "Ġce": 13340, "....": 2335, "Ġmodel": 728, "Ġusing": 249, "enn": 9136, "ini": 3786, "Ġdesign": 692, "rc": 9431, "ism": 1295, "Index": 2311, "Ġsal": 9897, "Ġcheck": 587, "_M": 4241, "Ġ{ĊĊ": 2384, "Ġworld": 334, "eter": 7627, "-t": 2089, "ijn": 49284, "Ġ\\": 69, "ament": 15877, "Ġweek": 411, "å¿": 11544, "lication": 26679, "Ġson": 1867, "Ġbook": 570, "ĠdÃ©": 39653, "Element": 2556, "Ġhim": 214, "itch": 8286, "lete": 26008, "Ġ||": 1549, "Form": 4706, "(self": 1330, "Ġmit": 13075, "ght": 61598, "(n": 3734, "(p": 3145, "do": 3981, "ivity": 7811, "(c": 3632, "Ġthink": 192, "Ġbusiness": 343, "Test": 1778, "ĠÂ«": 15443, "AD": 3761, "Ġtot": 26271, "Ġagain": 414, "ĠĠĠĠĠĠĠĠĠĠĠĠĠĠĠĠĠĠĠĠĠĠĠĠĠĠĠĠĠĠĠ": 83647, "Ġsystem": 373, "Ġcall": 618, "ye": 5427, "Ġprote": 49299, "ico": 6296, "ua": 6542, "ados": 16679, "Ġcent": 2499, "Ġpa": 12707, "(this": 2620, "ih": 7093, "Ġzu": 16846, "ìŀ": 13327, "AC": 2757, "package": 2867, "Ġpoint": 437, "ĠBe": 1634, "ott": 6804, "Ġprodu": 89012, "ĠCol": 4670, "Ġbeing": 201, "oto": 9319, "Ġrep": 5300, "Ġmat": 8480, "ideo": 70092, "Ġmade": 230, "ios": 6643, "Ġeach": 254, "oot": 10943, "Ġposs": 36816, "();ĊĊ": 2196, "åĬ": 4305, "right": 1082, "Ġrun": 457, "Ġà¹": 66162, "Ġune": 8516, "ero": 6722, "âĢĮ": 3231, "è´": 13629, "35": 1387, "gen": 6511, "-d": 1765, "aterial": 46665, "Int": 3316, "Ġha": 8426, "export": 3030, "Ġplace": 323, "ĠâĢĺ": 467, "ident": 9544, "Ġqual": 29615, "ape": 7520, "Ġpo": 8239, "_name": 1465, "ks": 3502, "Äģ": 16225, "Le": 5350, "oken": 19167, "Ġcle": 19248, "Ġsoc": 54835, "Ġfound": 378, "type": 1613, "Ġopen": 491, "Ġist": 15538, "Ġsupport": 392, "ĊĊĊ": 89932, "This": 221, "Ġcreate": 489, "ĠGr": 3212, "á»¥": 92459, "hip": 8086, "ora": 5230, "Ġpat": 10447, "Date": 2703, "ather": 9425, "////////": 52400, "ê³": 13817, "come": 15337, "å°": 5572, "ĠTo": 608, "')Ċ": 1711, "Ġ__": 1919, ".âĢĿ": 1196, "_st": 3006, "po": 7178, "result": 4715, "Context": 2277, "ìł": 11930, "âĢį": 2055, "Ġcomo": 22966, "ala": 4512, "da": 4342, "ined": 6244, "ëĬ": 9436, "Box": 2679, "istr": 25386, "ql": 11335, "olean": 94735, "create": 5147, "Ġsuper": 1167, "ters": 2461, "ende": 24574, "nen": 39573, "Ġline": 480, "ween": 34191, "ĠAll": 669, "33": 1884, "(),": 1927, "45": 1383, "ists": 1706, "Ġ...": 1319, "Size": 2273, "Ġcho": 31049, "sole": 36464, "vice": 37194, "Ġku": 51008, "Ġpartic": 46176, "orn": 5492, ".e": 2044, "une": 5702, "é¢": 12631, "App": 3495, "icense": 88971, "Ġni": 22111, "Of": 1534, "ocal": 19405, "Ġorder": 488, "Ġservice": 452, "ê°": 12506, "(d": 4978, "ainer": 10800, "Ġdevelop": 1904, "lected": 17658, "Add": 3032, "Class": 2203, "ita": 4780, "iment": 12841, "ĠApp": 2600, "ync": 21097, "Em": 9587, "input": 2239, "ÃŃa": 40357, "Ġcontin": 73975, ".util": 3342, "Ġ/**Ċ": 1532, "lich": 30689, "All": 990, "Ġmethod": 953, "Ġ);Ċ": 2130, "indow": 76650, "itor": 9960, ".T": 4319, "\"]": 3556, "Ġcustom": 2146, "ĠOr": 1619, "åº": 5294, "Ġquest": 10512, "Ġstate": 429, "ige": 13547, "Field": 2933, ".B": 5168, "pace": 15052, "Ġnext": 326, "ploy": 25580, "Ġlife": 287, "Ġrequest": 1205, "Ġthose": 248, "!!": 2376, "Path": 1977, "ctions": 8440, "Ġeas": 26021, "Ġfollow": 1180, "trans": 10848, "search": 6930, "itial": 70074, "çľ": 15302, "indows": 21177, "á»ĭ": 92623, "Ġcare": 602, "ĠSo": 484, "ira": 6530, "36": 1956, "Ġmu": 14071, "Ġvol": 11421, "Ġvi": 24376, "list": 2651, "tract": 22332, "ump": 6395, "Ġarray": 1550, "icle": 17175, "Ad": 6080, "Ġdifferent": 282, "(new": 3146, "aining": 6903, "Ġoper": 23298, "ÂŃ": 6103, "For": 513, "IL": 4749, "ĠList": 2181, "Ġprov": 16067, "æĢ": 8573, "Up": 5558, ".log": 3324, "Ġbeg": 14516, "<?": 6495, "Ġexpect": 1149, "raph": 31632, "Ġmov": 15151, "rows": 7930, "ìĦ": 10896, "wer": 22704, "Ġdans": 11913, "ĠSch": 4147, "ĠTe": 6019, "Ġmar": 7261, "ots": 1894, "\"ĊĊ": 3623, "Ġorgan": 10532, "ias": 6933, "Ġsame": 245, "AP": 2655, "ĠAd": 3489, "Ã®": 61428, "define": 11073, ".app": 10254, "iving": 7385, "########": 49100, "Ġcoun": 33541, "Ġintern": 20660, "ING": 2232, "less": 1769, "][": 4180, "._": 1470, "Ġlocal": 508, "LO": 6222, "Ġ`": 400, "Node": 2251, "Ġsite": 591, "nect": 76242, "åĮ": 7951, "ura": 6107, "function": 2702, "Ġrece": 44482, "stance": 24679, "Ġ});Ċ": 2198, "Ġproble": 94030, "men": 3808, "Ġstyle": 854, "Ġref": 4623, "Ġreally": 212, "ird": 13935, "ela": 8291, "Log": 4920, "ified": 4447, "____": 22761, "omb": 11548, "},Ċ": 2552, "åĨ": 7263, "Array": 2490, "uil": 25628, "ission": 17437, "_F": 5170, "Ġik": 48323, "span": 668, "ĠâĢĶ": 525, "Ġpop": 3159, "ĉc": 128276, "--------------------------------": 2462, "Ġwrit": 38042, "Message": 2520, "ric": 7329, "tribut": 53380, "(int": 3844, "Ġsem": 10081, "90": 1416, "Component": 4873, "Ġ->": 1211, "Group": 3429, "Ġide": 29661, "ili": 10454, "éĢ": 5783, "ished": 6256, "ato": 5184, "æ³": 8192, "Ġ+=": 2328, "Ġmain": 759, "site": 10921, "OM": 5269, "ĠInd": 7780, "ĠIs": 972, "ever": 15793, "mit": 10214, "Ġsw": 3027, "inc": 7931, "Result": 3097, "ways": 5257, "urch": 19537, "Manager": 2626, "ĉĊ": 127609, "Ġnet": 2238, "Ġpay": 795, "ĠÄĳ": 77429, "Ġqui": 15275, "Ġ/*": 1868, "sc": 3202, "Ġdefault": 1221, "70": 1648, "Image": 3176, "Ġau": 12165, "Ġexp": 6827, "Ġcommun": 30268, "Ġ(!": 2742, "ency": 7040, "Override": 3584, "Ġequ": 10117, "lock": 7227, "Ġí": 50441, "Ġmust": 383, "Ġdan": 21342, "else": 6702, "pty": 61785, "ä¼": 7267, "Config": 2870, "Ġvon": 11520, "Ġgame": 298, "Ġconf": 8968, "ness": 1611, "Ġobject": 1307, "Act": 17691, "ÃŁ": 59699, "tes": 11656, "Ġdirect": 2199, "OT": 5118, "();čĊ": 129822, "Ġfun": 708, "ï¿": 95903, "ENT": 8585, "erc": 13868, "ti": 8795, "IM": 4391, "Ġdep": 16243, "irm": 18550, "Code": 2291, "heck": 62679, "ross": 12869, "Ġavailable": 407, "Ġfact": 782, "88": 4496, "Ġhab": 46346, "from": 1291, "Ġaround": 262, "Ã¤r": 42040, "Des": 14677, "uck": 4306, "ijk": 42418, ".print": 14925, "html": 5959, "ĠSp": 3166, "aff": 6681, ".id": 3455, ".re": 6291, "ization": 1756, "stand": 10099, "Ġcu": 21710, "Val": 6421, "off": 3720, "ĠBr": 2743, "Ġrest": 1074, "Ġta": 12858, "Ġ()": 2310, "Ġbetween": 297, "Ġcour": 21302, "va": 5978, "Not": 1420, ">čĊ": 128888, "Ã¶r": 41783, "not": 1996, "Ġret": 3807, "ee": 3277, "ium": 3892, "uro": 10734, "cul": 19478, "With": 875, "-l": 2596, "ì§": 14530, "Ġwer": 63732, "Ġold": 507, "Ġsay": 349, "iles": 5817, "Ġnon": 683, "Ã©e": 14266, "HE": 8148, "ĠMe": 2435, "plate": 21289, "over": 2204, "Ġmais": 30600, "================": 18402, "por": 19428, "ĠĠĠĠĠĠĠĠĠĠĠĠĠĠĠĠĠ": 88781, "http": 1562, "posit": 30440, "ically": 1913, "oss": 5782, "orth": 10510, "Ġmarket": 644, "31": 1199, "AB": 4477, "omen": 17357, "Ġterm": 1493, "Ġerror": 925, "ags": 9853, "odule": 54225, "Ġcert": 18977, "Ġti": 23557, "vir": 21128, "åŃ": 4936, "05": 1547, "Ġpu": 35273, "Ġandroid": 4558, "UN": 5985, "Ġmus": 17791, "Ġstill": 237, "Ġang": 10475, "(String": 4673, "pen": 11070, "Ġplus": 2299, "Ġauf": 19303, "Ġwithout": 367, "Pr": 7496, "crib": 48139, "obal": 64595, "Hand": 16977, "ĠGet": 1492, "ln": 9528, "Ġmonth": 767, "Ġak": 36852, "Controller": 3747, "Ġmas": 16984, "ubl": 21817, ".r": 5887, "ĠUS": 905, "aan": 18168, "ito": 8045, "./": 8607, "_D": 5010, "ilter": 52283, "Ġdisc": 8718, "Ġoffer": 763, "Ġerr": 1883, "ron": 4695, "æī": 6339, "/*": 8261, "Ġgoing": 246, "Ġâ": 18025, "iven": 19495, "AG": 5724, "ential": 13218, "Ġboth": 293, "Ġben": 24883, "query": 6262, "ift": 8392, "vol": 10661, "çİ": 11197, "nection": 81413, "ading": 7472, "ULL": 30860, "Sc": 7037, "pons": 34067, "anel": 29879, "bar": 1986, "37": 2369, "older": 18289, "Ġproject": 543, "ena": 5240, "reate": 86341, "tribute": 32193, "teger": 67001, "Ġmax": 2237, "04": 1596, "met": 8442, "-f": 1808, "></": 987, "ĠNo": 643, "ategory": 88007, "Ġput": 419, "ny": 5154, "ati": 6225, "ali": 6453, "Ġpage": 579, "ipp": 10419, "Ġ}čĊ": 128964, "}čĊ": 128724, "ftware": 63942, "Ġreport": 895, "34": 2040, "oney": 10126, "n't": 7382, "Ġbuild": 824, "aving": 10153, "ingle": 17836, "Fr": 11153, "ummary": 65936, "Ġuma": 23392, "Is": 1108, "Ġincre": 85957, "ground": 19019, "Ġhapp": 64962, "ology": 2614, ">ĊĊ": 1348, "ĠLa": 3244, "adi": 9551, "Ġann": 20928, "US": 3188, "ved": 8650, "ittle": 27329, "Ġlove": 319, "ani": 3712, "Ġleg": 4386, "oud": 10507, "Ġclient": 1522, "Ġseg": 31609, "code": 1373, "ĠOb": 9261, "08": 1699, "Ġcome": 372, "www": 1208, "áº¿": 93993, "çĽ": 7387, "_re": 7056, "ypes": 41989, "Ġter": 21411, "thing": 12244, "#define": 2644, "ĠBut": 303, "ustr": 26819, "Ġals": 30285, "Ġba": 18193, "_N": 6431, "Ġstd": 1848, "inter": 6551, "ĉĉĉĉĉĉ": 126468, "sg": 14820, "the": 537, "lar": 12139, "Ã²": 61618, "Ġcolor": 846, "áº¡": 102065, "book": 4645, "Ġfri": 71080, "api": 3923, "ume": 10423, "private": 10217, "Ġcost": 822, "ards": 4498, "Ġsecond": 446, "Ġcontent": 663, "Ġtoo": 251, "rist": 17301, "ba": 4141, "Ġpath": 1201, "ĠQu": 4329, "ogle": 65365, ".is": 2769, "PE": 5979, "ika": 7219, "09": 1781, "Ġeng": 19644, ".length": 3339, "ĠCont": 12002, "Ġfew": 316, "zi": 9345, "Ġwa": 10690, "Ġhist": 26479, "ĠfÃ¼r": 16712, "creen": 20647, "):": 1143, "ben": 17914, "ki": 5445, "ĠBl": 3992, "ference": 13383, "ĠIm": 5048, "åĵ": 17641, "Ġport": 2793, "Ġaan": 61189, "ano": 4107, "resent": 55423, "pring": 24837, "{čĊ": 129230, "Layout": 5837, "]ĊĊ": 4174, "ĠMar": 2200, "ĠrÃ©": 45967, "Ġlim": 17338, "inn": 7427, "Ġfull": 466, "38": 2326, "å¸": 8781, "55": 2266, "Ġappro": 25979, "config": 4659, "Ġpod": 14439, "ief": 11689, "Ġaccess": 717, "Ġeffect": 1546, "No": 1067, "-p": 1760, "OL": 5192, "Ġkan": 29083, "ĠThey": 340, "Ġja": 13062, "ification": 4642, "Param": 6895, "ĠPh": 3816, "cle": 18478, "eld": 15262, "\").": 3376, "07": 1777, "ë¡": 12089, "Ġcompany": 401, "Ġmessage": 1017, "lex": 9714, "ona": 7856, "Ġstand": 1834, "chen": 14338, "assword": 87162, "Response": 3424, "Ġspe": 18313, "Ġhead": 700, "test": 1957, "Ê»": 89270, "vec": 5804, "Gr": 6662, "Ġko": 20710, "Ġfeel": 434, "ĠDes": 6902, "valid": 18527, "label": 948, "lt": 11082, "ips": 4651, "_B": 4860, "Ġkom": 47444, "ĠIN": 2982, "199": 697, "IG": 7369, "It": 308, "px": 675, "Ġpot": 4952, "Ġzijn": 66680, "Ġlevel": 610, "oci": 30406, "Ġdocument": 2030, "Ġteam": 342, "Ġmill": 7321, "Ġ\"\"": 5347, "med": 5570, "06": 1863, "Ġenc": 14541, "pert": 11636, "Ġbas": 11309, "Opt": 18530, "Ġmem": 15313, "ima": 7482, "Out": 5044, "max": 3226, "(b": 4603, "Ġhealth": 599, ".pro": 18219, "ables": 4526, "Status": 3486, "500": 1100, "æĿ": 7192, "iones": 31398, "Be": 2677, "Ġsure": 336, "Ġexperience": 440, "ĠEl": 2847, "place": 9881, "zen": 11680, "Ġinvest": 5124, "ÈĽ": 84634, "aces": 10011, "Trans": 13489, "gg": 8305, "éľ": 18087, "ï¿½": 99666, "content": 4417, "ĠHow": 805, "FF": 2659, "39": 2454, "char": 7273, "ending": 5853, "Ġfield": 800, "idget": 24920, "Ġlot": 331, "ìĭ": 18933, "Ent": 29158, "cur": 11513, "ĠMan": 2539, "fect": 25475, "Ġca": 11985, "Ġ)Ċ": 1984, "alt": 5607, "ething": 53507, "ination": 6748, "ĠThere": 502, "Input": 3402, "ived": 9870, "ories": 8185, "pecial": 40907, "Ġimp": 8512, "Ġthings": 317, "Ġmag": 10538, "ê¸": 19616, "02": 1453, "init": 3939, "Ġir": 10274, "Ã©n": 36515, "Ġsmall": 454, "elt": 8271, "Ġtable": 964, "mb": 4236, "isk": 9273, "Ġiss": 61715, "uffer": 25396, "Ġà¶": 64690, "ille": 8759, "len": 6068, "tings": 45144, "uration": 27725, "cer": 9804, "true": 4846, "âĢĭ": 18568, "ìļ": 13060, "ĠLicense": 1961, "Ġwon": 865, "Ġki": 24667, "Ġsex": 3054, "Ġmom": 3675, "ĠÃ¼": 77704, "Ġprotect": 2363, "System": 4615, "ling": 1671, "Ġresponse": 1129, "angu": 41339, "Ġalways": 345, "Page": 3636, "ç«": 13681, "ĠAmer": 32503, "OD": 6951, "Ġconsider": 1288, "room": 5396, "Ġpresent": 1140, "Ġtu": 23326, "If": 302, "44": 2458, ".out": 7537, "Util": 8580, "æĬ": 12685, "Ġchange": 444, "acter": 44543, "Ġans": 19431, "ĠĠĠĠĠĠĠĠĠĠĠĠ": 52368, "Ġperform": 2673, "Ġé": 67441, "Ġjob": 630, "ves": 4517, "atures": 15468, "Ġrange": 744, "Ġduring": 363, "Ġkeep": 408, "Ġreview": 1122, "OS": 1982, "array": 2484, "Ġprom": 31076, "igen": 17427, "å·": 9321, "image": 4750, "ĉthis": 129140, "********************************": 5296, "object": 6534, ";čĊčĊ": 129041, "ĠPar": 5602, "opt": 7623, "ids": 3706, "Ġdays": 426, "Ġimportant": 472, "ĠSc": 3839, "ought": 14257, "75": 1932, "Ġaff": 12066, "Equ": 24548, "Ġlittle": 355, "áº£": 96225, "\\n": 569, "ï¼ģ": 43028, "æ¸": 22699, ".R": 5467, "Inter": 12052, "Ġtechn": 27382, "rl": 18617, "irt": 12247, "Ġhum": 9518, "iy": 8280, "Ġ:=": 1669, "Ġdos": 17673, "Ġthree": 328, "stru": 68424, "Ġwater": 422, "oi": 9580, "ĠI'": 76502, "check": 5601, "Count": 3203, "ialog": 80309, "ula": 6264, "Ġexpl": 27366, "Ġinput": 1438, "Ġva": 21822, "Ġinterest": 1257, "').": 3351, "Ġè": 68372, "Table": 3077, "earch": 62915, "ret": 6435, "Ġbetter": 315, "uild": 39645, "_h": 4864, "Ġroom": 741, "And": 576, "Ġwebsite": 653, "çł": 14970, "Label": 6059, "_r": 4255, "New": 2013, "amente": 58660, "amespace": 87680, "å¨": 71253, "Ġess": 64978, "Reg": 10574, "-c": 1745, "Ġtil": 13102, "(e": 4934, "pi": 2222, "ao": 6810, "ales": 6368, "ands": 11152, "Ġlink": 1141, "âĢĻre": 333, "Ġincluding": 443, "Ġbig": 527, "Ġol": 16470, "Listener": 4748, ",čĊ": 128481, "Ġmult": 8032, "Ġpower": 616, "ources": 27020, "Ġindex": 1852, "ĠAN": 7847, "Ġschool": 516, "Ġli": 8550, "Def": 8558, "Ġhard": 562, ".ex": 16352, "ĠAb": 4158, "resh": 17884, "elle": 8179, "cht": 19771, "cord": 27317, "arly": 11140, "Ġcode": 658, "umb": 7657, "ativ": 39451, "iled": 5606, "Ġcatch": 2005, "ï¼ī": 18608, "Ġplan": 768, "isa": 11062, "mon": 6407, "way": 2712, "Ġvous": 27568, "Pos": 8039, "Ġfamily": 412, "Ġdouble": 1335, "Str": 5538, "Ġsuccess": 1370, "aps": 6121, "Ġgot": 341, "oute": 44158, "Client": 3059, "ä¿": 8321, "Ġfac": 18611, "img": 2969, "å¾": 6857, "())": 3563, "á»ĩ": 100409, "Ġwithin": 536, "48": 2167, "ĉs": 127955, "Ġdate": 938, "eder": 16949, "Click": 3192, "ude": 7891, "rawing": 48342, "Ġaccount": 891, "ances": 4219, "Ġexc": 11440, "Ġ===": 3028, "ques": 13505, ",\"": 417, "áº¹": 93550, "uilder": 44089, "Ġsam": 23193, "Ġ((": 3375, "_data": 2446, "Dis": 8870, "Ġstruct": 3742, "Action": 4245, "Ġsomething": 313, "ario": 15600, "aa": 5625, "Ġbit": 563, "enter": 11341, "ede": 12522, "ĠĠĠĠĠĠĠĠĠĠ": 70195, "uid": 12520, ".to": 3499, "abase": 81671, "otal": 30229, "Ġbeh": 16511, "Ġnicht": 28463, "ibr": 18523, "Ġleft": 464, "agement": 29238, "ability": 2814, "ĠĠĠĠĠĠĠĠĊ": 74063, "cia": 19593, "Ġgroup": 541, "_w": 6366, "ormal": 25043, "ĠÃ¡": 68332, "Ġmight": 375, "ii": 5189, "You": 382, "Ġelement": 2264, "aka": 6867, "éĻ": 10473, "Ġcontrol": 770, "Ġservices": 614, "Ġspecial": 868, "CH": 4467, "amework": 75393, "mt": 9339, "Ġprovide": 542, "aster": 6234, "eta": 3035, "åİ": 12598, "ÈĻ": 79499, "Ġred": 1162, "ko": 6186, "idade": 45925, "Ġmot": 26220, "ores": 8301, "iginal": 82325, "Ġdist": 8590, "ï¼Ī": 14217, "ĠAt": 1097, "Ġcount": 2052, "gl": 4870, "Ġbar": 1693, "Ġtotal": 904, "Ġbase": 1186, "Ġchang": 37500, "Ġanother": 370, "Content": 3643, "itional": 13588, "ones": 6144, "66": 4076, "idd": 9836, "ìķ": 22841, "Ġimage": 974, "viron": 63704, "Ġarea": 497, "ision": 16171, "igned": 12078, "ĠShe": 533, "riter": 55104, "Ġsince": 357, "andom": 26647, "ĠFl": 4696, "avor": 29443, "ights": 11004, "head": 3520, "Ġç": 44910, "Sub": 5156, "Det": 18740, "Ġvers": 33362, "Ġbody": 638, "SS": 3772, "yl": 3927, "Ġgive": 415, "Ġgen": 9496, "EM": 6128, "Ġhot": 1536, "(i": 3592, "EL": 6042, "Ġtrav": 45600, "Ġ($": 2008, "atis": 19895, "Ġwar": 1987, "fter": 39942, "Ġextends": 3345, "03": 1576, "Ġsich": 36928, "ready": 20488, "ĠpÃ¥": 39368, "Ġhar": 8637, "Line": 3463, "Ġutil": 17586, "arge": 27699, "åĩ": 7092, "ĠnÃ£o": 33452, "ĠMy": 672, "vers": 7141, "Ġkind": 786, "ills": 6598, "icon": 6756, "*/": 15541, "Ä±n": 50416, "Ġsearch": 1026, "hi": 2081, "db": 2792, "mo": 6242, ".\"": 858, "Ġair": 978, "Number": 3738, "Ġassert": 1618, "comp": 9733, "Ġsocial": 747, "oogle": 77390, ".x": 2971, "Ġcontact": 1020, "Ã¹": 64849, "ieve": 13180, "Ġrecord": 1200, "zy": 6484, "ched": 4427, "ÄĽ": 43972, ".append": 3459, "Ã¡n": 23476, "Ġecho": 3310, "Ġbro": 10911, "Ġturn": 973, "acc": 8365, "Ġemail": 994, "ately": 7478, "ĉb": 128161, "ador": 15152, "ocus": 30280, "ĉprivate": 129749, "map": 3205, "Ġgre": 13839, "Ġfore": 9011, "Ġhref": 1135, "uy": 10328, "77": 4711, "ired": 6620, "Ġaction": 927, "Ġbed": 2261, "Ãµes": 73383, "Ġable": 405, "Ġbir": 18636, "ca": 4114, "Ġniet": 68185, "imer": 14345, "ìĬ": 14952, ".println": 9226, "orage": 37427, "jor": 30257, "Ġdest": 12954, "ĠDo": 1214, "ici": 19527, "Ġanal": 32931, "Ġrequired": 874, "Ġless": 566, "itÃ©": 28387, "ĠâĢ¦": 2872, "Ġallow": 1066, "Ser": 19674, "gress": 21709, "actory": 30929, "ette": 6228, "Column": 6271, "Ġaddress": 1193, ".G": 7796, "Ġjavax": 10311, "Ġlooking": 465, "Ġnever": 379, "Ph": 8465, "oo": 4042, "Ġtarget": 1360, "><": 611, "Ġmaterial": 1702, "post": 3936, "ules": 11612, "Ġsus": 41684, "Ã¬": 51765, "Ġbool": 2612, "uto": 17443, "49": 2553, "è¡": 5129, "IP": 3024, "Ġmil": 14933, "Ġparam": 7052, "æ´": 28030, "_type": 2270, "acy": 4913, "joy": 23578, "Ġdig": 6831, "ĠDr": 1467, "Ġtitle": 1133, "Ġask": 1024, "ë¥": 12327, "ĠWith": 911, "Ġcontext": 1860, "apt": 10668, "sk": 6979, "endo": 27283, "odes": 8942, "context": 9082, "Ġvideo": 655, "my": 2109, "UE": 14213, "ë¦": 17782, "iversity": 31741, "aper": 11269, "Ġpersonal": 956, "Ġconfig": 3173, "sub": 1614, "cha": 8427, "aph": 10523, "Instance": 4148, "Ġgrow": 1865, "Ġcou": 24298, "vious": 26934, "mand": 29359, "open": 6207, "fic": 30942, "Ġmal": 11447, "request": 4301, "ences": 9039, "ĠVer": 8871, "Ġentre": 28509, "á»ĳ": 97589, "pository": 43710, "ista": 12479, "yd": 7826, "Ġsent": 1585, "summary": 2741, "Ġindiv": 84999, "èī": 28156, "Entity": 5532, "yr": 7111, "ican": 12202, "abled": 43399, "icy": 20356, "Ġboolean": 3695, "Ġprofession": 11648, "ently": 6076, "iod": 25950, "çĲ": 11547, "Ġbuy": 861, "Ġdom": 20840, "From": 1505, "Ġoptions": 873, ",âĢĿ": 346, "imal": 10647, "ained": 5190, "apter": 48948, ".data": 4048, "Ġmes": 20078, "Ġconsole": 3087, "iti": 11235, "aÃ§Ã£o": 49327, "Ġproducts": 762, "UI": 8502, "ĠSu": 8344, "Property": 3374, "PO": 6959, "Control": 7078, "65": 2716, "pa": 4577, "mi": 6768, "?Ċ": 87, "ension": 14716, "ĉfor": 125826, "ç¾": 27875, "Ġmoney": 495, ".de": 10005, "Ġadv": 41781, "Ġprice": 797, "Ã©t": 42571, "Ċ//": 16652, "ites": 5325, ".create": 4264, "Ãªn": 74305, "èĢ": 8929, "perties": 55500, ">>": 4240, "adas": 20204, "EX": 6788, "Ġversion": 702, "Ġindivid": 96609, "embers": 28724, "annel": 33519, "Ġinclude": 676, "ĠmÃ¡s": 41757, "ended": 6417, "board": 3994, "ering": 3214, "Ġavec": 25040, "message": 5755, "assert": 8234, "option": 4812, "link": 2790, "ĠNULL": 1823, "lev": 17676, "æķ": 3976, "ĠDis": 5286, "Ġdev": 5415, "ĠEng": 16134, "Ġident": 30550, "box": 2412, "Ġchildren": 606, "Ġlaw": 1075, "ĠReg": 8534, "ĠSet": 2621, "Ġhttp": 2163, ".Get": 3769, "({Ċ": 4497, "Query": 3690, "Ġfre": 12889, "wing": 10664, "akt": 32016, "Ġsn": 4069, "ster": 4543, "Ã¶n": 43829, "({": 3466, "ls": 4562, "Ġnov": 27860, "Ġuns": 6131, "Ġaus": 30503, "Style": 5620, "md": 7679, "fort": 16488, "Ġmatch": 1202, "IO": 5906, "ĠMed": 7750, "Ġza": 42294, "umer": 17921, "Ġbes": 35822, "ither": 28459, ").ĊĊ": 3064, "Ġfollowing": 528, "áº¥": 117864, "agen": 17553, "Ġgover": 77072, "Ġmi": 11147, "åĿ": 17654, "Ġnos": 21301, "ĠCar": 2812, "ention": 19600, "ĠSie": 11699, "select": 5682, "Ġposition": 908, "ĉĉĉĉĉĉĉĉ": 128765, "Ġing": 17892, "opp": 13861, "Ġmap": 1553, "éĹ": 8684, "\\\"": 2672, "ĠåĮ": 77517, ".Drawing": 13970, "Ġawait": 3809, "Ġshort": 781, "ename": 27665, "una": 9019, "Ġupdate": 1225, "Ġlat": 16812, "Ġvisit": 1003, "icro": 35985, "ĠIntern": 25651, "Ġuit": 74274, "ĠNot": 1078, "Ġnil": 2886, "Ġhal": 13526, ".Form": 49924, "Ã§a": 67329, "button": 3813, "Ġtoday": 548, "Ġeine": 25385, "Ġsob": 22285, "obile": 39333, "\".": 1896, ".Add": 5674, ".cl": 23985, "raft": 15355, "Ġmach": 37773, "Ġcreat": 28852, "ouch": 13674, "plit": 25916, "unk": 5866, "(x": 1442, "ê²": 21140, "ĠAdd": 2034, "amos": 25673, "(st": 24181, "ĠĠĊ": 63289, "Ġìŀ": 14548, "Ġsou": 29807, "Ġdire": 26521, "å±": 11809, "Ġfut": 30325, "','": 2460, "update": 7544, "format": 4444, "Ġbij": 48856, "maz": 46168, "uz": 8921, "ĉint": 128976, "clus": 52480, "tre": 25736, "anguage": 40312, "iction": 14133, "di": 7342, "(R": 5874, "æŃ": 9449, "${": 9259, "300": 1610, "anks": 10725, "ìľ": 21326, "upport": 43450, "Ġobj": 5907, "eturn": 82763, "ĠCan": 1762, "ande": 17736, "ðŁ": 33113, "rect": 24392, "ides": 4366, "ĠìĿ": 14879, "json": 5371, "Ġblog": 1137, "Ġ(Ċ": 3727, "Ġworking": 447, "aring": 7085, "web": 6987, "des": 10043, "'re": 10602, "Ã¨s": 60538, "Ġnu": 20224, "Ġdoor": 1678, "Ġbased": 605, "ML": 7463, "Ġlead": 997, "opyright": 67491, "Ġappe": 49858, "Ġdon't": 300, "95": 2719, "Ġlik": 22710, "eters": 17491, "yles": 42120, "ji": 7530, "Ġcomb": 15484, "Ã©m": 52787, "Ġmaking": 485, "Ġocc": 36604, "Handler": 3943, "ĠGener": 23642, "Ġze": 33552, "ored": 4723, "bol": 18082, "conom": 52087, "HT": 12527, "47": 2962, "Ġpossible": 532, "Ġfar": 593, "zo": 8297, "æĶ": 9162, "Ġactiv": 35736, "Ġkun": 67621, "Ġmeet": 1195, "ku": 16784, "Collection": 8466, "hel": 8522, "_list": 2966, "Ġsever": 30618, "OP": 5719, "Ġcourse": 567, "Ġcam": 10869, "Ġdone": 504, "abil": 21038, "Ġquality": 755, "ĠID": 2494, "itive": 11853, "https": 568, "Ġauch": 41829, "!Ċ": 138, "Ġresearch": 852, "();": 4316, "aur": 14212, "(l": 8991, "},": 986, "abor": 26555, "Ġ/>Ċ": 3774, "\"></": 1945, "ĠInt": 4924, "mente": 59794, "cope": 23112, ".Text": 8900, "path": 3293, "Edit": 4757, "Ġur": 12095, "Ġyang": 25687, "Stream": 3748, "Ġaway": 482, "rix": 19306, "ATE": 7806, "Ġalle": 22117, "Ġay": 29803, "-in": 1215, "utes": 11694, "table": 2493, "js": 3609, "Ã¤n": 53193, "Ġmoment": 1325, "Ġcell": 2439, "Ġlight": 779, "Ġlabel": 2589, "ĉĉĊ": 128502, "Ġimple": 93050, "default": 5443, "ëı": 24221, ".,": 596, "SON": 15699, "Ġsum": 3521, "aba": 14073, "46": 2940, "Ġunderstand": 835, "Point": 3999, "dis": 6513, "ply": 17466, "ĉf": 128649, "Ġdiv": 7939, "Ġeasy": 586, "ĠEr": 7638, "Arg": 14346, "mas": 10163, "Ġvot": 73044, "eren": 29814, ".find": 6054, "Ġfood": 588, "Ġvari": 28699, "Ġwel": 33293, "ably": 3824, "udio": 24215, "Ġtimes": 524, "Url": 4782, "Ġ[Ċ": 2922, "Ġpast": 688, "Ġfour": 642, "vironment": 63740, "Â«": 20483, "Fl": 9887, "Ġmind": 867, "lation": 23137, "ury": 11230, ".âĢĿĊĊ": 21420, "ades": 5557, "Ġalong": 694, "Ġbegin": 1776, "Ġsource": 1032, "ograph": 17944, "_L": 5574, "ÅĪ": 86190, "email": 6122, "Ġod": 18828, "á»ģ": 101430, "obj": 7964, "Ġseem": 1391, "Ġens": 26517, "static": 3862, "Ġthrow": 1998, "âĢ¢": 1451, "response": 8915, "Ġenjoy": 1085, "thers": 39500, "ĠMay": 961, "ëĵ": 17832, "Ġit's": 321, "Ġhouse": 743, ".sh": 8188, "Ġalready": 487, "Vis": 22924, "aat": 38692, "args": 6800, "ients": 20701, "uns": 9234, "Ab": 9073, "ĠUser": 3879, "\",\"": 3583, "ibility": 9179, "ĠWhen": 705, "Ġiz": 51258, "å¯": 7275, "elo": 14307, "net": 3719, "icial": 32307, "Ġsoftware": 988, "Ġside": 552, "/c": 2421, "ĠLog": 6290, "Ġexist": 3179, "ĠPol": 7416, "âĢĻve": 459, "TR": 5364, "Ġdeb": 11424, "avig": 64645, ".Windows": 10842, "Pre": 6723, "};ĊĊ": 5649, "Ġcover": 1398, "Ġproperty": 981, "group": 4641, "ases": 8016, "Ġten": 2760, "Ġwhe": 21125, "Å£": 65405, "ivo": 22632, "ponents": 31945, "ĠÂ»": 10359, "Ġgiven": 597, "ral": 12157, "Menu": 6687, "Ġimpro": 48567, "ĠEm": 5942, "Ġdownload": 2039, "side": 6451, "Select": 6126, "iety": 19638, "Ġwidth": 1795, "Ã¨re": 40320, "æĭ": 14711, "Ġprotected": 2537, "Ġemploy": 13283, ".class": 5047, "++)": 5975, "Ġblock": 1628, "ley": 1235, "Ġpract": 30665, "Ġcalled": 601, "á»Ļ": 101437, "Ġtre": 11413, "Ġmer": 18324, "atform": 79485, "Ġkw": 44264, "(&": 3733, "ured": 5014, "IR": 5211, "âĢ¦ĊĊ": 73088, "uh": 8314, "Ġagainst": 441, "_RE": 13997, "Ġresults": 750, "jo": 6526, "ĠChrist": 4457, "ĠBo": 5336, "nes": 10414, "Check": 3530, "ĠDE": 7767, "Ġperfect": 966, "78": 4764, "ports": 7923, "Ġredu": 96236, "_H": 4972, "á»Ľ": 91061, "Ġcur": 5729, "pose": 19421, "æ°": 22515, "sol": 13650, "ë§": 25589, "asi": 10875, "Ġprim": 14068, "ĠDate": 3560, "Per": 7259, "ohn": 25862, "Ġra": 16057, "Ġlarge": 649, "';ĊĊ": 6159, "portun": 61258, "Ġneeds": 609, "_IN": 13952, "Ġbenef": 33165, "Token": 4102, "El": 7048, "Ġny": 30429, "Ġbi": 5926, "ëĤ": 31664, "Ġfloat": 2770, "ney": 4275, "sel": 19902, "ges": 5313, "Ġpag": 30024, "CC": 3207, "Ġthing": 430, "Ġwhy": 438, "ĠMin": 7169, ".N": 7860, "Ġdin": 25722, "aim": 19785, "ĠĠĠĠĠĠĠĠĠĠĠĠĠĠ": 91395, "iff": 5426, "æİ": 8885, "Ġindividual": 1489, "unch": 8249, "ottom": 73980, "Ġwin": 899, "-w": 2653, "ĠĠĠĠĠĠĠĠĠĠĠĠĠĠĠĠĠĠĠĠĠ": 98078, "ĠCal": 4675, "Ġcertain": 1229, "Read": 3161, "Ġeste": 33340, "Start": 4269, "ĉm": 128374, "size": 4137, "æł": 7484, ".size": 5074, ",ĊĊ": 9160, "Ġlow": 798, "Ġcamp": 4088, "Ġconc": 13430, "éĿ": 11325, "Ġelect": 15489, "ĠNe": 4259, "Ġrespons": 72430, "Ġinte": 60067, "IV": 7904, "ĠView": 4045, "elling": 5295, "kan": 18643, "Ġfund": 3599, "Ġlearn": 853, "Ġalg": 47455, ".y": 5665, "Ġdies": 12868, "ony": 8212, "incip": 55576, "izer": 4969, "Ġvia": 1110, "Ġstatus": 1729, "isi": 15453, "Ġenerg": 39357, "sl": 3921, "Ġstudents": 592, "ube": 9789, "mission": 20730, "position": 5612, "Ġsort": 1923, "ements": 14930, "oon": 5490, "iro": 8660, "á»ķ": 97432, "ging": 2701, ">(": 3959, "Ã¼n": 69528, "};Ċ": 6716, "Us": 10459, "Ġut": 17844, ".org": 1329, "elijk": 93890, "pression": 21089, "where": 2401, "cy": 8221, "ples": 11803, "Ġthought": 682, "Ġtrad": 54432, "Ġamount": 935, "Ġneg": 22317, "Ġvalid": 3255, "left": 1157, "Product": 8201, "ĠBy": 1731, "imo": 14553, "Ġsrc": 2399, "mm": 2069, "ete": 11411, "UM": 7705, "dr": 5815, "Builder": 4229, "ternal": 34060, "gy": 6143, "Ġhat": 6161, "artment": 53445, "cover": 12249, "æŀ": 8335, "ifier": 9269, ".Forms": 12770, "ival": 13220, "_V": 8009, "ĠEst": 12991, "imum": 37154, "ĠSer": 11377, "ctor": 12228, "-h": 2881, "uis": 19155, "Ġlive": 667, "Ġ}čĊčĊ": 129701, "ĠText": 4678, "Ġhaving": 520, "uments": 38616, "ĠčĊ": 127813, "ĠThat": 625, "Ġinc": 7335, "num": 6069, "âĢĻm": 455, "Ġook": 80267, "())Ċ": 3903, "Ġesc": 27480, "title": 3110, "sa": 7674, "La": 9972, "time": 3562, "Ġsitu": 33849, "lish": 56836, "Ġland": 1662, "Ġtool": 1667, "CE": 5469, "kl": 13111, ".html": 1625, "Ġdisplay": 1418, "Ġsingle": 772, "ĠSte": 5819, "Ġtalk": 1131, "Ġnode": 2120, "ĠDie": 15891, "ication": 14575, "Ä°": 63434, "ella": 6065, "ema": 12861, "Ġ;": 3369, "Post": 5995, "Ġuntil": 483, "cel": 16014, "aga": 11868, "atter": 8155, "mes": 10370, "ĠWhat": 556, "uer": 13645, "uccess": 66663, "_pro": 14077, "_e": 7908, "uel": 10189, "59": 3223, "Bar": 4693, "ĉvar": 126239, "Ġant": 9243, "68": 4272, "amento": 32823, "vi": 7569, "ç§": 10269, "Ġich": 39193, "Ġlen": 3676, "ĠMore": 2075, "Ref": 4596, "58": 3241, "])": 5475, "react": 7794, "Ġkon": 36575, "uts": 7746, "]);Ċ": 8331, "ĠCo": 2320, "ungen": 35841, "ops": 3948, "////////////////": 45283, "IF": 5925, "aint": 20183, "ĠPer": 5228, "arning": 37628, "down": 5749, "ione": 20538, "outh": 12482, "Ġmor": 14577, "ĠPre": 4861, "Ġfunc": 8001, "Ġgovern": 25039, "ĠNone": 2169, "Ġcond": 16623, "Ġtreat": 3198, "Ġurl": 3078, "Comp": 12843, "Ġeduc": 57303, "ulation": 6502, "Ġpubl": 89865, "ĠTest": 2622, "Ġgro": 12831, "âĢĺ": 4153, "ĠObject": 4258, "ĠJe": 14996, "Ġheight": 1886, "Ã¡r": 54599, "body": 4569, "Http": 10732, ".value": 5485, "âĢŀ": 50724, "Ġcult": 18084, "ĠUp": 3970, "Ġclean": 1423, "lege": 63304, "42": 2235, "formation": 18227, "}čĊčĊ": 128946, "ince": 24177, "Ã§Ãµes": 56051, "Ġmis": 4031, "ìĸ": 23113, "Ġoch": 33199, "Ġload": 2322, "Call": 6024, "Ġpurch": 88749, "Ġsimple": 848, "ĊĊĊĊ": 112314, "Ġtoget": 89428, "Link": 4818, "True": 5972, "anda": 9715, "\");čĊ": 130074, "ocket": 17137, "ÅĻ": 57358, "=>": 16453, "á»£": 93772, "Ġtogether": 577, "oke": 5941, "âĢĻll": 531, "Mod": 13087, "atal": 10405, "Method": 4376, "lin": 3918, "Ġnie": 51015, "ipe": 17894, "ourn": 15057, "(r": 4788, "Ġonce": 645, "ë°": 34726, "Ġitems": 1218, "Ġoutput": 1598, "ju": 17625, "field": 1972, "Ġselect": 1804, "Ġwat": 31367, "itter": 8686, ".spring": 60657, "etch": 21076, "aged": 5480, "ĠAss": 10868, "198": 1234, "Activity": 8533, "Ġmeans": 631, "df": 4054, "AY": 7675, "Ġ};Ċ": 4090, "uly": 19229, "Ġoriginal": 1139, "Ġdit": 32378, "Ġ})Ċ": 4869, "arl": 9788, "orr": 10758, "oom": 18693, "Ġok": 4086, "End": 5018, "ĥ½": 8467, "Ġcard": 1042, "ilt": 13746, "ANT": 10898, "Ġcir": 25741, "Ġactually": 571, "Ġmean": 829, "ker": 8277, "si": 8866, "rij": 75224, "Ġbeaut": 30310, "çĪ": 40646, "Ġoften": 654, "Ġeither": 746, "Ġmakes": 564, "uring": 5563, "ĠÃº": 77324, "Ġbad": 809, "Ġtod": 79080, "Ġproblem": 544, "Ġcomput": 38757, "IZ": 19292, "ounds": 11788, "iga": 16304, "namespace": 4513, "mun": 26886, "Null": 4905, "Ġhom": 6629, "ï¼Ł": 36425, "Ġsupp": 29144, "eller": 8663, "vider": 60853, "ĠGod": 1094, "Ġgetting": 515, "400": 2007, "annot": 47802, "Īĺ": 16428, "erd": 16424, "Ġdam": 15082, "(data": 4719, "ĠAm": 3101, "script": 3579, "Source": 3224, "Ġvalues": 1223, "ĠArray": 5460, "framework": 19298, "What": 449, "Ġdeal": 1000, "ram": 8114, "Ġcommunity": 659, "ĠData": 2148, ".name": 4349, "Change": 5291, "Ġconnect": 2500, "Ġcred": 25636, "æµ": 14332, "ators": 2447, "parse": 10411, "Ġmass": 2893, "Ġplease": 860, "Ġsobre": 42814, "Ġamb": 19284, "Ġbon": 16533, "mod": 6182, "Ġlater": 784, "ĠMon": 5299, "Ġgeb": 89881, "Ġquick": 1733, "Ġao": 36728, "Ġnight": 662, "Ġspecific": 995, "Ġtal": 27764, "point": 5497, "Order": 6840, "Ġever": 612, "../../": 11084, "params": 9907, "TH": 6324, "Ġstory": 751, "Factory": 4419, "Ġinitial": 2283, "iste": 23959, "cret": 41518, "Ġfeatures": 884, "Ġdetails": 1057, "Ġnatur": 82610, "Base": 4172, "Ġparticip": 45405, ".push": 5302, "ĠYour": 1101, "Ġele": 29094, "Ġìł": 18436, "«ĺ": 27230, "Ġauthor": 2374, "agn": 20177, "Ġbelow": 757, "ĠâĢŀ": 28769, "Ġstore": 1018, ")(": 3327, "ĠWeb": 2297, "ural": 9335, "Ġcontinue": 946, "parent": 8784, "abe": 11156, "ĠPart": 5362, "Æ¡": 100345, "...Ċ": 380, "anto": 25006, "service": 8806, ".php": 4420, "Sp": 6796, "ĠOR": 2830, "Ġspace": 716, "Ġseveral": 695, "<String": 6257, "Ġprob": 17629, "Ġrecomm": 63390, "ĠUniversity": 810, "yo": 10066, "Ġemp": 49147, "Ġquestion": 801, "Ġont": 27853, "Ġcountry": 698, "atabase": 47412, "Back": 5097, "Ġinstance": 2062, "source": 5865, "imate": 14092, "ami": 6427, "change": 10221, "pond": 38643, "remove": 11616, "used": 6710, "Acc": 16389, "std": 8407, "Ġcook": 3869, "Ġface": 881, "Ġenough": 535, "Ġsend": 1340, "anch": 11484, "Ġ),Ċ": 7423, "Update": 4674, "ĠGl": 6828, "æ¬": 16839, "oved": 12568, "Ġphot": 14730, "Ġpur": 10828, "(_": 5662, "aging": 7471, "Ġargs": 4276, ".swing": 23163, "fa": 5089, "Repository": 7983, "_ST": 19960, "ĠÃ©t": 77375, "ila": 8090, "éģ": 15173, "Ġuint": 3553, "cribe": 30379, "ording": 58202, "ĠÔ": 85814, "Ġclos": 39037, "41": 2632, "Ġpress": 2278, "oper": 10572, "color": 4197, "ĠGu": 7204, "Ġexample": 626, "èĩ": 12137, "(j": 11776, "uri": 7553, "Ġà¥": 130044, "Ġmembers": 813, "Ġalt": 5880, "iday": 32154, "Ġsays": 557, "uint": 9324, ".J": 6808, "ĠThese": 965, "56": 3093, "Ġbal": 20215, "Ġber": 25515, "ĠOff": 8187, "Ġstudy": 1011, "Ġgar": 20932, "Ġhost": 1905, "dated": 51877, "aking": 5994, "Ġ<=": 4935, "Ġextra": 1297, "ĠáĢ": 83330, "Ġheb": 83871, "Ġfinanc": 81077, "Ġach": 33762, "Ġparticular": 1474, "Ġbecome": 704, "çĻ": 21538, "idden": 46139, "stit": 24110, "Ġsind": 39028, "Ġcity": 761, "/s": 1915, "Ġplayer": 1240, "Ġmajor": 1039, "Ġothers": 652, "mark": 7927, "!--": 46400, "active": 6279, ".springframework": 9998, "apping": 7302, "_size": 3387, "One": 1156, "_de": 12216, "Ġgames": 735, "Ġmedia": 862, "Ġsens": 17149, "ilar": 26648, "ball": 5499, "ĠGe": 5640, "Ġespecial": 81969, "Ġbutton": 1746, "Ġhold": 1415, "ĠEuro": 10482, "\"))": 11829, "Ġ>=": 4933, "ising": 4138, "Ġwrite": 1105, "kn": 4178, "Ġnecess": 39049, "ĠMark": 2944, "ison": 5706, "Ġyet": 714, "Ġprec": 21813, "TE": 7892, "Mode": 4983, "iento": 86866, "Ġkl": 36132, "model": 5267, "98": 4500, "iri": 12082, "UP": 7110, "ged": 2821, "57": 3430, "Ġpolit": 30362, "âĤ¬": 9566, "ustry": 72014, "_to": 3559, "Ġlib": 7320, "Ġstay": 1030, "Ġsave": 1269, "aya": 6861, "ental": 20937, "Ġ'./": 7022, "height": 9427, "URL": 7419, "Ġautom": 14136, "Ġlocation": 1371, "Ġfavor": 6682, "Ġnews": 967, "Ġpers": 32923, "Create": 4082, "AME": 26406, "ĉelse": 128801, "ĠOne": 920, "Ġfont": 2331, "Ġnga": 74930, "pu": 13995, "Ġteach": 4415, "Ġthrows": 4573, "gt": 11534, "edd": 15840, "Ġsche": 42572, "ester": 8570, "NS": 7286, "Ġhours": 725, "Ġcomes": 651, "anu": 19083, "Ġoder": 31681, "Ġcomplet": 47924, "inding": 21534, "zer": 8128, "gu": 4401, "Ġê°": 17070, ".put": 7561, "ĠTHE": 2254, "atu": 19408, "ministr": 84392, "Ġsav": 17356, "Ġ['": 3863, "Ġmiss": 2722, "Ġwomen": 880, "Ġshare": 811, "Off": 10329, "ĠÃ¾": 88301, "Ġpie": 8809, "osp": 20072, "Ġcopy": 1649, "Ġabove": 715, "################": 38247, "Ġleast": 580, "Width": 6180, "Ġlarg": 68396, ".on": 6592, "ORT": 23430, "Ã©es": 23695, ".con": 25710, "ecut": 40564, "ĠVal": 6978, "Ġnam": 38602, "iful": 17619, "Ġfriend": 1258, "])Ċ": 5624, "97": 4973, "hand": 10232, "PL": 6148, "encia": 34177, "OK": 6124, "quired": 29176, "Ġetc": 837, "ë³": 27954, "inate": 10351, "Ġprovided": 1210, "Ġfocus": 1228, "å¦": 12048, "æĥ": 16147, "ĠAct": 3067, "Ġrepresent": 4468, "Tem": 34780, "_R": 5559, "zt": 27706, "Ġdue": 742, "antes": 22456, "([": 4516, "YPE": 34512, "Ġapplication": 982, "ESS": 21300, "AX": 10171, "fully": 3558, "ola": 4745, "ensive": 10640, "Ġreason": 903, "elen": 21791, "endif": 13680, "ipo": 35476, "ĠComp": 13254, ".model": 7870, "igr": 14010, "150": 2195, "ĉĉĉĉĉĉĉ": 128220, "Ġseason": 555, "Ġbre": 13185, "-n": 4121, "DB": 3515, "ogn": 32120, "cast": 8593, "Ġrow": 2304, "á»Ŀ": 89100, "pload": 86477, "icles": 21848, "Ġwalk": 1582, "Ġpick": 1488, "Ġ...ĊĊ": 40368, ".text": 8348, "Ã¤t": 66370, "start": 4797, "ingen": 35756, "Ġwait": 1361, "ĠNov": 4223, "yt": 8949, "Ġpou": 69887, "Ġsont": 26804, "ĠDec": 4143, "argin": 66981, "ìĽ": 37986, "á¹": 94974, "anger": 9705, "Ġacross": 713, "Ã³n": 28940, "ires": 14376, "ï½": 46699, "Valid": 11907, "Ġcompan": 99142, "product": 8626, "ĠFile": 2946, "Ġclose": 803, "inary": 14065, "Ġperiod": 1197, "Command": 5139, "________": 45503, "ĠUs": 7029, "Ġdevelopment": 806, "Ġauto": 2287, "/**Ċ": 16264, "Ġhu": 44786, "Ġmove": 808, "eft": 87365, "Ġfuture": 760, "Ġtamb": 81784, "Ġwriting": 1146, "server": 7852, "just": 5807, "Ġwerden": 27587, "ĠForm": 5486, "Ġago": 766, "Ġtrack": 1393, "Ġclick": 1424, "pend": 23321, "state": 4661, "istance": 35308, "Ġtask": 1953, "Ġoffers": 1112, "How": 678, "Module": 5968, "Ġsie": 37077, "åĴ": 11614, "Ġdating": 5174, "âĢĿ,": 2915, "Ġdoing": 550, "ĠOF": 2441, "Hel": 26513, "most": 8456, "Âł": 73672, "Ġopportun": 51360, "Const": 22855, "Ġinn": 21252, "struction": 43970, "Ġoption": 1004, "Ġhandle": 1891, "43": 2759, "iddle": 14088, "Ġprincip": 45982, "wards": 10981, "structor": 61350, "Ġgir": 38877, "adio": 40472, "ĠIl": 12637, "req": 11092, "Ġev": 7697, "lear": 42047, "Ġá»į": 106834, "iple": 39533, "rea": 22122, "Ġpal": 9827, "ĠOur": 1431, "Ġbien": 34235, "anz": 18422, "page": 5366, "ĮĢ": 30723, "AV": 6690, "Cell": 7088, "ÃŃt": 46688, "Grid": 8274, "Address": 5315, "åĳ": 12751, "<<": 9792, "Ġcommon": 1043, "Ġpack": 4163, "Ġsym": 12135, "ĠFree": 2695, "Ġquestions": 937, "Options": 4194, "Default": 5510, "Ġ});ĊĊ": 4594, "Ġclear": 979, "ixed": 20317, "Â·": 6876, "ijd": 90341, "iki": 11442, "Ġah": 21250, "Ġcreated": 1008, "Ġzo": 48863, "iate": 11228, "Ġnp": 2895, "Ġcomment": 1527, "Ġinfo": 2206, "Ġtyp": 16199, "urther": 56670, "nh": 30187, "Ġdiscuss": 2705, "Ġmusic": 844, "áºŃ": 115196, "Ġusers": 992, "Ġmga": 47605, "ĠState": 983, "_v": 5207, ".js": 2274, "ERR": 19736, "leep": 35371, "Ġpict": 46709, "iten": 32097, "Ġhuman": 1268, "ĠBar": 3261, "null": 8448, "adding": 28302, "unit": 10356, "Ġsubject": 1879, "Ġnetwork": 1270, "Ġsignific": 85634, "ĠRead": 2942, "lim": 9399, "Attribute": 5878, "reet": 24198, "åģ": 22026, "lu": 9617, "aha": 12494, "ecute": 85713, "Title": 2430, "ï»": 85597, "OV": 13901, "Ġdeterm": 65704, "agment": 66081, "count": 6114, "Child": 7164, "base": 4171, "Ġstarted": 639, "Ġmaint": 52529, "êµ": 44458, "Ġren": 15198, "\");ĊĊ": 6667, "has": 5176, "Ġrole": 1048, "ĠArt": 3034, "Ġtw": 8938, "header": 7782, "edia": 21693, "ĠIS": 2784, "Integer": 13958, "Ġminutes": 719, "_g": 6118, "æı": 13889, "ART": 10805, "Ġtele": 9476, "My": 930, "valu": 26530, "hen": 14317, "Ġbil": 30111, "ele": 18358, "asure": 22613, "_set": 5830, "Ġcompet": 34121, "Ġpred": 13024, "aux": 12201, "curity": 86469, "Ã¥r": 84889, "_G": 7374, "-se": 6082, "67": 4281, "center": 5245, "Block": 5668, "Ġglobal": 1517, "Ġnh": 55504, "imple": 26977, "ĠÃ¼ber": 41368, "Ġeconom": 74290, "ĠÃŃ": 78666, "ĠPublic": 2826, "è¦": 8385, "ĠI'm": 387, "itted": 10449, "PI": 7249, "ÄĲ": 74872, "Panel": 9135, "Ġtemp": 6489, "Ġtell": 831, "oman": 19492, "root": 6820, "});Ċ": 13278, "_W": 8810, "loor": 18722, "Ġthough": 558, "atie": 43024, "Icon": 8855, "Ġhope": 863, "ignment": 29174, "itions": 9255, "Ġtout": 31108, "Ġapplic": 37019, "Ġmonths": 674, "Ġcy": 15383, "etr": 10816, "Ġbox": 1281, "Me": 5439, "inder": 12053, "itar": 26068, "åķ": 27315, "ĠPost": 3081, "hal": 13893, "Row": 6025, "Load": 10416, "ĠTrans": 6914, "Ġassoci": 41995, "Ġlength": 1888, "amm": 11288, "Ġeverything": 726, ".v": 6176, "pli": 52023, "idades": 60257, "Ġrelations": 6478, "author": 6181, "show": 6584, "ĠEs": 10627, "(function": 5518, "quals": 70233, "ĉĠĠĠ": 126716, "Ġstrong": 1069, "Ġcomplete": 1009, "oma": 7757, "ĠDet": 21484, "Ġbei": 45074, "icas": 37116, "olo": 10204, "ĉcase": 127816, "ĠestÃ¡": 42777, "Ġknown": 834, "Ġges": 80285, "éĽ": 17789, "Ġnach": 34580, "QL": 14841, "ĠHowever": 833, "ĠUnited": 1025, "ises": 6535, "lig": 23472, "_path": 3755, "(C": 6127, "hing": 25491, "illa": 6960, "Fe": 13911, "Ġobt": 38468, "IB": 7260, "Ġfront": 958, "Ġ},": 5242, "isch": 27838, "Ġpoints": 796, "eni": 16911, "child": 10479, "eds": 7766, "Ġtax": 1500, "oe": 7485, "ĠCor": 5958, "ving": 8284, "ĠAg": 7116, "Ġasync": 5594, "Ġfilm": 1252, "(name": 6449, "Ġwhether": 894, "Ġple": 17611, "ische": 39079, "OW": 12480, "Ġseries": 856, "urg": 12594, ".Size": 16639, "Ġdeg": 20626, "FA": 5711, "Ġmaar": 85893, "ĠSee": 2279, "(){Ċ": 8639, "Ġinf": 5185, "Ġheart": 1062, "ĠInter": 4945, "printf": 23653, "ĠRE": 6984, "ett": 4666, "Ġdir": 11722, "Ã¡t": 56400, "sy": 10762, "Ġyoung": 1040, "asy": 12366, "ffect": 37497, "Ġfall": 1600, "Ġrespect": 2665, "typ": 20424, "astic": 12574, "Ġwatch": 1272, "Stack": 7184, "ibrary": 53552, "Ġbring": 1010, "Container": 6802, "control": 16101, "usiness": 51331, "There": 660, "Ġ*/ĊĊ": 6035, "sm": 7064, "Ġdb": 5590, "iva": 12218, "ĠStr": 5306, "urt": 12200, "asa": 12534, "ĠClass": 2675, "Position": 6564, "plied": 21182, "entes": 43682, "func": 3779, "Ġdar": 40679, "ìĥ": 37079, "Ġchoose": 1098, "CL": 6455, "Ġinstall": 1940, "Ġeu": 28937, "Ġhappen": 1507, "Ġfast": 1344, ".čĊ": 127157, "Ġfriends": 821, "áº¯": 118625, "Ġstop": 962, "Ġinvol": 39914, "æ¯": 14875, "uma": 11881, "ëł": 25488, "event": 7517, "urance": 23056, "Ã©c": 60062, "Equal": 4652, "á»§": 98986, "Ġhistory": 1016, "á»±": 103625, "Serv": 28950, "Part": 6471, "year": 14660, "Ġhor": 41979, "TO": 6994, "ĠCity": 960, "Utils": 6597, "é¡": 11313, "Empty": 7281, "Ġsomeone": 635, "ĠGeneral": 2492, "197": 1642, "á»ĥ": 105328, "ynam": 41025, ":čĊ": 125350, "Ġwie": 46015, "Ġjson": 5084, "Num": 8099, "Ġquery": 3124, "ugin": 67425, "iente": 41053, "ĠDep": 21528, "èĤ": 40978, "ATION": 7607, "/m": 2771, "%%": 17793, "Ġphone": 1015, "ODE": 23763, "Ġpet": 4246, "anged": 15438, "acebook": 74437, "asing": 10083, "ledge": 21078, "Buffer": 5140, "auth": 11351, "_ex": 11903, "ufact": 49336, "Ġanim": 24864, "åī": 12090, "è¾": 11939, ":\"": 5647, "Ġinfl": 22559, "Ġpopular": 1249, "Ġwindow": 1737, "Ġindustry": 950, "Ġbtn": 7299, "Header": 6673, "\";ĊĊ": 7898, "æ²": 17525, "Char": 10247, "atrix": 11543, "Ġage": 1072, "ç²": 51219, "Ġunique": 1187, "Ġenter": 2348, "ustomer": 75751, "Ġmillion": 686, "ocol": 50842, "Ġkh": 28009, "//Ċ//": 13623, "ombre": 83613, "(),Ċ": 5160, "soft": 16508, "69": 4511, "ised": 2558, "Ä§": 97325, "admin": 7190, "ĠAmerican": 1005, "anta": 18359, "Ġadded": 793, "Ġfit": 1559, "unn": 13486, "verage": 49861, "utions": 16377, "Ġvor": 41322, "ĠAng": 10489, "Ġstrateg": 47278, "ĠÖ": 91872, "256": 4215, "ky": 4450, ".annot": 84534, "Dialog": 9656, "het": 14661, "Ġsil": 13000, "Ġarticle": 1092, "asse": 16394, "info": 5136, "ĠCr": 4806, "ipping": 8924, "undle": 37667, "Ġwir": 42923, "egin": 70436, "ĠGoogle": 1433, "Ġcollection": 1752, "ĠCON": 11971, "current": 6938, "options": 8510, "Ġot": 20927, "Ġë°": 22322, "So": 710, "Ġuk": 20416, "Ã³r": 71936, "ĠÃ§": 84161, "entity": 16493, "uper": 18213, "part": 9394, "ttps": 86408, "Height": 7159, "local": 7736, "aten": 13985, "Dr": 4173, "py": 4560, "Ġvirt": 44742, "eme": 16193, "ysis": 18564, "ued": 11975, "''": 4822, "Ġcame": 699, "<T": 4372, "Ä«": 34608, "ìĺ": 40778, "Ġih": 68393, "outer": 26463, "Ġyn": 79536, "Ġfig": 18646, "cal": 1041, "Ġexperien": 97461, "iert": 51339, "Ġexam": 5770, "Ġphys": 53340, "uj": 13644, "Ġaux": 16893, "á»įn": 100932, "ota": 7926, "este": 20133, "ĠFe": 8543, "Ġcharacter": 1496, "Ġaddition": 1168, "Ġìķ": 22385, "OUT": 12240, "Ãī": 31478, "ively": 4208, "Ġnear": 1116, "Ġjoin": 1805, "stract": 92756, "iam": 13017, "andid": 68970, "Ġtim": 22504, "ĠOf": 1869, "Ġenvironment": 1337, "patch": 22490, "ĠÃ¶": 78992, "iger": 17883, "()ĊĊ": 3760, "Format": 6017, "roups": 37121, ".se": 21910, "<div": 5918, "ils": 4987, "Ġprevious": 1429, "Ġworks": 789, "Ġhon": 18539, "Ġtrab": 96201, "Ġconse": 62525, "Ġoverride": 5603, "Ġvarious": 1034, "Ġprop": 7278, "ivery": 45846, "PS": 3603, "Player": 8517, "Ġdevice": 1394, "Ġrender": 5892, "Ġwr": 12973, "gn": 14039, "aily": 38590, "Connection": 6886, "Bl": 8719, "CK": 11671, "aciones": 40560, "ditions": 93176, "ached": 12136, "vas": 27933, "Ġhi": 15679, "iden": 12307, "etwork": 51501, "Ġnd": 23655, "áº§": 118993, "Ġhttps": 1741, "rodu": 66930, "ÉĻr": 96001, "ĠWorld": 1194, "Ġaccept": 3063, "Gener": 35868, "Task": 6360, "ĠJohn": 1363, "Ġregister": 3446, "Ġexpected": 1053, "oor": 19465, "_file": 4260, "ĠSub": 3735, "Resource": 5838, "phone": 12358, "Ġprofessional": 1355, "ako": 25328, "ë©": 25872, "Ġterms": 1283, "essages": 56667, "Filter": 5536, "lood": 26373, ".user": 9683, "IZE": 23442, "ĠRed": 2058, "ulo": 26580, "Ġenergy": 917, "ald": 8293, "When": 724, "Ġblack": 1036, "Ġperm": 16050, "itude": 11277, "ption": 26252, "idos": 26972, "Ġep": 11966, "Ġlimit": 2506, "enda": 22355, "ĠSm": 8690, ".V": 9012, "ĉd": 128495, "roy": 17206, "{{": 3897, "Ġnaar": 74995, "Search": 5466, "gan": 13544, "uses": 6870, "Ġparent": 2583, "Ġwent": 703, "Ġstep": 1013, "ĠNews": 2067, "Ġgeneral": 1058, "wner": 98280, "Ġcustomer": 1375, "///": 14020, "ĠaÃ°": 91465, "\\\\": 1460, "Ġchall": 76079, "Eng": 24623, "lib": 4826, "Location": 5986, "Provider": 5553, "Ġcolumn": 3040, "ĠCent": 12160, "æ±": 16443, "KE": 12199, "rel": 6266, "Ġcompanies": 977, "ç¬": 14639, ");čĊčĊ": 129995, "Ġprovides": 1166, "Ġtypes": 1328, "iner": 7105, "Ġformat": 2076, "jet": 19203, "II": 8772, "Ġsugg": 93265, "width": 2890, "Ġserver": 1510, "Ġengine": 2346, "sv": 13978, "Ġdass": 41629, "Ġpen": 6940, "Ġsel": 35382, "gle": 13348, "ĠAug": 6031, "Ġmember": 1253, "Ġcustomers": 1007, "ĠWest": 1462, "Ġcontr": 21503, "acity": 18413, "Ġek": 49286, "attr": 8919, "client": 7888, "light": 5137, "eli": 11873, "Ġdiffic": 101092, "ĠPa": 9475, "ĠOut": 3963, "udi": 19038, "ç®": 12666, "Ġ]": 3602, "Top": 5556, "Ġearly": 816, "ĠPlease": 1801, "Ġweight": 1310, "tributed": 39090, "Ġdim": 10448, "Ġanswer": 991, "ello": 9732, "Ġidea": 774, "Ġterr": 19004, "Ġhier": 40052, "Ġgovernment": 773, "ĠApr": 11274, "ĉp": 128320, "Ġwhole": 818, "status": 6142, "Down": 8439, "undo": 39392, "Ġtook": 711, "iler": 13114, "#if": 16321, "ĠDon": 2514, "abs": 6249, "åĢ": 10264, "env": 8372, "ĠCopyright": 5383, "xy": 10689, "Ġnormal": 1564, "Ġindic": 74011, "plac": 68737, "#endif": 6338, "ĠSome": 1385, "Ġ*)": 9392, "Ġreading": 1175, "Ġissues": 827, "Ġpassword": 3601, "ried": 9174, "'ll": 7255, "Ġcut": 1111, "Ġapply": 1516, "ns": 4731, "(const": 5247, "Ġreceived": 1230, "Ġexpress": 4184, "(M": 6785, "address": 10892, "120": 2837, "Ġbeautiful": 1151, "Ġsuggest": 2948, "inen": 24034, "Ġcoll": 10739, "orte": 34849, "oria": 12223, "aker": 5707, "views": 15357, "Ġmel": 15928, "ĠEd": 5849, "Ġneeded": 909, "Ġ+Ċ": 5179, "'.": 4753, "tributes": 44841, "Ġevents": 1071, "Types": 5760, "Ġ[]": 6091, "Ġ],Ċ": 5386, "qual": 17285, "output": 6606, "()->": 5361, "omain": 46552, "Ġfi": 12271, "Description": 5504, "ĠHome": 2715, "Ġanything": 680, "........": 15680, "255": 4014, "icip": 41288, "Ġcorrect": 1814, "TER": 14519, "Ġonder": 93219, "Ġtraining": 936, "Tag": 7047, "Ġ[âĢ¦": 90611, "Ġsy": 14242, "áģ": 96197, "ĠCre": 14284, "Ġswitch": 2338, "ITY": 18264, "ums": 6750, "Ġregard": 7992, "level": 11602, "tty": 27232, "ffer": 26292, "Ġtaking": 817, "Ġdelete": 3785, "é¦": 40428, "Ġcenter": 1376, "Ġgi": 51161, "ĠPe": 5795, "Ġdraw": 2766, "ĠYork": 1282, "Ġnous": 42463, "Ġseen": 738, "ĠAND": 2997, "Ġinternet": 2065, "ë¶": 38792, "(S": 5554, "_str": 6151, "ĠReact": 7216, "ĠTV": 1476, "Case": 5408, "Ġscreen": 1469, "-M": 2803, "emos": 36423, "acht": 34413, "rowser": 74028, "Frame": 5695, "rt": 11433, "Ġperformance": 976, "Ġamong": 1142, "now": 6666, "ieren": 38766, "anced": 13975, "Dec": 10886, "istic": 3684, "ĠCheck": 2682, "Ġsing": 7140, "Ġlang": 15079, "Ġwonder": 3121, "ĠJust": 1455, "(false": 8788, "Ġprior": 2796, "éĺ": 19969, "ipment": 61882, "Ġtag": 3319, "riend": 48806, "Ġsession": 2038, "Ġinterface": 2750, "ILE": 24807, "Ġ*/čĊ": 129848, "ibil": 64153, "bs": 4820, "block": 5037, "51": 2954, "Ġimpact": 1538, "Ġwww": 6875, "Ġremove": 1757, "igo": 12906, "_url": 5718, "anner": 14744, "Äĵ": 57757, "Ġ**": 1145, "untime": 71241, "Items": 8756, "msg": 8731, "Ġauth": 13837, "Ġnatural": 1263, "gi": 11155, ".io": 3388, "Ġkann": 46911, "Ġrate": 1091, "åŁ": 18304, "DA": 5287, "Ġpriv": 26336, ".H": 7555, "Ġrap": 12808, "IST": 8270, "aven": 6811, "æĻ": 20707, "ĉt": 128598, "ounter": 35943, "Ġloss": 1354, "ĠEurope": 2425, "á»Ł": 103394, "Oper": 44802, "bor": 22346, "(a": 4113, "ĠÃ¨": 33175, "then": 4879, "Am": 6859, "oj": 14991, "ĠAcc": 11317, "Ġvotre": 48343, "Ġbuilding": 872, "52": 2811, "Ġcannot": 1115, "ras": 12679, "Ġfeature": 1312, "Ġintegr": 20341, "================================": 7821, "Ġactual": 2077, "Ġfiles": 1290, "ë¬": 41923, ").Ċ": 362, "issions": 32642, "adu": 22969, ".label": 15918, "hl": 10286, "Ġrelationship": 1604, "icos": 31301, "asta": 24055, "Output": 5418, "ĠAfter": 1161, "Ġsec": 14670, "chema": 37706, "imento": 58543, "ULT": 31577, "ÅĦ": 50579, "adem": 30870, "ĠReturn": 8328, "-st": 4466, "Ġopp": 18209, "ëĿ": 34250, "Ġinit": 7007, "host": 9828, "with": 2019, "(value": 6713, "ago": 10018, "-r": 3941, "Ġtro": 16391, "(true": 8096, "Ġtechnology": 1103, "Ġbrand": 1358, "kin": 5767, "âĢĿĊĊ": 57616, "pc": 6589, "Ġê²": 24578, "Ġcommand": 1992, "UG": 12939, "ided": 7309, "Te": 11260, "Ġvoc": 55681, "Ġexact": 3629, "Ġcomfort": 4013, "Ġbackground": 1436, "ober": 29389, "MS": 3908, "edit": 7513, "Ġplatform": 1641, "Rel": 17801, "Ġgrand": 4794, "ellen": 27522, "Ġimplement": 4360, "heet": 14447, "Ġworden": 67916, "Ġpercent": 1231, "alle": 16427, "izes": 6243, "\"\"": 3510, "Ġhotel": 2275, "Ġhalf": 845, "Card": 7835, "Ġsig": 19104, "\"/": 15005, "ÃŃs": 71110, "kom": 39678, "Ã©d": 50574, "Ġexcept": 2188, "Ġsen": 22514, "Ġselected": 2356, "ĠHot": 7168, "Auth": 11512, "Ġpan": 3773, "Ġwords": 1088, "Ġcomponent": 3022, "Ġrights": 1912, "Ġresol": 46985, "ĠPres": 11718, "izing": 2371, "odo": 20998, "ĠEvent": 5679, "Ver": 16707, "Ġpi": 17240, "Ġliving": 1165, "acion": 21457, "Ġconditions": 1441, "Ġtravel": 1501, "Ġmanagement": 1045, "ĠPark": 1524, "ä¾": 10568, "POST": 9200, "Ġseu": 57714, "vision": 12628, "Br": 5766, "Ġbelieve": 851, "_time": 5923, "Ġsites": 2072, "Ġfoot": 2828, ".assert": 4479, "ĠTrue": 3756, "ĠST": 5193, "rs": 8862, "ĠEnd": 3852, "Ġlanguage": 1343, "ership": 14414, "Ġreceive": 1401, "ROM": 26606, "Server": 4849, "Ġclaim": 2590, "Ġdog": 1555, "Open": 4884, "Window": 6868, "Do": 1744, "player": 15951, "Ġpotential": 1244, "Ġfire": 1445, "ĠĠĠĠĠĠĠĠĠĠĠĠĠĠĠĠĠĠĠĠĠĠĠĠĠ": 101615, "ĠGre": 10807, "Ġstaff": 1061, "dir": 8182, "Ġnog": 68955, "though": 14854, "Ġwhite": 1081, "Ġsimply": 1123, "Ġ${": 2836, "Stat": 20602, "Ġveh": 55628, "Ġfive": 832, "fs": 4463, "section": 2253, "tries": 24288, "á¹£": 73118, "Ã±o": 37613, "Ġesta": 46448, "aria": 10073, "}}": 603, "ismo": 54669, "Thread": 8397, "enta": 17477, "inner": 10967, "efore": 70366, "Ġill": 5984, "-to": 1323, "gest": 24980, "igin": 65445, "Ġkar": 28228, "translation": 23322, "ĠService": 2131, "ety": 20518, "ERT": 15614, "Ġdescription": 2733, "airs": 18042, "Max": 5938, "uni": 19288, "ĠOct": 4766, "oph": 4839, "tex": 10531, "ĠPort": 5605, "Ġmut": 9874, "esta": 26862, "Ġentire": 1374, "Ġhol": 15376, "ori": 7264, "Ġ\"\\": 4947, "Level": 6642, "196": 2060, "bit": 5976, "Ġdro": 16372, "Ġ.ĊĊ": 16847, "ursor": 68564, "Ġtodo": 33099, "Ġcasino": 8289, "Ġju": 22577, "Ġeveryone": 819, "ĠHer": 2738, "alo": 11387, "ĠSw": 5639, "ptember": 91198, "iso": 19643, "_get": 6101, "Ġconv": 14507, "ĠDef": 9583, "ĠAp": 9189, "Ġbud": 21972, "alls": 12436, "Ġnou": 83584, "Ġdifficult": 1378, "ĠSE": 7086, "Ġfurther": 980, "omet": 20764, "Ġstock": 1909, "ĠNow": 1267, "izar": 39930, "find": 6922, "Ġger": 32206, "Ġwird": 32596, "icrosoft": 17231, "-g": 3152, "ĠStud": 36246, "Length": 6658, "Ġdeze": 74307, "Ġ'@": 10529, "Ġdecl": 32525, "Ã¡l": 45383, "istry": 21594, "Ġ~": 3268, "Ġnas": 38197, "Current": 6934, "Ġroot": 2850, "Ġgam": 24385, "click": 8572, "Bo": 14026, "AGE": 15274, "_E": 9116, "ĠCreate": 3840, "ĠSchool": 1264, "coming": 10592, "Ġemb": 16906, "(id": 9562, "Ġsaf": 30391, "igt": 43969, "Ġvir": 29232, "ellent": 50363, "ham": 3825, "lem": 8589, "ĠHigh": 1907, "Params": 7396, "ĠZe": 15432, "uw": 20124, "Ġts": 14910, "Ġtoken": 3670, "itting": 6367, "aste": 11096, "ABLE": 14111, "Ġord": 21973, "istory": 58194, "ĠSan": 1988, "ĠInteger": 10374, "à¬": 128679, "ĠSol": 6983, "'est": 41592, "('/": 8391, "ĠMus": 14146, ",'": 4018, "ĠMa": 6197, "Email": 9666, "Ġadditional": 1341, "DF": 6814, "ĠAir": 2797, "Ġissue": 731, "Game": 8453, "iene": 54397, "Ġchanges": 955, ".annotation": 13845, "Web": 5591, "Ã©g": 55769, ".\"ĊĊ": 7652, "ije": 64607, "Ä±r": 63382, "\"));Ċ": 8705, ";ĊĊ/": 8226, "Adapter": 10697, "_ID": 6361, "oder": 19834, "·¸": 30846, "_DE": 23550, "aren": 27053, ">();Ċ": 11778, "Ġhan": 53853, "imm": 11560, "Ġpaper": 1189, "Ġcele": 53682, "æĦ": 18602, "SP": 4572, "*Ċ": 5334, "/d": 2991, "Ġincludes": 1261, "cher": 9842, "Ġga": 24029, "see": 2875, "sem": 16445, "weet": 16866, ".ap": 29568, "ERS": 6971, "anning": 12186, "Ġyourself": 947, "Ġsua": 59892, "ĠPat": 6572, "offset": 16462, "Lo": 16896, "last": 6717, "800": 2917, "Ġmarketing": 1495, "Ġforward": 1022, "ĠTime": 2521, ".next": 11058, "Ġfilter": 3088, "pg": 10977, "Ġmir": 25714, "enses": 21261, "æĮ": 10941, ".state": 9698, "Ġtaken": 969, "Ġcontract": 2280, "Ġ\"/": 5263, "Ġtrying": 739, "idge": 16045, "Json": 7379, "Ġconnection": 1949, "Ġtech": 4186, "Ġbab": 40845, "Ġses": 39911, "igher": 43287, "Ġcrit": 22193, "actions": 16186, "Min": 8818, "Ġbill": 2858, "osed": 18148, "Ġrefer": 5260, "Ġaz": 19053, "600": 3080, "lose": 49601, "lik": 26736, "Record": 7480, "sten": 24474, "Ġareas": 1099, "_key": 6093, "Ġactive": 1794, "Ġhowever": 1121, "Unit": 7373, "Ã¸r": 71425, "Ã¤nd": 88524, "ĠfÃ¶r": 33931, "54": 3084, "_value": 5337, "ĠÅ¡": 82144, "ĠStates": 1525, "bi": 6503, "Equals": 6300, "ointer": 65515, "Ġinde": 33417, ".Name": 10597, "ĠNational": 1154, "_info": 5946, "Password": 10425, "éĴ": 30693, "dev": 5461, "Ġquite": 879, "Ġreserv": 53739, "Ġ};ĊĊ": 6162, "ĠÄį": 85233, "Ġensure": 1192, "AND": 8006, "ĠServ": 19048, "Ġstudent": 1573, "Ġborder": 2020, "âĸ": 40883, "yes": 7150, ".write": 7497, "Ġmode": 2049, "96": 4627, "Ġsimilar": 1038, "Ġinside": 1064, "Ãªtre": 107431, "Ġeinen": 46541, "cing": 10488, "\"><": 2355, "Ã©l": 49003, "Ġsoon": 1002, "CA": 3845, "Ġdal": 40127, "(\"#": 28721, "Ġtom": 19549, "Ġwor": 67599, "Ġalmost": 906, "Ġrunning": 876, "ĠCount": 13077, "Ġfinancial": 1278, "Ġsepar": 38069, "Â°": 9862, "ĠTH": 10735, "})Ċ": 9225, "Ġboard": 1296, "lam": 13265, "53": 3147, "ĠSouth": 1152, "('#": 26307, "gar": 10522, "pected": 36781, "Ġplant": 2015, "Ġdoc": 7859, "Ġax": 8150, "aves": 6824, "Ġmodern": 1917, "ç¨": 12272, "udo": 25076, "Ġ\",": 7268, "Ġ\\Ċ": 3011, "ĠEnt": 25620, "Entry": 6749, "Application": 7032, "87": 5175, ".png": 2764, "Ġcurrently": 1051, "ĠColor": 7301, "ĠWork": 4389, "uli": 15637, "endar": 60831, "ç¤": 13556, "_A": 6806, "car": 6774, "Ġfan": 2135, "Ġ>>": 6052, "Ġwaar": 97454, "oz": 8248, "ĠWill": 2833, "Ġsv": 33525, "Ġera": 6603, "âĢĻest": 61848, "æĴ": 47770, "Ġproblems": 1006, "CTION": 35576, "Ġtab": 4027, "opping": 13521, "anga": 14943, "ëŀ": 32449, "£¼": 42347, "ĠException": 7377, "Ġflex": 6976, "Ġ<!--": 5283, "Ġstream": 3254, "Ġful": 61910, "empty": 7582, "íĻ": 38710, "ç±": 13606, ".Data": 8960, "akes": 4708, "Ġë§": 30320, "hem": 9626, "bon": 13631, "Ġnur": 41878, "(\"/": 11692, "vest": 18981, "Ġprem": 42893, "Ġcredit": 1578, "ĠÅ¾": 94737, "Ġmuit": 121755, "tx": 13994, "}>Ċ": 17220, "Ġjed": 75746, "ERE": 26310, "Ġded": 27270, ".view": 12836, "Ã¡c": 85935, "Rem": 17800, "Ġdesigned": 1349, "Ġoffice": 1065, "hib": 31917, "ĠNa": 9552, "uda": 15310, "ĠRem": 7693, "æĽ": 14197, "Function": 6458, "ban": 12717, "Ġtemplate": 3427, "igger": 30256, "container": 9249, "ifi": 22400, "Ġlatest": 1294, "ĠBest": 2708, "pare": 67127, "adius": 70177, "afe": 17006, "Book": 6027, "ĠUI": 7375, "iting": 5858, "ahr": 35181, "Work": 7702, "tml": 93075, "ĠOnline": 4604, "250": 2998, "Ġthird": 998, "çĤ": 14054, "hu": 9829, "items": 15815, "peed": 33221, "Ġfamil": 88861, "Ġinsp": 81608, "Ġbank": 2207, "ev": 9054, "Ġtodos": 48858, "Ġaqu": 24542, "Ġfem": 35177, "Ġsab": 35169, "can": 4809, "Ġlower": 1305, "(v": 5967, "Ġsignificant": 1835, "selves": 98075, "osa": 10184, "Init": 11906, "otype": 21557, "èģ": 29741, "Ġnothing": 934, "Session": 7813, "Ġeffort": 2128, "ĠHet": 55026, "Ġtakes": 1033, "Last": 2535, "ĠNS": 10849, "ĠBook": 3659, "Ġregular": 1568, "Ġfill": 2455, "rapper": 78213, "Ġheeft": 91224, "Ġcompr": 84912, "Ġbin": 6298, "Ġmid": 2308, "Ġlikely": 923, "??": 8258, "king": 7805, "Ġfra": 28765, "Ãªncia": 80331, "Parameter": 7661, "Ġtold": 788, "-S": 2357, "isse": 30789, "Ġtour": 2549, "Ġusually": 1095, "ĠìĹ": 25727, "quence": 43323, "++;Ċ": 9737, "Ġready": 1160, "core": 7450, "Ġhac": 90538, "Ġespecially": 963, "Ġmsg": 6905, "Ġgew": 80627, "çĦ": 24047, "Ġways": 1073, "cry": 34055, "ĠAc": 7625, "Ġáŀ": 90754, "och": 10631, "pm": 1357, "uv": 9868, "isation": 5379, "fin": 15705, "icient": 59700, "Ġorganiz": 89177, "eler": 15593, "Args": 8338, "Ġdeliver": 3123, ".net": 4451, "Ġib": 22183, "ĠType": 3174, "çŃ": 16198, "node": 4733, "ĠFacebook": 1825, "bers": 12512, "fil": 20986, "uta": 23592, "ALL": 10390, "Ġrestaur": 71096, "Ġrecommend": 1798, "(T": 6680, "Ġmodels": 1901, "Av": 18720, "ĠAnt": 6032, "Collections": 52705, "ĠGame": 3522, "Ġstandard": 1471, "adata": 67534, "CR": 5785, "Ġrequ": 57717, "ĠLes": 11893, "register": 17404, "Ġrisk": 1237, "while": 12578, "ithub": 45023, "awa": 10098, "Ġ\"\"\"Ċ": 4242, "Ġprobably": 777, "Ġparams": 6281, "pha": 47050, "Ġ'/": 7368, "Ġreviews": 2652, "íĬ": 24648, "images": 8583, "ĠkÃ¶n": 115615, "ĠĠĠĠĠĠĠĠĠĠĠĠĊ": 96328, "Ġmanufact": 91452, "ischen": 55458, "(!": 9852, "Ġagre": 101664, "_x": 4481, "Ġtar": 16250, "Ġdigital": 1623, "Ġcondition": 1926, "efined": 91188, "ĠSoc": 21796, "apa": 20513, "Ġincrease": 1049, "Ġaccording": 1046, "ĉString": 130045, "nÃŃ": 59089, "IA": 4317, "iding": 7988, "*/Ċ": 9830, "Ġentr": 24665, "Ġcause": 1185, "ĠTw": 12232, "Interface": 7200, "ĠInc": 2587, "Phone": 2937, "atas": 27778, "ĠÃ¥": 74360, "arth": 11958, "Mon": 10686, "tribution": 20322, "amily": 35432, "(pro": 29061, "verse": 11081, "Ġvez": 66433, "Ġtut": 46315, "Version": 4626, "Ġplac": 27425, "avigation": 70462, "ĠDel": 6678, "ĠDay": 1515, "Ġsection": 1379, "Ġhit": 1052, "ctx": 15306, "Ġlov": 28034, "mos": 17287, "Ġ(\"": 5281, "ĠHand": 9456, "Ġfail": 4046, "Api": 7356, "Ġìĭ": 29199, "FT": 8798, "ĠNOT": 2570, "Ġsong": 1924, "Ġtransform": 5077, "(get": 10185, "mbly": 103012, "Obj": 8618, "_se": 21090, "Ġknowledge": 1497, "iny": 13069, "ĉbreak": 128605, "First": 2542, "alar": 31586, "ourse": 31364, "enge": 50962, "aki": 9016, "Ã±os": 73734, "rest": 8444, "Ġapproach": 1454, "angle": 3021, "Ġmobile": 1774, "Ġproduction": 1413, "Ġbag": 2613, "\";čĊ": 129858, "_user": 7765, "oding": 16033, "Ġlie": 6117, "Ġhappy": 1056, "adores": 48197, "Details": 8482, ".To": 10196, "INT": 10282, "Ġsales": 1331, "heid": 45002, "Ġchoice": 1351, "merc": 69139, "Ġfab": 28819, "Å±": 80854, "Ġyou're": 866, "Ġconsum": 51773, "Ġmatter": 1031, "holder": 20955, "Ġcouple": 1019, "Ġrelated": 1386, "ĠRob": 5638, "dule": 97744, "Reader": 7617, "ĠÅŁ": 83400, "Helper": 8103, "emp": 15393, "Ġfo": 13397, "Ġrecent": 1188, "ĠNorth": 1313, "Ġdefinit": 53553, "avi": 13078, "à¬Į": 128852, ".txt": 6583, "Ġbooks": 1412, "ĠPM": 2168, "86": 3481, "ĠMod": 9942, "ikk": 27030, "(user": 13113, "emo": 22390, "tras": 24565, "apan": 38157, "Tool": 13892, "Ġwanted": 928, "btn": 7428, "Ġsecurity": 1204, "Ġbis": 26173, "src": 4807, "ĠWindows": 1831, "è¶": 28323, ".read": 7211, "Process": 9959, "iko": 14804, "imi": 16677, "byte": 9155, "ĠFrom": 1793, "Ġestab": 97009, "ĠAM": 2912, "values": 10432, "Ġsubs": 12695, "Ġru": 17332, "ĠSl": 6046, "ĠMet": 8156, "Ġdise": 66806, "Ġfoi": 66237, "Ġdrug": 2994, "UB": 9513, "sets": 9973, "ches": 7996, "Body": 7682, "Ġplayers": 975, "'),Ċ": 3654, "Ġimm": 20790, "Ġ<?": 9699, "atar": 22759, "Ġyo": 25300, "Ġcoming": 913, "Sl": 14435, "Ġamaz": 45145, "ĠCenter": 1560, "eline": 8789, "Ġentry": 2112, "sch": 14823, "auto": 9504, "_col": 19359, "Ġreq": 8846, ".parse": 8766, "Ġaj": 52139, "(err": 8079, "Ġpretty": 758, "Ġdesc": 15903, "Ġhigher": 1120, "Ġmeer": 77019, "ĠMath": 5794, "Ġpublished": 2083, "irit": 51580, "Ġbol": 21995, "ì²": 38275, "ospital": 63226, "ĠFeb": 5811, "ining": 6261, "Ste": 13814, "ishing": 5353, "uster": 11101, "ĠFound": 11283, "Ġpero": 52898, "raint": 62316, "Engine": 9501, "-up": 1552, "bum": 36791, "echo": 9990, "nb": 15329, "atory": 4614, "PT": 6591, "Ġframe": 2615, "ening": 4201, "chan": 18263, "ëª": 45555, "Account": 9241, "ĠHere": 1722, "');ĊĊ": 7246, "Ġaltern": 30334, "next": 7060, "Ġofficial": 1976, "Ġpurchase": 1810, "kr": 15296, "ĠName": 4044, "Store": 6569, ".col": 31812, "lice": 22750, "Ġgas": 2028, "ekt": 58809, "Access": 6911, "Ġvel": 26595, "ÃŃn": 42244, "Ġig": 35154, "aling": 7566, "ead": 27210, "Ġprevent": 2221, "empl": 47712, "Ġsun": 2704, "ĠProgram": 3744, "Ġris": 27886, "temp": 13853, "'ve": 8628, "Ġmachine": 1818, "ĠMap": 5332, "Ġvirtual": 2623, "_SIZE": 11278, "orge": 28215, "PC": 5743, "Ġsound": 1321, "rown": 11324, "Ġround": 1542, "ĠWH": 20404, "Widget": 11374, "Ġsale": 2247, "etime": 23393, "Ġincluded": 1437, ".status": 10242, "Ġparty": 1159, "Ġprefer": 3206, "Ġnoch": 67173, "ITH": 27868, "acks": 6414, "()čĊ": 128483, "Ġtur": 17061, "ads": 5592, "Ġconcern": 4374, "Ġabsol": 62146, "idas": 36381, "ACK": 15240, "Ġreturns": 2819, "ASS": 15138, "Ġeiner": 43117, "ĠInternet": 3002, "Ġtouch": 2095, "ensor": 16744, "));ĊĊ": 7491, "Ext": 13498, "dom": 12020, "Ġarch": 9752, "ÄĹ": 76042, "arter": 22066, "}</": 13049, "Ġinvestig": 79467, "only": 8858, "tag": 7333, "Ġoil": 1191, "ideos": 53140, "Ġshows": 1029, "inition": 43902, "asc": 13133, "ensions": 24602, "Ġpel": 28406, "Ġnice": 989, "Ġzum": 45996, "Ġci": 31769, "Ġprogress": 2503, "Ġtemper": 22891, "_tr": 13642, "Ġlonger": 1118, "Ġmai": 53575, "-Ċ": 3854, "quare": 37664, "oni": 8811, "Ġresources": 1627, "Price": 9302, "enden": 33152, "(w": 9187, "ìĨ": 39496, "adh": 15750, "=$": 10599, "geb": 49558, "Ġ/**": 8734, "ĠEX": 9633, "Ġsix": 1170, "Ġkr": 26368, "BA": 5143, "Ġpain": 1719, "ptr": 12486, "oko": 18285, "Ġsell": 1954, "styles": 21683, "é»": 25187, "ournal": 45057, "Ġparte": 59061, "ĠÃ®": 88627, "oring": 6183, "Ġfol": 22709, "ague": 17275, "Ġtreatment": 1477, "Ġweeks": 999, "`Ċ": 2079, "ĠProduct": 6528, "duc": 28180, "LL": 8771, "ares": 11464, "ë²": 32540, "Category": 10229, "Ġesp": 27024, "ĠsÃ©": 82768, "prise": 35235, "alia": 15532, "Ġgraph": 4938, "iser": 8116, "ictionary": 45041, "otion": 19521, "Ġeinem": 52869, "Left": 7797, "Ġfait": 50330, "Ġ-->Ċ": 4837, "ailed": 19345, "Ġnote": 1670, "ARR": 27456, "89": 5039, "wise": 10625, "fol": 41044, "acional": 87911, "auf": 46034, "esc": 16753, "Ġclients": 1700, ".core": 7239, "Åł": 82309, "wi": 18156, "Ġmenu": 2485, "Ġimages": 1806, "yy": 22984, "'ĊĊ": 7114, "Selected": 12144, "area": 18365, "Ġheld": 1198, "Ġannoun": 53580, "bug": 17685, "Ġhaben": 55860, "iche": 17868, "Ġsystems": 1324, "Ġdrive": 1315, "Ġtor": 15836, "ango": 20631, "Ġ);ĊĊ": 7066, "180": 3608, "Ġhun": 32876, "Ġlearning": 1173, "Ġrandom": 2744, "ĠUR": 29496, "Ġgest": 30902, "_con": 14923, "Ġcontinu": 62519, "ilo": 17523, "\":\"": 5671, "_count": 6825, "Ġhy": 21815, "Ġviol": 31294, "Ġoutside": 1077, "ĠAv": 9422, "Ġrather": 1055, "Ġinternational": 1643, "Ġanyone": 914, "esso": 69761, "inst": 16248, "Ġforma": 54403, "Ġworth": 1164, "BC": 4418, "éĥ": 18670, "enz": 14049, "aks": 9465, "eto": 16684, "false": 8337, "Ġupon": 1673, "ests": 8145, "Ġcalcul": 43946, "ĠMarch": 1292, "Ġpolicy": 1607, "ĠSoftware": 4602, "Ġlocated": 1508, "anuary": 44648, "Ġintrodu": 87115, "\\u": 4379, "flow": 7651, "Press": 4721, "Ġãĥ": 18818, "Ġaud": 15202, "Ġsolution": 1182, "Ġfaz": 71626, "Vector": 8430, "Ġdistributed": 3640, "Ġwritten": 1498, "Ġvert": 35920, "Ġ?>": 19414, "lang": 12453, "Ġfacil": 50405, "ography": 5710, "onder": 25354, "ì¹": 42402, "jes": 47893, "ĠHar": 5632, "istics": 19825, "dy": 8575, "bed": 3716, "Ġcomputer": 1540, "Ġmultiple": 1266, "Ġ++": 6450, "aman": 10123, "Ġ^": 5227, "vector": 7161, "amera": 55537, "xx": 10020, "aly": 11026, "INE": 11937, ".query": 10918, "ady": 12513, "/b": 3537, "password": 9381, "ĠBlack": 1903, "imary": 103566, "ynamic": 30259, "hol": 15094, ".sub": 16159, "Ġconfirm": 5627, ".Ċ//": 9857, "++)Ċ": 10501, "ĠFOR": 5629, "nav": 8027, "Ġreach": 1633, "price": 16142, "Ġhij": 26006, "agram": 24024, "123": 4660, "Ġmens": 48393, "íĺ": 41384, "Å«": 44908, "Ã§o": 75705, "atisf": 31213, "nie": 11539, "Ġnem": 39627, "itu": 27297, "ĠInst": 18339, "á»©": 101954, "\"),": 6990, "Ġnt": 33497, "ĠUse": 2505, "Configuration": 7012, "Pol": 18825, "IE": 7173, "ĠApril": 1406, "Route": 9477, "ĠâĢ¢": 4502, "001": 4335, "ungs": 31926, "ĠEN": 11133, "Ġinstead": 984, "raf": 16355, "Ġleave": 1087, "':Ċ": 7990, "Ġunit": 1893, "END": 10037, "102": 4681, ".Set": 9875, "Que": 29994, "Ġei": 51519, "?.": 8151, ".json": 5914, "ees": 16690, "Ġappear": 2276, "TP": 10691, "Ã¤l": 76972, "Ġfeed": 3628, "riteria": 83911, "card": 5683, "Ġpropos": 79535, "OST": 23575, "Ġsan": 37474, "ountry": 60509, "ĠĠĠĠĠĠĠĠĠĠĠĠĠĠĠĠĠĠĠĠ": 93434, "location": 12877, "ĠcÃ³": 66719, "Next": 3453, "Ġcette": 43364, "Ġrele": 64026, "Ġwordt": 73230, "Local": 6522, "Ġdia": 50194, "eno": 12264, "Ġsafe": 1377, "Ġtransport": 4307, "ĠÃ¤r": 59462, ".apache": 4843, "ĉčĊ": 129698, "ayment": 53058, "Ãģ": 64081, "Cal": 12439, "eh": 12596, "Ã¢n": 78616, "inar": 26104, "cu": 14634, "NU": 26563, "ĠEnglish": 1287, "FO": 13770, "itchen": 58425, "XX": 13260, "main": 4954, "Ġ=Ċ": 4911, "Ġspeed": 1588, "å§": 20391, "rupt": 31424, "Ġ$_": 12261, "~~": 16619, "Ġground": 1529, "first": 5451, "ĠIt's": 882, "Ġkids": 1096, "irection": 44135, "Ġasked": 1014, "_index": 6313, "Ġlegal": 1797, "Ġbul": 23277, "ERROR": 14525, ".Collections": 14046, "adr": 18074, "Ġul": 12987, "Ġadministr": 56796, "Ġassist": 3596, "Ġvac": 22893, "ĉĠ": 115901, "akan": 37293, "ĠAfr": 56838, "Ãºn": 77204, "login": 14187, "Op": 9282, "79": 5204, "Ġnational": 1577, "Ġcelebr": 50816, "ĠÃ½": 99428, "ĠFin": 10653, "ellow": 17740, "Ġmedical": 1543, "ederal": 68247, "mercial": 88624, "arden": 16095, "ĠÄ": 84235, "ĠDesign": 4154, "ĠAustr": 71449, "pack": 10139, "ĠOpen": 2344, "urrency": 42495, "ĠLong": 3473, "(g": 7901, "ĠHis": 1591, "tocol": 51989, "Ġapr": 22397, "oub": 23562, "Settings": 7331, "Ä±nd": 103621, "Å³": 85138, "GET": 9615, "ĠThen": 1260, "esch": 48675, "æį": 8967, "Red": 8194, "Ġbehind": 1037, "[:": 8174, "Ġrom": 21138, "âĢĿ.": 3315, "âĻ": 41892, "hood": 9246, "nder": 53701, "ĉSystem": 129723, ".*": 9510, "plete": 39223, "Found": 9123, "Ġrecogn": 23895, "icha": 50169, "Ġà·": 89533, "CP": 5481, "ĠMal": 5834, "ĠHouse": 1659, "=True": 5571, "float": 7688, "Ġtit": 29072, "ĠSi": 13030, "GL": 6467, "Storage": 8479, "Ġeasily": 1265, "ĠFre": 11608, "è¨": 16552, "ipl": 19672, "Ġproced": 76577, "hold": 12674, "ĠJune": 1368, "Ġlate": 1314, "Ġflow": 2585, "zu": 24355, "ajo": 53296, "Ġaverage": 1308, "ĠGroup": 1965, "Ġeducation": 1485, "ĠSal": 6784, "LECT": 52763, "è°": 18890, "ĠGo": 2634, "ĠDirect": 10249, "edi": 17802, "Ãŀ": 95144, ")ĊĊĊ": 122353, "Ġdatabase": 2611, "-e": 5145, "ĠBro": 9628, "Ġideas": 1612, "195": 2806, "Ġnature": 2138, "Ġopportunity": 1332, "ifest": 46566, "Ġskills": 1366, "cm": 3364, "Rect": 13099, "ĠMag": 7563, "Ġspr": 7890, "Ġmaterials": 2078, "Ġthroughout": 1491, "Ã¼ck": 79964, "inda": 14581, "ecur": 80456, "Ġball": 1791, "Ġparts": 1480, "Ġnorm": 11088, "Ġimag": 41487, "Ġcha": 31666, "iza": 19362, "grid": 12354, "Ġcomments": 1570, "ĠvocÃª": 48049, "Target": 7400, "Ġseems": 907, "ono": 13200, "Ġtill": 4703, "amin": 14408, "ĠANY": 5433, "[j": 10169, "RA": 6154, "Sign": 10717, "Ġaffect": 3338, "ilder": 36847, "illed": 10826, "Ġicon": 4423, "Ġpaint": 3464, "Ł¥": 14687, "ĠSk": 5320, "Ġcases": 1183, "blic": 98183, "length": 8733, "oday": 49381, "Ġcollect": 4740, "ĠTO": 3877, "Each": 3822, "110": 4202, "ĠHol": 10923, "imation": 25988, "ĠHealth": 1840, "That": 1179, "('.": 15828, "ĠKey": 4414, "Ġallows": 1364, "Ġstorage": 2212, "Long": 6327, "ĠOver": 3858, "Ġmethods": 2026, "ĠMc": 1086, "Ġcharg": 41549, "Ġproper": 2840, "Ġcandid": 27091, "æº": 25582, "ĠAugust": 1845, "icket": 15434, "Our": 1533, "But": 664, "icker": 13751, "ceed": 38994, "(str": 11430, "76": 4714, "itation": 9159, "ĠâĤ¬": 7360, "avy": 14222, "vey": 19436, "ĠMain": 5087, "aje": 42940, "101": 3946, "Project": 7212, "Ãªme": 94784, "entry": 9949, "anya": 22017, "Ġzur": 48683, "UD": 10750, "Ġsein": 61654, "Ġregion": 1749, "Ġvariety": 1773, "inger": 7030, "Ġcomme": 47997, "ĠStart": 5280, "ĠSim": 9257, "'))": 12698, ".map": 9075, "sql": 12833, "graph": 9049, "ĠImage": 6100, "Ġ;Ċ": 10061, "band": 11091, "ĠFalse": 5241, ".remove": 10497, "Ġskin": 1428, "Ġpun": 13876, ":(": 13856, "Changed": 9407, "Ġip": 9845, "Ġexcellent": 1873, "ëħ": 66495, "acing": 8746, "Ġchat": 4265, "Dep": 22824, "emory": 54080, "(string": 9256, "ORD": 22468, "van": 10266, "íĸ": 39668, "ĠìĦ": 26398, "âĢ¦âĢ¦": 17817, "Selector": 11483, "Ġcomplex": 2166, "zz": 9651, "atives": 8751, "85": 3549, "Ġexception": 4555, "ĠTop": 3729, "_of": 6426, "Ġfort": 14295, "BO": 9463, "ocr": 17943, "Ġdeath": 1494, "ç´": 16861, "Ġ[âĢ¦]ĊĊ": 119177, "Ġ!==": 8530, "ĠAS": 4578, "194": 3204, "Ġhebben": 92884, "Co": 7434, "Ġcop": 11321, "ancel": 44455, "eneric": 54736, "èį": 54004, "_SE": 26359, "term": 11394, "ODO": 65512, "ĠSeptember": 1666, "ĠlÃł": 65888, "ëĲ": 28414, "quer": 17089, "aign": 72316, "module": 5969, "Ġchance": 1259, "ugu": 30408, "Tree": 7236, "Ġgel": 13799, ".Group": 33843, "Ġquickly": 1334, "ĠCas": 13929, "exp": 8110, "lan": 8831, "vez": 48121, "region": 15044, "-F": 4761, "128": 4489, "¡Õ": 78117, "Ġnom": 16333, "imit": 26302, "ijke": 103066, "ĠBusiness": 2426, "(-": 4161, "Ġcross": 2151, "jen": 25033, "icate": 14649, "Option": 8565, "Ġprograms": 1792, "number": 6943, "EXT": 24868, "lat": 14564, "Ġsist": 96939, "cs": 5440, "Ġdeep": 1929, "Ġones": 1239, "Var": 7958, "Ġhair": 1440, "ĠAmerica": 1859, "Ġlock": 4722, "Ġactivity": 2003, "(result": 9495, "Ġinsurance": 1900, "Ġbuilt": 1327, "ĠChina": 1948, "Ġwish": 1664, "ayers": 17618, "Ġleading": 1732, "Ġfaire": 47514, "(h": 9010, "}ĊĊ//": 7084, "/or": 2861, "engan": 92474, "qq": 26400, "MA": 5000, "\"),Ċ": 7618, "Login": 13700, "ĠDav": 21858, "ëį": 37963, "/p": 2633, "eting": 12775, "Impl": 7698, "URE": 11406, "Ġseek": 4224, "Ġ'<": 5522, "192": 3362, "Mapping": 12690, "imb": 13554, "Ġpatients": 1698, "Ġcart": 8279, "rot": 8596, "éŁ": 47048, ".path": 6355, "attle": 16981, "Ġnecessary": 1511, "ĠDan": 5680, "Ġcool": 1605, "Ġ}ĊĊĊ": 128496, "witch": 23671, "ĠCons": 13542, "ç¦": 39957, "*)": 8269, "Ġtree": 2124, "});ĊĊ": 12514, "False": 12294, "top": 4406, "ĠJuly": 1472, "ahl": 26538, "wood": 2934, "Ġactivities": 1479, "Ġwide": 1694, "tempt": 74200, "Ġband": 2091, "(re": 17160, "Ne": 10470, "API": 7709, "font": 5534, ".aw": 73061, ".close": 11516, "mar": 9274, "ĠModel": 5080, "After": 1209, "aire": 17953, "Ġnan": 16766, "Return": 7779, ".List": 12824, "ipped": 8302, "Ġresid": 73287, "Ġmemory": 2116, "Ġinstit": 50576, "Ġconsult": 11291, "inos": 13315, "Ġwrong": 1084, ",-": 5495, "Ġremember": 1303, "-year": 1035, "ĠJSON": 7238, "users": 11869, "style": 6544, "ï½ŀ": 86442, "ĠId": 9734, "Ġheader": 4725, "[$": 9498, "Ġempty": 3008, "_by": 9233, "Ġslot": 6139, "account": 15087, "ĠSuper": 2965, "Ġunt": 15190, "Delete": 10344, "Ġlooks": 924, "Port": 7213, "Ġimplements": 9696, "more": 4694, "tect": 47354, "Ġrelease": 1213, "Ġcirc": 30935, "Ġtown": 1571, "-based": 1430, "ĠBer": 10468, "Ġquant": 17665, "ship": 8505, "Active": 9258, "__(": 6916, "}/": 5842, "zie": 26995, "sen": 12958, "Ġfant": 82019, "Ġfilename": 10884, "Ġpractice": 1457, "Ġmovie": 1603, "weight": 9048, "ikt": 36228, "Ġplaying": 1124, "Ġstar": 2145, "_at": 8227, "Please": 2177, "CD": 4941, "upp": 14683, "JSON": 12507, "jer": 28000, "ĠPerson": 13937, "ĠMac": 2289, "Ġgan": 45031, "Ġgrowth": 1407, "Ġaber": 66991, "ordin": 32815, "ĠCounty": 1286, "Total": 8383, "Ġcada": 56044, "anges": 21392, "Ġsaw": 1134, "Ġdiscover": 4339, "Ġkas": 74336, "Values": 8478, ".res": 25473, "ĠKe": 6011, "ĠAny": 3082, "Ġmeng": 67570, "Ġimmed": 70335, "Ġability": 1518, "oker": 22032, "-B": 3476, "âĢĶâĢĶ": 37425, "EST": 12651, "but": 3061, "atan": 17224, "Dir": 7215, "ĠDer": 18006, "Ġpap": 21888, "gal": 15663, "cd": 1892, "Ġpattern": 3103, "ington": 5947, "(@": 12096, "Ġresource": 2910, "ĠÙ": 2995, "èĭ": 31140, "Ġphotos": 1788, "CO": 5507, "lÄ±": 78200, "Ġhay": 19975, "Show": 8082, "template": 8225, "ymbol": 38659, "Ġuseful": 1970, "Controls": 32934, "ouw": 67440, "ĠMicrosoft": 2782, "ATA": 24244, "Ġtan": 21266, "cz": 25686, "Ġì§": 40710, "Å¯": 50921, "_code": 6178, "(res": 13854, "ï¼¿": 117516, "Ġexpert": 3974, "ategories": 57451, "ĠFirst": 2061, "ological": 4710, "Ġfavorite": 1426, "ëŁ": 39199, "Ġcompar": 52740, "avel": 12963, "ĠLink": 7511, "Ġton": 6887, "Ġfloor": 2016, "ĠHttp": 11584, "Ġlives": 1509, ".current": 11102, "Ġmargin": 2599, "Ġproperties": 2249, "@Override": 81235, "Ġcharge": 1916, ".In": 13477, "ĠJes": 39067, "Ġtend": 3460, "arios": 53201, "ĠPRO": 12818, "ĠUK": 1409, "aken": 14340, "Art": 11655, "Ġlevels": 1526, "itable": 15375, "ongo": 23926, "Ġjour": 47203, "ARE": 18424, "Ġwur": 97427, "esh": 7982, "sta": 28680, ".cont": 46521, "acters": 75652, "amed": 8083, "Ġpool": 2646, "_add": 12340, "ulu": 21752, "ĠPal": 9102, "Gl": 10763, "components": 15886, "Template": 8095, "Ġavoid": 1701, "mazon": 78042, "Ġimprove": 1427, "Vari": 70415, "Ġevalu": 75299, "Del": 14253, "ĠIndia": 1677, "ĠWhile": 1963, "Enabled": 11397, "yg": 13787, "(B": 9051, "lag": 28631, "xim": 58494, "ecurity": 55822, "iring": 11914, "Ġgod": 6172, "Ġfrequ": 60643, "Ġvida": 78004, "scope": 9576, "olf": 24133, "Ġparse": 6429, "aro": 9377, "Ġrecently": 1184, "Ġdaily": 1660, "Ġmehr": 68717, "onday": 76757, "actor": 12716, "Ġscore": 2159, "Ġempres": 110642, "long": 6695, "Ġcompl": 28619, "âĺ": 56777, "Ġequipment": 1979, "exports": 23644, "Ġtools": 1545, "Il": 20274, "Ġfirm": 2467, "Ġai": 29022, "Ġselection": 2802, "Properties": 8974, "Ġabs": 12826, "Ġcapt": 20893, "truct": 38194, "Main": 8802, "=\\\"": 9613, "Ġliter": 26266, "Ġanalysis": 1937, "Ġprices": 1967, "Ġconvert": 4857, ".dis": 29501, "ĠSa": 8890, "Font": 12395, "ova": 9486, "encies": 14098, "eden": 35387, "Ġcareer": 1434, "ĠBen": 4325, "Ãį": 76680, "ĠÂ·": 7466, "Ġroll": 3876, ".string": 17549, "Ġamazing": 1468, "oms": 9270, "Use": 4315, "âĢĻd": 1144, "Ġboy": 3217, "Can": 2469, ".)": 2443, "(null": 12915, "acket": 19266, ".css": 8171, "Ġjo": 30308, "çķ": 21906, "Ġverd": 70977, "Ġfinally": 1734, "fit": 13190, "Ġeffective": 1640, "Ġupdated": 2543, "Ġinflu": 91755, "Ġdemand": 2639, "Ġconcept": 3075, "è·": 18869, "ĠdÃ©c": 91907, "iÃ©n": 108079, "elles": 27865, "Ġtrust": 2495, "nu": 4779, "Ġbath": 8770, "utt": 13465, "None": 9294, "ersist": 78590, "aires": 22760, "Ġpros": 12608, "delete": 11567, "Ġfer": 15850, "Ġkle": 81740, "Ġsense": 1289, "Ġtrain": 2323, "unday": 60635, "Ġsz": 27029, "Ġdirectly": 1584, "ĠAut": 17288, ".$": 6593, "ĠFROM": 7580, "known": 29211, "Ġclub": 1947, "Ġdh": 30385, "Ġalert": 5982, ".ĊĊĊ": 96149, "aries": 5323, "oro": 11742, "?:": 6698, "ĠTechn": 19982, "Ġliv": 37515, "Ġfields": 2747, "otes": 14309, "Ġcan't": 893, "Ġdidn": 1113, "Ġpages": 2246, "Ã¡rio": 68786, "72": 3714, "Ag": 13139, "Detail": 15158, "About": 5365, "ĠWar": 2878, "Ġ..": 5489, "ĠCommun": 22420, "agem": 34027, "ondon": 49913, "NE": 10443, "Ġprojects": 1403, "ĠProm": 15102, "yth": 22086, "ĠsÃ¥": 83332, "ds": 4868, "éĶ": 18510, "inde": 30962, "urer": 21352, ".new": 7907, "Ġaspect": 5544, "Ġëĭ": 30672, "Ġgold": 2475, "ĠÛ": 10604, "Ġåį": 59331, "Ġkm": 4803, "Ġbuffer": 5656, "-a": 3555, "Props": 9725, "(()": 11218, "Hash": 8546, "firm": 44981, "Ã´ng": 92454, ".</": 3384, "Ġgoal": 1271, "ĠPC": 3009, "Ġvie": 54021, "ĠtÃ«": 96273, ".ch": 18499, "Ġthread": 2669, "Ã¤h": 89140, "Msg": 11366, "():Ċ": 7174, "Ã»": 74590, "dat": 17019, "stream": 8037, "Ġstarting": 1400, "eda": 14166, "Ã¶g": 89878, "pat": 16705, "isc": 10806, "arante": 64421, "ĠBel": 7948, "cciÃ³n": 74422, "_string": 7142, "ĠBrit": 16666, "Ġnotice": 2258, "Range": 7742, "Ġmoet": 87209, "ĠĠĠĠĠĠĠĠĠĠĠĠĠĠĠĠĠĠĠĠĠĠĠĠĠĠĠĠĠ": 101783, "Ġexerc": 80584, "-re": 3798, "ugar": 36514, "Ġlu": 41642, "PR": 5726, "ners": 25371, "ĠInformation": 3674, "ussi": 60178, "Ġgets": 1212, "+\"": 24230, "Right": 5081, ".error": 9640, "Ġtechni": 106558, "Ġelements": 2176, "Ġmention": 3291, "Ġkam": 64730, "lay": 16121, "IGHT": 19396, "Ġblood": 1519, "Mark": 9113, "$this": 71878, "rame": 69688, ".web": 13632, "iana": 10773, "Ġ::": 4318, ".min": 7855, "asons": 42061, "ija": 26589, "ĠError": 5648, "Ġviews": 2692, "ez": 13816, "Ġdecision": 1392, "arts": 7882, "Ġnumbers": 1548, "Ġobserv": 16543, "har": 9601, "ĠNovember": 1796, "Ġowner": 2468, "Ġassociated": 2255, "eur": 26709, "lean": 13068, "aus": 17457, "ĠSen": 10306, "Ġdelivery": 2813, "contr": 38316, "ivil": 43731, "Ġadult": 4545, "Ġhistor": 91311, "ĠkÃ¶nnen": 46226, "Ġattention": 1575, "ĠJanuary": 1635, "Ġ''": 7885, "Ġrob": 13969, "ĠInternational": 1973, ".update": 10120, "Ġrais": 33319, "Display": 10317, "Ġtid": 25507, "åł": 27068, "OC": 7611, "chaft": 91952, "method": 8253, "Ġlines": 1704, "\\x": 1561, "kk": 21914, "ĠReal": 4453, "cil": 39291, "Ġattempt": 3280, "Ã¤Ã¤": 52556, "onom": 27485, "Ġrock": 3211, "oter": 16339, "Ġmorning": 1245, "oggle": 56303, "Ġcategory": 3038, "Ġshall": 2409, "ĠEin": 45536, "_back": 10418, "role": 10004, "Ġoh": 8294, "ran": 10528, "ĠWITH": 13658, "Ġê³": 37978, "close": 10234, "Ġpicture": 1789, "Ġdag": 53603, "Ġbottom": 1807, "ĠSam": 3759, "Ġverb": 14142, "Ġkwa": 95147, "ĠBase": 6865, "Ġcollege": 2051, "Ġessential": 2437, "Ġroad": 1419, "ĠIT": 2894, "icks": 6446, "Ġcommit": 6097, "Serial": 33801, "Ġdoesn't": 896, "unsigned": 17366, "'];Ċ": 12007, "Ġsettings": 2524, "Ġinnov": 40266, "Ġsleep": 2184, "Ġnames": 2041, "Ġearn": 4183, "ĠOctober": 1692, "}ĊĊĊ": 96699, "sych": 93693, "Ġsold": 2342, "ĠDown": 8311, "reci": 36035, "ims": 9507, "Ġcin": 22616, "ĠProject": 3329, "ĠVector": 9013, "_array": 8541, "Ġphoto": 2002, "ĠKing": 3029, "Ġign": 24655, "Ġextrem": 17936, ".a": 8708, "Ġwoman": 1597, "Ġunsigned": 7207, "space": 3523, "à¬ı": 25603, "Ġpul": 21297, "BUG": 68441, "111": 5092, "iller": 10654, "Ġparents": 1456, ")).": 8713, "Ġsolid": 2133, "ĠLo": 11323, "Ġdurch": 57267, "Ġsituation": 1444, "aturday": 74189, "ç³": 21879, "Render": 15844, "Trace": 11980, "oles": 8878, "Die": 28622, "-de": 4855, "_TYPE": 8134, "ĠmÃ¡": 89957, "ibly": 9532, "éķ": 27060, "angular": 14954, "Ġlost": 1233, "DS": 5114, "Ġgoes": 1242, "Ġadvert": 34373, "Ġitself": 1482, "Ġbenefits": 1682, "OG": 12599, "ws": 8691, "Ġinternal": 2663, "property": 8760, "Ġ\"<": 5506, "Ġenh": 63257, "Ġevid": 61969, "ĠAlso": 1586, "istration": 55161, "_sh": 21071, "Ġsatisf": 62075, "Ġhour": 1747, "ĉĉĉĊ": 128887, "Ġmodule": 3058, "Ġmuy": 66377, "ancy": 5739, "Ġtrip": 1685, "Ã³s": 79924, "ĠGNU": 14957, "_date": 8742, "fg": 21267, "cat": 6311, ".key": 13144, "Ġregul": 87829, "Ġpositive": 1250, "Ġuses": 1644, "Ġrot": 15901, "oriz": 36340, "Ġsmart": 2980, ".widget": 22109, "Ġcab": 13598, "Ġgreen": 1679, "ĠĠĠĠĠĠĠĠĠĠĠĠĠĠĠĠĠĠ": 92230, "Ġprofile": 2964, ".'": 6704, "AA": 5308, "Ãľ": 59428, "Ġdesde": 68346, "Ġchalleng": 33859, "store": 8852, "Ptr": 7605, "aja": 23759, "Cache": 7453, "Ġstructure": 2000, "éĤ": 24895, "Ġdiff": 12633, ".X": 16153, ".show": 11820, "mat": 7171, ".body": 13569, "craft": 14348, "63": 4159, "_CON": 25448, "ruary": 50435, "Ġdrink": 2950, "lichen": 63570, "Ġgirl": 2098, "Ġdark": 2132, "Home": 5356, "Ġcov": 21512, "ĠMost": 2334, "ĠBig": 2700, "Ġtransfer": 2685, ".Point": 26760, ".info": 8753, "asic": 36941, "Ġdoesn": 1158, "Ġcontains": 2118, "Ġgroups": 1624, "Ġconsist": 13964, "iu": 14218, ".google": 8283, "Ġopin": 94466, "refix": 44556, "eles": 39181, "Database": 13316, "Ġpes": 43607, "Ġrat": 13122, "Device": 8141, "Ġkut": 87347, "Ġ[]Ċ": 7050, "ĠCreated": 14403, "_ch": 18937, "Ġhighly": 1851, ".send": 11874, "Ġê¸": 38372, "Ġtmp": 9018, "Ġled": 1874, "Ġ?>Ċ": 12523, "Ġraz": 46010, "how": 5825, "version": 5279, "ASE": 26548, "imiento": 71888, "]]": 6816, "Ġdriver": 2398, "(key": 9414, "udent": 60368, "Ġplans": 1503, "alled": 13211, "Offset": 8492, "legate": 63178, "otos": 58080, "62": 4145, "{ĊĊ": 17663, "Ġhands": 1566, "Callback": 9181, "(P": 8496, "61": 4222, "usher": 37759, "91": 5076, "Ġmm": 6761, "ovie": 51876, "Ġcosts": 1630, "/*Ċ": 11412, "Ġnue": 109400, "ĠLos": 4217, "Ġscr": 8222, "iqu": 19508, "Ġgives": 1432, "vari": 39082, "Ġìĺ": 38008, "uga": 29479, "Ġindepend": 54913, "Ġcos": 13044, "Ġfine": 1306, "ĠHel": 13695, "Arr": 15280, "Visible": 17932, "Ġnj": 75312, "Â®": 4900, "Ġcountries": 1620, "Ġfresh": 1850, "outes": 77658, "Ġoffset": 5331, ".Log": 19011, "enty": 26818, "ĠÂ£": 1615, "æģ": 15228, "voir": 69454, ".tr": 18898, "'=>": 23391, "ĠOpt": 14221, "IX": 10014, "rypt": 62268, "Ġcit": 33262, "(*": 7968, "look": 10600, "imest": 56718, "á»ĵ": 94178, ".Is": 8992, "ebug": 61028, "Ġmyself": 1276, "grade": 17556, "ĠUN": 5428, "Ġkat": 51006, "akk": 15635, "uario": 99622, "Direct": 18235, ".event": 17167, "ĠLet": 2228, "Ġlic": 34277, "ORM": 20973, "á»¯": 98917, "Ġcapital": 2593, "Ġnut": 11604, "oga": 20886, ".E": 6633, "Report": 10047, "apped": 7959, "augh": 13329, "bool": 9899, ".k": 8428, "Ġsyn": 14452, "totype": 61031, "Ġinj": 28254, "ĠëĤ": 39563, "Ġpiece": 1713, "Run": 8973, "Spec": 9139, "ĠCollege": 2265, "Ġjud": 27594, "Ġven": 23068, "ĠsÃ£o": 61504, "ANG": 16404, "ĨĴ": 82788, "Ġcat": 3169, "crypt": 20668, "Exp": 15166, "Transaction": 13847, "oration": 20695, "Ġideal": 2822, ".Write": 10948, "icio": 38201, "GB": 4976, "ĠVol": 6882, "Ġproviding": 1966, "âĢĻun": 59880, "ĠIh": 74752, "Ġnumer": 24580, "Ġmedic": 42030, "iber": 18097, ")->": 8602, "uen": 28479, "avior": 69030, "covery": 25121, "uu": 16562, "ĠProf": 14316, "Ġini": 39462, "Ġfat": 3591, "Ġmog": 54238, "IES": 13950, "<int": 10299, "));čĊ": 130304, "Ass": 11519, "Ġindustr": 110074, "}`": 24306, "Ġshop": 2268, "ĠvÃł": 66821, "aron": 24107, "ĠPlay": 3682, "ĠÃªtre": 40781, "Ġuntuk": 49563, "Ġprimary": 2442, "(request": 12696, "Ġneigh": 85054, "ifications": 14138, "nik": 20363, "ĠResult": 10259, "Ġdefined": 2479, "Ġfinish": 2147, "edef": 71343, "_text": 7028, "andle": 39128, "Profile": 11031, "ĠFoundation": 3529, "OB": 11785, "ĠâĢ¦ĊĊ": 99571, "Ġpelo": 73707, "MP": 5533, "war": 10476, "_NAME": 7837, "Ġ[\"": 6036, "999": 5996, "append": 9582, "Contact": 7769, ".I": 5644, "ĠPor": 22297, ".equals": 14282, "Ġë³": 30717, "Ġsizeof": 9400, "process": 11129, "Ġrequirements": 2103, "Ġcompletely": 1435, "ords": 17062, "Ġwarm": 2470, "del": 12335, "Ãĸ": 57369, "ONE": 12457, "KEY": 11399, "Ġdaar": 100537, "'],": 8295, "ĠUpdate": 5840, "Ġoc": 25139, "Ġbak": 46720, "LOG": 14588, "éĵ": 37829, "ĠTR": 9057, "Ġpare": 69383, ".z": 10895, "router": 28544, "Ġagus": 95150, "Ġguide": 1999, ".type": 8993, "IND": 15420, ".content": 11991, "SD": 7287, "ĠFil": 20143, "Ġban": 5737, "());ĊĊ": 9782, "gre": 21521, "idi": 13719, "Ġmeeting": 1380, "ĠMessage": 8647, "Ġchanged": 1665, "\",čĊ": 128633, "Ġworked": 1255, "ĠNumber": 5304, "description": 6326, "ĠPage": 4680, "ming": 12742, "ĠPresident": 1674, "returns": 8256, "BD": 10498, "Ġmol": 18184, "Ġ'../": 13243, "angan": 29111, "Ġindividuals": 2303, "ĠDi": 6891, "Ġprime": 5508, "Ġserious": 2252, ".trans": 36922, "ford": 2979, "ĠãĤ": 16998, "Ġedit": 4894, "Ã³w": 34052, "ĠURL": 4776, "ĠDecember": 1843, "uka": 18345, "ĠInitial": 20779, "plot": 11338, "VER": 16697, "\":Ċ": 10880, "dates": 41220, "Ġpeut": 50584, "Ġoo": 51832, "iek": 40122, "Ġconstructor": 9058, "ĠRuss": 33720, "atz": 19455, "utter": 11454, "Ġdead": 2396, "Ġye": 15292, "Met": 21582, "ĠHT": 25228, "imp": 7894, "Parser": 7815, "ĠAR": 7043, "gs": 5217, "Ġpeu": 77890, "edding": 26852, "Ġ[[": 8668, "ĠCall": 4891, "Ġbyte": 7123, "Ġversch": 94639, "More": 3037, "build": 5505, "Core": 8499, "193": 3801, "rome": 21535, "Ġsafety": 1609, "Ġthemselves": 1512, "Ġmount": 8833, "Bean": 13345, "Ġformer": 1384, "(:": 9017, "Ġcm": 6175, "uba": 17430, "Ġsetting": 1820, "Ġexecut": 35582, "Ġstress": 2842, "Ġdirection": 2463, "})": 1238, "Ġpub": 6171, "-control": 7938, "ĠItem": 11190, "Async": 7878, "estion": 34491, "adow": 29107, "ieder": 77548, "Ġlig": 22444, "uman": 18733, "Ġpayment": 2526, "Ġcreating": 1770, "Ġallowed": 1817, "Ġ\"\"\"": 4751, "Ġvit": 31114, "Ġcontainer": 3956, "application": 9134, "Ġ*/Ċ/": 16989, "rec": 14224, "ĠDas": 28201, "Ġdidn't": 912, "rd": 2920, "connect": 11992, "(ex": 16506, "ĠÃ®n": 44883, "ìĻ": 43578, "Ġfix": 2122, "embre": 84668, "Ġwood": 3135, "130": 5216, "Ġdescrib": 96985, "oco": 18242, "ÉĻn": 96117, "comes": 24132, "erman": 11705, "Ãºblic": 120166, "Ġ-->": 3607, "mail": 11511, "CS": 4474, ":'": 14552, "ĠEvery": 4239, ".service": 12721, "ĠDu": 10533, "íĥ": 45928, "ĠAus": 31701, "Ġscale": 2436, "ĠNO": 5881, "gb": 14061, "icated": 13874, ".Font": 35572, "Ġdistance": 2292, "Ġmb": 15981, "Ġeffects": 2031, "inue": 85069, "ander": 6282, "ĠChar": 10199, "anna": 7081, "Ġsummer": 1399, "Ġchannel": 2767, "Ġhelps": 1461, "(\"%": 13292, "ARRANT": 99558, "Ġraise": 2472, "Author": 12914, ".api": 9025, "Ġcash": 2182, "console": 13903, "Document": 8894, "ĠIll": 14935, "Ġprepar": 53570, "Ġpush": 2551, "Ġstuff": 1262, "Ġkunnen": 91067, "ĠNet": 7295, "nap": 22876, "Ġped": 20390, "Ġbur": 16776, "ĠQue": 27459, "Ġsuccessful": 1872, "itos": 24415, "Ġlinks": 2405, "Ġfailed": 2584, "-md": 7351, "Ġandere": 79010, "ATH": 17919, "Ġoptim": 16112, "Ġsolutions": 1786, "Match": 11866, "Ġhem": 22443, ";i": 21597, "Ġsport": 4398, "ĠChe": 6965, "REE": 23244, "iforn": 93183, "ĠFriday": 1359, "ĠOp": 12069, "column": 12143, "ĠWARRANT": 111215, ".load": 11136, "aku": 15846, "Ġstrength": 2896, "ĠAssoci": 88600, "itect": 87697, "Ġapplications": 2012, "ĠMake": 2645, "alian": 39523, "(context": 12368, "sembly": 88763, "Ġexclus": 44557, "illing": 8587, "android": 19826, "Ġstage": 1821, ".awt": 27830, "Ġvict": 68464, "-A": 4328, "Ġstates": 1841, "Enter": 10030, "queue": 19096, "_y": 7097, ".sc": 31357, "ĠtrÃ¨s": 66560, ".jpg": 4977, ".as": 11973, "¹Ħ": 48464, "Screen": 12421, "Ġconduct": 5577, "Ġpuede": 53383, "Ġprintf": 10105, "ĠBit": 12008, "ĠprÃ©": 57371, "Ġaccur": 85244, "Ġcamera": 2136, "iture": 45756, "Rec": 14918, "nbsp": 82791, "iately": 60231, "Ġmun": 64309, "istas": 50634, "Ġconvers": 48301, "ĠAndroid": 3187, "Ġbasic": 2024, "Ġdrop": 2050, "ĠCode": 3975, "():": 8808, "ality": 8024, "160": 4957, "Ġinterested": 1690, "Ġcounter": 3492, "assen": 51463, "ÄĮ": 91383, "/j": 6310, "azi": 22259, "loc": 11481, "erry": 7763, "pet": 18172, "gel": 27367, "ĠDem": 10058, "late": 20624, "Ġdengan": 58578, "Ġrent": 5549, "extern": 13900, "Ġlogin": 6184, "ibt": 81233, "orial": 20425, "hs": 11205, "ICE": 13539, "ĠVis": 16725, "UID": 24527, "Ġconsidered": 1710, "($_": 19443, "volution": 20080, "uan": 10984, "_state": 7527, "wers": 25163, "Ġentity": 5821, "ĠÃ©s": 56892, "'],Ċ": 8157, "Ġ{@": 8415, "amer": 10620, "double": 12744, "Ġsuff": 23517, "Servlet": 21493, "ĠResponse": 9033, "Ġmuito": 80720, "-group": 6425, "Ġelif": 8490, "kw": 19145, "Ġcallback": 7304, "()).": 10860, "Ġdefinitely": 1475, "Ġoperation": 2681, "emy": 26450, ".Generic": 17599, "Ġfair": 2610, "HTML": 10236, "Ġimg": 9021, "Ġpartner": 2390, "aden": 18744, "Ġencour": 90526, "(file": 10607, "asks": 25692, "raz": 17333, "onn": 22171, "_dir": 6664, "ville": 2873, "avo": 27979, "ĠAmazon": 2931, "700": 4492, "aled": 14303, "ĠåĽ": 59386, "Ġalign": 5243, "]=": 16643, "Ġvehicle": 2119, "Ġforeach": 8518, "lying": 8422, "ĉconst": 128962, "_log": 13168, "Ġez": 53267, "lor": 18806, "othing": 35436, "Ã¡ri": 105327, "ĠðŁ": 10850, "Ġemerg": 64123, "NA": 8181, "ĠâĢĻ": 7469, "Ġinteresting": 1411, "Ġhuge": 1514, "Writer": 9661, ";ĊĊĊ": 128772, ".props": 14272, "Att": 16786, "write": 9469, "Ġcertainly": 2101, "ĠSur": 9553, "ĠUSA": 3368, "Ġrespond": 4452, "Ġbasis": 2302, "(in": 11120, "endre": 62286, "-sm": 7993, "Tab": 11691, "total": 9318, "Ġforce": 2027, "Ġobtain": 3100, "FAULT": 92062, "ployee": 112774, "éĸ": 25440, "Ġpadding": 3810, "vention": 27446, "aver": 7455, "\"+": 29509, "onstr": 32650, "anti": 13100, "Ġshape": 2366, "çĭ": 53128, "Ġconstant": 3491, "Ġexisting": 1995, "Ġbirth": 3573, "Aut": 19391, "Ġhear": 1464, "Ġshared": 2175, "Effect": 15725, "Ġfest": 34564, "home": 5863, "aca": 16102, "venue": 45465, "Ġrules": 1881, "fi": 10645, "ĠReturns": 7588, "Ġplaces": 1736, "Ġveel": 97137, "\">čĊ": 129777, "nost": 35789, "mal": 16245, "liche": 36476, "Head": 10617, "']['": 10704, "Ġparameters": 3233, "ĠDen": 12125, "Ġeyes": 1599, "Ġsea": 3373, "ikan": 33811, "ÃŃas": 75344, "uten": 35082, "Ed": 11371, "ĠmÃ¼": 98638, "Ġdepend": 6137, "Ġ\"./": 14019, "ĠHotel": 4434, "Ġessay": 7240, "Ġrelig": 83496, "Ġfully": 1828, "MENT": 15855, "Ġflag": 4313, "Ġstra": 67998, "\"/>Ċ": 10867, "erve": 30373, "Ġgebru": 128531, "Ġakt": 87613, "(`": 12855, "osten": 87428, "Handle": 9514, "ĠMr": 1389, "Ġroute": 3127, "Ġappropr": 63708, "ĠRel": 16356, "190": 3977, "Ġtheme": 2892, "DD": 8010, "Ġcommercial": 2661, "ĉg": 128651, "-L": 4009, "-pro": 6706, "berg": 4282, "haps": 62562, "ĠTem": 22043, "Ä±ÅŁ": 81749, "cons": 13694, "Ġculture": 2329, "Ġpurpose": 2180, "ivos": 64457, "ĠmÃªme": 63379, "Car": 7467, "Ġreference": 2670, "unda": 33683, "Ġpode": 50554, "é£": 44463, "access": 12677, "Ġwall": 2383, "ĠtambÃ©m": 77028, "ĠTODO": 11168, "Ġporque": 79453, "Ġpens": 23583, "èª": 28408, "Ġ>Ċ": 10767, "ĠGood": 2227, "ĠCap": 7719, ".open": 10375, "ells": 8843, "ĠServices": 2778, "ĉvoid": 129466, "Ġexactly": 1537, "ĠMer": 8548, "ĠCompany": 3409, "Ġstatement": 1707, "ifornia": 88395, "inu": 28489, ");Ċ//": 19565, "Ġmeasure": 3297, "ĠDepartment": 1895, "Ġorganization": 2033, "Ġdifer": 86935, "Your": 2218, "Ġunter": 55641, "ĠsiÄĻ": 61657, "é©": 49514, "Ġgran": 19657, "vement": 37417, "Ġpackage": 2047, "Ġvector": 4455, "obs": 9799, ".bind": 16386, "(\"\\": 13809, "////////////////////////////////": 14676, ".config": 9864, "Ġnombre": 42987, "uru": 14543, "')ĊĊ": 7036, ".index": 8895, "han": 7734, "oda": 13880, "ĠLaw": 3715, "ĠLondon": 1813, "Ġdeveloped": 2108, "çĥ": 25879, "Ġenv": 9217, "Ġlicense": 3527, "))ĊĊ": 6120, "Ġtra": 43704, "ursday": 53527, "arrant": 42095, "(object": 12935, "Ġadvant": 92752, "900": 5462, "Ġsurface": 2293, "respond": 23692, "']Ċ": 8030, "aved": 9588, "centr": 60786, "Ġpoder": 85199, "EC": 6661, "Ġmix": 2487, "ĠFind": 3949, "Ġsoll": 84647, "assets": 10372, "Ã¨me": 71674, "Ġeg": 16817, "Ġconstruction": 2192, "Ġmotor": 3979, "bet": 21723, "plies": 17986, "ris": 12953, "Ġclasses": 2341, "Ġpow": 33817, "hes": 23894, "PA": 5793, "aÃ±": 74971, "Ġfn": 6893, "ontal": 41509, "ĠFire": 3914, "'un": 42123, "ĠI've": 910, "Ġthinking": 1449, "ĠPhil": 10019, "ĠBack": 5051, "Register": 12878, "Ġlag": 12956, "ĠlÃ¤": 85144, "ĠÃ©tÃ©": 38679, "Ġslow": 2718, "Queue": 10781, "Ġmeas": 37853, "hor": 23223, "cut": 10740, "Ġdecided": 1463, "Ġdream": 3119, "Ġinvolved": 1557, "Ġdifference": 1506, "Ġphysical": 1864, "amo": 16176, "Ġrelev": 75358, "uesday": 50509, ".App": 28280, "thread": 17729, "Ġio": 8317, "Ġnamespace": 7394, "Float": 11744, "Ġjaar": 99098, "Ġreported": 1651, "Ġvill": 52801, "itz": 8610, "oul": 9679, "-v": 6433, "Ġsans": 19861, "Ġpela": 85139, "Ġcast": 3451, "ĠGold": 4486, "_num": 10902, "\");": 11725, "Ġeditor": 4655, "Ġrates": 2290, "ĠII": 3352, "Ġintent": 7922, "Ġsomet": 98949, "DC": 5716, "was": 7604, "ednes": 95914, "=\"#": 7436, "Fragment": 16646, "Ġfight": 2035, "Ġcookies": 6089, "strong": 3700, "Ġcarry": 2577, "Ġleur": 52915, "\\/": 13541, "Ġdiagn": 58070, "ashion": 71946, "Ġtips": 2471, ".test": 9547, "Ġblue": 1991, "Ġcharacters": 2161, "agon": 11462, "iced": 11740, "QU": 19753, "quis": 23711, "Est": 19679, "Ġvent": 12788, "360": 5194, "ï¼Ľ": 42274, "aught": 13306, "Ġgiving": 1569, "filter": 9092, "74": 4610, "Ġfelt": 1606, "bel": 13665, "_.": 7876, "Ġdegree": 2201, "Ġ$(": 2321, "Ġlab": 6312, "igration": 28278, "Ġpressure": 1688, "Ġconven": 27637, "tected": 56691, "=(": 5875, "Ġaussi": 62905, "PORT": 22765, "Statement": 14538, "Ġ{}": 10483, "ĠStreet": 1971, ".btn": 20433, "ĠAction": 6094, "Ġ('": 5686, "allet": 35061, "(D": 9664, "Success": 12952, "Ġsecret": 3767, "73": 4718, "Ġlimited": 1997, "Ġtun": 33356, "Ġreleased": 1450, "Ġlan": 43753, "Ġrad": 17880, "=\"<?": 19204, "Graph": 11089, "ĠsÃ³": 88568, "Ġreserved": 6709, "call": 8238, "ĠMat": 7881, "Ġpaid": 1784, "84": 4650, "alla": 19342, "rier": 16345, "Rece": 74196, "Ġkal": 55217, "iar": 24044, "RED": 14800, "bu": 25305, ")));Ċ": 14428, "ĠShow": 3702, "Ġmaster": 3272, "Admin": 12448, "Net": 5950, "bre": 17439, "Ġbudget": 2156, "Ġsolo": 7091, "pass": 10881, "ĠON": 6195, "ĠBank": 3012, "Ġdry": 2353, "Non": 7932, "Ã¯": 39574, "usi": 27001, "pared": 58897, "ĠCard": 5161, "Es": 11999, "ĠValue": 5541, "Ġfunctions": 2300, "lie": 19138, "oli": 9722, "iverse": 25587, "_test": 5884, "Ġstories": 2097, "ĠPoint": 5593, "_error": 8108, "ixel": 23167, "SELECT": 10590, "Ġmul": 19567, "Names": 9541, "ventory": 80549, "Ġtowards": 1601, "ĠVi": 18130, "Ġviel": 88065, "house": 5008, "esome": 72158, "Ġgem": 11344, "Ġsust": 53107, "white": 10930, "81": 4850, "achine": 27870, "Script": 4821, "display": 8714, "organ": 15578, "case": 8484, "like": 4647, "orith": 95313, "åĭ": 31742, "ĠInstit": 93369, "oup": 21452, "Modal": 16005, "RES": 14279, "ĠVersion": 5153, "Ġmother": 1938, "Ġmiddle": 1994, "ĠEt": 20160, ".pre": 32362, "esse": 24254, ".Tab": 32416, "require": 10186, "(item": 13930, ".save": 14788, "71": 4810, ".Controls": 28543, "words": 14485, "Ġspot": 2057, "Ġunivers": 48697, "Ġcum": 19516, "fÃ¼": 91471, "los": 29838, "amil": 34528, "Ġvideos": 2449, "bb": 1602, "ednesday": 52434, "Ġwenn": 60259, "yon": 32846, "ĠHo": 9277, "191": 4073, "Ġsymbol": 5548, "Ġ:Ċ": 6645, "doc": 8268, "Ġposts": 2349, "jar": 22825, "essa": 26573, "'),": 9047, "ecause": 60111, "ĠCH": 6474, "-C": 3180, "aza": 28800, "_on": 12555, "(input": 11109, "ĠÃī": 40931, "èĪ": 32818, "ĠMo": 6434, "izz": 10256, "REF": 12638, "Reference": 8393, "vr": 19989, "Ġdoll": 19577, "ĠUm": 20337, "rought": 26891, "Ġmoving": 1763, "Ġsometimes": 1622, "Ġsender": 14691, "osition": 46077, "ĠLeg": 14663, "ï¼ģĊĊ": 94767, "Ġpm": 3381, "Ġspend": 1730, "Ġkur": 66681, "ĠPower": 3062, "strap": 55487, "Ġreplac": 85536, "Loc": 20578, "Ġkitchen": 2753, "nel": 21211, "Ġett": 68038, "ĠDevelop": 25416, "92": 5068, "Ġcore": 2573, "ĠInput": 8689, "wan": 11746, "ĠMax": 5180, "Ġgrande": 64832, "Ġkont": 80134, "ĠClick": 3881, "ĠLand": 5689, "/**": 35700, "Ġgoed": 95363, "âĦ": 60636, "lines": 8986, "alert": 16655, "ĠIP": 3780, "Ġmail": 4338, "ulate": 9921, "Ġmaybe": 1301, "ipes": 19761, "Ġdump": 12163, "\")]Ċ": 14629, "82": 4953, "_ptr": 8334, "Ġundefined": 7912, "ĠCour": 19524, "Ġbaby": 2048, "ï¿½ï¿½": 127644, "ĠApple": 2529, "coin": 14739, "83": 4887, "ĠFrance": 3707, "å»": 17590, "ferences": 19840, "Ġdecis": 68973, "yan": 9793, "Channel": 9728, "det": 16077, "Ġcours": 57793, "Ġsat": 5111, "ĠMart": 12913, "AST": 12005, "alloc": 23197, "Ġsoft": 2534, "Ġgratis": 78057, "ellig": 64862, "Ġmort": 26584, "Ġshown": 1878, "ĠTask": 7426, "nÃ©": 60370, "éª": 31292, "rote": 22582, "Pat": 14986, "Ġons": 47852, "Like": 4263, "-time": 1918, "atalog": 40140, "ç©": 22188, "estroy": 67026, "Åŀ": 86233, "à¬Ĳ": 127086, "140": 5471, ".junit": 10761, "Parameters": 10406, "Ġ{Ċ//": 19043, "ech": 14205, "LS": 7153, "Initial": 16073, "Ġhund": 92629, "Ġgave": 1554, "Ġsample": 3131, "amiento": 78427, "allow": 11171, ".start": 11254, "ĠEdit": 13419, "Ġguarante": 106676, "Ġspecified": 4006, "lands": 9861, "esis": 14012, "Ġgeen": 89991, "ĠĠĠĊ": 110191, "tu": 26556, "Ġattack": 2281, "ĠRequest": 8402, "Ã©rie": 92299, "());čĊ": 130305, "ted": 8123, "xis": 55755, "ĠJapan": 3605, "Ġreve": 83279, "wy": 15569, "ae": 5903, "ĠFebruary": 2104, "Ġprod": 28546, "abet": 35626, ".__": 8883, "ĠTable": 5555, "ieved": 20582, "Ġ]Ċ": 6554, "erap": 94709, "shot": 14799, "Ġvs": 2459, "(void": 11322, "ë¯": 53857, "Ġdevices": 2117, "\"čĊ": 128616, "Ġëª": 36178, "Ġassess": 8093, "Ġmundo": 81007, "Ãĩ": 74247, "TA": 6762, "\\t": 1655, "Ġstraight": 2088, "SC": 5699, "Ġcontain": 3347, "ĠEu": 30525, "Cons": 14202, "rooms": 13555, "Ġbez": 36776, "ĠHash": 10333, "Ident": 31257, "Play": 10635, "yi": 23270, "Ġplanning": 1783, "Ġhtml": 7861, "Ġpin": 5595, "Ġrestr": 25379, "equals": 19200, "PP": 8416, "Ġprev": 15946, "Ġtijd": 97624, "ĠMedia": 3978, "Ġlayer": 3340, "Ġtwe": 18346, "Ġletter": 2368, "EE": 7784, "Ġadjust": 6140, "ļĮ": 69151, "common": 13702, "ĠCO": 5564, "oca": 26343, "Ġri": 31693, "Ġotherwise": 2693, "Ġ\"\";Ċ": 16214, "ativa": 53263, "Ġtou": 72925, "Area": 12814, "ĠMil": 9766, "icture": 52217, "Ġhop": 13427, "arÃ¡": 71435, "ayo": 26118, "Ġbecame": 1842, ".end": 11711, "eln": 29103, "Ġdent": 27127, "Ġpassed": 2110, "ĠArch": 10871, "ĠThank": 2795, "Ġpolice": 1256, "Ġhelpful": 2668, "ouver": 82661, "Ġexpos": 78461, "Ġdeux": 56890, "Ġrank": 6245, "QUE": 52468, "door": 26422, "uke": 12370, "Ġcampaign": 1955, "IME": 27134, "omic": 33063, "github": 1459, "front": 9689, "Ġcourt": 1856, "/v": 4835, "-P": 3898, "Ġgift": 2779, "ì¶": 59411, "usa": 21244, ".Location": 30548, "atos": 19023, "Ġpatient": 2862, "Ġsports": 2350, "Ġsaying": 1246, "Ġbrowser": 3789, "ĠAPI": 3074, "Ġanti": 2901, "obe": 16883, "Ġsteps": 1815, "Ġsud": 58212, "Ġmodify": 7172, "Ġunderstanding": 2149, "idence": 26880, "inas": 19622, "Ġadmin": 8316, "Ġia": 48881, "Ġusername": 8472, "isp": 12971, "ĠYear": 3094, "ĠSil": 14287, "itary": 27028, "token": 10643, ".split": 11164, "ĠProdu": 65540, "ĠCanada": 2245, "Dao": 25357, "hn": 18463, "Ġcontra": 34143, "---": 6812, "ĠIO": 16792, "Ġrich": 3150, "Day": 7905, "DR": 6668, "awn": 12062, "Ġlabor": 6317, "Ġdamage": 1837, "Ġsau": 35823, "Ã¦r": 82354, "Ġìĥ": 36448, "_status": 10624, "Ġactions": 2761, "ILITY": 81144, "las": 18736, "Ġquer": 55688, "Ġcual": 89698, "365": 8176, "Ġbegan": 1877, "Comment": 9388, "áº·": 118074, "stant": 31030, "ĠStand": 17084, "Ġargument": 3450, "ologies": 15522, "Ġeer": 45190, "orrow": 26126, "Ġsmo": 89439, "Ġreduce": 1968, "mitted": 23052, "å£": 40362, "Ġ(*": 8990, "criptor": 65968, "Ġtx": 16868, "Ġcoach": 2452, "Ġbusinesses": 1866, "ĠjÃ¡": 82388, "imos": 45037, "ĠGreat": 2410, "ĠĠĠĠĠĠĠĠĠĠĠĠĠĠĠĠĠĠĠĠĠĠĠĠ": 98621, "/w": 5500, "Ġpanel": 3066, "ĠtambiÃ©n": 78430, "è£": 25484, "EO": 20635, "Ġsed": 10565, "ensed": 34080, "Ġfurn": 42578, "types": 12442, "Matrix": 10258, "(response": 13233, "Ġgenerate": 3292, "Ġjobs": 2296, "ĠSO": 6755, "Ġnation": 3790, "={{": 21895, "Ġ}}": 11121, "eral": 27914, "obil": 62138, "kar": 15006, "âĢĻh": 85785, "SQL": 7540, "ĠChristmas": 1946, "Holder": 17576, "ĠCOM": 16328, "Pane": 21105, "azione": 28332, "Ġincor": 87967, "ulti": 40480, "ronic": 21792, "Ġnag": 32113, "'a": 41821, "ĠCalifornia": 2403, "Ġpictures": 2400, "pite": 30286, "WS": 9981, "Ġmicro": 4294, "cp": 8838, "Ġarm": 3765, "(java": 42655, "iÃ°": 96444, "overn": 57051, "Ġvos": 70982, "Track": 13657, "æ£": 42146, "ĠTwitter": 2508, "];ĊĊ": 15575, "Ġpresident": 2209, "legal": 31508, "route": 14469, "ĠOs": 9645, "rew": 14669, "Ġwonderful": 2111, "Ġmanager": 2208, "Ġtried": 1226, "fast": 16442, "ĠOther": 3871, "Ġdivers": 29434, "');": 12582, "ogen": 12636, "Ġíķ": 14859, "Ġpolitical": 2084, "ACE": 18687, "Ġcorpor": 55191, "Ġble": 23378, ".Label": 28301, "Ġcomun": 89430, "command": 7914, "Role": 12371, "ĠprÃ³": 107621, "Ġ{\"": 5368, "Ġcurr": 16022, "ĠpÅĻ": 61352, "ĠSearch": 5713, "Ġsupply": 2259, "Ġthous": 105175, "acle": 15634, "Draw": 17282, "ĠWord": 3724, "Ġcout": 16217, "Ġserve": 2284, "(\".": 23541, "Ġreturned": 2809, "Ġhealthy": 1899, "Parent": 11333, "Ġtip": 4758, "Ġhus": 36208, "qar": 85203, "usion": 11367, "Ġnav": 21927, "grad": 19879, "Ġplayed": 1372, "Ġadvice": 1958, "Amount": 16486, "mut": 11304, "ĠConfig": 11169, "Ġbere": 44616, "Ġbeginning": 2056, "imin": 27627, "ĠWash": 19634, "Ġdol": 42981, "itan": 20805, "Ġces": 40378, "iano": 14535, ".Component": 23494, "ĠJesus": 3597, "Ġregarding": 2637, "Ġbem": 64013, "Ġcards": 2210, "Ġheard": 1502, "94": 5311, "Btn": 25079, "ĠAre": 2536, "¡°": 52334, "Ġdress": 4120, "esto": 21996, "IAL": 21667, "Ġtrade": 2074, "ĠDavid": 2352, "Users": 7442, "Gu": 13199, "Ġlayout": 5468, "ĠWhite": 2523, "ĠBet": 12912, "ĠSunday": 1593, "Ġeigen": 16471, "Ġmaximum": 2748, "Ġvec": 12291, "(N": 8821, "Ġpand": 51595, "LC": 10858, "Ä±nÄ±": 72236, "kg": 9659, "93": 5312, "Ġlargest": 2337, "Ġsaved": 4228, "ĠRep": 10583, "asion": 26802, "arily": 15881, "ITE": 17489, "Ġneces": 87880, "Ġgrid": 4979, "Ġprincipal": 8273, ".for": 14763, "Ġspeak": 2591, "anging": 18963, "Ġvend": 69727, "Full": 8057, "shop": 17335, "Ang": 16650, "isten": 42623, "_class": 10293, "Ġarticles": 3687, "porary": 107050, "Ġgrowing": 1989, "_image": 10557, "ĠIns": 13581, "Ġheat": 1876, "Ġpair": 2413, "'h": 54639, "Ġquel": 86276, "ĠTex": 29362, "oka": 19017, "DTO": 26535, "Ge": 10431, "should": 6260, "Now": 1466, "Ġiter": 14206, "allery": 68749, "Ġlui": 70280, "Ġ})": 14456, "_res": 16831, "ĉĉčĊ": 130306, "Bytes": 10231, "Â»,": 67194, "osen": 26976, "Ġdann": 68617, "Ġtraditional": 2172, "Ġproduce": 2395, "Ġbalance": 2664, "CON": 10145, "Ġbat": 7981, "Pop": 21190, "Ġchem": 24990, "Ġdecor": 15452, "Step": 4209, "Dto": 22146, "Ġwriter": 3913, "Ġtiene": 67890, "Ġwants": 1672, "Only": 5191, "Ġrule": 2649, "Ġappreci": 27407, "Ġexit": 4785, "ĠOper": 46800, "Ġfeeling": 1714, "cio": 62339, "username": 696, "Ġmonitor": 4515, "idh": 46865, "Ġale": 30397, "Ġtam": 18511, "Ġerrors": 3550, "project": 8896, "ĉĉĉĉĉĉĉĉĉ": 129057, "Ġweekend": 1708, "ĠEven": 2213, "Operation": 10238, "Ġsac": 35629, "________________": 41331, "Ġcomponents": 3183, "erial": 39917, "125": 5477, ".View": 19075, "sites": 39940, "Ġìľ": 40175, "ĠĠĠĠĠĠĠĠĠĠĠĠĠĠĠĠĠĠĠĠĠĠ": 98894, "SA": 5945, "Ġfue": 83615, "vin": 7690, "Ġmerc": 23542, "Ġtous": 53406, "ientes": 69630, "Ġhash": 7420, "pol": 15950, "ĠHa": 7370, "Custom": 10206, "ĠAssert": 7547, "Ġviv": 59373, "onto": 35699, "Ġmechan": 37453, "ously": 7196, "Ġfu": 43457, "amount": 20371, "Byte": 12985, "Ġoverall": 1960, "(A": 8048, "inha": 42768, "Ä±m": 76602, "ools": 12286, "ĠClub": 2859, "ahan": 16791, "ields": 15947, "ĠMonday": 1629, "Ġtel": 25330, "seg": 35274, "inline": 13201, "vor": 31829, "Ġcomfortable": 2457, "ĠSaturday": 1551, "å©": 81751, "unden": 79414, "dag": 17022, "ĠnÃ¤": 81796, "hos": 26121, "?>": 27370, "Ġimmediately": 2054, "cos": 6532, "bd": 9509, "ĠOrder": 7135, "ĠâĢĿ": 10469, "ĠFlor": 30087, "Ġgreater": 2607, "iling": 9264, "Ġtests": 2386, ".be": 15213, "neh": 56888, "ĠSign": 9250, "annels": 63619, "ĠåĪ": 26223, "Ġsand": 5261, "RT": 7788, ".has": 11487, "Ġmiles": 2257, "Å¥": 81854, "Ġsql": 14546, "ĠaÃ±os": 86883, "Ġagree": 1934, "typedef": 16296, "Ã¼t": 72595, "emon": 14757, "ĠAuthor": 11221, "Ġfabric": 5367, "impl": 13373, "Ġspirit": 5052, "Support": 10029, "lee": 10162, "Ġstrategy": 2225, "Ġcel": 48280, "ĠTeam": 3439, "ĠlÃŃ": 102802, "Ġikke": 83745, "ì°": 67944, "ernel": 54898, "eri": 17186, "PM": 4937, "Ġinstr": 61260, "Scroll": 15353, "èĬ": 24137, "Ġfir": 32004, "Ġemployees": 1858, "Ġexpand": 4634, "Ġdemonstr": 34532, "------------": 22674, "pliance": 41144, "ĠEduc": 32266, ";Ċ//": 19570, "íĦ": 30576, "Ġlooked": 1637, "Ġcolors": 2777, "Ġ$('#": 11385, "Ġturned": 1724, "Ġkap": 68131, "Strip": 21942, "Ġrev": 9913, "ĠEast": 2152, "Mapper": 15959, "cn": 15803, "alu": 27302, "Ġbatter": 13182, "Ġcer": 54008, "Save": 8644, "alance": 48383, "osing": 17365, "boot": 15926, "ê±": 58610, "\")ĊĊ": 7956, "Ġhospital": 2525, "Ġstack": 5357, "ĠBa": 11013, "ļáŀ": 80833, "_com": 20622, "Db": 14060, "scribe": 62909, "Root": 10034, "ĉtry": 129095, "Ġlots": 2053, "ĠBoard": 2853, "plan": 15530, "ĠMen": 6991, "Weight": 16671, "hell": 9571, "æ¶": 27782, "Ġclin": 23941, "indi": 39381, "{\"": 8697, "Ġconn": 16373, "Ġdetail": 3413, "_a": 6077, "_i": 1822, "Ġmessages": 3191, "Ġ'\\": 10662, "Ġreli": 90829, "target": 8324, "arlier": 100487, "Ġcasa": 75862, "Ġrequires": 2295, "âĶ": 34737, "Person": 18634, "yond": 99830, "Ġjou": 69136, "ĠPlan": 5307, "omas": 23151, "Ġloved": 2001, "avas": 38746, "íĶ": 50513, "}ĊĊ/": 7937, "ĠMas": 12147, "ĠJack": 4895, "Ġserial": 9317, "Ġoffered": 2440, "Ġctx": 8707, "!!!": 4235, "Ġshipping": 4801, "ĠNode": 7946, "ĉwhile": 129108, "Ä±nda": 84785, "ĠBuild": 8495, "icing": 14057, "ï¼ĳ": 95081, "egen": 79794, "Ġty": 15870, "join": 9232, "<string": 11831, "ĠTur": 11681, "rum": 18993, "-k": 6947, "Ġinsert": 7508, "Ġpsych": 13325, "Ġscen": 82170, "Ġtopic": 2752, "ĠSH": 9889, "aran": 14877, "à¬ĵ": 60305, "Ġsor": 17749, "Ġresponsible": 2569, "utils": 13258, "Ġmask": 5078, "Ġuw": 58865, "ecution": 75585, "Ġlogger": 8388, ".co": 7606, "Ġmeaning": 2823, "Ġtrabal": 118769, "ĠButton": 13931, "ĠSex": 18597, "Ġgez": 101376, "ĠNE": 13041, "âĢĿ.ĊĊ": 72815, "ertain": 58183, "\";": 9383, "´Ģ": 54375, "elcome": 49069, "_model": 8431, "Write": 6029, "){čĊ": 130307, "Ġhacer": 73810, "cles": 18157, ".from": 10716, "cell": 10373, "_per": 13708, "umi": 16374, "Ġps": 11749, "Ã¤hr": 96488, "Ġvolume": 3036, "Double": 11835, "_start": 3033, "Pe": 16331, "Ġeye": 2004, "Ġ\"+": 18872, "Ġthat's": 1138, "Ġreader": 5015, "OVID": 62854, "category": 9423, "children": 13496, "ĠGreen": 2687, "window": 14267, "ĉpro": 129529, "Ġå®": 37970, "ĠSocial": 3973, "entication": 57153, "Ġnke": 115387, "Ġtruly": 2478, "inden": 53415, "ĠLas": 8180, "Bit": 15230, "Ġjs": 10464, "Ġdiet": 3494, "Ġpil": 30839, "xture": 62693, "ĠWHERE": 12026, "oti": 20073, "################################": 15480, "Ġtv": 11336, "ircle": 39928, "ĠAuto": 7595, "Ġreports": 1969, "atically": 14971, "\"))Ċ": 11151, "ĠiÃ§": 89894, "(path": 10296, "OUR": 24927, "yled": 48194, "ĠComponent": 14513, "Ġgut": 13824, "anje": 73815, "icien": 94489, "Ġmetal": 3336, "108": 6044, ".join": 8827, "merce": 91350, "Âº": 31678, "Ã³g": 95091, "unto": 55949, "Ġrecon": 32275, "iers": 9114, "ĠCoun": 36268, ".component": 20813, "jon": 46797, "apat": 44625, "Ġoperator": 4290, "IVE": 12207, "Ġglass": 2800, "ÃŃst": 93139, "á»«": 106405, "wen": 24832, "ĠLat": 17855, "Ġtipo": 46215, "lements": 28601, "ĠEngine": 11875, ".client": 11056, "ALUE": 74534, "ĠFunction": 9694, "ĠKom": 24957, "bling": 9568, ".width": 16476, "Ġestim": 47172, "âĢĻÃ©": 74911, "Ġë¶": 47788, ")*": 8774, ".http": 17699, "Ġgy": 27909, "Video": 9140, "Ġparameter": 3730, "ĠMany": 2957, "ĠAuf": 67681, "Ġcaso": 63884, "Ġeller": 68998, "ichael": 45001, "Year": 13686, "Ġinvestment": 2125, "FC": 6004, "Ġfeet": 1983, "Ã´t": 87149, "'d": 5063, "raag": 104052, "Ġsetup": 3509, "Ġaudio": 3587, "BS": 6799, "Ġextremely": 2377, "ĠprÃ©s": 96381, "íĮ": 60036, "(L": 9493, "Ġvariable": 3565, "Ġsett": 38065, "Ġguid": 60737, "ĠVideo": 6073, "Ġappropriate": 2595, "Ġcentral": 3089, "azz": 15586, "Ġminimum": 2765, "ĠResearch": 3052, "Ġeasier": 1739, "Ġdisease": 2382, ".target": 15291, "Ġgal": 16869, "Ġisn": 1712, "under": 6851, "Ġcorrespond": 16451, "Å©": 97431, "=\"/": 9143, "atever": 94660, ".dart": 20148, "',čĊ": 128917, "Ġker": 27112, "onym": 29756, "ĠpaÃŃs": 96869, "FL": 6847, "Ġretr": 21303, "ĠMethod": 9794, "Ġepis": 103746, "cor": 8026, "itas": 18473, "argo": 31906, "Ġplaceholder": 9812, "selected": 17195, "TS": 5765, "_un": 15648, "Ġdella": 39965, "Ġcompleted": 2301, "Ġweather": 2173, "/Ċ": 8023, "isher": 21108, "Ġgrup": 84574, "Ã«r": 96564, "%%%%": 84443, "Ġhous": 73395, "interface": 13954, "Ġprovider": 3823, ".lang": 8947, "keit": 92630, "aats": 101942, "Ġprotection": 2825, "eling": 10917, "tee": 25560, "boolean": 20855, "ECT": 56393, "@\"": 64712, "formed": 10929, "ĠMit": 26526, "'m": 22910, "wide": 9053, ".String": 10354, "Ġalbum": 2367, "Ġencontr": 99335, "Events": 12162, ".ui": 16937, "meta": 8854, "Ġadapt": 8642, "Ġwarrant": 16302, "Doc": 13003, "Ġtemps": 28754, "/core": 11191, "Scale": 14084, "Ġedge": 2678, "Ġhimself": 1933, "Iter": 31522, "iku": 25334, "Ãĥ": 19854, "Ġkor": 68398, "Ġthank": 2453, "Err": 15678, "park": 13773, "rench": 35318, "Ġdurante": 78039, "Ġschools": 2099, "Ġscene": 2512, "Ġbonus": 5446, "Ã¡m": 75797, "ĠWhe": 32268, "ÃŃcul": 126064, "isen": 22007, "modal": 10988, "uminate": 83363, "Schema": 12112, "asil": 41332, "Ġä¸": 14595, "Ġelectric": 3904, ".Ex": 21004, "ĠåĲ": 47395, "ĠÊ»": 96379, "Ġknew": 1803, "Close": 11700, "Ġole": 38041, "Ġincreased": 2224, "draw": 7640, "Ġopportunities": 2154, "Ġsector": 2897, "\")čĊ": 128606, "_cl": 22744, "Don": 4819, "Ġnak": 60047, "Ġingred": 100819, "Ġdialog": 10289, "Ġwind": 3185, "')->": 9622, "Ġvid": 36477, "ĠFranc": 29740, "ĠNetwork": 4304, "Ac": 14779, "Ġscience": 2662, "Ġcompared": 2085, "uir": 36917, "Ġstudies": 2888, "Ġspent": 1914, "earn": 30757, "Ġfarm": 4375, "rian": 18582, "ĠCamp": 8195, "oid": 13296, "Ġea": 47265, "arde": 28987, "Ġeat": 1902, "Ġalone": 2017, "á»Ľi": 101377, "#Ċ": 6343, "Ġ/>": 5458, "Ġcells": 3337, "unning": 21592, "Ġbroad": 5901, "Ġscient": 88474, "ĠSon": 8044, "ĠManagement": 2927, "Constants": 17033, "inct": 15555, "wd": 15032, "tegr": 36560, "ulture": 25223, ".prototype": 11436, "Ġvisual": 3972, "Ġbot": 8994, "verter": 50287, "Ġoffering": 2513, "oven": 26645, "-T": 4880, ".common": 12669, "Ġmejor": 82723, "HP": 11733, "Ġcro": 9594, "ĠRest": 13596, "Mar": 6014, "Ġteams": 1626, "ĠLocal": 5547, "ĠFore": 19891, "Ġfans": 1839, "ĠAtt": 10787, "Job": 9537, "Ġpad": 9746, "Ġwo": 23658, "Ġlibrary": 2557, "help": 9291, "Ġ'#": 13222, "Ġrace": 1959, "Ġ:ĊĊ": 39153, "Timeout": 11441, "primary": 24778, "ania": 16479, "ĠmÃ©": 85503, "upload": 22466, "Ġincreasing": 3354, "æ¼": 54142, "_dict": 8865, "Ġzich": 96325, "Ġannounced": 1632, "Ġmand": 25201, "aming": 7568, "Je": 27432, "ĠBE": 8160, "Ġgradu": 83605, "AIL": 31502, "ĠCustom": 9535, "ĠStar": 3299, ".[": 22929, "Ġmac": 8340, "Ġfigure": 2011, "Ġbrought": 1974, "Cre": 35747, "imestamp": 76797, "ĠIM": 8805, "Ġsul": 35923, "ĠKr": 8481, "Logger": 12352, "Ġtxt": 25513, ".Se": 47500, "adora": 68880, "Ġeconomic": 2372, "ĠÃºlt": 126218, "/g": 4390, "amen": 23935, "Ġcuando": 72494, "Ġvast": 6555, "Ġattract": 6894, "Ġbeach": 3516, "asket": 48392, "ç¼": 18454, "izi": 49809, "ĠOK": 5067, "Ġwet": 5478, "ayload": 72606, "ĠLine": 6048, ".example": 22542, "isset": 20318, "Ġrooms": 3448, "ĠCam": 7722, "Ġ(_": 12719, "Ġ\"#": 13820, "isis": 50580, "itet": 15738, "Ġile": 61105, "care": 14192, "Progress": 13634, "instance": 13736, "ĠOffice": 2688, "ĠPaul": 2734, "Ġgoals": 1721, "Ġincl": 31784, ".button": 27453, "send": 11173, "Les": 24462, "Member": 11515, "structions": 39960, "ĠYes": 2657, "enas": 51262, "Ġapi": 8864, "endant": 31335, "Ġpull": 2699, "chor": 65908, ".post": 12904, "Ġpolic": 31566, "lished": 106976, "Ġbh": 32393, "_node": 9721, "ahi": 25304, "Ġwire": 5790, "Ġlok": 74172, "Na": 18246, "888": 14871, "âĢĻa": 61371, "Ġspread": 2928, "Ġoffic": 79064, "ĠConsole": 13036, "inta": 51988, "ĠWell": 2619, "iliar": 66236, "!=": 20193, "Ġidentify": 3105, "ians": 5222, "Ġoccur": 4734, "-center": 12334, "Ġcoff": 22037, "ega": 25343, "Ġ{}Ċ": 10215, "Ġrelax": 7350, "Ġlisten": 3199, "Ġmur": 25220, "Ġraw": 4299, "Ġresp": 16529, "yk": 20106, "Parse": 18141, "Ġdetermine": 2576, "Ġenable": 3504, ".fr": 40082, "ĠJah": 58180, "Find": 4800, "Ġfel": 23934, "licit": 26355, "Ã¼nd": 86058, "105": 6585, "..ĊĊ": 37584, "Ġgirls": 2824, "Related": 10797, ".As": 32511, "ĠPR": 3777, "Ġshoot": 5266, "áº¥t": 100040, "Ġelle": 71538, "ĠQual": 28283, "Ġloop": 4576, "Ġharm": 7191, "oded": 20478, "ersistence": 73146, "ĠGlobal": 4404, "olve": 44085, "enance": 39389, "];": 16359, "Enc": 31640, "à¬Ķ": 126328, "Ġ)ĊĊ": 9203, "Ġestr": 46099, "Inst": 27266, "ĠLin": 12158, "roke": 27121, "Ġll": 24274, "Host": 9137, "Perm": 25788, "handle": 14246, "Free": 7316, "SET": 11704, "Ġnamed": 2113, "Ġwax": 12689, ".time": 14860, "omin": 19361, "ugg": 14341, "nya": 64614, "Ġihr": 86561, "DO": 10057, "Ġtesting": 2219, "Ġmist": 16660, "conds": 56437, "Seg": 44363, "ej": 36623, "kit": 15181, "_config": 8998, "Ġ$(\"#": 14204, "/f": 4823, "ĠAT": 5801, "Ġster": 64917, "aughter": 20845, "ĠDownload": 7339, "Ġsurv": 48033, ".un": 17871, "uture": 42753, "Ãºs": 87360, "Ġsar": 25619, "Ġfamilies": 2174, "_length": 11350, "iciÃ³n": 91353, "ython": 18238, "apon": 59443, "ĠDB": 7338, "ĠIk": 37531, "Ġdiscount": 6119, "Ġbenefit": 2194, "anten": 65862, "Ġsources": 2786, "Ġforms": 3025, "Ġwife": 1951, "ilename": 81051, "Ġsehr": 72474, "Ġconcentr": 78480, "Ġcup": 2904, "Ġafford": 5872, "jection": 23551, "Cor": 13886, "burg": 6856, "(event": 14571, "oes": 21028, "Ġstation": 2805, "MD": 9202, "Ġpopulation": 2538, "Ġlaunch": 2629, "Ġmp": 14979, ".title": 14559, "åĻ": 16305, "frame": 9695, "tor": 21506, "STR": 13720, "Ġmont": 52183, "ĠEach": 3196, "document": 9281, "ĠJan": 3557, "olar": 16240, ".Model": 25516, "Ġdont": 4574, "Ġtempo": 29186, "¤ĳ": 51201, "ĠTrump": 2952, "Ġanc": 45917, "empo": 72789, "Ġaward": 3271, "_sub": 11175, "otor": 28426, "antic": 15440, "Ġimplied": 9153, "ĉself": 128800, "ĠWITHOUT": 10380, "erse": 59251, "(type": 16823, "Ġincome": 2373, "ijo": 54741, ")]Ċ": 8046, "Ġ[];Ċ": 13962, "ĠRoom": 7603, "Ġub": 58587, ",$": 7244, "Ġbuilder": 8124, "atively": 8598, "-line": 5999, "_EX": 24396, "Ġwear": 2332, "Ġunser": 85915, "plus": 14415, "Sort": 18064, "ÃŃm": 65430, "inese": 45627, "aller": 15694, "Ġshopping": 3193, "ashboard": 78977, "Ġbound": 5709, "Ġfather": 2231, "igital": 43485, "gin": 16251, "ĠatÃ©": 86877, "Rate": 14320, "Ġbeyond": 2306, "oyal": 55530, "Ġult": 56305, "ogy": 21307, "Ġgain": 2774, "Ġthr": 13262, "_result": 14003, "Ġcollabor": 29592, "_ERROR": 11617, "ĠSun": 4132, "Ġpowerful": 2438, "menu": 11720, "iform": 35389, "produ": 41811, "ĠGal": 7609, "Loading": 19448, "_k": 3666, "Ġburn": 6560, "Ġhighest": 2482, "Ġ'../../": 24036, "ĠGovern": 28661, "Ġbytes": 6813, "created": 14498, "Ġtent": 10511, "ĠDouble": 8779, "Ġloan": 2914, "ictions": 15571, "errors": 16915, ".serv": 75521, "Ġfactors": 2907, "Ġwurde": 66061, "iques": 40130, "Ġguys": 1779, "Ġmanage": 2486, ".draw": 26117, "Ġee": 49593, "ĠDescription": 7799, "Ġej": 69994, "Ġcalls": 2327, "Ġbesch": 90312, "win": 6964, "tmp": 10050, "Ġgebruik": 95067, "Ġmere": 14424, "ĠDev": 9840, "éļ": 24668, "itÃł": 58122, "_O": 24458, ">{": 14761, "Ġanos": 89805, ".height": 17724, "enerated": 56110, "Ġfinished": 2082, "Ġnearly": 2073, "Ġcommunication": 2816, "atr": 18407, "ĠFull": 5787, "ĠĠĊĊ": 114319, "Ġmemb": 85385, "_PRO": 33702, "ĉr": 128378, "Ġtalking": 1725, "reh": 58854, "Ġtraff": 51871, "Ġcmd": 10381, "reme": 28560, "Ġimmer": 80971, "Ġthanks": 1826, "ickets": 40624, "Ġscript": 3108, "ĠLife": 3195, "Ġreasons": 2123, "Ġevidence": 2360, "LIC": 47370, "_table": 10156, "Ġrecords": 2924, "Ġvoice": 2230, "ÃŁen": 93758, "Background": 13843, "Ġfav": 20482, "350": 5530, "Ġlack": 2397, "aal": 36047, "Ġ\".": 10959, "ificate": 88106, "heit": 65867, "_number": 12032, "Ġquando": 67622, "Ġobjects": 3308, "css": 11396, "non": 5744, "icul": 38299, "Ġmijn": 96924, "ĠgÃ¶": 101813, "Ã¤ng": 83062, "Ġfear": 3163, "Ġvil": 61373, "ndef": 63334, "terior": 71495, "igi": 29003, "Ap": 15160, "Gen": 11010, "è¢": 26388, "Ġdispon": 91003, "Layer": 12114, ".message": 15341, "redit": 56292, "Ġexport": 5956, "anned": 12767, "à¬ĸ": 18786, "Ġspect": 20639, "Ġverw": 88771, "ĠPrice": 6299, "Ġaim": 4439, "Ġguard": 5614, "'])": 14391, "Ġ\"$": 8259, "Ġnor": 4116, "Ġhundred": 6156, "itat": 48352, "(__": 12065, "Ġhasta": 83639, "arp": 16974, "OU": 21836, "ategor": 68771, "æ·": 28098, "leted": 56273, "Ġexperienced": 2660, "Ġtrial": 3438, "Ġagent": 3826, "Ġrealiz": 67369, "Ġpark": 2628, "Ġpermet": 78520, "Ġendl": 22010, "uler": 20679, "Ġrepe": 42010, "Ġiniti": 50253, "Ġged": 87448, "âĢĻune": 66783, "Ġwieder": 80415, "Ġkil": 26074, "ĠGar": 8936, "Ġmaken": 83670, "Ġtechnical": 2908, "[index": 17496, "auc": 33770, "Enum": 13614, "Ãĵ": 77504, "Ġdomain": 3569, "ĠGen": 6765, "Ġvalor": 34976, "003": 8922, "uent": 24735, "_map": 9173, "Vol": 15419, "Ġhaar": 95980, "Ġradio": 3622, "Ġå¾": 72549, "abilities": 23045, "AF": 8036, "ĠEuropean": 2364, "ĠTom": 3408, "Ġdetect": 8436, "ABILITY": 57161, "utos": 71501, "phere": 18769, "Ġweer": 88814, "Rule": 9837, "Ġsecure": 3026, "ĠEner": 54873, "global": 13984, "ometry": 24716, "fix": 12978, "session": 11024, ".Com": 21464, "commod": 55902, "Ġlif": 14497, "props": 17501, "itud": 54800, "ĠMill": 8579, "_cast": 10817, "apes": 14351, "Any": 4011, "-sh": 8272, "Cond": 36454, "pective": 29086, "ETH": 25955, "Ġcancer": 2648, ".On": 19239, ")/": 7138, "Ġdict": 9129, "Editor": 10712, "Ġprops": 10392, "Ġ{'": 9876, "ĠBox": 6742, ".max": 11997, "Ġparticularly": 2343, "ĠTexas": 2860, "ĠWashington": 2724, "success": 13447, "Ġfriendly": 3126, "ĠLook": 5839, "Ġinclus": 41787, "bin": 5079, "voice": 30863, "activity": 15879, "));": 15867, "Sk": 14826, "ĠPlus": 4322, "=\"{{": 9006, "alf": 27267, "uwe": 78160, "_for": 10451, "visor": 44598, "Ġremoved": 2868, "ĠĠĠĠčĊ": 128688, "Ġesper": 93680, "èĲ": 50256, "enen": 69328, "ĠUnivers": 42188, "103": 7388, "Ġguess": 1952, "Ġarguments": 5213, "á»ī": 101107, "ĠAccount": 7639, "Ġisso": 81880, "Ġpom": 33015, "Ġsurround": 23138, "istrict": 35010, "Ġapro": 69038, "ĠAustralia": 2272, "Ġrestaurant": 2913, "Ġjog": 37062, "Ġzelf": 99589, "___": 9759, "ĠCasino": 15693, "Ġaren": 3458, "Ġêµ": 47763, "idente": 92557, "ĠBlue": 3689, "Ġalthough": 2202, "ĠIsra": 94446, "clip": 24421, "Ġthreat": 5284, "002": 6995, ".delete": 17874, "faces": 26930, "ĠSpiel": 52011, "Ġwrote": 2157, "Ġcache": 6196, "tab": 5057, "æ¡": 22551, "iration": 43665, "ĠPay": 5800, "âĹ": 58757, "dk": 11144, "Ġimpress": 15997, "Ġearlier": 1819, "Ġagr": 44619, "Ġchurch": 2857, "chedule": 35234, "Ġonze": 99212, "Go": 5542, "Where": 3488, "contact": 18524, "aÃ§Ãµes": 80899, "Ġlit": 10876, "Ġsets": 2841, "vc": 12752, "isto": 37865, "Â¿": 45848, "zh": 15358, "-D": 4407, "rat": 22725, "LA": 8131, "ĠMont": 10563, "een": 34846, "ĠvÃµ": 109487, "ĠDat": 17979, "Ġdy": 17509, "115": 7895, "escription": 97408, "Enumer": 76997, "prite": 67635, "Ġast": 12597, "Ġvu": 57129, "ĠControl": 5032, "anted": 13662, "Ġabsolut": 77323, "Ġfetch": 10548, "endl": 18615, "aÃ°": 108639, "essor": 52739, "]['": 20181, "_j": 4100, "Ġnaj": 80974, "ĠUnity": 14363, "aq": 24479, "raints": 47042, "Ġwaiting": 2318, "Ã¼h": 90567, "ĠpÃºblic": 124949, "Ġbod": 33268, "Ġdistr": 37790, "Ġfon": 87618, "ĠPara": 32898, "Ġstrict": 7201, "Ġbra": 12146, "Note": 3621, "Ġá¹£": 114279, "(F": 10493, "ĠArg": 19152, "xml": 10997, "ols": 11789, "arse": 32977, "serve": 27756, "ders": 27229, "Ġupload": 6574, "ograf": 82442, "Ġuno": 62636, "ë£": 61386, "Cho": 72213, "_object": 9848, "ĉset": 129069, "Ġhyd": 16830, "(View": 29006, "áº¡i": 96114, "Ġpassion": 4799, "Ġseconds": 2566, "anne": 12806, "_item": 13346, "cores": 33771, "rior": 57886, "Ġlisted": 2740, "Ġremov": 62849, "IGN": 18701, "ENSE": 53687, "Ġcá»§": 125859, "Ġconnected": 2807, "orithm": 85971, "plex": 23200, "{}": 6102, "Ġoperations": 2545, "ĠOrgan": 16444, "road": 17518, "âĺħ": 43616, "Ġtemperature": 2658, "nam": 18761, "ĠCOVID": 2684, "Ġnotre": 73192, "Ġmission": 3302, "Ġacadem": 39742, "Ġcloud": 3586, "EB": 12116, "Ġschon": 87882, ")),": 11590, "ket": 19817, "Ġpartir": 66515, "uren": 45070, "Ġmomento": 80633, "ç¢": 50332, "ambda": 53627, "Ġestate": 3433, "Ġjag": 42552, "Ġboost": 3894, "ĠCare": 4874, "Ġaplic": 87589, "nis": 25181, "Ġlev": 24435, "ĠSom": 20981, "Ġmesmo": 82625, "Ġwhose": 2418, "atches": 16701, "lla": 21587, "Fin": 24681, "(k": 7960, "ĠElect": 28303, "ienen": 93938, "Ġfinding": 2510, "Ġimpos": 59406, "antity": 119323, "Ġhelping": 2402, "standing": 30049, "useum": 56783, "Ġreflect": 5405, "Connect": 13015, "Ġcv": 13493, "igu": 31617, "Ġcold": 2102, "etzt": 101207, "=False": 8875, "catch": 16241, "Ġmulti": 3098, "Ġov": 20621, "Ġcá»§a": 73204, "essions": 28331, "Ġvai": 80260, "(error": 17145, "Ġguy": 1767, "Ġchallenge": 2211, "Ġwebsites": 4039, "ookie": 22756, "stat": 15839, "Ġdirector": 2215, "ĠTerm": 17533, "Cap": 17528, "Ġwij": 93723, "Ġsb": 14401, "_out": 10709, "chi": 5265, "mu": 2330, "icted": 15385, "Ġëĵ": 59301, ".use": 17781, "ĠCD": 4872, "\\Ċ": 2164, ".object": 25270, ".User": 21602, "Ġmoved": 2071, "iele": 41189, "ĠCreat": 29373, "Loader": 12167, "Ġgenerally": 2640, "(req": 19336, "Intent": 29541, "Hi": 3056, "ensity": 23717, "lijk": 104606, "Ġsurpr": 93832, "Ġdoub": 27684, "Transform": 14097, "ĠcrÃ©": 90042, "104": 7380, "ĠReview": 3513, "Ġahead": 1931, "ĠReport": 5062, "Ġiyo": 102534, "Ġscre": 23587, "Look": 8688, "icons": 27742, "Ġfal": 26823, "chron": 64840, "Pool": 10913, "Ġgaan": 97053, "Ġopening": 2244, "Ã¶s": 72709, "Ġcontroller": 6053, "Ġcompare": 4485, "lets": 7224, "Wrapper": 12865, "ĠNote": 4297, "ĉassert": 129533, "Ġsys": 8874, "Ġexternal": 3671, "Ġgibt": 75294, "Ġati": 95640, "ibles": 17929, "NT": 11222, "];čĊ": 130176, "/t": 4890, "submit": 13932, "Ġatr": 40995, "ĠEnter": 11111, "Ġcapacity": 2909, "izable": 24985, "OUN": 32881, "profile": 16129, "ĠLast": 4142, "unte": 55192, "Ġmatrix": 4462, "-K": 7488, "ĉlog": 129089, "ĠRock": 4164, "crete": 26324, "Here": 1939, "eks": 14458, "ĠEss": 41682, "Ã¡g": 83121, "Ġapart": 4207, "Ġschedule": 2831, "\".ĊĊ": 22605, "ĠAL": 7752, "ĠSince": 2636, "Ġjeg": 87638, "áĤ": 109648, "ĠContact": 6525, "Ġmenos": 82141, "Ġdispatch": 14479, "Ġ\"Ċ": 6333, "Ġborn": 2226, "umin": 27474, ".format": 13926, "Invalid": 11890, "eless": 7234, "They": 1347, "Fields": 13548, "Ġconfiguration": 3598, "ucht": 80147, "_int": 9529, "ĠThanks": 1833, "Ġjournal": 7849, "Axis": 18571, "Ġ\"../": 19697, "ĠSimple": 8612, "lj": 52492, "¥¿": 50603, "sum": 2720, "Ġgone": 2029, "Ġnar": 44818, "ĠDiv": 14388, "ĠWater": 4010, "ĠUr": 16173, "112": 7773, "Ġud": 46589, "-mail": 6689, "ataset": 41224, "Section": 9669, "arga": 47797, "Ġposted": 2121, "Ġsexual": 4563, "IONS": 21410, "Ġprocessing": 3803, "-old": 1753, "Ġalloc": 24861, "Sm": 15930, "Ġappoint": 23291, "ĠMor": 8102, "\"].": 16492, "Ġrelevant": 2727, "Ġfactor": 3106, "Ġwild": 3891, "Ġrac": 16564, "elijke": 96101, "Ġartist": 3154, "Ġseus": 85342, "rees": 17256, "reshold": 76164, "Ġdoctor": 2999, "ĠDa": 11103, "Ġrub": 10794, "Ġcopyright": 7897, "Ġtodas": 72539, "ĠBay": 3091, "fen": 31187, "Ġannual": 2340, "Score": 9385, "cycl": 33151, ".Error": 17083, "olic": 16826, "Ġment": 25503, "allel": 74694, "MM": 9120, "ĠFrank": 6744, "Keys": 14225, "Ġgrad": 19939, "gang": 51504, "unes": 19821, "ugins": 91352, "alis": 19790, "erta": 34704, "ÃĹ": 12268, "Ġrapid": 8398, "Ids": 14041, "Ġpermit": 8241, "Ġcritical": 2763, "Ġlarger": 2359, "Ġtruth": 3200, "èĥ": 52342, "Ġmental": 3016, "Ġdus": 82109, "ĠTra": 13216, "conn": 21515, "Global": 10112, "Ġorganis": 35003, "ĠĠĠĠĠĠĠĠĠĠĠĠĠĠĠĠĠĠĠĠĠĠĠĠĠĠ": 101671, "Ġbuying": 2532, "Ġincred": 72278, "-R": 4840, "Ġuz": 69316, "alah": 51373, "device": 17247, "Ġtanto": 83408, "Ġship": 3417, "oso": 24922, "osi": 34646, "Texture": 14467, "Ġclosed": 2158, "fill": 9769, "Ġproces": 74313, "Ġlugar": 81544, "Join": 7038, "quir": 38425, "Ġsweet": 2416, "owl": 15813, "Ġzero": 3189, "))čĊ": 128665, "Ġcheap": 3722, "ioni": 62549, "Por": 43883, "Ġefficient": 3732, "ĠOl": 10240, "ingu": 30019, "]:": 4866, "Ġminute": 2650, "ĠRich": 10891, "Si": 21556, "Ġjam": 12477, "||": 3298, "USER": 27181, "ĠTor": 14066, "edy": 18040, "){": 7535, "ĠsÃŃ": 90995, "Ã¡rios": 86879, "ĠSP": 7065, "TC": 9634, "(G": 11580, "agma": 68043, "iÃ¨re": 70379, "ĠThursday": 1936, "Ġfederal": 3003, "Ġshot": 1751, "Ġreadonly": 11825, "ĠOh": 4738, "Ġinterview": 2631, ".en": 47454, "Ġhoe": 72987, "(obj": 15345, "ĠOnce": 2851, "Ġaffili": 103364, "Ġtransaction": 5065, "itness": 24863, "Ġisn't": 1483, "Alignment": 25087, "Ġemot": 57008, ".Re": 18553, "bst": 60264, "ateur": 45435, "itÃ©s": 58474, "'ai": 77886, "esa": 26236, "ĠProcess": 8740, "_en": 23410, "ĠMiss": 6034, "ĠMass": 8346, "Ġmissing": 2288, "ĠPlayer": 8659, "Many": 3425, "Ġtherap": 104695, "dt": 5626, "ĠApplication": 7285, "ĠPop": 9894, "Ġalles": 88089, "ĠRoad": 2501, "Ġtalent": 4553, "aws": 6928, "ĠJo": 8322, "ĠmÃ¥": 96100, "etail": 60683, "_input": 13203, "Ġflat": 3164, "ĠVir": 17922, "VAL": 24727, "Ġmale": 3928, "ĠBi": 8320, "->_": 17177, "RC": 7942, "/lic": 92823, "):čĊ": 126842, "ĠIde": 60930, "wei": 49477, "Ġ{{": 6797, "Ġzw": 76965, "()));Ċ": 16039, "Ġcoffee": 2325, "_from": 9763, "Ġexperiment": 6335, "Ġorders": 4336, "-item": 8000, "Ġpoor": 2609, "Did": 4940, "fon": 37000, "indo": 47452, "170": 6952, "ĠJul": 12298, "Ġcant": 8620, "pret": 43636, "Ġdistribution": 3031, "owa": 30030, "uje": 55442, "ÃŃvel": 92169, "ĠBed": 16871, "ancing": 10637, "Ġdirectory": 3884, "Ġleader": 2572, "Ġgj": 92249, "uras": 32251, "inet": 14929, "istan": 14210, "Pass": 11663, ")))Ċ": 9757, "Ġgesch": 91517, "ĠCong": 20186, "Ġrid": 4975, "Ġcrusher": 58389, "anh": 29428, "Ġhappened": 1800, "ĠGL": 9361, "ĠTuesday": 1889, "expected": 17098, "Ġels": 68695, "Ġlose": 2316, "ĠHead": 5036, "Ġadvantage": 2625, "SM": 7764, "Customer": 14777, "Ġ-=": 16346, "Ġpeace": 3649, "ĠSpecial": 5535, "ĠWhy": 2170, "ĠExper": 42384, "ibi": 27239, "Ġwelcome": 2781, "cion": 66920, "osta": 33095, "cias": 91913, "Ġbeste": 97122, "Ġmad": 8678, "ĠPeople": 2898, "ĠStore": 5409, "osh": 8091, "Å¼e": 99246, "Ġunless": 2642, "comment": 10675, "ĠChristian": 4041, "article": 11360, "Ġanaly": 73640, "validate": 18996, "ĠvÉĻ": 113452, "Ã¨res": 59637, "ĠMA": 9681, "Ġdoen": 91142, "ï¼ļĊĊ": 37982, "avascript": 66467, "Ġ\");Ċ": 23604, "åĸ": 44386, "Ġdari": 62778, "ĠFinal": 8835, "Ġnegative": 2241, "PUT": 35345, "Ġhelped": 2153, "Ġequal": 3020, ".check": 16311, "lf": 18270, "Expression": 10348, "Ġfees": 3888, "osis": 11114, "Ġeuro": 18661, "Ġjest": 27101, "shared": 15613, "cludes": 49794, "Func": 13094, "aram": 23986, "Ġattr": 16037, "Ġslight": 9351, "Ġscope": 4971, "Ġ...Ċ": 1759, "Ġjourney": 2635, "Ġsplit": 3889, "ĠParis": 5071, "-x": 8700, "Selection": 15154, "insi": 85460, "ipt": 23879, "èĻ": 39413, "ĠBon": 11837, "Struct": 19700, "Ġfollowed": 2267, "Ġ'.": 12754, "Ġupdates": 3158, "High": 8654, "Ġtri": 17115, "Ġinstanceof": 14395, "Ġhomes": 2921, "Elements": 14550, "rÃ¡": 86367, "Ä±l": 81861, "Ġadding": 2037, "ENG": 40556, "(url": 15701, "Ġintr": 12496, "Ġgrat": 31489, "Radius": 23874, "icious": 19259, "ï¿£": 109222, "ĠviÃ°": 101839, "Ġwerk": 88313, "HA": 7266, "Lat": 31643, "ĠJames": 2601, "arten": 39813, "íı": 66507, "ĠPo": 9070, "ĠCommunity": 3551, "Ġinner": 5142,
[...]
